<unk>	0
<s>	0
</s>	0
[PAD]	0
[UNK]	0
[CLS]	0
[SEP]	0
[MASK]	0
[BOS]	0
[EOS]	0
▁이	-0
▁에	-1
▁.	-2
▁다	-3
▁의	-4
▁는	-5
▁,	-6
▁을	-7
▁하	-8
▁은	-9
▁가	-10
▁고	-11
▁를	-12
▁1	-13
▁한	-14
▁으	-15
▁로	-16
▁년	-17
▁으로	-18
▁있	-19
▁에서	-20
▁지	-21
▁되	-22
▁대	-23
▁기	-24
▁2	-25
▁었	-26
▁그	-27
▁인	-28
▁사	-29
▁도	-30
▁일	-31
▁시	-32
▁과	-33
▁들	-34
▁아	-35
▁했	-36
▁수	-37
▁어	-38
▁였	-39
▁적	-40
▁전	-41
▁여	-42
▁와	-43
▁자	-44
▁부	-45
▁월	-46
▁라	-47
▁19	-48
▁정	-49
▁20	-50
▁제	-51
▁주	-52
▁중	-53
▁해	-54
▁위	-55
▁게	-56
▁보	-57
▁된	-58
▁것	-59
▁공	-60
▁나	-61
▁세	-62
▁경	-63
▁개	-64
▁"	-65
▁유	-66
▁조	-67
▁3	-68
▁한다	-69
▁등	-70
▁만	-71
▁성	-72
▁연	-73
▁동	-74
▁선	-75
▁상	-76
▁마	-77
▁모	-78
▁스	-79
▁면	-80
▁오	-81
▁서	-82
▁소	-83
▁'	-84
▁비	-85
▁발	-86
▁미	-87
▁구	-88
▁며	-89
▁영	-90
▁국	-91
▁때	-92
▁후	-93
▁4	-94
▁관	-95
▁신	-96
▁할	-97
▁던	-98
▁명	-99
▁장	-100
▁5	-101
▁거	-102
▁200	-103
▁201	-104
▁교	-105
▁방	-106
▁당	-107
▁프	-108
▁차	-109
▁계	-110
▁문	-111
▁무	-112
▁내	-113
▁않	-114
▁바	-115
▁원	-116
▁통	-117
▁진	-118
▁았	-119
▁또	-120
▁-	-121
▁우	-122
▁에게	-123
▁역	-124
▁받	-125
▁군	-126
▁분	-127
▁결	-128
▁생	-129
▁노	-130
▁까	-131
▁불	-132
▁남	-133
▁화	-134
▁현	-135
▁리	-136
▁함	-137
▁6	-138
▁까지	-139
▁포	-140
▁대한	-141
▁강	-142
▁작	-143
▁된다	-144
▁으며	-145
▁최	-146
▁같	-147
▁반	-148
▁지만	-149
▁출	-150
▁단	-151
▁학	-152
▁파	-153
▁실	-154
▁번	-155
▁10	-156
▁없	-157
▁7	-158
▁8	-159
▁형	-160
▁따	-161
▁두	-162
▁알	-163
▁말	-164
▁회	-165
▁라고	-166
▁안	-167
▁재	-168
▁예	-169
▁호	-170
▁·	-171
▁라는	-172
▁이후	-173
▁사용	-174
▁부터	-175
▁《	-176
▁면서	-177
▁》	-178
▁데	-179
▁는데	-180
▁요	-181
▁초	-182
▁9	-183
▁종	-184
▁타	-185
▁특	-186
▁설	-187
▁배	-188
▁독	-189
▁운	-190
▁처	-191
▁권	-192
▁카	-193
▁음	-194
▁많	-195
▁왕	-196
▁일본	-197
으며	-198
▁더	-199
▁추	-200
▁간	-201
▁입	-202
▁행	-203
▁활	-204
▁건	-205
▁산	-206
▁평	-207
▁다고	-208
▁양	-209
▁감	-210
▁매	-211
▁승	-212
▁미국	-213
▁18	-214
▁임	-215
▁그리	-216
▁김	-217
▁때문	-218
▁민	-219
▁위해	-220
▁태	-221
▁본	-222
▁12	-223
▁피	-224
▁그러	-225
▁크	-226
▁열	-227
▁199	-228
▁레	-229
▁참	-230
or	-231
▁집	-232
▁시작	-233
▁지역	-234
▁코	-235
▁대학	-236
▁베	-237
▁변	-238
▁물	-239
▁경기	-240
▁각	-241
▁표	-242
00	-243
▁달	-244
▁직	-245
▁또한	-246
▁따라	-247
▁외	-248
▁점	-249
▁총	-250
▁법	-251
▁올	-252
▁사람	-253
▁천	-254
▁다른	-255
▁및	-256
▁북	-257
▁체	-258
▁함께	-259
▁11	-260
la	-261
▁프로	-262
리아	-263
▁자신	-264
▁속	-265
▁목	-266
▁경우	-267
▁드	-268
▁야	-269
▁f	-270
스트	-271
▁항	-272
▁저	-273
▁새	-274
▁그러나	-275
▁약	-276
▁판	-277
▁투	-278
▁팀	-279
▁다는	-280
▁_	-281
▁토	-282
▁사이	-283
▁당시	-284
▁S	-285
▁세계	-286
▁메	-287
▁기록	-288
▁for	-289
▁트	-290
mu	-291
▁치	-292
▁편	-293
▁뒤	-294
▁복	-295
▁한국	-296
▁박	-297
▁확	-298
▁버	-299
▁다음	-300
mula	-301
▁formula	-302
▁가지	-303
▁가장	-304
▁이나	-305
▁용	-306
▁조선	-307
▁청	-308
▁존	-309
▁A	-310
▁이름	-311
▁광	-312
▁하나	-313
▁살	-314
▁못	-315
▁현재	-316
민국	-317
▁합	-318
▁15	-319
▁필	-320
▁의해	-321
▁국가	-322
▁C	-323
▁M	-324
▁198	-325
시아	-326
주의	-327
▁그리고	-328
으나	-329
▁삼	-330
▁브	-331
▁근	-332
▁활동	-333
▁증	-334
부터	-335
▁심	-336
▁네	-337
▁병	-338
▁루	-339
▁언	-340
▁디	-341
▁16	-342
▁대한민국	-343
▁철	-344
▁돌	-345
▁통해	-346
▁백	-347
▁금	-348
▁다시	-349
▁선수	-350
▁F	-351
▁식	-352
▁‘	-353
▁규	-354
▁T	-355
▁창	-356
▁’	-357
▁째	-358
▁아니	-359
▁프랑	-360
▁플	-361
▁연구	-362
▁쓰	-363
▁만들	-364
▁황	-365
▁테	-366
레이	-367
▁대해	-368
▁패	-369
▁보다	-370
▁17	-371
▁대표	-372
▁:	-373
▁완	-374
▁순	-375
▁사회	-376
▁높	-377
▁리그	-378
▁또는	-379
▁첫	-380
▁는다	-381
▁페	-382
▁축	-383
▁m	-384
▁정부	-385
▁여러	-386
▁시대	-387
▁으나	-388
▁죽	-389
▁다가	-390
▁충	-391
▁시즌	-392
▁로서	-393
▁채	-394
▁전쟁	-395
▁러	-396
▁독일	-397
▁197	-398
▁프랑스	-399
▁0	-400
▁협	-401
▁친	-402
▁영국	-403
▁큰	-404
▁애	-405
▁D	-406
▁니	-407
▁중국	-408
▁모두	-409
▁위치	-410
▁취	-411
▁문제	-412
▁포함	-413
▁모든	-414
▁영화	-415
▁클	-416
▁히	-417
▁가능	-418
▁별	-419
▁손	-420
▁14	-421
▁B	-422
▁학교	-423
▁이상	-424
▁동안	-425
▁194	-426
▁196	-427
▁준	-428
▁처음	-429
▁서울	-430
▁온	-431
▁끝	-432
▁/	-433
▁도시	-434
▁이루	-435
▁길	-436
▁위원	-437
▁이용	-438
▁정치	-439
▁13	-440
▁일부	-441
랜드	-442
▁키	-443
▁될	-444
▁환	-445
▁즉	-446
▁I	-447
▁려	-448
▁허	-449
▁주장	-450
▁존재	-451
▁시간	-452
▁곡	-453
▁위한	-454
▁엔	-455
▁세기	-456
▁논	-457
▁~	-458
▁알려	-459
▁개발	-460
▁구성	-461
▁정도	-462
▁검	-463
▁일반	-464
▁아이	-465
▁석	-466
▁]	-467
▁였으며	-468
▁이러	-469
▁%	-470
▁[	-471
▁날	-472
▁폭	-473
▁운동	-474
▁나타	-475
▁앞	-476
▁골	-477
▁관계	-478
▁맞	-479
▁씨	-480
▁P	-481
er	-482
▁중심	-483
▁대학교	-484
▁걸	-485
▁급	-486
▁k	-487
▁K	-488
▁새로	-489
▁거나	-490
▁볼	-491
▁문화	-492
▁사건	-493
▁곳	-494
▁대회	-495
▁발표	-496
▁공격	-497
▁시키	-498
▁들어	-499
▁역사	-500
부분	-501
▁측	-502
▁맡	-503
▁작품	-504
▁귀	-505
▁도록	-506
▁교육	-507
▁농	-508
▁절	-509
▁뉴	-510
▁아들	-511
▁극	-512
▁195	-513
▁지방	-514
통령	-515
▁전투	-516
▁향	-517
▁캐	-518
▁로부터	-519
▁줄	-520
▁〈	-521
▁책	-522
▁〉	-523
▁막	-524
지만	-525
▁질	-526
▁밝	-527
▁갖	-528
▁방송	-529
▁잘	-530
▁게임	-531
▁담	-532
▁감독	-533
학교	-534
▁대부분	-535
▁밀	-536
▁접	-537
▁L	-538
▁30	-539
▁효	-540
in	-541
▁기술	-542
▁육	-543
▁얻	-544
▁했으며	-545
▁음악	-546
▁“	-547
▁잡	-548
▁영향	-549
▁국제	-550
▁발견	-551
▁케	-552
▁”	-553
▁경제	-554
▁대통령	-555
▁결과	-556
▁하지만	-557
▁봉	-558
▁암	-559
▁누	-560
▁>	-561
니아	-562
▁193	-563
▁G	-564
라이	-565
▁섬	-566
▁<	-567
▁최초	-568
▁어서	-569
▁터	-570
▁지원	-571
▁부분	-572
▁글	-573
▁같이	-574
▁과정	-575
버지	-576
▁탄	-577
▁생각	-578
▁R	-579
▁사실	-580
▁결정	-581
▁쿠	-582
▁우승	-583
▁상태	-584
▁제작	-585
▁홍	-586
▁독립	-587
▁그녀	-588
▁N	-589
▁이것	-590
▁갈	-591
▁앨	-592
▁발생	-593
▁특히	-594
▁민주	-595
000	-596
▁침	-597
▁U	-598
▁티	-599
▁머	-600
▁일어	-601
▁커	-602
▁관련	-603
므로	-604
나라	-605
▁자유	-606
▁좋	-607
▁으로서	-608
▁제국	-609
▁좌	-610
▁업	-611
▁형태	-612
▁유럽	-613
on	-614
▁됐	-615
▁계속	-616
▁새로운	-617
▁헤	-618
리스	-619
▁의미	-620
▁진행	-621
이스	-622
▁다양	-623
▁필요	-624
▁블	-625
▁난	-626
▁인해	-627
▁나라	-628
▁탈	-629
란드	-630
▁이전	-631
▁사망	-632
▁중앙	-633
▁E	-634
▁악	-635
▁조직	-636
▁192	-637
▁범	-638
▁벌	-639
▁설치	-640
▁폐	-641
an	-642
▁2010	-643
▁슈	-644
▁참여	-645
▁로마	-646
▁태어	-647
▁러시아	-648
▁25	-649
▁c	-650
▁중요	-651
▁2008	-652
▁송	-653
▁해서	-654
▁상대	-655
▁계획	-656
▁혼	-657
▁H	-658
▁라이	-659
▁윤	-660
▁매우	-661
▁성공	-662
▁km	-663
▁축구	-664
▁뿐	-665
▁프로그	-666
▁넘	-667
화국	-668
▁몇	-669
▁아버지	-670
▁고려	-671
어진	-672
▁구조	-673
▁등장	-674
▁100	-675
▁2009	-676
▁자리	-677
▁찾	-678
▁돌아	-679
▁주로	-680
▁뜻	-681
▁한편	-682
▁191	-683
▁결국	-684
▁발매	-685
▁란	-686
▁여성	-687
▁방법	-688
▁센	-689
리카	-690
▁2011	-691
▁처럼	-692
▁W	-693
▁따르	-694
▁설립	-695
▁선거	-696
우스	-697
▁운영	-698
▁생산	-699
▁21	-700
▁못하	-701
▁2007	-702
▁헌	-703
▁발전	-704
▁억	-705
▁기관	-706
▁였으나	-707
▁2012	-708
▁이탈	-709
▁팔	-710
▁타이	-711
▁위원회	-712
▁이유	-713
▁최고	-714
▁내용	-715
▁앨범	-716
▁폴	-717
▁능	-718
▁국민	-719
▁출신	-720
▁힘	-721
▁정보	-722
▁과학	-723
▁스타	-724
▁시스	-725
▁고등	-726
▁빠	-727
▁졌	-728
▁아래	-729
▁많이	-730
▁전체	-731
▁둘	-732
▁보이	-733
▁주요	-734
▁차지	-735
▁해당	-736
▁사업	-737
▁격	-738
▁대전	-739
▁그리스	-740
▁생활	-741
▁반대	-742
▁묘	-743
▁관리	-744
▁떠	-745
르크	-746
프트	-747
▁2014	-748
▁층	-749
▁이어	-750
디오	-751
▁프로그램	-752
▁소속	-753
▁군사	-754
▁으로써	-755
▁공식	-756
▁민족	-757
▁인간	-758
▁표현	-759
▁2013	-760
▁참가	-761
▁승리	-762
▁방식	-763
▁지정	-764
리즈	-765
▁얼	-766
▁따라서	-767
▁떨	-768
운데	-769
▁연합	-770
▁역할	-771
▁대신	-772
▁000	-773
▁르	-774
▁이탈리아	-775
▁초기	-776
▁풍	-777
▁콘	-778
▁해야	-779
▁시켰	-780
he	-781
▁싱	-782
▁여기	-783
▁2006	-784
▁시기	-785
이트	-786
▁밖	-787
▁가운데	-788
▁회사	-789
▁놓	-790
▁모습	-791
▁각각	-792
▁우리	-793
▁느	-794
▁제공	-795
▁몸	-796
▁이미	-797
▁인민	-798
▁시스템	-799
▁유명	-800
▁색	-801
▁거의	-802
▁으로부터	-803
▁이르	-804
▁22	-805
▁교회	-806
▁컴	-807
▁24	-808
▁평가	-809
▁빌	-810
▁유지	-811
▁23	-812
▁올림	-813
▁인정	-814
▁임명	-815
▁시리즈	-816
▁쇼	-817
▁인구	-818
▁인터	-819
▁붙	-820
▁잠	-821
▁조사	-822
▁후보	-823
▁칼	-824
▁데이	-825
▁동시	-826
en	-827
▁기능	-828
ar	-829
이션	-830
▁마지	-831
▁몰	-832
▁데뷔	-833
스터	-834
▁대상	-835
▁O	-836
▁졸	-837
▁기준	-838
▁t	-839
▁지구	-840
한다	-841
▁제도	-842
▁상황	-843
▁홈	-844
▁했으나	-845
▁월드	-846
▁퍼	-847
▁규모	-848
▁행정	-849
▁2015	-850
▁왔	-851
▁정의	-852
▁직접	-853
▁노동	-854
▁이론	-855
▁계약	-856
▁불리	-857
▁먼	-858
▁마지막	-859
▁레이	-860
▁출전	-861
▁기간	-862
▁연결	-863
▁눈	-864
머니	-865
▁서로	-866
인다	-867
▁핵	-868
레스	-869
▁으면	-870
▁추가	-871
▁지도	-872
▁항공	-873
▁공간	-874
▁특별	-875
▁정책	-876
▁현대	-877
FA	-878
▁역시	-879
▁단체	-880
▁수상	-881
▁가진	-882
▁먹	-883
▁스페	-884
▁진출	-885
▁응	-886
▁사상	-887
▁개인	-888
▁수도	-889
▁철도	-890
▁이야	-891
▁자연	-892
▁압	-893
▁올림픽	-894
▁변화	-895
▁그것	-896
▁2016	-897
▁언어	-898
▁긴	-899
▁목적	-900
▁건설	-901
▁녹	-902
비아	-903
▁겠	-904
▁훈	-905
▁26	-906
▁J	-907
▁마이	-908
▁바이	-909
▁건물	-910
▁결혼	-911
▁그룹	-912
▁플레이	-913
▁인도	-914
▁2005	-915
▁보여	-916
▁요구	-917
▁엘	-918
▁의원	-919
▁완전	-920
▁활약	-921
▁의하	-922
▁실제	-923
▁분류	-924
▁이야기	-925
▁뛰	-926
▁2000	-927
▁혁	-928
▁자동	-929
▁졸업	-930
▁비롯	-931
▁기업	-932
비스	-933
▁28	-934
▁희	-935
es	-936
▁망	-937
▁시절	-938
▁지금	-939
▁세력	-940
대로	-941
▁「	-942
▁27	-943
▁워	-944
▁학생	-945
▁형성	-946
▁열린	-947
▁」	-948
▁견	-949
▁여자	-950
▁기본	-951
▁공개	-952
▁전문	-953
▁변경	-954
▁s	-955
▁기원	-956
▁경찰	-957
▁알려져	-958
▁없이	-959
▁부르	-960
▁딸	-961
▁일으	-962
▁낮	-963
▁공동	-964
▁50	-965
▁190	-966
▁보통	-967
▁습	-968
al	-969
▁인물	-970
▁궁	-971
▁교수	-972
학자	-973
▁시장	-974
▁V	-975
▁탑	-976
▁프리	-977
▁2004	-978
▁어떤	-979
▁산업	-980
▁너	-981
▁대해서	-982
▁비판	-983
▁자기	-984
▁출연	-985
at	-986
▁나이	-987
▁지지	-988
▁한다는	-989
▁달리	-990
▁거리	-991
▁족	-992
▁싸	-993
▁못했	-994
▁거쳐	-995
▁소련	-996
▁우주	-997
▁황제	-998
른다	-999
▁류	-1000
▁울	-1001
▁칸	-1002
▁원래	-1003
▁이때	-1004
▁최대	-1005
▁빈	-1006
▁2017	-1007
▁교황	-1008
▁슬	-1009
▁관한	-1010
▁실시	-1011
▁노래	-1012
▁혹	-1013
▁고등학교	-1014
▁아르	-1015
▁브라	-1016
▁퇴	-1017
▁모델	-1018
▁아닌	-1019
▁야구	-1020
스크	-1021
▁마을	-1022
▁노선	-1023
▁차이	-1024
▁도입	-1025
▁!	-1026
ic	-1027
▁운행	-1028
▁29	-1029
▁그래	-1030
▁태어났	-1031
▁종교	-1032
▁모양	-1033
▁판매	-1034
▁웨	-1035
▁오스트	-1036
▁음반	-1037
▁엄	-1038
이지	-1039
▁의한	-1040
▁부대	-1041
운드	-1042
남도	-1043
▁바로	-1044
▁개최	-1045
▁만든	-1046
▁보호	-1047
니다	-1048
▁휴	-1049
▁회의	-1050
▁스페인	-1051
▁군대	-1052
▁겸	-1053
▁b	-1054
린다	-1055
▁므로	-1056
▁수행	-1057
▁지휘	-1058
▁옮	-1059
어지	-1060
▁나오	-1061
▁이동	-1062
▁비슷	-1063
▁설명	-1064
▁밴	-1065
▁2018	-1066
▁자료	-1067
▁지나	-1068
▁공연	-1069
르트	-1070
▁전통	-1071
▁어머니	-1072
▁지배	-1073
▁탐	-1074
▁열차	-1075
▁샤	-1076
▁론	-1077
▁숙	-1078
▁보내	-1079
▁행위	-1080
▁차량	-1081
▁능력	-1082
▁작업	-1083
▁기존	-1084
▁특징	-1085
진다	-1086
▁전자	-1087
너지	-1088
▁지하	-1089
▁서비스	-1090
▁푸	-1091
▁기반	-1092
▁전기	-1093
▁이끌	-1094
▁형식	-1095
▁득	-1096
▁기독	-1097
어져	-1098
▁선정	-1099
▁곧	-1100
▁공화국	-1101
▁사랑	-1102
▁소설	-1103
▁40	-1104
▁방향	-1105
▁제외	-1106
▁31	-1107
▁전국	-1108
▁2002	-1109
▁환경	-1110
it	-1111
▁의회	-1112
▁분야	-1113
▁벨	-1114
▁피해	-1115
▁작용	-1116
▁배우	-1117
▁착	-1118
▁풀	-1119
▁명칭	-1120
▁확인	-1121
▁연방	-1122
▁콜	-1123
▁행동	-1124
▁마다	-1125
▁위하	-1126
▁시켜	-1127
▁다이	-1128
▁컴퓨	-1129
▁2003	-1130
▁이라	-1131
▁국내	-1132
▁기념	-1133
▁주변	-1134
▁기독교	-1135
▁싱글	-1136
▁증가	-1137
▁나가	-1138
▁한다고	-1139
is	-1140
▁맥	-1141
▁흐	-1142
▁옥	-1143
▁비교	-1144
▁적용	-1145
▁위해서	-1146
로스	-1147
ou	-1148
라마	-1149
▁넣	-1150
▁염	-1151
▁차례	-1152
▁실패	-1153
▁인기	-1154
▁혁명	-1155
▁국회	-1156
▁FC	-1157
▁효과	-1158
▁남쪽	-1159
▁혹은	-1160
▁쪽	-1161
▁부산	-1162
▁이런	-1163
▁출시	-1164
▁통합	-1165
이드	-1166
▁이적	-1167
▁대하	-1168
▁과거	-1169
▁북쪽	-1170
▁도쿄	-1171
▁조건	-1172
▁어느	-1173
▁늘	-1174
▁소프트	-1175
▁높이	-1176
▁담당	-1177
▁뮤	-1178
▁낙	-1179
▁시설	-1180
▁에너지	-1181
▁가족	-1182
▁가까	-1183
▁흔	-1184
▁체제	-1185
▁컴퓨터	-1186
▁월드컵	-1187
▁물리	-1188
▁마음	-1189
▁크기	-1190
프리카	-1191
▁넓	-1192
▁역임	-1193
▁십	-1194
▁189	-1195
▁잉	-1196
▁상당	-1197
▁유일	-1198
▁개념	-1199
▁예정	-1200
▁예술	-1201
▁사고	-1202
▁공산	-1203
▁움	-1204
▁흥	-1205
▁올라	-1206
▁속도	-1207
▁공사	-1208
▁시민	-1209
▁자체	-1210
▁갑	-1211
▁동물	-1212
▁기타	-1213
re	-1214
▁선언	-1215
▁이사	-1216
▁교통	-1217
▁다르	-1218
▁징	-1219
▁경상	-1220
▁애니	-1221
▁TV	-1222
▁》,	-1223
▁왕국	-1224
▁오늘	-1225
▁밴드	-1226
▁당하	-1227
▁종류	-1228
가지	-1229
▁조약	-1230
▁일어나	-1231
▁태양	-1232
▁연기	-1233
▁동일	-1234
▁더욱	-1235
▁명령	-1236
▁잔	-1237
▁작전	-1238
▁땅	-1239
▁내부	-1240
▁연속	-1241
▁선택	-1242
▁장관	-1243
▁추정	-1244
▁문학	-1245
▁부족	-1246
▁어린	-1247
▁돈	-1248
▁육군	-1249
▁남부	-1250
▁버전	-1251
▁)	-1252
북도	-1253
▁규정	-1254
▁밝혔	-1255
스탄	-1256
▁품	-1257
▁드라마	-1258
▁시킨	-1259
▁클럽	-1260
▁왜	-1261
▁성장	-1262
▁챔	-1263
▁대사	-1264
▁내려	-1265
▁구간	-1266
▁cm	-1267
▁해군	-1268
▁1990	-1269
▁는지	-1270
▁함수	-1271
스타	-1272
렇게	-1273
▁배치	-1274
▁데이터	-1275
▁맺	-1276
▁수록	-1277
자리	-1278
▁획	-1279
▁정당	-1280
▁칭	-1281
▁최근	-1282
▁현상	-1283
▁물질	-1284
▁대체	-1285
▁부상	-1286
▁관심	-1287
▁보인다	-1288
▁씩	-1289
▁개혁	-1290
▁작가	-1291
▁동쪽	-1292
▁팬	-1293
▁어야	-1294
▁선발	-1295
▁고대	-1296
리오	-1297
▁멤	-1298
▁2001	-1299
le	-1300
▁평균	-1301
▁어려	-1302
▁연대	-1303
▁흑	-1304
▁강화	-1305
▁려고	-1306
▁걸쳐	-1307
▁지냈	-1308
▁단계	-1309
▁작곡	-1310
아들	-1311
▁찬	-1312
▁친구	-1313
▁뛰어	-1314
▁점령	-1315
▁인민공	-1316
▁건축	-1317
▁최종	-1318
▁센터	-1319
▁뉴욕	-1320
▁디자	-1321
▁선출	-1322
▁인민공화국	-1323
▁맨	-1324
▁윈	-1325
▁들어가	-1326
▁헌법	-1327
▁초등	-1328
▁FI	-1329
▁챔피	-1330
▁승강	-1331
▁정신	-1332
▁특정	-1333
▁서쪽	-1334
나다	-1335
▁세포	-1336
▁척	-1337
▁잃	-1338
▁X	-1339
▁컨	-1340
▁의사	-1341
▁가문	-1342
▁설계	-1343
▁머리	-1344
▁통일	-1345
▁반응	-1346
▁익	-1347
▁율	-1348
▁처리	-1349
▁후반	-1350
▁다면	-1351
▁중화	-1352
▁런	-1353
BS	-1354
▁버스	-1355
▁비행	-1356
▁재판	-1357
▁곤	-1358
▁덕	-1359
▁장군	-1360
▁휘	-1361
▁액	-1362
▁쌍	-1363
▁인지	-1364
▁이해	-1365
▁몽	-1366
▁목표	-1367
▁듯	-1368
웨어	-1369
▁달러	-1370
▁영어	-1371
▁결승	-1372
▁개월	-1373
▁사단	-1374
▁실험	-1375
▁가리	-1376
▁고자	-1377
▁편성	-1378
▁법원	-1379
▁갔	-1380
▁조정	-1381
▁도움	-1382
▁정권	-1383
▁멤버	-1384
▁확장	-1385
메이션	-1386
▁비해	-1387
▁남자	-1388
▁북한	-1389
▁지명	-1390
▁가수	-1391
▁도로	-1392
▁솔	-1393
▁신라	-1394
▁시도	-1395
거리	-1396
▁연주	-1397
▁불구	-1398
▁나타나	-1399
▁조지	-1400
▁겨	-1401
▁엔진	-1402
▁홀	-1403
▁원자	-1404
▁장치	-1405
▁요소	-1406
▁부문	-1407
▁사무	-1408
▁메이	-1409
난다	-1410
▁텔	-1411
▁체계	-1412
▁덴	-1413
▁동맹	-1414
▁가치	-1415
▁그런	-1416
▁출판	-1417
▁페르	-1418
▁널	-1419
▁언론	-1420
▁값	-1421
▁책임	-1422
▁빛	-1423
▁표준	-1424
▁주민	-1425
스로	-1426
▁협회	-1427
▁기원전	-1428
▁깊	-1429
▁애니메이션	-1430
▁안정	-1431
▁북부	-1432
▁꽃	-1433
▁불교	-1434
▁일제	-1435
▁집단	-1436
▁윌	-1437
▁준비	-1438
▁만나	-1439
▁=	-1440
▁소비	-1441
▁행사	-1442
▁문자	-1443
▁대중	-1444
▁정확	-1445
▁언급	-1446
▁술	-1447
드리	-1448
▁분석	-1449
▁시험	-1450
▁인데	-1451
▁즈	-1452
▁캐나다	-1453
▁소유	-1454
▁끌	-1455
▁아직	-1456
▁승강장	-1457
▁FIFA	-1458
▁민주주의	-1459
▁사령	-1460
▁주인	-1461
▁려는	-1462
▁방문	-1463
▁스포	-1464
▁자동차	-1465
▁옛	-1466
▁속하	-1467
▁분리	-1468
▁1980	-1469
▁쉽	-1470
▁컵	-1471
▁스트	-1472
▁믿	-1473
▁그림	-1474
▁수준	-1475
▁거주	-1476
▁이듬	-1477
▁통치	-1478
▁이곳	-1479
▁지속	-1480
▁제품	-1481
▁방어	-1482
▁추진	-1483
▁성적	-1484
▁1999	-1485
▁거두	-1486
▁구분	-1487
▁투수	-1488
▁기사	-1489
▁부인	-1490
▁대로	-1491
▁요청	-1492
카이	-1493
▁외국	-1494
▁통과	-1495
▁앤	-1496
▁핀	-1497
▁움직	-1498
▁드러	-1499
▁폴란드	-1500
▁60	-1501
▁입장	-1502
▁구단	-1503
▁노력	-1504
▁발달	-1505
▁구역	-1506
▁제한	-1507
▁올랐	-1508
루스	-1509
▁원인	-1510
▁해석	-1511
▁링	-1512
▁보도	-1513
▁1998	-1514
▁벤	-1515
▁이듬해	-1516
▁통신	-1517
▁경기도	-1518
▁영역	-1519
▁학자	-1520
▁유사	-1521
▁사진	-1522
▁경험	-1523
▁밤	-1524
▁오늘날	-1525
▁아시아	-1526
▁획득	-1527
▁행성	-1528
▁베이	-1529
om	-1530
▁파괴	-1531
▁촉	-1532
▁스스로	-1533
▁훈련	-1534
▁세워	-1535
▁가정	-1536
▁네덜	-1537
▁네덜란드	-1538
▁경영	-1539
▁헬	-1540
▁괴	-1541
▁깨	-1542
▁자주	-1543
▁전해	-1544
▁요시	-1545
의원	-1546
▁마르	-1547
▁찾아	-1548
▁제조	-1549
▁디자인	-1550
▁쓴	-1551
▁오른	-1552
▁신문	-1553
▁챔피언	-1554
▁받아들	-1555
▁펼	-1556
▁주도	-1557
▁식민	-1558
▁스테	-1559
▁평화	-1560
▁궤	-1561
▁몬	-1562
▁무기	-1563
▁영토	-1564
▁완전히	-1565
▁투표	-1566
▁당했	-1567
라스	-1568
▁경쟁	-1569
▁이라고	-1570
BC	-1571
▁거부	-1572
▁결합	-1573
▁32	-1574
▁파리	-1575
▁부정	-1576
▁나온	-1577
▁혈	-1578
▁록	-1579
▁그대로	-1580
▁미사	-1581
트남	-1582
▁로써	-1583
▁p	-1584
▁유전	-1585
el	-1586
젝트	-1587
▁가르	-1588
et	-1589
▁회장	-1590
▁캠	-1591
ing	-1592
▁표기	-1593
▁나무	-1594
▁멸	-1595
▁자치	-1596
▁치료	-1597
디어	-1598
톨릭	-1599
러스	-1600
▁조각	-1601
▁포르	-1602
▁득점	-1603
▁아서	-1604
▁오르	-1605
▁집합	-1606
▁패배	-1607
▁멀	-1608
▁강력	-1609
▁마찬	-1610
▁마찬가지	-1611
▁o	-1612
글랜드	-1613
▁전라	-1614
▁마리	-1615
▁실제로	-1616
▁정상	-1617
▁수학	-1618
▁여겨	-1619
▁제안	-1620
▁188	-1621
▁차원	-1622
▁복귀	-1623
▁놀	-1624
▁500	-1625
▁널리	-1626
▁35	-1627
▁경계	-1628
▁정규	-1629
▁먼저	-1630
ol	-1631
머지	-1632
▁나머지	-1633
▁d	-1634
▁법률	-1635
▁사라	-1636
▁바뀌	-1637
▁알려진	-1638
리지	-1639
▁바탕	-1640
▁입단	-1641
▁왕조	-1642
▁공항	-1643
▁발사	-1644
▁밝혀	-1645
▁은퇴	-1646
▁반면	-1647
▁무대	-1648
▁1997	-1649
▁정리	-1650
▁오래	-1651
ion	-1652
시마	-1653
▁70	-1654
▁인터넷	-1655
as	-1656
▁파일	-1657
▁든	-1658
▁가톨릭	-1659
▁인식	-1660
▁프로젝트	-1661
▁철학	-1662
▁성격	-1663
▁임시	-1664
▁국립	-1665
▁이외	-1666
▁부여	-1667
▁인사	-1668
▁량	-1669
▁다수	-1670
▁용어	-1671
▁해결	-1672
▁금지	-1673
▁도착	-1674
▁의식	-1675
▁아무	-1676
▁단순	-1677
▁캐릭	-1678
▁결성	-1679
▁만큼	-1680
▁폐지	-1681
▁파이	-1682
▁mm	-1683
▁돼	-1684
나무	-1685
▁h	-1686
▁잉글랜드	-1687
▁길이	-1688
▁가져	-1689
▁로스	-1690
▁베르	-1691
▁대구	-1692
▁하이	-1693
메리카	-1694
▁지적	-1695
▁끼	-1696
▁짧	-1697
▁만화	-1698
▁비디오	-1699
▁Y	-1700
▁앙	-1701
▁요리	-1702
▁』	-1703
▁스포츠	-1704
▁소리	-1705
▁표시	-1706
▁카드	-1707
▁반란	-1708
▁웹	-1709
▁아마	-1710
▁정식	-1711
▁주제	-1712
▁권력	-1713
▁파견	-1714
▁공작	-1715
▁접근	-1716
스코	-1717
▁박사	-1718
▁외교	-1719
▁근처	-1720
▁1995	-1721
▁캐릭터	-1722
▁80	-1723
▁1970	-1724
▁칠	-1725
▁성립	-1726
▁연구소	-1727
▁장소	-1728
▁1996	-1729
▁제기	-1730
▁업무	-1731
▁유래	-1732
▁기자	-1733
▁나타내	-1734
▁충청	-1735
▁기초	-1736
▁『	-1737
▁문서	-1738
▁알렉	-1739
▁중학교	-1740
▁등록	-1741
▁이렇게	-1742
▁뇌	-1743
▁여름	-1744
▁공원	-1745
▁총리	-1746
▁수용	-1747
▁세웠	-1748
▁지대	-1749
▁보였	-1750
▁형제	-1751
▁으므로	-1752
▁바꾸	-1753
▁다리	-1754
▁상호	-1755
am	-1756
▁보수	-1757
▁일정	-1758
▁생물	-1759
▁조성	-1760
▁쓰이	-1761
낸다	-1762
▁초대	-1763
▁벽	-1764
▁주의	-1765
스턴	-1766
▁그렇	-1767
▁죽음	-1768
▁런던	-1769
▁병원	-1770
▁인천	-1771
▁겪	-1772
어졌	-1773
▁계열	-1774
▁베트남	-1775
▁확대	-1776
▁수많	-1777
▁본선	-1778
▁관측	-1779
▁The	-1780
▁동부	-1781
▁붕	-1782
▁크리스	-1783
▁지도자	-1784
▁에스	-1785
▁완성	-1786
버스	-1787
▁논란	-1788
▁바르	-1789
▁회원	-1790
▁묘사	-1791
▁예선	-1792
▁흡	-1793
▁제시	-1794
▁떠나	-1795
▁꾸	-1796
▁근거	-1797
▁체포	-1798
▁1960	-1799
▁고속	-1800
▁미술	-1801
▁186	-1802
▁종합	-1803
▁혐	-1804
역시	-1805
야마	-1806
일랜드	-1807
▁더불	-1808
▁아프리카	-1809
▁중단	-1810
▁지식	-1811
▁텔레	-1812
▁귀족	-1813
▁시행	-1814
▁서부	-1815
▁대응	-1816
▁홈런	-1817
▁남성	-1818
▁수사	-1819
▁오스	-1820
▁죄	-1821
▁위험	-1822
▁기계	-1823
▁바다	-1824
▁설정	-1825
▁1994	-1826
▁검사	-1827
▁다만	-1828
▁협력	-1829
▁체결	-1830
▁나중	-1831
▁쌓	-1832
▁발행	-1833
▁',	-1834
▁원소	-1835
인트	-1836
▁윈도	-1837
▁몇몇	-1838
메달	-1839
▁활용	-1840
▁하루	-1841
▁n	-1842
▁해안	-1843
▁판단	-1844
▁세대	-1845
▁위기	-1846
▁식민지	-1847
▁양식	-1848
리트	-1849
라인	-1850
▁숨	-1851
▁광주	-1852
▁옆	-1853
▁직후	-1854
▁미군	-1855
▁동생	-1856
▁이루어진	-1857
▁은행	-1858
▁the	-1859
▁의견	-1860
▁번호	-1861
▁방영	-1862
▁번역	-1863
비전	-1864
▁UE	-1865
▁후기	-1866
▁근무	-1867
▁중간	-1868
▁얼마	-1869
▁혜	-1870
▁계승	-1871
▁교체	-1872
▁스웨	-1873
▁연맹	-1874
▁노르	-1875
▁낳	-1876
ac	-1877
▁밑	-1878
▁관찰	-1879
▁오스트리아	-1880
▁싶	-1881
▁즉위	-1882
▁맹	-1883
▁UEFA	-1884
▁타이틀	-1885
▁소프트웨어	-1886
▁계기	-1887
▁단어	-1888
▁상징	-1889
▁세상	-1890
▁소재	-1891
▁달성	-1892
▁져	-1893
▁기구	-1894
▁화학	-1895
▁님	-1896
▁프레	-1897
▁순위	-1898
▁개국	-1899
▁187	-1900
▁둔	-1901
▁계산	-1902
▁빅	-1903
▁삼성	-1904
▁차트	-1905
▁1992	-1906
▁사이트	-1907
▁여행	-1908
▁취임	-1909
▁보냈	-1910
▁마이크	-1911
▁츠	-1912
▁지난	-1913
▁",	-1914
▁은하	-1915
웨이	-1916
▁연장	-1917
▁무역	-1918
▁강한	-1919
▁지상	-1920
il	-1921
▁부른다	-1922
▁보유	-1923
▁개정	-1924
▁듣	-1925
▁병력	-1926
▁굴	-1927
▁옮겨	-1928
부르크	-1929
▁전달	-1930
▁왼	-1931
▁수비	-1932
▁젊	-1933
▁스웨덴	-1934
▁민주당	-1935
▁공부	-1936
▁단위	-1937
▁스위	-1938
▁트리	-1939
▁생명	-1940
▁충돌	-1941
▁잇	-1942
▁만약	-1943
▁야마	-1944
▁안전	-1945
▁국왕	-1946
▁으면서	-1947
▁36	-1948
▁전시	-1949
▁아내	-1950
▁통하	-1951
▁&	-1952
us	-1953
▁못한	-1954
▁식물	-1955
▁전략	-1956
▁대륙	-1957
▁천황	-1958
▁?	-1959
▁질량	-1960
▁측정	-1961
od	-1962
▁권리	-1963
간다	-1964
▁촬	-1965
▁균	-1966
▁유대	-1967
▁유리	-1968
▁보존	-1969
▁입학	-1970
▁가입	-1971
▁필리	-1972
▁폰	-1973
▁소수	-1974
▁공장	-1975
▁1945	-1976
▁쉬	-1977
▁영상	-1978
▁제주	-1979
▁저항	-1980
▁히로	-1981
▁벗	-1982
모토	-1983
▁생성	-1984
▁그해	-1985
▁삶	-1986
라도	-1987
▁셀	-1988
▁남북	-1989
▁특성	-1990
▁45	-1991
▁당선	-1992
▁제거	-1993
▁따른	-1994
▁주목	-1995
▁학위	-1996
사카	-1997
▁이주	-1998
▁of	-1999
동안	-2000
▁투자	-2001
▁종료	-2002
▁특수	-2003
▁옹	-2004
▁시위	-2005
▁약간	-2006
▁읽	-2007
러운	-2008
▁촬영	-2009
▁본관	-2010
▁준다	-2011
▁실행	-2012
▁1991	-2013
▁빼	-2014
▁지위	-2015
▁1993	-2016
▁그린	-2017
▁이스	-2018
▁소개	-2019
▁궤도	-2020
▁무렵	-2021
▁물론	-2022
▁미사일	-2023
▁아일랜드	-2024
▁빨	-2025
▁예수	-2026
▁즐	-2027
▁상업	-2028
어나	-2029
▁비용	-2030
▁분포	-2031
▁본래	-2032
▁너무	-2033
▁관광	-2034
▁유로	-2035
▁도중	-2036
▁일종	-2037
전히	-2038
▁이래	-2039
▁대수	-2040
▁+	-2041
▁승격	-2042
▁디지	-2043
시코	-2044
토리	-2045
▁꼬	-2046
교회	-2047
▁각종	-2048
▁총선	-2049
▁라디오	-2050
▁병사	-2051
▁지내	-2052
▁장기	-2053
▁브라질	-2054
▁나누	-2055
▁300	-2056
▁a	-2057
▁33	-2058
트리	-2059
▁다루	-2060
▁수정	-2061
▁자격	-2062
▁감소	-2063
ed	-2064
▁학년	-2065
▁이슬	-2066
▁뮤직	-2067
▁자본	-2068
워드	-2069
▁극장	-2070
▁만드	-2071
▁태평	-2072
▁납	-2073
▁개통	-2074
▁천문	-2075
▁내각	-2076
▁개선	-2077
▁기여	-2078
▁전차	-2079
▁학문	-2080
▁강조	-2081
▁전환	-2082
▁객	-2083
▁90	-2084
▁1950	-2085
▁해외	-2086
모리	-2087
▁기회	-2088
▁썼	-2089
▁본부	-2090
▁습니다	-2091
▁렌	-2092
▁집중	-2093
▁원정	-2094
레일	-2095
▁라인	-2096
▁슈퍼	-2097
ro	-2098
▁코치	-2099
무원	-2100
▁작성	-2101
▁률	-2102
▁건너	-2103
▁적극	-2104
▁면적	-2105
▁코드	-2106
▁가졌	-2107
▁주인공	-2108
▁유형	-2109
▁측면	-2110
▁청년	-2111
▁마련	-2112
▁카이	-2113
▁표면	-2114
가리	-2115
▁올리	-2116
▁스코	-2117
워크	-2118
▁아카	-2119
▁지하철	-2120
▁배경	-2121
▁항상	-2122
▁라며	-2123
▁비밀	-2124
▁전반	-2125
▁1988	-2126
▁멕	-2127
▁제정	-2128
▁거대	-2129
▁둘러	-2130
▁델	-2131
▁유니	-2132
▁장애	-2133
▁톤	-2134
▁가까운	-2135
▁만족	-2136
▁명예	-2137
▁신경	-2138
▁해방	-2139
▁윌리	-2140
▁펜	-2141
▁정착	-2142
가와	-2143
▁충분	-2144
▁짓	-2145
▁갖추	-2146
▁증명	-2147
▁전사	-2148
▁불러	-2149
▁부모	-2150
▁박물	-2151
▁변호	-2152
▁나왔	-2153
▁춘	-2154
소년	-2155
▁비트	-2156
아가	-2157
▁케이	-2158
▁시청	-2159
임스	-2160
▁양자	-2161
▁합류	-2162
▁혐의	-2163
▁무장	-2164
▁장면	-2165
▁공급	-2166
▁노동자	-2167
▁38	-2168
▁냉	-2169
▁인수	-2170
▁네트	-2171
▁마치	-2172
▁1989	-2173
▁군인	-2174
▁고구	-2175
▁기획	-2176
▁전력	-2177
▁헝	-2178
▁명단	-2179
▁외부	-2180
▁소장	-2181
▁사회주의	-2182
▁오후	-2183
▁뒷	-2184
▁br	-2185
▁허용	-2186
▁재직	-2187
베이	-2188
▁동료	-2189
▁라운드	-2190
ig	-2191
▁주식	-2192
▁이승	-2193
▁현실	-2194
▁경기장	-2195
▁이집	-2196
▁가격	-2197
▁그래서	-2198
▁이집트	-2199
▁의해서	-2200
▁바람	-2201
▁최소	-2202
▁전하	-2203
트로	-2204
▁광고	-2205
▁캘	-2206
▁붕괴	-2207
▁음식	-2208
▁여전히	-2209
▁디지털	-2210
▁온도	-2211
▁재산	-2212
▁겨울	-2213
▁신학	-2214
▁자원	-2215
▁답	-2216
▁쥐	-2217
▁신호	-2218
▁일어난	-2219
▁재정	-2220
나이	-2221
▁냈	-2222
▁전선	-2223
▁회복	-2224
▁귀국	-2225
▁인디	-2226
▁인한	-2227
▁확보	-2228
▁도서	-2229
▁헨	-2230
▁강제	-2231
▁이슬람	-2232
▁린	-2233
▁알렉산	-2234
▁수립	-2235
▁박물관	-2236
니스	-2237
회사	-2238
▁부근	-2239
주교	-2240
소리	-2241
▁잎	-2242
▁공군	-2243
▁전개	-2244
▁떨어진	-2245
NA	-2246
▁통제	-2247
▁라면	-2248
▁다니	-2249
▁해도	-2250
▁끊	-2251
▁목록	-2252
▁마사	-2253
▁포르투	-2254
요일	-2255
▁이란	-2256
▁근대	-2257
▁크로	-2258
▁논문	-2259
리학	-2260
▁점차	-2261
▁멕시코	-2262
▁..	-2263
▁보고	-2264
▁에게서	-2265
▁임무	-2266
▁대립	-2267
▁이번	-2268
▁이미지	-2269
▁결승전	-2270
▁불린다	-2271
아시아	-2272
▁48	-2273
▁국방	-2274
▁탑재	-2275
▁폭발	-2276
▁버리	-2277
▁그려	-2278
▁고구려	-2279
▁범위	-2280
▁윌리엄	-2281
▁그곳	-2282
▁텔레비전	-2283
▁34	-2284
▁고전	-2285
▁확실	-2286
and	-2287
▁일어났	-2288
▁출발	-2289
▁얼굴	-2290
▁인근	-2291
▁편집	-2292
▁녹음	-2293
▁강의	-2294
▁세우	-2295
▁세이	-2296
ve	-2297
▁불렀	-2298
티아	-2299
▁제목	-2300
▁이하	-2301
▁됨	-2302
▁합의	-2303
▁교사	-2304
▁다카	-2305
어들	-2306
▁텍	-2307
▁지점	-2308
▁침공	-2309
▁위협	-2310
▁강점	-2311
▁지진	-2312
▁이끄	-2313
▁만주	-2314
▁전역	-2315
▁구축	-2316
▁미래	-2317
▁계급	-2318
▁엘리	-2319
▁등급	-2320
▁남편	-2321
▁민간	-2322
▁잡지	-2323
▁불과	-2324
▁컬	-2325
▁수입	-2326
▁기대	-2327
▁듀	-2328
id	-2329
▁공주	-2330
▁장비	-2331
▁아키	-2332
ch	-2333
▁좀	-2334
▁승인	-2335
▁쇠	-2336
▁양성	-2337
▁멜	-2338
▁가스	-2339
▁채택	-2340
▁사후	-2341
▁다섯	-2342
▁에이	-2343
▁합병	-2344
▁털	-2345
▁신앙	-2346
▁위원장	-2347
▁틀	-2348
▁관할	-2349
▁흘	-2350
▁원칙	-2351
▁범죄	-2352
▁국경	-2353
▁수단	-2354
▁령	-2355
▁베네	-2356
▁유도	-2357
▁세운	-2358
▁뉴스	-2359
▁함대	-2360
▁태평양	-2361
▁흰	-2362
레일리아	-2363
▁세르	-2364
▁아주	-2365
래프트	-2366
▁욕	-2367
▁대대	-2368
▁인하	-2369
▁독자	-2370
▁증거	-2371
▁마리아	-2372
▁군주	-2373
▁네트워크	-2374
▁경향	-2375
▁진화	-2376
▁채널	-2377
▁우선	-2378
▁주교	-2379
▁발매되	-2380
▁장식	-2381
▁이루어져	-2382
▁w	-2383
▁펠	-2384
▁금융	-2385
▁스튜	-2386
▁나치	-2387
▁대기	-2388
▁헝가리	-2389
▁이제	-2390
▁첨	-2391
▁항성	-2392
▁토지	-2393
▁유학	-2394
▁오사카	-2395
▁봄	-2396
▁시티	-2397
▁개봉	-2398
▁어떻	-2399
▁대장	-2400
▁400	-2401
▁°	-2402
▁아우	-2403
▁섭	-2404
▁성과	-2405
▁삼국	-2406
▁규칙	-2407
▁나폴	-2408
▁선고	-2409
▁기지	-2410
▁농업	-2411
▁시내	-2412
▁참석	-2413
▁대형	-2414
▁비난	-2415
▁찰	-2416
▁불가	-2417
▁상하	-2418
▁성인	-2419
50	-2420
▁검찰	-2421
▁서식	-2422
▁강원	-2423
▁왕위	-2424
▁대학원	-2425
스티	-2426
▁나뉘	-2427
▁구체	-2428
▁국회의원	-2429
▁오스트레일리아	-2430
▁복잡	-2431
▁미치	-2432
▁1987	-2433
▁건강	-2434
▁해체	-2435
▁랑	-2436
▁블랙	-2437
▁확정	-2438
티나	-2439
▁기억	-2440
▁기후	-2441
▁나와	-2442
▁살해	-2443
피아	-2444
▁예상	-2445
▁뛰어난	-2446
▁연합군	-2447
▁노예	-2448
레이드	-2449
▁고문	-2450
원군	-2451
▁공업	-2452
▁둥	-2453
▁삭	-2454
없이	-2455
▁공산당	-2456
▁빠르	-2457
▁종종	-2458
ad	-2459
▁지시	-2460
▁꿈	-2461
▁평양	-2462
▁감정	-2463
버트	-2464
▁시킬	-2465
▁비율	-2466
▁낭	-2467
▁옷	-2468
▁지키	-2469
▁항복	-2470
▁향상	-2471
▁서양	-2472
▁조치	-2473
▁강점기	-2474
▁짐	-2475
▁매년	-2476
▁물러	-2477
▁떨어져	-2478
▁II	-2479
▁홍콩	-2480
▁경력	-2481
▁보장	-2482
▁본격	-2483
▁했었	-2484
▁자세	-2485
▁단지	-2486
▁회전	-2487
▁알려졌	-2488
▁롭	-2489
▁거래	-2490
▁조금	-2491
▁가로	-2492
▁협상	-2493
▁g	-2494
▁보병	-2495
▁위성	-2496
▁37	-2497
▁분자	-2498
▁암살	-2499
▁루이	-2500
▁아시	-2501
▁초반	-2502
▁대항	-2503
▁경주	-2504
▁이루어지	-2505
▁전혀	-2506
▁붉	-2507
▁숫	-2508
▁아름	-2509
▁후손	-2510
▁출생	-2511
▁1986	-2512
▁신화	-2513
리포	-2514
▁운전	-2515
▁뿌	-2516
▁촌	-2517
▁아스	-2518
▁업체	-2519
▁시킨다	-2520
▁토론	-2521
▁스키	-2522
운동	-2523
▁시인	-2524
▁장착	-2525
코드	-2526
▁군단	-2527
▁띠	-2528
▁올렸	-2529
▁아야	-2530
▁여객	-2531
▁오브	-2532
▁탄생	-2533
▁터키	-2534
▁제임스	-2535
ent	-2536
▁하늘	-2537
▁가사	-2538
▁우수	-2539
▁오히	-2540
▁핀란드	-2541
▁환자	-2542
▁동의	-2543
▁투입	-2544
▁차별	-2545
▁포르투갈	-2546
▁묻	-2547
▁후쿠	-2548
▁후지	-2549
▁윈도우	-2550
▁판결	-2551
테르	-2552
▁인상	-2553
▁사례	-2554
▁오른쪽	-2555
▁42	-2556
▁엑	-2557
▁입자	-2558
▁돌아가	-2559
▁소년	-2560
▁순서	-2561
▁자금	-2562
▁조합	-2563
▁연극	-2564
▁에드	-2565
▁넘어	-2566
▁래	-2567
르타	-2568
▁개편	-2569
▁전화	-2570
▁스위스	-2571
▁잘못	-2572
▁주위	-2573
▁종목	-2574
▁킬	-2575
▁라이브	-2576
▁피아	-2577
▁오리	-2578
▁보급	-2579
▁편입	-2580
▁연산	-2581
▁l	-2582
▁숭	-2583
▁중반	-2584
▁저장	-2585
▁마침	-2586
▁랭	-2587
▁간주	-2588
▁터미	-2589
▁융	-2590
▁모스크	-2591
▁라틴	-2592
▁백제	-2593
▁왼쪽	-2594
▁1984	-2595
▁방면	-2596
▁공기	-2597
▁시각	-2598
▁미디어	-2599
os	-2600
▁창설	-2601
▁선생	-2602
▁강하	-2603
라노	-2604
▁추측	-2605
▁오히려	-2606
▁잠시	-2607
▁직원	-2608
▁소식	-2609
▁몽골	-2610
▁플레이어	-2611
▁대비	-2612
▁공공	-2613
▁의학	-2614
▁셰	-2615
▁모르	-2616
일보	-2617
룬다	-2618
마크	-2619
▁집안	-2620
▁정치인	-2621
지션	-2622
▁앞서	-2623
▁덮	-2624
▁태어난	-2625
▁문화재	-2626
▁이스라	-2627
베르	-2628
▁1920	-2629
다가	-2630
▁전후	-2631
▁스타일	-2632
고리	-2633
▁롤	-2634
▁거절	-2635
▁포위	-2636
특별	-2637
▁의무	-2638
▁이익	-2639
▁출장	-2640
독부	-2641
▁무리	-2642
▁힐	-2643
오스	-2644
키아	-2645
▁법칙	-2646
▁제자	-2647
▁184	-2648
▁St	-2649
▁모리	-2650
▁집행	-2651
▁핵심	-2652
▁사령관	-2653
▁스파	-2654
▁1985	-2655
▁뽑	-2656
▁오랜	-2657
▁전설	-2658
▁에선	-2659
▁이스라엘	-2660
▁폼	-2661
▁일원	-2662
▁권한	-2663
▁클래	-2664
▁경성	-2665
▁2019	-2666
▁캘리포	-2667
요시	-2668
▁성질	-2669
▁안타	-2670
▁인가	-2671
▁활발	-2672
▁태어나	-2673
▁반도	-2674
▁카메	-2675
로드	-2676
타인	-2677
▁저서	-2678
▁스리	-2679
▁들어갔	-2680
▁요새	-2681
▁논의	-2682
▁개시	-2683
▁캘리포니아	-2684
▁터미널	-2685
▁진다	-2686
▁변호사	-2687
▁고향	-2688
▁흔히	-2689
▁겐	-2690
스키	-2691
디아	-2692
▁죽이	-2693
▁고종	-2694
니어	-2695
▁말기	-2696
▁정비	-2697
▁구속	-2698
▁KBS	-2699
▁1930	-2700
▁아랍	-2701
▁고정	-2702
▁잭	-2703
오카	-2704
▁알리	-2705
um	-2706
▁플로	-2707
▁밖에	-2708
▁사전	-2709
마스	-2710
▁보안	-2711
▁성당	-2712
반도	-2713
un	-2714
▁내렸	-2715
▁수출	-2716
ot	-2717
ow	-2718
▁39	-2719
▁장악	-2720
드로	-2721
▁투어	-2722
▁생겨	-2723
▁절대	-2724
▁샌	-2725
의회	-2726
▁건국	-2727
▁관료	-2728
▁숫자	-2729
▁스티	-2730
▁방출	-2731
▁전용	-2732
▁어떻게	-2733
▁마쓰	-2734
▁통해서	-2735
▁명성	-2736
▁어렵	-2737
▁통한	-2738
▁필리핀	-2739
▁숲	-2740
▁공산주의	-2741
▁1940	-2742
▁이성	-2743
▁별도	-2744
▁본인	-2745
▁셋	-2746
▁튀	-2747
▁벡	-2748
▁인정받	-2749
▁냐	-2750
▁이승만	-2751
▁일으키	-2752
▁친일	-2753
▁수여	-2754
▁종이	-2755
▁180	-2756
▁견해	-2757
▁그런데	-2758
ec	-2759
▁의장	-2760
▁라도	-2761
▁머물	-2762
▁1982	-2763
▁사항	-2764
▁운용	-2765
▁64	-2766
▁메이저	-2767
▁포기	-2768
▁구별	-2769
▁불렸	-2770
▁교토	-2771
▁비록	-2772
▁애플	-2773
▁훨	-2774
▁제출	-2775
ay	-2776
▁정복	-2777
ir	-2778
▁더라도	-2779
▁바라	-2780
▁세종	-2781
▁심각	-2782
▁멸망	-2783
▁내리	-2784
▁인터뷰	-2785
고기	-2786
▁혼란	-2787
▁렀	-2788
보드	-2789
▁보조	-2790
▁수원	-2791
▁열렸	-2792
▁저지	-2793
▁상품	-2794
▁경상남도	-2795
▁에피	-2796
▁울산	-2797
스카	-2798
정부	-2799
ter	-2800
▁목사	-2801
▁히데	-2802
▁거기	-2803
▁역대	-2804
20	-2805
▁창조	-2806
▁훨씬	-2807
▁인권	-2808
▁낸	-2809
▁중세	-2810
해졌	-2811
▁해졌	-2812
▁판서	-2813
▁투쟁	-2814
▁요한	-2815
▁의료	-2816
▁지니	-2817
▁승진	-2818
▁150	-2819
▁유엔	-2820
▁흡수	-2821
▁반복	-2822
▁성능	-2823
▁십자	-2824
▁붙여	-2825
일러	-2826
▁협정	-2827
▁영입	-2828
▁갈등	-2829
▁이기	-2830
▁신성	-2831
▁오전	-2832
▁생기	-2833
▁직전	-2834
▁해상	-2835
오프	-2836
▁논쟁	-2837
▁취하	-2838
▁75	-2839
▁산맥	-2840
▁동원	-2841
▁스크	-2842
▁브랜드	-2843
▁채용	-2844
▁부활	-2845
▁관직	-2846
▁임금	-2847
▁고양	-2848
▁공유	-2849
▁단일	-2850
▁이른	-2851
▁약속	-2852
▁e	-2853
▁사법	-2854
▁〉,	-2855
▁41	-2856
▁주기	-2857
▁간단	-2858
▁일치	-2859
▁일으켰	-2860
▁마드리	-2861
▁아메리카	-2862
▁써	-2863
▁콩	-2864
이크	-2865
▁소송	-2866
▁1983	-2867
▁교류	-2868
▁수송	-2869
라비아	-2870
▁출입	-2871
▁한자	-2872
틀랜드	-2873
▁마드리드	-2874
▁경상북도	-2875
▁롯	-2876
▁효율	-2877
아프리카	-2878
▁지붕	-2879
광역시	-2880
▁사태	-2881
▁아파	-2882
▁클라	-2883
▁빠른	-2884
▁그리스도	-2885
▁짜	-2886
▁반발	-2887
▁1979	-2888
▁시점	-2889
▁상륙	-2890
▁군수	-2891
▁찍	-2892
자기	-2893
▁하드	-2894
▁CD	-2895
▁원리	-2896
ur	-2897
▁주전	-2898
▁도서관	-2899
▁중심지	-2900
▁연료	-2901
▁임의	-2902
▁카를	-2903
퍼스	-2904
▁엔터	-2905
▁수술	-2906
▁오픈	-2907
▁185	-2908
▁자라	-2909
▁공학	-2910
▁도망	-2911
▁도달	-2912
▁솔로	-2913
▁철수	-2914
▁금속	-2915
▁원주	-2916
▁열리	-2917
▁나카	-2918
▁성경	-2919
▁게이	-2920
▁베를	-2921
▁상당히	-2922
▁불상	-2923
▁MBC	-2924
▁선조	-2925
아버지	-2926
▁택	-2927
▁유전자	-2928
▁55	-2929
문화	-2930
레이션	-2931
▁헤이	-2932
네스	-2933
▁건조	-2934
▁꼬리	-2935
▁이어지	-2936
싱턴	-2937
▁무엇	-2938
▁노부	-2939
▁알아	-2940
▁천체	-2941
▁킹	-2942
▁1972	-2943
▁불법	-2944
▁성우	-2945
▁청나라	-2946
▁망명	-2947
▁메시	-2948
▁인류	-2949
▁현장	-2950
▁일본군	-2951
▁진보	-2952
▁합격	-2953
▁신설	-2954
▁창립	-2955
▁스피	-2956
▁농민	-2957
▁쳐	-2958
▁플랫	-2959
▁하계	-2960
▁편지	-2961
▁여부	-2962
▁빠져	-2963
▁영향력	-2964
다리	-2965
▁고유	-2966
▁취급	-2967
▁진압	-2968
▁떠났	-2969
▁화면	-2970
▁인공	-2971
▁켄	-2972
▁신분	-2973
▁한국어	-2974
▁헨리	-2975
▁온라인	-2976
▁1973	-2977
▁논리	-2978
▁영업	-2979
▁부장	-2980
▁아테	-2981
▁모드	-2982
▁당한	-2983
▁정지	-2984
▁육상	-2985
▁덴마크	-2986
▁프로세	-2987
▁인종	-2988
▁제어	-2989
▁폭력	-2990
정식	-2991
▁183	-2992
▁포도	-2993
소드	-2994
▁분쟁	-2995
▁아나	-2996
▁감사	-2997
▁박정	-2998
▁선교	-2999
ver	-3000
▁지닌	-3001
▁청소년	-3002
▁대화	-3003
각형	-3004
▁기도	-3005
▁부임	-3006
▁변환	-3007
드시	-3008
▁해산	-3009
▁아르헨	-3010
▁kg	-3011
▁우크	-3012
▁예산	-3013
터리	-3014
▁쫓	-3015
▁자살	-3016
▁텐	-3017
▁학부	-3018
▁43	-3019
▁탈출	-3020
▁교환	-3021
▁스케	-3022
▁후원	-3023
▁오토	-3024
▁덧	-3025
▁유적	-3026
▁한때	-3027
▁꼭	-3028
누스	-3029
▁모아	-3030
▁발언	-3031
▁장교	-3032
▁in	-3033
▁플레이오프	-3034
ut	-3035
▁실수	-3036
▁인조	-3037
▁어린이	-3038
▁방사	-3039
▁코스	-3040
▁보관	-3041
▁신체	-3042
▁는가	-3043
▁44	-3044
im	-3045
▁1948	-3046
▁아르헨티나	-3047
▁직업	-3048
▁처형	-3049
▁1946	-3050
▁전부	-3051
▁연관	-3052
▁선보	-3053
▁맛	-3054
▁나갔	-3055
▁탁	-3056
▁체육	-3057
▁모스크바	-3058
▁대리	-3059
▁건립	-3060
▁진입	-3061
▁리더	-3062
▁Z	-3063
▁중대	-3064
▁항공기	-3065
▁호텔	-3066
▁상승	-3067
▁끝나	-3068
하라	-3069
▁위상	-3070
▁모여	-3071
▁스럽	-3072
▁응용	-3073
▁반드시	-3074
노스	-3075
병대	-3076
▁프란	-3077
▁전공	-3078
▁합성	-3079
▁1981	-3080
▁아름다	-3081
준다	-3082
▁한반도	-3083
▁・	-3084
▁어떠	-3085
▁PC	-3086
▁벼	-3087
▁마크	-3088
▁타격	-3089
▁도구	-3090
▁출마	-3091
▁공포	-3092
▁일대	-3093
▁신청	-3094
▁스튜디오	-3095
▁워싱턴	-3096
▁47	-3097
▁재료	-3098
▁읍	-3099
트라	-3100
▁공화	-3101
▁싸움	-3102
▁179	-3103
▁남동	-3104
▁1963	-3105
리어	-3106
▁미터	-3107
▁베이스	-3108
미터	-3109
▁재단	-3110
▁반영	-3111
▁이민	-3112
▁닥	-3113
▁김일	-3114
▁늦	-3115
▁태풍	-3116
우드	-3117
▁지급	-3118
▁다운	-3119
▁누구	-3120
특별시	-3121
▁1974	-3122
▁여야	-3123
▁압력	-3124
▁개체	-3125
▁막부	-3126
▁맞이	-3127
▁사장	-3128
▁물체	-3129
▁강원도	-3130
▁전철	-3131
▁고용	-3132
▁공통	-3133
▁서울특별시	-3134
▁동성	-3135
▁취득	-3136
▁화물	-3137
▁빙	-3138
▁방정식	-3139
▁연재	-3140
▁마침내	-3141
리스트	-3142
▁배출	-3143
▁전파	-3144
무라	-3145
▁제대로	-3146
▁로운	-3147
▁포로	-3148
▁레코드	-3149
▁스러운	-3150
▁관점	-3151
▁개조	-3152
▁x	-3153
▁다스	-3154
▁오스만	-3155
▁지낸	-3156
▁시호	-3157
▁버렸	-3158
▁김정	-3159
데미	-3160
▁보험	-3161
em	-3162
▁정체	-3163
▁흉	-3164
▁예측	-3165
▁명명	-3166
▁분명	-3167
▁올려	-3168
▁이뤄	-3169
▁선전	-3170
▁고도	-3171
▁남겼	-3172
▁빼앗	-3173
수록	-3174
▁무덤	-3175
도로	-3176
▁별명	-3177
▁된다는	-3178
▁원작	-3179
▁조작	-3180
▁파악	-3181
▁독일군	-3182
▁소녀	-3183
▁생긴	-3184
▁벡터	-3185
▁동작	-3186
▁중화민국	-3187
▁부진	-3188
▁플라	-3189
▁아침	-3190
▁등판	-3191
▁둘째	-3192
▁일찍	-3193
▁좌우	-3194
▁수집	-3195
▁181	-3196
▁뿌리	-3197
▁엄청	-3198
▁제일	-3199
▁정원	-3200
▁금메달	-3201
▁사우	-3202
▁백작	-3203
▁서기	-3204
▁대략	-3205
▁학습	-3206
▁소스	-3207
▁갈라	-3208
▁베를린	-3209
▁주년	-3210
▁아카데미	-3211
▁51	-3212
▁부사	-3213
▁분열	-3214
▁가을	-3215
▁임진	-3216
▁부하	-3217
▁가리키	-3218
▁집권	-3219
▁그때	-3220
▁끝난	-3221
▁위반	-3222
▁스코틀랜드	-3223
▁김영	-3224
쿠라	-3225
▁1000	-3226
▁LG	-3227
▁기체	-3228
▁서버	-3229
▁통상	-3230
▁주택	-3231
▁46	-3232
▁스카	-3233
▁에도	-3234
▁움직임	-3235
▁주둔	-3236
▁계통	-3237
▁구하	-3238
▁대개	-3239
▁범주	-3240
다이	-3241
에트	-3242
▁보스	-3243
▁절차	-3244
▁흑인	-3245
▁사령부	-3246
▁복무	-3247
▁전라남도	-3248
▁켈	-3249
▁에피소드	-3250
ra	-3251
▁좁	-3252
▁충청남도	-3253
▁댄	-3254
서트	-3255
▁의도	-3256
▁전면	-3257
▁하위	-3258
▁살아	-3259
▁저작	-3260
▁의존	-3261
▁참전	-3262
▁일본인	-3263
▁시리아	-3264
▁싸우	-3265
▁1968	-3266
네시아	-3267
▁나타났	-3268
▁목소리	-3269
▁전주	-3270
▁전문가	-3271
로그	-3272
▁카르	-3273
▁예비	-3274
▁독립운동	-3275
퍼드	-3276
▁우려	-3277
▁노르웨이	-3278
▁정기	-3279
▁캠퍼스	-3280
▁기법	-3281
틀러	-3282
▁콘스탄	-3283
▁1978	-3284
▁청구	-3285
▁흐르	-3286
▁국무	-3287
▁메모리	-3288
▁처벌	-3289
▁생존	-3290
▁1975	-3291
▁릴	-3292
▁쓸	-3293
▁|	-3294
▁요인	-3295
▁으려	-3296
▁신인	-3297
사키	-3298
▁1949	-3299
▁레드	-3300
▁1976	-3301
FC	-3302
▁문헌	-3303
▁장수	-3304
▁묶	-3305
▁개신	-3306
▁주간	-3307
▁구성원	-3308
▁향해	-3309
아메리카	-3310
킨다	-3311
▁함락	-3312
백질	-3313
▁항구	-3314
▁났	-3315
▁왕자	-3316
▁1971	-3317
▁통계	-3318
▁오페	-3319
▁주연	-3320
▁캄	-3321
▁점점	-3322
▁진주	-3323
▁%,	-3324
▁주관	-3325
▁포지션	-3326
▁멘	-3327
▁문장	-3328
▁밝히	-3329
▁근본	-3330
▁수소	-3331
▁복합	-3332
▁브리	-3333
▁조조	-3334
▁이룬다	-3335
▁작곡가	-3336
▁에어	-3337
철도	-3338
▁분할	-3339
대부	-3340
▁다며	-3341
▁외국인	-3342
▁자녀	-3343
▁감염	-3344
▁In	-3345
▁탈락	-3346
▁콤	-3347
▁허가	-3348
▁1969	-3349
▁탄소	-3350
▁편찬	-3351
▁각지	-3352
▁특이	-3353
▁소비에트	-3354
▁콘서트	-3355
▁디스	-3356
▁충격	-3357
▁판사	-3358
▁변형	-3359
▁영지	-3360
▁이닝	-3361
리케	-3362
▁도와	-3363
▁나타난다	-3364
▁롯데	-3365
▁노스	-3366
▁테러	-3367
▁유물	-3368
▁등지	-3369
▁카메라	-3370
▁꺾	-3371
▁신뢰	-3372
▁글자	-3373
▁징역	-3374
▁브레	-3375
▁방해	-3376
▁최다	-3377
▁앞두	-3378
▁전형	-3379
▁달라	-3380
▁백성	-3381
▁임대	-3382
▁취소	-3383
▁향하	-3384
▁한계	-3385
▁독특	-3386
▁음력	-3387
▁기둥	-3388
▁로켓	-3389
▁순간	-3390
▁당초	-3391
▁예전	-3392
▁개막	-3393
▁오랫	-3394
▁분위	-3395
▁현지	-3396
▁모형	-3397
▁톱	-3398
▁타자	-3399
▁회담	-3400
셔널	-3401
▁언제	-3402
하여	-3403
▁국장	-3404
▁의지	-3405
▁1962	-3406
▁손자	-3407
▁실질	-3408
▁중부	-3409
▁베이징	-3410
▁맞추	-3411
▁사형	-3412
▁추천	-3413
▁훗	-3414
▁자이	-3415
▁v	-3416
▁명확	-3417
▁단백질	-3418
▁시조	-3419
st	-3420
▁학과	-3421
▁FA	-3422
▁법인	-3423
▁공동체	-3424
▁끝내	-3425
▁풍부	-3426
학생	-3427
▁물리학	-3428
▁54	-3429
▁53	-3430
▁출간	-3431
▁오랫동안	-3432
▁공무원	-3433
▁연안	-3434
에르	-3435
▁기호	-3436
▁희생	-3437
▁사마	-3438
▁파트	-3439
연히	-3440
▁떨어지	-3441
▁묵	-3442
▁구원	-3443
▁침략	-3444
▁신부	-3445
데스	-3446
▁무시	-3447
▁유나이	-3448
▁구현	-3449
▁가담	-3450
▁활성	-3451
▁유나이티	-3452
▁모임	-3453
이어	-3454
▁마케	-3455
▁완료	-3456
▁사제	-3457
▁된다고	-3458
사자	-3459
▁정하	-3460
▁1919	-3461
▁받아들여	-3462
▁새겨	-3463
▁학원	-3464
▁부부	-3465
▁유치	-3466
▁둘러싸	-3467
▁성향	-3468
▁의혹	-3469
▁1944	-3470
▁악화	-3471
▁보컬	-3472
▁사정	-3473
▁한다면	-3474
▁출력	-3475
▁태도	-3476
▁사실상	-3477
▁급제	-3478
▁아미	-3479
▁사임	-3480
▁방지	-3481
▁서명	-3482
▁우스	-3483
▁루트	-3484
▁나아가	-3485
이센	-3486
▁북서	-3487
▁간행	-3488
▁여론	-3489
▁의심	-3490
▁호수	-3491
▁개입	-3492
▁고리	-3493
▁밀도	-3494
▁1964	-3495
▁로드	-3496
▁훌	-3497
▁행렬	-3498
▁앉	-3499
▁횡	-3500
▁1941	-3501
다는	-3502
▁한정	-3503
▁탐사	-3504
▁단독	-3505
기에	-3506
▁학술	-3507
▁동기	-3508
▁이중	-3509
▁전원	-3510
op	-3511
▁도전	-3512
▁축제	-3513
▁추구	-3514
▁해양	-3515
▁52	-3516
▁발발	-3517
▁65	-3518
▁녹색	-3519
▁조종	-3520
▁포트	-3521
세이	-3522
▁조절	-3523
▁800	-3524
▁띄	-3525
▁팽	-3526
▁민중	-3527
▁가상	-3528
▁쓰인다	-3529
▁느끼	-3530
▁기울	-3531
▁훗날	-3532
▁변수	-3533
▁희망	-3534
▁말레이	-3535
▁슬로	-3536
레옹	-3537
OS	-3538
의정	-3539
도르	-3540
▁적절	-3541
▁분위기	-3542
▁꼽	-3543
▁마법	-3544
▁양쪽	-3545
▁나폴레옹	-3546
▁하우스	-3547
▁살인	-3548
▁실현	-3549
▁넷	-3550
▁메인	-3551
▁확률	-3552
▁여단	-3553
▁99	-3554
▁신자	-3555
▁아라	-3556
▁베스트	-3557
▁기하	-3558
▁글로	-3559
▁병합	-3560
▁SK	-3561
▁김대	-3562
우리	-3563
▁실력	-3564
문화재	-3565
ice	-3566
▁달하	-3567
▁평등	-3568
▁오프	-3569
▁공헌	-3570
▁1977	-3571
▁주식회사	-3572
▁개신교	-3573
▁움직이	-3574
▁삽	-3575
▁수리	-3576
▁트랙	-3577
▁and	-3578
▁새롭	-3579
▁순수	-3580
▁저술	-3581
▁포인트	-3582
▁성분	-3583
▁장르	-3584
▁제사	-3585
▁00	-3586
▁요코	-3587
▁거듭	-3588
ag	-3589
▁벌였	-3590
▁마무	-3591
▁무게	-3592
▁침입	-3593
▁오페라	-3594
▁나뉜	-3595
▁승부	-3596
▁완공	-3597
▁1967	-3598
▁기기	-3599
▁사운드	-3600
▁1961	-3601
▁WW	-3602
▁어도	-3603
▁출범	-3604
▁공정	-3605
▁대법	-3606
▁동아	-3607
▁파라	-3608
▁49	-3609
▁날개	-3610
▁펼쳐	-3611
▁뜨	-3612
▁께	-3613
▁어깨	-3614
▁서원	-3615
▁정해	-3616
▁사냥	-3617
▁상위	-3618
▁600	-3619
CA	-3620
▁줄기	-3621
▁내전	-3622
▁팝	-3623
▁160	-3624
▁공로	-3625
▁바깥	-3626
▁지켜	-3627
▁하나님	-3628
▁미니	-3629
▁입력	-3630
▁블루	-3631
▁1965	-3632
▁박정희	-3633
카와	-3634
▁보낸	-3635
▁명나라	-3636
▁에서부터	-3637
▁가량	-3638
▁중력	-3639
▁김일성	-3640
▁178	-3641
▁Q	-3642
▁히트	-3643
▁속한다	-3644
▁감시	-3645
▁문명	-3646
▁심리	-3647
oc	-3648
▁전동	-3649
▁한국인	-3650
▁56	-3651
▁듯이	-3652
▁폴리	-3653
▁흘러	-3654
▁1939	-3655
▁권위	-3656
▁주력	-3657
▁벨기에	-3658
▁곱	-3659
▁매일	-3660
▁웨스트	-3661
▁대공	-3662
▁아사	-3663
▁니콜	-3664
치아	-3665
▁프로이센	-3666
▁점수	-3667
▁테이	-3668
▁뚜	-3669
▁대량	-3670
▁페르시아	-3671
머스	-3672
▁대선	-3673
▁확립	-3674
비드	-3675
왜란	-3676
▁먹이	-3677
▁가진다	-3678
▁임진왜란	-3679
▁국정	-3680
▁연간	-3681
▁당나라	-3682
▁곽	-3683
▁교향	-3684
▁영웅	-3685
▁원형	-3686
▁재건	-3687
▁접하	-3688
▁셔	-3689
▁복원	-3690
▁중기	-3691
▁평안	-3692
▁돌아왔	-3693
▁화성	-3694
▁좋아	-3695
▁어려운	-3696
▁프로그래	-3697
▁엠	-3698
▁갤	-3699
▁수석	-3700
▁파크	-3701
▁천연	-3702
▁불만	-3703
▁프리미	-3704
▁핑	-3705
리히	-3706
▁미국인	-3707
▁부담	-3708
▁흐름	-3709
▁락	-3710
▁트로	-3711
▁광장	-3712
▁후계	-3713
▁1966	-3714
▁문신	-3715
▁벗어나	-3716
▁설득	-3717
▁미나	-3718
▁세자	-3719
▁스토	-3720
▁타임	-3721
바이	-3722
▁북동	-3723
디션	-3724
마트	-3725
▁동남	-3726
▁왕실	-3727
▁왕후	-3728
▁과학자	-3729
▁다소	-3730
시스	-3731
▁자극	-3732
▁타이완	-3733
▁히틀러	-3734
▁프라	-3735
▁아파트	-3736
▁웅	-3737
▁자식	-3738
▁어디	-3739
▁춤	-3740
▁학회	-3741
에른	-3742
유럽	-3743
▁발음	-3744
▁바이러스	-3745
▁이온	-3746
▁한글	-3747
▁심지	-3748
▁경로	-3749
▁무사	-3750
▁심사	-3751
▁합쳐	-3752
▁스토리	-3753
시오	-3754
▁임기	-3755
스토	-3756
타르	-3757
▁섞	-3758
▁기소	-3759
▁지리	-3760
▁진정	-3761
▁질병	-3762
▁승려	-3763
▁120	-3764
▁그만	-3765
▁확산	-3766
거운	-3767
▁인디언	-3768
▁트랜	-3769
▁보고서	-3770
▁1947	-3771
▁광복	-3772
▁법정	-3773
▁해리	-3774
▁기온	-3775
▁조선총	-3776
▁균형	-3777
▁보물	-3778
▁조선총독부	-3779
▁정수	-3780
▁밝혀졌	-3781
▁큐	-3782
에이	-3783
▁동계	-3784
▁레오	-3785
▁참고	-3786
ation	-3787
라드	-3788
▁멀리	-3789
▁광역시	-3790
▁미드	-3791
▁로버트	-3792
▁형사	-3793
▁톰	-3794
▁분해	-3795
▁그렇게	-3796
▁그레	-3797
▁이명	-3798
▁폭탄	-3799
무부	-3800
▁벌이	-3801
▁바닥	-3802
▁노벨	-3803
▁복지	-3804
▁창단	-3805
▁시카	-3806
▁홍보	-3807
▁옮겼	-3808
▁악기	-3809
▁그래픽	-3810
▁마무리	-3811
▁미야	-3812
▁태조	-3813
▁도쿠	-3814
▁방위	-3815
▁올해	-3816
▁현역	-3817
▁바이에른	-3818
▁화재	-3819
▁58	-3820
▁i	-3821
베스	-3822
카이도	-3823
▁콘스탄티	-3824
▁샘	-3825
▁여왕	-3826
느님	-3827
▁드라이	-3828
▁하느님	-3829
▁본사	-3830
▁라이트	-3831
▁유행	-3832
▁승객	-3833
▁일시	-3834
▁재학	-3835
▁발굴	-3836
▁돌아와	-3837
▁수도원	-3838
로나	-3839
▁접촉	-3840
▁엄청난	-3841
▁US	-3842
▁닌	-3843
▁보살	-3844
▁일체	-3845
▁입법	-3846
▁겹	-3847
▁혼인	-3848
▁헤르	-3849
먼트	-3850
▁태국	-3851
하마	-3852
▁발탁	-3853
▁사원	-3854
ce	-3855
해서	-3856
▁보상	-3857
▁첼	-3858
메리	-3859
▁절반	-3860
▁학살	-3861
▁체코	-3862
▁피아노	-3863
▁고통	-3864
▁연고	-3865
▁복수	-3866
▁추기	-3867
▁복음	-3868
▁돕	-3869
민주	-3870
▁피하	-3871
▁가까이	-3872
▁사자	-3873
▁쾌	-3874
▁마르크	-3875
▁OS	-3876
직자	-3877
▁인용	-3878
티브	-3879
▁이혼	-3880
▁황금	-3881
바로	-3882
코스	-3883
바르	-3884
▁통산	-3885
▁주어진	-3886
▁세르비아	-3887
▁아프	-3888
▁마이클	-3889
▁따로	-3890
▁석유	-3891
▁연출	-3892
nd	-3893
▁유기	-3894
▁렀다	-3895
▁순환	-3896
▁혼합	-3897
▁증상	-3898
▁선임	-3899
▁대왕	-3900
▁오직	-3901
▁탈퇴	-3902
▁88	-3903
▁비상	-3904
▁개설	-3905
▁DNA	-3906
▁지형	-3907
릭스	-3908
▁장남	-3909
어스	-3910
▁개성	-3911
크스	-3912
▁고지	-3913
▁1942	-3914
▁두려	-3915
▁알렉산드	-3916
ri	-3917
▁프랑크	-3918
▁잠수	-3919
▁타율	-3920
▁이라크	-3921
▁DV	-3922
▁호소	-3923
▁연습	-3924
▁왕비	-3925
▁지향	-3926
▁는다는	-3927
▁결론	-3928
▁맞서	-3929
▁조카	-3930
▁입니다	-3931
▁로봇	-3932
▁참모	-3933
▁화산	-3934
▁’,	-3935
▁메시지	-3936
▁일상	-3937
▁본질	-3938
▁엑스	-3939
▁느냐	-3940
▁독재	-3941
▁기에	-3942
▁유한	-3943
▁방송국	-3944
▁(	-3945
▁당국	-3946
▁추기경	-3947
아내	-3948
▁86	-3949
▁심지어	-3950
▁;	-3951
▁격파	-3952
▁아테네	-3953
▁니시	-3954
▁스미	-3955
▁재배	-3956
▁상원	-3957
▁WWE	-3958
▁1956	-3959
▁경전	-3960
▁나온다	-3961
▁1910	-3962
▁공중	-3963
▁리스	-3964
▁상관	-3965
▁1943	-3966
▁조차	-3967
▁도덕	-3968
▁스탠	-3969
▁159	-3970
▁비서	-3971
나가	-3972
▁진격	-3973
▁대체로	-3974
▁98	-3975
▁덧붙	-3976
▁와서	-3977
▁이자	-3978
▁177	-3979
▁모토	-3980
▁인쇄	-3981
▁굳	-3982
▁늘어	-3983
▁자전	-3984
▁력	-3985
▁Ch	-3986
▁분노	-3987
▁사퇴	-3988
▁손상	-3989
▁가설	-3990
▁>,	-3991
▁바위	-3992
▁인접	-3993
▁갈색	-3994
BO	-3995
▁계층	-3996
▁나뉜다	-3997
▁무한	-3998
▁구입	-3999
▁폭격	-4000
▁랜	-4001
▁대지	-4002
▁브루	-4003
▁시드	-4004
▁적합	-4005
▁화장	-4006
▁긍	-4007
▁총회	-4008
▁세인트	-4009
▁추방	-4010
러리	-4011
▁수익	-4012
▁1958	-4013
▁중추	-4014
▁작동	-4015
▁평론	-4016
▁혁신	-4017
▁올라가	-4018
▁대책	-4019
▁벌어진	-4020
▁그리하여	-4021
▁매장	-4022
▁산하	-4023
▁즉시	-4024
▁처분	-4025
▁윗	-4026
▁사도	-4027
은행	-4028
▁검토	-4029
▁역학	-4030
투스	-4031
▁나타낸다	-4032
▁개방	-4033
▁진영	-4034
바라	-4035
제국	-4036
▁뮌	-4037
▁도요	-4038
▁비평	-4039
▁파르	-4040
▁유배	-4041
▁플래	-4042
▁이어졌	-4043
▁66	-4044
여금	-4045
이치	-4046
▁61	-4047
▁캔	-4048
▁아동	-4049
▁우라	-4050
▁메이지	-4051
▁당해	-4052
▁뱅	-4053
▁픽	-4054
▁루이스	-4055
▁어려움	-4056
다란	-4057
▁개칭	-4058
▁피해자	-4059
▁려면	-4060
▁95	-4061
▁1954	-4062
▁전술	-4063
▁게다가	-4064
▁닫	-4065
젤레스	-4066
▁57	-4067
▁상실	-4068
라이나	-4069
▁폐쇄	-4070
▁교리	-4071
▁SS	-4072
▁동서	-4073
▁갑자기	-4074
▁진학	-4075
▁동방	-4076
▁만났	-4077
▁훈장	-4078
▁롱	-4079
▁빚	-4080
▁이치	-4081
저우	-4082
▁동양	-4083
▁상속	-4084
▁였을	-4085
▁작사	-4086
포르	-4087
▁68	-4088
▁정차	-4089
▁프린	-4090
▁부지	-4091
▁페이	-4092
▁노출	-4093
▁선박	-4094
체스터	-4095
▁가마	-4096
▁남서	-4097
드리히	-4098
▁돌려	-4099
▁사양	-4100
▁닥터	-4101
▁서구	-4102
듀서	-4103
▁암호	-4104
▁프로듀서	-4105
▁×	-4106
▁전투기	-4107
ak	-4108
▁변하	-4109
▁본다	-4110
▁수요	-4111
▁프리드리히	-4112
▁내세	-4113
▁리버	-4114
▁전신	-4115
▁허락	-4116
▁미쓰	-4117
▁백만	-4118
▁갖춘	-4119
▁뮤지	-4120
▁무료	-4121
▁내놓	-4122
▁주석	-4123
사전	-4124
▁심장	-4125
▁터널	-4126
▁완벽	-4127
▁클레	-4128
▁늑	-4129
▁탄압	-4130
▁이내	-4131
▁개량	-4132
▁결의	-4133
▁1952	-4134
이너	-4135
▁급격	-4136
▁SBS	-4137
▁되돌	-4138
▁커뮤	-4139
라이언	-4140
▁깃	-4141
▁밀려	-4142
▁유효	-4143
▁여섯	-4144
▁찰스	-4145
▁일본어	-4146
art	-4147
▁단편	-4148
▁자는	-4149
▁가슴	-4150
▁식품	-4151
▁아티	-4152
▁하여금	-4153
▁줄어들	-4154
▁느낌	-4155
▁개찰	-4156
▁누리	-4157
▁다케	-4158
▁조별	-4159
ie	-4160
▁청주	-4161
▁조지아	-4162
▁천주교	-4163
▁깊이	-4164
▁아시안	-4165
▁소멸	-4166
▁위대	-4167
▁62	-4168
▁달려	-4169
키스탄	-4170
▁인도네시아	-4171
로지	-4172
▁63	-4173
▁커뮤니	-4174
▁작위	-4175
▁이시	-4176
▁쿠데	-4177
▁원수	-4178
▁후임	-4179
▁똑	-4180
사스	-4181
▁창작	-4182
▁수업	-4183
▁관여	-4184
▁1918	-4185
▁레인	-4186
▁심판	-4187
▁시카고	-4188
▁사기	-4189
▁알고리	-4190
▁신고	-4191
▁총독	-4192
▁코르	-4193
▁닛	-4194
▁김대중	-4195
▁졌으며	-4196
▁받아들이	-4197
▁찬성	-4198
텐츠	-4199
▁동지	-4200
▁세리	-4201
▁고급	-4202
피스	-4203
세포	-4204
▁탄핵	-4205
▁힘들	-4206
▁아름다운	-4207
▁동해	-4208
▁시나	-4209
▁1937	-4210
▁72	-4211
▁화려	-4212
▁규제	-4213
▁시마	-4214
▁ᆞ	-4215
▁전송	-4216
▁여겨진다	-4217
AS	-4218
igh	-4219
브리	-4220
▁남기	-4221
▁닉	-4222
▁연락	-4223
▁비행기	-4224
▁알고리즘	-4225
▁쿠데타	-4226
▁상인	-4227
▁트라	-4228
▁후속	-4229
▁드래프트	-4230
▁생겼	-4231
천군	-4232
▁IS	-4233
▁후계자	-4234
▁김성	-4235
▁소집	-4236
▁람	-4237
▁대우	-4238
▁황후	-4239
▁182	-4240
▁연설	-4241
▁연예	-4242
▁교차	-4243
▁소문	-4244
▁습격	-4245
▁막대	-4246
▁산소	-4247
▁주어졌	-4248
▁총장	-4249
▁You	-4250
▁이른바	-4251
▁1938	-4252
▁일기	-4253
▁크리	-4254
▁스탈	-4255
▁꾸준	-4256
▁대승	-4257
▁인증	-4258
▁74	-4259
▁손실	-4260
▁곡선	-4261
▁700	-4262
▁분기	-4263
▁탱	-4264
▁DVD	-4265
▁사유	-4266
▁테스트	-4267
▁그라	-4268
▁미리	-4269
▁힙	-4270
프리	-4271
▁업적	-4272
▁의문	-4273
▁인원	-4274
▁알파	-4275
▁일단	-4276
ul	-4277
▁질문	-4278
▁일으켜	-4279
▁1935	-4280
TV	-4281
▁구매	-4282
▁1955	-4283
▁매체	-4284
▁집회	-4285
▁한성	-4286
▁리가	-4287
▁76	-4288
▁약화	-4289
▁73	-4290
▁기부	-4291
▁튜	-4292
▁돌아오	-4293
가락	-4294
▁주최	-4295
▁1953	-4296
▁시신	-4297
▁환승	-4298
▁공신	-4299
▁하인	-4300
ER	-4301
▁지사	-4302
조합	-4303
▁대성	-4304
▁태종	-4305
▁힌	-4306
▁선포	-4307
▁속한	-4308
▁1959	-4309
▁프랑스군	-4310
▁정조	-4311
▁조상	-4312
▁텍사스	-4313
est	-4314
▁사과	-4315
▁신사	-4316
▁유형문화재	-4317
▁백인	-4318
▁전당	-4319
머리	-4320
▁나섰	-4321
▁호주	-4322
▁벼슬	-4323
▁김구	-4324
▁윤치	-4325
▁화제	-4326
친다	-4327
▁1914	-4328
▁종사	-4329
▁로스앤	-4330
▁로스앤젤레스	-4331
▁휴대	-4332
▁부동	-4333
ia	-4334
▁국군	-4335
▁피부	-4336
▁밥	-4337
▁젠	-4338
▁김종	-4339
▁에드워드	-4340
▁가공	-4341
▁회로	-4342
▁자국	-4343
▁재능	-4344
▁디스크	-4345
원경	-4346
▁숙종	-4347
▁실천	-4348
▁주소	-4349
조선	-4350
▁트레이드	-4351
▁선형	-4352
▁저녁	-4353
▁이른다	-4354
▁거치	-4355
▁홋	-4356
▁감각	-4357
▁동북	-4358
▁유통	-4359
▁쌀	-4360
▁치렀	-4361
▁리처	-4362
▁물건	-4363
▁보여준다	-4364
▁85	-4365
▁대칭	-4366
▁궁전	-4367
▁수호	-4368
▁군부	-4369
▁마시	-4370
▁천만	-4371
▁데이비드	-4372
리그	-4373
▁아리	-4374
▁주체	-4375
▁1936	-4376
▁끈	-4377
▁덜	-4378
▁96	-4379
▁교구	-4380
▁수백	-4381
버그	-4382
▁거짓	-4383
▁고기	-4384
▁긍정	-4385
▁가속	-4386
▁늑대	-4387
▁부친	-4388
▁쓰여	-4389
▁앵	-4390
▁연구원	-4391
클리	-4392
▁통화	-4393
AR	-4394
▁그러므로	-4395
▁프라이	-4396
▁칭호	-4397
▁가요	-4398
▁수십	-4399
▁뮌헨	-4400
▁배포	-4401
▁간부	-4402
▁가시	-4403
▁전라북도	-4404
비히	-4405
▁혼자	-4406
▁라틴어	-4407
▁서술	-4408
▁형상	-4409
▁충분히	-4410
▁할아버지	-4411
▁소형	-4412
▁카라	-4413
▁녀	-4414
총리	-4415
▁누르	-4416
▁자이언	-4417
▁덩	-4418
동생	-4419
▁뮤지컬	-4420
일리	-4421
▁프리미어	-4422
▁스마트	-4423
▁특별히	-4424
▁산화	-4425
▁에르	-4426
▁1933	-4427
▁수영	-4428
▁동인	-4429
▁치러	-4430
▁웃	-4431
믹스	-4432
▁생물학	-4433
▁빌보드	-4434
▁가와	-4435
▁못한다	-4436
▁개척	-4437
▁1957	-4438
▁질서	-4439
▁파워	-4440
▁효소	-4441
▁틈	-4442
벤트	-4443
▁발명	-4444
▁득표	-4445
▁페이지	-4446
공항	-4447
▁가난	-4448
▁스프	-4449
▁검색	-4450
▁최후	-4451
아티아	-4452
▁햄	-4453
▁중성	-4454
▁크로아티아	-4455
▁77	-4456
▁골든	-4457
▁흰색	-4458
토스	-4459
▁불안	-4460
▁증언	-4461
▁그레이	-4462
▁션	-4463
▁진단	-4464
메이	-4465
▁59	-4466
▁영주	-4467
▁전적	-4468
▁원년	-4469
다수	-4470
▁중지	-4471
스트라	-4472
BA	-4473
▁r	-4474
▁걸친	-4475
▁휘하	-4476
▁이념	-4477
▁항의	-4478
ap	-4479
질랜드	-4480
▁데스	-4481
▁경비	-4482
▁레알	-4483
▁축소	-4484
마니아	-4485
▁아웃	-4486
▁도모	-4487
▁화합	-4488
▁관계자	-4489
▁와이	-4490
▁들어오	-4491
▁뉴질랜드	-4492
▁행하	-4493
▁자본주의	-4494
▁으니	-4495
▁입대	-4496
슬러	-4497
어도	-4498
▁뻗	-4499
▁유고	-4500
▁조항	-4501
▁주일	-4502
▁반사	-4503
▁필수	-4504
▁재개	-4505
▁정면	-4506
▁가깝	-4507
▁소위	-4508
▁언덕	-4509
▁카운	-4510
베르트	-4511
▁사찰	-4512
▁코미	-4513
비치	-4514
▁CP	-4515
▁강요	-4516
▁주지	-4517
▁개별	-4518
▁양산	-4519
▁테마	-4520
▁고양이	-4521
▁비례	-4522
▁차단	-4523
▁요금	-4524
▁구름	-4525
▁소득	-4526
▁정통	-4527
▁줄이	-4528
og	-4529
▁고시	-4530
▁무력	-4531
▁잭슨	-4532
▁최우	-4533
▁돌아온	-4534
▁네이	-4535
▁더블	-4536
▁목성	-4537
▁창당	-4538
▁구멍	-4539
▁학사	-4540
▁티베	-4541
▁보건	-4542
성군	-4543
▁빅토	-4544
더스	-4545
▁풍속	-4546
▁불가리아	-4547
▁단순히	-4548
▁멈	-4549
▁암컷	-4550
▁정교회	-4551
▁발간	-4552
▁비잔	-4553
▁각국	-4554
▁재판소	-4555
▁시사	-4556
슈타인	-4557
▁랩	-4558
▁이벤트	-4559
IA	-4560
▁브라운	-4561
▁야당	-4562
▁함경	-4563
▁훌륭	-4564
▁71	-4565
▁노리	-4566
▁안쪽	-4567
▁올스타	-4568
▁열매	-4569
▁일련	-4570
▁첩	-4571
▁구상	-4572
▁평면	-4573
▁빌딩	-4574
▁사신	-4575
▁상수	-4576
▁웨이	-4577
▁감옥	-4578
▁경고	-4579
▁161	-4580
▁국제공항	-4581
▁유비	-4582
▁커다란	-4583
▁이행	-4584
▁초점	-4585
▁타점	-4586
크래프트	-4587
▁퀸	-4588
리노	-4589
▁AP	-4590
야스	-4591
▁액체	-4592
▁광범	-4593
▁대다수	-4594
▁정확히	-4595
▁랜드	-4596
▁개명	-4597
▁석방	-4598
▁이조	-4599
▁마주	-4600
▁센트	-4601
▁실점	-4602
▁마루	-4603
▁모터	-4604
▁손해	-4605
▁덕분	-4606
▁비중	-4607
▁유력	-4608
▁엄격	-4609
▁본명	-4610
▁토대	-4611
▁특별시	-4612
▁성서	-4613
▁인생	-4614
▁소방	-4615
▁소화	-4616
▁수치	-4617
ist	-4618
▁속해	-4619
▁노트	-4620
▁안내	-4621
▁87	-4622
▁고객	-4623
▁당원	-4624
▁소비자	-4625
th	-4626
▁장례	-4627
▁신도	-4628
▁지불	-4629
▁국적	-4630
▁방언	-4631
▁기동	-4632
▁대결	-4633
▁농구	-4634
도사	-4635
페이스	-4636
▁대가	-4637
▁부서	-4638
▁짝	-4639
▁턴	-4640
▁세월	-4641
일스	-4642
▁경사	-4643
▁기상	-4644
▁스탈린	-4645
▁원주민	-4646
▁쯤	-4647
▁1932	-4648
▁뤼	-4649
▁극단	-4650
▁박근	-4651
▁서인	-4652
▁석사	-4653
▁cod	-4654
▁가나	-4655
▁라스	-4656
쿠스	-4657
▁법안	-4658
▁전제	-4659
▁동성애	-4660
▁흔적	-4661
▁분화	-4662
▁저자	-4663
▁입구	-4664
▁행복	-4665
▁대한제국	-4666
▁말레이시아	-4667
▁양국	-4668
▁패션	-4669
▁세워졌	-4670
▁쿼	-4671
▁법학	-4672
▁배열	-4673
▁기병	-4674
▁포켓	-4675
▁부위	-4676
▁상주	-4677
▁타원	-4678
▁아이돌	-4679
▁1934	-4680
▁사격	-4681
▁총재	-4682
민주당	-4683
▁계곡	-4684
▁고위	-4685
▁당대	-4686
▁강도	-4687
▁관객	-4688
펙트	-4689
▁리처드	-4690
▁맨체스터	-4691
▁반지	-4692
▁원시	-4693
▁도쿠가와	-4694
▁지휘관	-4695
▁타이거	-4696
▁시상	-4697
▁실업	-4698
▁자랑	-4699
▁펼쳤	-4700
▁화석	-4701
▁발휘	-4702
▁안토	-4703
▁대법원	-4704
▁마저	-4705
▁가리킨다	-4706
BM	-4707
▁이웃	-4708
▁테크	-4709
▁마르크스	-4710
▁안동	-4711
▁세트	-4712
▁일컫	-4713
▁메리	-4714
▁영원	-4715
▁장점	-4716
▁주문	-4717
▁뚜렷	-4718
▁아트	-4719
▁주자	-4720
미야	-4721
▁...	-4722
▁게르	-4723
▁to	-4724
▁돌아갔	-4725
▁거점	-4726
▁쏘	-4727
▁쓰였	-4728
▁직무	-4729
▁후퇴	-4730
베르크	-4731
▁빠지	-4732
▁놀라	-4733
▁추대	-4734
▁토벌	-4735
▁가톨릭교회	-4736
▁–	-4737
▁종전	-4738
▁영구	-4739
▁복사	-4740
▁부처	-4741
▁안드로	-4742
▁농장	-4743
▁잠수함	-4744
▁영조	-4745
▁박근혜	-4746
▁프로그래밍	-4747
▁남녀	-4748
▁codice	-4749
▁퀘	-4750
산화	-4751
▁용도	-4752
▁폭풍	-4753
▁거느	-4754
▁드물	-4755
▁운송	-4756
▁체험	-4757
▁타워	-4758
▁포항	-4759
에도	-4760
▁다양체	-4761
▁67	-4762
▁선호	-4763
▁철거	-4764
▁78	-4765
▁겉	-4766
▁생태	-4767
▁멀티	-4768
▁봉기	-4769
▁재임	-4770
▁새끼	-4771
▁물려	-4772
▁쟁	-4773
▁탓	-4774
▁선로	-4775
마르	-4776
▁타운	-4777
▁화이트	-4778
all	-4779
▁보편	-4780
▁이어서	-4781
▁81	-4782
▁철저	-4783
▁세로	-4784
▁구사	-4785
▁오가	-4786
▁타입	-4787
▁문하	-4788
메리칸	-4789
필더	-4790
▁결심	-4791
▁나서	-4792
▁목숨	-4793
▁미드필더	-4794
▁극복	-4795
▁화폐	-4796
▁판정	-4797
▁1928	-4798
▁마감	-4799
▁성직자	-4800
▁부속	-4801
성기	-4802
▁편의	-4803
▁경제학	-4804
▁지중	-4805
▁1900	-4806
▁국토	-4807
▁종족	-4808
▁1951	-4809
ab	-4810
▁1921	-4811
숭이	-4812
▁97	-4813
▁170	-4814
▁내셔널	-4815
▁충청북도	-4816
▁노무	-4817
▁알바	-4818
▁공세	-4819
▁놓여	-4820
▁노동당	-4821
▁십자군	-4822
▁원자력	-4823
▁프랑스어	-4824
▁수컷	-4825
▁영화제	-4826
▁음성	-4827
▁배웠	-4828
▁사무소	-4829
▁블록	-4830
▁질환	-4831
▁레이다	-4832
▁살아남	-4833
AT	-4834
▁∼	-4835
▁하원	-4836
▁넥	-4837
공업	-4838
▁안티	-4839
▁오류	-4840
ess	-4841
▁1924	-4842
여서	-4843
▁→	-4844
▁훼	-4845
▁구글	-4846
▁사우스	-4847
▁전동차	-4848
부사	-4849
▁드래	-4850
▁힙합	-4851
바키아	-4852
▁비틀	-4853
▁진실	-4854
▁인터페이스	-4855
오르	-4856
▁접속	-4857
▁176	-4858
▁점성	-4859
▁해제	-4860
▁산지	-4861
▁착용	-4862
▁92	-4863
▁부품	-4864
▁오버	-4865
▁선거구	-4866
▁상소	-4867
▁쓰러	-4868
▁꺼	-4869
▁AT	-4870
▁미분	-4871
▁클래식	-4872
▁Al	-4873
▁변신	-4874
▁광범위	-4875
▁조선인	-4876
▁의정부	-4877
▁기갑	-4878
▁삭제	-4879
▁영혼	-4880
으므로	-4881
▁뼈	-4882
▁항해	-4883
▁크로스	-4884
▁자책	-4885
▁1931	-4886
▁문인	-4887
▁블라	-4888
▁KBO	-4889
▁프로세서	-4890
▁Th	-4891
▁이어진	-4892
가니	-4893
▁빵	-4894
▁억제	-4895
뜨리	-4896
▁부탁	-4897
▁루마니아	-4898
마이	-4899
▁91	-4900
▁서방	-4901
▁포스트	-4902
▁별로	-4903
▁신장	-4904
▁1923	-4905
▁계수	-4906
▁간격	-4907
▁오키	-4908
▁무릎	-4909
▁오카	-4910
▁각본	-4911
▁베네치아	-4912
▁치르	-4913
▁하사	-4914
▁하와	-4915
▁식량	-4916
▁모바	-4917
▁싱가	-4918
▁싱가포르	-4919
무늬	-4920
▁태자	-4921
▁84	-4922
▁Re	-4923
▁대동	-4924
▁선교사	-4925
▁불화	-4926
▁장갑	-4927
▁1925	-4928
▁아무런	-4929
▁중시	-4930
힌다	-4931
▁돌파	-4932
▁첫째	-4933
▁한나라	-4934
▁93	-4935
▁가이	-4936
▁보스턴	-4937
▁진동	-4938
▁옵	-4939
▁창원	-4940
▁망원경	-4941
▁똑같	-4942
▁그래프	-4943
▁루스	-4944
▁타인	-4945
▁162	-4946
▁한나라당	-4947
▁매치	-4948
▁문과	-4949
▁세부	-4950
▁역전	-4951
란색	-4952
▁코미디	-4953
▁교과	-4954
니즘	-4955
▁레벨	-4956
▁전작	-4957
▁스크린	-4958
▁중립	-4959
타이	-4960
▁일행	-4961
▁초청	-4962
▁모바일	-4963
▁교도	-4964
▁세금	-4965
▁해설	-4966
▁무너	-4967
▁나선	-4968
▁자유주의	-4969
if	-4970
▁간다	-4971
▁대원	-4972
▁강등	-4973
▁고교	-4974
▁합동	-4975
▁보르	-4976
▁성명	-4977
▁모음	-4978
▁요원	-4979
▁AFC	-4980
▁글로벌	-4981
▁철학자	-4982
▁디아	-4983
▁조화	-4984
▁가해	-4985
▁세조	-4986
▁유가	-4987
▁데리	-4988
▁선물	-4989
세대	-4990
▁가끔	-4991
▁관중	-4992
▁뷰	-4993
키퍼	-4994
▁올린	-4995
▁원조	-4996
▁골키퍼	-4997
▁라이프	-4998
ine	-4999
리우스	-5000
▁섹	-5001
▁노조	-5002
자키	-5003
▁합리	-5004
▁아인	-5005
▁1929	-5006
너스	-5007
인물	-5008
▁옮기	-5009
▁받침	-5010
▁북미	-5011
▁출현	-5012
▁칭하	-5013
▁기관차	-5014
▁본토	-5015
▁인민군	-5016
▁수직	-5017
▁이재	-5018
IS	-5019
▁유대인	-5020
▁싫	-5021
▁초상	-5022
▁다다	-5023
▁티베트	-5024
▁그리스어	-5025
▁비스	-5026
▁크루	-5027
▁압도	-5028
▁그럼	-5029
▁요미	-5030
▁기리	-5031
▁현존	-5032
▁선제	-5033
▁각자	-5034
▁공국	-5035
▁일자	-5036
▁추적	-5037
▁꾼	-5038
▁무늬	-5039
▁해발	-5040
▁아티스트	-5041
▁압축	-5042
▁장로	-5043
▁유산	-5044
▁이날	-5045
▁는다고	-5046
▁82	-5047
▁왕가	-5048
▁낼	-5049
▁기용	-5050
▁독점	-5051
▁어두	-5052
▁위안	-5053
▁촉진	-5054
베리아	-5055
▁="	-5056
▁투구	-5057
▁혈액	-5058
▁항공사	-5059
▁1922	-5060
▁줬	-5061
▁금강	-5062
▁히로시마	-5063
▁좌파	-5064
▁1907	-5065
▁소요	-5066
▁기단	-5067
▁자이언츠	-5068
▁윙	-5069
사이	-5070
▁전직	-5071
▁고서	-5072
▁단행	-5073
▁무용	-5074
▁성씨	-5075
▁오케	-5076
▁중계	-5077
▁남겨	-5078
▁대변	-5079
▁우크라	-5080
▁모시	-5081
테스	-5082
▁시트	-5083
▁들어서	-5084
▁급속	-5085
▁남아프리카	-5086
시스코	-5087
▁JR	-5088
▁노비	-5089
▁밀리	-5090
▁코어	-5091
데이	-5092
▁크라	-5093
▁기압	-5094
▁""	-5095
▁경남	-5096
▁당신	-5097
▁킬로	-5098
ct	-5099
▁수감	-5100
▁임신	-5101
▁마스터	-5102
▁후쿠오카	-5103
▁좌석	-5104
▁교향곡	-5105
▁국방부	-5106
▁드러나	-5107
▁집필	-5108
▁팩	-5109
▁필드	-5110
▁간섭	-5111
▁스승	-5112
▁회색	-5113
▁죠	-5114
▁1905	-5115
▁겨우	-5116
▁명문	-5117
▁오이	-5118
▁발전소	-5119
▁내장	-5120
▁영양	-5121
▁교역	-5122
저스	-5123
▁음모	-5124
▁분산	-5125
▁자매	-5126
▁과장	-5127
▁프로토	-5128
코프	-5129
키스	-5130
▁우에	-5131
▁프랭	-5132
▁명시	-5133
▁언스	-5134
▁코너	-5135
▁칙	-5136
▁톨	-5137
▁늘어나	-5138
▁레스	-5139
▁토론토	-5140
▁리드	-5141
▁전향	-5142
▁진술	-5143
▁오염	-5144
▁새벽	-5145
ight	-5146
▁이명박	-5147
▁크레	-5148
▁140	-5149
▁차체	-5150
▁특급	-5151
▁Lo	-5152
▁MS	-5153
티움	-5154
▁골드	-5155
▁댄스	-5156
▁무산	-5157
▁69	-5158
▁일환	-5159
▁지수	-5160
▁평소	-5161
▁자산	-5162
▁94	-5163
▁MV	-5164
▁re	-5165
▁아메리칸	-5166
위대	-5167
▁넘겨	-5168
▁우익	-5169
▁약탈	-5170
▁수장	-5171
▁심하	-5172
▁윤리	-5173
▁175	-5174
▁거둔	-5175
▁천안	-5176
▁도호	-5177
ON	-5178
▁생애	-5179
▁1917	-5180
센트	-5181
▁호조	-5182
▁매각	-5183
▁평론가	-5184
▁상처	-5185
▁합니다	-5186
▁사관	-5187
▁서적	-5188
▁행해	-5189
▁엘리자	-5190
▁개수	-5191
▁동화	-5192
▁닮	-5193
ard	-5194
▁쇠퇴	-5195
▁다이묘	-5196
▁콘텐츠	-5197
▁동명	-5198
▁연금	-5199
▁료	-5200
▁주류	-5201
▁빗	-5202
다른	-5203
▁이즈	-5204
시스트	-5205
▁1912	-5206
▁부드	-5207
▁떼	-5208
▁개장	-5209
▁파티	-5210
▁09	-5211
▁HD	-5212
▁데려	-5213
▁글씨	-5214
▁라우	-5215
▁침해	-5216
기압	-5217
▁동반	-5218
▁IC	-5219
▁비하	-5220
▁진상	-5221
▁해진	-5222
▁연소	-5223
▁곧바로	-5224
닉스	-5225
▁공룡	-5226
▁부호	-5227
▁단장	-5228
▁평생	-5229
▁대만	-5230
과이	-5231
▁플로리	-5232
▁사직	-5233
▁삽입	-5234
▁여우	-5235
▁재생	-5236
▁카스	-5237
무르	-5238
▁꾸준히	-5239
미아	-5240
▁사막	-5241
▁연계	-5242
▁예방	-5243
▁놀이	-5244
▁운항	-5245
▁흥미	-5246
산시	-5247
▁코파	-5248
▁노무현	-5249
▁로렌	-5250
▁부유	-5251
▁쿠바	-5252
▁1926	-5253
▁민족주의	-5254
▁04	-5255
▁운동가	-5256
EC	-5257
▁르네	-5258
▁1927	-5259
ue	-5260
▁110	-5261
▁사라지	-5262
▁마그	-5263
▁적응	-5264
▁지름	-5265
▁포스	-5266
▁130	-5267
▁89	-5268
▁시계	-5269
▁주재	-5270
▁피터	-5271
▁강릉	-5272
▁유용	-5273
▁기하학	-5274
▁전해진다	-5275
ell	-5276
▁셋째	-5277
▁의병	-5278
▁툴	-5279
▁지표	-5280
▁164	-5281
▁바르셀	-5282
ill	-5283
▁제이	-5284
▁163	-5285
▁바르셀로나	-5286
▁익스	-5287
▁제의	-5288
▁101	-5289
ES	-5290
주군	-5291
▁맞춰	-5292
▁전승	-5293
▁가하	-5294
▁되찾	-5295
▁적어도	-5296
▁수반	-5297
▁홋카이도	-5298
▁83	-5299
▁미시	-5300
▁참판	-5301
▁포켓몬	-5302
▁캠프	-5303
▁스테이션	-5304
▁연평	-5305
▁가르치	-5306
▁들여	-5307
▁중동	-5308
▁상하이	-5309
▁동치	-5310
사르	-5311
▁배상	-5312
▁예외	-5313
▁파운드	-5314
▁걷	-5315
▁살펴	-5316
▁지부	-5317
▁250	-5318
▁일곱	-5319
▁모자	-5320
▁예언	-5321
▁전망	-5322
▁물고기	-5323
▁때로	-5324
▁도어	-5325
▁NH	-5326
▁적색	-5327
▁사이드	-5328
▁페이스	-5329
돌프	-5330
▁근육	-5331
▁반환	-5332
▁유역	-5333
▁01	-5334
▁낸다	-5335
다니	-5336
▁황태	-5337
▁카페	-5338
▁청동	-5339
▁파울	-5340
▁선두	-5341
▁시달	-5342
▁라이벌	-5343
멘트	-5344
▁가구	-5345
▁좌익	-5346
▁직선	-5347
도니아	-5348
▁갱	-5349
▁신임	-5350
▁전류	-5351
▁립	-5352
▁제약	-5353
▁광산	-5354
▁홀로	-5355
▁모노	-5356
▁클래스	-5357
▁알레	-5358
▁스테이지	-5359
▁옛날	-5360
▁고안	-5361
▁신하	-5362
▁사로	-5363
▁탕	-5364
▁로즈	-5365
▁비치	-5366
▁지연	-5367
▁주파	-5368
▁굽	-5369
▁사촌	-5370
▁관찰사	-5371
▁두려워	-5372
▁근로	-5373
▁나타난	-5374
▁납치	-5375
▁지칭	-5376
▁수천	-5377
▁외계	-5378
▁콘스탄티노	-5379
▁매니	-5380
▁클로	-5381
ub	-5382
▁유키	-5383
▁조기	-5384
▁레지	-5385
긴다	-5386
▁앤드	-5387
▁이에	-5388
▁국민당	-5389
▁자사	-5390
▁페리	-5391
▁무관	-5392
▁79	-5393
▁유입	-5394
수량	-5395
▁다녔	-5396
▁토마스	-5397
▁요미우리	-5398
ew	-5399
▁국기	-5400
▁전남	-5401
▁호환	-5402
▁음악가	-5403
▁좋아하	-5404
란다	-5405
▁교섭	-5406
▁문법	-5407
▁원장	-5408
▁이마	-5409
▁이와	-5410
▁하와이	-5411
▁랭킹	-5412
▁뛰어나	-5413
▁단종	-5414
▁복구	-5415
▁붙잡	-5416
▁마쳤	-5417
▁목격	-5418
▁야스	-5419
▁림	-5420
▁드러내	-5421
▁핸	-5422
문관	-5423
▁대단	-5424
▁스카이	-5425
▁돔	-5426
ive	-5427
▁방안	-5428
▁유인	-5429
▁유신	-5430
▁1908	-5431
▁사립	-5432
▁클리	-5433
둥이	-5434
▁인력	-5435
▁칩	-5436
▁호흡	-5437
▁거친	-5438
▁유발	-5439
▁저기압	-5440
▁특허	-5441
▁사당	-5442
▁스톤	-5443
▁패전	-5444
▁168	-5445
▁권유	-5446
▁복소	-5447
▁채권	-5448
▁158	-5449
▁바오	-5450
▁쓴다	-5451
▁펼치	-5452
▁포드	-5453
▁요코하마	-5454
▁토너	-5455
▁통로	-5456
▁표본	-5457
▁잠재	-5458
▁이루어진다	-5459
페이지	-5460
▁165	-5461
▁고속도로	-5462
▁모래	-5463
▁전두	-5464
프레	-5465
▁메탈	-5466
▁빨리	-5467
버드	-5468
▁보좌	-5469
▁정계	-5470
▁홈페이지	-5471
our	-5472
▁대령	-5473
▁모집	-5474
▁여서	-5475
▁퍼져	-5476
▁화가	-5477
▁강남	-5478
▁지휘자	-5479
▁드리	-5480
▁싸웠	-5481
▁왕족	-5482
▁Be	-5483
▁색깔	-5484
추어	-5485
▁주의자	-5486
▁루트비히	-5487
▁던지	-5488
▁묘소	-5489
▁피트	-5490
▁연상	-5491
▁항일	-5492
▁협의	-5493
▁비잔티움	-5494
▁경유	-5495
▁탑승	-5496
하이	-5497
▁유닛	-5498
AM	-5499
구리	-5500
해군	-5501
▁사면	-5502
▁루수	-5503
▁밀라노	-5504
▁아비	-5505
▁친정	-5506
▁뚫	-5507
▁농촌	-5508
▁모듈	-5509
▁흙	-5510
▁08	-5511
▁규명	-5512
▁퀴	-5513
▁선보였	-5514
▁심한	-5515
▁비즈	-5516
▁설비	-5517
▁참조	-5518
▁y	-5519
영상	-5520
▁정자	-5521
▁엽	-5522
▁플로리다	-5523
▁뱀	-5524
▁De	-5525
▁정교	-5526
▁핫	-5527
▁151	-5528
▁일으킨	-5529
▁협약	-5530
▁번뇌	-5531
▁커버	-5532
▁강전	-5533
▁섬유	-5534
투아	-5535
▁박쥐	-5536
▁푼	-5537
▁걸려	-5538
▁걸리	-5539
▁레닌	-5540
▁입증	-5541
레이크	-5542
▁아기	-5543
▁정류	-5544
▁샤를	-5545
▁수수	-5546
▁지중해	-5547
▁의석	-5548
▁독일어	-5549
▁무효	-5550
▁브로	-5551
▁마케도니아	-5552
▁시게	-5553
리나	-5554
▁스미스	-5555
▁버지	-5556
▁패러	-5557
경기	-5558
▁곤충	-5559
▁권고	-5560
▁프레임	-5561
▁주니어	-5562
▁자문	-5563
▁당사자	-5564
▁리스트	-5565
▁세워진	-5566
▁토너먼트	-5567
균관	-5568
▁훼손	-5569
구치	-5570
▁기생	-5571
▁재즈	-5572
▁들어와	-5573
▁알렉산더	-5574
▁압박	-5575
▁인자	-5576
▁펑	-5577
▁기종	-5578
▁와중	-5579
▁혜성	-5580
천시	-5581
▁연령	-5582
▁부동산	-5583
우치	-5584
▁성종	-5585
▁트레이	-5586
▁영감	-5587
▁옹호	-5588
▁분배	-5589
▁장사	-5590
▁BBC	-5591
▁진나라	-5592
▁밸	-5593
▁정벌	-5594
▁봐	-5595
▁달아	-5596
▁신비	-5597
▁험	-5598
스팅	-5599
▁성남	-5600
▁약물	-5601
▁배제	-5602
▁퇴각	-5603
▁꼴	-5604
▁램	-5605
▁시집	-5606
▁빌리	-5607
▁실내	-5608
▁정사	-5609
▁진지	-5610
▁해협	-5611
▁물러나	-5612
▁증기	-5613
▁찾아가	-5614
눅스	-5615
▁리눅스	-5616
▁벌어졌	-5617
▁여인	-5618
런스	-5619
▁메달	-5620
회의	-5621
▁마틴	-5622
▁문재	-5623
▁그럼에도	-5624
▁무신	-5625
▁필라	-5626
▁바이올	-5627
레오	-5628
▁무인	-5629
▁아울	-5630
▁어릴	-5631
▁주한	-5632
▁콜로	-5633
▁항목	-5634
▁과도	-5635
▁문제점	-5636
▁아마추어	-5637
방송	-5638
▁강연	-5639
▁멸종	-5640
▁조명	-5641
▁여동생	-5642
▁딘	-5643
▁게시	-5644
▁봉사	-5645
대문	-5646
히로	-5647
▁여진	-5648
▁존경	-5649
▁파동	-5650
▁156	-5651
▁Me	-5652
▁고고	-5653
레나	-5654
베이스	-5655
▁나폴리	-5656
▁화합물	-5657
슬로	-5658
▁딱	-5659
▁누스	-5660
▁용인	-5661
▁측근	-5662
▁154	-5663
▁운명	-5664
▁베타	-5665
보이	-5666
▁착수	-5667
▁등장인물	-5668
▁인치	-5669
▁서울시	-5670
토미	-5671
▁폐기	-5672
▁우크라이나	-5673
▁펄	-5674
▁그쳤	-5675
▁아도	-5676
▁플레	-5677
▁교전	-5678
▁서서	-5679
대군	-5680
▁하드웨어	-5681
▁역과	-5682
▁초래	-5683
▁동영상	-5684
▁구동	-5685
▁부수	-5686
데르	-5687
▁리아	-5688
▁쇼군	-5689
▁중종	-5690
ud	-5691
ity	-5692
▁도심	-5693
▁동굴	-5694
▁원로	-5695
▁이브	-5696
▁이수	-5697
▁MVP	-5698
드레	-5699
▁용기	-5700
베리	-5701
▁별자리	-5702
▁선진	-5703
▁상임	-5704
▁식사	-5705
▁성균관	-5706
ip	-5707
▁KT	-5708
▁이정	-5709
▁여객철도	-5710
▁히데요시	-5711
보살	-5712
▁삼각	-5713
▁자마	-5714
▁색상	-5715
▁용량	-5716
▁레이블	-5717
▁엉	-5718
▁지목	-5719
▁베리	-5720
▁개찰구	-5721
▁쿨	-5722
▁승차	-5723
▁박스	-5724
▁전북	-5725
▁귀환	-5726
▁두드	-5727
▁자면	-5728
▁스펙트	-5729
▁남인	-5730
▁바티	-5731
▁들어간	-5732
▁고조	-5733
▁153	-5734
▁김영삼	-5735
▁가게	-5736
▁미술관	-5737
▁아프가니	-5738
총장	-5739
▁관하	-5740
▁동전	-5741
▁띤	-5742
트니	-5743
▁시체	-5744
▁패턴	-5745
▁152	-5746
▁스티븐	-5747
▁좌표	-5748
▁166	-5749
▁성벽	-5750
▁아군	-5751
▁표지	-5752
▁반격	-5753
▁버지니아	-5754
▁스펙트럼	-5755
▁잊	-5756
▁무선	-5757
▁해임	-5758
▁유고슬	-5759
▁유고슬라비아	-5760
▁과제	-5761
▁노드	-5762
▁만난	-5763
▁서북	-5764
▁흩	-5765
루살	-5766
▁부작	-5767
▁이종	-5768
▁헤드	-5769
▁머물렀	-5770
▁창간	-5771
루살렘	-5772
▁145	-5773
▁부패	-5774
▁자책점	-5775
페인	-5776
필드	-5777
▁AC	-5778
▁몰락	-5779
▁그려져	-5780
▁공전	-5781
▁기재	-5782
▁대답	-5783
▁비로	-5784
▁업데	-5785
▁업데이트	-5786
▁전두환	-5787
▁끼리	-5788
▁전임	-5789
▁콜롬	-5790
▁필립	-5791
▁펀	-5792
▁발효	-5793
▁굉	-5794
▁ST	-5795
▁건의	-5796
▁시아	-5797
▁지질	-5798
▁스타크래프트	-5799
▁딴	-5800
외선	-5801
▁위주	-5802
▁139	-5803
▁얼마나	-5804
▁낱	-5805
▁웰	-5806
▁사사	-5807
▁여신	-5808
▁스타디	-5809
▁빅토리아	-5810
▁묘지	-5811
▁애국	-5812
▁한양	-5813
▁공략	-5814
▁산악	-5815
▁최우수	-5816
▁피난	-5817
미니	-5818
▁책봉	-5819
▁봤	-5820
▁마일	-5821
▁자바	-5822
▁벌어지	-5823
▁Sh	-5824
▁못해	-5825
▁충성	-5826
▁성모	-5827
▁없애	-5828
▁저널	-5829
▁위키	-5830
▁추격	-5831
▁추락	-5832
▁파트너	-5833
ers	-5834
▁내륙	-5835
▁체인	-5836
▁예루살렘	-5837
▁과목	-5838
▁돼지	-5839
▁회견	-5840
▁안토니	-5841
▁고르	-5842
명사전	-5843
▁메트로	-5844
드라	-5845
어로	-5846
▁액션	-5847
카스	-5848
ect	-5849
▁가득	-5850
▁고분	-5851
▁발레	-5852
▁자고	-5853
ne	-5854
▁딜	-5855
▁육성	-5856
▁이순	-5857
오리	-5858
▁사료	-5859
▁개발자	-5860
▁롬	-5861
▁수명	-5862
▁파생	-5863
▁글리	-5864
▁점유	-5865
▁챔피언십	-5866
▁히어로	-5867
▁민속	-5868
▁기념물	-5869
▁st	-5870
▁대행	-5871
▁167	-5872
▁제주도	-5873
▁천문학	-5874
미르	-5875
▁학파	-5876
▁봉해졌	-5877
▁협의회	-5878
▁고립	-5879
▁대조	-5880
▁쏟	-5881
▁공자	-5882
▁특유	-5883
▁아프가니스탄	-5884
▁청와	-5885
▁밀접	-5886
▁커피	-5887
▁서서히	-5888
▁청와대	-5889
▁오디션	-5890
PS	-5891
▁이이	-5892
▁존슨	-5893
▁주사	-5894
▁최신	-5895
▁목포	-5896
▁복제	-5897
▁자손	-5898
▁비틀즈	-5899
AN	-5900
▁소행	-5901
▁취재	-5902
▁수학자	-5903
▁전진	-5904
▁탐험	-5905
▁호남	-5906
문학	-5907
▁전장	-5908
Pa	-5909
▁번지	-5910
▁후일	-5911
잡이	-5912
▁가질	-5913
▁얼음	-5914
▁주거	-5915
▁서독	-5916
▁급행	-5917
▁부흥	-5918
▁수면	-5919
▁보통학교	-5920
▁좌상	-5921
▁이스트	-5922
▁기름	-5923
▁모으	-5924
▁th	-5925
▁구제	-5926
▁웨일스	-5927
▁중추원	-5928
▁회원국	-5929
iv	-5930
▁세례	-5931
▁꾀	-5932
▁구리	-5933
로운	-5934
▁곳곳	-5935
▁관습	-5936
▁수신	-5937
▁전함	-5938
▁투명	-5939
▁규격	-5940
▁추증	-5941
▁룸	-5942
▁떨어졌	-5943
▁깔	-5944
▁북아메리카	-5945
▁루터	-5946
▁수군	-5947
▁지역구	-5948
▁1906	-5949
▁개업	-5950
▁긴급	-5951
▁바그	-5952
▁경찰서	-5953
▁사로잡	-5954
▁안보	-5955
▁투스	-5956
▁PD	-5957
▁운반	-5958
▁칼리지	-5959
▁1911	-5960
▁정찰	-5961
▁하천	-5962
▁이토	-5963
▁대사관	-5964
▁간접	-5965
▁사라졌	-5966
▁입사	-5967
▁사인	-5968
▁건축물	-5969
야수	-5970
▁풋	-5971
교육	-5972
▁과일	-5973
▁신칸	-5974
▁오다	-5975
프란	-5976
▁야기	-5977
▁칠레	-5978
▁라이온	-5979
▁찌	-5980
▁께서	-5981
▁향년	-5982
플레이	-5983
▁검증	-5984
▁해전	-5985
▁친일인	-5986
▁친일인명사전	-5987
▁국도	-5988
▁토르	-5989
결승	-5990
▁계단	-5991
▁부자	-5992
▁소지	-5993
▁드래곤	-5994
▁유성	-5995
▁157	-5996
▁얘	-5997
▁약한	-5998
▁배정	-5999
▁석탄	-6000
▁진군	-6001
나르	-6002
티스	-6003
▁대군	-6004
▁유격	-6005
▁겸임	-6006
▁킨	-6007
▁자기장	-6008
▁라트	-6009
▁흥행	-6010
▁상대방	-6011
트롤	-6012
▁미카	-6013
▁스타디움	-6014
▁슐	-6015
▁휩	-6016
▁포맷	-6017
배우	-6018
▁융합	-6019
▁적대	-6020
▁메르	-6021
▁트레	-6022
▁아이디	-6023
▁대주교	-6024
▁우주선	-6025
▁모로	-6026
▁코트	-6027
▁174	-6028
아지	-6029
▁존스	-6030
▁연루	-6031
▁성공회	-6032
▁공용	-6033
▁완화	-6034
OR	-6035
▁앞면	-6036
▁신칸센	-6037
▁아오	-6038
▁조용	-6039
▁인과	-6040
▁중장	-6041
부인	-6042
집합	-6043
▁호평	-6044
▁댐	-6045
▁한데	-6046
▁해인	-6047
ant	-6048
▁디젤	-6049
▁곁	-6050
타운	-6051
▁사물	-6052
▁아가	-6053
▁원산	-6054
▁착륙	-6055
▁합작	-6056
▁승무원	-6057
▁아이템	-6058
▁출판사	-6059
차례	-6060
▁근접	-6061
▁악마	-6062
▁주파수	-6063
▁각기	-6064
▁붙이	-6065
▁엘리자베스	-6066
▁실용	-6067
▁교장	-6068
▁재무	-6069
▁패스	-6070
▁렌즈	-6071
▁은메달	-6072
▁곰	-6073
▁격렬	-6074
▁생명체	-6075
▁판매량	-6076
▁플루	-6077
▁킬로미터	-6078
▁렉	-6079
ain	-6080
▁노인	-6081
▁하노	-6082
받침	-6083
▁삼진	-6084
▁얇	-6085
ore	-6086
▁com	-6087
▁중국어	-6088
껍질	-6089
▁An	-6090
▁토착	-6091
마사	-6092
▁뱅크	-6093
▁이리	-6094
▁보잉	-6095
▁장인	-6096
▁회수	-6097
▁심리학	-6098
▁5000	-6099
사관	-6100
▁유교	-6101
▁동경	-6102
▁전례	-6103
▁항공모	-6104
▁1500	-6105
▁모순	-6106
▁규슈	-6107
▁기아	-6108
▁외무	-6109
▁프로세스	-6110
▁일찍이	-6111
유키	-6112
혁명	-6113
▁동아시아	-6114
▁스와	-6115
▁패하	-6116
AC	-6117
▁발렌	-6118
▁07	-6119
▁구로	-6120
▁인텔	-6121
메니아	-6122
▁그랜드	-6123
▁일족	-6124
▁종로	-6125
▁모니	-6126
▁수비수	-6127
▁데이터베이스	-6128
▁남한	-6129
▁바둑	-6130
▁풀려	-6131
리케이션	-6132
▁진흥	-6133
▁할당	-6134
▁원자로	-6135
▁뿔	-6136
▁제갈	-6137
▁퍼시	-6138
▁커뮤니티	-6139
▁짙	-6140
▁틴	-6141
▁PS	-6142
▁젖	-6143
▁다녀	-6144
▁포크	-6145
▁필름	-6146
▁기점	-6147
▁최상	-6148
▁일어난다	-6149
▁변동	-6150
▁상무	-6151
▁태수	-6152
▁지분	-6153
▁케이블	-6154
▁우루	-6155
▁물러났	-6156
▁아르메니아	-6157
태우	-6158
▁여덟	-6159
▁포도주	-6160
▁구장	-6161
▁분지	-6162
▁직위	-6163
마치	-6164
슬리	-6165
▁내지	-6166
▁조언	-6167
▁지각	-6168
▁사거리	-6169
▁노동조합	-6170
▁랄	-6171
▁번식	-6172
▁오리지	-6173
▁대안	-6174
▁죽였	-6175
▁나이트	-6176
즈니	-6177
ang	-6178
▁국어	-6179
▁146	-6180
▁기다리	-6181
▁자전거	-6182
▁붓	-6183
▁넓이	-6184
▁상류	-6185
▁석탑	-6186
▁판타	-6187
▁소설가	-6188
▁아이디어	-6189
▁관현	-6190
▁영광	-6191
▁전지	-6192
▁출구	-6193
▁전문학교	-6194
▁고무	-6195
▁면역	-6196
▁점프	-6197
▁크림	-6198
자치	-6199
▁가르침	-6200
▁사무실	-6201
게이	-6202
랑이	-6203
▁벨라	-6204
▁알렸	-6205
▁월간	-6206
▁두드러	-6207
▁관념	-6208
▁포수	-6209
▁아울러	-6210
▁버그	-6211
▁리듬	-6212
▁부리	-6213
▁유출	-6214
▁에스파	-6215
소스	-6216
▁친척	-6217
▁팽창	-6218
▁관광객	-6219
▁한성부	-6220
▁증권	-6221
▁진리	-6222
▁매출	-6223
▁상영	-6224
▁와카	-6225
▁트럭	-6226
▁파키스탄	-6227
▁항공모함	-6228
▁독립운동가	-6229
▁퓨	-6230
생물	-6231
카드	-6232
▁05	-6233
▁서재	-6234
▁브라우	-6235
▁03	-6236
▁내내	-6237
▁명사	-6238
▁이어져	-6239
타카	-6240
▁가쓰	-6241
▁믿음	-6242
▁지주	-6243
▁흔들	-6244
IN	-6245
고속	-6246
▁제후	-6247
▁전도	-6248
▁왕립	-6249
▁비즈니스	-6250
▁연애	-6251
▁빨간	-6252
▁선사	-6253
▁정밀	-6254
▁협조	-6255
▁원나라	-6256
▁스틸	-6257
▁CPU	-6258
▁도리	-6259
▁상상	-6260
▁채무	-6261
▁젤	-6262
▁알바니아	-6263
▁애플리케이션	-6264
▁AM	-6265
▁단점	-6266
▁유언	-6267
악기	-6268
악단	-6269
▁DJ	-6270
▁박영	-6271
▁자마자	-6272
▁1909	-6273
▁캡	-6274
▁부통령	-6275
▁기습	-6276
▁방침	-6277
▁동메달	-6278
▁컨트롤	-6279
▁오케스트라	-6280
▁무슬	-6281
▁미스	-6282
▁사명	-6283
레이터	-6284
▁스파르타	-6285
▁신용	-6286
▁정서	-6287
▁141	-6288
수수	-6289
▁공격수	-6290
▁이복	-6291
▁금액	-6292
▁나주	-6293
▁171	-6294
▁He	-6295
▁병조	-6296
▁연구자	-6297
▁3000	-6298
▁사리	-6299
▁로고	-6300
▁언제나	-6301
▁Sp	-6302
▁동독	-6303
▁원하	-6304
▁가르쳤	-6305
▁라마	-6306
▁즐기	-6307
▁착공	-6308
▁촉구	-6309
폴리스	-6310
▁건너가	-6311
▁1896	-6312
▁스페셜	-6313
▁틱	-6314
▁긴장	-6315
베이터	-6316
▁시모	-6317
▁선수단	-6318
▁코리아	-6319
OM	-6320
가시	-6321
▁양상	-6322
플러	-6323
▁미만	-6324
up	-6325
▁펴	-6326
▁무상	-6327
▁릭	-6328
▁사카	-6329
▁테르	-6330
▁마친	-6331
▁155	-6332
클린	-6333
▁SM	-6334
▁사범	-6335
▁제휴	-6336
칠리아	-6337
▁샌프란	-6338
▁샌프란시스코	-6339
▁궁정	-6340
▁수지	-6341
▁이오	-6342
▁무슬림	-6343
▁천문학자	-6344
ong	-6345
▁위장	-6346
▁종결	-6347
▁가져왔	-6348
▁컸	-6349
▁강사	-6350
▁광역	-6351
▁하버드	-6352
▁든지	-6353
▁상부	-6354
▁피고	-6355
▁첸	-6356
▁눈물	-6357
▁응답	-6358
▁일관	-6359
▁제수	-6360
슬링	-6361
▁공립	-6362
▁외곽	-6363
▁주권	-6364
▁후자	-6365
▁게재	-6366
▁조국	-6367
▁연평균	-6368
▁바이올린	-6369
▁왈	-6370
▁링크	-6371
▁와인	-6372
▁초창	-6373
▁통행	-6374
▁리투아	-6375
▁리투아니아	-6376
▁명의	-6377
▁My	-6378
▁보충	-6379
▁지나치	-6380
▁담배	-6381
▁송시	-6382
몬드	-6383
▁디오	-6384
▁시공	-6385
▁다룬	-6386
밀리	-6387
▁우지	-6388
▁직장	-6389
▁스케이	-6390
▁통칭	-6391
▁hPa	-6392
▁무죄	-6393
무게	-6394
▁맥스	-6395
▁몸무게	-6396
▁오리지널	-6397
▁모험	-6398
▁빌헬	-6399
▁거느리	-6400
▁센트럴	-6401
▁플라스	-6402
▁쇄	-6403
▁금성	-6404
▁동등	-6405
▁떠난	-6406
▁여의	-6407
▁화살	-6408
▁병역	-6409
▁삼각형	-6410
▁아리스	-6411
▁1895	-6412
프스	-6413
▁민국	-6414
▁존중	-6415
▁차남	-6416
▁서식지	-6417
랑크	-6418
▁고개	-6419
▁남긴	-6420
▁배급	-6421
▁예배	-6422
▁스트라이	-6423
▁MP	-6424
ED	-6425
어트	-6426
▁준공	-6427
▁취약	-6428
▁준결승	-6429
▁지지자	-6430
▁전압	-6431
▁부도	-6432
▁우드	-6433
▁중재	-6434
▁굉장	-6435
▁끊임	-6436
▁무라	-6437
▁발해	-6438
▁사르	-6439
▁써서	-6440
사기	-6441
▁매개	-6442
▁명목	-6443
▁사헌	-6444
▁선종	-6445
▁입문	-6446
▁짜리	-6447
▁끌어	-6448
▁법령	-6449
▁Un	-6450
▁교원	-6451
▁야간	-6452
▁1915	-6453
▁두루	-6454
▁고발	-6455
토시	-6456
▁안장	-6457
▁트랜스	-6458
▁시내버스	-6459
▁EP	-6460
▁타카	-6461
▁1904	-6462
가스	-6463
▁저택	-6464
▁천사	-6465
▁900	-6466
▁그동안	-6467
▁사망자	-6468
▁가면	-6469
▁갑작	-6470
▁편곡	-6471
▁중국인	-6472
▁버튼	-6473
▁지장	-6474
▁침몰	-6475
▁관리자	-6476
▁초창기	-6477
▁반박	-6478
▁카자	-6479
▁구미	-6480
▁한강	-6481
▁합법	-6482
▁호칭	-6483
▁정치가	-6484
▁마찰	-6485
▁얀	-6486
▁UN	-6487
▁서브	-6488
▁수평	-6489
▁제네	-6490
▁최적	-6491
▁푸른	-6492
ID	-6493
▁06	-6494
▁보전	-6495
▁덧붙여	-6496
▁몰려	-6497
▁속성	-6498
▁합계	-6499
▁최소한	-6500
▁상자	-6501
▁의거	-6502
▁파나	-6503
▁어두운	-6504
▁엘리베이터	-6505
▁걱	-6506
일본	-6507
▁관장	-6508
▁사헌부	-6509
▁de	-6510
▁경부	-6511
▁충족	-6512
▁트윈	-6513
스티벌	-6514
▁디자이너	-6515
▁페스티벌	-6516
ld	-6517
▁103	-6518
애나	-6519
세스	-6520
▁섭정	-6521
▁172	-6522
▁202	-6523
▁거슬러	-6524
로프	-6525
리니	-6526
▁전이	-6527
▁블라디	-6528
▁비극	-6529
▁생일	-6530
▁자율	-6531
▁영의정	-6532
▁유해	-6533
▁에이스	-6534
▁얘기	-6535
▁용산	-6536
▁인형	-6537
▁정말	-6538
▁행진	-6539
▁어워드	-6540
▁행정부	-6541
즈키	-6542
▁자발	-6543
▁객관	-6544
▁굵	-6545
▁팅	-6546
▁메가	-6547
▁취지	-6548
▁닿	-6549
아르	-6550
페이	-6551
▁급진	-6552
팩트	-6553
▁강경	-6554
▁무제	-6555
▁요크	-6556
▁추모	-6557
네이	-6558
▁음원	-6559
때로	-6560
산물	-6561
▁클린	-6562
▁단기	-6563
▁총대	-6564
av	-6565
▁발현	-6566
▁빌헬름	-6567
▁멈추	-6568
▁실종	-6569
▁주행	-6570
▁리버풀	-6571
▁이사장	-6572
▁되게	-6573
▁숭배	-6574
▁상당수	-6575
▁중성자	-6576
▁상세	-6577
▁적자	-6578
▁단원	-6579
▁성주	-6580
공신	-6581
▁소총	-6582
▁승점	-6583
▁주립	-6584
▁송시열	-6585
▁예술가	-6586
▁출입구	-6587
ob	-6588
로디	-6589
▁고베	-6590
▁사절	-6591
석기	-6592
져서	-6593
▁여겼	-6594
▁오타	-6595
▁타마	-6596
▁환상	-6597
▁북서쪽	-6598
▁송나라	-6599
▁달린	-6600
▁회화	-6601
▁우라늄	-6602
다고	-6603
▁농도	-6604
▁동사	-6605
▁넘어가	-6606
▁때때로	-6607
▁자치구	-6608
▁공과	-6609
▁다큐	-6610
▁청사	-6611
ML	-6612
▁감지	-6613
▁공인	-6614
▁식당	-6615
▁이어받	-6616
ith	-6617
▁1913	-6618
▁명백	-6619
▁소환	-6620
▁충실	-6621
▁전한다	-6622
▁토머스	-6623
▁겸하	-6624
▁러브	-6625
▁사다	-6626
하면	-6627
▁걱정	-6628
▁마카	-6629
▁문양	-6630
▁이인	-6631
▁중점	-6632
▁탈환	-6633
▁북방	-6634
▁별개	-6635
▁불편	-6636
▁역설	-6637
▁천도	-6638
▁품질	-6639
▁들어온	-6640
▁버린다	-6641
▁제곱	-6642
▁폐위	-6643
▁들어왔	-6644
▁유니폼	-6645
▁동력	-6646
▁야생	-6647
▁on	-6648
▁리치	-6649
▁양주	-6650
▁테오	-6651
식물	-6652
▁DS	-6653
▁정류장	-6654
ik	-6655
아리	-6656
▁염색	-6657
▁이틀	-6658
▁유아	-6659
▁끌려	-6660
▁버린	-6661
▁심의	-6662
▁인격	-6663
▁가라	-6664
▁후대	-6665
▁선원	-6666
▁소금	-6667
▁스프링	-6668
▁우연히	-6669
▁기수	-6670
▁도왔	-6671
▁매력	-6672
▁손가락	-6673
▁수상자	-6674
▁몬테	-6675
▁파업	-6676
가루	-6677
상스	-6678
▁아크	-6679
▁청하	-6680
▁포장	-6681
▁매사	-6682
▁상장	-6683
▁수렴	-6684
▁제트	-6685
▁창건	-6686
▁윤치호	-6687
▁틸	-6688
▁개미	-6689
▁성전	-6690
▁카리	-6691
나와	-6692
▁SN	-6693
▁바꿔	-6694
▁민영	-6695
▁버려	-6696
▁셈	-6697
▁경북	-6698
▁중도	-6699
▁김해	-6700
▁법무	-6701
▁아틀	-6702
▁전대	-6703
▁차관	-6704
텐도	-6705
▁닌텐도	-6706
메르	-6707
▁계몽	-6708
▁최저	-6709
▁레이저	-6710
▁수습	-6711
▁Love	-6712
▁이슈	-6713
▁편리	-6714
ET	-6715
▁샬	-6716
▁성사	-6717
ib	-6718
지마	-6719
행위	-6720
▁쉬운	-6721
▁출산	-6722
▁트위	-6723
▁효력	-6724
▁상서	-6725
▁친선	-6726
▁황해	-6727
▁둥근	-6728
▁빠졌	-6729
▁둘러싼	-6730
▁고체	-6731
▁마스	-6732
▁평야	-6733
▁교황청	-6734
ly	-6735
라브	-6736
▁탐지	-6737
▁토스	-6738
▁자회사	-6739
▁Com	-6740
▁수령	-6741
ry	-6742
▁견제	-6743
▁도메	-6744
▁캐스팅	-6745
▁룩	-6746
승지	-6747
▁시라	-6748
▁이에야스	-6749
▁잦	-6750
▁파장	-6751
▁페루	-6752
▁회계	-6753
터스	-6754
▁《》	-6755
▁어요	-6756
▁역명	-6757
▁포격	-6758
▁다항	-6759
▁대포	-6760
▁부과	-6761
▁이슬람교	-6762
▁련	-6763
▁나들	-6764
▁키스	-6765
어리	-6766
▁마라	-6767
▁보드	-6768
end	-6769
▁쫓겨	-6770
▁한동안	-6771
▁물자	-6772
▁조반	-6773
▁주축	-6774
주곡	-6775
▁왜냐	-6776
▁전라도	-6777
ss	-6778
리크	-6779
서리	-6780
예프	-6781
▁당일	-6782
▁며칠	-6783
▁양도	-6784
▁105	-6785
▁소닉	-6786
▁현종	-6787
▁비평가	-6788
란트	-6789
▁석가	-6790
▁신전	-6791
▁149	-6792
▁초상화	-6793
▁르네상스	-6794
▁넬	-6795
▁무려	-6796
▁입지	-6797
▁시청자	-6798
▁IP	-6799
▁붙였	-6800
▁십자가	-6801
DP	-6802
▁Ar	-6803
▁대역	-6804
▁장편	-6805
▁피렌	-6806
▁무거운	-6807
▁프로토콜	-6808
▁향한	-6809
▁캠페인	-6810
▁안드로이드	-6811
전자	-6812
▁지바	-6813
▁치열	-6814
▁친일파	-6815
▁드라이브	-6816
▁럭	-6817
ort	-6818
▁부른	-6819
▁의상	-6820
▁폭스	-6821
▁나타낼	-6822
▁자유당	-6823
▁내외	-6824
▁레논	-6825
▁주차	-6826
▁총사	-6827
▁휴전	-6828
▁AS	-6829
▁원반	-6830
▁중순	-6831
▁하부	-6832
▁연패	-6833
▁공의회	-6834
▁서울대	-6835
▁국사	-6836
▁기요	-6837
▁드림	-6838
▁피스	-6839
▁냉각	-6840
▁대제	-6841
▁모방	-6842
▁스쿨	-6843
▁오빠	-6844
▁이지	-6845
▁앱	-6846
▁미소	-6847
▁내려가	-6848
▁문재인	-6849
▁깨달	-6850
▁됐으며	-6851
▁수용소	-6852
▁일어날	-6853
▁밭	-6854
▁구마	-6855
▁실전	-6856
▁후지와	-6857
▁배신	-6858
▁위임	-6859
▁턱	-6860
▁부착	-6861
▁어울	-6862
▁추상	-6863
▁바라보	-6864
▁동점	-6865
▁성체	-6866
▁오렌	-6867
▁유소년	-6868
▁•	-6869
▁헐	-6870
ord	-6871
▁재미	-6872
▁가벼	-6873
▁쇼핑	-6874
대원군	-6875
▁태어났으며	-6876
실록	-6877
양군	-6878
▁계절	-6879
▁앨런	-6880
▁총독부	-6881
IT	-6882
루미	-6883
▁대외	-6884
▁스핀	-6885
▁169	-6886
브라	-6887
▁표명	-6888
▁호르	-6889
▁피렌체	-6890
▁뉘	-6891
▁광년	-6892
▁느낀	-6893
▁반경	-6894
▁아폴	-6895
▁황태자	-6896
▁MC	-6897
▁가군	-6898
▁격퇴	-6899
▁원고	-6900
IC	-6901
▁번영	-6902
하르트	-6903
▁매카	-6904
▁발족	-6905
▁비단	-6906
▁술탄	-6907
▁창시	-6908
▁헤라	-6909
▁투르크	-6910
▁폴리스	-6911
▁번주	-6912
▁횟	-6913
▁김동	-6914
▁동년	-6915
▁목조	-6916
▁제독	-6917
▁즈음	-6918
▁포괄	-6919
▁별다른	-6920
▁텍스트	-6921
▁축구단	-6922
▁노부나가	-6923
▁이영	-6924
▁교단	-6925
▁일화	-6926
▁주지사	-6927
▁시나리오	-6928
▁휠	-6929
▁말라	-6930
▁벗어	-6931
▁분광	-6932
▁세미	-6933
▁조류	-6934
▁스마트폰	-6935
▁메디	-6936
▁백색	-6937
▁우르	-6938
▁출토	-6939
▁탱크	-6940
▁한화	-6941
▁147	-6942
나카	-6943
▁대처	-6944
▁나들목	-6945
▁템	-6946
▁강수량	-6947
▁동아일보	-6948
니치	-6949
▁귀중	-6950
▁소실	-6951
▁기금	-6952
▁낱말	-6953
▁산타	-6954
▁쿠르	-6955
▁통근	-6956
델피아	-6957
▁필라델피아	-6958
▁고민	-6959
▁도주	-6960
▁토니	-6961
▁꽤	-6962
▁생전	-6963
▁도호쿠	-6964
▁마케팅	-6965
모니	-6966
▁두산	-6967
▁중량	-6968
▁따뜻	-6969
▁요동	-6970
▁디즈니	-6971
▁박해	-6972
▁스러	-6973
▁자랐	-6974
▁하인리히	-6975
▁미쳤	-6976
▁부시	-6977
▁주름	-6978
▁콜롬비아	-6979
ok	-6980
▁보완	-6981
▁실려	-6982
▁인재	-6983
▁칼리	-6984
▁평행	-6985
▁전성기	-6986
항공	-6987
▁누군	-6988
▁바퀴	-6989
▁시상식	-6990
의자	-6991
▁지혜	-6992
▁미하	-6993
▁대교	-6994
▁NHK	-6995
▁왜냐하면	-6996
▁경선	-6997
스케	-6998
▁구릉	-6999
▁대위	-7000
▁이광	-7001
▁난민	-7002
▁바뀐	-7003
▁차종	-7004
▁굿	-7005
프라	-7006
▁02	-7007
▁시에	-7008
▁좌절	-7009
▁첨가	-7010
양함	-7011
▁만세	-7012
▁125	-7013
무기	-7014
▁인연	-7015
▁환영	-7016
라이더	-7017
▁아우구	-7018
▁관람	-7019
▁보일	-7020
▁컬러	-7021
▁홍수	-7022
▁연주자	-7023
▁창업	-7024
▁한쪽	-7025
▁관해서	-7026
▁바오로	-7027
▁전자기	-7028
▁참가자	-7029
▁엄마	-7030
▁유수	-7031
▁후방	-7032
▁카이사르	-7033
▁마산	-7034
▁반감	-7035
▁왜성	-7036
▁게이트	-7037
▁병행	-7038
▁충주	-7039
▁명령어	-7040
▁남아메리카	-7041
공사	-7042
▁서열	-7043
▁맵	-7044
널드	-7045
▁거행	-7046
▁동구	-7047
▁바치	-7048
▁센서	-7049
▁향후	-7050
▁힘입	-7051
▁다스리	-7052
▁국무총리	-7053
▁조선일보	-7054
산군	-7055
▁구도	-7056
▁이원	-7057
▁차기	-7058
▁1916	-7059
ock	-7060
▁에우	-7061
▁호기	-7062
▁지나가	-7063
▁머신	-7064
▁불명	-7065
▁비전	-7066
▁횟수	-7067
▁시칠리아	-7068
츠키	-7069
▁Se	-7070
▁신기	-7071
▁연수	-7072
▁장성	-7073
▁업계	-7074
▁에릭	-7075
▁우위	-7076
시로	-7077
제르	-7078
▁정전	-7079
▁포유	-7080
▁힌두	-7081
▁늘어났	-7082
▁몰아	-7083
▁급격히	-7084
▁남동쪽	-7085
▁다이아	-7086
▁사이클	-7087
▁서해	-7088
▁신중	-7089
▁옆면	-7090
▁니스	-7091
▁베르크	-7092
▁튼	-7093
▁비문	-7094
▁숨겨	-7095
▁퍼센트	-7096
▁그렸	-7097
▁장안	-7098
▁복장	-7099
▁부제	-7100
▁의뢰	-7101
▁캘리포니아주	-7102
생활	-7103
▁</	-7104
▁마비	-7105
▁치세	-7106
▁동래	-7107
▁내린	-7108
▁연인	-7109
▁항소	-7110
▁날짜	-7111
▁해소	-7112
▁휴식	-7113
▁솟	-7114
▁전념	-7115
▁춘추	-7116
▁평범	-7117
승부	-7118
▁진짜	-7119
▁후세	-7120
▁SC	-7121
▁나리	-7122
▁수동	-7123
▁다운로드	-7124
▁매주	-7125
▁컴파	-7126
▁144	-7127
▁수성	-7128
▁적당	-7129
▁쾌속	-7130
▁억압	-7131
▁오렌지	-7132
▁소니	-7133
▁책임자	-7134
▁갓	-7135
▁룡	-7136
▁전했	-7137
멘터리	-7138
▁연세대	-7139
▁행적	-7140
▁128	-7141
화점	-7142
▁도라	-7143
▁최악	-7144
▁토성	-7145
▁할지	-7146
▁물리학자	-7147
▁고백	-7148
▁극히	-7149
▁시드니	-7150
▁리메	-7151
▁탐사선	-7152
▁SF	-7153
▁부재	-7154
▁외국어	-7155
▁우세	-7156
▁범인	-7157
▁순교	-7158
▁아세	-7159
▁에다	-7160
구장	-7161
▁이를	-7162
▁일가	-7163
▁소재지	-7164
▁이순신	-7165
▁가미	-7166
▁그날	-7167
리티	-7168
수아	-7169
▁베드	-7170
▁아즈	-7171
▁고원	-7172
▁조리	-7173
▁밟	-7174
올리	-7175
▁부당	-7176
▁암석	-7177
▁향교	-7178
리케인	-7179
▁허리케인	-7180
▁별칭	-7181
▁안양	-7182
▁전한	-7183
▁히스	-7184
se	-7185
▁동위	-7186
▁마오	-7187
▁지폐	-7188
▁신한	-7189
▁이민자	-7190
란히	-7191
▁난다	-7192
▁막내	-7193
▁유연	-7194
▁쥬	-7195
▁매달	-7196
안군	-7197
▁단식	-7198
▁모았	-7199
▁몰래	-7200
▁미네	-7201
▁실린	-7202
▁갑작스	-7203
▁판타지	-7204
▁에스파냐	-7205
▁디스플레이	-7206
▁첼시	-7207
튜브	-7208
▁김용	-7209
▁적분	-7210
▁게이지	-7211
▁피에르	-7212
▁추세	-7213
▁고사	-7214
▁섭취	-7215
▁아벨	-7216
▁어업	-7217
▁다큐멘터리	-7218
tt	-7219
▁객체	-7220
▁장학	-7221
▁환원	-7222
주의자	-7223
▁훔	-7224
런트	-7225
▁나눌	-7226
▁말씀	-7227
▁신속	-7228
▁해명	-7229
▁회고	-7230
▁고소	-7231
▁확신	-7232
ack	-7233
▁관통	-7234
▁하얀	-7235
▁오디오	-7236
리즘	-7237
▁Go	-7238
▁장난	-7239
▁북동쪽	-7240
▁원내	-7241
▁*	-7242
▁도루	-7243
▁중독	-7244
▁유튜브	-7245
▁갇	-7246
▁그만두	-7247
▁선구	-7248
▁108	-7249
▁이노	-7250
▁허리	-7251
▁남서쪽	-7252
▁생겨났	-7253
▁스트리트	-7254
▁배틀	-7255
▁태양계	-7256
▁개관	-7257
▁임용	-7258
▁히라	-7259
▁135	-7260
▁건축가	-7261
서양	-7262
차기	-7263
▁고가	-7264
▁우정	-7265
▁카타	-7266
▁소유자	-7267
▁브라이언	-7268
노리	-7269
▁입당	-7270
▁화해	-7271
▁결혼식	-7272
▁모른다	-7273
▁블랙홀	-7274
▁일요일	-7275
▁삿	-7276
▁내보	-7277
▁신민	-7278
▁응원	-7279
▁이글	-7280
▁투옥	-7281
▁IBM	-7282
▁성리학	-7283
▁제작자	-7284
▁셨	-7285
ind	-7286
▁박탈	-7287
▁순회	-7288
▁일방	-7289
▁고쳐	-7290
▁서남	-7291
▁알라	-7292
▁재위	-7293
▁준우	-7294
▁파스	-7295
▁광해군	-7296
▁지냈으며	-7297
▁로빈	-7298
▁악장	-7299
▁쳤	-7300
토모	-7301
▁근교	-7302
▁배후	-7303
▁실장	-7304
▁장려	-7305
▁해운	-7306
▁신생	-7307
▁언론인	-7308
▁가즈	-7309
▁신세	-7310
▁호위	-7311
▁`	-7312
보기	-7313
▁교외	-7314
▁구호	-7315
▁돌리	-7316
▁민회	-7317
▁드러났	-7318
제프	-7319
▁서사	-7320
▁이긴	-7321
▁서자	-7322
▁이화	-7323
▁결코	-7324
▁국소	-7325
▁양측	-7326
qu	-7327
▁앓	-7328
▁다중	-7329
▁추출	-7330
▁함유	-7331
▁챌	-7332
조부	-7333
▁공모	-7334
▁어드	-7335
이즈	-7336
▁여지	-7337
▁힘든	-7338
▁경상도	-7339
▁예조	-7340
▁청원	-7341
▁냄	-7342
▁협박	-7343
▁나쁜	-7344
▁엔지	-7345
▁옥스	-7346
▁후궁	-7347
그라드	-7348
▁새겨져	-7349
▁작센	-7350
▁해적	-7351
▁IT	-7352
▁거론	-7353
▁기인	-7354
▁리라	-7355
▁수법	-7356
▁j	-7357
▁감리	-7358
▁공수	-7359
▁173	-7360
▁레이스	-7361
▁세이브	-7362
▁아바	-7363
▁용병	-7364
▁개막전	-7365
▁FM	-7366
▁느껴	-7367
▁축하	-7368
▁프랜	-7369
▁중심부	-7370
▁공산주의자	-7371
AP	-7372
▁떨어	-7373
▁육체	-7374
▁돋	-7375
대신	-7376
▁신흥	-7377
▁어긋	-7378
▁유저	-7379
▁정한	-7380
▁페르디	-7381
▁시초	-7382
▁아케	-7383
▁현저	-7384
▁물리치	-7385
▁스케이팅	-7386
▁CE	-7387
▁경연	-7388
▁내주	-7389
▁영남	-7390
▁양키스	-7391
▁배터리	-7392
▁화장실	-7393
▁이진	-7394
▁민법	-7395
▁성숙	-7396
다지	-7397
키지	-7398
▁어휘	-7399
▁127	-7400
노부	-7401
▁부딪	-7402
▁쓰인	-7403
▁연승	-7404
▁일렉	-7405
▁잡아	-7406
▁평원	-7407
▁138	-7408
그레이드	-7409
▁육지	-7410
럼비아	-7411
▁퍼시픽	-7412
▁가동	-7413
▁둘레	-7414
▁반해	-7415
▁상반	-7416
▁원했	-7417
▁제압	-7418
▁테스	-7419
크리트	-7420
▁업그레이드	-7421
회장	-7422
▁모스	-7423
▁부산광역시	-7424
▁멋	-7425
▁껍질	-7426
▁영리	-7427
▁증대	-7428
▁아이스	-7429
▁뷔	-7430
▁우호	-7431
▁저하	-7432
▁기어	-7433
▁성취	-7434
▁143	-7435
▁실시간	-7436
▁그냥	-7437
다이라	-7438
▁종래	-7439
▁평정	-7440
▁허브	-7441
▁햇	-7442
▁신규	-7443
▁협동	-7444
자와	-7445
▁구출	-7446
▁깨닫	-7447
▁대폭	-7448
▁미션	-7449
▁내려오	-7450
나리	-7451
지붕	-7452
▁리비아	-7453
▁복선	-7454
▁북극	-7455
▁빠진	-7456
▁참의	-7457
▁풍경	-7458
▁낙선	-7459
▁마이너	-7460
▁바티칸	-7461
▁관해	-7462
▁봉쇄	-7463
▁우즈	-7464
▁테이블	-7465
▁무승부	-7466
▁선비	-7467
▁시오	-7468
▁실리	-7469
▁총괄	-7470
▁비로소	-7471
▁야구장	-7472
OC	-7473
고쿠	-7474
▁직책	-7475
▁준우승	-7476
▁팔레스	-7477
▁곤란	-7478
▁영장	-7479
▁제대	-7480
▁누군가	-7481
io	-7482
▁도장	-7483
▁실체	-7484
▁2020	-7485
▁부적	-7486
▁다발	-7487
▁바른	-7488
▁소원	-7489
▁현금	-7490
▁따위	-7491
▁미루	-7492
▁앙리	-7493
▁중위	-7494
▁브라우저	-7495
▁뭉	-7496
길이	-7497
▁뒤집	-7498
▁발트	-7499
▁시그	-7500
포스	-7501
▁Bo	-7502
▁구해	-7503
▁칭찬	-7504
▁하마	-7505
▁하우	-7506
▁받아들였	-7507
선스	-7508
▁방패	-7509
▁저명	-7510
▁148	-7511
▁가환	-7512
▁너비	-7513
▁고수	-7514
▁속했	-7515
▁통보	-7516
▁연산자	-7517
▁갈릴	-7518
▁리어	-7519
▁시외	-7520
▁합창	-7521
▁라이선스	-7522
▁맏	-7523
▁입체	-7524
▁지평	-7525
▁대학생	-7526
▁랴	-7527
▁밀양	-7528
▁샹	-7529
▁강과	-7530
▁여운	-7531
▁조달	-7532
▁블로그	-7533
▁상공	-7534
▁왜곡	-7535
▁일컬	-7536
▁해고	-7537
▁엔지니어	-7538
▁연도	-7539
▁통증	-7540
▁교과서	-7541
디스	-7542
톨레	-7543
▁리오	-7544
▁만일	-7545
▁진공	-7546
▁Con	-7547
▁스파이	-7548
추세	-7549
▁바실	-7550
▁밝기	-7551
▁오해	-7552
▁NBA	-7553
▁신학자	-7554
▁찾아볼	-7555
▁케이스	-7556
▁보스니아	-7557
▁돌격	-7558
▁미얀	-7559
▁초과	-7560
▁접한다	-7561
▁공백	-7562
▁누이	-7563
▁마약	-7564
▁존속	-7565
▁신학교	-7566
▁오키나와	-7567
▁콘크리트	-7568
▁크리스토	-7569
▁군정	-7570
▁상단	-7571
▁순조	-7572
▁중구	-7573
▁치명	-7574
추세츠	-7575
▁매사추세츠	-7576
▁크리스마스	-7577
엘라	-7578
유산	-7579
▁공습	-7580
▁드럼	-7581
▁우편	-7582
▁즉각	-7583
▁커널	-7584
▁물려받	-7585
▁아마도	-7586
스부르크	-7587
▁1894	-7588
▁리메이크	-7589
▁닭	-7590
▁펌	-7591
▁비아	-7592
▁천장	-7593
▁※	-7594
▁소모	-7595
▁크리스티	-7596
▁나고	-7597
▁온천	-7598
▁연고지	-7599
어버	-7600
▁상용	-7601
▁에티	-7602
▁진사	-7603
▁닐	-7604
▁마운	-7605
▁진급	-7606
▁하트	-7607
▁스페인어	-7608
▁바닷	-7609
▁열정	-7610
▁주주	-7611
▁축출	-7612
▁대의원	-7613
▁고인	-7614
▁북위	-7615
▁을지	-7616
▁기타리스트	-7617
▁동남아시아	-7618
▁돌연	-7619
▁주어지	-7620
▁라이브러리	-7621
ck	-7622
▁엿	-7623
▁Le	-7624
▁광학	-7625
▁그로	-7626
▁김수	-7627
▁탈당	-7628
▁히가시	-7629
▁허위	-7630
▁스피드	-7631
▁킥	-7632
대기	-7633
릴라	-7634
▁해병대	-7635
줄기	-7636
▁사업자	-7637
▁카운티	-7638
▁드문	-7639
▁트루	-7640
▁쌍둥이	-7641
▁고치	-7642
▁그랑	-7643
▁노란색	-7644
▁룰	-7645
▁정무	-7646
▁숙청	-7647
▁아베	-7648
▁이식	-7649
▁창고	-7650
▁살펴보	-7651
중국	-7652
▁극심	-7653
▁빌려	-7654
▁재상	-7655
▁항쟁	-7656
▁트위터	-7657
ge	-7658
▁명제	-7659
▁연이	-7660
블로	-7661
▁고장	-7662
▁지능	-7663
▁해변	-7664
▁몸길이	-7665
트랙	-7666
▁구할	-7667
▁나미	-7668
▁챌린	-7669
▁폭행	-7670
▁한인	-7671
▁해수	-7672
킨스	-7673
▁먼지	-7674
▁시뮬	-7675
▁사이버	-7676
▁패키지	-7677
one	-7678
▁근원	-7679
▁굉장히	-7680
▁공조	-7681
▁공직	-7682
▁규범	-7683
▁동상	-7684
▁구조물	-7685
▁장거리	-7686
▁내정	-7687
▁시선	-7688
▁처녀	-7689
▁아미타	-7690
▁가죽	-7691
▁골프	-7692
▁라파	-7693
▁연꽃	-7694
▁나올	-7695
▁단단	-7696
▁벌금	-7697
▁비리	-7698
▁쇼트	-7699
▁유동	-7700
▁이산화	-7701
▁팔레스타인	-7702
▁산다	-7703
▁징계	-7704
▁최대한	-7705
▁누나	-7706
▁만남	-7707
▁발원	-7708
▁들어간다	-7709
마루	-7710
살이	-7711
▁김재	-7712
▁나고야	-7713
▁테니스	-7714
개미	-7715
▁차장	-7716
▁룬	-7717
▁궁극	-7718
▁미주	-7719
▁알코	-7720
▁연봉	-7721
▁진도	-7722
▁Pro	-7723
▁게르만	-7724
▁、	-7725
ure	-7726
▁기다	-7727
▁여당	-7728
▁철회	-7729
▁할리	-7730
트리올	-7731
▁111	-7732
▁테일러	-7733
▁몬트리올	-7734
은이	-7735
▁명종	-7736
▁보리	-7737
▁가마쿠라	-7738
▁우루과이	-7739
람회	-7740
▁링컨	-7741
▁상점	-7742
▁소통	-7743
▁토리	-7744
▁당한다	-7745
▁성운	-7746
▁언더	-7747
▁주가	-7748
▁360	-7749
▁연합국	-7750
▁외교관	-7751
▁차이점	-7752
▁베이스볼	-7753
sp	-7754
커스	-7755
▁말미	-7756
▁어미	-7757
동물	-7758
▁담겨	-7759
▁서정	-7760
▁네이션	-7761
▁북동부	-7762
▁어렸	-7763
▁그레고	-7764
▁뜨거운	-7765
▁사바	-7766
▁청산	-7767
▁동일본	-7768
▁세계관	-7769
▁여겨졌	-7770
▁매입	-7771
▁축적	-7772
▁쿠스	-7773
▁왓	-7774
▁거쳤	-7775
▁공민	-7776
▁니아	-7777
▁조종사	-7778
▁결함	-7779
▁석조	-7780
▁은데	-7781
▁마쓰다이라	-7782
AD	-7783
▁동국	-7784
▁사육	-7785
▁성문	-7786
▁뢰	-7787
▁광물	-7788
▁수련	-7789
▁어원	-7790
▁트럼	-7791
▁구축함	-7792
▁분명히	-7793
▁파이어	-7794
▁솜	-7795
▁바흐	-7796
▁산란	-7797
▁형조	-7798
▁흥선	-7799
▁체육관	-7800
마이오스	-7801
▁끓	-7802
▁HT	-7803
▁갤럭	-7804
▁못할	-7805
▁약칭	-7806
▁피신	-7807
▁마리오	-7808
ame	-7809
▁설탕	-7810
▁유죄	-7811
▁인문	-7812
▁포병	-7813
▁따른다	-7814
▁어려서	-7815
▁답변	-7816
황후	-7817
▁세균	-7818
▁정변	-7819
▁콜라	-7820
▁블루스	-7821
▁대손	-7822
▁부채	-7823
▁사위	-7824
▁서민	-7825
▁양반	-7826
▁주역	-7827
▁얹	-7828
조건	-7829
▁옵션	-7830
▁응시	-7831
▁마력	-7832
▁스터	-7833
▁탐구	-7834
▁태그	-7835
▁감행	-7836
▁달했	-7837
▁리얼	-7838
▁세속	-7839
▁싱어	-7840
▁아랫	-7841
▁주말	-7842
▁집계	-7843
라이트	-7844
▁닷	-7845
연합	-7846
▁거울	-7847
▁나눠	-7848
▁생식	-7849
▁더니	-7850
▁모이	-7851
▁소매	-7852
▁재현	-7853
▁초연	-7854
▁터치	-7855
▁총사령	-7856
포트	-7857
▁미즈	-7858
▁서일본	-7859
▁김규	-7860
▁둥지	-7861
▁황실	-7862
▁게스트	-7863
▁이글스	-7864
▁흠	-7865
▁Wh	-7866
▁동문	-7867
▁사지	-7868
▁사회학	-7869
권자	-7870
일드	-7871
▁냉전	-7872
▁수색	-7873
▁워드	-7874
▁잔류	-7875
단체	-7876
▁뒷면	-7877
▁예능	-7878
▁충전	-7879
▁패했	-7880
▁AK	-7881
▁우울	-7882
▁유년	-7883
▁노태우	-7884
벌레	-7885
▁상담	-7886
▁엔딩	-7887
▁102	-7888
레기	-7889
▁김상	-7890
▁낭만	-7891
▁시립	-7892
▁컨셉	-7893
▁갤럭시	-7894
▁협주곡	-7895
▁옳	-7896
ast	-7897
▁기적	-7898
▁소생	-7899
▁상대식	-7900
▁어려워	-7901
▁비유	-7902
▁암시	-7903
▁임상	-7904
▁시가지	-7905
▁Te	-7906
▁간호	-7907
▁목재	-7908
▁승계	-7909
▁열대	-7910
▁폭동	-7911
TA	-7912
▁봉안	-7913
▁왼손	-7914
▁정세	-7915
▁베네딕	-7916
IM	-7917
노프	-7918
자스	-7919
▁가짜	-7920
▁야마토	-7921
ate	-7922
▁그다지	-7923
▁1890	-7924
▁던져	-7925
▁등용	-7926
▁장미	-7927
▁지식인	-7928
▁동당	-7929
▁바꾼	-7930
▁서경	-7931
▁위탁	-7932
푸르트	-7933
▁기장	-7934
▁신선	-7935
▁136	-7936
▁모니터	-7937
▁뉴턴	-7938
▁신념	-7939
▁유방	-7940
▁테이프	-7941
▁할머니	-7942
▁뇌물	-7943
▁법조	-7944
▁에버	-7945
▁외모	-7946
▁운하	-7947
▁조르	-7948
케이션	-7949
▁112	-7950
▁이성계	-7951
▁식별	-7952
▁페널	-7953
▁아예	-7954
▁하락	-7955
▁호출	-7956
▁도메인	-7957
불교	-7958
푸스	-7959
▁고래	-7960
▁시즈	-7961
▁전년	-7962
▁끌어들	-7963
▁사우루스	-7964
▁개종	-7965
▁그루	-7966
▁오비	-7967
▁각도	-7968
▁극동	-7969
▁나열	-7970
▁눌	-7971
▁본국	-7972
문트	-7973
▁붙인	-7974
▁스님	-7975
▁커지	-7976
▁타당	-7977
▁악단	-7978
▁디비전	-7979
▁왔으며	-7980
▁총선거	-7981
▁격투	-7982
▁로프	-7983
▁실망	-7984
▁원전	-7985
▁키우	-7986
▁일반인	-7987
▁승부차기	-7988
▁Bl	-7989
▁누가	-7990
▁마디	-7991
▁윤보	-7992
▁지선	-7993
토니아	-7994
▁이사회	-7995
▁상사	-7996
▁점성술	-7997
▁프톨레	-7998
▁프톨레마이오스	-7999
▁였음	-8000
▁침투	-8001
▁헬기	-8002
▁독일인	-8003
▁아랍어	-8004
▁오프닝	-8005
▁자택	-8006
▁폭격기	-8007
▁1899	-8008
▁건담	-8009
▁극한	-8010
▁동정	-8011
▁분비	-8012
▁초신	-8013
▁시위대	-8014
▁가신	-8015
▁시범	-8016
▁경성부	-8017
▁목판	-8018
▁확실히	-8019
▁아사히	-8020
바다	-8021
함수	-8022
▁캄보	-8023
▁후사	-8024
▁쉐	-8025
▁옴	-8026
▁쌓았	-8027
▁카트	-8028
▁판본	-8029
▁딩	-8030
▁보인	-8031
▁부피	-8032
▁사가	-8033
▁사슬	-8034
▁요하	-8035
▁깎	-8036
위원	-8037
▁날아	-8038
▁마인	-8039
▁히메	-8040
▁백화점	-8041
▁에스토니아	-8042
▁옐	-8043
우라	-8044
▁브래	-8045
▁학업	-8046
올라	-8047
▁보증	-8048
▁성도	-8049
▁옹립	-8050
▁흥선대원군	-8051
▁살리	-8052
헌영	-8053
▁무지	-8054
▁사간	-8055
▁일러	-8056
▁탐색	-8057
▁태생	-8058
▁106	-8059
▁방송사	-8060
라트	-8061
▁센티	-8062
▁야쿠	-8063
▁지인	-8064
▁SP	-8065
▁검정	-8066
▁신주	-8067
▁채워	-8068
Hz	-8069
라미	-8070
▁IM	-8071
▁경신	-8072
▁대부	-8073
▁재혼	-8074
▁혈통	-8075
▁줄여서	-8076
▁시정	-8077
▁페어	-8078
▁해역	-8079
▁1898	-8080
온다	-8081
▁그치	-8082
▁우측	-8083
시피	-8084
▁끼쳤	-8085
▁사토	-8086
▁셸	-8087
카르	-8088
▁교정	-8089
▁대두	-8090
▁대피	-8091
▁면허	-8092
▁언니	-8093
▁여래	-8094
▁치안	-8095
ep	-8096
▁발기	-8097
▁퍼지	-8098
▁머무르	-8099
▁프레스	-8100
▁구경	-8101
▁요르	-8102
▁어뢰	-8103
▁극장판	-8104
ere	-8105
▁산림	-8106
▁그렇지만	-8107
▁비시	-8108
▁용이	-8109
▁사상자	-8110
▁곡인	-8111
▁증손	-8112
▁트윈스	-8113
▁담긴	-8114
▁한지	-8115
클레스	-8116
속기	-8117
▁스톡	-8118
▁오클	-8119
▁한족	-8120
▁후한	-8121
▁생산량	-8122
슬라	-8123
▁데모	-8124
▁도스	-8125
▁어른	-8126
▁우유	-8127
▁제재	-8128
▁캐시	-8129
▁복소수	-8130
레인	-8131
바닥	-8132
시티	-8133
▁요건	-8134
▁일조	-8135
▁매카트니	-8136
▁민사	-8137
▁입성	-8138
▁주부	-8139
▁가까워	-8140
▁영국인	-8141
▁토요일	-8142
▁구절	-8143
▁대거	-8144
▁동학	-8145
▁신탁	-8146
▁닦	-8147
▁개화	-8148
▁혜택	-8149
▁검찰청	-8150
▁홍문관	-8151
▁체코슬로	-8152
▁체코슬로바키아	-8153
▁까닭	-8154
▁체류	-8155
▁폭넓	-8156
▁날씨	-8157
▁자비	-8158
▁조부	-8159
▁키프	-8160
▁나가사키	-8161
▁양호	-8162
▁의자	-8163
▁종착	-8164
▁서진	-8165
▁치아	-8166
▁컴백	-8167
▁대변인	-8168
▁미나미	-8169
기지	-8170
▁걸렸	-8171
▁여주	-8172
▁윌슨	-8173
▁이윤	-8174
▁잡혀	-8175
▁제치	-8176
▁부르크	-8177
▁관구	-8178
▁분당	-8179
▁만료	-8180
▁설화	-8181
▁방사선	-8182
▁닛폰	-8183
▁더욱이	-8184
▁북서부	-8185
▁덤	-8186
▁디렉	-8187
▁왕복	-8188
▁통틀	-8189
▁한층	-8190
▁였으므로	-8191
▁공방	-8192
▁오세	-8193
▁효종	-8194
몰로지	-8195
▁페널티	-8196
▁핵무기	-8197
▁희생자	-8198
▁도요토미	-8199
▁아리스토	-8200
▁메타	-8201
▁상해	-8202
▁수산	-8203
니스트	-8204
▁박헌영	-8205
다드	-8206
▁자아	-8207
▁스타리그	-8208
▁일파	-8209
▁학기	-8210
▁다항식	-8211
▁장례식	-8212
니까	-8213
바지	-8214
▁음료	-8215
▁Wor	-8216
▁등재	-8217
▁로그	-8218
▁맥주	-8219
▁보복	-8220
▁한테	-8221
▁시베리아	-8222
▁캄보디아	-8223
▁이준	-8224
▁적혀	-8225
▁선배	-8226
▁시골	-8227
리에	-8228
▁시어	-8229
▁오노	-8230
▁화강	-8231
▁아나키	-8232
▁필터	-8233
▁유로파	-8234
te	-8235
▁$	-8236
▁봉건	-8237
▁욕구	-8238
▁운동장	-8239
모어	-8240
▁관제	-8241
▁김태	-8242
▁나갈	-8243
▁미얀마	-8244
루션	-8245
▁계시	-8246
▁우파	-8247
▁살아가	-8248
▁겁	-8249
▁알루미	-8250
▁공익	-8251
▁문예	-8252
▁이용자	-8253
ide	-8254
▁성단	-8255
▁아인슈타인	-8256
가타	-8257
▁대패	-8258
▁미세	-8259
▁밀집	-8260
▁외관	-8261
▁정렬	-8262
▁초월	-8263
▁철도역	-8264
▁Pr	-8265
▁공리	-8266
▁나눈	-8267
▁광대	-8268
▁마하	-8269
▁부설	-8270
▁이세	-8271
▁풍자	-8272
▁≫	-8273
▁문구	-8274
▁부를	-8275
▁유부	-8276
▁113	-8277
타로	-8278
▁가축	-8279
▁미토	-8280
▁패널	-8281
▁되돌아	-8282
▁드라이버	-8283
ff	-8284
페르	-8285
▁오라	-8286
▁Sou	-8287
▁끊임없이	-8288
▁이어진다	-8289
▁기각	-8290
▁케네	-8291
▁해밀	-8292
▁모서리	-8293
▁몬스터	-8294
▁윤보선	-8295
▁1902	-8296
▁모용	-8297
▁순천	-8298
▁입각	-8299
▁매니저	-8300
나우	-8301
▁갱신	-8302
▁택시	-8303
▁학계	-8304
마드	-8305
▁단의	-8306
▁실재	-8307
▁흉노	-8308
▁뒷받침	-8309
▁동조	-8310
▁매매	-8311
▁모친	-8312
▁조세	-8313
▁함선	-8314
▁흔하	-8315
▁안테	-8316
▁에디	-8317
▁패한	-8318
▁121	-8319
▁호랑이	-8320
▁대웅	-8321
▁간단히	-8322
누엘	-8323
▁마천	-8324
▁일생	-8325
▁사용자	-8326
하루	-8327
▁En	-8328
▁공적	-8329
▁벌인	-8330
▁이단	-8331
▁정적	-8332
▁137	-8333
▁위나라	-8334
▁현감	-8335
▁남양	-8336
▁매수	-8337
▁안드레	-8338
▁라트비아	-8339
▁스트레스	-8340
▁쿤	-8341
시타	-8342
▁난징	-8343
▁유체	-8344
▁전염	-8345
▁근로자	-8346
▁정해진	-8347
▁톈	-8348
▁al	-8349
▁영문	-8350
개골	-8351
▁도청	-8352
▁둥글	-8353
▁경보	-8354
▁독서	-8355
▁지류	-8356
▁직면	-8357
▁퇴장	-8358
▁피에	-8359
▁김정일	-8360
▁바깥쪽	-8361
▁사우디아	-8362
▁프랑크푸르트	-8363
▁■	-8364
▁늘리	-8365
▁들이	-8366
▁마녀	-8367
▁바빌	-8368
▁채우	-8369
▁해진다	-8370
▁선동	-8371
▁만주국	-8372
▁배구	-8373
▁주조	-8374
▁펜실	-8375
▁알코올	-8376
베이니아	-8377
▁펜실베이니아	-8378
▁김기	-8379
▁김옥	-8380
▁지옥	-8381
▁기사단	-8382
▁예정자	-8383
▁젊은이	-8384
▁동성애자	-8385
▁승자	-8386
▁카자흐	-8387
▁기증	-8388
▁반공	-8389
▁선우	-8390
▁신약	-8391
▁가벼운	-8392
▁아이슬	-8393
▁윌리엄스	-8394
▁반지름	-8395
OL	-8396
▁맑	-8397
규모	-8398
▁공손	-8399
▁상표	-8400
원숭이	-8401
▁We	-8402
▁괴물	-8403
▁좌측	-8404
▁충청도	-8405
▁스페이스	-8406
▁거뒀	-8407
▁기숙	-8408
▁세이부	-8409
언스	-8410
▁It	-8411
▁오바	-8412
▁이경	-8413
▁축조	-8414
끄러운	-8415
선거	-8416
▁개소	-8417
▁군함	-8418
▁심해	-8419
▁원종	-8420
▁호족	-8421
▁붐	-8422
ies	-8423
▁CF	-8424
▁TH	-8425
▁김진	-8426
▁루프	-8427
▁선도	-8428
▁자선	-8429
▁타르	-8430
▁함자	-8431
▁면제	-8432
▁싸워	-8433
▁저주	-8434
▁혼동	-8435
하시	-8436
▁레온	-8437
▁조승	-8438
▁투르	-8439
래스카	-8440
iver	-8441
▁주머니	-8442
▁슛	-8443
▁스칼	-8444
▁토마	-8445
드리아	-8446
▁법무부	-8447
ian	-8448
▁보석	-8449
▁침체	-8450
▁함정	-8451
▁후안	-8452
▁팜	-8453
▁단절	-8454
▁슈트	-8455
▁쳐들	-8456
▁허정	-8457
▁프랑수아	-8458
▁아이슬란드	-8459
OP	-8460
▁고령	-8461
▁공단	-8462
▁과반	-8463
▁색채	-8464
▁서신	-8465
네스코	-8466
▁109	-8467
▁두개골	-8468
▁오피스	-8469
▁테레	-8470
▁하프	-8471
▁오리콘	-8472
▁플라이	-8473
▁피고인	-8474
man	-8475
▁날카	-8476
▁단축	-8477
▁리더십	-8478
▁옌	-8479
샤바	-8480
일으	-8481
▁대치	-8482
▁위쪽	-8483
▁인체	-8484
▁중소	-8485
▁증후	-8486
▁콤팩트	-8487
▁불러일으	-8488
▁총대주교	-8489
▁동형	-8490
▁입원	-8491
▁천재	-8492
▁하단	-8493
▁알루미늄	-8494
▁넨	-8495
▁땄	-8496
▁릉	-8497
갈색	-8498
그룹	-8499
▁군중	-8500
▁느꼈	-8501
▁보헤	-8502
▁아타	-8503
▁중형	-8504
▁횡단	-8505
▁도마	-8506
▁슬로바키아	-8507
산성	-8508
크라	-8509
ran	-8510
▁난이	-8511
▁남극	-8512
▁바스	-8513
▁스폰	-8514
▁신조	-8515
▁포럼	-8516
▁117	-8517
▁장기간	-8518
▁하워드	-8519
EN	-8520
▁몫	-8521
먼스	-8522
은색	-8523
ace	-8524
▁시바	-8525
시즘	-8526
▁예고	-8527
▁취업	-8528
▁1901	-8529
그로	-8530
▁거북	-8531
▁상경	-8532
▁카시	-8533
▁태극	-8534
▁꼭대기	-8535
▁서유럽	-8536
우트	-8537
▁la	-8538
▁요정	-8539
▁천하	-8540
▁350	-8541
▁사우디아라비아	-8542
▁릿	-8543
▁밝힌	-8544
▁네이버	-8545
▁서재필	-8546
▁원숭이	-8547
▁휴스턴	-8548
▁라이온즈	-8549
▁러시아어	-8550
▁겔	-8551
▁띤다	-8552
▁시가	-8553
▁이남	-8554
▁몰아내	-8555
▁가장자리	-8556
▁≪	-8557
▁가야	-8558
▁기차	-8559
▁연쇄	-8560
▁오를	-8561
▁종속	-8562
▁중수	-8563
▁지침	-8564
▁플랜	-8565
▁바이오	-8566
▁국내외	-8567
▁원로원	-8568
▁스튜어트	-8569
▁z	-8570
▁씌	-8571
▁구형	-8572
▁퇴임	-8573
▁레일	-8574
▁볼리	-8575
▁손꼽	-8576
▁조연	-8577
▁짐작	-8578
▁공감	-8579
▁단면	-8580
▁삼촌	-8581
▁탑신	-8582
립트	-8583
으니	-8584
▁표방	-8585
▁바리	-8586
▁코프	-8587
▁품종	-8588
▁들어갈	-8589
▁명하	-8590
▁선행	-8591
▁갈수록	-8592
▁소규모	-8593
▁그레고리오	-8594
▁극대	-8595
▁마츠	-8596
▁불타	-8597
▁집결	-8598
▁체크	-8599
▁토기	-8600
수엘라	-8601
PG	-8602
▁노론	-8603
▁루타	-8604
▁묘역	-8605
▁정립	-8606
▁카롤	-8607
▁헬륨	-8608
▁아폴로	-8609
▁유네스코	-8610
▁분수	-8611
▁살려	-8612
▁생겨나	-8613
age	-8614
▁가려	-8615
▁거처	-8616
▁발령	-8617
▁카나	-8618
▁카탈	-8619
▁반도체	-8620
▁표기법	-8621
▁시합	-8622
▁원본	-8623
▁케네디	-8624
▁1897	-8625
ath	-8626
ber	-8627
▁루시	-8628
▁이겼	-8629
▁특권	-8630
▁호모	-8631
▁기병대	-8632
▁끄	-8633
로이	-8634
치오	-8635
▁가열	-8636
▁체력	-8637
▁플래시	-8638
다운	-8639
▁불신	-8640
▁고고학	-8641
▁아홉	-8642
브리지	-8643
▁격자	-8644
▁무명	-8645
▁호세	-8646
▁부회장	-8647
▁연예인	-8648
▁연합회	-8649
교도	-8650
▁동행	-8651
▁분출	-8652
▁증진	-8653
▁기술자	-8654
▁타이거즈	-8655
덩이	-8656
▁느리	-8657
▁염기	-8658
▁142	-8659
▁뮤지션	-8660
▁미스터	-8661
▁베네수엘라	-8662
번뇌	-8663
펜하	-8664
▁결선	-8665
▁넘기	-8666
▁리만	-8667
▁으려고	-8668
▁빔	-8669
▁벨트	-8670
▁부천	-8671
▁입상	-8672
▁트리플	-8673
▁물품	-8674
▁의결	-8675
▁퇴역	-8676
▁트래	-8677
▁공용어	-8678
▁대사헌	-8679
▁주어진다	-8680
▁두께	-8681
▁수확	-8682
▁정성	-8683
▁혈관	-8684
▁프랭크	-8685
▁1903	-8686
▁청색	-8687
▁증후군	-8688
짓점	-8689
▁간토	-8690
▁정점	-8691
▁직결	-8692
▁달한다	-8693
▁당연히	-8694
▁베어스	-8695
아이	-8696
▁돌기	-8697
▁토양	-8698
▁꼭짓점	-8699
▁사쿠라	-8700
▁콰	-8701
▁SD	-8702
▁동참	-8703
▁뒤쪽	-8704
▁모은	-8705
▁상응	-8706
▁샘플	-8707
▁제동	-8708
▁충남	-8709
▁타석	-8710
▁타협	-8711
▁다케다	-8712
▁삼국사기	-8713
▁룽	-8714
▁병기	-8715
▁의의	-8716
▁조립	-8717
▁토모	-8718
▁필사	-8719
▁그려진	-8720
▁수교	-8721
▁왕세	-8722
▁이관	-8723
▁친왕	-8724
▁가져오	-8725
▁삼국지	-8726
ph	-8727
블리	-8728
▁다름	-8729
▁불꽃	-8730
▁자민	-8731
▁118	-8732
▁시켰으며	-8733
▁페르디난	-8734
▁김경	-8735
▁취항	-8736
▁통치자	-8737
틱스	-8738
▁민정	-8739
▁창출	-8740
▁단층	-8741
▁무슨	-8742
▁비주	-8743
▁폭로	-8744
▁115	-8745
브레	-8746
▁복권	-8747
▁신시	-8748
코딩	-8749
▁라그	-8750
▁벽돌	-8751
베르토	-8752
▁구스타	-8753
▁문학상	-8754
▁제네바	-8755
▁경과	-8756
▁보강	-8757
▁파문	-8758
▁새로이	-8759
▁아돌프	-8760
iz	-8761
바야	-8762
▁돌입	-8763
▁심화	-8764
▁열심	-8765
▁인플	-8766
▁잘라	-8767
▁즐겨	-8768
▁나란히	-8769
▁컬럼비아	-8770
aw	-8771
대장	-8772
▁트로이	-8773
▁닝	-8774
▁괴롭	-8775
▁밀란	-8776
▁123	-8777
▁나간다	-8778
▁얽	-8779
▁이룬	-8780
▁탄도	-8781
아웃	-8782
▁신원	-8783
▁초록	-8784
▁루이지	-8785
▁다이아몬드	-8786
▁가드	-8787
▁용서	-8788
▁평의회	-8789
린스	-8790
▁김창	-8791
▁미라	-8792
▁약하	-8793
▁자결	-8794
▁적도	-8795
▁107	-8796
▁126	-8797
▁멜로디	-8798
▁시외버스	-8799
▁나르	-8800
▁김규식	-8801
TS	-8802
▁다툼	-8803
▁임관	-8804
▁조인	-8805
▁경찰관	-8806
▁깨끗	-8807
▁드라	-8808
▁반군	-8809
▁약자	-8810
▁유진	-8811
▁대표작	-8812
▁아니하	-8813
▁더글	-8814
▁데카	-8815
▁추종	-8816
▁강풍	-8817
▁청장	-8818
▁119	-8819
▁무너지	-8820
▁일부분	-8821
▁카르타	-8822
AL	-8823
▁기르	-8824
▁당수	-8825
▁등기	-8826
▁발급	-8827
▁온갖	-8828
▁파도	-8829
▁미군정	-8830
▁외야수	-8831
▁NC	-8832
▁간신	-8833
▁농부	-8834
▁때려	-8835
▁서류	-8836
먼드	-8837
▁CS	-8838
▁산출	-8839
▁중령	-8840
오피아	-8841
▁인테르	-8842
▁에티오피아	-8843
두리	-8844
▁GP	-8845
▁궁중	-8846
▁배수	-8847
▁봉해	-8848
▁이득	-8849
▁임원	-8850
▁혐오	-8851
▁대합	-8852
▁믹스	-8853
▁선장	-8854
▁슈팅	-8855
▁조수	-8856
▁올라간다	-8857
▁커뮤니케이션	-8858
저지	-8859
▁사살	-8860
▁아종	-8861
▁척추	-8862
▁풋볼	-8863
▁호응	-8864
▁생략	-8865
▁입수	-8866
▁철폐	-8867
▁방사성	-8868
역학	-8869
▁감자	-8870
▁서문	-8871
▁펠리	-8872
▁하차	-8873
셰비	-8874
▁가의	-8875
▁명분	-8876
▁전방	-8877
트릭	-8878
▁감안	-8879
▁공약	-8880
▁나비	-8881
▁정유	-8882
▁카프	-8883
▁트라이	-8884
▁파이널	-8885
운서	-8886
are	-8887
ire	-8888
▁레바	-8889
▁성폭	-8890
▁우물	-8891
▁희귀	-8892
▁1800	-8893
▁계정	-8894
▁도사	-8895
▁비석	-8896
▁출가	-8897
▁복음서	-8898
▁아나운서	-8899
IP	-8900
▁지녔	-8901
▁치즈	-8902
▁한스	-8903
▁화력	-8904
▁황도	-8905
▁후반기	-8906
▁극도	-8907
▁빈번	-8908
▁아부	-8909
▁암흑	-8910
▁정인	-8911
▁파병	-8912
▁일으킬	-8913
▁쟈	-8914
▁가산	-8915
▁소자	-8916
▁왕건	-8917
▁원천	-8918
▁진전	-8919
퍼니	-8920
▁도르	-8921
▁앞장	-8922
▁화상	-8923
▁뉴저지	-8924
▁대웅전	-8925
▁비행장	-8926
▁클라우드	-8927
러미	-8928
▁케라	-8929
▁대장군	-8930
▁된다면	-8931
▁륙	-8932
미사	-8933
▁기저	-8934
▁Mar	-8935
▁플라스틱	-8936
▁갈래	-8937
▁남매	-8938
▁발각	-8939
▁104	-8940
벨트	-8941
▁GS	-8942
▁세션	-8943
▁팔리	-8944
거진	-8945
▁공파	-8946
▁실무	-8947
▁여수	-8948
▁종파	-8949
▁취미	-8950
▁카디	-8951
▁토크	-8952
▁New	-8953
▁플랫폼	-8954
▁삼성전자	-8955
▁가루	-8956
▁준주	-8957
▁중산	-8958
▁잃어버	-8959
▁콘스탄티노폴리스	-8960
브스	-8961
▁수축	-8962
▁장원	-8963
▁조광	-8964
▁브로드	-8965
▁하이드	-8966
▁경관	-8967
▁시종	-8968
▁히타	-8969
베트남	-8970
▁124	-8971
닐라	-8972
▁감마	-8973
▁리틀	-8974
▁미키	-8975
▁시국	-8976
▁오크	-8977
▁지켰	-8978
▁파산	-8979
▁제국주의	-8980
▁교대	-8981
▁파인	-8982
ust	-8983
텔레스	-8984
▁꿀	-8985
▁뻔	-8986
번스	-8987
▁교양	-8988
▁깃발	-8989
▁대원군	-8990
▁바르샤바	-8991
마쓰	-8992
포드	-8993
▁설교	-8994
▁성실	-8995
▁자형	-8996
▁이동하	-8997
고속도로	-8998
지스	-8999
▁바나	-9000
▁분량	-9001
▁이케	-9002
▁직통	-9003
▁총애	-9004
▁그랑프리	-9005
▁신축	-9006
▁아담	-9007
▁1860	-9008
뜨렸	-9009
▁민감	-9010
▁이타	-9011
▁인질	-9012
▁전위	-9013
▁딕	-9014
▁하야	-9015
▁키보드	-9016
나스	-9017
▁AR	-9018
▁급수	-9019
▁연호	-9020
▁헤비	-9021
▁연산군	-9022
▁아리스토텔레스	-9023
▁개그	-9024
▁닫힌	-9025
▁몰리	-9026
▁챌린지	-9027
▁시뮬레이션	-9028
▁알렉산드리아	-9029
▁노바	-9030
▁변이	-9031
▁호프	-9032
▁DC	-9033
▁그릇	-9034
▁방화	-9035
▁시야	-9036
▁저렴	-9037
▁접수	-9038
▁출석	-9039
▁유격수	-9040
▁륜	-9041
드르	-9042
▁Op	-9043
▁에미	-9044
▁을까	-9045
▁남동생	-9046
▁오른손	-9047
끼리	-9048
라리	-9049
▁김현	-9050
▁농사	-9051
▁따랐	-9052
▁로비	-9053
▁역량	-9054
▁오오	-9055
▁최진	-9056
▁부원군	-9057
▁새겨진	-9058
▁아스널	-9059
▁대문	-9060
▁배려	-9061
▁어둠	-9062
타리오	-9063
▁선보이	-9064
바른	-9065
▁성지	-9066
▁포고	-9067
▁부여받	-9068
▁보헤미아	-9069
르기	-9070
▁과실	-9071
▁빈곤	-9072
게이머	-9073
▁민간인	-9074
▁프로게이머	-9075
기업	-9076
▁누적	-9077
▁부가	-9078
▁천거	-9079
▁다룬다	-9080
▁맘	-9081
▁소령	-9082
▁수녀	-9083
▁이북	-9084
▁갈리아	-9085
▁무어	-9086
▁반역	-9087
▁실적	-9088
▁주임	-9089
▁직경	-9090
▁스티브	-9091
▁쓰레기	-9092
매매	-9093
화물	-9094
▁발칸	-9095
▁상금	-9096
▁상연	-9097
▁아닐	-9098
▁해져	-9099
▁관세	-9100
▁남원	-9101
▁반전	-9102
▁발리	-9103
▁이끈	-9104
▁정화	-9105
▁중원	-9106
▁평일	-9107
▁천문대	-9108
MS	-9109
▁생체	-9110
▁친분	-9111
▁후작	-9112
▁1884	-9113
운다	-9114
▁가볍	-9115
▁계열사	-9116
▁최상위	-9117
▁SU	-9118
▁공표	-9119
▁남작	-9120
▁드로	-9121
▁여파	-9122
▁자작	-9123
▁줄어	-9124
▁견인	-9125
▁본문	-9126
▁징병	-9127
▁투항	-9128
▁ID	-9129
▁사적	-9130
▁예하	-9131
▁확고	-9132
▁회피	-9133
▁자세히	-9134
▁중공업	-9135
미트	-9136
▁수양	-9137
▁체중	-9138
▁거짓말	-9139
스기	-9140
▁미노	-9141
▁전복	-9142
▁헌신	-9143
▁드디어	-9144
▁프란츠	-9145
▁활발히	-9146
mer	-9147
▁전속	-9148
▁설치류	-9149
루아	-9150
텍처	-9151
▁궁궐	-9152
▁김홍	-9153
▁말리	-9154
▁이룩	-9155
▁입주	-9156
▁아키텍처	-9157
수리	-9158
▁수료	-9159
▁연못	-9160
▁특색	-9161
▁회상	-9162
▁희곡	-9163
파이어	-9164
▁슬라브	-9165
▁필리프	-9166
▁평안북도	-9167
테면	-9168
▁요약	-9169
▁중복	-9170
▁탁월	-9171
▁이를테면	-9172
타임	-9173
▁가계	-9174
▁기슭	-9175
▁등극	-9176
▁보트	-9177
▁당연	-9178
▁이소	-9179
▁대성전	-9180
▁라오스	-9181
▁카를로스	-9182
▁검열	-9183
▁다를	-9184
▁따온	-9185
▁려던	-9186
▁모인	-9187
▁자제	-9188
폴리	-9189
▁기성	-9190
▁덮여	-9191
▁안치	-9192
▁유대교	-9193
▁강대	-9194
▁흔한	-9195
▁미하일	-9196
카미	-9197
▁CC	-9198
▁Co	-9199
▁맹세	-9200
▁왕권	-9201
▁자음	-9202
▁진수	-9203
▁특집	-9204
▁기관총	-9205
▁유닉스	-9206
VE	-9207
으로	-9208
▁감금	-9209
▁는다면	-9210
▁어려웠	-9211
▁의약	-9212
▁아름답	-9213
▁그리스인	-9214
▁예시	-9215
▁조병	-9216
▁초빙	-9217
▁컴퍼니	-9218
▁페르난	-9219
▁괘	-9220
▁기질	-9221
▁단과	-9222
▁대관	-9223
▁사본	-9224
▁이병	-9225
▁첨단	-9226
▁합스부르크	-9227
▁로열	-9228
▁벤치	-9229
▁상고	-9230
▁생계	-9231
▁재선	-9232
▁스크립트	-9233
▁함부르크	-9234
ens	-9235
▁대본	-9236
▁트로피	-9237
▁대승불교	-9238
반구	-9239
축구	-9240
▁강철	-9241
▁드레	-9242
▁현행	-9243
▁개개	-9244
▁스캔	-9245
▁조계	-9246
▁피츠	-9247
▁후진	-9248
▁게릴라	-9249
▁무조건	-9250
▁권총	-9251
▁낮추	-9252
▁수분	-9253
▁이완	-9254
▁일당	-9255
▁추산	-9256
테쓰	-9257
▁감동	-9258
▁들려	-9259
▁롤링	-9260
▁총무	-9261
내셔널	-9262
셰비키	-9263
▁보낸다	-9264
▁인터내셔널	-9265
플로	-9266
ich	-9267
▁관음	-9268
▁나트	-9269
▁냄새	-9270
▁서임	-9271
▁유식	-9272
▁전날	-9273
▁중상	-9274
▁평안남도	-9275
▁섬세	-9276
▁열강	-9277
▁장제	-9278
▁소수자	-9279
▁지도부	-9280
▁후쿠시마	-9281
▁이건	-9282
▁니콜라	-9283
▁번성	-9284
▁세손	-9285
▁스콧	-9286
▁시킴	-9287
▁애덤	-9288
▁인명	-9289
▁정문	-9290
카타	-9291
▁복용	-9292
▁시중	-9293
▁재질	-9294
▁학설	-9295
포로	-9296
▁강희	-9297
▁부조	-9298
▁상행	-9299
▁크롬	-9300
▁남동부	-9301
세기	-9302
컨대	-9303
▁경질	-9304
▁공황	-9305
▁베니	-9306
▁사모	-9307
▁피오	-9308
▁경찰청	-9309
▁박람회	-9310
▁비밀리	-9311
▁1871	-9312
▁모의	-9313
▁애틀	-9314
▁차가	-9315
▁거주지	-9316
▁검출	-9317
▁부각	-9318
▁불행	-9319
▁인산	-9320
▁적군	-9321
▁최강	-9322
▁케임	-9323
▁황족	-9324
▁1880	-9325
▁두꺼	-9326
▁버마	-9327
▁퀘벡	-9328
▁하고	-9329
▁#	-9330
▁낙하	-9331
▁무궁	-9332
▁사림	-9333
▁수중	-9334
▁예선전	-9335
▁옥스퍼드	-9336
정원	-9337
▁Ex	-9338
▁고아	-9339
▁불린	-9340
▁원료	-9341
▁장자	-9342
▁질소	-9343
▁129	-9344
▁이주하	-9345
▁정부군	-9346
▁중의원	-9347
즈카	-9348
평군	-9349
▁발라	-9350
▁발병	-9351
▁차용	-9352
▁RNA	-9353
▁단행본	-9354
▁스위치	-9355
▁시달리	-9356
▁쿄	-9357
간지	-9358
동군	-9359
카가	-9360
▁관절	-9361
▁국당	-9362
▁나노	-9363
▁당주	-9364
▁북경	-9365
▁약혼	-9366
▁어스	-9367
퍼런스	-9368
▁넘어갔	-9369
▁센고쿠	-9370
▁가가	-9371
▁강변	-9372
▁애칭	-9373
▁이드	-9374
▁플라톤	-9375
ime	-9376
▁배속	-9377
▁워크	-9378
▁청동기	-9379
▁러시아인	-9380
▁미시시피	-9381
▁만성	-9382
▁우회	-9383
▁반란군	-9384
▁복합체	-9385
▁사회당	-9386
▁부드러운	-9387
ment	-9388
▁내려졌	-9389
▁끝났	-9390
▁카카	-9391
▁학명	-9392
▁고쳤	-9393
▁구와	-9394
▁서장	-9395
▁활주	-9396
▁히사	-9397
▁조반니	-9398
멘스	-9399
▁경작	-9400
▁구약	-9401
▁실권	-9402
▁ISO	-9403
▁옮겨졌	-9404
스테	-9405
▁다투	-9406
▁도우	-9407
▁관광지	-9408
▁히어로즈	-9409
ps	-9410
▁쾰	-9411
ign	-9412
▁구실	-9413
▁로우	-9414
▁오로지	-9415
ond	-9416
▁Sc	-9417
▁개항	-9418
▁공명	-9419
▁성령	-9420
▁자란다	-9421
▁지지율	-9422
제리	-9423
퍼슨	-9424
▁베토	-9425
▁이렇	-9426
▁저격	-9427
▁평민	-9428
▁아미노	-9429
▁아시카가	-9430
▁프로리그	-9431
▁낫	-9432
ite	-9433
▁개교	-9434
▁고산	-9435
▁마땅	-9436
▁모셔	-9437
▁터보	-9438
추부사	-9439
▁공민왕	-9440
덕션	-9441
▁경시	-9442
▁공예	-9443
▁표적	-9444
▁앞쪽	-9445
▁엄밀	-9446
▁추첨	-9447
▁총사령관	-9448
무스	-9449
▁어찌	-9450
▁입국	-9451
▁정국	-9452
▁세워져	-9453
바시	-9454
▁이데	-9455
▁이장	-9456
▁브리지	-9457
▁1600	-9458
▁맞붙	-9459
▁무함	-9460
▁줄여	-9461
▁코믹	-9462
▁갤러리	-9463
▁긴테쓰	-9464
도리	-9465
▁간선	-9466
▁냐는	-9467
▁서리	-9468
▁지출	-9469
▁평창	-9470
테이션	-9471
▁겐지	-9472
▁김포	-9473
▁미르	-9474
▁잇따	-9475
▁장벽	-9476
▁지붕돌	-9477
▁나스	-9478
▁입양	-9479
▁김옥균	-9480
▁힌두교	-9481
▁키프로스	-9482
▁함경남도	-9483
▁북아프리카	-9484
▁감수	-9485
▁안경	-9486
▁특전	-9487
▁114	-9488
▁col	-9489
▁소나무	-9490
MA	-9491
ov	-9492
사우	-9493
포구	-9494
▁올바른	-9495
▁케플러	-9496
고래	-9497
크로	-9498
▁vs	-9499
▁교의	-9500
▁본작	-9501
▁안산	-9502
▁어리	-9503
▁휴가	-9504
▁뛰어났	-9505
▁일리노	-9506
▁일리노이	-9507
▁빈도	-9508
▁온다	-9509
▁장덕	-9510
▁칼럼	-9511
▁폭포	-9512
▁조승우	-9513
▁프란체	-9514
올로	-9515
치기	-9516
▁니코	-9517
▁박지	-9518
▁우상	-9519
▁형법	-9520
▁안토니오	-9521
ory	-9522
▁독도	-9523
▁돌보	-9524
▁소나	-9525
▁습지	-9526
▁실정	-9527
▁회관	-9528
▁아래쪽	-9529
▁양성자	-9530
▁종로구	-9531
레타	-9532
▁".	-9533
▁구이	-9534
▁처지	-9535
▁펑크	-9536
▁삿포로	-9537
▁온타리오	-9538
▁리우	-9539
▁전래	-9540
▁콩고	-9541
▁남서부	-9542
▁말미암	-9543
▁부작용	-9544
▁초신성	-9545
▁그대	-9546
▁다크	-9547
▁합당	-9548
프레스	-9549
글리	-9550
▁가솔	-9551
▁감싸	-9552
▁하리	-9553
▁힘썼	-9554
▁옥수수	-9555
▁파란색	-9556
기념	-9557
▁반하	-9558
▁수년	-9559
▁하행	-9560
▁호의	-9561
▁가옥	-9562
▁말년	-9563
▁무실	-9564
▁춘천	-9565
사상	-9566
여래	-9567
▁CN	-9568
▁찬양	-9569
▁채소	-9570
▁133	-9571
▁붙여졌	-9572
▁중앙부	-9573
어질	-9574
▁네스	-9575
▁대명	-9576
▁독성	-9577
▁무과	-9578
▁불어	-9579
▁워터	-9580
▁퇴적	-9581
▁원군	-9582
▁찾아내	-9583
▁남미	-9584
▁페니	-9585
▁헬리	-9586
▁준결승전	-9587
▁열도	-9588
▁파손	-9589
▁III	-9590
▁경영자	-9591
라이언트	-9592
융합	-9593
▁로맨	-9594
▁리바	-9595
▁물가	-9596
▁그림자	-9597
▁애틀랜	-9598
▁어긋나	-9599
▁석회	-9600
▁나타냈	-9601
▁붙여진	-9602
▁사업가	-9603
▁파이프	-9604
▁클라이언트	-9605
▁만년	-9606
▁소극	-9607
▁죽인	-9608
▁다니엘	-9609
▁구내	-9610
▁무척	-9611
▁이규	-9612
▁지미	-9613
▁티켓	-9614
▁핵융합	-9615
위성	-9616
▁리프	-9617
▁벌여	-9618
▁음향	-9619
▁CEO	-9620
▁우승자	-9621
▁럼	-9622
지사	-9623
▁결별	-9624
▁비자	-9625
▁자칭	-9626
▁향했	-9627
▁센티미터	-9628
▁마당	-9629
▁제인	-9630
▁화엄	-9631
▁열심히	-9632
테르부르크	-9633
피어	-9634
▁대북	-9635
▁상급	-9636
▁울리	-9637
▁정경	-9638
▁제로	-9639
▁내무부	-9640
▁강간	-9641
▁기분	-9642
▁원격	-9643
▁해부	-9644
▁134	-9645
▁신문사	-9646
▁인천광역시	-9647
공산	-9648
▁EU	-9649
▁반성	-9650
▁싸이	-9651
▁올랐으며	-9652
▁줘	-9653
▁대출	-9654
▁세키	-9655
▁어로	-9656
▁표창	-9657
▁화기	-9658
▁효고	-9659
▁꼽힌다	-9660
▁일자리	-9661
▁만장	-9662
▁불변	-9663
▁원심	-9664
▁포획	-9665
▁1870	-9666
▁넷째	-9667
▁차르	-9668
▁티스	-9669
▁퍼포	-9670
▁희극	-9671
▁안테나	-9672
▁제작사	-9673
▁제조업	-9674
▁World	-9675
▁케임브리지	-9676
▁왜구	-9677
▁이방	-9678
▁주된	-9679
▁처하	-9680
▁캔자스	-9681
▁샀	-9682
법인	-9683
▁쓰촨	-9684
▁치루	-9685
▁레바논	-9686
▁퍼포먼스	-9687
▁엇	-9688
리안	-9689
▁개헌	-9690
▁러시	-9691
▁북군	-9692
▁염소	-9693
▁돌출	-9694
▁어쩔	-9695
▁체르	-9696
▁라이더	-9697
▁제갈량	-9698
▁플러스	-9699
▁짱	-9700
라고	-9701
▁CR	-9702
▁사민	-9703
▁파우	-9704
▁하반	-9705
노미야	-9706
▁NAS	-9707
▁줄거리	-9708
▁대대로	-9709
▁믹	-9710
▁벵	-9711
그래	-9712
ome	-9713
▁공고	-9714
▁귀신	-9715
▁기량	-9716
▁도미	-9717
▁빛나	-9718
▁제위	-9719
TC	-9720
무소	-9721
▁리모	-9722
▁은거	-9723
▁이겨	-9724
▁피겨	-9725
▁팡	-9726
레아	-9727
▁or	-9728
▁능선	-9729
▁부파	-9730
▁포터	-9731
▁카리브	-9732
▁화강암	-9733
박스	-9734
브르	-9735
포터	-9736
▁BS	-9737
▁Ne	-9738
▁대좌	-9739
▁러서	-9740
▁모나	-9741
▁취했	-9742
▁항우	-9743
▁쓰시마	-9744
▁블라디미르	-9745
고스	-9746
▁듀얼	-9747
▁사서	-9748
▁소셜	-9749
▁htt	-9750
▁드러냈	-9751
▁앨리스	-9752
▁유치원	-9753
▁이용객	-9754
란토	-9755
▁||	-9756
▁레즈	-9757
▁본성	-9758
▁영유	-9759
▁통용	-9760
▁그래도	-9761
▁베토벤	-9762
▁스폰서	-9763
▁쳐들어	-9764
▁대국	-9765
▁델라	-9766
▁사설	-9767
▁오사	-9768
▁화약	-9769
▁예수회	-9770
▁사무총장	-9771
국사	-9772
▁라서	-9773
▁상기	-9774
▁쾰른	-9775
▁국정원	-9776
▁대단히	-9777
▁무함마드	-9778
▁늙	-9779
▁뾰	-9780
▁바이트	-9781
▁창시자	-9782
▁둘러싸여	-9783
▁고쿠	-9784
▁모금	-9785
▁성곽	-9786
▁조형	-9787
▁엮	-9788
▁메일	-9789
▁바우	-9790
▁적외선	-9791
▁컷	-9792
▁속력	-9793
▁시코	-9794
▁연한	-9795
▁전산	-9796
▁제왕	-9797
▁시켜야	-9798
▁섰	-9799
들리	-9800
▁고성	-9801
▁병자	-9802
▁수락	-9803
▁장대	-9804
▁전시회	-9805
▁프로덕션	-9806
▁앗	-9807
▁걸린	-9808
▁벽화	-9809
▁중엽	-9810
▁차출	-9811
▁퐁	-9812
렉스	-9813
▁수인	-9814
▁실존	-9815
▁프롤	-9816
▁엔트리	-9817
▁낚	-9818
도스	-9819
신문	-9820
워하	-9821
히토	-9822
▁거란	-9823
▁남군	-9824
▁선봉	-9825
▁형질	-9826
▁일러스트	-9827
▁즐길	-9828
▁팔라	-9829
▁기숙사	-9830
▁일으킨다	-9831
▁++	-9832
▁둔다	-9833
▁미륵	-9834
▁스턴	-9835
▁시흥	-9836
▁이양	-9837
▁적료	-9838
▁하르	-9839
▁염색체	-9840
▁클라이	-9841
▁브라더스	-9842
▁가타	-9843
▁독창	-9844
▁심야	-9845
▁통역	-9846
▁너무나	-9847
▁리우스	-9848
▁얕	-9849
▁교량	-9850
▁동네	-9851
▁바쳤	-9852
▁추론	-9853
▁팔레	-9854
▁핸드	-9855
▁데스크	-9856
히코	-9857
▁강령	-9858
▁관청	-9859
▁유생	-9860
▁주이	-9861
▁헌정	-9862
▁후배	-9863
▁그래미	-9864
▁페이스북	-9865
▁슨	-9866
▁kt	-9867
▁각색	-9868
▁동로	-9869
▁사쓰	-9870
▁소음	-9871
▁실록	-9872
▁이반	-9873
▁종말	-9874
▁창문	-9875
▁KIA	-9876
▁싣	-9877
유예	-9878
▁담보	-9879
▁안성	-9880
▁토끼	-9881
▁어시스트	-9882
lan	-9883
▁송신	-9884
▁예약	-9885
▁오쿠	-9886
▁지우	-9887
비나	-9888
타민	-9889
▁경희	-9890
▁관우	-9891
▁동이	-9892
▁져서	-9893
▁침묵	-9894
▁도카이	-9895
▁빨간색	-9896
▁권장	-9897
▁유정	-9898
▁MTV	-9899
▁교육부	-9900
▁언어학	-9901
▁SL	-9902
▁러일	-9903
▁무로	-9904
▁스로	-9905
▁아날	-9906
▁설립자	-9907
▁이뤄지	-9908
▁할리우드	-9909
▁중앙아시아	-9910
▁감찰	-9911
▁강해	-9912
▁국영	-9913
▁내면	-9914
▁미친	-9915
▁복식	-9916
▁전단	-9917
▁참사	-9918
▁청소	-9919
▁교도소	-9920
▁드레스	-9921
기구	-9922
▁반기	-9923
▁봉인	-9924
▁재활	-9925
▁해독	-9926
▁122	-9927
▁Man	-9928
▁가솔린	-9929
▁디트로	-9930
▁배우자	-9931
▁러시아군	-9932
▁올림피아	-9933
▁디트로이트	-9934
디나	-9935
▁수염	-9936
▁스카우트	-9937
통일	-9938
▁메뉴	-9939
▁가져온	-9940
▁방사능	-9941
▁웨스턴	-9942
들여	-9943
에몽	-9944
히트	-9945
▁고생	-9946
▁코카	-9947
▁트릭	-9948
▁휩쓸	-9949
▁아틀레	-9950
▁분파	-9951
▁왕정	-9952
▁전전	-9953
▁절단	-9954
▁모로코	-9955
▁데이비스	-9956
▁타이거스	-9957
▁단군	-9958
▁모호	-9959
▁불량	-9960
▁수복	-9961
▁쌍대	-9962
▁양심	-9963
▁유료	-9964
▁하류	-9965
베니아	-9966
▁무궁화	-9967
▁비추	-9968
▁염려	-9969
▁유라	-9970
▁거래소	-9971
▁버클리	-9972
▁제퍼슨	-9973
▁지배자	-9974
▁슬로베니아	-9975
▁베스	-9976
▁보성	-9977
▁속편	-9978
▁천왕	-9979
▁생긴다	-9980
▁활주로	-9981
롤라이나	-9982
ass	-9983
▁로이	-9984
▁메커	-9985
▁이회	-9986
▁총칭	-9987
▁기관지	-9988
▁하노버	-9989
▁도카이도	-9990
▁아라비아	-9991
▁동요	-9992
▁무술	-9993
▁창의	-9994
▁220	-9995
▁방어선	-9996
▁보이스	-9997
▁열린다	-9998
▁장학금	-9999
▁캉	-10000
▁종군	-10001
▁지성	-10002
▁타임스	-10003
▁벨라루스	-10004
pe	-10005
럴드	-10006
▁성별	-10007
▁증인	-10008
▁좌의정	-10009
▁익스프레스	-10010
▁생존자	-10011
▁코끼리	-10012
삭스	-10013
▁모색	-10014
▁정주	-10015
라이터	-10016
▁116	-10017
ug	-10018
▁신정	-10019
▁전보	-10020
▁제물	-10021
▁한신	-10022
▁1885	-10023
▁넘치	-10024
▁사방	-10025
▁렐	-10026
워서	-10027
▁달걀	-10028
▁여유	-10029
▁자크	-10030
▁주계	-10031
▁교구장	-10032
▁대합실	-10033
▁주차장	-10034
▁창원시	-10035
▁탤	-10036
▁나아	-10037
▁따왔	-10038
▁비준	-10039
▁132	-10040
▁바그너	-10041
▁졌으나	-10042
▁카스티	-10043
ach	-10044
▁검거	-10045
▁곡물	-10046
▁구두	-10047
▁숙부	-10048
▁순종	-10049
▁정몽	-10050
▁정종	-10051
▁중퇴	-10052
지리아	-10053
▁Mus	-10054
▁동맹군	-10055
▁모티브	-10056
▁브리튼	-10057
▁올라갔	-10058
▁이뤄졌	-10059
▁나이지리아	-10060
▁가혹	-10061
▁내걸	-10062
▁요격	-10063
▁포착	-10064
▁놀라운	-10065
▁헥	-10066
벤처	-10067
자르	-10068
▁광둥	-10069
▁야전	-10070
▁약해	-10071
▁축물	-10072
▁대지진	-10073
▁소행성	-10074
▁어드벤처	-10075
▁웬	-10076
▁모욕	-10077
▁찬사	-10078
바이트	-10079
▁례	-10080
▁밍	-10081
ial	-10082
▁CJ	-10083
▁도교	-10084
▁분과	-10085
▁영산	-10086
▁정작	-10087
▁탄약	-10088
▁국보	-10089
▁극작	-10090
▁글러	-10091
▁병마	-10092
▁커플	-10093
▁평지	-10094
▁비주얼	-10095
리코	-10096
▁라오	-10097
▁간신히	-10098
▁교통국	-10099
▁알제리	-10100
▁맥도	-10101
▁바꿀	-10102
▁뾰족	-10103
▁서태	-10104
▁정동	-10105
▁조례	-10106
▁퇴직	-10107
▁핑크	-10108
▁프라하	-10109
▁매끄러운	-10110
▁프랭클린	-10111
니시	-10112
려서	-10113
▁랭크	-10114
▁룩셈	-10115
▁달아났	-10116
▁에디션	-10117
▁우의정	-10118
▁키예프	-10119
▁통틀어	-10120
▁룩셈부르크	-10121
쟁이	-10122
풀이	-10123
호란	-10124
▁든다	-10125
▁수식	-10126
▁요충	-10127
▁고속도	-10128
▁역사가	-10129
사관학교	-10130
말로	-10131
망디	-10132
▁가늘	-10133
▁위력	-10134
▁집정	-10135
프랑크	-10136
▁미생물	-10137
▁우즈베	-10138
IL	-10139
무네	-10140
▁그램	-10141
▁끼치	-10142
▁당내	-10143
▁와타	-10144
▁천수	-10145
▁한미	-10146
도르프	-10147
스틴	-10148
천사	-10149
홀름	-10150
▁일각	-10151
▁전격	-10152
▁정제	-10153
공산당	-10154
클리드	-10155
▁잡아먹	-10156
▁메커니즘	-10157
▁공성	-10158
▁규탄	-10159
▁번창	-10160
▁브란	-10161
▁온대	-10162
▁급속히	-10163
▁기상청	-10164
▁가면라이더	-10165
▁간첩	-10166
▁국교	-10167
▁다윈	-10168
▁브뤼	-10169
▁지극	-10170
▁카우	-10171
▁타우	-10172
▁똑같이	-10173
▁뛰어들	-10174
▁에스페	-10175
▁왕세자	-10176
▁해상도	-10177
십자	-10178
▁그저	-10179
▁러셀	-10180
▁유목	-10181
▁자르	-10182
▁하치	-10183
▁형편	-10184
▁화자	-10185
▁카자흐스탄	-10186
구르	-10187
바흐	-10188
▁갑옷	-10189
▁종자	-10190
나갔	-10191
산맥	-10192
▁CM	-10193
▁몽고	-10194
▁묘비	-10195
▁세비	-10196
▁임정	-10197
▁전구	-10198
▁절벽	-10199
▁평평	-10200
▁동유럽	-10201
▁줄무늬	-10202
어사	-10203
ree	-10204
▁꼽히	-10205
▁무성	-10206
▁익숙	-10207
▁중생	-10208
테르담	-10209
▁드러머	-10210
▁마닐라	-10211
▁크리스티안	-10212
▁쉴	-10213
▁찔	-10214
러지	-10215
용차	-10216
▁BM	-10217
▁EC	-10218
▁간략	-10219
▁글루	-10220
▁연동	-10221
▁이빨	-10222
▁케빈	-10223
▁해밀턴	-10224
메다	-10225
모스	-10226
▁On	-10227
▁is	-10228
▁받들	-10229
▁사탕	-10230
▁지로	-10231
▁징수	-10232
▁사카이	-10233
▁후지와라노	-10234
거지	-10235
ase	-10236
▁NT	-10237
▁김원	-10238
▁미들	-10239
▁연말	-10240
▁원더	-10241
▁걸쳐서	-10242
부리	-10243
질러	-10244
▁Tr	-10245
▁광도	-10246
▁이점	-10247
▁판례	-10248
▁동시대	-10249
ert	-10250
▁겹쳐	-10251
▁다듬	-10252
▁맥락	-10253
▁봉수	-10254
▁유령	-10255
▁진료	-10256
▁교차로	-10257
▁제우스	-10258
▁포스터	-10259
ivers	-10260
ick	-10261
▁낙양	-10262
▁느린	-10263
▁사영	-10264
▁용암	-10265
▁이황	-10266
▁스즈키	-10267
▁볼셰비키	-10268
▁브레이크	-10269
▁와이번스	-10270
▁근사	-10271
▁도피	-10272
▁살라	-10273
▁유선	-10274
▁정관	-10275
▁중공	-10276
▁칼뱅	-10277
▁호쿠	-10278
▁라이언	-10279
▁비해서	-10280
▁예컨대	-10281
▁프랑스인	-10282
지르	-10283
▁GO	-10284
▁각성	-10285
▁강렬	-10286
▁대차	-10287
▁제프	-10288
ft	-10289
맥스	-10290
▁농경	-10291
▁시속	-10292
▁프로그래머	-10293
▁꾀하	-10294
▁몸통	-10295
▁일진	-10296
▁칼라	-10297
▁다저스	-10298
▁카를로	-10299
▁프란치	-10300
더슨	-10301
아나	-10302
▁MB	-10303
▁대각	-10304
▁방치	-10305
▁차츰	-10306
▁대리인	-10307
▁1889	-10308
▁가네	-10309
▁격추	-10310
▁결제	-10311
▁씨앗	-10312
▁아치	-10313
▁절정	-10314
▁중서	-10315
▁토트	-10316
▁달라지	-10317
▁국공	-10318
▁달랐	-10319
▁마술	-10320
▁자명	-10321
▁태백	-10322
▁폭파	-10323
▁합치	-10324
▁엘리트	-10325
▁클린턴	-10326
파르	-10327
▁교부	-10328
▁단정	-10329
▁막시	-10330
▁위그	-10331
▁청춘	-10332
▁피로	-10333
▁450	-10334
▁트럼프	-10335
▁댓	-10336
콥터	-10337
▁갈아	-10338
▁더비	-10339
▁원통	-10340
▁경쟁력	-10341
▁마라톤	-10342
▁그레이트	-10343
▁아날로그	-10344
▁강행	-10345
ys	-10346
대표	-10347
러드	-10348
▁걸어	-10349
▁누렸	-10350
▁양보	-10351
ii	-10352
관계	-10353
자루	-10354
▁버드	-10355
▁점포	-10356
라이어	-10357
▁사이토	-10358
▁니콜라이	-10359
▁아카데미상	-10360
▁나인	-10361
▁네오	-10362
▁맞대	-10363
▁밀어	-10364
▁반포	-10365
▁볼트	-10366
▁빌라	-10367
▁앞선	-10368
▁채취	-10369
▁할인	-10370
▁쓰여진	-10371
▁가역	-10372
▁나간	-10373
▁라기	-10374
▁메릴	-10375
▁초고	-10376
▁현은	-10377
▁현직	-10378
▁도미니	-10379
▁사간원	-10380
▁스트리	-10381
원장	-10382
▁AN	-10383
▁ES	-10384
▁김병	-10385
▁부의	-10386
▁스텔	-10387
▁염증	-10388
▁자란	-10389
▁해치	-10390
▁아름다움	-10391
▁막스	-10392
▁운임	-10393
▁절감	-10394
▁박영효	-10395
ica	-10396
▁모모	-10397
▁문고	-10398
▁범행	-10399
▁부합	-10400
▁이모	-10401
▁토요	-10402
▁대표자	-10403
▁북조선	-10404
▁아무것	-10405
▁접어들	-10406
▁홈구장	-10407
▁관현악단	-10408
IG	-10409
▁팟	-10410
지부	-10411
▁NG	-10412
▁게리	-10413
▁결사	-10414
▁온난	-10415
▁코시	-10416
▁가져다	-10417
▁명확히	-10418
▁무실점	-10419
▁발렌시아	-10420
상시	-10421
out	-10422
▁욕망	-10423
▁일산	-10424
▁마우스	-10425
그라	-10426
rom	-10427
▁LA	-10428
▁No	-10429
▁남산	-10430
▁맡기	-10431
▁재편	-10432
▁타락	-10433
테이너	-10434
▁THE	-10435
▁어울리	-10436
TP	-10437
▁게시판	-10438
▁솔루션	-10439
▁유권자	-10440
▁정치학	-10441
▁1848	-10442
▁유클리드	-10443
▁거제	-10444
▁극락	-10445
▁단말	-10446
▁사라진	-10447
▁1882	-10448
▁고집	-10449
▁델타	-10450
▁바꿨	-10451
▁체스	-10452
▁호르몬	-10453
수소	-10454
▁ch	-10455
▁리뷰	-10456
▁블리	-10457
▁오락	-10458
▁주입	-10459
▁진한	-10460
▁평판	-10461
▁노르망디	-10462
▁스톡홀름	-10463
▁헛	-10464
방울	-10465
ost	-10466
▁SE	-10467
▁기와	-10468
▁보위	-10469
▁세련	-10470
▁성매매	-10471
▁수용체	-10472
▁송라이터	-10473
할시	-10474
▁가도	-10475
▁공존	-10476
▁사안	-10477
▁에밀	-10478
▁마운트	-10479
▁패러디	-10480
▁NASA	-10481
▁GB	-10482
▁be	-10483
▁스킴	-10484
▁포털	-10485
▁스토어	-10486
▁문화방송	-10487
ary	-10488
▁가오	-10489
▁경호	-10490
▁관례	-10491
▁김유	-10492
▁불참	-10493
▁조교	-10494
▁타케	-10495
▁파직	-10496
▁오리온	-10497
▁포도당	-10498
▁촛	-10499
▁공천	-10500
▁부스	-10501
▁의과	-10502
▁이태	-10503
▁스칼라	-10504
▁컨트리	-10505
▁BC	-10506
▁로저	-10507
▁사슴	-10508
▁황소	-10509
▁렘	-10510
데시	-10511
▁남하	-10512
▁도래	-10513
▁모범	-10514
▁실버	-10515
▁이범	-10516
▁주선	-10517
▁지청	-10518
▁해리슨	-10519
▁관계없이	-10520
act	-10521
▁계주	-10522
▁블로	-10523
▁자서	-10524
▁부드럽	-10525
▁흩어져	-10526
구역	-10527
▁가중	-10528
▁막판	-10529
▁새긴	-10530
▁허목	-10531
▁친위대	-10532
▁파시즘	-10533
사고	-10534
아키	-10535
▁고의	-10536
▁국한	-10537
▁민요	-10538
▁스런	-10539
▁울프	-10540
▁으리	-10541
▁화랑	-10542
▁단속	-10543
▁램프	-10544
▁방대	-10545
▁수로	-10546
▁금요일	-10547
▁대서양	-10548
▁마르틴	-10549
▁괄	-10550
▁떡	-10551
▁덮개	-10552
▁위촉	-10553
▁준수	-10554
▁찰리	-10555
▁난이도	-10556
▁지닌다	-10557
▁압록	-10558
▁체조	-10559
▁프론	-10560
▁피치	-10561
▁사각형	-10562
▁선구자	-10563
▁인프라	-10564
▁셜	-10565
▁챙	-10566
▁메카	-10567
▁문종	-10568
▁영동	-10569
▁전담	-10570
▁알아보	-10571
▁연장전	-10572
▁알렉산드르	-10573
▁에스페란토	-10574
우옌	-10575
▁남용	-10576
▁로리	-10577
▁았었	-10578
▁요지	-10579
마르크	-10580
▁군사력	-10581
▁미주리	-10582
▁오바마	-10583
▁앰	-10584
▁Gr	-10585
▁감성	-10586
▁데르	-10587
▁도네	-10588
▁주창	-10589
▁준장	-10590
▁GDP	-10591
▁전반기	-10592
▁체인지	-10593
▁오스트리	-10594
ix	-10595
▁가맹	-10596
▁기세	-10597
▁단결	-10598
▁베른	-10599
▁온화	-10600
▁장단	-10601
자치도	-10602
▁고려사	-10603
▁요르단	-10604
▁제주특별	-10605
▁카르타고	-10606
▁제주특별자치도	-10607
▁므	-10608
대사	-10609
말라	-10610
▁감상	-10611
▁도둑	-10612
▁산성	-10613
▁실증	-10614
▁이송	-10615
▁촉매	-10616
▁축성	-10617
▁한큐	-10618
▁두려움	-10619
▁시켜서	-10620
▁치러진	-10621
▁코스타	-10622
▁가했	-10623
▁관문	-10624
▁극우	-10625
▁양육	-10626
▁오로	-10627
▁캐서	-10628
▁평형	-10629
▁흡사	-10630
해살이	-10631
▁All	-10632
▁거성	-10633
▁당할	-10634
▁로키	-10635
▁몸돌	-10636
▁보름	-10637
▁심문	-10638
▁이현	-10639
▁특사	-10640
▁시멘트	-10641
▁여배우	-10642
▁홉	-10643
▁루크	-10644
▁보행	-10645
▁연정	-10646
▁이븐	-10647
▁전무	-10648
▁국제법	-10649
▁발라드	-10650
▁아리아	-10651
▁1883	-10652
▁파라과이	-10653
부로	-10654
iss	-10655
▁결핵	-10656
▁고온	-10657
▁급여	-10658
▁문집	-10659
▁산요	-10660
▁샌디	-10661
▁선명	-10662
▁었었	-10663
기념물	-10664
레슬링	-10665
▁마르티	-10666
▁콕	-10667
▁선대	-10668
▁악보	-10669
테리아	-10670
▁LED	-10671
▁홈경기	-10672
메스	-10673
원수	-10674
▁거세	-10675
▁앵글	-10676
▁연희	-10677
▁외치	-10678
▁잠실	-10679
▁절망	-10680
▁강화도	-10681
▁마르크스주의	-10682
▁른	-10683
▁샐	-10684
▁스킬	-10685
▁우왕	-10686
▁점거	-10687
▁진로	-10688
▁피할	-10689
▁API	-10690
▁사쓰마	-10691
▁굶	-10692
▁개원	-10693
▁경복	-10694
▁국유	-10695
▁다마	-10696
▁대니	-10697
▁볼로	-10698
▁안개	-10699
▁워치	-10700
▁증폭	-10701
▁탈취	-10702
▁통신사	-10703
RA	-10704
▁팰	-10705
시온	-10706
▁EX	-10707
▁네티	-10708
▁노이	-10709
▁니혼	-10710
▁매트	-10711
▁신동	-10712
▁신지	-10713
▁위로	-10714
▁초원	-10715
▁포식	-10716
ence	-10717
▁광저우	-10718
아일랜드	-10719
▁△	-10720
▁。	-10721
▁기뻐	-10722
▁느낄	-10723
▁비정	-10724
▁주심	-10725
스토랑	-10726
▁기념관	-10727
▁로스쿨	-10728
▁보여준	-10729
▁레스토랑	-10730
▁프로레슬링	-10731
▁높여	-10732
▁유혹	-10733
▁잠깐	-10734
▁출처	-10735
▁부왕	-10736
▁정정	-10737
▁발전기	-10738
등식	-10739
버러	-10740
캐슬	-10741
▁경위	-10742
▁관행	-10743
▁옮긴	-10744
▁자진	-10745
▁형벌	-10746
▁프레드	-10747
▁깜	-10748
▁루카	-10749
▁세라	-10750
▁올드	-10751
▁결과물	-10752
▁철저히	-10753
▁일렉트로	-10754
면체	-10755
▁그랜	-10756
▁정했	-10757
▁카니	-10758
▁내세우	-10759
▁로마인	-10760
▁컴퓨팅	-10761
▁랍	-10762
타니	-10763
▁파벌	-10764
솔리니	-10765
▁뉴캐슬	-10766
▁리프트	-10767
덴부르크	-10768
▁군데	-10769
▁로얄	-10770
▁수위	-10771
▁가라앉	-10772
▁겉보기	-10773
▁민병대	-10774
▁요제프	-10775
▁쯔	-10776
유사	-10777
파리	-10778
▁사학	-10779
▁상트	-10780
▁세습	-10781
▁숙주	-10782
▁자수	-10783
▁카터	-10784
▁커스	-10785
▁대법관	-10786
▁보살상	-10787
▁수차례	-10788
▁하노이	-10789
▁내무	-10790
▁신곡	-10791
▁영등	-10792
▁이의	-10793
EG	-10794
LS	-10795
들이	-10796
사업	-10797
▁Br	-10798
▁ex	-10799
▁고토	-10800
▁관성	-10801
▁보낼	-10802
▁신입	-10803
▁카미	-10804
▁한문	-10805
▁기념비	-10806
▁나타낸	-10807
▁사단장	-10808
▁알래스카	-10809
네마	-10810
▁간사	-10811
▁국외	-10812
▁급히	-10813
▁묻혔	-10814
▁발동	-10815
▁시문	-10816
▁아산	-10817
▁요양	-10818
▁톱니	-10819
▁펌프	-10820
▁정보원	-10821
▁천연기념물	-10822
ile	-10823
▁리본	-10824
▁아빠	-10825
▁치른	-10826
▁코호	-10827
▁법원장	-10828
▁지켜보	-10829
▁퉁	-10830
▁도박	-10831
▁루비	-10832
▁보라	-10833
▁야드	-10834
▁원상	-10835
▁진해	-10836
▁타스	-10837
▁203	-10838
▁윗부분	-10839
▁크라이	-10840
▁포켓몬스터	-10841
▁프란체스코	-10842
az	-10843
링턴	-10844
▁문단	-10845
▁삼림	-10846
▁운수	-10847
▁부르고	-10848
OU	-10849
놀이	-10850
▁내분	-10851
▁래퍼	-10852
▁별세	-10853
▁스텝	-10854
▁약점	-10855
▁황색	-10856
▁국제선	-10857
▁주니치	-10858
▁히로시	-10859
▁몹	-10860
▁DF	-10861
▁』,	-10862
▁군벌	-10863
▁끝날	-10864
▁수필	-10865
▁실각	-10866
▁외형	-10867
▁총기	-10868
▁유니버	-10869
▁격차	-10870
▁교실	-10871
▁대주	-10872
▁맞춘	-10873
▁배척	-10874
▁숨기	-10875
▁정형	-10876
▁제니	-10877
▁다이어	-10878
▁보수당	-10879
▁생겨난	-10880
▁알파벳	-10881
▁주계열	-10882
▁무솔리니	-10883
▁헬리콥터	-10884
▁찢	-10885
▁애정	-10886
▁240	-10887
▁내린다	-10888
▁동맹국	-10889
▁지상파	-10890
▁투자자	-10891
▁4000	-10892
EM	-10893
▁구니	-10894
▁서초	-10895
▁잔인	-10896
▁최선	-10897
▁가리켜	-10898
▁패밀리	-10899
pt	-10900
▁게끔	-10901
▁아과	-10902
▁전락	-10903
르타뉴	-10904
▁부르고뉴	-10905
▁브르타뉴	-10906
pp	-10907
▁갚	-10908
팡이	-10909
화문	-10910
▁너머	-10911
▁서대문	-10912
▁발상	-10913
▁상가	-10914
▁이항	-10915
▁족보	-10916
▁종신	-10917
▁AKB	-10918
▁줄기세포	-10919
그리	-10920
나미	-10921
▁귀속	-10922
▁노후	-10923
▁조롱	-10924
▁함흥	-10925
▁131	-10926
▁연대기	-10927
▁좌표계	-10928
▁후속작	-10929
▁안드레아	-10930
▁α	-10931
▁냥	-10932
백과	-10933
츠크	-10934
▁분단	-10935
▁소울	-10936
▁워너	-10937
▁이산	-10938
▁영원히	-10939
▁해안선	-10940
▁아이디얼	-10941
▁경무	-10942
▁공소	-10943
▁리보	-10944
▁세네	-10945
▁철강	-10946
바이잔	-10947
사이드	-10948
▁순양함	-10949
▁베네딕토	-10950
변이	-10951
소통	-10952
▁DM	-10953
▁장시	-10954
▁재차	-10955
▁친족	-10956
▁편견	-10957
▁하의	-10958
▁선제골	-10959
▁돌연변이	-10960
석탑	-10961
▁과연	-10962
▁정월	-10963
▁켈트	-10964
▁페로	-10965
▁응우옌	-10966
OW	-10967
그마	-10968
나드	-10969
▁구한	-10970
▁높였	-10971
▁대마	-10972
▁순차	-10973
▁중합	-10974
▁호크	-10975
층석탑	-10976
▁독립군	-10977
▁아무리	-10978
▁평안도	-10979
▁더글러스	-10980
▁의사소통	-10981
uc	-10982
▁NP	-10983
▁농림	-10984
▁도제	-10985
▁종점	-10986
▁천천	-10987
▁헬싱	-10988
▁후예	-10989
▁공식전	-10990
▁상트페	-10991
▁선진국	-10992
▁자유민주당	-10993
▁상트페테르부르크	-10994
▁업자	-10995
▁위함	-10996
▁코코	-10997
▁가이드	-10998
▁떠난다	-10999
▁부상자	-11000
▁타이어	-11001
가르	-11002
렉션	-11003
타케	-11004
▁격려	-11005
▁과시	-11006
▁김준	-11007
▁발목	-11008
▁선천	-11009
▁설문	-11010
▁신상	-11011
▁조이	-11012
▁종식	-11013
▁충렬	-11014
▁덧붙였	-11015
▁받침돌	-11016
▁아키라	-11017
▁강당	-11018
▁바디	-11019
▁카즈	-11020
느러미	-11021
▁로렌스	-11022
▁아제르	-11023
▁알프스	-11024
▁아제르바이잔	-11025
▁벅	-11026
▁Cl	-11027
▁대접	-11028
▁문무	-11029
▁연회	-11030
▁외래	-11031
▁칭송	-11032
▁통영	-11033
▁회귀	-11034
▁동대문	-11035
▁아라곤	-11036
▁유학자	-11037
▁파일럿	-11038
▁구스	-11039
▁수열	-11040
▁요절	-11041
▁자켓	-11042
▁잠정	-11043
▁One	-11044
▁관련자	-11045
▁미나모토	-11046
▁GN	-11047
▁공안	-11048
▁대영	-11049
▁마차	-11050
▁복위	-11051
▁복직	-11052
▁사치	-11053
▁애리	-11054
▁위생	-11055
▁접한	-11056
▁제노	-11057
▁지자	-11058
▁대성당	-11059
▁달라진다	-11060
▁컨트롤러	-11061
GM	-11062
도바	-11063
▁나루	-11064
▁놓인	-11065
▁수심	-11066
▁비타민	-11067
▁요충지	-11068
▁우에스기	-11069
▁le	-11070
▁국철	-11071
▁몰두	-11072
▁배분	-11073
▁신발	-11074
▁안무	-11075
▁에콰	-11076
▁학력	-11077
▁연기자	-11078
▁의약품	-11079
▁절도사	-11080
▁에콰도르	-11081
▁AV	-11082
▁복종	-11083
▁조나라	-11084
▁헤이안	-11085
▁고속버스	-11086
지기	-11087
퀘어	-11088
▁마니	-11089
▁백과	-11090
▁씨족	-11091
▁연립	-11092
▁위조	-11093
▁칙령	-11094
▁카피	-11095
▁루돌프	-11096
▁으려는	-11097
꿈치	-11098
▁견고	-11099
▁동적	-11100
▁마키	-11101
▁소시	-11102
▁양대	-11103
▁와라	-11104
▁유스	-11105
▁출동	-11106
▁굴절	-11107
▁낙동	-11108
▁법관	-11109
▁보로	-11110
▁슬픔	-11111
▁파주	-11112
▁하비	-11113
▁코호몰로지	-11114
▁즘	-11115
▁군청	-11116
▁생선	-11117
▁유족	-11118
▁초안	-11119
▁취한	-11120
▁평택	-11121
▁클레이	-11122
▁with	-11123
▁아미노산	-11124
의사	-11125
▁어류	-11126
▁여도	-11127
▁의류	-11128
▁제창	-11129
▁특화	-11130
▁허블	-11131
▁도르트	-11132
▁분기점	-11133
른베르크	-11134
old	-11135
▁글래	-11136
▁무서	-11137
▁생모	-11138
▁재해	-11139
▁퍼졌	-11140
▁하급	-11141
▁환관	-11142
▁여의도	-11143
코토	-11144
▁공양	-11145
▁그릴	-11146
▁리조	-11147
▁세바	-11148
▁애초	-11149
▁야외	-11150
▁여권	-11151
▁일명	-11152
▁채색	-11153
브로	-11154
▁DD	-11155
▁RS	-11156
▁스태	-11157
▁위패	-11158
▁쿠니	-11159
▁토미	-11160
▁부총리	-11161
▁실험실	-11162
▁여진족	-11163
▁천천히	-11164
▁불사	-11165
▁집착	-11166
▁쿼크	-11167
▁항로	-11168
▁사상가	-11169
덕왕	-11170
쩌둥	-11171
▁나름	-11172
▁도선	-11173
▁마에	-11174
▁본체	-11175
▁부름	-11176
▁서위	-11177
▁네티즌	-11178
▁아비달	-11179
▁알프레	-11180
▁마오쩌둥	-11181
▁요리토모	-11182
▁컨테이너	-11183
▁크리스토퍼	-11184
ont	-11185
▁견디	-11186
▁맞춤	-11187
▁사수	-11188
▁소용	-11189
▁유희	-11190
▁자립	-11191
▁치하	-11192
▁함량	-11193
▁비서관	-11194
▁승정원	-11195
▁집행유예	-11196
▁LP	-11197
▁로라	-11198
▁습관	-11199
▁일리	-11200
▁작년	-11201
▁플리	-11202
ound	-11203
▁달아나	-11204
▁발기인	-11205
쿠버	-11206
ood	-11207
▁배운	-11208
▁스칸	-11209
▁저조	-11210
▁평했	-11211
▁헬레	-11212
▁마법사	-11213
▁마카오	-11214
▁바이킹	-11215
▁용의자	-11216
▁파이터	-11217
▁썬	-11218
가미	-11219
사화	-11220
세유	-11221
창호	-11222
행성	-11223
▁기이	-11224
▁슬하	-11225
▁재래	-11226
▁포탄	-11227
▁포토	-11228
리카락	-11229
▁머리카락	-11230
▁카스티야	-11231
캐롤라이나	-11232
돌이	-11233
▁내성	-11234
▁동탁	-11235
▁알아내	-11236
▁애틀랜타	-11237
파이	-11238
▁당황	-11239
▁백두	-11240
▁보루	-11241
▁은신	-11242
▁치환	-11243
▁키워	-11244
▁표정	-11245
▁피우	-11246
▁해저	-11247
▁후유	-11248
▁나트륨	-11249
▁모리스	-11250
▁아마존	-11251
▁월요일	-11252
▁돌아다니	-11253
OD	-11254
파크	-11255
▁갈리	-11256
▁매킨	-11257
▁응하	-11258
▁재일	-11259
▁추리	-11260
▁터지	-11261
▁휘말	-11262
▁카운트	-11263
거나	-11264
분열	-11265
▁도상	-11266
▁떠올	-11267
▁무작	-11268
▁소외	-11269
▁유서	-11270
▁차수	-11271
▁선거법	-11272
▁왔으나	-11273
▁판소리	-11274
▁프란치스코	-11275
미스	-11276
서스	-11277
▁방콕	-11278
▁배아	-11279
▁총통	-11280
▁티코	-11281
▁아이오	-11282
▁문화유산	-11283
진우	-11284
▁윤휴	-11285
▁장병	-11286
▁제너	-11287
▁총격	-11288
▁떠오르	-11289
▁와일드	-11290
▁야쿠르트	-11291
▁위키백과	-11292
ah	-11293
▁섀	-11294
버리	-11295
연수	-11296
▁면모	-11297
▁비뉴	-11298
▁대나무	-11299
▁매거진	-11300
▁캐서린	-11301
▁1868	-11302
사와	-11303
우회	-11304
▁객차	-11305
▁동산	-11306
▁매직	-11307
▁알맞	-11308
▁장래	-11309
▁헌납	-11310
▁녹색당	-11311
▁대청	-11312
▁샌드	-11313
▁시애	-11314
▁집전	-11315
▁근거지	-11316
▁다스렸	-11317
▁싼	-11318
▁쪼	-11319
▁급증	-11320
▁김인	-11321
▁명소	-11322
▁약사	-11323
▁기업인	-11324
▁김성수	-11325
▁애리조	-11326
▁경제학자	-11327
▁스트라이커	-11328
천왕	-11329
헤이	-11330
▁대종	-11331
▁우치	-11332
▁전교	-11333
▁전학	-11334
▁절제	-11335
▁태후	-11336
▁보안법	-11337
▁아이폰	-11338
▁인해서	-11339
bo	-11340
▁심부	-11341
▁여타	-11342
▁정거	-11343
바야시	-11344
▁수나라	-11345
▁시애틀	-11346
치히	-11347
ake	-11348
▁가락	-11349
▁경매	-11350
▁녹화	-11351
▁놓이	-11352
▁전수	-11353
▁정반	-11354
▁조슈	-11355
▁쿠퍼	-11356
▁조지프	-11357
▁출입문	-11358
창군	-11359
▁경인	-11360
▁다행	-11361
▁아데	-11362
▁전권	-11363
▁자서전	-11364
▁강서	-11365
▁거지	-11366
▁미수	-11367
▁발의	-11368
▁압둘	-11369
▁우월	-11370
▁유능	-11371
▁제명	-11372
▁퇴위	-11373
▁공화정	-11374
▁IN	-11375
▁Ph	-11376
▁교직	-11377
▁클러	-11378
▁그만큼	-11379
▁압록강	-11380
▁재판관	-11381
지오	-11382
▁김명	-11383
▁무수	-11384
▁베풀	-11385
▁볼프	-11386
▁상정	-11387
▁시노	-11388
위원회	-11389
▁대상자	-11390
▁황해도	-11391
▁알렉산드로스	-11392
카리	-11393
▁모세	-11394
▁음절	-11395
▁청룡	-11396
▁초전	-11397
▁촛불	-11398
▁대전차	-11399
▁레드삭스	-11400
▁마르세유	-11401
라기	-11402
ish	-11403
▁비대	-11404
▁빙하	-11405
▁위계	-11406
▁치우	-11407
▁타수	-11408
▁신도비	-11409
니지	-11410
왕후	-11411
토르	-11412
▁간혹	-11413
▁관상	-11414
▁라카	-11415
▁송출	-11416
▁유우	-11417
▁재앙	-11418
▁캐롤	-11419
▁펠로	-11420
변속기	-11421
▁Sch	-11422
▁가브리	-11423
▁끝냈	-11424
▁두각	-11425
▁몰랐	-11426
▁블레	-11427
▁치카	-11428
블랜드	-11429
▁볼로냐	-11430
▁부의장	-11431
▁아레나	-11432
▁미야자키	-11433
▁볼리비아	-11434
▁함경북도	-11435
▁헤라클레스	-11436
▁꽂	-11437
바나	-11438
▁고딕	-11439
▁리터	-11440
▁무네	-11441
▁요법	-11442
▁죽임	-11443
▁출자	-11444
▁요시다	-11445
▁1893	-11446
▁가나가와	-11447
▁교향악단	-11448
▁공영	-11449
▁근래	-11450
▁디비	-11451
▁소중	-11452
▁입헌	-11453
▁장녀	-11454
▁주먹	-11455
▁밝혀진	-11456
▁탤런트	-11457
▁클리블랜드	-11458
▁툰	-11459
▁Jo	-11460
▁고추	-11461
▁다치	-11462
▁동향	-11463
▁큐브	-11464
▁승용차	-11465
▁아닌가	-11466
▁흐른다	-11467
▁강동	-11468
▁꿈꾸	-11469
▁등등	-11470
▁반주	-11471
▁여사	-11472
▁호리	-11473
▁두려워하	-11474
▁명성황후	-11475
람쥐	-11476
▁GT	-11477
▁un	-11478
▁노보	-11479
▁맡겼	-11480
▁뽑혔	-11481
▁예명	-11482
▁원유	-11483
▁아나톨	-11484
러그	-11485
▁구금	-11486
▁로크	-11487
▁성악	-11488
▁자판	-11489
▁점검	-11490
ical	-11491
▁개인전	-11492
▁고인돌	-11493
▁카타르	-11494
▁도르트문트	-11495
대교	-11496
홍색	-11497
▁객원	-11498
▁겹치	-11499
▁국호	-11500
▁금전	-11501
▁연행	-11502
▁ref	-11503
▁편집자	-11504
▁상관없이	-11505
네시	-11506
▁고로	-11507
▁긴밀	-11508
▁매진	-11509
▁항만	-11510
센스	-11511
업자	-11512
ear	-11513
▁거룩	-11514
▁박종	-11515
▁백신	-11516
▁스가	-11517
▁시몬	-11518
▁천국	-11519
▁타도	-11520
▁티아	-11521
▁행방	-11522
span	-11523
▁그라운드	-11524
소타	-11525
찬성	-11526
▁경의	-11527
▁섹스	-11528
▁순례	-11529
▁승지	-11530
▁을사	-11531
▁정령	-11532
▁메디치	-11533
▁여학생	-11534
▁재판부	-11535
▁넌	-11536
자동	-11537
▁결핍	-11538
▁마켓	-11539
▁만날	-11540
▁모국	-11541
▁반동	-11542
▁피핀	-11543
▁하시	-11544
▁해왕	-11545
▁들어섰	-11546
▁위안부	-11547
▁프레이	-11548
▁1863	-11549
트르	-11550
▁LC	-11551
▁곱셈	-11552
▁넥센	-11553
▁레전	-11554
▁발착	-11555
▁열려	-11556
▁정예	-11557
▁학장	-11558
▁개정안	-11559
sh	-11560
수스	-11561
제품	-11562
▁골격	-11563
▁유포	-11564
▁이언	-11565
▁조소	-11566
▁지오	-11567
▁풍습	-11568
▁홈즈	-11569
▁수시로	-11570
해튼	-11571
▁거칠	-11572
▁모반	-11573
▁병과	-11574
▁우아	-11575
▁응급	-11576
▁극작가	-11577
▁메이커	-11578
▁해석학	-11579
▁남해	-11580
▁비엔	-11581
▁슬램	-11582
▁치과	-11583
▁커서	-11584
▁콘솔	-11585
▁파나마	-11586
▁미네소타	-11587
ous	-11588
▁로트	-11589
▁복역	-11590
▁송도	-11591
▁제리	-11592
▁학대	-11593
▁형주	-11594
▁마르코	-11595
▁만난다	-11596
▁1886	-11597
▁멍	-11598
로니	-11599
클레	-11600
▁나우	-11601
▁열전	-11602
▁위스	-11603
▁허드	-11604
▁스테파	-11605
▁1892	-11606
거래	-11607
쓰기	-11608
▁농지	-11609
▁뒤늦	-11610
▁모하	-11611
▁색소	-11612
▁은혜	-11613
▁전세	-11614
▁타로	-11615
▁투하	-11616
▁특기	-11617
▁스퀘어	-11618
▁케이프	-11619
▁삼국유사	-11620
▁아비달마	-11621
▁컴파일러	-11622
마리	-11623
카라	-11624
▁동진	-11625
▁웨인	-11626
▁헌장	-11627
▁간사이	-11628
▁김정은	-11629
▁바람직	-11630
▁코믹스	-11631
row	-11632
▁단국	-11633
▁단선	-11634
▁대의	-11635
▁도성	-11636
▁듀오	-11637
▁선인	-11638
▁습득	-11639
▁입시	-11640
▁청문	-11641
▁추력	-11642
▁테라	-11643
ream	-11644
▁교통부	-11645
▁서사시	-11646
▁1866	-11647
▁마이크로	-11648
그레	-11649
히드	-11650
irl	-11651
▁메소	-11652
▁증오	-11653
▁팔렸	-11654
▁해냈	-11655
▁황자	-11656
▁덩어리	-11657
▁오일러	-11658
랑카	-11659
지능	-11660
▁무스	-11661
▁부실	-11662
▁불경	-11663
▁세간	-11664
▁수량	-11665
▁어는	-11666
▁어의	-11667
▁조준	-11668
▁대표단	-11669
▁문자열	-11670
▁주나라	-11671
▁인공지능	-11672
▁{	-11673
ons	-11674
own	-11675
▁금호	-11676
▁나빠	-11677
▁네모	-11678
▁다테	-11679
▁사역	-11680
▁완결	-11681
▁종업	-11682
▁지르	-11683
▁직행	-11684
▁705	-11685
▁둘러싸인	-11686
번에	-11687
▁사변	-11688
▁새겼	-11689
▁스맥	-11690
▁예종	-11691
▁이례	-11692
▁라파엘	-11693
▁청년회	-11694
▁씻	-11695
행파	-11696
▁손녀	-11697
▁줄리	-11698
▁지경	-11699
▁퍼스	-11700
▁모터스	-11701
▁힐베르트	-11702
▁»	-11703
나베	-11704
▁남방	-11705
▁두어	-11706
▁바지	-11707
▁성화	-11708
▁앞세	-11709
▁애인	-11710
▁포탑	-11711
▁로마자	-11712
▁연구회	-11713
▁토스카	-11714
▁삼층석탑	-11715
단위	-11716
참찬	-11717
▁감추	-11718
▁노사	-11719
▁시부	-11720
▁오미	-11721
▁재발	-11722
▁흥분	-11723
절도사	-11724
▁도망치	-11725
▁안티오	-11726
▁장제스	-11727
중추부사	-11728
ife	-11729
▁북벌	-11730
▁서거	-11731
▁속주	-11732
▁아유	-11733
▁예의	-11734
▁우두	-11735
▁자카	-11736
▁정선	-11737
▁스맥다운	-11738
틀리	-11739
che	-11740
▁굴복	-11741
▁접해	-11742
▁증세	-11743
▁충북	-11744
펜하겐	-11745
▁가해자	-11746
▁1876	-11747
▁코펜하겐	-11748
▁뱃	-11749
동자	-11750
짜기	-11751
▁광선	-11752
▁금고	-11753
▁도키	-11754
▁라디	-11755
▁모신	-11756
▁모차	-11757
▁별장	-11758
▁빅뱅	-11759
▁스노	-11760
▁왕궁	-11761
▁우연	-11762
▁종묘	-11763
▁충당	-11764
▁움직일	-11765
▁토트넘	-11766
▁도출	-11767
▁모어	-11768
▁유의	-11769
▁나타날	-11770
▁뛰어넘	-11771
▁산스크	-11772
▁외무부	-11773
▁산스크리트	-11774
독립	-11775
프로	-11776
▁김광	-11777
▁대금	-11778
▁무단	-11779
▁백업	-11780
▁비늘	-11781
▁테일	-11782
▁토록	-11783
페스트	-11784
▁가르쳐	-11785
▁갔으며	-11786
▁마천루	-11787
▁비스타	-11788
▁1888	-11789
니파	-11790
루냐	-11791
▁경지	-11792
▁목회	-11793
▁새우	-11794
▁유타	-11795
▁한민	-11796
▁해태	-11797
▁SNS	-11798
▁내야수	-11799
▁라면서	-11800
폭탄	-11801
▁경량	-11802
▁기니	-11803
▁김윤	-11804
▁당당	-11805
▁던졌	-11806
▁면담	-11807
▁분사	-11808
▁사쿠	-11809
▁직관	-11810
▁팔작	-11811
▁토리노	-11812
▁To	-11813
▁곡면	-11814
▁광명	-11815
▁꺼내	-11816
▁매도	-11817
▁비싼	-11818
▁비야	-11819
▁시비	-11820
▁천지	-11821
▁케인	-11822
▁파편	-11823
▁스트라이크	-11824
▁괌	-11825
나마	-11826
라니	-11827
활약	-11828
▁단조	-11829
▁동포	-11830
▁리옹	-11831
▁몸체	-11832
▁USB	-11833
▁맨해튼	-11834
▁스트로	-11835
▁이사벨	-11836
▁XP	-11837
▁광부	-11838
▁묻혀	-11839
▁치유	-11840
▁평탄	-11841
▁ABC	-11842
▁법조인	-11843
▁조선소	-11844
▁참모총장	-11845
▁«	-11846
▁츄	-11847
▁Ro	-11848
▁번갈	-11849
▁여포	-11850
▁온건	-11851
▁철종	-11852
▁취해	-11853
▁정거장	-11854
▁최진실	-11855
▁핵분열	-11856
▁북아일랜드	-11857
▁쿡	-11858
▁CH	-11859
▁GM	-11860
▁NE	-11861
▁노면	-11862
▁댓글	-11863
▁암스	-11864
▁주고	-11865
▁지면	-11866
▁하구	-11867
▁한림	-11868
▁한번	-11869
▁레이트	-11870
▁맹활약	-11871
▁가쿠	-11872
▁국악	-11873
▁김지	-11874
▁레버	-11875
▁밀러	-11876
▁송환	-11877
▁태권	-11878
▁하코	-11879
▁ATP	-11880
▁가환환	-11881
▁끝난다	-11882
▁도자기	-11883
▁해안가	-11884
▁야마구치	-11885
▁인디애나	-11886
으면	-11887
푸르	-11888
▁공판	-11889
▁드미	-11890
▁시리	-11891
▁엔드	-11892
▁재벌	-11893
▁지쿠	-11894
▁침대	-11895
스탄불	-11896
▁라이너	-11897
▁마이어	-11898
▁이스탄불	-11899
▁가두	-11900
▁공채	-11901
▁과격	-11902
▁매리	-11903
▁승하	-11904
▁요괴	-11905
▁잡히	-11906
▁준동	-11907
▁중일	-11908
▁증발	-11909
▁코난	-11910
▁파기	-11911
▁한창	-11912
▁자외선	-11913
▁집정관	-11914
▁프로모	-11915
▁구마모토	-11916
익스	-11917
▁군관	-11918
▁반입	-11919
▁승상	-11920
▁여건	-11921
▁이메	-11922
▁에이즈	-11923
▁클레멘스	-11924
▁프린스턴	-11925
▁대전광역시	-11926
MI	-11927
▁나뭇	-11928
▁드루	-11929
▁스루	-11930
▁유태	-11931
▁지법	-11932
▁추서	-11933
▁추존	-11934
▁현황	-11935
▁흘리	-11936
▁농산물	-11937
▁다나카	-11938
▁에이전	-11939
▁피라미	-11940
▁1200	-11941
▁1861	-11942
▁유가행파	-11943
▁늪	-11944
▁가부	-11945
▁간판	-11946
▁계량	-11947
▁배기	-11948
▁벤처	-11949
▁서면	-11950
▁열렬	-11951
▁죄수	-11952
▁1850	-11953
▁도라에몽	-11954
▁꿰	-11955
▁놈	-11956
▁La	-11957
▁간직	-11958
▁뒤따	-11959
▁보정	-11960
▁안방	-11961
▁작물	-11962
▁카사	-11963
▁프렌	-11964
로니아	-11965
▁레전드	-11966
▁무사히	-11967
▁1830	-11968
▁인공위성	-11969
▁기운	-11970
▁대강	-11971
▁시안	-11972
▁중용	-11973
께끼	-11974
▁맥아	-11975
▁서스	-11976
▁재난	-11977
▁직계	-11978
▁카지	-11979
미디어	-11980
▁라인업	-11981
▁사절단	-11982
▁전해졌	-11983
▁호스트	-11984
▁수수께끼	-11985
▁눈치	-11986
▁원한	-11987
▁주세	-11988
▁콜레	-11989
▁스포르	-11990
▁오사카부	-11991
▁이탈리아어	-11992
QL	-11993
히사	-11994
▁릴리	-11995
▁살짝	-11996
▁양조	-11997
▁적발	-11998
▁전과	-11999
▁진언	-12000
▁증조부	-12001
▁데카르트	-12002
▁아나키스트	-12003
▁가우	-12004
▁국수	-12005
▁극찬	-12006
▁니키	-12007
▁메라	-12008
▁섬기	-12009
▁신봉	-12010
▁조공	-12011
▁개구리	-12012
▁낙동강	-12013
▁밀가루	-12014
▁후원자	-12015
해살이풀	-12016
▁날카로운	-12017
광성	-12018
int	-12019
▁금산	-12020
▁기쁨	-12021
▁무고	-12022
▁상의	-12023
▁스콜	-12024
▁용품	-12025
▁종양	-12026
▁휩싸	-12027
▁OST	-12028
▁갈라지	-12029
▁부르주	-12030
▁조선왕	-12031
▁종업원	-12032
▁펠리페	-12033
▁1864	-12034
▁Univers	-12035
▁거꾸	-12036
▁고노	-12037
▁명부	-12038
▁베어	-12039
▁북구	-12040
▁삼중	-12041
▁상국	-12042
▁선양	-12043
▁왜군	-12044
▁짐승	-12045
▁패권	-12046
오르크	-12047
디나비아	-12048
▁스칸디나비아	-12049
▁혀	-12050
동맹	-12051
▁투여	-12052
▁걸린다	-12053
▁관현악	-12054
▁셰익스	-12055
▁소피아	-12056
▁나카무라	-12057
▁셰익스피어	-12058
▁피아니스트	-12059
▁가토	-12060
▁자궁	-12061
▁커졌	-12062
▁합금	-12063
▁내보내	-12064
▁리조트	-12065
▁신주쿠	-12066
▁히브리	-12067
▁거사	-12068
▁고든	-12069
▁볼넷	-12070
▁주성	-12071
▁타구	-12072
▁도널드	-12073
▁쇠고기	-12074
▁언론사	-12075
▁객실	-12076
▁외척	-12077
▁회유	-12078
▁단거리	-12079
▁라고도	-12080
▁컴파일	-12081
▁폼페이	-12082
▁봇	-12083
교통	-12084
서기	-12085
▁AD	-12086
▁고트	-12087
▁공법	-12088
▁공시	-12089
▁농성	-12090
▁발산	-12091
▁천주	-12092
▁태우	-12093
▁판관	-12094
tern	-12095
▁차세대	-12096
▁네이션스	-12097
▁사회민주당	-12098
부르	-12099
▁리베	-12100
▁자생	-12101
▁직사	-12102
▁축전	-12103
▁측량	-12104
▁터빈	-12105
▁테리	-12106
▁호스	-12107
▁레오폴	-12108
▁마누엘	-12109
▁보수주의	-12110
▁신한은행	-12111
▁교제	-12112
▁구청	-12113
▁꽃잎	-12114
▁리비	-12115
▁바트	-12116
▁서예	-12117
▁선율	-12118
▁셀레	-12119
▁칸국	-12120
▁키로	-12121
▁신기록	-12122
▁원자핵	-12123
▁풀려났	-12124
▁뭐	-12125
▁줌	-12126
휴일	-12127
▁계엄	-12128
▁김형	-12129
▁부교	-12130
▁세분	-12131
▁소동	-12132
▁소론	-12133
▁양수	-12134
▁팔작지붕	-12135
▁킴	-12136
바인	-12137
친왕	-12138
▁고제	-12139
▁구슬	-12140
▁군산	-12141
▁기밀	-12142
▁부다	-12143
▁왕성	-12144
▁For	-12145
▁공연장	-12146
▁내세워	-12147
▁스코어	-12148
▁1887	-12149
슈타	-12150
환경	-12151
▁Ad	-12152
▁간결	-12153
▁관용	-12154
▁기고	-12155
▁다닌	-12156
▁심소	-12157
▁아뢰	-12158
▁장전	-12159
▁중개	-12160
▁파란	-12161
olog	-12162
▁보좌관	-12163
▁1881	-12164
둘기	-12165
▁Su	-12166
▁글꼴	-12167
▁대타	-12168
▁배달	-12169
▁애완	-12170
▁죽여	-12171
▁타리	-12172
▁합하	-12173
▁스타트	-12174
▁前	-12175
▁SH	-12176
▁UC	-12177
▁구획	-12178
▁낚시	-12179
▁원활	-12180
▁위헌	-12181
▁저그	-12182
▁경영학	-12183
▁진행자	-12184
▁텔레콤	-12185
▁페르미	-12186
▁가브리엘	-12187
NG	-12188
글라	-12189
▁공대	-12190
▁무언	-12191
▁무자	-12192
▁백악	-12193
▁서주	-12194
▁웃음	-12195
▁정명	-12196
▁직교	-12197
▁텐서	-12198
▁혈압	-12199
▁계승자	-12200
▁운동량	-12201
▁이뤄진	-12202
▁팔꿈치	-12203
▁행해졌	-12204
▁대담	-12205
▁변질	-12206
▁생원	-12207
▁소말	-12208
▁식용	-12209
▁집어	-12210
▁투신	-12211
▁여운형	-12212
▁역사학	-12213
▁건전	-12214
▁배역	-12215
▁삼존	-12216
▁조현	-12217
▁즐거	-12218
▁함양	-12219
▁변한다	-12220
▁CG	-12221
▁로페	-12222
▁영정	-12223
▁오아	-12224
▁톈진	-12225
▁패해	-12226
▁들어올	-12227
▁로타르	-12228
▁서포터	-12229
▁손잡이	-12230
▁타임즈	-12231
▁피라미드	-12232
gr	-12233
▁뮐	-12234
▁광배	-12235
▁구문	-12236
▁물결	-12237
▁섞여	-12238
▁세단	-12239
▁소대	-12240
▁야심	-12241
▁위시	-12242
▁청계	-12243
▁글로브	-12244
▁도마뱀	-12245
▁마그네	-12246
US	-12247
▁녕	-12248
▁안녕	-12249
▁유머	-12250
▁조심	-12251
▁편안	-12252
플로러	-12253
▁감리교	-12254
▁거꾸로	-12255
▁서해안	-12256
▁시코쿠	-12257
▁크레이	-12258
▁익스플로러	-12259
사리	-12260
에고	-12261
처스	-12262
협회	-12263
▁Ma	-12264
▁교관	-12265
▁완비	-12266
▁유다	-12267
▁전리	-12268
▁조봉	-12269
▁플랑크	-12270
▁1865	-12271
▁모차르트	-12272
▁프랑스령	-12273
게임	-12274
▁닉슨	-12275
▁제단	-12276
▁처해	-12277
▁청자	-12278
▁따라가	-12279
▁마스크	-12280
▁북유럽	-12281
▁잃어버린	-12282
세다	-12283
타입	-12284
▁계보	-12285
▁남조	-12286
▁외환	-12287
▁임하	-12288
▁방송인	-12289
▁우울증	-12290
▁자연수	-12291
▁퍼스트	-12292
▁메릴랜드	-12293
충류	-12294
▁거미	-12295
▁대인	-12296
▁에겐	-12297
▁장흥	-12298
▁케르	-12299
▁쿼터	-12300
▁타선	-12301
▁표절	-12302
▁필연	-12303
▁행군	-12304
세우스	-12305
▁두꺼운	-12306
▁유전학	-12307
LE	-12308
공주	-12309
로쿠	-12310
▁신의	-12311
▁주저	-12312
▁지탱	-12313
▁트렌	-12314
▁다녀왔	-12315
▁불가피	-12316
▁테오도	-12317
▁남베트남	-12318
▁내란	-12319
▁삽화	-12320
▁양현	-12321
▁오대	-12322
▁정황	-12323
▁210	-12324
▁강남구	-12325
걸이	-12326
▁건널	-12327
▁목욕	-12328
▁법전	-12329
▁봉하	-12330
▁아쉬	-12331
▁자오	-12332
▁공통점	-12333
▁방글라	-12334
▁였음을	-12335
▁방글라데시	-12336
주크	-12337
▁국력	-12338
▁시찰	-12339
▁의주	-12340
▁타이베이	-12341
레드	-12342
▁도발	-12343
▁세븐	-12344
▁축일	-12345
▁타일	-12346
▁피드	-12347
▁논리학	-12348
▁모멘트	-12349
▁셀주크	-12350
▁찾아와	-12351
▁취리히	-12352
▁1592	-12353
▁미나모토노	-12354
▁니켈	-12355
▁마가	-12356
▁미성	-12357
▁전멸	-12358
▁접합	-12359
▁직속	-12360
▁천마	-12361
▁케냐	-12362
▁호투	-12363
▁황폐	-12364
▁페널티킥	-12365
▁각료	-12366
▁성품	-12367
▁워커	-12368
▁컨설	-12369
▁타지	-12370
▁경복궁	-12371
▁기념장	-12372
▁반대파	-12373
▁비스마르크	-12374
▁핼	-12375
지아	-12376
칼리	-12377
▁데미	-12378
▁떠날	-12379
▁루피	-12380
▁마애	-12381
▁변해	-12382
▁톰슨	-12383
▁필두	-12384
▁형용	-12385
▁공방전	-12386
▁백악기	-12387
▁벗어난	-12388
▁보너스	-12389
▁데스크톱	-12390
▁AU	-12391
▁So	-12392
▁농축	-12393
▁더러	-12394
▁모함	-12395
▁알폰	-12396
▁에리	-12397
▁위법	-12398
▁유망	-12399
▁칼슘	-12400
▁스테인	-12401
▁리튬	-12402
▁배향	-12403
▁불분	-12404
▁아편	-12405
▁익명	-12406
▁최영	-12407
▁알렉스	-12408
▁게오르크	-12409
▁싹	-12410
▁썩	-12411
미즈	-12412
ann	-12413
▁경도	-12414
▁날려	-12415
▁리즈	-12416
▁조비	-12417
▁퍼즐	-12418
▁다시금	-12419
▁부분군	-12420
▁주고받	-12421
▁화장품	-12422
크라테스	-12423
▁HTML	-12424
뜨려	-12425
진군	-12426
▁기묘	-12427
▁김제	-12428
▁까마	-12429
▁능동	-12430
▁로버	-12431
▁발포	-12432
▁브룩	-12433
▁선체	-12434
▁연달	-12435
▁오름	-12436
▁완만	-12437
▁친한	-12438
▁튼튼	-12439
▁박테리아	-12440
▁colspan	-12441
les	-12442
▁도약	-12443
▁아쿠	-12444
▁웹툰	-12445
▁차명	-12446
▁출세	-12447
▁카테	-12448
▁가로지르	-12449
▁오클랜드	-12450
▁루이지애나	-12451
▁욱	-12452
▁근방	-12453
▁몹시	-12454
▁배반	-12455
▁사내	-12456
▁삭감	-12457
▁순식	-12458
▁진이	-12459
▁공휴일	-12460
▁반정부	-12461
▁사대부	-12462
▁병자호란	-12463
▁댈	-12464
▁과잉	-12465
▁도이	-12466
▁민심	-12467
▁산수	-12468
▁지문	-12469
▁침례	-12470
▁CBS	-12471
▁아이콘	-12472
▁와세다	-12473
▁장애물	-12474
▁조광조	-12475
▁클라크	-12476
▁했으므로	-12477
▁배양	-12478
▁분별	-12479
▁산둥	-12480
▁산물	-12481
▁성가	-12482
▁조영	-12483
른스트	-12484
▁안창호	-12485
▁지리학	-12486
▁1873	-12487
▁€	-12488
oll	-12489
▁당과	-12490
▁랴오	-12491
▁미미	-12492
▁부풀	-12493
▁빈민	-12494
▁소프	-12495
▁싫어	-12496
▁양군	-12497
▁이우	-12498
▁조서	-12499
▁콜럼	-12500
▁강력히	-12501
▁그러면	-12502
▁릴레이	-12503
▁바이어	-12504
▁유적지	-12505
▁필립스	-12506
▁엥	-12507
구나	-12508
케이	-12509
텐셜	-12510
▁군세	-12511
▁논하	-12512
▁반론	-12513
▁참패	-12514
▁충무	-12515
▁카네	-12516
▁일본식	-12517
▁카스트	-12518
▁떨어진다	-12519
▁엣	-12520
끄러	-12521
다발	-12522
타마	-12523
▁Sy	-12524
▁광무	-12525
▁마블	-12526
▁배트	-12527
▁보직	-12528
▁신진	-12529
▁자릿	-12530
▁머물러	-12531
▁지나친	-12532
산리	-12533
제이	-12534
코타	-12535
▁강세	-12536
▁꾸며	-12537
▁도하	-12538
▁들리	-12539
▁박수	-12540
▁상한	-12541
▁이은	-12542
▁초콜	-12543
▁포츠	-12544
▁한중	-12545
▁꽃차례	-12546
▁윤치영	-12547
▁퍼텐셜	-12548
▁공무	-12549
▁날리	-12550
▁넘겼	-12551
▁부관	-12552
▁어선	-12553
▁완수	-12554
하이오	-12555
▁데일리	-12556
▁1872	-12557
▁오하이오	-12558
두르	-12559
정리	-12560
프턴	-12561
oun	-12562
▁단자	-12563
▁브랜	-12564
▁상선	-12565
▁추억	-12566
▁펠트	-12567
▁피지	-12568
▁320	-12569
▁교육자	-12570
합성	-12571
▁at	-12572
▁길러	-12573
▁납부	-12574
▁도읍	-12575
▁무형	-12576
▁오하	-12577
▁일괄	-12578
▁창녕	-12579
▁추축	-12580
▁토목	-12581
▁헌병	-12582
스카르	-12583
▁거쳐서	-12584
▁다마스	-12585
▁되풀이	-12586
▁빅토르	-12587
▁채권자	-12588
사우루스	-12589
▁요하네스	-12590
곡리	-12591
기니	-12592
체고	-12593
lay	-12594
▁광업	-12595
▁면직	-12596
▁신해	-12597
▁정박	-12598
▁카바	-12599
▁토피	-12600
▁통지	-12601
▁개화파	-12602
▁민영화	-12603
체고비나	-12604
OT	-12605
▁쾨	-12606
▁교서	-12607
▁럭비	-12608
▁모피	-12609
▁무안	-12610
▁베트	-12611
▁부추	-12612
▁잔존	-12613
▁접전	-12614
레스트	-12615
▁노동력	-12616
▁영유권	-12617
▁해결책	-12618
▁곶	-12619
▁낡	-12620
산면	-12621
▁he	-12622
▁대류	-12623
▁변모	-12624
▁요직	-12625
▁일지	-12626
리오스	-12627
▁1862	-12628
▁AG	-12629
▁SA	-12630
▁규율	-12631
▁미상	-12632
▁용수	-12633
▁참수	-12634
▁푸르	-12635
노스케	-12636
▁내려와	-12637
▁도망쳤	-12638
▁전염병	-12639
▁줄어든	-12640
▁大	-12641
orn	-12642
▁그럴	-12643
▁문정	-12644
▁반죽	-12645
▁수하	-12646
▁옹주	-12647
▁켄트	-12648
▁헤로	-12649
▁흑백	-12650
▁경쟁자	-12651
▁불분명	-12652
▁순식간	-12653
▁장로교	-12654
▁정의당	-12655
▁내포	-12656
▁막강	-12657
▁아소	-12658
▁야망	-12659
▁자코	-12660
▁캐치	-12661
▁고려대	-12662
▁동아리	-12663
▁매니아	-12664
▁밝혀져	-12665
▁고등학생	-12666
▁육군사관학교	-12667
▁머니	-12668
▁임계	-12669
▁자처	-12670
▁최장	-12671
▁항원	-12672
록대부	-12673
▁내세웠	-12674
▁뉴욕주	-12675
▁올리브	-12676
▁함경도	-12677
▁대한항공	-12678
▁트레이닝	-12679
국적	-12680
퉁이	-12681
▁by	-12682
▁나마	-12683
▁넬슨	-12684
▁늘려	-12685
▁라즈	-12686
▁이봉	-12687
▁출혈	-12688
▁금나라	-12689
▁스캔들	-12690
▁튀르크	-12691
▁두드러지	-12692
▁조선공산당	-12693
▁노랑	-12694
▁안기	-12695
▁왓슨	-12696
▁외과	-12697
▁인위	-12698
▁진흙	-12699
▁필하	-12700
▁Par	-12701
▁다가오	-12702
▁대공국	-12703
▁스탠드	-12704
▁무로마치	-12705
EL	-12706
▁u	-12707
셀러	-12708
▁모조	-12709
▁분경	-12710
▁시원	-12711
▁악곡	-12712
▁요즘	-12713
▁제작진	-12714
▁근본번뇌	-12715
네임	-12716
▁격하	-12717
▁독살	-12718
▁자취	-12719
▁채굴	-12720
▁취직	-12721
▁취향	-12722
▁해남	-12723
▁330	-12724
▁》,《	-12725
▁밴쿠버	-12726
▁슬라이	-12727
▁페트로	-12728
▁페르디난트	-12729
▁헤르체고비나	-12730
길준	-12731
자드	-12732
▁JT	-12733
▁머무	-12734
▁식스	-12735
▁용감	-12736
▁유무	-12737
▁켈리	-12738
▁토로	-12739
▁IMF	-12740
▁과반수	-12741
▁케이크	-12742
▁하반기	-12743
▁암스테르담	-12744
▁}	-12745
천리	-12746
▁IV	-12747
▁깃털	-12748
▁모던	-12749
▁아메	-12750
▁증강	-12751
▁한겨	-12752
▁휴양	-12753
▁경계선	-12754
▁노르만	-12755
▁올라오	-12756
▁1891	-12757
▁구스타프	-12758
▁레인저스	-12759
질렀	-12760
▁Or	-12761
▁경순	-12762
▁대목	-12763
▁물류	-12764
▁본존	-12765
▁심정	-12766
▁잠입	-12767
▁목적지	-12768
▁연주회	-12769
▁이메일	-12770
▁치러졌	-12771
▁렛	-12772
▁TR	-12773
▁관위	-12774
▁박상	-12775
▁서산	-12776
▁성원	-12777
▁슈고	-12778
▁일선	-12779
▁일설	-12780
▁입히	-12781
▁표출	-12782
▁송진우	-12783
▁집단군	-12784
▁6000	-12785
▁프랑스와	-12786
▁프랜시스	-12787
내리	-12788
철수	-12789
▁건륭	-12790
▁결전	-12791
▁국부	-12792
▁도적	-12793
▁마우	-12794
▁서품	-12795
▁솜씨	-12796
▁코네	-12797
▁GNU	-12798
▁노벨상	-12799
▁브뤼셀	-12800
▁시네마	-12801
▁플루토	-12802
▁한겨레	-12803
▁우즈베키스탄	-12804
▁고마	-12805
▁동창	-12806
▁반항	-12807
▁외삼	-12808
▁우림	-12809
▁체하	-12810
▁폐차	-12811
▁횡령	-12812
▁TBS	-12813
▁글러브	-12814
▁기원후	-12815
▁자치주	-12816
▁석가모니	-12817
▁뉘른베르크	-12818
▁PR	-12819
▁TC	-12820
▁강성	-12821
▁군자	-12822
▁니까	-12823
▁다량	-12824
▁명인	-12825
▁수력	-12826
▁열쇠	-12827
▁외면	-12828
▁취할	-12829
▁티저	-12830
▁푸아	-12831
▁화승	-12832
네그로	-12833
▁복음주의	-12834
IV	-12835
나오	-12836
화학	-12837
▁관내	-12838
▁받치	-12839
▁베일	-12840
▁수만	-12841
▁숙련	-12842
▁혼혈	-12843
▁브루스	-12844
▁오릭스	-12845
lo	-12846
예술	-12847
윽고	-12848
▁경종	-12849
▁닌자	-12850
▁매스	-12851
▁문경	-12852
▁시크	-12853
▁실은	-12854
▁칭했	-12855
▁패망	-12856
▁해지	-12857
▁현미	-12858
▁득표율	-12859
▁수도회	-12860
▁이윽고	-12861
▁차가운	-12862
▁튀니지	-12863
▁특별법	-12864
▁리바운드	-12865
▁결장	-12866
▁류큐	-12867
▁만점	-12868
▁빨라	-12869
▁여호	-12870
▁치뤄	-12871
▁갈라져	-12872
▁돌아갈	-12873
▁프랑코	-12874
▁효고현	-12875
▁뫼	-12876
▁대도	-12877
▁란스	-12878
▁불로	-12879
▁생길	-12880
▁수목	-12881
▁재팬	-12882
▁천상	-12883
▁파랑	-12884
▁해시	-12885
▁시마즈	-12886
▁정해져	-12887
▁레지스터	-12888
일치	-12889
▁ww	-12890
▁유구	-12891
▁절충	-12892
▁줄곧	-12893
▁출국	-12894
▁현과	-12895
▁현판	-12896
▁사라져	-12897
▁유길준	-12898
▁펼쳐져	-12899
▁낭만주의	-12900
▁후지와라	-12901
▁끔	-12902
대전	-12903
ink	-12904
▁광자	-12905
▁방공	-12906
▁사드	-12907
▁옥타	-12908
▁조문	-12909
▁행선	-12910
▁아케이드	-12911
▁영화배우	-12912
티시	-12913
▁사귀	-12914
▁사비	-12915
▁산호	-12916
▁신종	-12917
▁재결	-12918
▁정언	-12919
가르트	-12920
▁나치오	-12921
▁리믹스	-12922
▁법정동	-12923
▁슬로건	-12924
▁앤더슨	-12925
▁저지른	-12926
▁1869	-12927
▁1878	-12928
OK	-12929
매김	-12930
▁가고	-12931
▁매립	-12932
▁브릿	-12933
▁슈테	-12934
▁시의	-12935
▁연해	-12936
▁코소	-12937
▁필명	-12938
ance	-12939
▁변광성	-12940
▁일부러	-12941
▁소아시아	-12942
▁자리매김	-12943
▁쑤	-12944
우에	-12945
▁고을	-12946
▁문물	-12947
▁복속	-12948
▁암수	-12949
▁왕래	-12950
▁조장	-12951
▁청량	-12952
▁페더	-12953
▁호대	-12954
▁활자	-12955
▁골짜기	-12956
▁바로크	-12957
▁야마모토	-12958
▁구치	-12959
▁열세	-12960
▁용액	-12961
▁이력	-12962
▁햇빛	-12963
▁황산	-12964
▁708	-12965
▁발사체	-12966
▁빼앗기	-12967
▁이광수	-12968
▁조봉암	-12969
▁합창단	-12970
▁프리미엄	-12971
▁궐	-12972
보내	-12973
▁Is	-12974
▁어사	-12975
▁유공	-12976
▁줄일	-12977
▁차선	-12978
▁하임	-12979
▁하중	-12980
▁달린다	-12981
▁담당자	-12982
▁무작위	-12983
▁앤드루	-12984
▁우루스	-12985
▁프린스	-12986
▁갈릴레오	-12987
▁캅	-12988
▁핏	-12989
▁놓치	-12990
▁사주	-12991
▁성행	-12992
▁정칙	-12993
▁태아	-12994
▁휘발	-12995
▁Day	-12996
▁pro	-12997
▁물려주	-12998
▁어웨이	-12999
▁교통사고	-13000
▁시즈오카	-13001
▁조선왕조	-13002
▁기통	-13003
▁스택	-13004
▁올릴	-13005
▁클릭	-13006
▁금강산	-13007
▁롬바르	-13008
▁컨텐츠	-13009
▁폐기물	-13010
▁몬테네그로	-13011
열차	-13012
▁겸직	-13013
▁심포	-13014
▁음주	-13015
▁의례	-13016
▁작중	-13017
▁절친	-13018
▁트림	-13019
▁매킨토시	-13020
▁카탈루냐	-13021
▁사운드트랙	-13022
출력	-13023
▁SV	-13024
▁메스	-13025
▁버터	-13026
▁수레	-13027
▁슈투	-13028
▁영사	-13029
▁오디	-13030
▁찌르	-13031
▁코린	-13032
▁피사	-13033
▁흡연	-13034
▁구단주	-13035
▁더블린	-13036
ction	-13037
▁친선경기	-13038
▁파시스트	-13039
▁구부	-13040
▁만류	-13041
▁북측	-13042
▁상식	-13043
▁편제	-13044
▁제조사	-13045
▁펫	-13046
곡동	-13047
선언	-13048
악산	-13049
하키	-13050
▁관군	-13051
▁덴쇼	-13052
▁리히	-13053
▁볼티	-13054
▁소박	-13055
▁소작	-13056
▁역도	-13057
▁해트	-13058
▁노미야	-13059
▁레인저	-13060
▁장난감	-13061
▁토마토	-13062
▁인플레이션	-13063
ool	-13064
▁가방	-13065
▁고스	-13066
▁고찰	-13067
▁동자	-13068
▁미학	-13069
▁싸울	-13070
▁원동	-13071
네이루	-13072
▁대제학	-13073
▁독수리	-13074
애미	-13075
토프	-13076
▁가독	-13077
▁강호	-13078
▁김민	-13079
▁임종	-13080
▁질투	-13081
▁처방	-13082
▁초음	-13083
▁경희대	-13084
▁국민회	-13085
▁솔로몬	-13086
▁예언자	-13087
▁원산지	-13088
▁플러그	-13089
▁마이애미	-13090
포타	-13091
▁NX	-13092
▁나쁘	-13093
▁미셸	-13094
▁미칠	-13095
▁사교	-13096
▁석불	-13097
올로기	-13098
▁까마귀	-13099
▁하이퍼	-13100
▁이데올로기	-13101
ational	-13102
▁μ	-13103
▁뇨	-13104
넌트	-13105
방군	-13106
헤드	-13107
▁Am	-13108
▁교지	-13109
▁유화	-13110
▁패킷	-13111
▁곧이어	-13112
포타미아	-13113
▁메소포타미아	-13114
▁깁	-13115
▁훙	-13116
▁걸음	-13117
▁무찌	-13118
▁묶여	-13119
▁배워	-13120
▁외할	-13121
▁조개	-13122
▁픽셀	-13123
▁호시	-13124
▁인코딩	-13125
▁활동가	-13126
▁8000	-13127
▁에른스트	-13128
장사	-13129
ave	-13130
▁걸작	-13131
▁단서	-13132
▁마테	-13133
▁밀레	-13134
▁산신	-13135
▁연중	-13136
▁이호	-13137
▁전봉	-13138
▁중견	-13139
▁해병	-13140
▁CIA	-13141
▁1867	-13142
▁Comp	-13143
▁맬	-13144
네트	-13145
러진	-13146
이에	-13147
▁me	-13148
▁가선	-13149
▁과다	-13150
▁스릴	-13151
▁펼친	-13152
▁함장	-13153
▁MSL	-13154
▁Rec	-13155
▁Wii	-13156
▁글래스	-13157
▁범죄자	-13158
▁찾아오	-13159
▁프랜차	-13160
▁바빌로니아	-13161
ey	-13162
▁가세	-13163
▁병렬	-13164
▁산조	-13165
▁앞둔	-13166
▁오만	-13167
▁옥사	-13168
▁이목	-13169
▁절약	-13170
스트리	-13171
▁280	-13172
▁봉우리	-13173
▁시간대	-13174
▁인지도	-13175
▁Open	-13176
미쓰	-13177
ild	-13178
▁RA	-13179
▁라흐	-13180
▁박성	-13181
▁안중	-13182
▁암모	-13183
▁의용	-13184
▁후견	-13185
▁휴게	-13186
스코트	-13187
▁파충류	-13188
▁항아리	-13189
▁멧	-13190
▁경건	-13191
▁기공	-13192
▁실명	-13193
▁아츠	-13194
▁억울	-13195
▁염두	-13196
▁워즈	-13197
▁포화	-13198
▁청문회	-13199
▁노카	-13200
▁다우	-13201
▁보나	-13202
▁악명	-13203
▁미토콘	-13204
▁시달렸	-13205
▁카카오	-13206
▁미토콘드리아	-13207
느리	-13208
동원	-13209
테랑	-13210
▁계좌	-13211
▁노아	-13212
▁성대	-13213
▁쇼크	-13214
▁아와	-13215
▁인칭	-13216
▁착취	-13217
▁촉발	-13218
▁포대	-13219
▁확충	-13220
▁맥아더	-13221
▁목요일	-13222
▁미카엘	-13223
▁서태지	-13224
▁숨겨진	-13225
▁아브라	-13226
▁유년기	-13227
▁종사자	-13228
▁채무자	-13229
▁겟	-13230
버른	-13231
▁냐고	-13232
▁숙소	-13233
▁종영	-13234
▁쫓아	-13235
▁해질	-13236
▁현무	-13237
▁아카이	-13238
▁예문관	-13239
레타리아	-13240
▁프롤레타리아	-13241
변수	-13242
▁맡겨	-13243
▁산기	-13244
▁자행	-13245
▁정재	-13246
▁향기	-13247
▁iOS	-13248
▁준다는	-13249
▁최성기	-13250
더링	-13251
산업	-13252
▁시발	-13253
▁입술	-13254
▁지령	-13255
▁클랜	-13256
▁볼티모어	-13257
▁프랜차이즈	-13258
▁SR	-13259
▁격전	-13260
▁봉화	-13261
▁부류	-13262
▁석권	-13263
▁세무	-13264
▁쏟아	-13265
▁카레	-13266
로이드	-13267
합중국	-13268
▁대수학	-13269
▁레슬링	-13270
▁화학자	-13271
▁히타치	-13272
▁1840	-13273
▁가와사키	-13274
IR	-13275
▁고모	-13276
▁그랬	-13277
▁기한	-13278
▁동군	-13279
▁쌍성	-13280
▁온실	-13281
▁왕관	-13282
▁침범	-13283
▁통폐	-13284
▁획기	-13285
▁750	-13286
▁MHz	-13287
▁격투기	-13288
▁교육학	-13289
▁로베르	-13290
▁테네시	-13291
▁Part	-13292
▁드미트리	-13293
마디	-13294
▁교화	-13295
▁도산	-13296
▁수급	-13297
▁아끼	-13298
▁안겨	-13299
▁유영	-13300
▁이누	-13301
▁점진	-13302
▁물러난	-13303
▁센다이	-13304
▁아이즈	-13305
▁카이로	-13306
▁프레데	-13307
▁Girl	-13308
hn	-13309
반정	-13310
▁AB	-13311
▁괴로	-13312
▁러스	-13313
▁밸브	-13314
▁우표	-13315
▁원점	-13316
▁잔디	-13317
▁첼로	-13318
▁출사	-13319
▁패치	-13320
▁다면서	-13321
▁올라와	-13322
▁이랜드	-13323
▁편집장	-13324
▁마야	-13325
▁보류	-13326
▁신대	-13327
▁토시	-13328
land	-13329
▁강대국	-13330
▁게임기	-13331
▁일진회	-13332
▁초콜릿	-13333
▁프로모션	-13334
▁내재	-13335
▁대입	-13336
▁무도	-13337
▁선상	-13338
▁오지	-13339
▁대명사	-13340
▁대사간	-13341
▁멜버른	-13342
▁일본국	-13343
▁초록색	-13344
댓값	-13345
성경	-13346
▁돌렸	-13347
▁마트	-13348
▁박원	-13349
▁변종	-13350
▁불려	-13351
▁양면	-13352
▁의논	-13353
▁해준다	-13354
▁부르주아	-13355
II	-13356
TE	-13357
▁관목	-13358
▁구타	-13359
▁번개	-13360
▁생리	-13361
▁외손	-13362
▁자정	-13363
▁토라	-13364
▁IOC	-13365
▁에스컬	-13366
▁전해져	-13367
▁페르난도	-13368
▁에스컬레이터	-13369
사태	-13370
수지	-13371
▁당파	-13372
▁비토	-13373
▁서약	-13374
▁이심	-13375
▁중랑	-13376
▁검은색	-13377
▁무언가	-13378
▁세미나	-13379
▁클리어	-13380
정변	-13381
클럽	-13382
▁로큰	-13383
▁북대	-13384
▁세레	-13385
▁울릉	-13386
▁Col	-13387
▁가고시마	-13388
▁라이프치히	-13389
▁—	-13390
▁☆	-13391
▁씬	-13392
웍스	-13393
테인	-13394
티에	-13395
▁루즈	-13396
▁모건	-13397
▁모란	-13398
▁불태	-13399
▁서한	-13400
▁신익	-13401
▁조석	-13402
▁추장	-13403
▁하층	-13404
▁합친	-13405
▁혼잡	-13406
▁로큰롤	-13407
▁맥스웰	-13408
▁스피커	-13409
FL	-13410
ier	-13411
lat	-13412
▁거스	-13413
▁극소	-13414
▁내릴	-13415
▁단발	-13416
▁지체	-13417
브리아	-13418
▁기념일	-13419
▁미친다	-13420
▁이회창	-13421
▁통폐합	-13422
▁피의자	-13423
▁호크스	-13424
▁맴	-13425
▁샵	-13426
데라	-13427
신보	-13428
▁Mo	-13429
▁기판	-13430
▁다닐	-13431
▁명상	-13432
▁버티	-13433
▁비옥	-13434
▁삭스	-13435
▁아드	-13436
▁이길	-13437
▁착각	-13438
▁통솔	-13439
▁고양시	-13440
▁관심사	-13441
▁사이즈	-13442
▁슈트라	-13443
▁연예계	-13444
▁미합중국	-13445
▁슈트라우스	-13446
티넘	-13447
▁PL	-13448
▁가닥	-13449
▁강우	-13450
▁떨쳤	-13451
▁볼록	-13452
▁여럿	-13453
▁영예	-13454
▁음운	-13455
▁출격	-13456
▁편향	-13457
▁강희제	-13458
▁경전철	-13459
▁목표물	-13460
▁선거인	-13461
▁캐스트	-13462
▁허드슨	-13463
▁플래티넘	-13464
놀드	-13465
에미	-13466
▁cc	-13467
▁구독	-13468
▁승낙	-13469
▁어우	-13470
▁열악	-13471
▁왕명	-13472
▁이룰	-13473
▁제철	-13474
▁KTX	-13475
▁개체군	-13476
▁선제후	-13477
▁연대장	-13478
▁이리하여	-13479
보당	-13480
황제	-13481
▁가명	-13482
▁거병	-13483
▁경내	-13484
▁무패	-13485
▁성기	-13486
▁실상	-13487
▁우산	-13488
▁김종직	-13489
▁미트라	-13490
▁음악원	-13491
▁표트르	-13492
▁강유	-13493
▁다룰	-13494
▁맹렬	-13495
▁모사	-13496
▁소주	-13497
▁얼룩	-13498
▁재물	-13499
▁중고	-13500
▁하수	-13501
▁활기	-13502
빨리	-13503
에쓰	-13504
지로	-13505
▁벌레	-13506
▁슈타	-13507
▁열릴	-13508
▁지석	-13509
▁처마	-13510
▁판명	-13511
▁피타	-13512
▁로드리	-13513
▁중거리	-13514
▁지자체	-13515
▁탐험가	-13516
소문	-13517
정사	-13518
▁메츠	-13519
▁부군	-13520
▁심상	-13521
▁이아	-13522
▁직렬	-13523
▁쳐서	-13524
▁퇴진	-13525
▁노르드	-13526
▁보유자	-13527
▁쿠르드	-13528
▁야마가타	-13529
▁프레임워크	-13530
관리	-13531
플린	-13532
▁OB	-13533
▁et	-13534
▁갑신	-13535
▁금동	-13536
▁급성	-13537
▁상파	-13538
▁석기	-13539
▁손님	-13540
▁여고	-13541
▁영수	-13542
▁자질	-13543
▁체내	-13544
▁침식	-13545
▁신세계	-13546
▁펠릭스	-13547
▁○	-13548
둘러	-13549
로우	-13550
▁독주	-13551
▁변혁	-13552
▁소사	-13553
▁유골	-13554
▁유자	-13555
▁징집	-13556
▁알폰소	-13557
▁적십자	-13558
▁Music	-13559
다르	-13560
버터	-13561
정보	-13562
ork	-13563
▁LS	-13564
▁교훈	-13565
▁노란	-13566
▁당뇨	-13567
▁방호	-13568
▁코리	-13569
▁통감	-13570
▁페스	-13571
▁폐허	-13572
▁포인	-13573
▁신석기	-13574
▁연금술	-13575
▁7000	-13576
▁마스코트	-13577
▁아이스하키	-13578
구니	-13579
보르	-13580
하임	-13581
ics	-13582
▁비싸	-13583
▁사나	-13584
▁서체	-13585
▁에트	-13586
▁은폐	-13587
▁의정	-13588
▁페인	-13589
▁향토	-13590
▁헤겔	-13591
▁동물원	-13592
▁물리쳤	-13593
▁연방군	-13594
ee	-13595
▁교파	-13596
▁균일	-13597
▁남구	-13598
▁능가	-13599
▁바늘	-13600
▁창구	-13601
▁화순	-13602
▁반대편	-13603
▁브레멘	-13604
▁썼으며	-13605
▁Your	-13606
▁아우구스	-13607
▁뜰	-13608
▁라르	-13609
▁미식	-13610
▁싸운	-13611
▁안팎	-13612
▁월트	-13613
▁잔여	-13614
▁장택	-13615
▁철자	-13616
▁치사	-13617
▁폐하	-13618
▁화염	-13619
▁아키타	-13620
▁자본가	-13621
▁타이탄	-13622
▁여성주의	-13623
▁우두머리	-13624
▁플루토늄	-13625
CC	-13626
▁렙	-13627
너드	-13628
몬트	-13629
우주	-13630
펠러	-13631
oth	-13632
▁AE	-13633
▁NS	-13634
▁an	-13635
▁감축	-13636
▁모라	-13637
▁문관	-13638
▁에반	-13639
▁인승	-13640
▁제르	-13641
▁하타	-13642
웨이트	-13643
▁정치국	-13644
▁중공군	-13645
▁한자어	-13646
▁샴	-13647
리쿠	-13648
▁KB	-13649
▁고국	-13650
▁김연	-13651
▁마모	-13652
▁말려	-13653
▁반정	-13654
▁버섯	-13655
▁재고	-13656
▁히토	-13657
▁230	-13658
▁가져가	-13659
▁경부선	-13660
▁마다가	-13661
▁비둘기	-13662
▁아스카	-13663
▁앞바다	-13664
▁대중교통	-13665
▁부다페스트	-13666
▁강좌	-13667
▁과감	-13668
▁도형	-13669
▁두터	-13670
▁맞물	-13671
▁발판	-13672
▁야수	-13673
▁일삼	-13674
▁천자	-13675
▁추후	-13676
▁표제	-13677
▁풀리	-13678
▁DOS	-13679
▁기울였	-13680
▁시티즌	-13681
▁애덤스	-13682
▁이브스	-13683
▁이즈미	-13684
▁자릿수	-13685
▁푸에르	-13686
▁중소기업	-13687
▁쵸	-13688
▁기조	-13689
▁너희	-13690
▁부두	-13691
▁엇갈	-13692
▁예식	-13693
▁다국적	-13694
▁다이쇼	-13695
▁사보이	-13696
▁이유로	-13697
▁지질학	-13698
ae	-13699
일기	-13700
▁it	-13701
▁공상	-13702
▁낭비	-13703
▁무위	-13704
▁소아	-13705
▁손목	-13706
▁척도	-13707
▁트란	-13708
▁펀드	-13709
▁260	-13710
▁로빈슨	-13711
▁해부학	-13712
▁갑작스럽	-13713
▁삐	-13714
다보	-13715
대비	-13716
전선	-13717
per	-13718
▁거인	-13719
▁마구	-13720
▁맞배	-13721
▁법상	-13722
▁스윙	-13723
▁왕당	-13724
▁진원	-13725
▁혼다	-13726
▁그나마	-13727
▁열역학	-13728
▁율리아	-13729
▁정해졌	-13730
▁아나톨리아	-13731
▁맷	-13732
▁샨	-13733
▁고승	-13734
▁불릴	-13735
▁원문	-13736
▁자루	-13737
▁행보	-13738
▁베이비	-13739
▁스트림	-13740
▁이주민	-13741
▁재미있	-13742
▁제너럴	-13743
▁컬렉션	-13744
DS	-13745
▁뜬	-13746
처럼	-13747
▁"|	-13748
▁레프	-13749
▁몰수	-13750
▁순항	-13751
▁하후	-13752
메이카	-13753
▁레이크	-13754
▁자메이카	-13755
▁쿠웨이트	-13756
바리	-13757
콘신	-13758
태평	-13759
훈장	-13760
▁규약	-13761
▁기미	-13762
▁발톱	-13763
▁산책	-13764
▁익히	-13765
▁잔해	-13766
▁정승	-13767
▁정진	-13768
▁충신	-13769
▁패럴	-13770
▁Car	-13771
▁방위군	-13772
▁천도교	-13773
퍼레이션	-13774
▁와카야마	-13775
▁위스콘신	-13776
▁괜	-13777
▁탔	-13778
제비	-13779
타리	-13780
▁Ed	-13781
▁골라	-13782
▁동차	-13783
▁바보	-13784
▁알로	-13785
▁이질	-13786
▁튀어나	-13787
▁파라오	-13788
▁고등교육	-13789
▁백과사전	-13790
데기	-13791
젤로	-13792
lar	-13793
▁sp	-13794
▁귀인	-13795
▁꾸몄	-13796
▁마요	-13797
▁무능	-13798
▁법제	-13799
▁소진	-13800
▁은밀	-13801
▁중등	-13802
▁지기	-13803
▁항생	-13804
▁조병옥	-13805
▁태어날	-13806
▁하이브리	-13807
▁가나가와현	-13808
위안	-13809
▁공문	-13810
▁기마	-13811
▁미지	-13812
▁변한	-13813
▁사소	-13814
▁스마	-13815
▁에노	-13816
▁자네	-13817
▁전범	-13818
▁쿠로	-13819
▁키릴	-13820
▁헌터	-13821
▁환율	-13822
▁교황령	-13823
▁로맨스	-13824
▁백악관	-13825
▁카디널	-13826
▁세웠으며	-13827
▁벙	-13828
뜨린	-13829
▁고층	-13830
▁교학	-13831
▁따돌	-13832
▁라미	-13833
▁문건	-13834
▁상층	-13835
▁쓰루	-13836
▁의복	-13837
▁장신	-13838
▁저우	-13839
▁헤센	-13840
▁Bla	-13841
▁단말기	-13842
▁외계인	-13843
▁참전하	-13844
▁평의원	-13845
▁가졌으며	-13846
▁모노이드	-13847
▁쑨	-13848
▁콥	-13849
박사	-13850
▁만물	-13851
▁베컴	-13852
▁붕어	-13853
▁실렸	-13854
▁안드	-13855
▁에바	-13856
▁월남	-13857
▁일면	-13858
▁적법	-13859
▁주포	-13860
▁처한	-13861
▁타쿠	-13862
▁향수	-13863
▁후미	-13864
▁반감기	-13865
▁상반기	-13866
▁자격증	-13867
▁피츠버그	-13868
▁하이브리드	-13869
AE	-13870
▁@	-13871
▁김치	-13872
▁명왕	-13873
▁변함	-13874
▁분교	-13875
▁처장	-13876
▁탐정	-13877
▁흔들리	-13878
▁Live	-13879
▁숀	-13880
▁그물	-13881
▁득실	-13882
▁반점	-13883
▁위도	-13884
▁지그	-13885
▁처치	-13886
▁270	-13887
▁서스펜	-13888
▁커리어	-13889
▁코스트	-13890
▁테두리	-13891
▁판매고	-13892
▁Rock	-13893
▁이노우에	-13894
ection	-13895
▁마다가스카르	-13896
주석	-13897
▁AL	-13898
▁YG	-13899
▁공병	-13900
▁동거	-13901
▁라가	-13902
▁마린	-13903
▁무르	-13904
▁무색	-13905
▁세토	-13906
▁시성	-13907
▁여대	-13908
▁후드	-13909
▁발가락	-13910
▁오른다	-13911
▁1700	-13912
VA	-13913
니오	-13914
들였	-13915
레시	-13916
▁공석	-13917
▁되살	-13918
▁라플	-13919
▁보어	-13920
▁오일	-13921
▁이거	-13922
▁자부	-13923
▁직물	-13924
▁최남	-13925
▁치뤘	-13926
▁후회	-13927
▁650	-13928
▁오나라	-13929
▁이완용	-13930
▁율리우스	-13931
▁콘스탄티누스	-13932
▁노스캐롤라이나	-13933
▁딥	-13934
시대	-13935
자원	-13936
hen	-13937
▁건네	-13938
▁기해	-13939
▁스모	-13940
▁장정	-13941
▁체질	-13942
▁판도	-13943
학생회	-13944
lass	-13945
▁기울이	-13946
▁손꼽히	-13947
▁오스틴	-13948
▁후세인	-13949
▁총학생회	-13950
도감	-13951
▁강습	-13952
▁날렸	-13953
▁뒤이	-13954
▁서클	-13955
▁수증	-13956
▁승률	-13957
▁키르	-13958
▁페트	-13959
▁한복	-13960
민스터	-13961
▁끌려가	-13962
▁유니버설	-13963
화경	-13964
▁ML	-13965
▁곡식	-13966
▁니케	-13967
▁동급	-13968
▁동호	-13969
▁뚜껑	-13970
▁라바	-13971
▁문체	-13972
▁스몰	-13973
▁애슬	-13974
▁에프	-13975
▁자재	-13976
▁특위	-13977
▁페오	-13978
▁피크	-13979
진보당	-13980
▁www	-13981
▁붙잡혀	-13982
▁소학교	-13983
▁슈투트	-13984
▁줄리아	-13985
▁1875	-13986
▁슈투트가르트	-13987
HC	-13988
초프	-13989
▁거머	-13990
▁결말	-13991
▁국인	-13992
▁노브	-13993
▁모체	-13994
▁몰타	-13995
▁바젤	-13996
▁병풍	-13997
▁이별	-13998
▁재계	-13999
▁클럭	-14000
▁And	-14001
▁베르나	-14002
▁신익희	-14003
▁아놀드	-14004
▁종착역	-14005
▁코소보	-14006
▁원종공신	-14007
내티	-14008
대성	-14009
암동	-14010
ern	-14011
▁내기	-14012
▁넓혀	-14013
▁능숙	-14014
▁등산	-14015
▁르노	-14016
▁박자	-14017
▁부양	-14018
▁순찰	-14019
▁쓰일	-14020
▁원술	-14021
▁차림	-14022
▁첩보	-14023
▁충칭	-14024
▁파커	-14025
리아스	-14026
▁수비대	-14027
▁아키텐	-14028
▁지극히	-14029
▁해운대	-14030
▁신시내티	-14031
▁아우구스투스	-14032
▁の	-14033
▁켜	-14034
비안	-14035
투리	-14036
▁FB	-14037
▁MM	-14038
▁갇혀	-14039
▁군량	-14040
▁신병	-14041
▁엄지	-14042
▁출품	-14043
▁커브	-14044
▁데이브	-14045
▁되돌려	-14046
▁바뀐다	-14047
▁세비야	-14048
▁바이마르	-14049
▁스케이트	-14050
▁중앙일보	-14051
tr	-14052
들러	-14053
▁규합	-14054
▁남송	-14055
▁닉스	-14056
▁당장	-14057
▁마셜	-14058
▁봉황	-14059
▁양위	-14060
▁어지	-14061
▁전열	-14062
▁주유	-14063
▁청취	-14064
▁토이	-14065
▁평하	-14066
▁피리	-14067
▁국내선	-14068
▁등록금	-14069
▁레스터	-14070
▁위구르	-14071
▁입법부	-14072
▁펼쳐진	-14073
▁β	-14074
▁덱	-14075
워스	-14076
▁경원	-14077
▁구비	-14078
▁김승	-14079
▁당상	-14080
▁변론	-14081
▁사병	-14082
▁상어	-14083
▁시편	-14084
▁자석	-14085
▁자성	-14086
▁추밀	-14087
▁파파	-14088
▁헤어	-14089
▁며느리	-14090
▁저질렀	-14091
▁타타르	-14092
나기	-14093
▁민원	-14094
▁불쾌	-14095
▁사체	-14096
▁서역	-14097
▁세밀	-14098
▁앤디	-14099
▁지요	-14100
▁협업	-14101
▁개척자	-14102
▁한다며	-14103
FF	-14104
▁AA	-14105
▁과세	-14106
▁국세	-14107
▁뉴런	-14108
▁왕릉	-14109
▁칸트	-14110
▁호적	-14111
▁독재자	-14112
▁바닷물	-14113
▁장택상	-14114
▁케이드	-14115
▁베스트셀러	-14116
블릿	-14117
탄두	-14118
▁개경	-14119
▁고난	-14120
▁넓히	-14121
▁부식	-14122
▁수다	-14123
▁인척	-14124
▁적정	-14125
▁정역	-14126
▁조셉	-14127
▁좌랑	-14128
▁중건	-14129
▁추운	-14130
▁AMD	-14131
▁교육청	-14132
▁http	-14133
▁다이노스	-14134
▁베이시스트	-14135
▁q	-14136
황색	-14137
▁--	-14138
▁넘버	-14139
▁림프	-14140
▁사각	-14141
▁사탄	-14142
▁실사	-14143
▁오자	-14144
▁용맹	-14145
▁윤곽	-14146
▁전조	-14147
▁풀백	-14148
▁태그팀	-14149
▁남한산성	-14150
▁루스벨트	-14151
▁킷	-14152
▁텅	-14153
▁가뭄	-14154
▁깨지	-14155
▁사부	-14156
▁이바	-14157
▁자장	-14158
▁죽일	-14159
▁중신	-14160
▁친밀	-14161
▁합장	-14162
해방군	-14163
▁대관식	-14164
▁대리석	-14165
▁사무국	-14166
▁패스트	-14167
▁인민해방군	-14168
▁퀄	-14169
▁구세	-14170
▁군복	-14171
▁나사	-14172
▁내일	-14173
▁명륜	-14174
▁비지	-14175
▁상환	-14176
▁피살	-14177
▁할구	-14178
▁스테판	-14179
▁1877	-14180
▁프라이즈	-14181
▁멀티미디어	-14182
화당	-14183
▁근간	-14184
▁배타	-14185
▁복부	-14186
▁성산	-14187
▁텍스	-14188
▁페라	-14189
▁가우스	-14190
▁개개인	-14191
▁게오르	-14192
▁도망쳐	-14193
▁동남쪽	-14194
▁모나코	-14195
▁성폭행	-14196
▁Life	-14197
▁크리에이	-14198
▁결렬	-14199
▁관아	-14200
▁괄호	-14201
▁구강	-14202
▁러닝	-14203
▁배당	-14204
▁백자	-14205
▁세요	-14206
▁솔라	-14207
▁이니	-14208
▁잡혔	-14209
▁풀이	-14210
▁GPS	-14211
▁대항전	-14212
▁에이전트	-14213
▁멱	-14214
거스	-14215
푸아	-14216
혈구	-14217
eth	-14218
▁Aw	-14219
▁격리	-14220
▁괘불	-14221
▁권역	-14222
▁떠돌	-14223
▁서당	-14224
▁오인	-14225
▁우체	-14226
▁허물	-14227
▁747	-14228
▁스릴러	-14229
▁엄청나	-14230
▁업로드	-14231
▁웨스트민스터	-14232
▁콧	-14233
나시	-14234
ung	-14235
▁PM	-14236
▁김우	-14237
▁발광	-14238
▁안나	-14239
▁체로	-14240
▁해주	-14241
▁헤더	-14242
▁거주자	-14243
▁당선자	-14244
▁스러워	-14245
▁여러분	-14246
▁그러다가	-14247
▁스리랑카	-14248
▁프레슬리	-14249
ai	-14250
▁윤원	-14251
▁정실	-14252
▁부적절	-14253
▁생리학	-14254
▁한국군	-14255
▁후반전	-14256
▁스틸러스	-14257
건설	-14258
형제	-14259
amp	-14260
▁골절	-14261
▁길드	-14262
▁눌러	-14263
▁다자	-14264
▁리카	-14265
▁모교	-14266
▁백조	-14267
▁법규	-14268
▁어군	-14269
▁잡힌	-14270
▁주화	-14271
▁출병	-14272
▁호화	-14273
▁CON	-14274
▁보조금	-14275
▁부르봉	-14276
▁안티고	-14277
▁여객기	-14278
▁1859	-14279
▁만장일치	-14280
▁서비스업	-14281
민당	-14282
의금	-14283
▁ar	-14284
▁공경	-14285
▁두르	-14286
▁스기	-14287
▁아쉽	-14288
▁퇴출	-14289
▁튜브	-14290
▁렌더링	-14291
▁만화가	-14292
▁순교자	-14293
▁책임지	-14294
▁휴대폰	-14295
▁오토바이	-14296
▁톡	-14297
방향	-14298
▁멋진	-14299
▁세울	-14300
▁직류	-14301
▁퇴치	-14302
▁화소	-14303
슬라프	-14304
▁아니면	-14305
DA	-14306
▁샷	-14307
▁엡	-14308
여지	-14309
▁CO	-14310
▁바비	-14311
▁백지	-14312
▁상계	-14313
▁연화	-14314
로그램	-14315
▁나와서	-14316
▁다행히	-14317
▁본거지	-14318
▁정몽주	-14319
▁주거지	-14320
▁축구팀	-14321
▁회고록	-14322
▁University	-14323
▁Qu	-14324
▁미츠	-14325
▁바시	-14326
▁수당	-14327
▁수이	-14328
▁열람	-14329
▁우마	-14330
▁피어	-14331
▁항전	-14332
▁쇼핑몰	-14333
▁환승역	-14334
▁카디널스	-14335
링겐	-14336
사유	-14337
피언	-14338
▁동종	-14339
▁머스	-14340
▁면하	-14341
▁불문	-14342
▁앵커	-14343
▁유이	-14344
▁일간	-14345
▁잔혹	-14346
▁최하	-14347
▁파열	-14348
▁올라왔	-14349
10	-14350
▁구르	-14351
▁김두	-14352
▁능하	-14353
▁보국	-14354
▁사목	-14355
▁일차	-14356
▁플랑	-14357
▁피셔	-14358
▁사학자	-14359
▁이마가와	-14360
니티	-14361
티노	-14362
▁끔찍	-14363
▁네임	-14364
▁뒤덮	-14365
▁딱딱	-14366
▁무겁	-14367
▁뮐러	-14368
▁불복	-14369
▁서귀	-14370
▁앙골	-14371
▁오산	-14372
▁원만	-14373
▁전서	-14374
▁친히	-14375
▁화풍	-14376
▁훈족	-14377
▁희미	-14378
플렉스	-14379
▁그랜트	-14380
▁자유형	-14381
▁재빨리	-14382
▁지배했	-14383
▁오아시스	-14384
가요	-14385
나들	-14386
▁Ac	-14387
▁격침	-14388
▁견훤	-14389
▁군기	-14390
▁대진	-14391
▁상회	-14392
▁유림	-14393
▁조경	-14394
▁창씨	-14395
▁폭주	-14396
▁550	-14397
▁나리타	-14398
▁도망가	-14399
▁세네갈	-14400
▁필사본	-14401
즐리	-14402
▁상록	-14403
▁악당	-14404
▁용지	-14405
▁월터	-14406
▁윗면	-14407
▁장론	-14408
▁지킬	-14409
▁진위	-14410
▁청했	-14411
▁크메르	-14412
▁토론회	-14413
▁프리킥	-14414
▁학술지	-14415
▁1874	-14416
▁사이타마	-14417
▁낯	-14418
뛰기	-14419
바퀴	-14420
제사	-14421
▁메모	-14422
▁손책	-14423
▁앞뒤	-14424
▁여관	-14425
▁저해	-14426
▁청각	-14427
▁항체	-14428
▁브레이	-14429
▁와이드	-14430
▁전동기	-14431
▁프리스	-14432
▁오프라인	-14433
▁알렉산데르	-14434
me	-14435
pr	-14436
▁RT	-14437
▁광양	-14438
▁근세	-14439
▁깊숙	-14440
▁대덕	-14441
▁대등	-14442
▁배리	-14443
▁빛깔	-14444
▁성수	-14445
▁시력	-14446
▁치밀	-14447
▁하동	-14448
▁호그	-14449
ike	-14450
ise	-14451
▁강국	-14452
▁갖춰	-14453
▁고이	-14454
▁균등	-14455
▁농담	-14456
▁성현	-14457
▁실효	-14458
▁안식	-14459
▁영미	-14460
▁제천	-14461
▁증식	-14462
▁대혁명	-14463
▁시니어	-14464
에미리트	-14465
▁니콜라스	-14466
▁소크라테스	-14467
▁아랍에미리트	-14468
위치	-14469
▁교내	-14470
▁구가	-14471
▁끼친	-14472
▁라쿠	-14473
▁빌드	-14474
▁실책	-14475
▁아브	-14476
▁유계	-14477
▁유충	-14478
▁자각	-14479
▁총감	-14480
▁라그랑	-14481
▁천문단위	-14482
무장	-14483
▁Sw	-14484
▁구명	-14485
▁납작	-14486
▁놓였	-14487
▁라드	-14488
▁변했	-14489
▁봉분	-14490
▁사산	-14491
▁사와	-14492
▁산정	-14493
▁소량	-14494
▁으러	-14495
▁재화	-14496
▁휴일	-14497
▁Sup	-14498
▁성남시	-14499
▁스케줄	-14500
▁장로회	-14501
불명	-14502
은사	-14503
클라	-14504
▁라니	-14505
▁산시	-14506
▁셔틀	-14507
▁조제	-14508
▁춘계	-14509
▁코일	-14510
▁하스	-14511
▁결의안	-14512
▁브래드	-14513
▁서바이	-14514
▁엘비스	-14515
▁가로질러	-14516
▁쏜	-14517
득점	-14518
자락	-14519
net	-14520
▁SO	-14521
▁강인	-14522
▁계투	-14523
▁도자	-14524
▁문중	-14525
▁베오	-14526
▁에로	-14527
▁에치	-14528
▁인성	-14529
▁잉여	-14530
▁축복	-14531
▁투기	-14532
▁고분군	-14533
▁슈미트	-14534
▁사다하루	-14535
▁프란시스코	-14536
노르	-14537
▁경은	-14538
▁과자	-14539
▁농가	-14540
▁사생	-14541
▁승선	-14542
▁용해	-14543
▁유독	-14544
▁타파	-14545
▁탄수	-14546
▁국방군	-14547
▁엑스포	-14548
▁프론트	-14549
▁사무라이	-14550
티컷	-14551
▁가령	-14552
▁강했	-14553
▁경합	-14554
▁괜찮	-14555
▁궁주	-14556
▁대여	-14557
▁명중	-14558
▁바쳐	-14559
▁어학	-14560
▁조니	-14561
▁탈피	-14562
▁고조선	-14563
▁네이트	-14564
▁왕당파	-14565
▁유니언	-14566
▁합성어	-14567
▁돌아간다	-14568
▁코네티컷	-14569
▁폼페이우스	-14570
EE	-14571
기야	-14572
디언	-14573
연구	-14574
쿠니	-14575
ult	-14576
▁교재	-14577
▁묘호	-14578
▁부평	-14579
▁비방	-14580
▁산문	-14581
▁손수	-14582
▁숙명	-14583
▁숙박	-14584
▁스에	-14585
▁유러	-14586
폴리탄	-14587
▁기업가	-14588
▁농민군	-14589
▁우에노	-14590
▁장갑차	-14591
▁Soul	-14592
▁불법행위	-14593
▁메트로폴리탄	-14594
▁뭔	-14595
세서	-14596
▁RC	-14597
▁다비	-14598
▁더빙	-14599
▁라벨	-14600
▁로니	-14601
▁원효	-14602
▁위축	-14603
▁자막	-14604
▁청도	-14605
▁출항	-14606
▁호른	-14607
▁380	-14608
▁감마선	-14609
▁레이디	-14610
▁스케일	-14611
▁올리버	-14612
▁요나라	-14613
▁저지대	-14614
▁중심핵	-14615
▁중앙선	-14616
▁크루즈	-14617
▁못했으며	-14618
▁뿜	-14619
히데	-14620
▁경화	-14621
▁관동	-14622
▁양파	-14623
▁외상	-14624
▁자백	-14625
▁죄인	-14626
▁즐겼	-14627
▁친화	-14628
▁콘스	-14629
▁이바지	-14630
▁조각상	-14631
▁Good	-14632
▁베르나르	-14633
든가	-14634
▁기피	-14635
▁니체	-14636
▁반향	-14637
▁서지	-14638
▁아자	-14639
▁압수	-14640
▁오우	-14641
▁오웬	-14642
▁제지	-14643
▁핑계	-14644
▁협곡	-14645
▁미야기	-14646
▁조용히	-14647
▁타블로	-14648
▁Time	-14649
▁온타리오주	-14650
부대	-14651
ale	-14652
▁">	-14653
▁IR	-14654
▁겨냥	-14655
▁귀양	-14656
▁망루	-14657
▁매듭	-14658
▁바쿠	-14659
▁웨어	-14660
▁장강	-14661
▁장차	-14662
▁증축	-14663
▁충고	-14664
▁공성전	-14665
▁운전자	-14666
▁현미경	-14667
▁형용사	-14668
ows	-14669
▁김장	-14670
▁리코	-14671
▁밸리	-14672
▁빨강	-14673
▁솔직	-14674
▁청일	-14675
▁캐리	-14676
▁전기장	-14677
▁유러피언	-14678
비오	-14679
타스	-14680
할린	-14681
▁가결	-14682
▁공지	-14683
▁던진	-14684
▁산재	-14685
▁어항	-14686
▁재주	-14687
▁좌천	-14688
▁포니	-14689
▁헤일	-14690
rist	-14691
▁날아가	-14692
▁사이먼	-14693
▁1812	-14694
▁갑신정변	-14695
▁사라진다	-14696
고르	-14697
라는	-14698
▁en	-14699
▁금색	-14700
▁서점	-14701
▁인노	-14702
▁입혔	-14703
▁정려	-14704
▁히노	-14705
▁관찰자	-14706
▁이범석	-14707
▁충렬왕	-14708
▁혼합물	-14709
▁북대서양	-14710
▁쥘	-14711
비언	-14712
orm	-14713
▁PA	-14714
▁고는	-14715
▁애드	-14716
▁율법	-14717
▁추이	-14718
▁비잔틴	-14719
▁아이젠	-14720
▁스트리밍	-14721
▁불러일으켰	-14722
▁코스타리카	-14723
▁썰	-14724
메랄	-14725
보리	-14726
토크	-14727
▁BL	-14728
▁금관	-14729
▁레몬	-14730
▁엘레	-14731
▁오즈	-14732
▁운석	-14733
▁유틸	-14734
▁의령	-14735
▁인계	-14736
▁저축	-14737
▁떠올랐	-14738
▁알아차	-14739
▁을수록	-14740
▁카메룬	-14741
▁1879	-14742
▁유틸리티	-14743
▁밋	-14744
▁챈	-14745
▁교인	-14746
▁근위	-14747
▁오차	-14748
▁출루	-14749
▁해킹	-14750
stem	-14751
▁급속도	-14752
▁다이빙	-14753
▁생화학	-14754
▁스탠리	-14755
▁습니까	-14756
▁토요타	-14757
▁두드러진	-14758
▁결단	-14759
▁두뇌	-14760
▁등단	-14761
▁라자	-14762
▁시역	-14763
▁어부	-14764
▁어인	-14765
▁콘테	-14766
▁키즈	-14767
▁Gre	-14768
▁가치관	-14769
▁리스본	-14770
▁슈타인	-14771
▁아이언	-14772
▁주제가	-14773
장군	-14774
▁Do	-14775
▁가곡	-14776
▁감당	-14777
▁담임	-14778
▁리사	-14779
▁방학	-14780
▁성북	-14781
▁송파	-14782
▁아킬	-14783
▁양서	-14784
▁Can	-14785
▁돌아올	-14786
▁베이커	-14787
▁소나타	-14788
▁스케치	-14789
▁클러스터	-14790
▁브란덴부르크	-14791
르산	-14792
▁결여	-14793
▁공관	-14794
▁그늘	-14795
▁남단	-14796
▁노름	-14797
▁노프	-14798
▁다윗	-14799
▁마타	-14800
▁방탄	-14801
▁열반	-14802
▁영천	-14803
▁웅진	-14804
▁유세	-14805
▁율리	-14806
▁정오	-14807
▁패퇴	-14808
▁한하	-14809
▁부등식	-14810
▁직사각	-14811
▁찾아왔	-14812
락부	-14813
피카	-14814
IST	-14815
▁괴멸	-14816
▁라울	-14817
▁목장	-14818
▁민물	-14819
▁발진	-14820
▁오시	-14821
▁장이	-14822
▁포자	-14823
ject	-14824
▁USS	-14825
▁대교구	-14826
▁사생활	-14827
▁추축국	-14828
▁패트릭	-14829
▁Tour	-14830
▁땀	-14831
▁벳	-14832
박쥐	-14833
▁관개	-14834
▁루도	-14835
▁모였	-14836
▁박진	-14837
▁박찬	-14838
▁안심	-14839
▁위배	-14840
▁켄터	-14841
▁광복군	-14842
▁클라우	-14843
▁브리티시	-14844
▁소말리아	-14845
▁지장보살	-14846
▁엎	-14847
기아	-14848
▁MR	-14849
▁교복	-14850
▁너스	-14851
▁읍성	-14852
▁콜론	-14853
▁화음	-14854
자치시	-14855
▁경주시	-14856
▁산티아	-14857
▁스태프	-14858
▁여주인	-14859
▁음식점	-14860
▁특별자치시	-14861
능력	-14862
현동	-14863
▁kW	-14864
▁개축	-14865
▁격화	-14866
▁기린	-14867
▁리키	-14868
▁소서	-14869
▁조회	-14870
▁진심	-14871
▁무신론	-14872
▁예비군	-14873
▁요시쓰	-14874
▁핵탄두	-14875
의금부사	-14876
▁지하철역	-14877
▁컨퍼런스	-14878
▁강자	-14879
▁강타	-14880
▁도안	-14881
▁매질	-14882
▁목동	-14883
▁방울	-14884
▁부락	-14885
▁산술	-14886
▁아다	-14887
▁출정	-14888
▁택하	-14889
스타인	-14890
타이드	-14891
▁록히드	-14892
▁베드로	-14893
▁프로테	-14894
▁from	-14895
▁바그다드	-14896
쿠사	-14897
▁TS	-14898
▁간지	-14899
▁굳이	-14900
▁뉴클	-14901
▁버펄	-14902
▁범람	-14903
▁부에	-14904
▁유감	-14905
▁후면	-14906
▁후백	-14907
▁기본법	-14908
▁일제히	-14909
▁크라운	-14910
▁1789	-14911
▁맞배지붕	-14912
▁보였으나	-14913
▁브로드웨이	-14914
계사	-14915
다오	-14916
ATO	-14917
▁El	-14918
▁Pe	-14919
▁WC	-14920
▁간파	-14921
▁걸프	-14922
▁루키	-14923
▁반납	-14924
▁변성	-14925
▁복싱	-14926
▁섞인	-14927
▁아디	-14928
▁초회	-14929
▁커져	-14930
▁서귀포	-14931
▁성폭력	-14932
▁점성가	-14933
▁돌아와서	-14934
uk	-14935
▁됩	-14936
ium	-14937
▁DB	-14938
▁고관	-14939
▁독실	-14940
▁봉작	-14941
▁역모	-14942
▁육식	-14943
▁은지	-14944
▁천태	-14945
▁최용	-14946
▁카마	-14947
▁팔린	-14948
▁흐트	-14949
레이트	-14950
▁마르셀	-14951
▁막아내	-14952
▁파르마	-14953
▁대법원장	-14954
▁자동변속기	-14955
테이	-14956
ank	-14957
▁교동	-14958
▁끼워	-14959
▁모태	-14960
▁사악	-14961
▁열기	-14962
▁오보	-14963
▁유보	-14964
▁정직	-14965
▁칼륨	-14966
▁행한	-14967
ings	-14968
▁내려갔	-14969
▁오스카	-14970
▁토착종	-14971
▁후유증	-14972
▁2500	-14973
▁그레고리	-14974
▁오카야마	-14975
▁―	-14976
데자	-14977
▁가창	-14978
▁논증	-14979
▁닛산	-14980
▁불길	-14981
▁에마	-14982
▁율령	-14983
▁의인	-14984
▁적힌	-14985
▁증직	-14986
▁첫날	-14987
▁수백만	-14988
▁다마스쿠스	-14989
▁아르바이트	-14990
▁짚	-14991
라호	-14992
▁Ab	-14993
▁서보	-14994
▁아어	-14995
▁악의	-14996
▁외가	-14997
▁이터	-14998
▁황위	-14999
▁황하	-15000
▁도로는	-15001
▁액세스	-15002
▁지리산	-15003
▁켄터키	-15004
▁포식자	-15005
▁항소심	-15006
▁1400	-15007
▁독립선언	-15008
메니	-15009
면적	-15010
▁구루	-15011
▁소양	-15012
▁수표	-15013
▁어쨌	-15014
▁염화	-15015
▁엿볼	-15016
▁패자	-15017
▁펜싱	-15018
ower	-15019
▁넘어서	-15020
▁파스칼	-15021
▁산티아고	-15022
▁一	-15023
▁뺏	-15024
신저	-15025
▁결투	-15026
▁이씨	-15027
▁정여	-15028
▁폐렴	-15029
에이고	-15030
태평양	-15031
▁레이건	-15032
▁문하시	-15033
▁비행사	-15034
▁지팡이	-15035
▁평상시	-15036
▁라이센스	-15037
▁샌디에이고	-15038
ex	-15039
▁쏠	-15040
월드	-15041
재판	-15042
큐어	-15043
itt	-15044
▁기주	-15045
▁노총	-15046
▁대용	-15047
▁도도	-15048
▁일주	-15049
▁장쑤	-15050
▁조동	-15051
▁키드	-15052
▁탄두	-15053
▁틈타	-15054
▁푸젠	-15055
▁하강	-15056
▁힘쓰	-15057
▁노무라	-15058
▁다람쥐	-15059
▁바빌론	-15060
▁붉은색	-15061
▁삼각주	-15062
▁안철수	-15063
▁용산구	-15064
▁컨디션	-15065
다임	-15066
▁Up	-15067
▁굶주	-15068
▁궁내	-15069
▁기스	-15070
▁모티	-15071
▁본당	-15072
▁양지	-15073
▁카세	-15074
▁현관	-15075
▁이바라	-15076
▁콘라트	-15077
▁테크놀	-15078
▁혈액형	-15079
▁브루클린	-15080
▁패러다임	-15081
▁항공우주	-15082
게스	-15083
루크	-15084
ron	-15085
▁남경	-15086
▁댄서	-15087
▁마초	-15088
▁멘델	-15089
▁박재	-15090
▁성부	-15091
▁소라	-15092
▁수은	-15093
▁시르	-15094
▁용역	-15095
▁유상	-15096
▁재회	-15097
▁제방	-15098
▁탄력	-15099
▁파고	-15100
▁포섭	-15101
공화당	-15102
파르트	-15103
▁깨달음	-15104
▁들어선	-15105
▁바닷가	-15106
▁이준용	-15107
▁적절히	-15108
▁지방관	-15109
▁함부로	-15110
▁헬레니즘	-15111
▁민주공화당	-15112
니츠	-15113
▁상설	-15114
▁스톰	-15115
▁신궁	-15116
▁안건	-15117
▁양분	-15118
▁전란	-15119
▁포상	-15120
▁해피	-15121
▁냈으며	-15122
▁상대론	-15123
▁아리랑	-15124
세키	-15125
엽수	-15126
▁WH	-15127
▁설리	-15128
▁입찰	-15129
▁하지	-15130
▁다비드	-15131
▁대대장	-15132
▁미성년	-15133
▁바로잡	-15134
▁예비역	-15135
▁이성질	-15136
▁치료제	-15137
▁리우데자	-15138
▁아미타불	-15139
▁리우데자네이루	-15140
EST	-15141
▁결탁	-15142
▁도끼	-15143
▁라리	-15144
▁리트	-15145
▁망치	-15146
▁발터	-15147
▁부엌	-15148
▁아님	-15149
▁유민	-15150
▁책정	-15151
▁길거리	-15152
▁레이싱	-15153
▁의병장	-15154
▁Wind	-15155
▁갈릴레이	-15156
▁안드로메다	-15157
제곱	-15158
▁걸치	-15159
▁논설	-15160
▁란트	-15161
▁말소	-15162
▁박용	-15163
▁수역	-15164
▁안재	-15165
▁자위	-15166
▁카펠	-15167
▁한꺼	-15168
▁향신	-15169
▁실리콘	-15170
▁유엔군	-15171
▁쫓겨나	-15172
▁하얀색	-15173
▁행해진	-15174
▁한꺼번에	-15175
건적	-15176
든지	-15177
이상	-15178
▁KO	-15179
▁거시	-15180
▁관대	-15181
▁구애	-15182
▁구전	-15183
▁그간	-15184
▁노골	-15185
▁달력	-15186
▁미인	-15187
▁버크	-15188
▁사연	-15189
▁센다	-15190
▁의제	-15191
▁자갈	-15192
▁장령	-15193
▁초계	-15194
▁치마	-15195
▁침수	-15196
▁탄산	-15197
라호마	-15198
▁야구부	-15199
▁헤르만	-15200
▁막시밀리	-15201
▁유라시아	-15202
▁오클라호마	-15203
러져	-15204
학파	-15205
▁게놈	-15206
▁결실	-15207
▁국문	-15208
▁나기	-15209
▁무예	-15210
▁셔츠	-15211
▁융기	-15212
▁조율	-15213
▁캐피	-15214
▁커트	-15215
▁피처	-15216
▁군주제	-15217
▁정착지	-15218
▁가까스로	-15219
▁계란	-15220
▁나바	-15221
▁느라	-15222
▁미자	-15223
▁샤이	-15224
▁수질	-15225
▁스투	-15226
▁시제	-15227
▁우대	-15228
▁점토	-15229
▁조우	-15230
▁학당	-15231
▁할양	-15232
▁홀수	-15233
▁홍익	-15234
▁흉내	-15235
▁돌아간	-15236
▁선보인	-15237
▁오르간	-15238
▁학생회	-15239
GB	-15240
▁띈	-15241
덕궁	-15242
백색	-15243
에스	-15244
▁KA	-15245
▁모치	-15246
▁빌미	-15247
▁손쉽	-15248
▁증원	-15249
▁추계	-15250
▁향로	-15251
▁나눈다	-15252
▁노트북	-15253
▁초대칭	-15254
▁폴란드인	-15255
▁안티오키아	-15256
일체	-15257
입자	-15258
▁ER	-15259
▁as	-15260
▁다채	-15261
▁단사	-15262
▁도봉	-15263
▁렉스	-15264
▁모션	-15265
▁북인	-15266
▁송이	-15267
▁애호	-15268
▁위태	-15269
▁이희	-15270
▁자존	-15271
▁탄자	-15272
▁흑색	-15273
네소스	-15274
▁집어넣	-15275
▁포인터	-15276
▁Night	-15277
과학	-15278
빌리	-15279
▁Fe	-15280
▁겨루	-15281
▁관원	-15282
▁국화	-15283
▁김선	-15284
▁돼서	-15285
▁리마	-15286
▁무루	-15287
▁벨리	-15288
▁사키	-15289
▁설과	-15290
▁애매	-15291
▁엄정	-15292
▁월북	-15293
▁이강	-15294
▁지린	-15295
▁직각	-15296
▁컴필	-15297
▁쿠라	-15298
▁투니	-15299
▁파격	-15300
▁포교	-15301
▁피카	-15302
이치로	-15303
▁Don	-15304
▁Let	-15305
▁남양주	-15306
▁변호인	-15307
▁오슬로	-15308
▁갑작스런	-15309
▁이오니아	-15310
▁컴필레이션	-15311
▁쐐	-15312
티야	-15313
▁GR	-15314
▁Sk	-15315
▁말단	-15316
▁봉헌	-15317
▁비료	-15318
▁성동	-15319
▁성형	-15320
▁일식	-15321
▁진하	-15322
▁총수	-15323
▁카일	-15324
▁평방	-15325
▁호로	-15326
▁호전	-15327
▁모조리	-15328
▁바란다	-15329
▁페르시	-15330
▁뉴클레오	-15331
▁스테파노	-15332
▁중앙은행	-15333
날레	-15334
▁라라	-15335
▁북상	-15336
▁생생	-15337
▁아요	-15338
▁아호	-15339
▁양극	-15340
▁영락	-15341
▁용사	-15342
▁이문	-15343
▁차역	-15344
▁Bab	-15345
▁됩니다	-15346
▁몰도바	-15347
▁상속인	-15348
▁아우르	-15349
▁위너스	-15350
▁클라리	-15351
▁선거인단	-15352
거성	-15353
구스	-15354
단지	-15355
▁기민	-15356
▁무공	-15357
▁방한	-15358
▁상법	-15359
▁수주	-15360
▁쐐기	-15361
▁우시	-15362
▁콜드	-15363
▁피쳐	-15364
▁하라	-15365
▁현령	-15366
지스터	-15367
▁도야마	-15368
▁빼앗겼	-15369
▁피닉스	-15370
▁황도대	-15371
▁아드리아	-15372
IX	-15373
끄럽	-15374
담회	-15375
▁갑오	-15376
▁귀순	-15377
▁긴키	-15378
▁마티	-15379
▁벗겨	-15380
▁보우	-15381
▁족장	-15382
▁지검	-15383
▁짝수	-15384
▁초식	-15385
▁치중	-15386
▁캐논	-15387
▁팔려	-15388
▁환산	-15389
부아르	-15390
▁공사관	-15391
▁데이트	-15392
▁세운다	-15393
▁지하역	-15394
▁해리스	-15395
▁혁명군	-15396
▁화요일	-15397
▁사이언스	-15398
▁뜯	-15399
디드	-15400
hem	-15401
son	-15402
▁공평	-15403
▁농어	-15404
▁당분	-15405
▁석재	-15406
▁신관	-15407
▁어둡	-15408
▁여정	-15409
▁위크	-15410
▁장준	-15411
▁주군	-15412
▁집사	-15413
▁해커	-15414
가하라	-15415
▁수요일	-15416
▁용인시	-15417
▁통신망	-15418
ition	-15419
▁공군기지	-15420
▁일본서기	-15421
▁트랜지스터	-15422
림사	-15423
▁남아	-15424
▁노엘	-15425
▁늘렸	-15426
▁레비	-15427
▁부윤	-15428
▁사하	-15429
▁쇠약	-15430
▁앙상	-15431
▁열거	-15432
▁영위	-15433
▁오딘	-15434
▁준하	-15435
▁화원	-15436
▁급기야	-15437
▁남북조	-15438
▁성명서	-15439
▁수원시	-15440
▁스테이	-15441
▁오리엔	-15442
▁청구인	-15443
▁베르사유	-15444
▁시킨다는	-15445
▁벚	-15446
산동	-15447
스레	-15448
▁강가	-15449
▁거문	-15450
▁거액	-15451
▁권세	-15452
▁금기	-15453
▁나한	-15454
▁디바	-15455
▁문수	-15456
▁밑면	-15457
▁벵골	-15458
▁요가	-15459
▁유장	-15460
▁초석	-15461
▁퀘이	-15462
▁하남	-15463
▁해자	-15464
▁호소카와	-15465
▁BR	-15466
▁동맥	-15467
▁발자	-15468
▁보육	-15469
▁스플	-15470
▁슬리	-15471
▁아델	-15472
▁육박	-15473
▁컵스	-15474
▁어려울	-15475
▁컨설팅	-15476
라이어티	-15477
▁플랑드르	-15478
▁버라이어티	-15479
▁세키가하라	-15480
▁랙	-15481
고사	-15482
▁군림	-15483
▁로브	-15484
▁매복	-15485
▁명장	-15486
▁수문	-15487
▁야권	-15488
▁이카	-15489
▁천구	-15490
▁한참	-15491
▁혼돈	-15492
▁Raw	-15493
▁가요제	-15494
▁데니스	-15495
▁아이작	-15496
TF	-15497
au	-15498
코르	-15499
▁견지	-15500
▁도독	-15501
▁듀스	-15502
▁리에	-15503
▁정읍	-15504
▁청탁	-15505
▁평신	-15506
▁건널목	-15507
▁대항해	-15508
▁됐으나	-15509
▁안중근	-15510
▁마그네슘	-15511
▁병마절도사	-15512
당류	-15513
탄올	-15514
▁고해	-15515
▁교우	-15516
▁김학	-15517
▁내게	-15518
▁레아	-15519
▁봐야	-15520
▁시차	-15521
▁악역	-15522
▁에뮬	-15523
▁키트	-15524
▁튜링	-15525
▁특혜	-15526
▁맞대결	-15527
▁베르트	-15528
▁베테랑	-15529
▁사다리	-15530
▁올라갈	-15531
▁유전체	-15532
▁케이트	-15533
▁가르시아	-15534
▁그린란드	-15535
▁들어와서	-15536
▁Dream	-15537
삼문	-15538
싸움	-15539
재란	-15540
▁권하	-15541
▁닷컴	-15542
▁데드	-15543
▁라테	-15544
▁리자	-15545
▁본기	-15546
▁살피	-15547
▁성찬	-15548
▁슬퍼	-15549
▁잇달	-15550
▁종실	-15551
▁게이오	-15552
▁기뻐하	-15553
▁기획사	-15554
▁라이스	-15555
▁사법부	-15556
▁사업소	-15557
▁통계청	-15558
▁정유재란	-15559
▁Heart	-15560
급시	-15561
범죄	-15562
트론	-15563
ION	-15564
▁Ag	-15565
▁뉴잉	-15566
▁동률	-15567
▁발작	-15568
▁선회	-15569
▁소탕	-15570
▁청군	-15571
▁MIT	-15572
▁뉴올리	-15573
▁단체전	-15574
▁방법론	-15575
▁벤피카	-15576
▁사할린	-15577
▁아세틸	-15578
▁영사관	-15579
▁1815	-15580
▁당했으며	-15581
▁받아들일	-15582
▁유럽연합	-15583
▁그리스도인	-15584
가야	-15585
나모	-15586
산부	-15587
세르	-15588
쿠르	-15589
프랑	-15590
▁가든	-15591
▁감탄	-15592
▁규장	-15593
▁노라	-15594
▁도정	-15595
▁려다	-15596
▁로시	-15597
▁리시	-15598
▁비긴	-15599
▁새기	-15600
▁연하	-15601
▁위트	-15602
선거구	-15603
▁내려온	-15604
▁댈러스	-15605
▁러서는	-15606
▁잇따라	-15607
▁제노바	-15608
▁드러난다	-15609
▁아나키즘	-15610
▁오스트로	-15611
▁와타나베	-15612
▁슌	-15613
개석	-15614
무실	-15615
▁DR	-15616
▁Sm	-15617
▁견습	-15618
▁권익	-15619
▁냉방	-15620
▁논평	-15621
▁니즈	-15622
▁본진	-15623
▁생포	-15624
▁선단	-15625
▁수렵	-15626
▁안면	-15627
▁액수	-15628
▁전미	-15629
▁종친	-15630
▁탄성	-15631
▁토의	-15632
▁특명	-15633
▁핼리	-15634
▁호찌	-15635
▁간호사	-15636
▁건너갔	-15637
▁동일시	-15638
▁사천왕	-15639
▁영문학	-15640
▁합쳐서	-15641
▁신노스케	-15642
▁클라이맥스	-15643
루즈	-15644
▁볼드	-15645
▁새뮤	-15646
▁생장	-15647
▁씨름	-15648
▁연좌	-15649
▁채집	-15650
▁코뮌	-15651
▁합방	-15652
고라스	-15653
▁라쿠텐	-15654
▁연구실	-15655
▁인문학	-15656
▁좀처럼	-15657
▁하카타	-15658
▁향신료	-15659
스트리트	-15660
FS	-15661
ict	-15662
▁CA	-15663
▁나투	-15664
▁마한	-15665
▁망가	-15666
▁부녀	-15667
▁부전	-15668
▁신숙	-15669
▁여생	-15670
▁완투	-15671
▁워킹	-15672
▁이뤘	-15673
▁참정	-15674
▁키웠	-15675
▁트램	-15676
▁한가	-15677
▁합산	-15678
▁계약금	-15679
▁셀레우	-15680
▁시그마	-15681
▁창립자	-15682
▁출판물	-15683
▁카리스	-15684
▁1858	-15685
▁관음보살	-15686
▁아이파크	-15687
▁이루어질	-15688
▁필리포스	-15689
▁협동조합	-15690
암사	-15691
▁wh	-15692
▁굴욕	-15693
▁꾸미	-15694
▁도보	-15695
▁따지	-15696
▁무가	-15697
▁미숙	-15698
▁발송	-15699
▁분담	-15700
▁성간	-15701
▁영성	-15702
▁처칠	-15703
▁행운	-15704
▁도나우	-15705
▁로이드	-15706
▁무너져	-15707
▁앙골라	-15708
▁행정동	-15709
▁뮈	-15710
디슨	-15711
부미	-15712
연료	-15713
▁sh	-15714
▁김천	-15715
▁덕수	-15716
▁변방	-15717
▁성자	-15718
▁아노	-15719
▁이부	-15720
▁정중	-15721
▁최순	-15722
▁퇴계	-15723
▁효용	-15724
▁더구나	-15725
▁돋보이	-15726
▁마피아	-15727
▁무지개	-15728
▁부제학	-15729
▁브루크	-15730
▁어리석	-15731
▁제프리	-15732
▁즐거움	-15733
▁해수면	-15734
▁마음대로	-15735
▁네이션스컵	-15736
▁코퍼레이션	-15737
▁볶	-15738
마타	-15739
질량	-15740
▁개전	-15741
▁격상	-15742
▁균열	-15743
▁노하	-15744
▁무비	-15745
▁아연	-15746
▁아흐	-15747
▁안주	-15748
▁양념	-15749
▁울루	-15750
▁접목	-15751
▁지단	-15752
▁참배	-15753
▁철기	-15754
▁코모	-15755
▁헤임	-15756
루이스	-15757
이스케	-15758
▁Art	-15759
▁가져갔	-15760
▁백두산	-15761
▁보호법	-15762
▁앙상블	-15763
▁은하단	-15764
▁항공편	-15765
▁뉴잉글랜드	-15766
▁안티고노스	-15767
▁탭	-15768
비크	-15769
▁군비	-15770
▁군집	-15771
▁김희	-15772
▁담장	-15773
▁대열	-15774
▁변천	-15775
▁분개	-15776
▁사조	-15777
▁수퍼	-15778
▁의대	-15779
▁인삼	-15780
▁중남	-15781
▁홀리	-15782
▁건너편	-15783
▁야구단	-15784
▁올라온	-15785
▁이론가	-15786
▁티무르	-15787
▁플래닛	-15788
▁디렉터리	-15789
▁그리스도교	-15790
▁포르투갈어	-15791
DI	-15792
▁日	-15793
▁교주	-15794
▁군국	-15795
▁기권	-15796
▁기근	-15797
▁끊이	-15798
▁농작	-15799
▁대세	-15800
▁도식	-15801
▁멜라	-15802
▁부화	-15803
▁아지	-15804
▁오랑	-15805
▁윤선	-15806
▁차차	-15807
▁카툰	-15808
▁필살	-15809
▁화북	-15810
▁에세이	-15811
▁청주시	-15812
▁히로부미	-15813
연의	-15814
▁거품	-15815
▁도색	-15816
▁박중	-15817
▁불평	-15818
▁사흘	-15819
▁선과	-15820
▁선방	-15821
▁수구	-15822
▁제학	-15823
▁충동	-15824
▁탄광	-15825
▁팔자	-15826
▁항모	-15827
▁회차	-15828
▁새뮤얼	-15829
▁펼쳐지	-15830
▁호기심	-15831
▁1801	-15832
▁천연가스	-15833
▁라이베리아	-15834
심원	-15835
효소	-15836
▁"》	-15837
▁VS	-15838
▁공해	-15839
▁궁예	-15840
▁몰입	-15841
▁무쓰	-15842
▁바투	-15843
▁소정	-15844
▁억류	-15845
▁영암	-15846
▁이견	-15847
▁작자	-15848
▁정철	-15849
▁증류	-15850
▁코사	-15851
▁테살	-15852
▁비올라	-15853
▁돼지고기	-15854
▁로베르토	-15855
▁이베리아	-15856
센터	-15857
양이	-15858
작전	-15859
uck	-15860
▁고요	-15861
▁과달	-15862
▁뉴멕	-15863
▁동체	-15864
▁맞섰	-15865
▁버러	-15866
▁스쿼	-15867
▁접시	-15868
▁정일	-15869
▁킹스	-15870
▁폴라	-15871
▁홍성	-15872
▁무사시	-15873
▁생성물	-15874
▁외삼촌	-15875
▁저지르	-15876
▁트레일	-15877
▁펠로폰	-15878
▁뉴멕시코	-15879
▁스테이트	-15880
▁암모니아	-15881
▁펠로폰네소스	-15882
민정	-15883
천동	-15884
▁HP	-15885
▁급습	-15886
▁더라	-15887
▁매번	-15888
▁속국	-15889
▁오와	-15890
▁음양	-15891
▁응력	-15892
▁에다가	-15893
▁오비탈	-15894
▁1776	-15895
▁일렉트릭	-15896
LA	-15897
▁싯	-15898
니언	-15899
쳐서	-15900
▁로컬	-15901
▁마나	-15902
▁바인	-15903
▁사죄	-15904
▁열망	-15905
▁자의	-15906
▁학급	-15907
▁후루	-15908
트로피	-15909
▁시나노	-15910
▁실린더	-15911
▁오토모	-15912
▁참모장	-15913
▁추밀원	-15914
▁태블릿	-15915
▁건국훈장	-15916
▁레닌주의	-15917
▁요코스카	-15918
▁짠	-15919
▁펭	-15920
수단	-15921
어냈	-15922
▁교감	-15923
▁귀여	-15924
▁꼬마	-15925
▁소홀	-15926
▁에레	-15927
▁역동	-15928
▁오도	-15929
▁유폐	-15930
▁으뜸	-15931
▁잉크	-15932
▁전액	-15933
▁조식	-15934
▁패주	-15935
▁효성	-15936
▁꽃받침	-15937
▁작품상	-15938
▁합쳐져	-15939
▁울산광역시	-15940
군다	-15941
기둥	-15942
니발	-15943
루엔	-15944
ark	-15945
▁기교	-15946
▁안락	-15947
▁이색	-15948
▁제보	-15949
▁지아	-15950
▁추위	-15951
▁카로	-15952
▁티모	-15953
▁풍기	-15954
▁홀딩	-15955
▁204	-15956
▁공로자	-15957
▁김종필	-15958
▁다닌다	-15959
▁모여서	-15960
▁전시관	-15961
▁절대로	-15962
▁프라임	-15963
▁다리우스	-15964
▁저널리스트	-15965
▁훅	-15966
▁강진	-15967
▁걸맞	-15968
▁루머	-15969
▁미러	-15970
▁상이	-15971
▁실태	-15972
▁양원	-15973
▁익주	-15974
▁라이온스	-15975
▁통합진보당	-15976
▁밧	-15977
▁팻	-15978
레반	-15979
▁고압	-15980
▁과부	-15981
▁급사	-15982
▁나날	-15983
▁도량	-15984
▁반민	-15985
▁습도	-15986
▁온전	-15987
▁우기	-15988
▁위즈	-15989
▁정맥	-15990
▁코로	-15991
▁태워	-15992
▁피자	-15993
스크림	-15994
▁235	-15995
▁경기력	-15996
▁공학자	-15997
▁베이직	-15998
▁보리스	-15999
▁여객선	-16000
▁향한다	-16001
▁조선왕조실록	-16002
덱스	-16003
연맹	-16004
ype	-16005
▁경이	-16006
▁깜짝	-16007
▁랜덤	-16008
▁무왕	-16009
▁반야	-16010
▁술집	-16011
▁연유	-16012
▁왕좌	-16013
▁장경	-16014
▁지층	-16015
▁치가	-16016
▁쿠마	-16017
로세서	-16018
스트림	-16019
▁개막식	-16020
▁교육감	-16021
▁레코딩	-16022
▁마코토	-16023
▁명륜당	-16024
▁정확도	-16025
▁포르노	-16026
▁디비시온	-16027
▁서프랑크	-16028
▁여러해살이풀	-16029
날드	-16030
전차	-16031
▁HS	-16032
▁교묘	-16033
▁구아	-16034
▁느슨	-16035
▁덧셈	-16036
▁무진	-16037
▁문성	-16038
▁반증	-16039
▁빅터	-16040
▁성제	-16041
▁소인	-16042
▁영월	-16043
▁장서	-16044
▁청중	-16045
▁드러난	-16046
▁디에고	-16047
▁시공간	-16048
▁직할시	-16049
▁취약점	-16050
▁형무소	-16051
▁엔트로피	-16052
▁텍사스주	-16053
▁팍	-16054
개혁	-16055
르바	-16056
큐슈	-16057
ash	-16058
▁기물	-16059
▁말갈	-16060
▁카다	-16061
▁코마	-16062
▁화교	-16063
▁개찰기	-16064
▁시아파	-16065
▁어도비	-16066
▁유명세	-16067
▁지평선	-16068
▁찾아온	-16069
▁트로트	-16070
▁나왔으며	-16071
▁세르게이	-16072
르카	-16073
림픽	-16074
현실	-16075
▁낙랑	-16076
▁달렸	-16077
▁매춘	-16078
▁스커	-16079
▁여긴	-16080
▁예일	-16081
▁음역	-16082
▁호지	-16083
▁가입자	-16084
▁단기간	-16085
▁려다가	-16086
▁선언문	-16087
▁외무성	-16088
▁트랜싯	-16089
▁필리스	-16090
▁블리자드	-16091
▁플로리다주	-16092
▁챠	-16093
▁탬	-16094
몽골	-16095
처리	-16096
gin	-16097
▁그란	-16098
▁매기	-16099
▁비욘	-16100
▁사파	-16101
▁양양	-16102
▁에나	-16103
▁오트	-16104
▁장타	-16105
▁줄였	-16106
▁키타	-16107
▁태세	-16108
▁프루	-16109
▁Her	-16110
▁그려지	-16111
▁디렉터	-16112
▁리그전	-16113
▁여행자	-16114
▁이케다	-16115
▁입출력	-16116
▁조합원	-16117
▁포위망	-16118
▁항생제	-16119
▁빠져나가	-16120
▁서스펜션	-16121
▁이해관계	-16122
▁탄수화물	-16123
NT	-16124
▁±	-16125
▁구석	-16126
▁국면	-16127
▁베가	-16128
▁본적	-16129
▁불능	-16130
▁올레	-16131
▁유재	-16132
▁이철	-16133
▁청송	-16134
▁총액	-16135
▁탄원	-16136
▁학도	-16137
▁시에라	-16138
▁여긴다	-16139
▁렬	-16140
개명	-16141
광선	-16142
레앙	-16143
본부	-16144
선교	-16145
ade	-16146
ala	-16147
▁괴뢰	-16148
▁변장	-16149
▁본능	-16150
▁사일	-16151
▁와해	-16152
▁해일	-16153
▁건륭제	-16154
▁남조선	-16155
▁통계학	-16156
▁끌어들이	-16157
▁받아들인	-16158
▁둠	-16159
▁랠	-16160
람스	-16161
우어	-16162
전쟁	-16163
▁과업	-16164
▁머큐	-16165
▁미아	-16166
▁선별	-16167
▁압송	-16168
▁열풍	-16169
▁예속	-16170
▁재야	-16171
▁찬탈	-16172
▁초판	-16173
▁토키	-16174
▁풍요	-16175
▁NBC	-16176
▁분류군	-16177
▁사이공	-16178
▁서둘러	-16179
▁싫어하	-16180
▁취한다	-16181
▁퀘스트	-16182
▁프린터	-16183
▁카롤루스	-16184
▁민족주의자	-16185
▁돗	-16186
모닉	-16187
지않	-16188
▁고갈	-16189
▁단양	-16190
▁던전	-16191
▁몸집	-16192
▁버릴	-16193
▁세일	-16194
▁옥상	-16195
▁이게	-16196
▁조어	-16197
▁직권	-16198
▁총살	-16199
▁총생	-16200
▁틀림	-16201
▁거머쥐	-16202
▁배수량	-16203
▁수도사	-16204
▁수번뇌	-16205
▁현급시	-16206
▁1793	-16207
▁1814	-16208
▁슈퍼스타	-16209
▁창씨개명	-16210
▁꼼	-16211
▁큼	-16212
등기	-16213
훈련	-16214
▁갑판	-16215
▁도부	-16216
▁문교	-16217
▁미묘	-16218
▁베크	-16219
▁상동	-16220
▁섬겼	-16221
▁슐레	-16222
▁에볼	-16223
▁잔치	-16224
▁치수	-16225
▁콤비	-16226
▁함의	-16227
▁헤엄	-16228
그래피	-16229
▁LCD	-16230
▁도지사	-16231
▁무정부	-16232
▁볼프강	-16233
▁원한다	-16234
MP	-16235
는점	-16236
연대	-16237
적분	-16238
ton	-16239
und	-16240
▁고취	-16241
▁광종	-16242
▁도화	-16243
▁마흐	-16244
▁분쇄	-16245
▁소관	-16246
▁약품	-16247
▁이각	-16248
▁이홍	-16249
▁특공	-16250
레우스	-16251
▁대주주	-16252
▁사림파	-16253
▁특이점	-16254
▁오브젝트	-16255
▁이바라키	-16256
▁레닌그라드	-16257
려야	-16258
서니	-16259
천면	-16260
▁Mi	-16261
▁sc	-16262
▁we	-16263
▁각광	-16264
▁결집	-16265
▁기형	-16266
▁낭독	-16267
▁내림	-16268
▁다쓰	-16269
▁레트	-16270
▁모질	-16271
▁반열	-16272
▁베라	-16273
▁부트	-16274
▁수아	-16275
▁식년	-16276
▁양손	-16277
▁총체	-16278
▁춘향	-16279
▁허구	-16280
▁효모	-16281
▁갖가지	-16282
▁농작물	-16283
▁당뇨병	-16284
▁액티브	-16285
▁웨슬리	-16286
▁타일러	-16287
▁핵연료	-16288
▁휴게소	-16289
▁Best	-16290
▁다카하시	-16291
▁반공주의	-16292
▁엑스박스	-16293
모자	-16294
시게	-16295
▁Gu	-16296
▁고증	-16297
▁노마	-16298
▁능통	-16299
▁미완	-16300
▁반달	-16301
▁배드	-16302
▁보아	-16303
▁비기	-16304
▁스펙	-16305
▁언젠	-16306
▁욕심	-16307
▁율곡	-16308
▁이덕	-16309
▁인먼	-16310
▁쟁점	-16311
▁추궁	-16312
▁편하	-16313
▁노스케	-16314
▁손바닥	-16315
▁조계종	-16316
▁트루먼	-16317
▁1839	-16318
▁1846	-16319
▁Kore	-16320
▁몽고메리	-16321
▁사탕수수	-16322
▁켓	-16323
실험	-16324
ata	-16325
iel	-16326
▁계룡	-16327
▁라임	-16328
▁문맥	-16329
▁수배	-16330
▁수의	-16331
▁스킨	-16332
▁야만	-16333
▁유카	-16334
▁지회	-16335
▁데려가	-16336
▁무찌르	-16337
▁암스트	-16338
▁재결합	-16339
▁포위전	-16340
▁물리학상	-16341
▁생물학자	-16342
▁삼국지연의	-16343
▁기일	-16344
▁예견	-16345
▁온두	-16346
▁요도	-16347
▁용접	-16348
▁지터	-16349
▁찬스	-16350
▁석회암	-16351
▁리하르트	-16352
▁온두라스	-16353
▁막시밀리안	-16354
▁강판	-16355
▁광택	-16356
▁군도	-16357
▁귀납	-16358
▁도표	-16359
▁변조	-16360
▁에두	-16361
▁유위	-16362
▁재원	-16363
▁전집	-16364
▁첨부	-16365
▁초당	-16366
▁타고	-16367
▁통찰	-16368
▁모터쇼	-16369
▁무너졌	-16370
▁소송법	-16371
▁영화상	-16372
▁1300	-16373
▁소용돌이	-16374
▁자연주의	-16375
리드	-16376
▁교포	-16377
▁단호	-16378
▁마신	-16379
▁모를	-16380
▁민가	-16381
▁박경	-16382
▁벤츠	-16383
▁세도	-16384
▁습윤	-16385
▁아약	-16386
▁의금	-16387
▁제비	-16388
▁존엄	-16389
▁진성	-16390
▁해금	-16391
▁관동군	-16392
▁기네스	-16393
▁앞장섰	-16394
▁제품군	-16395
▁콜린스	-16396
▁태양광	-16397
▁1795	-16398
▁패럴림픽	-16399
▁셀레우코스	-16400
ode	-16401
▁각별	-16402
▁건안	-16403
▁경멸	-16404
▁구면	-16405
▁구시	-16406
▁난입	-16407
▁당사	-16408
▁두부	-16409
▁배울	-16410
▁부기	-16411
▁비참	-16412
▁산인	-16413
▁연임	-16414
▁인출	-16415
▁조만	-16416
▁지치	-16417
▁차분	-16418
▁표했	-16419
▁회부	-16420
▁겨울철	-16421
▁권력자	-16422
▁수증기	-16423
▁전년도	-16424
▁John	-16425
▁콜럼버스	-16426
▁윔	-16427
네프	-16428
두사	-16429
벤션	-16430
yle	-16431
▁가모	-16432
▁대정	-16433
▁두껍	-16434
▁모빌	-16435
▁무소	-16436
▁발열	-16437
▁서안	-16438
▁일보	-16439
▁제식	-16440
▁천적	-16441
▁퇴화	-16442
▁하체	-16443
정보부	-16444
▁Ser	-16445
▁게이머	-16446
▁남반구	-16447
▁독립국	-16448
▁사무관	-16449
▁유가족	-16450
▁좋아했	-16451
▁지방산	-16452
▁코로나	-16453
▁표준어	-16454
▁합병증	-16455
▁고바야시	-16456
▁테크놀로지	-16457
▁MT	-16458
▁Tw	-16459
▁Vf	-16460
▁pr	-16461
▁계략	-16462
▁고하	-16463
▁김시	-16464
▁마틸	-16465
▁버퍼	-16466
▁스펜	-16467
▁이만	-16468
▁준위	-16469
▁처했	-16470
▁천명	-16471
▁투병	-16472
▁광화문	-16473
▁북반구	-16474
▁지도력	-16475
▁권위주의	-16476
▁그래픽스	-16477
경궁	-16478
그램	-16479
시험	-16480
토쿠	-16481
티지	-16482
inc	-16483
▁As	-16484
▁Mr	-16485
▁괴팅	-16486
▁교명	-16487
▁궤멸	-16488
▁도파	-16489
▁말러	-16490
▁삼척	-16491
▁셀룰	-16492
▁실습	-16493
▁심플	-16494
▁에픽	-16495
▁잊혀	-16496
▁장지	-16497
▁중학	-16498
▁탄환	-16499
▁희박	-16500
▁256	-16501
▁아약스	-16502
▁웨이브	-16503
▁크레타	-16504
▁후견인	-16505
▁국가원수	-16506
ble	-16507
▁Gl	-16508
▁기욤	-16509
▁김은	-16510
▁나탈	-16511
▁라크	-16512
▁마늘	-16513
▁문어	-16514
▁성교	-16515
▁숭실	-16516
▁승전	-16517
▁안톤	-16518
▁역습	-16519
▁오호	-16520
▁윈드	-16521
▁으론	-16522
▁종가	-16523
▁쪼개	-16524
▁폐단	-16525
▁후시	-16526
▁흡입	-16527
더니즘	-16528
▁분홍색	-16529
▁와이어	-16530
▁유기체	-16531
▁유리수	-16532
▁좌찬성	-16533
▁준다고	-16534
▁친환경	-16535
▁NATO	-16536
▁모후	-16537
▁불펜	-16538
▁사계	-16539
▁상체	-16540
▁소포	-16541
▁식이	-16542
▁입적	-16543
▁컬링	-16544
▁판별	-16545
▁현수	-16546
니쿠스	-16547
루리아	-16548
정대부	-16549
코비치	-16550
▁737	-16551
▁스텔스	-16552
▁콜라보	-16553
▁후백제	-16554
AX	-16555
GA	-16556
ng	-16557
모음	-16558
▁가전	-16559
▁감기	-16560
▁관저	-16561
▁다지	-16562
▁들였	-16563
▁원균	-16564
▁착안	-16565
▁출진	-16566
▁팀장	-16567
▁NGC	-16568
▁돌려주	-16569
▁부사장	-16570
▁쓰러져	-16571
▁오우치	-16572
▁조교수	-16573
▁풀려나	-16574
▁기독교인	-16575
▁여주인공	-16576
▁탄자니아	-16577
여객	-16578
욕장	-16579
▁》·	-16580
▁개간	-16581
▁교란	-16582
▁독려	-16583
▁모닝	-16584
▁예편	-16585
▁인제	-16586
▁장승	-16587
▁직함	-16588
▁코딩	-16589
▁피질	-16590
▁허난	-16591
▁현악	-16592
메데스	-16593
파니아	-16594
▁머큐리	-16595
▁브릿지	-16596
▁연습생	-16597
▁우승컵	-16598
▁재판장	-16599
▁치료법	-16600
▁1857	-16601
고트	-16602
누마	-16603
데냐	-16604
▁Dr	-16605
▁국과	-16606
▁내역	-16607
▁리브	-16608
▁리안	-16609
▁리퍼	-16610
▁사옥	-16611
▁송병	-16612
▁이로	-16613
▁페미	-16614
▁홍명	-16615
able	-16616
▁국무부	-16617
▁마에다	-16618
▁서남쪽	-16619
▁셰퍼드	-16620
▁아르테	-16621
▁아테나	-16622
▁1849	-16623
▁돌아온다	-16624
▁모자이크	-16625
▁사르데냐	-16626
▁뵈	-16627
마을	-16628
▁Im	-16629
▁》《	-16630
▁가온	-16631
▁광경	-16632
▁구나	-16633
▁국산	-16634
▁납품	-16635
▁멘토	-16636
▁무당	-16637
▁비호	-16638
▁선지	-16639
▁수찬	-16640
▁어기	-16641
▁웍스	-16642
▁월경	-16643
▁카야	-16644
▁호골	-16645
▁Vol	-16646
▁you	-16647
▁메신저	-16648
▁서보장	-16649
▁서초구	-16650
▁전주시	-16651
▁평화상	-16652
▁필하모닉	-16653
▁Black	-16654
▁중앙정보부	-16655
무지	-16656
상어	-16657
티넨	-16658
ose	-16659
▁감명	-16660
▁관악	-16661
▁누각	-16662
▁달콤	-16663
▁아열	-16664
▁오니	-16665
▁지어	-16666
▁청정	-16667
▁포탈	-16668
▁현명	-16669
고로드	-16670
▁Out	-16671
▁언젠가	-16672
▁외교부	-16673
▁원정대	-16674
▁지원자	-16675
▁피드백	-16676
▁해설자	-16677
▁Record	-16678
샤오	-16679
하늘	-16680
▁Ge	-16681
▁내쫓	-16682
▁도난	-16683
▁맞닿	-16684
▁박동	-16685
▁석상	-16686
▁원곡	-16687
▁적재	-16688
▁전곡	-16689
▁지반	-16690
▁품목	-16691
▁가로막	-16692
▁낙하산	-16693
▁스레드	-16694
▁잎자루	-16695
▁지난해	-16696
▁창덕궁	-16697
▁항공대	-16698
ox	-16699
날두	-16700
린트	-16701
▁YM	-16702
▁가변	-16703
▁변증	-16704
▁블랑	-16705
▁우디	-16706
▁장조	-16707
▁점심	-16708
▁츠카	-16709
▁켈빈	-16710
▁계약서	-16711
▁수메르	-16712
▁에버턴	-16713
▁호날두	-16714
▁피타고라스	-16715
사회	-16716
체어	-16717
▁까다	-16718
▁남로	-16719
▁도기	-16720
▁벽면	-16721
▁상투	-16722
▁쌓여	-16723
▁아픔	-16724
▁여순	-16725
▁역행	-16726
▁자락	-16727
▁정시	-16728
▁조참	-16729
▁지워	-16730
▁호가	-16731
▁도승지	-16732
▁진정한	-16733
▁암스트롱	-16734
▁광주광역시	-16735
알라	-16736
▁간소	-16737
▁개리	-16738
▁공보	-16739
▁노회	-16740
▁레크	-16741
▁방조	-16742
▁세스	-16743
▁슈뢰	-16744
▁착한	-16745
▁현청	-16746
▁늘어난	-16747
▁모델링	-16748
▁쓰러지	-16749
▁유격대	-16750
▁일간지	-16751
▁총생산	-16752
▁해인사	-16753
▁움직인다	-16754
▁펙	-16755
▁펩	-16756
렐라	-16757
스탕	-16758
여왕	-16759
▁기악	-16760
▁베티	-16761
▁상시	-16762
▁양동	-16763
▁욕설	-16764
▁이한	-16765
▁재심	-16766
▁하순	-16767
▁항문	-16768
▁허들	-16769
▁구석기	-16770
▁동북부	-16771
▁보라색	-16772
▁에이브	-16773
▁잠재력	-16774
▁쫓아내	-16775
▁컨벤션	-16776
▁1820	-16777
▁촘	-16778
▁BO	-16779
▁걸로	-16780
▁속현	-16781
▁수마	-16782
▁연어	-16783
▁이구	-16784
▁인신	-16785
▁직제	-16786
▁카슈	-16787
▁토유	-16788
▁호국	-16789
▁베르타	-16790
▁앨버트	-16791
▁한마디	-16792
▁알베르트	-16793
▁크리스티나	-16794
▁갯	-16795
▁캣	-16796
▁쿰	-16797
▁Cr	-16798
▁감히	-16799
▁경치	-16800
▁내시	-16801
▁니트	-16802
▁미켈	-16803
▁앙주	-16804
▁양정	-16805
피에르	-16806
▁로저스	-16807
▁제이슨	-16808
▁클레오	-16809
▁휠체어	-16810
▁Baby	-16811
▁ICBM	-16812
▁미스터리	-16813
▁스파이더	-16814
▁뉴올리언스	-16815
▁얄	-16816
▁쩐	-16817
꼬리	-16818
스텐	-16819
운전	-16820
OCA	-16821
▁NM	-16822
▁돈녕	-16823
▁멜론	-16824
▁미약	-16825
▁숙성	-16826
▁예프	-16827
▁원사	-16828
▁원제	-16829
▁치킨	-16830
▁쿠페	-16831
▁크세	-16832
▁포진	-16833
토리코	-16834
▁대니얼	-16835
▁루카스	-16836
▁벌어들	-16837
▁1855	-16838
▁부위원장	-16839
▁아브라함	-16840
▁좋아한다	-16841
▁아이스크림	-16842
yn	-16843
울루	-16844
▁공덕	-16845
▁김도	-16846
▁남궁	-16847
▁내구	-16848
▁마왕	-16849
▁만연	-16850
▁바일	-16851
▁서곡	-16852
▁윤회	-16853
▁정과	-16854
▁집현	-16855
▁초보	-16856
▁출소	-16857
▁카와	-16858
▁코우	-16859
▁테헤	-16860
▁한서	-16861
▁헌제	-16862
하우스	-16863
▁340	-16864
▁글리코	-16865
▁기부금	-16866
▁기생충	-16867
▁만주족	-16868
▁비정규	-16869
▁서북쪽	-16870
▁시부야	-16871
▁에이지	-16872
▁영화관	-16873
▁우체국	-16874
▁정말로	-16875
▁중학생	-16876
▁혁명가	-16877
▁매일신보	-16878
워즈	-16879
즈미	-16880
테일	-16881
▁qu	-16882
▁고창	-16883
▁라프	-16884
▁레티	-16885
▁비약	-16886
▁수프	-16887
▁승단	-16888
▁시주	-16889
▁야코	-16890
▁예금	-16891
▁예멘	-16892
▁요셉	-16893
▁인대	-16894
▁착오	-16895
▁촌락	-16896
▁친하	-16897
▁내세운	-16898
▁움직여	-16899
▁인류학	-16900
▁흰개미	-16901
▁1854	-16902
▁세계유산	-16903
▁세르비아인	-16904
EP	-16905
데오	-16906
렌스	-16907
▁'.	-16908
▁미트	-16909
▁섬멸	-16910
▁시타	-16911
▁청렴	-16912
▁출제	-16913
▁칠성	-16914
▁템플	-16915
▁Win	-16916
▁바실리	-16917
▁알칼리	-16918
▁드래곤즈	-16919
▁알프레드	-16920
▁토스카나	-16921
▁둑	-16922
던트	-16923
룬궁	-16924
방스	-16925
ail	-16926
ina	-16927
▁구례	-16928
▁놓쳤	-16929
▁듀엣	-16930
▁설법	-16931
▁시시	-16932
▁열광	-16933
▁종주	-16934
▁참봉	-16935
▁동북쪽	-16936
▁재정난	-16937
▁치른다	-16938
▁통도사	-16939
▁파룬궁	-16940
▁크리스탈	-16941
▁잼	-16942
던스	-16943
붙이	-16944
isc	-16945
▁권투	-16946
▁난간	-16947
▁난자	-16948
▁대광	-16949
▁루손	-16950
▁새턴	-16951
▁소란	-16952
▁시동	-16953
▁유창	-16954
▁이선	-16955
▁전륜	-16956
▁접착	-16957
▁주살	-16958
▁한라	-16959
루엔자	-16960
▁공격력	-16961
▁조각가	-16962
▁후쿠오카현	-16963
▁웜	-16964
승람	-16965
▁국고	-16966
▁넓혔	-16967
▁만기	-16968
▁분양	-16969
▁소도	-16970
▁오메	-16971
▁유관	-16972
▁임사	-16973
▁정공	-16974
▁제고	-16975
▁주술	-16976
▁총지	-16977
▁택지	-16978
▁호엔	-16979
▁후추	-16980
렸으나	-16981
ount	-16982
▁거둔다	-16983
▁광합성	-16984
▁데뷔작	-16985
▁루터교	-16986
▁시트콤	-16987
▁엑스선	-16988
▁원정군	-16989
▁유학생	-16990
▁픽처스	-16991
▁마르쿠스	-16992
▁푸에르토리코	-16993
금속	-16994
레토	-16995
바꿈	-16996
어난	-16997
화산	-16998
▁RP	-16999
▁《"	-17000
▁깁슨	-17001
▁리서	-17002
▁마도	-17003
▁성조	-17004
▁섹션	-17005
▁손오	-17006
▁수뇌	-17007
▁이설	-17008
▁제향	-17009
▁트론	-17010
▁혹평	-17011
▁FBI	-17012
▁공직자	-17013
▁다시피	-17014
▁엉덩이	-17015
▁요금소	-17016
▁캅카스	-17017
▁핵폭탄	-17018
▁Song	-17019
▁떨어뜨리	-17020
▁자유민주	-17021
▁콘테스트	-17022
▁아우구스트	-17023
80	-17024
▁之	-17025
▁읊	-17026
▁AI	-17027
▁각인	-17028
▁골수	-17029
▁김석	-17030
▁로런	-17031
▁미망	-17032
▁박태	-17033
▁부총	-17034
▁세제	-17035
▁스팀	-17036
▁엠블	-17037
▁제헌	-17038
▁젤리	-17039
▁조력	-17040
▁Mac	-17041
▁배상금	-17042
▁스나이	-17043
▁찾아갔	-17044
▁1791	-17045
60	-17046
▁DO	-17047
▁강구	-17048
▁리츠	-17049
▁미디	-17050
▁부응	-17051
▁산체	-17052
▁설사	-17053
▁잔당	-17054
▁즉흥	-17055
▁편수	-17056
▁가까웠	-17057
▁규장각	-17058
▁대학살	-17059
▁바나나	-17060
▁보르도	-17061
▁수수료	-17062
▁시게루	-17063
▁캐스터	-17064
▁델라웨어	-17065
▁무궁화호	-17066
▁베오그라드	-17067
▁안토니우스	-17068
EA	-17069
▁퀼	-17070
▁냉정	-17071
▁레저	-17072
▁샤프	-17073
▁연사	-17074
▁웅장	-17075
▁원망	-17076
▁카노	-17077
▁태상	-17078
▁황보	-17079
▁802	-17080
▁EBS	-17081
▁접근성	-17082
▁현저히	-17083
▁후반부	-17084
▁미성년자	-17085
▁름	-17086
로로	-17087
▁나일	-17088
▁롤러	-17089
▁맨틀	-17090
▁문묘	-17091
▁번번	-17092
▁봐서	-17093
▁상온	-17094
▁순정	-17095
▁신빙	-17096
▁어쩌	-17097
▁이달	-17098
▁전극	-17099
▁키리	-17100
▁홀드	-17101
▁히코	-17102
레이즈	-17103
▁XML	-17104
▁개최지	-17105
▁명백히	-17106
▁예수교	-17107
▁유목민	-17108
주사	-17109
▁FS	-17110
▁mu	-17111
▁독소	-17112
▁뭔가	-17113
▁소마	-17114
▁시경	-17115
▁시료	-17116
▁시영	-17117
▁어진	-17118
▁인솔	-17119
▁지뢰	-17120
▁표결	-17121
▁핀다	-17122
▁해머	-17123
▁혹독	-17124
▁211	-17125
▁귀퉁이	-17126
▁그리드	-17127
▁다카라	-17128
▁신숙주	-17129
▁안기부	-17130
▁정착민	-17131
▁징병제	-17132
▁사회단체	-17133
▁쇼트트랙	-17134
▁엔지니어링	-17135
▁테러리스트	-17136
▁"'	-17137
▁tv	-17138
▁낙엽	-17139
▁범용	-17140
▁비르	-17141
▁슬롯	-17142
▁신작	-17143
▁오마	-17144
▁워낙	-17145
▁전폭	-17146
▁종단	-17147
▁호감	-17148
▁화신	-17149
▁205	-17150
▁동의어	-17151
▁보니파	-17152
▁애벌레	-17153
▁앤드류	-17154
▁야마다	-17155
▁주교좌	-17156
▁미식축구	-17157
▁인플루엔자	-17158
▁일렉트로닉	-17159
레르	-17160
모습	-17161
패드	-17162
▁po	-17163
▁꾸짖	-17164
▁대파	-17165
▁린다	-17166
▁벅스	-17167
▁볼륨	-17168
▁소켓	-17169
▁슬럼	-17170
▁실로	-17171
▁실베	-17172
▁암술	-17173
▁후이	-17174
▁정나라	-17175
▁진동수	-17176
▁집합론	-17177
▁후임자	-17178
▁모니터링	-17179
박이	-17180
북면	-17181
오드	-17182
임수	-17183
팔렌	-17184
urn	-17185
▁KS	-17186
▁경마	-17187
▁당명	-17188
▁앨라	-17189
▁유루	-17190
▁지병	-17191
▁추봉	-17192
▁하키	-17193
▁혼용	-17194
레틱스	-17195
▁대머리	-17196
▁미우라	-17197
▁이영호	-17198
▁코트디	-17199
▁한니발	-17200
방송공사	-17201
▁1856	-17202
▁Cent	-17203
▁Star	-17204
▁불렀으며	-17205
▁대구광역시	-17206
▁애슬레틱스	-17207
▁코트디부아르	-17208
사랑	-17209
조작	-17210
쿠젠	-17211
▁골자	-17212
▁대뇌	-17213
▁덩굴	-17214
▁디펜	-17215
▁로망	-17216
▁루드	-17217
▁리크	-17218
▁미움	-17219
▁범하	-17220
▁북송	-17221
▁살상	-17222
▁수강	-17223
▁앨버	-17224
▁울음	-17225
▁월급	-17226
▁전황	-17227
▁제각	-17228
▁제타	-17229
▁》·《	-17230
▁국무원	-17231
▁기념식	-17232
▁목격자	-17233
▁사나이	-17234
▁사마의	-17235
▁사생아	-17236
▁서기장	-17237
▁집현전	-17238
▁테헤란	-17239
▁허베이	-17240
▁1792	-17241
▁그래미상	-17242
▁심리학자	-17243
▁유니코드	-17244
▁이성질체	-17245
▁세인트루이스	-17246
높이	-17247
눌프	-17248
정동	-17249
que	-17250
ull	-17251
▁강압	-17252
▁구했	-17253
▁리노	-17254
▁미신	-17255
▁버진	-17256
▁베버	-17257
▁불황	-17258
▁성왕	-17259
▁신구	-17260
▁안상	-17261
▁여장	-17262
▁천정	-17263
▁청조	-17264
던지기	-17265
▁고르바	-17266
▁모국어	-17267
▁스와프	-17268
▁앞장서	-17269
▁연해주	-17270
▁정규군	-17271
▁찾아보	-17272
ology	-17273
▁경향신문	-17274
▁브루크너	-17275
▁아르눌프	-17276
로프로세서	-17277
▁마이크로프로세서	-17278
LC	-17279
▁天	-17280
▁넉	-17281
장식	-17282
ute	-17283
▁경수	-17284
▁기치	-17285
▁김보	-17286
▁민자	-17287
▁박제	-17288
▁불순	-17289
▁사보	-17290
▁수온	-17291
▁전횡	-17292
▁점하	-17293
▁필기	-17294
▁가야금	-17295
▁가져와	-17296
▁변속기	-17297
▁브람스	-17298
▁선데이	-17299
▁스트라	-17300
▁앤서니	-17301
▁웨이트	-17302
▁충실히	-17303
▁이시카와	-17304
방식	-17305
배마	-17306
전기	-17307
혜석	-17308
enn	-17309
ors	-17310
▁루나	-17311
▁명주	-17312
▁미모	-17313
▁뿌려	-17314
▁선승	-17315
▁쑨원	-17316
▁약학	-17317
▁유흥	-17318
▁정강	-17319
▁주청	-17320
▁효자	-17321
▁다면체	-17322
▁라치오	-17323
▁로버츠	-17324
▁마포구	-17325
▁홀딩스	-17326
▁도미니카	-17327
▁라플라스	-17328
▁앨라배마	-17329
▁열렸으며	-17330
▁고르바초프	-17331
ax	-17332
▁빽	-17333
정제	-17334
피크	-17335
vel	-17336
▁FK	-17337
▁라다	-17338
▁생사	-17339
▁성년	-17340
▁세브	-17341
▁입안	-17342
▁전군	-17343
▁절터	-17344
▁총알	-17345
▁학점	-17346
▁학창	-17347
▁향리	-17348
▁훔쳐	-17349
콥스키	-17350
lect	-17351
▁국문학	-17352
▁돌고래	-17353
▁브리스	-17354
▁아닌지	-17355
▁전망대	-17356
▁지바현	-17357
▁한정판	-17358
▁승부조작	-17359
조사	-17360
▁교착	-17361
▁메틸	-17362
▁모셨	-17363
▁물의	-17364
▁바니	-17365
▁생김	-17366
▁약정	-17367
▁연마	-17368
▁영덕	-17369
▁영도	-17370
▁유실	-17371
▁이효	-17372
▁정랑	-17373
▁정병	-17374
▁표어	-17375
▁하산	-17376
▁하츠	-17377
▁교회법	-17378
▁구한다	-17379
▁손오공	-17380
▁초전도	-17381
▁테이크	-17382
▁올랐으나	-17383
▁인기가요	-17384
▁호몰로지	-17385
30	-17386
ye	-17387
컨드	-17388
토바	-17389
▁Fl	-17390
▁LI	-17391
▁기만	-17392
▁낙태	-17393
▁니치	-17394
▁당기	-17395
▁모식	-17396
▁벙커	-17397
▁생부	-17398
▁수작	-17399
▁악어	-17400
▁액정	-17401
▁이보	-17402
▁지드	-17403
▁크릭	-17404
▁환기	-17405
▁HMS	-17406
▁고지대	-17407
▁보호자	-17408
▁사하라	-17409
▁의금부	-17410
▁헬싱키	-17411
▁고고학자	-17412
스톤	-17413
케라	-17414
▁경학	-17415
▁계책	-17416
▁기함	-17417
▁논산	-17418
▁달마	-17419
▁당도	-17420
▁독단	-17421
▁보두	-17422
▁비이	-17423
▁성직	-17424
▁세타	-17425
▁수능	-17426
▁시판	-17427
▁어라	-17428
▁에코	-17429
▁유주	-17430
▁음색	-17431
▁젠더	-17432
▁주상	-17433
▁화친	-17434
▁매디슨	-17435
▁봉수대	-17436
▁세컨드	-17437
▁주세페	-17438
▁핵실험	-17439
▁허정숙	-17440
UI	-17441
▁킵	-17442
무트	-17443
발트	-17444
제철	-17445
▁NA	-17446
▁상석	-17447
▁생가	-17448
▁서머	-17449
▁스완	-17450
▁시우	-17451
▁애프	-17452
▁우사	-17453
▁이석	-17454
▁자객	-17455
▁지카	-17456
▁카불	-17457
▁쿠사	-17458
▁베이컨	-17459
▁상세히	-17460
▁천안시	-17461
▁총동원	-17462
▁출장소	-17463
▁피어스	-17464
▁피에트로	-17465
전력	-17466
▁MW	-17467
▁경감	-17468
▁담수	-17469
▁로사	-17470
▁매월	-17471
▁밀교	-17472
▁방형	-17473
▁보령	-17474
▁차내	-17475
▁추월	-17476
▁코크	-17477
▁현생	-17478
▁휘트	-17479
atch	-17480
reak	-17481
▁검사장	-17482
▁엄밀히	-17483
▁무라카미	-17484
▁사이타마현	-17485
▁간청	-17486
▁고작	-17487
▁네브	-17488
▁다목	-17489
▁동대	-17490
▁마는	-17491
▁박기	-17492
▁보그	-17493
▁부원	-17494
▁사성	-17495
▁생쥐	-17496
▁장엄	-17497
▁정현	-17498
▁주필	-17499
▁친절	-17500
▁토프	-17501
▁한방	-17502
민정음	-17503
▁209	-17504
▁440	-17505
▁COM	-17506
▁Per	-17507
▁건국대	-17508
▁김유신	-17509
▁라이드	-17510
▁아파치	-17511
▁정찰기	-17512
▁초등학생	-17513
▁프로방스	-17514
▁외할아버지	-17515
▁매사추세츠주	-17516
▁켐	-17517
구미	-17518
▁나토	-17519
▁면은	-17520
▁바울	-17521
▁부결	-17522
▁뷰티	-17523
▁의종	-17524
▁임베	-17525
▁하세	-17526
씨식물	-17527
ions	-17528
▁Top	-17529
▁가이아	-17530
▁경제력	-17531
▁오리건	-17532
▁자신감	-17533
▁참정권	-17534
▁1623	-17535
▁임베디드	-17536
니코	-17537
매기	-17538
톱스	-17539
▁낙타	-17540
▁남측	-17541
▁로만	-17542
▁빈약	-17543
▁소피	-17544
▁신파	-17545
▁어판	-17546
▁에인	-17547
▁유익	-17548
▁은둔	-17549
▁종일	-17550
▁넥스트	-17551
▁미망인	-17552
▁오이타	-17553
▁유망주	-17554
케라톱스	-17555
▁교섭단체	-17556
▁훈민정음	-17557
gh	-17558
▁관철	-17559
▁라지	-17560
▁모기	-17561
▁법당	-17562
▁보손	-17563
▁사구	-17564
▁사표	-17565
▁성충	-17566
▁쌍용	-17567
▁영세	-17568
▁이면	-17569
▁춤추	-17570
▁표상	-17571
▁푸틴	-17572
▁학비	-17573
바도르	-17574
ater	-17575
▁NXT	-17576
▁끌어올	-17577
▁로페스	-17578
▁베리아	-17579
▁스타인	-17580
▁안산시	-17581
▁앙드레	-17582
▁앞부분	-17583
▁저작물	-17584
▁진흥왕	-17585
▁트리오	-17586
여지승람	-17587
▁공화주의	-17588
▁무너뜨리	-17589
▁동아프리카	-17590
▁Christ	-17591
고도	-17592
어내	-17593
▁BB	-17594
▁ED	-17595
▁KN	-17596
▁MD	-17597
▁nm	-17598
▁간통	-17599
▁공물	-17600
▁금광	-17601
▁대적	-17602
▁덕흥	-17603
▁북진	-17604
▁성채	-17605
▁송강	-17606
▁수난	-17607
▁실크	-17608
▁안시	-17609
▁이가	-17610
▁코넬	-17611
▁헌종	-17612
▁DFB	-17613
▁USA	-17614
▁각운동	-17615
▁갔으나	-17616
▁기다렸	-17617
▁신인왕	-17618
▁앞세워	-17619
▁조선조	-17620
▁드레이크	-17621
▁코르테스	-17622
▁로드리게스	-17623
▁옅	-17624
빼미	-17625
사병	-17626
청정	-17627
▁KD	-17628
▁Kn	-17629
▁가한	-17630
▁거창	-17631
▁낙향	-17632
▁눈부	-17633
▁단수	-17634
▁라시	-17635
▁마취	-17636
▁명동	-17637
▁명회	-17638
▁무방	-17639
▁북해	-17640
▁선서	-17641
▁세탁	-17642
▁알현	-17643
▁여전	-17644
▁의외	-17645
▁진과	-17646
▁카토	-17647
▁커넥	-17648
▁폭우	-17649
▁SQL	-17650
▁나혜석	-17651
▁무서운	-17652
▁전반전	-17653
▁증명서	-17654
▁타이밍	-17655
▁기타큐슈	-17656
▁보였으며	-17657
▁포틀랜드	-17658
▁서아프리카	-17659
분투	-17660
오루	-17661
ans	-17662
▁"-	-17663
▁김주	-17664
▁데메	-17665
▁돌방	-17666
▁동백	-17667
▁마른	-17668
▁먼로	-17669
▁몬태	-17670
▁배설	-17671
▁순사	-17672
▁습기	-17673
▁양력	-17674
▁유승	-17675
▁쟁취	-17676
▁케리	-17677
▁쾌락	-17678
▁탈리	-17679
▁탈옥	-17680
▁태화	-17681
▁팔각	-17682
▁퍼부	-17683
▁한도	-17684
▁홍백	-17685
디우스	-17686
▁길버트	-17687
▁다름없	-17688
▁목판본	-17689
▁샘플링	-17690
▁세일러	-17691
▁아가씨	-17692
▁아이치	-17693
▁조직원	-17694
▁주택지	-17695
▁1853	-17696
▁오를레앙	-17697
▁클라리넷	-17698
우병	-17699
ism	-17700
ley	-17701
▁당부	-17702
▁비명	-17703
▁성내	-17704
▁스틱	-17705
▁슬라	-17706
▁승소	-17707
▁여과	-17708
▁유혈	-17709
▁장현	-17710
▁총영	-17711
▁패드	-17712
▁헤딩	-17713
시아키	-17714
▁샌드위치	-17715
UC	-17716
가키	-17717
▁간장	-17718
▁간편	-17719
▁궁지	-17720
▁궤간	-17721
▁만능	-17722
▁박격	-17723
▁수첩	-17724
▁어딘	-17725
▁엘프	-17726
▁열중	-17727
▁욕계	-17728
▁유품	-17729
▁일직	-17730
▁조예	-17731
▁집약	-17732
▁코이	-17733
▁페가	-17734
▁포구	-17735
▁형광	-17736
게이트	-17737
very	-17738
▁클라인	-17739
▁프리드	-17740
▁Amer	-17741
▁파르티아	-17742
▁펜실베이니아주	-17743
▁‧	-17744
무덤	-17745
차드	-17746
▁발주	-17747
▁블러	-17748
▁새해	-17749
▁생도	-17750
▁소망	-17751
▁수선	-17752
▁오경	-17753
▁워스	-17754
▁작인	-17755
▁체격	-17756
▁킬러	-17757
▁히바	-17758
하마드	-17759
▁리포트	-17760
▁반대쪽	-17761
▁이교도	-17762
▁코페르	-17763
▁해적단	-17764
▁호나우	-17765
▁다카라즈카	-17766
▁돛	-17767
▁뤄	-17768
네오	-17769
돈나	-17770
재기	-17771
젤란	-17772
▁'-	-17773
▁IA	-17774
▁결속	-17775
▁고독	-17776
▁광동	-17777
▁교위	-17778
▁노화	-17779
▁다승	-17780
▁백운	-17781
▁속박	-17782
▁속이	-17783
▁수혈	-17784
▁아로	-17785
▁앞당	-17786
▁앨리	-17787
▁옥시	-17788
▁즐겁	-17789
▁창안	-17790
▁천리	-17791
▁최치	-17792
▁치이	-17793
▁친숙	-17794
▁캡틴	-17795
▁타가	-17796
▁타나	-17797
▁757	-17798
▁메이트	-17799
▁모아서	-17800
▁방문객	-17801
▁버려진	-17802
▁하이델	-17803
그라운드	-17804
▁개인주의	-17805
▁원내대표	-17806
▁유니버스	-17807
▁거물	-17808
▁김문	-17809
▁노릇	-17810
▁랜디	-17811
▁리타	-17812
▁선법	-17813
▁성호	-17814
▁신겐	-17815
▁증산	-17816
▁총관	-17817
▁최경	-17818
▁헤지	-17819
독립당	-17820
▁370	-17821
▁War	-17822
▁남겨진	-17823
▁달려가	-17824
▁유태인	-17825
▁지켜야	-17826
▁각운동량	-17827
▁한국독립당	-17828
PA	-17829
팩스	-17830
anc	-17831
ude	-17832
▁단념	-17833
▁떨치	-17834
▁바랐	-17835
▁수서	-17836
▁약수	-17837
▁에페	-17838
▁윈난	-17839
▁정년	-17840
▁페론	-17841
▁하향	-17842
▁헐리	-17843
▁가속기	-17844
▁도리어	-17845
▁디나모	-17846
▁마그마	-17847
▁부활절	-17848
▁사가미	-17849
▁생산자	-17850
▁아랍인	-17851
▁영등포	-17852
▁가선대부	-17853
▁트로츠키	-17854
▁～	-17855
오밍	-17856
조치	-17857
팽이	-17858
att	-17859
▁갤러	-17860
▁격돌	-17861
▁귀향	-17862
▁남짓	-17863
▁바덴	-17864
▁블룸	-17865
▁송광	-17866
▁이계	-17867
▁전각	-17868
▁터스	-17869
▁트롤	-17870
▁푸드	-17871
▁회군	-17872
빌라이	-17873
유철도	-17874
프랑스	-17875
▁군단장	-17876
▁슐레스	-17877
▁이치로	-17878
▁제작비	-17879
▁조연상	-17880
노스아이	-17881
▁알려졌으며	-17882
노스아이레스	-17883
▁일본국유철도	-17884
▁콘스탄티노플	-17885
▁부에노스아이레스	-17886
▁깡	-17887
평가	-17888
평리	-17889
하스	-17890
▁Em	-17891
▁각오	-17892
▁구인	-17893
▁나츠	-17894
▁대소	-17895
▁발췌	-17896
▁버락	-17897
▁뽑히	-17898
▁수훈	-17899
▁스쿠	-17900
▁쓸모	-17901
▁정토	-17902
▁집적	-17903
▁카파	-17904
▁캔터	-17905
▁다가가	-17906
▁랴오닝	-17907
▁상류층	-17908
▁시어터	-17909
▁지원병	-17910
▁1851	-17911
▁레오나르	-17912
킨슨	-17913
▁군마	-17914
▁금천	-17915
▁김나	-17916
▁미녀	-17917
▁방수	-17918
▁배영	-17919
▁보카	-17920
▁살림	-17921
▁오닐	-17922
▁지날	-17923
▁체첸	-17924
▁취락	-17925
▁커맨	-17926
▁태클	-17927
▁한류	-17928
▁호이	-17929
▁화전	-17930
미사일	-17931
▁동인도	-17932
▁봉사자	-17933
▁어드밴	-17934
▁인산화	-17935
▁증손자	-17936
▁참의원	-17937
▁트레인	-17938
▁하이든	-17939
▁글로브상	-17940
▁언어학자	-17941
▁보나파르트	-17942
▁에트루리아	-17943
▁썸	-17944
농사	-17945
메드	-17946
수염	-17947
에리	-17948
▁LO	-17949
▁겸했	-17950
▁대검	-17951
▁라부	-17952
▁만찬	-17953
▁명맥	-17954
▁사미	-17955
▁서간	-17956
▁섹터	-17957
▁쇼팽	-17958
▁수류	-17959
▁신간	-17960
▁심신	-17961
▁야채	-17962
▁완도	-17963
▁원단	-17964
▁원성	-17965
▁정청	-17966
▁해왔	-17967
세데스	-17968
▁클레어	-17969
▁테크노	-17970
▁트럼펫	-17971
▁Mnet	-17972
▁밀리미터	-17973
▁요시쓰네	-17974
▁메르세데스	-17975
▁중앙아메리카	-17976
▁크리에이티브	-17977
권력	-17978
자나	-17979
▁곤살	-17980
▁공훈	-17981
▁노획	-17982
▁두만	-17983
▁로움	-17984
▁양부	-17985
▁예제	-17986
▁입선	-17987
▁정약	-17988
▁총력	-17989
▁침착	-17990
▁특례	-17991
▁합천	-17992
▁수행원	-17993
▁스타드	-17994
▁알레산	-17995
▁원통형	-17996
▁클로드	-17997
▁재단법인	-17998
▁−	-17999
▁DA	-18000
▁VH	-18001
▁교신	-18002
▁꾸려	-18003
▁만리	-18004
▁박인	-18005
▁스톨	-18006
▁시로	-18007
▁애도	-18008
▁위엄	-18009
▁유예	-18010
▁이학	-18011
▁자력	-18012
▁주루	-18013
▁지브	-18014
▁직구	-18015
▁치소	-18016
▁항거	-18017
▁회합	-18018
▁노비타	-18019
▁몰아넣	-18020
▁배트맨	-18021
▁올빼미	-18022
▁창세기	-18023
▁창업자	-18024
▁카운터	-18025
▁휘두르	-18026
▁JTBC	-18027
▁비로자나	-18028
▁폴리네시아	-18029
▁프로테스탄	-18030
▁렝	-18031
라르	-18032
보냈	-18033
의식	-18034
자재	-18035
회원	-18036
▁CI	-18037
▁개표	-18038
▁거둬	-18039
▁국자	-18040
▁느려	-18041
▁때리	-18042
▁린네	-18043
▁무거	-18044
▁알마	-18045
▁역간	-18046
▁위문	-18047
▁은사	-18048
▁톨킨	-18049
▁홍대	-18050
대주의	-18051
▁225	-18052
▁Str	-18053
▁가디언	-18054
▁가속도	-18055
▁가져올	-18056
▁나뭇잎	-18057
▁노나라	-18058
▁보행자	-18059
▁안타까	-18060
▁이브라	-18061
▁With	-18062
▁시켰으나	-18063
▁아오모리	-18064
▁일리노이주	-18065
▁셴	-18066
크리	-18067
행사	-18068
▁도금	-18069
▁래리	-18070
▁말린	-18071
▁묵시	-18072
▁미로	-18073
▁번복	-18074
▁암초	-18075
▁이창	-18076
▁주공	-18077
▁호아	-18078
▁850	-18079
▁org	-18080
▁괴팅겐	-18081
▁뉴기니	-18082
▁데이빗	-18083
▁박중양	-18084
▁알렉시	-18085
▁여름철	-18086
▁참가국	-18087
▁초고층	-18088
▁키워드	-18089
▁리치먼드	-18090
▁우리나라	-18091
뉴스	-18092
처분	-18093
▁고운	-18094
▁녹말	-18095
▁도매	-18096
▁독신	-18097
▁색인	-18098
▁서강	-18099
▁승마	-18100
▁시술	-18101
▁양궁	-18102
▁외세	-18103
▁이삭	-18104
▁익산	-18105
▁절연	-18106
▁제법	-18107
▁포즈	-18108
▁폰트	-18109
▁Rev	-18110
▁그려졌	-18111
▁리서치	-18112
▁비트겐	-18113
▁세례명	-18114
▁어쨌든	-18115
▁확장팩	-18116
▁가시광선	-18117
▁수양대군	-18118
▁비트겐슈타인	-18119
▁갸	-18120
▁찐	-18121
르모	-18122
본다	-18123
상도	-18124
오세	-18125
우며	-18126
▁RD	-18127
▁SG	-18128
▁구파	-18129
▁군무	-18130
▁누명	-18131
▁누설	-18132
▁로지	-18133
▁메드	-18134
▁밤중	-18135
▁석등	-18136
▁습성	-18137
▁에든	-18138
▁윤영	-18139
▁정글	-18140
▁정산	-18141
▁카쿠	-18142
▁콜린	-18143
▁탐욕	-18144
▁퇴사	-18145
▁폐간	-18146
▁행했	-18147
▁221	-18148
▁480	-18149
▁독립성	-18150
▁본회의	-18151
▁불태우	-18152
▁스위트	-18153
▁야구팀	-18154
▁엄격히	-18155
▁울릉도	-18156
▁1836	-18157
▁에든버러	-18158
▁이야말로	-18159
af	-18160
지대	-18161
▁구운	-18162
▁구토	-18163
▁금화	-18164
▁면접	-18165
▁방비	-18166
▁방전	-18167
▁승패	-18168
▁어필	-18169
▁칭기	-18170
▁타코	-18171
▁고문서	-18172
▁로런츠	-18173
▁막바지	-18174
▁선수상	-18175
▁우참찬	-18176
▁원동력	-18177
▁이제동	-18178
▁일수록	-18179
▁진주시	-18180
▁패트리	-18181
▁황태후	-18182
브레히트	-18183
▁This	-18184
▁슐레스비히	-18185
LL	-18186
남동	-18187
로아	-18188
리야	-18189
바람	-18190
프셔	-18191
▁PH	-18192
▁각계	-18193
▁견딜	-18194
▁고흥	-18195
▁관서	-18196
▁금상	-18197
▁내수	-18198
▁발화	-18199
▁부마	-18200
▁쌍방	-18201
▁의화	-18202
▁정은	-18203
▁정태	-18204
▁조그	-18205
▁친교	-18206
▁투사	-18207
▁파면	-18208
▁픽업	-18209
▁화사	-18210
port	-18211
▁밀어내	-18212
▁범어사	-18213
▁보두앵	-18214
▁스러웠	-18215
▁실종자	-18216
▁유물론	-18217
▁중대장	-18218
▁학부모	-18219
▁호찌민	-18220
▁뛸	-18221
▁랏	-18222
▁Ke	-18223
▁강수	-18224
▁니즘	-18225
▁메사	-18226
▁몰살	-18227
▁무주	-18228
▁미타	-18229
▁봉승	-18230
▁상감	-18231
▁상피	-18232
▁상향	-18233
▁센타	-18234
▁약제	-18235
▁어파	-18236
▁의리	-18237
▁장본	-18238
▁코인	-18239
▁피력	-18240
▁경순왕	-18241
▁공기업	-18242
▁교직원	-18243
▁비욘세	-18244
▁서기관	-18245
▁쓰여졌	-18246
▁양서류	-18247
▁자치체	-18248
▁기념사업	-18249
▁스탠퍼드	-18250
▁정사각형	-18251
▁쿠빌라이	-18252
재단	-18253
투르	-18254
파니	-18255
플레	-18256
히메	-18257
RNA	-18258
▁UR	-18259
▁‘’	-18260
▁구국	-18261
▁단련	-18262
▁라벤	-18263
▁반가	-18264
▁부록	-18265
▁서광	-18266
▁열등	-18267
▁우니	-18268
▁주시	-18269
▁지루	-18270
▁차질	-18271
▁최충	-18272
▁타계	-18273
▁퍼진	-18274
▁페티	-18275
▁품계	-18276
▁Tra	-18277
▁글리제	-18278
▁조제프	-18279
▁카지노	-18280
▁피난민	-18281
▁시트르산	-18282
▁프로이트	-18283
▁해수욕장	-18284
▁페더레이션	-18285
▁ᄀ	-18286
▁횃	-18287
노동	-18288
상부	-18289
▁거장	-18290
▁라사	-18291
▁루소	-18292
▁리저	-18293
▁물병	-18294
▁심했	-18295
▁아토	-18296
▁의성	-18297
▁자급	-18298
▁저압	-18299
▁전법	-18300
▁정운	-18301
▁증설	-18302
▁회생	-18303
▁후난	-18304
메네스	-18305
지먼트	-18306
▁나카노	-18307
▁내몽골	-18308
▁대륙군	-18309
▁대문자	-18310
▁로널드	-18311
▁발행인	-18312
▁본다면	-18313
▁아타리	-18314
▁올바르	-18315
▁그레이엄	-18316
▁매개변수	-18317
▁알렉세이	-18318
▁오렌지색	-18319
▁캐나다인	-18320
▁매니지먼트	-18321
▁폈	-18322
섬유	-18323
iet	-18324
iew	-18325
ual	-18326
▁가니	-18327
▁로보	-18328
▁막혀	-18329
▁반원	-18330
▁배지	-18331
▁병인	-18332
▁섭씨	-18333
▁유표	-18334
▁인회	-18335
▁장구	-18336
▁장력	-18337
▁타키	-18338
▁파탄	-18339
▁펜스	-18340
▁필적	-18341
▁핸들	-18342
▁후신	-18343
드라마	-18344
▁FTA	-18345
▁끊임없	-18346
▁디아스	-18347
▁포스코	-18348
▁1852	-18349
▁코페르니쿠스	-18350
라나	-18351
징어	-18352
▁EA	-18353
▁결점	-18354
▁과테	-18355
▁돌풍	-18356
▁박차	-18357
▁반일	-18358
▁베다	-18359
▁색조	-18360
▁안도	-18361
▁양천	-18362
▁연일	-18363
▁우도	-18364
▁익사	-18365
▁친형	-18366
▁타국	-18367
▁파피	-18368
그래프	-18369
▁경영진	-18370
▁다각형	-18371
▁불명예	-18372
▁엘리스	-18373
▁최치원	-18374
▁행정관	-18375
▁과테말라	-18376
▁전자기파	-18377
▁받아들여졌	-18378
▁낀	-18379
▁뺀	-18380
래곤	-18381
볼트	-18382
스퍼	-18383
조약	-18384
▁am	-18385
▁ha	-18386
▁길목	-18387
▁다방	-18388
▁도감	-18389
▁몰라	-18390
▁본가	-18391
▁성시	-18392
▁수계	-18393
▁숙의	-18394
▁용문	-18395
▁우부	-18396
▁정설	-18397
▁태사	-18398
▁헬스	-18399
▁ROM	-18400
▁마돈나	-18401
▁모여들	-18402
▁미술가	-18403
▁보이즈	-18404
▁제후국	-18405
▁프로필	-18406
▁플래그	-18407
▁현악기	-18408
▁1806	-18409
▁레버쿠젠	-18410
▁시리우스	-18411
▁인조반정	-18412
▁자카르타	-18413
YP	-18414
▁′	-18415
▁힉	-18416
링거	-18417
정지	-18418
커우	-18419
▁국명	-18420
▁노미	-18421
▁대면	-18422
▁로타	-18423
▁반칙	-18424
▁복고	-18425
▁빽빽	-18426
▁소감	-18427
▁예우	-18428
▁왜적	-18429
▁우문	-18430
▁원치	-18431
▁일신	-18432
▁정순	-18433
▁짐바	-18434
▁처단	-18435
▁호송	-18436
▁느낀다	-18437
▁보병대	-18438
▁빼앗긴	-18439
▁양주군	-18440
▁접미사	-18441
▁주간지	-18442
▁진보당	-18443
▁허버트	-18444
총리대신	-18445
▁알브레히트	-18446
▁Intern	-18447
▁내각총리대신	-18448
구멍	-18449
상가	-18450
소시	-18451
임관	-18452
▁개요	-18453
▁경색	-18454
▁누락	-18455
▁따를	-18456
▁머릿	-18457
▁성상	-18458
▁소각	-18459
▁수차	-18460
▁안다	-18461
▁외벽	-18462
▁은총	-18463
▁인스	-18464
▁인테	-18465
▁장보	-18466
▁중첩	-18467
▁호치	-18468
쿠스틱	-18469
▁떨어질	-18470
▁바꾼다	-18471
▁알아냈	-18472
▁중서부	-18473
▁포브스	-18474
▁루즈벨트	-18475
▁북베트남	-18476
▁어쿠스틱	-18477
▁https	-18478
▁프로토타입	-18479
▁캥	-18480
바오	-18481
ody	-18482
▁ON	-18483
▁co	-18484
▁깔끔	-18485
▁딜런	-18486
▁망막	-18487
▁모면	-18488
▁문부	-18489
▁버니	-18490
▁슬픈	-18491
▁야시	-18492
▁였었	-18493
▁요아	-18494
▁우동	-18495
▁인맥	-18496
▁한진	-18497
중국해	-18498
캐스트	-18499
▁개그맨	-18500
▁릴리스	-18501
▁요시카	-18502
▁음악회	-18503
▁이자겸	-18504
▁자치령	-18505
▁페인트	-18506
▁Free	-18507
▁MPEG	-18508
▁네덜란드인	-18509
▁덥	-18510
얼빈	-18511
자유	-18512
코인	-18513
호르	-18514
활성	-18515
▁Fr	-18516
▁MO	-18517
▁만네	-18518
▁버거	-18519
▁버트	-18520
▁부러	-18521
▁서드	-18522
▁성급	-18523
▁영해	-18524
▁와트	-18525
▁정량	-18526
▁철근	-18527
▁철제	-18528
▁체사	-18529
▁950	-18530
▁고분자	-18531
▁과선교	-18532
▁박격포	-18533
▁밝혀냈	-18534
▁영장류	-18535
▁완성도	-18536
▁전사자	-18537
▁쫓겨났	-18538
▁초능력	-18539
▁타고난	-18540
▁탈레반	-18541
▁Back	-18542
ll	-18543
비에	-18544
lic	-18545
▁Of	-18546
▁Pa	-18547
▁관공	-18548
▁극좌	-18549
▁단성	-18550
▁로코	-18551
▁문란	-18552
▁벚꽃	-18553
▁산동	-18554
▁아명	-18555
▁오기	-18556
▁유원	-18557
▁음란	-18558
▁절도	-18559
▁져야	-18560
▁찔러	-18561
▁취역	-18562
덜랜드	-18563
▁Gen	-18564
▁Res	-18565
▁분화구	-18566
▁윤리학	-18567
▁1794	-18568
▁1832	-18569
▁계몽주의	-18570
▁라그랑주	-18571
▁\	-18572
암리	-18573
화가	-18574
enc	-18575
▁결번	-18576
▁도핑	-18577
▁마거	-18578
▁마태	-18579
▁미팅	-18580
▁발단	-18581
▁병영	-18582
▁실황	-18583
▁엔젤	-18584
▁우타	-18585
▁육아	-18586
▁정파	-18587
▁조던	-18588
▁존상	-18589
▁캔디	-18590
▁탁발	-18591
▁펠레	-18592
▁환호	-18593
▁231	-18594
▁구락부	-18595
▁베일리	-18596
▁설계자	-18597
▁페드로	-18598
스티누스	-18599
▁1847	-18600
▁블레이드	-18601
▁꿇	-18602
alk	-18603
▁관방	-18604
▁관입	-18605
▁금정	-18606
▁누워	-18607
▁다짐	-18608
▁달래	-18609
▁대방	-18610
▁데일	-18611
▁미코	-18612
▁바뀔	-18613
▁색계	-18614
▁서군	-18615
▁서상	-18616
▁숨졌	-18617
▁심슨	-18618
▁알론	-18619
▁연선	-18620
▁유린	-18621
▁접종	-18622
▁최규	-18623
▁투고	-18624
연수원	-18625
▁AEK	-18626
▁Mas	-18627
▁김원봉	-18628
▁다이나	-18629
▁윤선도	-18630
▁정반대	-18631
▁동프랑크	-18632
▁보냈으며	-18633
▁상파울루	-18634
▁플레이트	-18635
▁사법연수원	-18636
▁뺨	-18637
난히	-18638
마침	-18639
쇼프	-18640
완다	-18641
천년	-18642
태자	-18643
▁RX	-18644
▁se	-18645
▁걸릴	-18646
▁겸손	-18647
▁금리	-18648
▁레나	-18649
▁마로	-18650
▁마조	-18651
▁바바	-18652
▁바타	-18653
▁송금	-18654
▁승천	-18655
▁양제	-18656
▁완산	-18657
▁외젠	-18658
▁우랄	-18659
▁원화	-18660
▁유즈	-18661
▁은상	-18662
▁인피	-18663
▁캠벨	-18664
▁투과	-18665
▁흥원	-18666
소시엄	-18667
▁Hot	-18668
▁로스트	-18669
▁루이즈	-18670
▁마운틴	-18671
▁미나토	-18672
▁밤하늘	-18673
▁쇼펜하	-18674
▁안타깝	-18675
▁연나라	-18676
▁1842	-18677
▁서대문구	-18678
▁컨소시엄	-18679
▁쇼펜하우어	-18680
거루	-18681
공격	-18682
베인	-18683
▁><	-18684
▁광석	-18685
▁기약	-18686
▁담화	-18687
▁대례	-18688
▁딸린	-18689
▁매료	-18690
▁매슈	-18691
▁방황	-18692
▁브렌	-18693
▁선왕	-18694
▁소르	-18695
▁여흥	-18696
▁연성	-18697
▁영하	-18698
▁진천	-18699
▁커리	-18700
▁탄화	-18701
▁틀리	-18702
▁파헤	-18703
▁판권	-18704
▁풍토	-18705
▁혈연	-18706
▁App	-18707
▁Mag	-18708
▁거느렸	-18709
▁로렌초	-18710
▁안데스	-18711
▁오와리	-18712
▁중견수	-18713
▁하루카	-18714
▁헤이그	-18715
▁Will	-18716
▁도네츠크	-18717
▁레오폴트	-18718
▁마쓰모토	-18719
▁콘스탄티노스	-18720
▁믈	-18721
급수	-18722
돼지	-18723
블릭	-18724
영향	-18725
테른	-18726
ric	-18727
▁급식	-18728
▁남포	-18729
▁단역	-18730
▁보답	-18731
▁비어	-18732
▁사커	-18733
▁산간	-18734
▁셀러	-18735
▁이코	-18736
▁거문고	-18737
▁네바다	-18738
▁목걸이	-18739
▁복잡도	-18740
▁사우디	-18741
▁수감자	-18742
▁알베르	-18743
▁유공자	-18744
▁편의점	-18745
▁뱀파이어	-18746
▁였음에도	-18747
▁플라스마	-18748
▁여우원숭이	-18749
버거	-18750
비어	-18751
▁CV	-18752
▁EF	-18753
▁FF	-18754
▁나시	-18755
▁뒤지	-18756
▁분실	-18757
▁소현	-18758
▁쓰리	-18759
▁정연	-18760
▁증서	-18761
▁촉한	-18762
▁총파	-18763
▁코민	-18764
▁표류	-18765
▁회중	-18766
▁Not	-18767
▁군사령	-18768
▁내려지	-18769
▁생김새	-18770
▁연출가	-18771
▁예배당	-18772
▁최하위	-18773
▁YMCA	-18774
▁근본주의	-18775
▁노동자당	-18776
▁프리큐어	-18777
브웨	-18778
퍼트	-18779
▁광시	-18780
▁내사	-18781
▁대간	-18782
▁도체	-18783
▁동과	-18784
▁루지	-18785
▁무마	-18786
▁버밍	-18787
▁불의	-18788
▁성혼	-18789
▁싱크	-18790
▁여태	-18791
▁재량	-18792
▁종반	-18793
▁지에	-18794
▁총상	-18795
▁토치	-18796
헌대부	-18797
▁214	-18798
▁310	-18799
▁MLB	-18800
▁경비대	-18801
▁귀족원	-18802
▁드나들	-18803
▁벗어났	-18804
▁수영장	-18805
▁요리사	-18806
▁이규완	-18807
▁자존심	-18808
▁총파업	-18809
▁키루스	-18810
▁하얼빈	-18811
▁School	-18812
▁뛴	-18813
▁툼	-18814
▁HK	-18815
▁PP	-18816
▁과수	-18817
▁노숙	-18818
▁무오	-18819
▁무찔	-18820
▁베아	-18821
▁사시	-18822
▁상권	-18823
▁선덕	-18824
▁성추	-18825
▁이륙	-18826
▁자키	-18827
▁저당	-18828
▁전갈	-18829
▁추앙	-18830
▁햇볕	-18831
티우스	-18832
▁GPU	-18833
▁고다이	-18834
▁기울여	-18835
▁수송기	-18836
▁에탄올	-18837
▁옮겨져	-18838
▁우간다	-18839
▁위클리	-18840
▁테크닉	-18841
▁1392	-18842
▁Beat	-18843
▁밝혔으며	-18844
▁아랫부분	-18845
▁콘퍼런스	-18846
▁깼	-18847
광석	-18848
마일	-18849
파스	-18850
흐트	-18851
▁AF	-18852
▁격분	-18853
▁나눔	-18854
▁데쓰	-18855
▁동결	-18856
▁마고	-18857
▁식료	-18858
▁심취	-18859
▁아람	-18860
▁엘라	-18861
▁옮길	-18862
▁이서	-18863
▁지의	-18864
▁친다	-18865
▁템포	-18866
▁편차	-18867
▁홍준	-18868
▁훈구	-18869
▁히브	-18870
니우스	-18871
▁290	-18872
▁NAD	-18873
▁부대원	-18874
▁생산지	-18875
▁송파구	-18876
▁야행성	-18877
▁태극기	-18878
▁구스타브	-18879
▁블라디보	-18880
▁보컬리스트	-18881
[...]
