<unk>	0
<s>	0
</s>	0
[PAD]	0
[UNK]	0
[CLS]	0
[SEP]	0
[MASK]	0
[BOS]	0
[EOS]	0
▁이	-0
▁1	-1
으로	-2
에서	-3
▁있	-4
▁그	-5
▁2	-6
▁대	-7
▁사	-8
었다	-9
▁수	-10
▁지	-11
▁시	-12
▁가	-13
▁전	-14
이다	-15
▁기	-16
하였	-17
▁아	-18
했다	-19
▁있다	-20
▁19	-21
▁20	-22
▁하	-23
▁한	-24
▁제	-25
▁일	-26
▁정	-27
▁다	-28
▁것	-29
▁중	-30
▁자	-31
▁주	-32
하는	-33
하였다	-34
되었다	-35
▁공	-36
▁경	-37
하고	-38
▁유	-39
▁보	-40
▁인	-41
▁위	-42
▁등	-43
▁부	-44
하여	-45
▁조	-46
▁3	-47
에는	-48
▁모	-49
▁나	-50
으며	-51
▁의	-52
▁동	-53
▁연	-54
▁발	-55
▁선	-56
▁마	-57
▁오	-58
▁고	-59
▁소	-60
한다	-61
▁미	-62
▁개	-63
▁상	-64
▁세	-65
▁비	-66
▁영	-67
▁때	-68
▁구	-69
▁후	-70
▁도	-71
▁여	-72
▁국	-73
▁성	-74
▁스	-75
▁서	-76
▁해	-77
▁200	-78
▁관	-79
▁신	-80
▁201	-81
지만	-82
▁4	-83
▁있는	-84
부터	-85
▁않	-86
▁프	-87
되어	-88
▁만	-89
에게	-90
▁또	-91
▁"	-92
▁방	-93
▁무	-94
▁장	-95
▁통	-96
▁내	-97
▁5	-98
▁교	-99
▁바	-100
적인	-101
▁결	-102
까지	-103
▁대한	-104
▁거	-105
이라	-106
된다	-107
▁역	-108
▁문	-109
▁불	-110
적으로	-111
▁남	-112
▁최	-113
▁현	-114
▁생	-115
▁원	-116
▁같	-117
▁당	-118
▁우	-119
▁어	-120
▁진	-121
▁출	-122
▁포	-123
▁반	-124
▁계	-125
▁강	-126
▁받	-127
▁없	-128
▁노	-129
▁따	-130
▁작	-131
면서	-132
들이	-133
들은	-134
▁알	-135
▁'	-136
에서는	-137
▁실	-138
▁6	-139
되었	-140
▁두	-141
▁10	-142
▁말	-143
▁파	-144
▁사용	-145
▁이후	-146
하게	-147
하기	-148
▁분	-149
▁함	-150
▁《	-151
년에	-152
▁명	-153
▁한다	-154
학교	-155
▁차	-156
▁단	-157
▁재	-158
▁예	-159
았다	-160
▁7	-161
▁안	-162
▁8	-163
으나	-164
▁그는	-165
▁설	-166
▁되었다	-167
▁리	-168
▁요	-169
▁특	-170
▁많	-171
▁독	-172
▁에	-173
▁군	-174
▁일본	-175
▁종	-176
는데	-177
국의	-178
▁추	-179
▁로	-180
▁초	-181
▁9	-182
▁데	-183
▁배	-184
00	-185
▁입	-186
▁활	-187
▁그리	-188
▁때문	-189
▁위해	-190
▁더	-191
▁형	-192
▁적	-193
▁그러	-194
들어	-195
들의	-196
▁운	-197
▁건	-198
or	-199
▁매	-200
▁199	-201
▁김	-202
▁평	-203
▁타	-204
▁같은	-205
▁18	-206
라는	-207
▁양	-208
▁감	-209
▁시작	-210
들을	-211
▁왕	-212
▁되	-213
▁태	-214
▁또한	-215
리아	-216
▁승	-217
▁과	-218
▁카	-219
▁열	-220
▁참	-221
▁따라	-222
주의	-223
▁라	-224
▁행	-225
▁본	-226
▁12	-227
이며	-228
▁번	-229
▁각	-230
▁및	-231
▁회	-232
▁임	-233
스트	-234
▁함께	-235
▁변	-236
기도	-237
la	-238
▁크	-239
▁호	-240
▁사람	-241
▁피	-242
▁다른	-243
▁산	-244
라고	-245
▁표	-246
▁자신	-247
▁처	-248
▁음	-249
▁화	-250
▁지역	-251
하며	-252
▁올	-253
▁외	-254
▁경우	-255
▁미국	-256
▁물	-257
▁북	-258
레이	-259
▁그의	-260
▁프로	-261
▁총	-262
하지	-263
▁달	-264
▁f	-265
▁그러나	-266
이나	-267
▁베	-268
▁직	-269
▁새	-270
▁목	-271
▁때문에	-272
에도	-273
▁당시	-274
▁11	-275
▁약	-276
▁집	-277
하다	-278
mu	-279
▁학	-280
▁간	-281
▁for	-282
▁했다	-283
▁기록	-284
mula	-285
▁코	-286
▁점	-287
▁다음	-288
기를	-289
▁formula	-290
기에	-291
▁뒤	-292
▁민	-293
▁가장	-294
▁것을	-295
▁된다	-296
▁속	-297
▁저	-298
▁있었다	-299
였다	-300
▁항	-301
▁세계	-302
▁확	-303
▁것이	-304
▁이름	-305
▁사이	-306
시아	-307
▁체	-308
▁존	-309
이라고	-310
▁현재	-311
▁못	-312
▁조선	-313
▁게	-314
되는	-315
▁것으로	-316
▁의해	-317
리는	-318
▁그리고	-319
▁하나	-320
▁복	-321
▁198	-322
스는	-323
지는	-324
▁메	-325
졌다	-326
▁한국	-327
▁대한민	-328
▁있으며	-329
▁S	-330
스의	-331
▁투	-332
▁통해	-333
▁천	-334
▁박	-335
▁필	-336
▁드	-337
했고	-338
▁많은	-339
▁국가	-340
▁법	-341
▁근	-342
▁합	-343
▁것이다	-344
▁들어	-345
리를	-346
▁토	-347
▁증	-348
▁돌	-349
▁편	-350
되고	-351
▁청	-352
▁‘	-353
일에	-354
▁다시	-355
▁판	-356
하였고	-357
▁아니	-358
▁A	-359
▁살	-360
▁15	-361
▁대해	-362
▁프랑	-363
▁광	-364
▁활동	-365
이라는	-366
▁레	-367
▁선수	-368
하면서	-369
사를	-370
▁언	-371
▁높	-372
▁16	-373
▁치	-374
는다	-375
▁또는	-376
▁심	-377
이었다	-378
▁첫	-379
▁있었	-380
▁여러	-381
▁삼	-382
▁가지	-383
▁창	-384
▁F	-385
▁야	-386
▁할	-387
▁M	-388
▁하는	-389
▁버	-390
▁금	-391
▁철	-392
▁브	-393
▁C	-394
대로	-395
▁완	-396
▁하였다	-397
▁디	-398
로서	-399
▁병	-400
▁황	-401
▁쓰	-402
되었고	-403
▁죽	-404
▁경기	-405
상을	-406
▁197	-407
▁플	-408
▁모두	-409
▁17	-410
▁큰	-411
▁충	-412
▁독일	-413
▁위치	-414
▁포함	-415
▁패	-416
지를	-417
▁은	-418
▁백	-419
▁모든	-420
성을	-421
장을	-422
▁팀	-423
보다	-424
▁축	-425
개의	-426
위를	-427
▁순	-428
▁권	-429
이고	-430
▁친	-431
▁194	-432
▁196	-433
▁네	-434
▁트	-435
▁연구	-436
▁애	-437
▁취	-438
▁처음	-439
이었	-440
▁전쟁	-441
▁사회	-442
▁채	-443
▁시즌	-444
▁이루	-445
대의	-446
랜드	-447
▁이용	-448
▁페	-449
▁규	-450
▁끝	-451
▁서울	-452
년에는	-453
자가	-454
▁영화	-455
▁등의	-456
▁있어	-457
력을	-458
▁정부	-459
▁것은	-460
▁용	-461
이는	-462
▁일부	-463
▁손	-464
▁즉	-465
▁T	-466
▁루	-467
▁존재	-468
▁자신의	-469
▁문제	-470
▁알려	-471
▁식	-472
부분	-473
▁클	-474
▁위한	-475
▁중국	-476
▁이러	-477
회의	-478
거나	-479
▁이러한	-480
▁히	-481
▁나타	-482
▁14	-483
▁이상	-484
나라	-485
▁허	-486
▁대표	-487
▁영국	-488
er	-489
▁맞	-490
▁이어	-491
▁하지만	-492
▁앞	-493
▁정치	-494
▁논	-495
▁주장	-496
▁일반	-497
했으며	-498
▁가능	-499
▁구성	-500
▁이는	-501
▁대한민국	-502
도의	-503
▁동안	-504
▁새로	-505
기의	-506
하면	-507
▁중심	-508
▁프랑스	-509
도로	-510
▁되어	-511
다는	-512
년부터	-513
▁발표	-514
▁맡	-515
다고	-516
▁아이	-517
▁길	-518
▁도시	-519
▁D	-520
▁온	-521
▁이를	-522
기는	-523
니아	-524
도록	-525
▁걸	-526
들과	-527
▁환	-528
▁준	-529
시키	-530
기가	-531
▁테	-532
▁별	-533
▁개발	-534
서는	-535
통령	-536
사가	-537
▁13	-538
년대	-539
▁195	-540
▁B	-541
▁공격	-542
로부터	-543
자의	-544
라이	-545
리에	-546
▁I	-547
▁작품	-548
로는	-549
리가	-550
▁밝	-551
▁러	-552
▁갖	-553
났다	-554
▁등을	-555
에서도	-556
하였으며	-557
▁대부분	-558
▁하고	-559
스를	-560
▁곳	-561
in	-562
▁전투	-563
▁〈	-564
▁얻	-565
▁잘	-566
정을	-567
▁볼	-568
▁폭	-569
▁협	-570
▁영향	-571
▁검	-572
▁귀	-573
▁사건	-574
▁리그	-575
▁발견	-576
월에	-577
군의	-578
▁K	-579
위원	-580
되었으며	-581
▁이에	-582
▁등이	-583
이자	-584
▁월	-585
▁접	-586
들에게	-587
▁“	-588
▁대통령	-589
도를	-590
성이	-591
자를	-592
▁막	-593
▁193	-594
▁뉴	-595
▁감독	-596
000	-597
▁향	-598
▁최초	-599
▁게임	-600
▁캐	-601
▁담	-602
했던	-603
▁-	-604
▁대학	-605
▁생각	-606
▁농	-607
명의	-608
▁결과	-609
와의	-610
▁P	-611
자는	-612
세기	-613
▁극	-614
▁밀	-615
▁번째	-616
▁관계	-617
스가	-618
▁육	-619
▁다음과	-620
대를	-621
▁그녀	-622
▁특히	-623
▁국제	-624
어진	-625
▁이것	-626
▁된	-627
▁일어	-628
시에	-629
므로	-630
▁같이	-631
▁사실	-632
인의	-633
▁날	-634
▁제작	-635
▁석	-636
▁줄	-637
▁발생	-638
on	-639
▁책	-640
▁절	-641
▁계속	-642
▁받아	-643
란드	-644
자로	-645
▁30	-646
▁만들어	-647
▁의미	-648
가지	-649
▁관련	-650
▁우승	-651
리의	-652
▁새로운	-653
▁진행	-654
▁음악	-655
요한	-656
▁좋	-657
▁섬	-658
▁독립	-659
렸다	-660
등학교	-661
▁역사	-662
▁사망	-663
▁측	-664
식을	-665
▁부분	-666
▁효	-667
▁다양	-668
▁유럽	-669
▁인해	-670
년까지	-671
▁침	-672
원을	-673
▁앨	-674
▁홍	-675
▁받았다	-676
an	-677
▁시간	-678
▁형태	-679
▁암	-680
▁설치	-681
▁192	-682
르는	-683
▁태어	-684
▁곡	-685
이트	-686
▁이전	-687
▁있고	-688
▁문화	-689
▁2010	-690
▁참여	-691
▁방송	-692
▁U	-693
▁갈	-694
리스	-695
▁자유	-696
▁지방	-697
▁와	-698
▁잡	-699
▁교육	-700
▁경제	-701
▁봉	-702
km	-703
▁않았다	-704
▁2008	-705
▁L	-706
▁있던	-707
▁러시아	-708
▁키	-709
▁결정	-710
▁기술	-711
인이	-712
▁매우	-713
▁상태	-714
▁벌	-715
사의	-716
▁폐	-717
▁대회	-718
▁성공	-719
드는	-720
▁질	-721
▁수도	-722
▁로마	-723
전을	-724
▁머	-725
다가	-726
리카	-727
▁돌아	-728
▁몇	-729
부의	-730
▁글	-731
으로서	-732
▁면	-733
▁아버	-734
▁넘	-735
과의	-736
▁탄	-737
▁<	-738
▁N	-739
▁G	-740
▁아니라	-741
▁급	-742
기로	-743
리그	-744
명을	-745
▁등장	-746
하기도	-747
▁뜻	-748
▁헤	-749
▁한편	-750
에서의	-751
▁찾	-752
▁프로그	-753
대에	-754
▁결국	-755
▁2009	-756
▁들	-757
도가	-758
군은	-759
▁탈	-760
장이	-761
▁없다	-762
▁고려	-763
했지만	-764
▁커	-765
▁혼	-766
▁R	-767
▁누	-768
▁발매	-769
▁엔	-770
▁191	-771
하자	-772
▁가지고	-773
해서	-774
▁만들	-775
▁난	-776
▁중앙	-777
왔다	-778
처럼	-779
▁골	-780
▁범	-781
▁2011	-782
▁아들	-783
권을	-784
▁주로	-785
▁않고	-786
▁운동	-787
▁설립	-788
▁축구	-789
▁블	-790
▁윤	-791
▁조직	-792
-1	-793
▁2007	-794
_1	-795
사는	-796
학자	-797
▁이탈	-798
수를	-799
▁없는	-800
되지	-801
▁이유	-802
▁최고	-803
▁계획	-804
간의	-805
▁2012	-806
으로는	-807
▁악	-808
▁좌	-809
▁운영	-810
이지	-811
스터	-812
디오	-813
▁많이	-814
프트	-815
▁힘	-816
스와	-817
르크	-818
▁차지	-819
수의	-820
▁출신	-821
사로	-822
냈다	-823
▁방법	-824
▁내용	-825
▁E	-826
화를	-827
▁전체	-828
▁지원	-829
▁따르	-830
▁100	-831
▁송	-832
▁빠	-833
▁생산	-834
리즈	-835
▁아래	-836
도는	-837
명이	-838
▁떠	-839
▁하여	-840
▁타이	-841
으로써	-842
▁둘	-843
▁25	-844
성의	-845
▁구조	-846
운데	-847
▁앨범	-848
▁2014	-849
스로	-850
▁참가	-851
음을	-852
▁대한민국의	-853
번째	-854
대학교	-855
▁떨	-856
▁업	-857
▁터	-858
▁2013	-859
▁H	-860
he	-861
지의	-862
지가	-863
하려	-864
▁0	-865
▁이탈리아	-866
▁역할	-867
진다	-868
했으나	-869
▁각각	-870
▁표현	-871
이션	-872
스템	-873
나는	-874
▁2006	-875
▁모습	-876
▁지정	-877
수가	-878
▁프로그램	-879
,000	-880
하던	-881
▁유명	-882
▁않는다	-883
▁해당	-884
▁슈	-885
원의	-886
▁따라서	-887
하였으나	-888
▁제공	-889
리고	-890
▁가운데	-891
▁소속	-892
전에	-893
▁주요	-894
였던	-895
▁필요	-896
시켰	-897
▁이미	-898
▁니	-899
으로부터	-900
자인	-901
▁거의	-902
▁W	-903
▁국민	-904
▁몸	-905
력이	-906
▁다양한	-907
▁임명	-908
비아	-909
▁라이	-910
en	-911
원이	-912
▁격	-913
ar	-914
화국	-915
▁팔	-916
▁데뷔	-917
▁이루어	-918
장은	-919
▁남아	-920
▁선거	-921
군이	-922
▁묘	-923
점을	-924
▁마지	-925
▁폴	-926
사에	-927
제로	-928
▁붙	-929
▁공식	-930
스타	-931
었고	-932
머니	-933
▁얼	-934
지에	-935
▁컴	-936
▁쿠	-937
가는	-938
▁인정	-939
장으로	-940
부에	-941
▁대학교	-942
▁높은	-943
▁헌	-944
운동	-945
됐다	-946
갔다	-947
▁그가	-948
▁영향을	-949
▁직접	-950
▁인터	-951
▁능	-952
▁졸	-953
▁인구	-954
제를	-955
▁대신	-956
지고	-957
▁잠	-958
▁케	-959
어를	-960
▁2015	-961
▁따르면	-962
▁마지막	-963
상의	-964
▁보고	-965
이스	-966
▁21	-967
▁올림	-968
▁같다	-969
해야	-970
▁연결	-971
▁몰	-972
FA	-973
▁싱	-974
▁추가	-975
이가	-976
20	-977
▁시스템	-978
▁데이	-979
▁과정	-980
전에서	-981
▁상황	-982
▁스타	-983
▁있는데	-984
▁되는	-985
대학	-986
▁기준	-987
어로	-988
▁후에	-989
인은	-990
▁역시	-991
대는	-992
▁정의	-993
▁않은	-994
▁평가	-995
▁미국의	-996
원은	-997
▁않았	-998
▁월드	-999
인다	-1000
▁이름을	-1001
▁[	-1002
▁콘	-1003
▁여성	-1004
대한	-1005
▁기능	-1006
▁크게	-1007
스크	-1008
▁후보	-1009
▁진출	-1010
대가	-1011
▁눈	-1012
쪽으로	-1013
수는	-1014
▁유지	-1015
회를	-1016
▁그것	-1017
치는	-1018
▁출전	-1019
▁서로	-1020
▁,	-1021
약을	-1022
▁정보	-1023
부를	-1024
▁뿐	-1025
▁2016	-1026
▁보여	-1027
▁생활	-1028
문을	-1029
세의	-1030
위에	-1031
▁스페	-1032
선을	-1033
▁그리스	-1034
▁중요한	-1035
▁먹	-1036
어는	-1037
▁2005	-1038
▁비롯	-1039
▁지구	-1040
인을	-1041
▁수상	-1042
수로	-1043
▁발전	-1044
계를	-1045
들에	-1046
▁요구	-1047
es	-1048
▁칼	-1049
▁뛰	-1050
▁핵	-1051
부는	-1052
▁풍	-1053
▁작은	-1054
▁졸업	-1055
▁이야	-1056
▁제국	-1057
군을	-1058
▁시리즈	-1059
▁민주	-1060
▁올림픽	-1061
▁압	-1062
임을	-1063
▁24	-1064
▁건물	-1065
▁결혼	-1066
▁홈	-1067
▁열린	-1068
▁알려져	-1069
▁빌	-1070
▁반대	-1071
치를	-1072
▁일으	-1073
▁2000	-1074
있다	-1075
제가	-1076
▁자연	-1077
▁낮	-1078
al	-1079
▁놓	-1080
▁정도	-1081
상이	-1082
전히	-1083
▁이론	-1084
▁녹	-1085
▁22	-1086
▁일본의	-1087
▁건설	-1088
▁지금	-1089
▁시작했다	-1090
▁나라	-1091
▁마이	-1092
업을	-1093
▁학교	-1094
▁변경	-1095
at	-1096
▁동시에	-1097
▁190	-1098
▁연합	-1099
▁이르	-1100
▁딸	-1101
위원회	-1102
▁기본	-1103
▁이때	-1104
▁항공	-1105
▁군사	-1106
선의	-1107
▁거쳐	-1108
▁23	-1109
▁방식	-1110
▁2004	-1111
▁않는	-1112
우스	-1113
▁비판	-1114
성은	-1115
원으로	-1116
▁퍼	-1117
▁행정	-1118
▁어떤	-1119
장의	-1120
제의	-1121
▁느	-1122
▁출연	-1123
▁O	-1124
▁쇼	-1125
르트	-1126
▁플레이	-1127
▁원래	-1128
▁응	-1129
이었던	-1130
지로	-1131
▁소련	-1132
▁공개	-1133
드를	-1134
▁J	-1135
되면서	-1136
▁형성	-1137
▁인물	-1138
▁여기	-1139
니다	-1140
주는	-1141
▁학생	-1142
인민	-1143
▁아닌	-1144
▁교황	-1145
▁싸	-1146
▁실시	-1147
ic	-1148
▁사이에	-1149
▁노동	-1150
▁색	-1151
하는데	-1152
▁2017	-1153
민주	-1154
▁관한	-1155
▁센	-1156
▁되고	-1157
장에	-1158
▁대전	-1159
▁개최	-1160
▁음반	-1161
▁t	-1162
▁노래	-1163
▁엘	-1164
서를	-1165
오는	-1166
▁견	-1167
▁혹	-1168
일부터	-1169
▁바이	-1170
▁처음으로	-1171
▁공동	-1172
▁도입	-1173
▁의한	-1174
▁시절	-1175
른다	-1176
▁가진	-1177
상으로	-1178
▁희	-1179
대표	-1180
▁만든	-1181
체의	-1182
▁역할을	-1183
▁운행	-1184
▁있을	-1185
▁민족	-1186
▁공간	-1187
드의	-1188
▁말한다	-1189
격을	-1190
▁프리	-1191
▁오스트	-1192
▁「	-1193
▁옮	-1194
정한	-1195
소를	-1196
▁있다고	-1197
▁28	-1198
▁시대	-1199
▁최초의	-1200
단의	-1201
▁26	-1202
▁비슷	-1203
과는	-1204
."	-1205
세는	-1206
▁이동	-1207
▁기간	-1208
▁지도	-1209
이를	-1210
▁상대	-1211
▁브라	-1212
▁아르	-1213
▁자동	-1214
트로	-1215
▁바로	-1216
▁보통	-1217
자와	-1218
▁달리	-1219
트를	-1220
▁긴	-1221
▁초기	-1222
▁망	-1223
▁레이	-1224
혔다	-1225
중에	-1226
▁그래	-1227
▁판매	-1228
적을	-1229
▁훈	-1230
▁수행	-1231
▁지배	-1232
▁퇴	-1233
▁27	-1234
리로	-1235
호를	-1236
▁특징	-1237
▁기원	-1238
시켰다	-1239
▁어머니	-1240
▁기존	-1241
▁모델	-1242
▁2018	-1243
▁특별	-1244
▁전통	-1245
▁탑	-1246
라마	-1247
▁그를	-1248
동안	-1249
의를	-1250
▁이것은	-1251
▁이끌	-1252
▁하며	-1253
트는	-1254
▁현대	-1255
린다	-1256
▁인간	-1257
▁엄	-1258
▁인도	-1259
▁보내	-1260
했는데	-1261
▁종교	-1262
▁티	-1263
있는	-1264
▁될	-1265
▁울	-1266
체를	-1267
장에서	-1268
▁개의	-1269
▁제외	-1270
▁곧	-1271
▁지휘	-1272
▁개인	-1273
it	-1274
드로	-1275
▁정책	-1276
문화	-1277
▁관리	-1278
▁궁	-1279
▁활약	-1280
되며	-1281
▁겸	-1282
물을	-1283
▁2002	-1284
▁혁	-1285
▁지하	-1286
명은	-1287
▁분류	-1288
관은	-1289
▁아버지	-1290
군에	-1291
▁50	-1292
▁휴	-1293
하지만	-1294
이의	-1295
▁주변	-1296
독교	-1297
▁V	-1298
남도	-1299
▁그룹	-1300
시의	-1301
▁되었고	-1302
이기도	-1303
년의	-1304
리와	-1305
▁공연	-1306
▁모양	-1307
▁경찰	-1308
▁야구	-1309
▁변화	-1310
▁밴	-1311
무를	-1312
▁먼	-1313
is	-1314
▁지나	-1315
쳤다	-1316
▁기반	-1317
마다	-1318
▁2003	-1319
▁위치한	-1320
▁있다는	-1321
▁워	-1322
10	-1323
▁때문이다	-1324
어가	-1325
관을	-1326
▁받았	-1327
ou	-1328
▁국내	-1329
학적	-1330
▁비교	-1331
▁받은	-1332
▁밖	-1333
▁싱글	-1334
▁경기에서	-1335
▁중심으로	-1336
▁찾아	-1337
▁컴퓨	-1338
▁일반적으로	-1339
▁명칭	-1340
▁적용	-1341
위로	-1342
▁이적	-1343
도에	-1344
▁배우	-1345
▁빈	-1346
▁마을	-1347
▁실패	-1348
트의	-1349
▁설명	-1350
▁기업	-1351
체가	-1352
시간	-1353
▁없이	-1354
▁열차	-1355
제는	-1356
▁위하여	-1357
▁증가	-1358
호는	-1359
어의	-1360
▁자기	-1361
부가	-1362
▁연방	-1363
▁혹은	-1364
▁FC	-1365
▁피해	-1366
▁탐	-1367
르게	-1368
▁받고	-1369
리오	-1370
▁~	-1371
▁떨어	-1372
▁는	-1373
종의	-1374
▁가까	-1375
▁출시	-1376
프리카	-1377
▁숙	-1378
▁이런	-1379
학과	-1380
▁서비	-1381
스에	-1382
상은	-1383
▁차량	-1384
▁착	-1385
▁자신이	-1386
▁늘	-1387
▁어느	-1388
단을	-1389
사와	-1390
▁역임	-1391
▁29	-1392
▁없었다	-1393
세가	-1394
▁과거	-1395
▁사업	-1396
》,	-1397
일한	-1398
일에는	-1399
▁넓	-1400
▁부산	-1401
▁전문	-1402
▁풀	-1403
▁흔	-1404
▁확인	-1405
쪽에	-1406
re	-1407
회는	-1408
▁선정	-1409
▁도쿄	-1410
▁지지	-1411
스탄	-1412
▁전국	-1413
▁189	-1414
조의	-1415
▁넣	-1416
▁다이	-1417
당의	-1418
▁월드컵	-1419
▁컴퓨터	-1420
관이	-1421
▁기독교	-1422
▁올라	-1423
▁슬	-1424
렇게	-1425
▁우주	-1426
계의	-1427
원에	-1428
▁있지만	-1429
▁맥	-1430
선이	-1431
▁규모	-1432
키는	-1433
▁더욱	-1434
하거나	-1435
▁있어서	-1436
자들은	-1437
시켜	-1438
▁방향	-1439
기와	-1440
했다고	-1441
]]	-1442
▁개념	-1443
움을	-1444
▁너	-1445
.5	-1446
호로	-1447
▁행동	-1448
레스	-1449
▁담당	-1450
으면	-1451
이드	-1452
▁경상	-1453
겼다	-1454
▁그녀는	-1455
▁환경	-1456
▁기타	-1457
운드	-1458
▁활동을	-1459
이로	-1460
라도	-1461
심을	-1462
cm	-1463
▁대하여	-1464
▁사랑	-1465
▁추정	-1466
▁부르	-1467
▁콜	-1468
▁대부분의	-1469
피언	-1470
적이	-1471
▁상당	-1472
▁애니	-1473
▁분야	-1474
학을	-1475
▁이상의	-1476
나다	-1477
▁뛰어	-1478
정에	-1479
▁통합	-1480
▁낙	-1481
세를	-1482
인으로	-1483
연구	-1484
▁태어났다	-1485
리지	-1486
▁[[	-1487
▁두고	-1488
가와	-1489
▁산업	-1490
▁오늘	-1491
▁맺	-1492
▁샤	-1493
▁내려	-1494
▁1990	-1495
▁웨	-1496
성에	-1497
▁득	-1498
▁잉	-1499
▁태양	-1500
성과	-1501
50	-1502
▁염	-1503
구의	-1504
상에	-1505
▁이와	-1506
▁선택	-1507
▁최근	-1508
▁대체	-1509
했을	-1510
▁가족	-1511
▁챔	-1512
▁벨	-1513
인민공	-1514
le	-1515
시킨	-1516
▁소설	-1517
_2	-1518
▁최초로	-1519
▁40	-1520
▁보호	-1521
▁어린	-1522
▁푸	-1523
치가	-1524
▁최대	-1525
▁어려	-1526
면에	-1527
▁갑	-1528
▁부족	-1529
▁조건	-1530
▁기념	-1531
▁걸쳐	-1532
▁등에	-1533
.1	-1534
▁수록	-1535
▁31	-1536
-2	-1537
정이	-1538
▁뮤	-1539
어서	-1540
▁등으로	-1541
▁기관	-1542
▁땅	-1543
▁형식	-1544
▁점령	-1545
▁옥	-1546
렀다	-1547
▁2001	-1548
▁건축	-1549
▁획	-1550
▁선발	-1551
BS	-1552
한다는	-1553
▁불구	-1554
▁종류	-1555
▁명령	-1556
▁사고	-1557
▁데이터	-1558
▁승강	-1559
▁선언	-1560
만을	-1561
▁예를	-1562
▁불가	-1563
카이	-1564
▁최종	-1565
▁되었	-1566
▁선출	-1567
단은	-1568
▁드라마	-1569
▁평균	-1570
자들이	-1571
역을	-1572
학의	-1573
▁있게	-1574
시키는	-1575
소가	-1576
▁에너	-1577
만이	-1578
▁FI	-1579
법을	-1580
▁멤	-1581
▁연속	-1582
▁이유로	-1583
시마	-1584
▁그들의	-1585
▁이들은	-1586
▁잃	-1587
크로	-1588
▁보인다	-1589
▁물리	-1590
메이션	-1591
▁챔피언	-1592
비를	-1593
화가	-1594
▁클럽	-1595
▁중화	-1596
▁움	-1597
▁뉴욕	-1598
▁:	-1599
진을	-1600
▁자료	-1601
웠다	-1602
년간	-1603
일을	-1604
일까지	-1605
구를	-1606
하도록	-1607
▁승리	-1608
경기	-1609
▁좋은	-1610
▁흐	-1611
▁작곡	-1612
선은	-1613
▁이해	-1614
으므로	-1615
▁시민	-1616
▁잔	-1617
가의	-1618
▁말했다	-1619
신을	-1620
▁흑	-1621
▁자리	-1622
시는	-1623
▁공산	-1624
▁것이라고	-1625
▁후반	-1626
함으로써	-1627
▁윈	-1628
회에서	-1629
월에는	-1630
체는	-1631
스코	-1632
▁전에	-1633
드리	-1634
▁목표	-1635
▁왜	-1636
mm	-1637
▁멤버	-1638
▁불구하고	-1639
전은	-1640
▁·	-1641
▁팬	-1642
▁기원전	-1643
▁하다	-1644
명으로	-1645
▁효과	-1646
▁흥	-1647
▁밝혔다	-1648
▁칭	-1649
개월	-1650
내는	-1651
▁예정	-1652
북도	-1653
▁이름은	-1654
▁결승	-1655
▁그런	-1656
▁징	-1657
이에	-1658
▁그들은	-1659
▁언급	-1660
▁명의	-1661
▁연주	-1662
널리	-1663
하였는데	-1664
▁하나의	-1665
▁스페인	-1666
회가	-1667
▁위원	-1668
▁하지	-1669
이지만	-1670
전의	-1671
▁북한	-1672
▁나가	-1673
회에	-1674
랐다	-1675
▁조사	-1676
▁FIFA	-1677
▁사상	-1678
적은	-1679
시대	-1680
었으며	-1681
st	-1682
▁끌	-1683
▁겨	-1684
인데	-1685
지와	-1686
▁모습을	-1687
▁경기도	-1688
▁있었던	-1689
▁윌	-1690
부로	-1691
이란	-1692
▁애니메이션	-1693
▁비해	-1694
▁이듬	-1695
▁아직	-1696
되기	-1697
▁실험	-1698
▁정확	-1699
▁국가대표	-1700
▁이곳	-1701
▁믿	-1702
▁여자	-1703
▁1980	-1704
▁1,	-1705
▁거두	-1706
로를	-1707
▁깊	-1708
▁철도	-1709
▁거주	-1710
▁가문	-1711
직을	-1712
▁강화	-1713
지지	-1714
▁언어	-1715
전이	-1716
금을	-1717
▁주민	-1718
▁베이	-1719
난다	-1720
▁실제	-1721
▁옛	-1722
▁반응	-1723
▁표준	-1724
▁지정되었다	-1725
관으로	-1726
소의	-1727
▁지속	-1728
▁구분	-1729
..	-1730
치고	-1731
▁전기	-1732
▁드러	-1733
형을	-1734
▁1999	-1735
▁움직	-1736
▁이듬해	-1737
▁고대	-1738
▁휘	-1739
▁소유	-1740
계에	-1741
정부	-1742
로의	-1743
▁구간	-1744
▁위에	-1745
교육	-1746
단이	-1747
▁전자	-1748
▁요청	-1749
당은	-1750
▁컨	-1751
선에	-1752
일의	-1753
▁1998	-1754
30	-1755
▁등과	-1756
▁못했다	-1757
소는	-1758
▁과학	-1759
▁통과	-1760
▁교통	-1761
▁조지	-1762
▁오늘날	-1763
▁출판	-1764
▁언론	-1765
원에서	-1766
▁차례	-1767
▁것에	-1768
덜란드	-1769
▁획득	-1770
▁폴란드	-1771
▁세워	-1772
▁우리	-1773
라의	-1774
▁중에	-1775
단에	-1776
식이	-1777
▁씨	-1778
19	-1779
▁익	-1780
▁찬	-1781
▁그림	-1782
▁발달	-1783
우는	-1784
▁방문	-1785
▁대중	-1786
▁계약	-1787
.2	-1788
▁몽	-1789
▁제한	-1790
들도	-1791
▁캐나다	-1792
▁펼	-1793
▁사용하는	-1794
▁소비	-1795
▁마음	-1796
정의	-1797
▁돈	-1798
▁배치	-1799
물의	-1800
BC	-1801
안을	-1802
월부터	-1803
▁을	-1804
▁사이의	-1805
특별	-1806
▁불리	-1807
▁전해	-1808
▁유사	-1809
나무	-1810
▁완전히	-1811
지역	-1812
▁쓴	-1813
▁비행	-1814
▁런	-1815
점이	-1816
▁스스로	-1817
장과	-1818
트남	-1819
▁c	-1820
▁자주	-1821
들로	-1822
▁이름으로	-1823
▁솔	-1824
▁사람이	-1825
el	-1826
야마	-1827
▁경험	-1828
▁이로	-1829
▁네덜란드	-1830
▁TV	-1831
▁지역의	-1832
et	-1833
▁덕	-1834
▁영토	-1835
▁깨	-1836
▁오른	-1837
ing	-1838
▁물질	-1839
드가	-1840
주를	-1841
트가	-1842
▁예술	-1843
정은	-1844
▁작업	-1845
력은	-1846
트리	-1847
▁그대로	-1848
▁쌍	-1849
가를	-1850
골을	-1851
톨릭	-1852
▁정도로	-1853
▁갖고	-1854
▁않아	-1855
▁포함한	-1856
▁가리	-1857
▁쉽	-1858
▁마찬	-1859
▁빛	-1860
▁것이었다	-1861
문에	-1862
글랜드	-1863
▁친구	-1864
▁마찬가지	-1865
▁패배	-1866
ol	-1867
▁파괴	-1868
▁헌법	-1869
▁식민	-1870
▁분석	-1871
스턴	-1872
▁페르	-1873
산을	-1874
인과	-1875
군과	-1876
▁X	-1877
지게	-1878
▁여겨	-1879
▁일어나	-1880
▁만나	-1881
▁이들	-1882
▁추진	-1883
om	-1884
▁나온	-1885
▁수준	-1886
▁은퇴	-1887
었던	-1888
▁스포	-1889
▁널리	-1890
▁아시아	-1891
위가	-1892
▁제품	-1893
하의	-1894
▁중요	-1895
▁설계	-1896
▁강력	-1897
▁분리	-1898
▁바뀌	-1899
▁나머	-1900
▁복귀	-1901
위는	-1902
▁맡았다	-1903
▁먼저	-1904
▁밝혀	-1905
▁때까지	-1906
▁알려진	-1907
감을	-1908
▁사람들이	-1909
ion	-1910
▁비롯한	-1911
▁소프트	-1912
구는	-1913
▁꽃	-1914
▁188	-1915
텔레	-1916
▁바탕	-1917
▁오래	-1918
지에서	-1919
▁그녀의	-1920
▁이사	-1921
고등학교	-1922
없이	-1923
메리카	-1924
▁제조	-1925
▁덴	-1926
▁집합	-1927
▁많다	-1928
되었으나	-1929
▁세포	-1930
르고	-1931
사에서	-1932
▁1997	-1933
▁m	-1934
▁확장	-1935
받았다	-1936
경을	-1937
▁있도록	-1938
▁정규	-1939
▁현재의	-1940
위의	-1941
▁주의	-1942
▁정당	-1943
▁메이	-1944
▁존재한다	-1945
아가	-1946
▁괴	-1947
▁여기서	-1948
▁해석	-1949
교의	-1950
모토	-1951
▁멀	-1952
▁들어가	-1953
▁가르	-1954
▁경쟁	-1955
▁프로젝	-1956
동을	-1957
▁경우가	-1958
▁가져	-1959
▁나오	-1960
▁도착	-1961
▁기준으로	-1962
도와	-1963
량이	-1964
방송	-1965
▁밤	-1966
되기도	-1967
스카	-1968
▁육군	-1969
▁과정에서	-1970
.0	-1971
▁유명한	-1972
▁때는	-1973
▁마르	-1974
릭터	-1975
▁이외	-1976
▁의하여	-1977
아의	-1978
로가	-1979
▁멸	-1980
▁알고	-1981
국은	-1982
▁거부	-1983
▁상대로	-1984
▁통일	-1985
부르크	-1986
▁액	-1987
▁남쪽	-1988
프로	-1989
▁있으나	-1990
-0	-1991
60	-1992
▁북쪽	-1993
▁짧	-1994
▁개혁	-1995
스에서	-1996
▁핀	-1997
▁결합	-1998
▁잉글랜드	-1999
▁동맹	-2000
▁입단	-2001
▁단순	-2002
▁사라	-2003
▁단체	-2004
많은	-2005
▁근처	-2006
▁헬	-2007
▁부여	-2008
시를	-2009
▁앤	-2010
▁성장	-2011
▁대해서	-2012
이기	-2013
12	-2014
졌고	-2015
▁정식	-2016
▁파견	-2017
▁가톨릭	-2018
▁의하면	-2019
▁성립	-2020
▁외국	-2021
▁접근	-2022
했다는	-2023
▁조약	-2024
▁현재는	-2025
규모	-2026
▁1995	-2027
고를	-2028
▁비슷한	-2029
▁해결	-2030
이어	-2031
▁인터넷	-2032
▁1970	-2033
▁영국의	-2034
▁정신	-2035
▁일제	-2036
▁가능하다	-2037
▁o	-2038
▁유래	-2039
▁공화국	-2040
▁시설	-2041
▁연기	-2042
행을	-2043
▁반란	-2044
▁위해서	-2045
국이	-2046
▁요시	-2047
식은	-2048
▁않다	-2049
▁맨	-2050
▁1996	-2051
▁아무	-2052
인민공화국	-2053
▁웹	-2054
▁칸	-2055
형의	-2056
▁불리는	-2057
거리	-2058
▁포르	-2059
▁이렇게	-2060
▁캐릭터	-2061
주로	-2062
▁바꾸	-2063
▁오스트리아	-2064
▁유전	-2065
수한	-2066
▁충청	-2067
▁달러	-2068
▁홀	-2069
르의	-2070
량을	-2071
▁촉	-2072
어나	-2073
식의	-2074
▁법률	-2075
▁작용	-2076
▁하나로	-2077
▁알렉	-2078
▁주인	-2079
_3	-2080
▁보다	-2081
▁사무	-2082
▁독일의	-2083
▁겪	-2084
부에서	-2085
▁국립	-2086
▁품	-2087
하기로	-2088
구가	-2089
▁제국의	-2090
▁궤	-2091
일랜드	-2092
▁수많은	-2093
▁경영	-2094
초등학교	-2095
조를	-2096
▁것과	-2097
▁우승을	-2098
▁동물	-2099
하다가	-2100
한다고	-2101
▁훈련	-2102
성으로	-2103
▁치료	-2104
자에	-2105
▁습	-2106
기관	-2107
▁체포	-2108
▁부정	-2109
▁가수	-2110
▁km	-2111
▁논란	-2112
스티	-2113
▁기초	-2114
▁작가	-2115
▁인천	-2116
▁조각	-2117
▁일을	-2118
광역	-2119
▁시작하였다	-2120
▁만에	-2121
▁방어	-2122
▁초대	-2123
스테	-2124
▁아마	-2125
▁베트남	-2126
▁1960	-2127
▁임시	-2128
▁더불	-2129
자리	-2130
▁크로	-2131
였고	-2132
▁여름	-2133
▁지역에	-2134
와는	-2135
았고	-2136
▁마찬가지로	-2137
▁대응	-2138
am	-2139
▁대구	-2140
▁런던	-2141
나이	-2142
▁관측	-2143
▁십	-2144
▁술	-2145
▁결성	-2146
▁근거	-2147
함을	-2148
▁60	-2149
▁놀	-2150
왕의	-2151
메달	-2152
지방	-2153
조는	-2154
▁있었고	-2155
으면서	-2156
▁더불어	-2157
▁친일	-2158
사카	-2159
▁대해서는	-2160
▁엔진	-2161
라스	-2162
년을	-2163
▁혈	-2164
▁수용	-2165
▁다르	-2166
베이	-2167
▁제기	-2168
▁재판	-2169
▁디자인	-2170
니는	-2171
▁국가대표팀	-2172
▁형태로	-2173
▁끝에	-2174
▁제시	-2175
만의	-2176
▁시도	-2177
▁몇몇	-2178
▁그렇	-2179
',	-2180
▁준비	-2181
▁살아	-2182
부와	-2183
▁처리	-2184
▁이루어진	-2185
▁1994	-2186
▁사용한다	-2187
▁공작	-2188
▁동쪽	-2189
▁황제	-2190
▁있기	-2191
▁전라	-2192
▁값	-2193
면을	-2194
▁자동차	-2195
▁크리스	-2196
▁쌓	-2197
민주주의	-2198
▁이주	-2199
▁꾸	-2200
▁체결	-2201
▁나타나	-2202
▁하나이다	-2203
점으로	-2204
낸다	-2205
▁다만	-2206
시가	-2207
▁UE	-2208
40	-2209
▁즉위	-2210
ac	-2211
▁얼마	-2212
▁제안	-2213
▁사용할	-2214
▁대표적인	-2215
▁아프리카	-2216
웨어	-2217
▁방영	-2218
▁통치	-2219
▁낳	-2220
스토	-2221
▁직후	-2222
▁흡	-2223
어졌다	-2224
▁것도	-2225
되자	-2226
▁시행	-2227
력의	-2228
조가	-2229
▁좋아	-2230
프는	-2231
▁UEFA	-2232
화의	-2233
시코	-2234
▁외교	-2235
▁위험	-2236
▁타이틀	-2237
▁붕	-2238
▁프랑스의	-2239
▁상호	-2240
▁생성	-2241
▁상징	-2242
▁지적	-2243
▁70	-2244
▁스웨	-2245
▁the	-2246
▁완성	-2247
▁숨	-2248
▁귀족	-2249
▁못하고	-2250
▁하이	-2251
인들이	-2252
화된	-2253
▁회의	-2254
학생	-2255
15	-2256
▁폐지	-2257
▁교회	-2258
자들의	-2259
▁규정	-2260
▁특정	-2261
려고	-2262
▁미사	-2263
▁살해	-2264
br	-2265
il	-2266
시키고	-2267
스키	-2268
▁있지	-2269
▁떠나	-2270
▁옮겨	-2271
▁기록했다	-2272
▁지냈다	-2273
대와	-2274
▁1992	-2275
권의	-2276
▁스테	-2277
▁문제가	-2278
계가	-2279
▁의견	-2280
▁못한	-2281
▁시험	-2282
▁발행	-2283
▁정부는	-2284
▁밑	-2285
▁중에서	-2286
▁구성되어	-2287
간다	-2288
물이	-2289
▁안정	-2290
▁『	-2291
▁강한	-2292
▁윈도	-2293
▁부른다	-2294
od	-2295
레일	-2296
소에	-2297
▁중간	-2298
▁말을	-2299
▁이야기	-2300
▁187	-2301
▁취임	-2302
일본	-2303
",	-2304
▁스포츠	-2305
▁싶	-2306
▁따른	-2307
▁중단	-2308
18	-2309
▁서쪽	-2310
▁영어	-2311
▁왼	-2312
▁번역	-2313
치의	-2314
▁교수	-2315
▁회사	-2316
승을	-2317
내고	-2318
▁고등학교	-2319
량은	-2320
▁스웨덴	-2321
▁나머지	-2322
▁뇌	-2323
▁캠	-2324
▁위의	-2325
베르	-2326
▁스위	-2327
▁지난	-2328
▁그해	-2329
▁년	-2330
▁필리	-2331
나가	-2332
▁혐	-2333
▁이름이	-2334
▁듣	-2335
▁나무	-2336
▁불교	-2337
▁주도	-2338
▁등록	-2339
국을	-2340
과에	-2341
▁가정	-2342
▁1945	-2343
▁천황	-2344
크의	-2345
▁동생	-2346
▁팀의	-2347
▁충돌	-2348
하라	-2349
롭게	-2350
러운	-2351
as	-2352
선거	-2353
디어	-2354
크는	-2355
▁활용	-2356
촬영	-2357
▁가능한	-2358
▁목적으로	-2359
▁브라질	-2360
▁를	-2361
▁벗	-2362
▁Y	-2363
미터	-2364
론을	-2365
나라의	-2366
▁문제를	-2367
세에	-2368
▁표시	-2369
▁발사	-2370
량의	-2371
▁of	-2372
▁해안	-2373
▁경우에는	-2374
▁보유	-2375
▁신라	-2376
▁젊	-2377
관에	-2378
▁텔레	-2379
▁이용하여	-2380
▁소재	-2381
▁영역	-2382
계는	-2383
▁하루	-2384
▁안에	-2385
▁시기	-2386
▁빼	-2387
당을	-2388
비가	-2389
▁삶	-2390
기술	-2391
▁앙	-2392
▁대륙	-2393
▁칠	-2394
▁제거	-2395
트에서	-2396
력으로	-2397
▁뒤에	-2398
▁1991	-2399
▁지역에서	-2400
▁한국의	-2401
▁몬	-2402
▁종료	-2403
▁물론	-2404
해졌다	-2405
리에서	-2406
▁1993	-2407
▁금지	-2408
였으며	-2409
▁만약	-2410
▁관련된	-2411
▁투표	-2412
▁본래	-2413
▁벽	-2414
▁국회의	-2415
구에	-2416
▁표기	-2417
▁노르	-2418
▁경기를	-2419
▁만들었다	-2420
▁조성	-2421
▁완전	-2422
▁가입	-2423
▁광주	-2424
▁낮은	-2425
▁계승	-2426
▁읽	-2427
분을	-2428
▁주었다	-2429
▁남북	-2430
▁소개	-2431
▁주는	-2432
▁달성	-2433
▁사진	-2434
선에서	-2435
인이다	-2436
▁되었으며	-2437
▁사실을	-2438
▁곤	-2439
ed	-2440
하이	-2441
▁관계를	-2442
동에	-2443
▁다루	-2444
비전	-2445
▁잇	-2446
▁주목	-2447
▁근무	-2448
권이	-2449
▁공항	-2450
▁아니다	-2451
▁s	-2452
▁사용된다	-2453
▁간의	-2454
▁묘사	-2455
소년	-2456
▁해외	-2457
민족	-2458
카와	-2459
원과	-2460
라인	-2461
신의	-2462
▁계열	-2463
▁기여	-2464
▁나누	-2465
▁너무	-2466
종이	-2467
했기	-2468
▁억	-2469
인지	-2470
로로	-2471
▁전달	-2472
▁그린	-2473
습니다	-2474
▁스트	-2475
▁무렵	-2476
▁저항	-2477
주교	-2478
▁당선	-2479
▁바다	-2480
▁프레	-2481
11	-2482
▁죄	-2483
▁실제로	-2484
▁전투에서	-2485
작용	-2486
▁남자	-2487
상에서	-2488
인들은	-2489
▁썼	-2490
▁정치적	-2491
▁히로	-2492
▁지명	-2493
▁수는	-2494
▁실행	-2495
▁건너	-2496
루스	-2497
▁1950	-2498
가로	-2499
▁개통	-2500
▁계산	-2501
▁각종	-2502
.3	-2503
▁혁명	-2504
▁적극	-2505
▁삼성	-2506
▁분포	-2507
▁수가	-2508
▁아내	-2509
적으로는	-2510
평양	-2511
▁186	-2512
▁마련	-2513
▁필요한	-2514
▁이래	-2515
▁빅	-2516
▁보존	-2517
하에	-2518
▁80	-2519
당이	-2520
멕시코	-2521
▁기존의	-2522
준다	-2523
▁벤	-2524
문이	-2525
▁에서	-2526
▁적이	-2527
▁교체	-2528
▁노선	-2529
▁사이에서	-2530
▁둘러	-2531
ro	-2532
▁반면	-2533
▁일이	-2534
▁유대	-2535
▁촬영	-2536
비는	-2537
▁제주	-2538
▁카를	-2539
▁주인공	-2540
사업	-2541
▁갖추	-2542
▁가까운	-2543
아시아	-2544
상과	-2545
▁1988	-2546
▁사령	-2547
사회	-2548
해를	-2549
▁항상	-2550
▁강조	-2551
소로	-2552
▁불러	-2553
▁전반	-2554
만에	-2555
▁윌리	-2556
▁기록을	-2557
▁집중	-2558
▁넘어	-2559
▁자치	-2560
▁최고의	-2561
▁d	-2562
▁받아들	-2563
파의	-2564
에게는	-2565
트워	-2566
▁서울특별	-2567
▁일어난	-2568
13	-2569
▁빨	-2570
▁지하철	-2571
▁맹	-2572
▁평화	-2573
주가	-2574
▁보수	-2575
차를	-2576
연합	-2577
▁수비	-2578
▁합류	-2579
단으로	-2580
▁유일한	-2581
▁입학	-2582
▁이슬	-2583
▁정착	-2584
▁있었지만	-2585
▁엘리	-2586
▁명예	-2587
▁이다	-2588
▁디지	-2589
치로	-2590
밖에	-2591
▁옆	-2592
석을	-2593
▁보여주	-2594
월까지	-2595
시로	-2596
▁즐	-2597
분에	-2598
▁전환	-2599
ig	-2600
전으로	-2601
▁뿐만	-2602
16	-2603
교회	-2604
▁밴드	-2605
▁유니	-2606
▁해군	-2607
▁승격	-2608
▁하기	-2609
▁1989	-2610
▁종합	-2611
▁아카	-2612
일은	-2613
▁재직	-2614
과학	-2615
▁확대	-2616
호가	-2617
▁중의	-2618
▁인식	-2619
▁문학	-2620
▁성격	-2621
▁남부	-2622
서로	-2623
▁허용	-2624
보다는	-2625
80	-2626
▁바탕으로	-2627
트에	-2628
▁안전	-2629
▁오후	-2630
크라	-2631
▁가는	-2632
기고	-2633
NA	-2634
조선	-2635
류의	-2636
▁선수로	-2637
구려	-2638
▁여전히	-2639
질을	-2640
끄는	-2641
▁만들어진	-2642
▁부모	-2643
나의	-2644
의로	-2645
▁굴	-2646
▁선수권	-2647
▁공격을	-2648
▁그래서	-2649
▁의해서	-2650
시즌	-2651
이던	-2652
▁왔다	-2653
관의	-2654
▁이스	-2655
▁납	-2656
▁끼	-2657
가가	-2658
▁고속	-2659
▁전략	-2660
지도	-2661
군으로	-2662
▁나중에	-2663
▁오르	-2664
▁이집	-2665
▁승리를	-2666
력에	-2667
▁속하는	-2668
▁p	-2669
▁라디오	-2670
▁던	-2671
▁아일랜드	-2672
▁내각	-2673
▁32	-2674
▁사람은	-2675
▁바르	-2676
▁천문	-2677
▁비밀	-2678
화는	-2679
▁보면	-2680
▁이승	-2681
▁뒷	-2682
▁올랐다	-2683
년대에	-2684
▁관찰	-2685
실을	-2686
▁관광	-2687
적이고	-2688
▁충분	-2689
▁객	-2690
서에	-2691
▁동료	-2692
▁등은	-2693
▁둔	-2694
▁의원	-2695
종은	-2696
되었는데	-2697
▁이후에	-2698
▁내부	-2699
▁일반적인	-2700
▁인한	-2701
▁보도	-2702
▁인민	-2703
▁판단	-2704
▁정부의	-2705
력과	-2706
▁기능을	-2707
▁조선민주주의	-2708
ch	-2709
▁최소	-2710
▁떨어진	-2711
▁록	-2712
▁끊	-2713
로운	-2714
▁혜	-2715
▁지역을	-2716
산의	-2717
▁알렉산	-2718
신이	-2719
▁득점	-2720
정보	-2721
▁작성	-2722
▁강력한	-2723
▁생활을	-2724
▁탑재	-2725
▁대사	-2726
▁만족	-2727
▁자리를	-2728
드와	-2729
▁주장했다	-2730
트와	-2731
▁쉽게	-2732
버스	-2733
▁불린다	-2734
▁야마	-2735
▁붕괴	-2736
체에	-2737
▁서비스	-2738
생활	-2739
설을	-2740
▁베르	-2741
▁확보	-2742
▁다카	-2743
▁하자	-2744
▁그려	-2745
졌으며	-2746
▁캘	-2747
▁공급	-2748
▁b	-2749
▁하게	-2750
▁점차	-2751
프가	-2752
and	-2753
▁전개	-2754
▁포르투	-2755
▁족	-2756
화에	-2757
▁관심을	-2758
전쟁	-2759
시대의	-2760
▁인디	-2761
계에서	-2762
▁없어	-2763
▁계약을	-2764
▁르	-2765
▁그곳	-2766
헝가	-2767
▁침공	-2768
▁디지털	-2769
▁배경	-2770
▁부근	-2771
ve	-2772
▁사람들은	-2773
▁상업	-2774
로서의	-2775
년과	-2776
▁국왕	-2777
17	-2778
▁윌리엄	-2779
▁사용하여	-2780
us	-2781
웨이	-2782
▁함수	-2783
▁인근	-2784
▁연장	-2785
후의	-2786
▁대립	-2787
▁비디오	-2788
▁원자	-2789
▁이슬람	-2790
▁젊은	-2791
▁출발	-2792
▁만드는	-2793
▁멕시코	-2794
터는	-2795
사인	-2796
화국의	-2797
▁하면서	-2798
▁시작되었다	-2799
▁밖에	-2800
면의	-2801
▁냉	-2802
과를	-2803
▁슈퍼	-2804
▁시대의	-2805
하려는	-2806
.4	-2807
▁홈런	-2808
바이	-2809
▁수학	-2810
레일리아	-2811
▁당시의	-2812
14	-2813
▁겨울	-2814
▁고구려	-2815
물로	-2816
▁뮤직	-2817
▁제목	-2818
▁스코	-2819
▁이끄는	-2820
▁제외한	-2821
id	-2822
▁외에도	-2823
ad	-2824
▁바람	-2825
▁경우도	-2826
▁신문	-2827
▁귀국	-2828
계로	-2829
▁얼굴	-2830
▁위협	-2831
▁수립	-2832
▁오스	-2833
▁남편	-2834
세기에	-2835
▁채택	-2836
▁파이	-2837
▁폰	-2838
▁국방	-2839
▁마이크로	-2840
▁전시	-2841
▁셀	-2842
TV	-2843
▁목록	-2844
래프트	-2845
형이	-2846
당에	-2847
_4	-2848
▁시기에	-2849
▁때에는	-2850
광역시	-2851
▁통하여	-2852
었는데	-2853
▁중국의	-2854
▁세운	-2855
▁측정	-2856
▁곳에	-2857
▁불과	-2858
리포	-2859
▁이루어져	-2860
단체	-2861
당한	-2862
▁이것이	-2863
받아	-2864
▁의미한다	-2865
씨는	-2866
하다고	-2867
▁인구는	-2868
▁했지만	-2869
▁알아	-2870
르타	-2871
즈의	-2872
▁스토	-2873
되었지만	-2874
▁편집	-2875
▁관할	-2876
▁베네	-2877
점에서	-2878
권은	-2879
▁이번	-2880
까지는	-2881
역으로	-2882
▁개봉	-2883
주에	-2884
▁힘을	-2885
▁높이	-2886
▁한다는	-2887
대에서	-2888
국에	-2889
▁구축	-2890
-3	-2891
▁감소	-2892
▁해방	-2893
티아	-2894
▁장기	-2895
▁유로	-2896
▁구단	-2897
▁유리	-2898
자들을	-2899
▁회복	-2900
▁꼬	-2901
자이다	-2902
▁죽은	-2903
까지의	-2904
▁자신을	-2905
중학교	-2906
▁왔	-2907
▁에이	-2908
▁사회주의	-2909
이라고도	-2910
▁좀	-2911
▁비난	-2912
▁동일	-2913
두고	-2914
▁사후	-2915
▁헨	-2916
피아	-2917
▁발표했다	-2918
▁다섯	-2919
▁투수	-2920
라고도	-2921
정으로	-2922
▁책임	-2923
▁경향	-2924
▁쪽	-2925
인트	-2926
▁노력	-2927
▁지상	-2928
▁/	-2929
▁오사카	-2930
▁변호	-2931
▁마리아	-2932
되었던	-2933
▁의사	-2934
▁나뉘	-2935
▁부문	-2936
형은	-2937
개를	-2938
학년	-2939
▁나폴	-2940
▁미술	-2941
슨은	-2942
▁임명되었다	-2943
▁짓	-2944
▁전사	-2945
법은	-2946
▁생물	-2947
었으나	-2948
▁척	-2949
▁.	-2950
도에서	-2951
▁폭발	-2952
일보	-2953
▁네트워	-2954
▁오스트레일리아	-2955
▁옹	-2956
▁흰	-2957
▁시에	-2958
▁비교적	-2959
면에서	-2960
▁한다고	-2961
▁증거	-2962
라노	-2963
▁민간	-2964
▁500	-2965
제에	-2966
해의	-2967
▁해체	-2968
▁않을	-2969
▁어떻	-2970
▁서식	-2971
▁스튜	-2972
하고자	-2973
▁류	-2974
세포	-2975
▁아우	-2976
서가	-2977
▁받는	-2978
▁인간의	-2979
▁정보를	-2980
▁복잡	-2981
▁증명	-2982
▁참석	-2983
았으며	-2984
자에게	-2985
▁뒤를	-2986
▁불가능	-2987
▁북부	-2988
▁종종	-2989
▁인기를	-2990
오카	-2991
▁뛰어난	-2992
▁출생	-2993
▁비용	-2994
▁파일	-2995
▁1987	-2996
러스	-2997
사이	-2998
▁흘	-2999
▁전차	-3000
▁수입	-3001
▁물러	-3002
▁항복	-3003
▁합병	-3004
류를	-3005
▁도로	-3006
▁등에서	-3007
.6	-3008
▁때에	-3009
▁떨어져	-3010
▁본격	-3011
▁했고	-3012
▁우선	-3013
소에서	-3014
▁대규모	-3015
다면	-3016
▁나서	-3017
같은	-3018
▁녹음	-3019
리어	-3020
▁초반	-3021
▁아시	-3022
▁미국에서	-3023
▁매년	-3024
▁자본	-3025
이었고	-3026
▁보이	-3027
신은	-3028
디아	-3029
▁루이	-3030
▁인수	-3031
▁시대에	-3032
지면서	-3033
▁위치해	-3034
▁잎	-3035
서의	-3036
▁제정	-3037
▁90	-3038
▁센터	-3039
▁평양	-3040
▁도움을	-3041
▁하는데	-3042
었지만	-3043
하였지만	-3044
임스	-3045
▁만화	-3046
▁사용되는	-3047
.”	-3048
어져	-3049
▁조금	-3050
려는	-3051
▁균	-3052
▁펜	-3053
▁쇠	-3054
족의	-3055
▁본관은	-3056
▁전혀	-3057
▁했으나	-3058
▁강원	-3059
▁암살	-3060
▁서울특별시	-3061
▁그에	-3062
▁사람의	-3063
▁시의	-3064
▁방식으로	-3065
사령	-3066
▁후손	-3067
라우	-3068
▁유일	-3069
차례	-3070
년이	-3071
▁장착	-3072
하려고	-3073
▁어떻게	-3074
ent	-3075
대전	-3076
법에	-3077
▁홍콩	-3078
▁구체	-3079
▁지역은	-3080
▁출신의	-3081
▁대회에서	-3082
법원	-3083
▁외에	-3084
▁1986	-3085
철도	-3086
은행	-3087
▁정도의	-3088
그룹	-3089
.7	-3090
▁35	-3091
▁아키	-3092
다운	-3093
인에	-3094
▁정상	-3095
▁케이	-3096
▁수정	-3097
▁설정	-3098
▁인사	-3099
▁사실상	-3100
료로	-3101
▁봄	-3102
▁지진	-3103
라가	-3104
센터	-3105
▁설치되어	-3106
▁아주	-3107
▁오히	-3108
▁집단	-3109
▁속에서	-3110
적이다	-3111
분의	-3112
▁속에	-3113
▁있었으며	-3114
식으로	-3115
권에	-3116
유의	-3117
▁있었으나	-3118
▁내용을	-3119
▁신경	-3120
▁되면서	-3121
메달을	-3122
겠다고	-3123
▁나오는	-3124
▁묻	-3125
수와	-3126
아버	-3127
▁잘못	-3128
의의	-3129
▁옷	-3130
워드	-3131
▁주교	-3132
료를	-3133
메이	-3134
▁공부	-3135
▁답	-3136
▁내에서	-3137
▁저장	-3138
▁세웠다	-3139
▁되지	-3140
▁그에게	-3141
동차	-3142
▁근대	-3143
리기	-3144
도시	-3145
어와	-3146
구로	-3147
▁포르투갈	-3148
...	-3149
▁길이	-3150
▁털	-3151
하나	-3152
▁자체	-3153
개발	-3154
씨의	-3155
시오	-3156
기업	-3157
▁숫	-3158
다른	-3159
▁윈도우	-3160
선과	-3161
▁기억	-3162
▁보였다	-3163
경에	-3164
역은	-3165
▁대형	-3166
▁마침	-3167
▁있었는데	-3168
시킬	-3169
▁현실	-3170
▁회원	-3171
.8	-3172
지션	-3173
▁죽음	-3174
니스	-3175
▁둥	-3176
고로	-3177
▁투입	-3178
▁보이는	-3179
▁로스	-3180
▁여행	-3181
▁행사	-3182
▁시청	-3183
▁간주	-3184
▁미래	-3185
▁태어난	-3186
▁원칙	-3187
▁자는	-3188
▁블랙	-3189
점은	-3190
품을	-3191
▁고전	-3192
▁노예	-3193
즈는	-3194
인들의	-3195
▁2,	-3196
▁적은	-3197
▁핀란드	-3198
▁편입	-3199
▁추측	-3200
▁오히려	-3201
해진	-3202
▁태평양	-3203
▁탄생	-3204
간에	-3205
명한	-3206
정책	-3207
▁팀은	-3208
라엘	-3209
▁정리	-3210
지기	-3211
▁대상	-3212
▁이전에	-3213
▁부인	-3214
문의	-3215
▁세우	-3216
어들	-3217
로도	-3218
▁중반	-3219
용으로	-3220
▁뿌	-3221
▁아름	-3222
▁잠시	-3223
▁이끌고	-3224
▁재정	-3225
▁헝가	-3226
48	-3227
받은	-3228
▁거절	-3229
▁오브	-3230
▁인하여	-3231
▁1984	-3232
▁건강	-3233
▁신앙	-3234
라운드	-3235
▁조정	-3236
▁무장	-3237
▁마사	-3238
▁듯	-3239
미널	-3240
산은	-3241
역에	-3242
▁과정을	-3243
수에	-3244
스럽	-3245
▁사례	-3246
았던	-3247
▁모스크	-3248
경의	-3249
▁기계	-3250
▁이룬	-3251
▁1920	-3252
▁꿈	-3253
▁텔레비전	-3254
▁300	-3255
▁가격	-3256
프의	-3257
▁기후	-3258
▁확정	-3259
일이	-3260
어도	-3261
▁후쿠	-3262
▁없고	-3263
▁확실	-3264
리포니아	-3265
▁라틴	-3266
▁활발	-3267
▁섭	-3268
붉은	-3269
하다는	-3270
▁끝나	-3271
▁얻었다	-3272
▁쉬	-3273
▁오랜	-3274
▁사용되었다	-3275
▁만큼	-3276
▁비율	-3277
▁1985	-3278
함에	-3279
▁통신	-3280
▁됐다	-3281
크를	-3282
▁선고	-3283
▁기획	-3284
▁짧은	-3285
언을	-3286
▁사회적	-3287
▁보급	-3288
▁대항	-3289
▁라이브	-3290
▁멜	-3291
▁에스	-3292
▁타고	-3293
산업	-3294
경제	-3295
▁제도	-3296
▁전쟁이	-3297
▁요리	-3298
ot	-3299
동의	-3300
▁역은	-3301
▁동부	-3302
▁예상	-3303
▁장애	-3304
▁흔히	-3305
레이션	-3306
▁띠	-3307
▁시내	-3308
선으로	-3309
ow	-3310
우리	-3311
▁사는	-3312
령을	-3313
시와	-3314
▁시각	-3315
리게	-3316
▁뽑	-3317
세이	-3318
등을	-3319
un	-3320
문화재	-3321
▁사람을	-3322
일러	-3323
면이	-3324
▁에너지	-3325
▁동일한	-3326
▁핵심	-3327
▁몽골	-3328
점에	-3329
▁구성된	-3330
▁창설	-3331
당했다	-3332
▁머리	-3333
▁협력	-3334
▁한번	-3335
▁화학	-3336
▁역사상	-3337
▁이스라엘	-3338
▁컬	-3339
▁1930	-3340
▁생겨	-3341
▁터키	-3342
▁덮	-3343
▁파리	-3344
공항	-3345
▁2019	-3346
타를	-3347
물은	-3348
자기	-3349
▁통한	-3350
로스	-3351
▁편성	-3352
▁텍	-3353
▁어렵	-3354
▁이후에는	-3355
▁에드	-3356
만은	-3357
▁요새	-3358
▁형태의	-3359
▁개선	-3360
기에는	-3361
▁고향	-3362
▁장악	-3363
▁특수	-3364
25	-3365
법의	-3366
▁찰	-3367
▁게이	-3368
▁개편	-3369
▁범죄	-3370
▁수여	-3371
▁대상으로	-3372
ra	-3373
70	-3374
나와	-3375
▁전쟁을	-3376
ec	-3377
형으로	-3378
▁아랍	-3379
▁앞서	-3380
▁위해서는	-3381
▁만주	-3382
▁공공	-3383
▁하였고	-3384
▁캘리포니아	-3385
오프	-3386
▁약간	-3387
▁머물	-3388
▁세르	-3389
▁시간이	-3390
판을	-3391
▁넓은	-3392
▁했으며	-3393
술을	-3394
▁시장	-3395
▁농업	-3396
더라도	-3397
▁권한	-3398
안에	-3399
▁덴마	-3400
▁1940	-3401
▁위치하고	-3402
키아	-3403
▁되면	-3404
라비아	-3405
▁훨	-3406
버트	-3407
▁계획을	-3408
받고	-3409
▁도움	-3410
▁그런데	-3411
음에도	-3412
▁세이	-3413
▁KBS	-3414
색을	-3415
▁에피	-3416
▁소프트웨어	-3417
▁춘	-3418
동이	-3419
▁방출	-3420
▁삭	-3421
▁연극	-3422
▁지원을	-3423
▁관심	-3424
슈타	-3425
▁여객	-3426
드에	-3427
▁업무	-3428
▁구별	-3429
역에서	-3430
▁통해서	-3431
▁절대	-3432
▁정부가	-3433
▁하늘	-3434
▁심각	-3435
▁이른	-3436
90	-3437
▁나와	-3438
▁남성	-3439
문은	-3440
▁1982	-3441
▁멸망	-3442
에게서	-3443
▁은행	-3444
▁카메	-3445
▁종목	-3446
▁형제	-3447
▁훨씬	-3448
▁태어나	-3449
▁유도	-3450
▁피아	-3451
▁가로	-3452
보를	-3453
▁인터뷰	-3454
▁개정	-3455
▁제출	-3456
▁채널	-3457
세와	-3458
▁a	-3459
호의	-3460
▁사용한	-3461
▁보는	-3462
제국	-3463
▁메이저	-3464
〉,	-3465
▁반복	-3466
▁애플	-3467
회사	-3468
▁델	-3469
▁비록	-3470
▁고정	-3471
티브	-3472
▁박사	-3473
▁필리핀	-3474
▁그것은	-3475
▁주어	-3476
▁차이가	-3477
가이다	-3478
면은	-3479
왕이	-3480
▁결과를	-3481
▁교토	-3482
르가	-3483
체로	-3484
▁샌	-3485
▁수출	-3486
역의	-3487
▁서부	-3488
▁대수	-3489
▁링	-3490
조에	-3491
분이	-3492
리학	-3493
모리	-3494
▁보냈다	-3495
병을	-3496
유럽	-3497
▁기자	-3498
▁발표한	-3499
음악	-3500
▁살고	-3501
▁그것을	-3502
▁이란	-3503
▁팀이	-3504
틀랜드	-3505
이었으나	-3506
▁이것을	-3507
드에서	-3508
▁엑	-3509
▁이용해	-3510
▁하면	-3511
▁전후	-3512
▁클래	-3513
▁추정된다	-3514
▁얻어	-3515
▁점을	-3516
▁토론	-3517
ir	-3518
▁이유는	-3519
▁시작한	-3520
_5	-3521
▁잭	-3522
▁정복	-3523
싱턴	-3524
▁낭	-3525
▁부터	-3526
비의	-3527
화로	-3528
▁간단	-3529
▁요한	-3530
▁영입	-3531
▁유엔	-3532
▁혼란	-3533
▁시즌을	-3534
▁독자	-3535
▁무기	-3536
▁세계에서	-3537
이와	-3538
▁아나	-3539
이었으며	-3540
▁처음에는	-3541
재를	-3542
▁블루	-3543
스케	-3544
▁판결	-3545
▁경성	-3546
▁주고	-3547
▁트리	-3548
미는	-3549
▁후에는	-3550
▁마드리	-3551
▁해서	-3552
▁경기에	-3553
▁버전	-3554
▁일으켰	-3555
류가	-3556
구와	-3557
▁개시	-3558
▁목적	-3559
▁모스크바	-3560
▁첨	-3561
▁원정	-3562
만큼	-3563
▁내에	-3564
식에	-3565
▁II	-3566
▁점에서	-3567
▁1983	-3568
▁광고	-3569
▁받게	-3570
▁반발	-3571
▁180	-3572
▁부활	-3573
▁유형	-3574
▁때부터	-3575
▁가능성이	-3576
▁등장하는	-3577
렸고	-3578
▁붙여	-3579
▁유명하다	-3580
▁레코	-3581
um	-3582
법이	-3583
kg	-3584
지인	-3585
미를	-3586
▁높아	-3587
▁두었다	-3588
가에	-3589
ut	-3590
▁공산주의	-3591
▁약속	-3592
▁도달	-3593
▁1979	-3594
공업	-3595
▁논쟁	-3596
▁병사	-3597
익을	-3598
▁알게	-3599
▁연맹	-3600
▁45	-3601
보는	-3602
▁오전	-3603
▁욕	-3604
안의	-3605
▁국가의	-3606
▁마쓰	-3607
▁포위	-3608
▁상당히	-3609
▁서양	-3610
▁채용	-3611
드시	-3612
를린	-3613
▁받지	-3614
▁빠른	-3615
▁팀을	-3616
▁각각의	-3617
▁문자	-3618
▁제임스	-3619
▁도중	-3620
수록	-3621
▁기반으로	-3622
소와	-3623
▁말았다	-3624
▁히데	-3625
▁공을	-3626
▁합의	-3627
추어	-3628
▁계급	-3629
차원	-3630
▁붉은	-3631
▁도망	-3632
▁찍	-3633
▁오리	-3634
▁강의	-3635
당과	-3636
동생	-3637
▁그러한	-3638
국으로	-3639
치에	-3640
기압	-3641
▁강제	-3642
스러운	-3643
석은	-3644
히는	-3645
▁승진	-3646
▁빠져	-3647
역이다	-3648
▁검은	-3649
.9	-3650
▁상륙	-3651
▁방법을	-3652
리스트	-3653
▁저지	-3654
▁스파	-3655
▁이용한	-3656
▁보아	-3657
▁없다고	-3658
▁출입	-3659
화와	-3660
▁포함되어	-3661
석이	-3662
▁때의	-3663
지자	-3664
▁1972	-3665
▁사용하고	-3666
지며	-3667
▁운용	-3668
▁고양	-3669
교를	-3670
일로	-3671
년에서	-3672
세대	-3673
▁열대	-3674
트라	-3675
스리그	-3676
사건	-3677
ay	-3678
겠다	-3679
▁않았고	-3680
경기에	-3681
▁조합	-3682
다이	-3683
였으나	-3684
▁공유	-3685
▁시간을	-3686
▁발생한	-3687
▁n	-3688
▁숲	-3689
리우	-3690
ver	-3691
▁역대	-3692
마의	-3693
행위	-3694
▁지닌	-3695
▁짐	-3696
으로도	-3697
▁강점	-3698
산이	-3699
헨티	-3700
▁전설	-3701
▁발표하였다	-3702
단과	-3703
▁창립	-3704
▁거대한	-3705
ur	-3706
▁건국	-3707
▁1973	-3708
▁185	-3709
▁투자	-3710
▁포기	-3711
▁기사	-3712
▁버스	-3713
▁이중	-3714
▁은하	-3715
▁식민지	-3716
▁이제	-3717
▁브랜드	-3718
크라이나	-3719
▁무엇	-3720
산에	-3721
▁지붕	-3722
▁쫓	-3723
▁다니	-3724
▁아테	-3725
데스	-3726
▁인공	-3727
▁가서	-3728
▁금융	-3729
▁합격	-3730
▁한때	-3731
사키	-3732
무원	-3733
음이	-3734
▁일종	-3735
명이다	-3736
▁하계	-3737
개가	-3738
님의	-3739
▁부임	-3740
▁성을	-3741
▁현재까지	-3742
▁융	-3743
해도	-3744
▁전용	-3745
역이	-3746
21	-3747
▁작전	-3748
▁아르헨티	-3749
▁율	-3750
▁사망하였다	-3751
▁오래된	-3752
▁나이	-3753
▁선보	-3754
▁써	-3755
▁대비	-3756
▁해당하는	-3757
로그	-3758
▁기록하였다	-3759
▁탈출	-3760
▁오픈	-3761
▁33	-3762
▁철학	-3763
▁플랫	-3764
▁펠	-3765
▁숭	-3766
▁이들의	-3767
▁행성	-3768
em	-3769
▁신설	-3770
▁지키	-3771
▁취급	-3772
os	-3773
자들	-3774
라를	-3775
▁1948	-3776
▁덧	-3777
모를	-3778
▁넘는	-3779
▁군대를	-3780
▁트레이	-3781
스포	-3782
▁모여	-3783
▁1946	-3784
▁생명	-3785
▁구속	-3786
▁조선민주주의인민공화국	-3787
생의	-3788
마이	-3789
▁소수	-3790
▁고등	-3791
23	-3792
요일	-3793
▁뜻을	-3794
▁산맥	-3795
▁MBC	-3796
▁경우는	-3797
▁승강장	-3798
니의	-3799
정희	-3800
▁해에	-3801
페이	-3802
▁통제	-3803
▁것처럼	-3804
24	-3805
▁일본에서	-3806
▁36	-3807
▁건립	-3808
▁죽었다	-3809
식과	-3810
▁150	-3811
▁1981	-3812
▁맡아	-3813
▁반드시	-3814
▁흡수	-3815
▁공식적으로	-3816
▁사건을	-3817
마스	-3818
▁반영	-3819
▁진압	-3820
▁종류의	-3821
격으로	-3822
관리	-3823
▁했던	-3824
▁400	-3825
▁프로듀	-3826
리즘	-3827
▁랭	-3828
니어	-3829
▁끝난	-3830
리트	-3831
▁돌아가	-3832
고는	-3833
조판	-3834
항공	-3835
▁되자	-3836
▁출마	-3837
▁프로세	-3838
▁왼쪽	-3839
▁하였으나	-3840
▁벡	-3841
▁달라	-3842
▁어떠	-3843
▁카이	-3844
▁경계	-3845
▁1963	-3846
리케	-3847
▁논란이	-3848
생을	-3849
▁38	-3850
▁오토	-3851
▁번째로	-3852
미가	-3853
터를	-3854
▁부상	-3855
▁스크	-3856
The	-3857
▁검찰	-3858
패를	-3859
200	-3860
▁맡고	-3861
▁우크라이나	-3862
▁꼭	-3863
▁금속	-3864
동은	-3865
FC	-3866
러는	-3867
세계	-3868
연을	-3869
▁이르는	-3870
▁총독	-3871
▁운동을	-3872
▁사건이	-3873
▁울산	-3874
등이	-3875
문학	-3876
▁맞이	-3877
▁수사	-3878
im	-3879
▁논의	-3880
▁지낸	-3881
차가	-3882
▁하드	-3883
▁이전의	-3884
▁하나는	-3885
섰다	-3886
▁아들이	-3887
▁CD	-3888
▁신인	-3889
▁명이	-3890
▁앞에	-3891
▁1974	-3892
▁한반	-3893
▁백작	-3894
▁청년	-3895
▁나는	-3896
▁모아	-3897
▁시작으로	-3898
▁플로	-3899
▁그와	-3900
미의	-3901
▁단일	-3902
▁대표팀	-3903
▁신성	-3904
▁듀	-3905
▁오른쪽	-3906
▁운전	-3907
▁동의	-3908
▁이뤄	-3909
▁응용	-3910
▁늦	-3911
▁경주	-3912
▁규칙	-3913
▁벼	-3914
되면	-3915
경은	-3916
▁동원	-3917
우의	-3918
▁제대로	-3919
▁프란	-3920
▁여기에	-3921
▁St	-3922
▁내의	-3923
▁w	-3924
▁워싱턴	-3925
▁스튜디오	-3926
조로	-3927
▁빼앗	-3928
테인	-3929
통을	-3930
▁자살	-3931
▁사망했다	-3932
▁지니	-3933
▁롯	-3934
시설	-3935
라크	-3936
▁대공	-3937
▁수송	-3938
네시아	-3939
▁소비에	-3940
▁튀	-3941
▁헤이	-3942
▁진입	-3943
소프트	-3944
▁방향으로	-3945
▁변환	-3946
기간	-3947
세로	-3948
▁생긴	-3949
▁아들로	-3950
▁시티	-3951
▁원작	-3952
▁피해를	-3953
방을	-3954
▁원주	-3955
▁공통	-3956
▁도서	-3957
자이	-3958
▁다르다	-3959
증을	-3960
▁많아	-3961
▁예선	-3962
기에서	-3963
▁스피	-3964
▁셰	-3965
▁둘째	-3966
로드	-3967
질이	-3968
▁대략	-3969
▁기록한	-3970
프를	-3971
▁일찍	-3972
▁양성	-3973
▁라고	-3974
▁셋	-3975
상태	-3976
▁나카	-3977
▁노부	-3978
▁태풍	-3979
▁급제	-3980
▁예측	-3981
리아의	-3982
▁전주	-3983
▁방사	-3984
▁마침내	-3985
500	-3986
▁주둔	-3987
▁플랫폼	-3988
락을	-3989
▁중화민	-3990
▁층	-3991
▁리더	-3992
▁엄청	-3993
▁취득	-3994
하였던	-3995
▁곳에서	-3996
▁북아	-3997
▁것이며	-3998
▁이민	-3999
▁김일	-4000
▁장식	-4001
▁늘어	-4002
▁식물	-4003
▁의회	-4004
겠다는	-4005
▁파악	-4006
▁받았고	-4007
브리	-4008
셔널	-4009
▁임진	-4010
▁지급	-4011
노동	-4012
시킨다	-4013
▁남은	-4014
▁역을	-4015
등의	-4016
▁보장	-4017
▁계기로	-4018
국에서	-4019
▁기대	-4020
▁대성	-4021
▁가졌다	-4022
주었다	-4023
▁법칙	-4024
▁올려	-4025
명에	-4026
▁세력	-4027
▁잡아	-4028
▁기술을	-4029
▁어떠한	-4030
▁이야기를	-4031
고속	-4032
▁베를린	-4033
▁양자	-4034
▁미군	-4035
ht	-4036
▁발매되었다	-4037
▁솔로	-4038
▁경상남도	-4039
▁글을	-4040
▁특별한	-4041
주와	-4042
▁배출	-4043
론의	-4044
안은	-4045
▁정책을	-4046
▁능력을	-4047
▁이후로	-4048
▁거리	-4049
▁분쟁	-4050
▁불법	-4051
▁에피소	-4052
대회	-4053
▁러시아의	-4054
▁1968	-4055
▁성능	-4056
▁LG	-4057
▁최다	-4058
면으로	-4059
국민	-4060
바르	-4061
영화	-4062
▁갈라	-4063
▁공포	-4064
▁갔다	-4065
세한	-4066
없는	-4067
▁선교	-4068
에만	-4069
▁동작	-4070
영은	-4071
▁작품을	-4072
▁존재하는	-4073
▁거래	-4074
▁스코틀랜드	-4075
▁지금의	-4076
자치	-4077
테르	-4078
▁The	-4079
번의	-4080
▁좁	-4081
▁목소	-4082
▁건조	-4083
▁국무	-4084
▁목표로	-4085
▁효율	-4086
▁콩	-4087
협회	-4088
▁PC	-4089
이센	-4090
▁상승	-4091
동으로	-4092
▁1978	-4093
▁문화재	-4094
진의	-4095
예술	-4096
중앙	-4097
주의를	-4098
왕은	-4099
▁발견된	-4100
▁그때	-4101
▁사태	-4102
보드	-4103
분류	-4104
▁1975	-4105
▁나치	-4106
▁출장	-4107
%,	-4108
으니	-4109
제와	-4110
▁챔피언스리그	-4111
쿠라	-4112
▁다수의	-4113
OS	-4114
▁승인	-4115
▁고용	-4116
▁빠르게	-4117
▁무역	-4118
▁글로	-4119
▁1949	-4120
▁대학교에서	-4121
진은	-4122
▁보조	-4123
적의	-4124
도르	-4125
▁1976	-4126
▁참전	-4127
▁콘스탄	-4128
▁그들이	-4129
▁점점	-4130
▁모리	-4131
▁깊은	-4132
곡을	-4133
전문	-4134
▁김영	-4135
▁않으며	-4136
▁아버지는	-4137
임이	-4138
▁무덤	-4139
▁1971	-4140
▁들어서	-4141
▁in	-4142
▁에도	-4143
▁대부분은	-4144
▁라는	-4145
▁생존	-4146
산으로	-4147
▁되며	-4148
크가	-4149
▁함락	-4150
전과	-4151
▁흉	-4152
▁처형	-4153
종을	-4154
▁수원	-4155
먼트	-4156
▁개신	-4157
▁집행	-4158
베르크	-4159
▁알려졌다	-4160
론은	-4161
▁반대로	-4162
▁맛	-4163
▁나타내는	-4164
▁외부	-4165
▁아침	-4166
▁차지했다	-4167
▁마지막으로	-4168
▁정확한	-4169
으로서의	-4170
▁우려	-4171
표를	-4172
▁오스만	-4173
▁전파	-4174
nd	-4175
▁힐	-4176
▁대기	-4177
▁요소	-4178
▁좌우	-4179
났고	-4180
▁사법	-4181
▁마리	-4182
▁것이라	-4183
▁의존	-4184
▁데이비	-4185
들이다	-4186
▁썼다	-4187
▁제외하고	-4188
▁농민	-4189
▁아카데	-4190
▁플라	-4191
▁학문	-4192
▁의료	-4193
▁꺾	-4194
▁틀	-4195
항을	-4196
▁박물	-4197
▁경상북도	-4198
버그	-4199
씨가	-4200
▁일정	-4201
▁군의	-4202
관과	-4203
▁베이징	-4204
무라	-4205
바로	-4206
▁평가를	-4207
▁지어	-4208
▁역임했다	-4209
▁1969	-4210
▁진보	-4211
신으로	-4212
▁자신들의	-4213
해가	-4214
▁린	-4215
▁독특	-4216
▁대개	-4217
플레이	-4218
▁개막	-4219
기까지	-4220
▁아파	-4221
▁포지션	-4222
총독	-4223
▁등급	-4224
▁장군	-4225
복을	-4226
▁받을	-4227
▁오페	-4228
티노	-4229
▁없다는	-4230
▁쓸	-4231
▁지방의	-4232
▁이탈리아의	-4233
장인	-4234
타는	-4235
▁독립운동	-4236
▁=	-4237
이므로	-4238
▁분할	-4239
화되어	-4240
▁전공	-4241
▁교환	-4242
▁동성	-4243
▁공화	-4244
▁수집	-4245
▁쓰는	-4246
▁시즌에	-4247
▁등판	-4248
▁회전	-4249
▁가을	-4250
▁번의	-4251
▁앞두고	-4252
뿐만	-4253
▁북서	-4254
▁서버	-4255
▁저작	-4256
▁호텔	-4257
▁주장하였다	-4258
▁오랫	-4259
▁방법으로	-4260
▁문서	-4261
부터는	-4262
▁사용되고	-4263
▁창조	-4264
▁아메리카	-4265
건을	-4266
▁묶	-4267
▁제어	-4268
▁포도	-4269
▁기록이	-4270
라며	-4271
타이	-4272
터테인	-4273
▁향상	-4274
▁문제로	-4275
▁쳐	-4276
▁1962	-4277
연히	-4278
▁컵	-4279
▁것이라는	-4280
했었다	-4281
op	-4282
▁스케	-4283
▁신뢰	-4284
킨다	-4285
▁풍부	-4286
▁해산	-4287
국가	-4288
나이티	-4289
▁중화인민공화국	-4290
조합	-4291
▁이르러	-4292
▁조선의	-4293
▁차별	-4294
▁조작	-4295
▁말레이	-4296
▁명확	-4297
부인	-4298
경찰	-4299
▁골을	-4300
▁본선	-4301
▁지냈	-4302
▁명명	-4303
▁음력	-4304
▁오랫동안	-4305
령이	-4306
▁진화	-4307
▁받아들여	-4308
▁체계	-4309
▁가담	-4310
▁새겨	-4311
▁연재	-4312
▁둘러싸	-4313
▁연산	-4314
▁지내	-4315
▁관계가	-4316
▁선수가	-4317
치와	-4318
한국	-4319
▁중세	-4320
방의	-4321
름을	-4322
터가	-4323
▁훗	-4324
▁받는다	-4325
아는	-4326
▁향해	-4327
▁불렀다	-4328
▁이룬다	-4329
차는	-4330
▁하였으며	-4331
▁라인	-4332
▁179	-4333
났으며	-4334
▁자녀	-4335
CA	-4336
▁갖는	-4337
35	-4338
▁탁	-4339
▁나이로	-4340
▁세종	-4341
▁대통령이	-4342
▁유나이티	-4343
레옹	-4344
▁소장	-4345
▁실질	-4346
자로서	-4347
▁1944	-4348
▁구조를	-4349
지이다	-4350
▁1919	-4351
하였다고	-4352
▁당초	-4353
▁롯데	-4354
우가	-4355
▁시작하여	-4356
▁렌	-4357
진이	-4358
▁출간	-4359
▁FA	-4360
▁쓰고	-4361
▁위반	-4362
▁추천	-4363
▁문헌	-4364
였지만	-4365
▁말에	-4366
▁탈락	-4367
▁감염	-4368
▁소비에트	-4369
재판	-4370
▁전철	-4371
▁형태를	-4372
_6	-4373
▁겐	-4374
▁관료	-4375
▁망명	-4376
▁언제	-4377
▁1964	-4378
26	-4379
망을	-4380
▁명을	-4381
▁편찬	-4382
조사	-4383
▁보병	-4384
▁분열	-4385
▁이루어졌다	-4386
▁느끼	-4387
경이	-4388
라와	-4389
▁육상	-4390
프레	-4391
▁훗날	-4392
▁발발	-4393
▁불안	-4394
각을	-4395
▁온라인	-4396
▁1941	-4397
▁띄	-4398
연맹	-4399
번째로	-4400
▁꼽	-4401
▁롤	-4402
양을	-4403
책을	-4404
되었을	-4405
대중	-4406
조직	-4407
▁인기	-4408
주의의	-4409
▁방정	-4410
▁놓고	-4411
▁지식	-4412
▁근본	-4413
▁단독	-4414
▁한나라	-4415
색의	-4416
▁특이	-4417
▁플레이오프	-4418
▁소년	-4419
▁가지는	-4420
현의	-4421
토의	-4422
해져	-4423
파는	-4424
▁예수	-4425
▁일본에	-4426
▁침략	-4427
47	-4428
치게	-4429
ice	-4430
▁전통적인	-4431
▁일치	-4432
▁1000	-4433
▁콘서	-4434
▁쓰인다	-4435
▁분위	-4436
▁내용은	-4437
▁이후의	-4438
▁일부는	-4439
▁네트워크	-4440
▁없으며	-4441
▁기울	-4442
▁왕국의	-4443
▁부하	-4444
ag	-4445
▁주전	-4446
▁나폴레옹	-4447
▁삼각	-4448
▁신청	-4449
▁중에는	-4450
th	-4451
▁올랐	-4452
▁이성	-4453
45	-4454
▁메시	-4455
▁단백	-4456
▁동남	-4457
▁지은	-4458
▁시작한다	-4459
▁프로그램을	-4460
▁완공	-4461
▁완료	-4462
▁연구를	-4463
▁벨기에	-4464
▁주식	-4465
되었다가	-4466
▁앉	-4467
▁뜻한다	-4468
▁나타난다	-4469
▁마케	-4470
▁소녀	-4471
▁길이는	-4472
▁모양의	-4473
▁구현	-4474
▁나뉜	-4475
루는	-4476
하마	-4477
▁거듭	-4478
▁로켓	-4479
▁있음을	-4480
▁작품은	-4481
▁당시에는	-4482
율을	-4483
▁의혹	-4484
▁도와	-4485
▁택	-4486
▁지금까지	-4487
▁보관	-4488
▁교육을	-4489
▁그렇게	-4490
▁유사한	-4491
▁펼쳐	-4492
▁and	-4493
▁의미를	-4494
▁페르시아	-4495
여서	-4496
WE	-4497
니가	-4498
론이	-4499
▁갔	-4500
▁부상을	-4501
▁훌	-4502
▁한정	-4503
▁청소년	-4504
▁프로젝트	-4505
▁1977	-4506
▁혐의로	-4507
차로	-4508
▁헨리	-4509
학에서	-4510
▁인디언	-4511
▁&	-4512
▁닥	-4513
통신	-4514
▁보낸	-4515
▁적절	-4516
▁침입	-4517
▁호는	-4518
개로	-4519
▁성인	-4520
▁실현	-4521
▁나왔다	-4522
▁등장한다	-4523
▁Z	-4524
▁마무	-4525
▁작업을	-4526
이었지만	-4527
▁SK	-4528
oc	-4529
▁무너	-4530
▁주어진	-4531
▁공업	-4532
▁무시	-4533
▁지켜	-4534
▁총리	-4535
일과	-4536
▁누구	-4537
ST	-4538
▁정비	-4539
▁1967	-4540
▁캄	-4541
22	-4542
▁서비스를	-4543
왜란	-4544
▁기둥	-4545
▁1961	-4546
시키기	-4547
▁무게	-4548
▁프로이센	-4549
개혁	-4550
ter	-4551
▁후속	-4552
▁후지	-4553
화되었다	-4554
▁활약을	-4555
▁선정되었다	-4556
들로부터	-4557
▁바깥	-4558
▁주지	-4559
스럽게	-4560
▁저서	-4561
▁거두었다	-4562
▁이들을	-4563
▁출신으로	-4564
▁자이	-4565
▁조선총독	-4566
▁길을	-4567
주에서	-4568
리히	-4569
학은	-4570
▁동아	-4571
▁출범	-4572
▁앞에서	-4573
▁마치	-4574
우를	-4575
▁흘러	-4576
자들에게	-4577
▁중이다	-4578
▁세력을	-4579
▁못하였다	-4580
▁변경되었다	-4581
▁안에서	-4582
안이	-4583
▁경기는	-4584
▁1965	-4585
▁입장을	-4586
▁간행	-4587
▁올리	-4588
▁왕국	-4589
▁경우에	-4590
▁1939	-4591
▁청나라	-4592
함과	-4593
▁개입	-4594
▁예정이다	-4595
판이	-4596
▁에어	-4597
▁어깨	-4598
▁천연	-4599
▁부르는	-4600
▁않게	-4601
영의	-4602
▁처벌	-4603
로마	-4604
프리	-4605
▁삼국	-4606
양의	-4607
▁학위를	-4608
▁예비	-4609
▁지시	-4610
▁확률	-4611
▁학습	-4612
실의	-4613
▁임진왜란	-4614
27	-4615
어야	-4616
질의	-4617
▁요코	-4618
루가	-4619
리적	-4620
▁공헌	-4621
▁임금	-4622
리노	-4623
▁37	-4624
▁항성	-4625
디션	-4626
▁분명	-4627
고의	-4628
내에	-4629
류는	-4630
▁공군	-4631
함이	-4632
▁얻은	-4633
▁합성	-4634
▁34	-4635
▁선수이다	-4636
▁듣고	-4637
▁들고	-4638
▁강원도	-4639
▁준다	-4640
▁국경	-4641
▁트로	-4642
▁다스	-4643
▁삽	-4644
▁나타내	-4645
28	-4646
린은	-4647
▁주관	-4648
▁의무	-4649
시티	-4650
▁기회를	-4651
▁상황에서	-4652
▁성적	-4653
여자	-4654
▁상당한	-4655
▁테이	-4656
▁하나인	-4657
▁졸업하고	-4658
▁어려운	-4659
▁확립	-4660
▁설득	-4661
▁타이완	-4662
▁장관	-4663
▁사람들의	-4664
▁보컬	-4665
▁사임	-4666
▁상품	-4667
▁정지	-4668
하지는	-4669
시험	-4670
▁니콜	-4671
계획	-4672
▁프로그래	-4673
▁이집트	-4674
의회	-4675
▁남서	-4676
▁희생	-4677
온은	-4678
▁다르게	-4679
▁올렸다	-4680
본을	-4681
▁연대	-4682
아이	-4683
▁미디어	-4684
미야	-4685
파를	-4686
▁슬로	-4687
▁프리미	-4688
▁세르비아	-4689
▁가문의	-4690
▁까	-4691
▁변화를	-4692
▁합쳐	-4693
터의	-4694
▁레드	-4695
▁1966	-4696
▁이로써	-4697
거운	-4698
에르	-4699
▁박정희	-4700
▁시작된	-4701
▁활동했다	-4702
▁북동	-4703
▁직업	-4704
포를	-4705
었기	-4706
격한	-4707
니아의	-4708
▁철수	-4709
학교를	-4710
▁감독의	-4711
▁일으키	-4712
▁보았다	-4713
ation	-4714
▁군주	-4715
▁성적을	-4716
▁수상했다	-4717
▁검사	-4718
▁만들고	-4719
▁음악을	-4720
▁히틀	-4721
▁이루고	-4722
▁발견되었다	-4723
▁밝히	-4724
▁연관	-4725
▁내렸다	-4726
SA	-4727
층의	-4728
▁고문	-4729
▁보안	-4730
▁후계	-4731
▁전라남도	-4732
▁차트	-4733
▁섞	-4734
▁댄	-4735
향을	-4736
호선	-4737
▁부분을	-4738
▁충청남도	-4739
루를	-4740
▁바뀌었다	-4741
네스	-4742
▁반란을	-4743
▁이름의	-4744
▁1947	-4745
례를	-4746
▁있었기	-4747
마트	-4748
▁바라	-4749
▁상태로	-4750
▁취소	-4751
▁후보로	-4752
▁장교	-4753
▁부대	-4754
▁해야	-4755
▁횡	-4756
화한	-4757
▁몰아	-4758
▁어디	-4759
▁저술	-4760
▁마이크로소프트	-4761
고등	-4762
▁하느	-4763
▁평안	-4764
▁아스	-4765
▁재배	-4766
▁조절	-4767
▁공연을	-4768
▁만들어졌다	-4769
ce	-4770
▁75	-4771
▁일어났다	-4772
▁포함하여	-4773
▁맞아	-4774
위와	-4775
▁새롭게	-4776
인도	-4777
들에서	-4778
▁끝내	-4779
▁동안에	-4780
▁속한다	-4781
▁국회	-4782
영을	-4783
체와	-4784
명과	-4785
문제	-4786
▁나아가	-4787
▁자리잡	-4788
에른	-4789
▁사마	-4790
▁선의	-4791
▁포함한다	-4792
▁개신교	-4793
유가	-4794
▁이기	-4795
▁단지	-4796
▁정기	-4797
▁임의의	-4798
BO	-4799
▁필요가	-4800
▁킬	-4801
고가	-4802
▁심지	-4803
▁유일하게	-4804
▁다소	-4805
▁규모의	-4806
하므로	-4807
▁돌아와	-4808
▁상대적으로	-4809
전에서는	-4810
▁이하	-4811
▁감독이	-4812
▁승객	-4813
▁독특한	-4814
▁벌어	-4815
교통	-4816
되는데	-4817
▁켄	-4818
지원	-4819
▁잡지	-4820
인들을	-4821
’,	-4822
▁발탁	-4823
▁해도	-4824
▁엄청난	-4825
▁미드	-4826
▁묵	-4827
▁추구	-4828
37	-4829
▁제공한다	-4830
▁트랙	-4831
▁곡을	-4832
▁차이	-4833
86	-4834
▁팽	-4835
▁왕이	-4836
▁뚜	-4837
▁상을	-4838
▁소송	-4839
▁조종	-4840
▁편이다	-4841
▁출시되었다	-4842
▁행렬	-4843
▁하에	-4844
▁대한민국에서는	-4845
▁복합	-4846
▁시리아	-4847
▁민중	-4848
▁절반	-4849
색으로	-4850
키가	-4851
▁추기	-4852
▁영업	-4853
▁개발한	-4854
▁그리하여	-4855
▁민주당	-4856
▁대부분이	-4857
▁필요하다	-4858
▁도쿠	-4859
▁되는데	-4860
▁받았으며	-4861
▁인종	-4862
▁특정한	-4863
무부	-4864
▁테러	-4865
▁바이에른	-4866
재로	-4867
▁기다	-4868
▁나누어	-4869
석의	-4870
선수	-4871
▁베스트	-4872
▁체코	-4873
▁경제적	-4874
리다	-4875
▁동계	-4876
▁가진다	-4877
▁따로	-4878
▁승려	-4879
▁샤를	-4880
▁얻을	-4881
보살	-4882
▁병합	-4883
▁160	-4884
▁사실이	-4885
▁발굴	-4886
되었다고	-4887
▁두려	-4888
▁웨스트	-4889
정치	-4890
▁부담	-4891
36	-4892
족이	-4893
▁스위스	-4894
▁멀리	-4895
▁장치	-4896
▁메인	-4897
_7	-4898
▁노벨	-4899
▁자극	-4900
▁제일	-4901
▁정차	-4902
사람	-4903
▁공사	-4904
▁장남	-4905
▁화물	-4906
치아	-4907
▁사냥	-4908
▁성우	-4909
▁돕	-4910
법으로	-4911
▁e	-4912
주의적	-4913
로와	-4914
주고	-4915
▁1942	-4916
게임	-4917
▁후기	-4918
▁지위를	-4919
ie	-4920
▁고유	-4921
▁반도	-4922
마는	-4923
▁유럽의	-4924
▁심각한	-4925
▁쓰이는	-4926
▁상위	-4927
▁행동을	-4928
▁재건	-4929
▁세계의	-4930
▁초기의	-4931
▁조선시대	-4932
▁브리	-4933
▁크기	-4934
자료	-4935
관에서	-4936
▁다수	-4937
직에	-4938
▁개조	-4939
29	-4940
>,	-4941
▁이혼	-4942
축구	-4943
치지	-4944
왕을	-4945
▁유한	-4946
▁통산	-4947
▁벗어나	-4948
산화	-4949
점의	-4950
▁로버트	-4951
▁역사적	-4952
▁감독으로	-4953
▁존재하지	-4954
▁만다	-4955
▁중인	-4956
▁인접	-4957
▁아테네	-4958
2,	-4959
▁가게	-4960
▁이르렀다	-4961
▁점이	-4962
▁진주	-4963
▁국회의원	-4964
▁사람들을	-4965
▁미나	-4966
▁대리	-4967
▁선거에서	-4968
별로	-4969
▁돈을	-4970
▁영상	-4971
▁뜻하는	-4972
▁1956	-4973
▁미니	-4974
▁1943	-4975
▁혼합	-4976
▁여러가지	-4977
▁마이클	-4978
▁덧붙	-4979
▁아사	-4980
▁카르	-4981
▁콤	-4982
▁미사일	-4983
▁징역	-4984
▁레오	-4985
▁한글	-4986
▁1910	-4987
었다고	-4988
비로	-4989
▁전형	-4990
기념	-4991
▁그래픽	-4992
▁주택	-4993
체스터	-4994
▁전까지	-4995
었을	-4996
▁스카	-4997
사이트	-4998
정과	-4999
▁벌어진	-5000
▁소련의	-5001
▁WWE	-5002
▁집권	-5003
▁터미널	-5004
▁벡터	-5005
파가	-5006
▁부진	-5007
▁피아노	-5008
보고	-5009
▁자리에	-5010
우수	-5011
▁유배	-5012
▁있었다고	-5013
▁않지만	-5014
타르	-5015
듯이	-5016
▁스티	-5017
▁대체로	-5018
▁갤	-5019
▁3,	-5020
▁탈퇴	-5021
▁체제	-5022
▁효과를	-5023
인민공화국의	-5024
▁구입	-5025
▁비롯하여	-5026
프랑	-5027
▁연출	-5028
▁DNA	-5029
▁책임을	-5030
▁가스	-5031
▁선전	-5032
했다가	-5033
▁내용이	-5034
▁쥐	-5035
관계	-5036
메리	-5037
▁오직	-5038
▁이후에도	-5039
대장	-5040
▁남동	-5041
▁면적은	-5042
물이다	-5043
▁명칭은	-5044
▁지지를	-5045
▁굳	-5046
▁1958	-5047
▁적합	-5048
▁나뉜다	-5049
▁격파	-5050
한의	-5051
▁맡은	-5052
▁사퇴	-5053
▁시스템을	-5054
▁현상	-5055
구에서	-5056
입니다	-5057
▁부분이	-5058
▁분노	-5059
▁접촉	-5060
▁개설	-5061
▁의심	-5062
▁조카	-5063
▁영화는	-5064
▁아이디	-5065
▁릴	-5066
동과	-5067
▁바닥	-5068
▁브루	-5069
▁못하는	-5070
▁55	-5071
▁그레	-5072
▁뜨	-5073
▁킹	-5074
▁시카	-5075
▁다음날	-5076
▁사건은	-5077
▁다다	-5078
▁학술	-5079
국제	-5080
▁개칭	-5081
누스	-5082
▁계통	-5083
VD	-5084
▁인쇄	-5085
시리즈	-5086
▁종사	-5087
▁k	-5088
▁기병	-5089
뮤니	-5090
라이언	-5091
학에	-5092
▁아미	-5093
▁떠났다	-5094
▁아카데미	-5095
기록	-5096
▁엔터테인	-5097
▁끌어	-5098
▁그로	-5099
▁트랜	-5100
▁게다가	-5101
▁한국어	-5102
▁나타나는	-5103
▁들어갔다	-5104
▁시위	-5105
▁전쟁에	-5106
▁인권	-5107
츠는	-5108
▁미국과	-5109
▁1954	-5110
▁대통령은	-5111
▁정교	-5112
▁메이지	-5113
▁일시	-5114
▁노래를	-5115
▁명령을	-5116
▁선임	-5117
▁위로	-5118
▁일정한	-5119
▁돼	-5120
인에게	-5121
▁도요	-5122
ak	-5123
▁갑자기	-5124
▁39	-5125
▁위치한다	-5126
▁지역으로	-5127
포르	-5128
▁투쟁	-5129
▁완전한	-5130
▁남겼다	-5131
▁덴마크	-5132
공을	-5133
그라	-5134
▁열렸다	-5135
러의	-5136
▁눈에	-5137
▁조별	-5138
▁겹	-5139
▁갖추고	-5140
▁어머니는	-5141
▁활성	-5142
▁돌려	-5143
▁전력	-5144
▁전쟁에서	-5145
▁십자	-5146
▁즉시	-5147
▁인구가	-5148
▁일어나는	-5149
물에	-5150
▁유행	-5151
만으로	-5152
▁성공을	-5153
무늬	-5154
▁위치를	-5155
▁자격	-5156
▁일부를	-5157
▁참여하였다	-5158
▁뮌	-5159
▁빚	-5160
▁일부가	-5161
처를	-5162
평가	-5163
▁세웠	-5164
▁순간	-5165
장이다	-5166
리나	-5167
▁아들인	-5168
마를	-5169
▁갖춘	-5170
▁헤르	-5171
▁없을	-5172
▁창단	-5173
▁이른바	-5174
▁프리드리	-5175
▁곽	-5176
▁내놓	-5177
▁후원	-5178
▁문제는	-5179
▁카드	-5180
되어야	-5181
다란	-5182
▁노출	-5183
▁드라이	-5184
바라	-5185
▁대통령의	-5186
▁뉴스	-5187
▁지금은	-5188
유를	-5189
▁변형	-5190
▁정권	-5191
▁크고	-5192
▁상태에서	-5193
▁않으면	-5194
▁미국은	-5195
▁이시	-5196
▁곳으로	-5197
▁천주교	-5198
사우	-5199
▁영웅	-5200
호와	-5201
▁밀려	-5202
공의	-5203
▁되돌	-5204
키스탄	-5205
▁전면	-5206
▁행위	-5207
▁통상	-5208
▁지도자	-5209
되게	-5210
슨의	-5211
▁발언	-5212
▁스탠	-5213
▁위성	-5214
▁세상을	-5215
▁주장을	-5216
-4	-5217
느냐	-5218
카는	-5219
▁하여금	-5220
▁준우	-5221
▁연습	-5222
▁1952	-5223
클레	-5224
▁해상	-5225
▁하기도	-5226
▁호소	-5227
씨를	-5228
▁단위	-5229
▁시나	-5230
▁유학	-5231
▁단계	-5232
▁말하는	-5233
▁이들이	-5234
ER	-5235
판은	-5236
▁프로토	-5237
지컬	-5238
▁인용	-5239
▁부분은	-5240
75	-5241
마을	-5242
실이	-5243
▁궤도	-5244
터리	-5245
▁파라	-5246
▁권력을	-5247
▁사업을	-5248
▁싸움	-5249
▁탐사	-5250
▁h	-5251
▁다운	-5252
▁나온다	-5253
▁지니고	-5254
▁폐쇄	-5255
▁전쟁의	-5256
▁팝	-5257
▁기록은	-5258
▁사용된	-5259
▁대표하는	-5260
목을	-5261
▁극장	-5262
▁양의	-5263
▁닫	-5264
▁내세	-5265
▁마르크	-5266
ia	-5267
▁켈	-5268
년도	-5269
코는	-5270
▁교향	-5271
▁말이	-5272
야의	-5273
▁전부	-5274
▁긍	-5275
동맹	-5276
▁왕의	-5277
▁도시의	-5278
▁참여했다	-5279
▁서울대학교	-5280
련의	-5281
▁무한	-5282
▁싸우	-5283
학자들은	-5284
▁유형문화재	-5285
32	-5286
▁연구에	-5287
▁학살	-5288
▁잇는	-5289
▁대의	-5290
▁빅토	-5291
박물	-5292
▁표면	-5293
즈가	-5294
▁관여	-5295
▁중추	-5296
오스	-5297
▁원소	-5298
▁입고	-5299
모가	-5300
이닝	-5301
BA	-5302
로나	-5303
만한	-5304
▁잠수	-5305
▁어린이	-5306
▁소멸	-5307
▁으로	-5308
▁나타낸다	-5309
베르트	-5310
▁인도네시아	-5311
인인	-5312
▁느낌	-5313
▁톰	-5314
▁논문	-5315
▁맞서	-5316
▁유효	-5317
사전	-5318
▁없게	-5319
▁오프	-5320
▁하위	-5321
89	-5322
데이	-5323
▁임대	-5324
▁제작된	-5325
▁보유하고	-5326
ap	-5327
감이	-5328
▁전투를	-5329
▁주장한다	-5330
하여야	-5331
▁마무리	-5332
▁프랑크	-5333
▁받아들이	-5334
▁불렸다	-5335
평을	-5336
▁개찰	-5337
타의	-5338
▁조건을	-5339
미디	-5340
▁달려	-5341
▁완벽	-5342
군에게	-5343
▁소식을	-5344
▁여겨진다	-5345
▁광복	-5346
▁상속	-5347
▁스미	-5348
수이다	-5349
▁만한	-5350
▁똑	-5351
루의	-5352
▁단편	-5353
▁상황을	-5354
▁g	-5355
▁선박	-5356
▁춤	-5357
▁방법은	-5358
▁열차가	-5359
▁문을	-5360
▁물을	-5361
▁그것이	-5362
▁세계적으로	-5363
에선	-5364
▁음식	-5365
▁세인트	-5366
▁문제에	-5367
▁제공하는	-5368
▁재개	-5369
▁감독을	-5370
▁초기에	-5371
▁작품이다	-5372
▁꾸준	-5373
▁리버	-5374
▁래	-5375
▁1937	-5376
▁복원	-5377
▁갖는다	-5378
▁속한	-5379
▁수요	-5380
▁활동하였다	-5381
▁탄핵	-5382
카가	-5383
ul	-5384
키의	-5385
▁차지하고	-5386
▁임무	-5387
▁일으켜	-5388
▁1918	-5389
▁재학	-5390
▁선생	-5391
▁이명	-5392
▁알고리즘	-5393
▁선출되었다	-5394
공화국	-5395
▁설립된	-5396
▁샘	-5397
의가	-5398
▁추방	-5399
▁가리키는	-5400
▁홍보	-5401
▁아티	-5402
▁전송	-5403
▁해양	-5404
▁제작한	-5405
▁곡은	-5406
년부터는	-5407
계약	-5408
▁나왔	-5409
▁SBS	-5410
▁그들을	-5411
▁발매된	-5412
▁추가로	-5413
▁빙	-5414
▁윗	-5415
서와	-5416
▁한일	-5417
▁주최	-5418
앤젤	-5419
혁명	-5420
▁기소	-5421
았으나	-5422
46	-5423
강의	-5424
탄을	-5425
종으로	-5426
가인	-5427
▁v	-5428
▁화려	-5429
▁아시안	-5430
머스	-5431
▁복잡한	-5432
▁1938	-5433
▁기록되어	-5434
▁발생하는	-5435
오의	-5436
하기를	-5437
▁페이	-5438
형에	-5439
▁역에서	-5440
▁1955	-5441
▁그곳에서	-5442
받는	-5443
ri	-5444
▁아라	-5445
est	-5446
▁초에	-5447
▁김정	-5448
▁단순한	-5449
공사	-5450
공산	-5451
▁48	-5452
▁왕조	-5453
▁탄압	-5454
▁대상이	-5455
▁사망한	-5456
▁사건으로	-5457
▁Q	-5458
환을	-5459
▁이끌었다	-5460
조참	-5461
▁장비	-5462
▁역사를	-5463
▁1953	-5464
31	-5465
▁녹색	-5466
▁다룬	-5467
▁기록하며	-5468
▁고종	-5469
▁방해	-5470
▁비상	-5471
▁쿠데	-5472
▁1935	-5473
라에	-5474
백만	-5475
▁크다	-5476
▁했는데	-5477
름이	-5478
▁유기	-5479
▁1959	-5480
▁In	-5481
열을	-5482
활동을	-5483
▁발견된다	-5484
▁선포	-5485
▁방식을	-5486
▁후임	-5487
▁교회의	-5488
▁성의	-5489
▁와이	-5490
▁일은	-5491
▁l	-5492
텐츠	-5493
▁질병	-5494
렬한	-5495
▁좋지	-5496
▁작품으로	-5497
39	-5498
▁직전	-5499
▁벼슬	-5500
로서는	-5501
▁국민의	-5502
▁여섯	-5503
▁120	-5504
▁보여준다	-5505
38	-5506
▁로봇	-5507
▁곱	-5508
▁그레이	-5509
▁근처에	-5510
▁타격	-5511
▁높다	-5512
▁가치가	-5513
▁명나라	-5514
▁홈런을	-5515
▁백제	-5516
우주	-5517
▁양쪽	-5518
군에서	-5519
▁독립을	-5520
▁작동	-5521
▁텍사	-5522
▁후인	-5523
▁깃	-5524
리며	-5525
▁1914	-5526
니즘	-5527
▁책을	-5528
▁관련이	-5529
▁이상이	-5530
▁계속해서	-5531
저우	-5532
파로	-5533
▁캔	-5534
부장	-5535
토는	-5536
▁공중	-5537
토니	-5538
론에	-5539
사무	-5540
조차	-5541
▁국제공항	-5542
▁가슴	-5543
▁서서	-5544
에이	-5545
▁다케	-5546
▁게임을	-5547
▁남아있	-5548
는지	-5549
이상	-5550
▁성직	-5551
▁인지	-5552
민의	-5553
▁대장	-5554
▁섬의	-5555
▁김성	-5556
▁윤치	-5557
국과	-5558
▁높이는	-5559
▁부친	-5560
▁만든다	-5561
크래프트	-5562
▁한성	-5563
▁헝가리	-5564
▁군인	-5565
▁니시	-5566
▁측면	-5567
▁밝혀졌다	-5568
▁수의	-5569
▁쓰여	-5570
-5	-5571
레는	-5572
▁웅	-5573
▁아버지의	-5574
76	-5575
자유	-5576
▁드래프트	-5577
네이	-5578
▁단어	-5579
▁그녀가	-5580
▁로스앤젤	-5581
발을	-5582
▁몸을	-5583
▁재능	-5584
▁역으로	-5585
▁남쪽으로	-5586
▁해당한다	-5587
어버	-5588
▁루트	-5589
▁나타났다	-5590
퍼드	-5591
▁미야	-5592
▁상하이	-5593
▁1936	-5594
▁그렇다면	-5595
족은	-5596
▁주연	-5597
▁플래	-5598
▁김대중	-5599
▁그러므로	-5600
98	-5601
▁권력	-5602
▁기본적으로	-5603
IA	-5604
부대	-5605
▁도덕	-5606
▁신분	-5607
▁홋	-5608
▁사용자	-5609
▁있으므로	-5610
▁쾌	-5611
▁손을	-5612
▁걸친	-5613
▁다리	-5614
▁데에	-5615
▁수상하였다	-5616
브라	-5617
▁개념을	-5618
마르	-5619
▁뮌헨	-5620
▁유치	-5621
▁충분히	-5622
▁수십	-5623
▁이적하였다	-5624
▁치러	-5625
▁개체	-5626
▁원인이	-5627
▁동북	-5628
▁수석	-5629
독립	-5630
아서	-5631
왕후	-5632
차의	-5633
▁앞으로	-5634
고기	-5635
▁로마의	-5636
▁본격적으로	-5637
our	-5638
▁시인	-5639
▁황금	-5640
자동차	-5641
▁크로아	-5642
▁구매	-5643
▁리처	-5644
▁사람들에게	-5645
▁지속적으로	-5646
▁특성	-5647
▁대량	-5648
▁최대의	-5649
▁위상	-5650
▁위에서	-5651
▁특별히	-5652
사단	-5653
중한	-5654
▁검토	-5655
▁신호	-5656
▁이루는	-5657
타로	-5658
질랜드	-5659
▁당시에	-5660
34	-5661
▁되기	-5662
▁주력	-5663
▁일으켰다	-5664
92	-5665
▁프린	-5666
스트로	-5667
카이도	-5668
art	-5669
▁금메달을	-5670
▁1957	-5671
▁소집	-5672
▁통계	-5673
즈를	-5674
▁자전	-5675
▁1933	-5676
▁직원	-5677
▁확산	-5678
였는데	-5679
조건	-5680
▁64	-5681
▁김종	-5682
▁무사	-5683
렸으며	-5684
재가	-5685
▁복무	-5686
사랑	-5687
▁매일	-5688
▁프리드리히	-5689
▁조지아	-5690
슬러	-5691
▁상실	-5692
▁연료	-5693
AR	-5694
▁짜	-5695
감독	-5696
▁이른다	-5697
되지만	-5698
▁엠	-5699
주시	-5700
▁재임	-5701
▁진학	-5702
▁권리를	-5703
▁나라의	-5704
og	-5705
▁한자	-5706
▁마음을	-5707
▁커뮤니	-5708
양이	-5709
▁미리	-5710
▁사용하였다	-5711
▁아름다운	-5712
파와	-5713
하를	-5714
시스	-5715
▁가깝	-5716
이게	-5717
▁저녁	-5718
▁아래와	-5719
▁도모	-5720
▁뻗	-5721
▁가까이	-5722
중을	-5723
▁함경	-5724
▁임무를	-5725
▁초등학교	-5726
사관	-5727
▁희망	-5728
정에서	-5729
▁특징이다	-5730
▁강을	-5731
▁다음의	-5732
친다	-5733
▁들면	-5734
▁보물	-5735
▁갖게	-5736
▁베이스	-5737
▁특징을	-5738
나를	-5739
▁SS	-5740
▁화장	-5741
▁행정구	-5742
마가	-5743
▁챔피언십	-5744
▁닛	-5745
▁힙	-5746
▁찰스	-5747
▁방지	-5748
▁주기	-5749
실은	-5750
▁IS	-5751
▁지구의	-5752
용을	-5753
▁활동하고	-5754
계와	-5755
▁올스타	-5756
▁이외에도	-5757
▁사우	-5758
스트를	-5759
▁도전	-5760
▁포함하고	-5761
▁프리미어	-5762
하기에	-5763
린의	-5764
▁긍정	-5765
▁알바	-5766
▁1.	-5767
로써	-5768
▁일단	-5769
환으로	-5770
행정	-5771
▁신학	-5772
▁암컷	-5773
▁클레	-5774
▁타임	-5775
▁프라	-5776
▁대회에	-5777
▁자이언	-5778
용의	-5779
▁코드	-5780
▁보이지	-5781
64	-5782
과대학	-5783
▁개방	-5784
▁서술	-5785
기인	-5786
▁알파	-5787
▁연간	-5788
▁비트	-5789
▁첼	-5790
범위	-5791
▁가난	-5792
▁문신	-5793
▁DVD	-5794
▁소프트웨	-5795
강에	-5796
같이	-5797
▁신체	-5798
▁회장	-5799
▁파트	-5800
천만	-5801
▁분해	-5802
▁스페인의	-5803
▁연결하는	-5804
▁달아	-5805
▁참여한	-5806
▁CP	-5807
▁대다	-5808
▁제도를	-5809
▁강등	-5810
▁죽음을	-5811
▁할아버	-5812
▁단순히	-5813
▁입장	-5814
신문	-5815
▁발음	-5816
▁입력	-5817
▁비잔	-5818
▁능력	-5819
▁후에도	-5820
▁멈	-5821
▁개별	-5822
운동을	-5823
▁의식	-5824
▁집에	-5825
▁시리즈의	-5826
주의자	-5827
▁틈	-5828
▁돌아온	-5829
▁본질	-5830
▁곳이다	-5831
▁정부에	-5832
▁줄어들	-5833
▁뉴질랜드	-5834
령의	-5835
판에	-5836
▁배포	-5837
▁창작	-5838
▁소속으로	-5839
▁쓰러	-5840
▁가속	-5841
▁까지	-5842
▁아버지가	-5843
▁최근에는	-5844
BM	-5845
비에	-5846
ist	-5847
▁개척	-5848
▁주장하는	-5849
▁포함되었다	-5850
라면	-5851
85	-5852
르기	-5853
요시	-5854
▁발간	-5855
▁브레	-5856
▁상관	-5857
츠의	-5858
▁동방	-5859
▁스탈	-5860
실로	-5861
▁속해	-5862
▁중성	-5863
▁동해	-5864
▁브라운	-5865
▁사운드	-5866
▁분야에서	-5867
율이	-5868
▁시가	-5869
▁중학교	-5870
▁환승	-5871
▁가치	-5872
▁교류	-5873
▁이벤	-5874
▁질량	-5875
▁영토를	-5876
하시	-5877
▁연예	-5878
▁장수	-5879
▁진격	-5880
▁티베	-5881
▁오페라	-5882
▁형식으로	-5883
▁이전에는	-5884
▁골든	-5885
▁커다란	-5886
▁거짓	-5887
▁당나라	-5888
됨에	-5889
타운	-5890
▁네이	-5891
▁되기도	-5892
대부	-5893
▁연결되어	-5894
▁백성	-5895
▁수술	-5896
미술	-5897
▁강요	-5898
▁초기에는	-5899
▁레알	-5900
▁지향	-5901
▁진행되었다	-5902
트릭	-5903
▁현지	-5904
되거나	-5905
▁이외의	-5906
▁데이비드	-5907
대원	-5908
우스는	-5909
▁뮤지컬	-5910
▁허락	-5911
케이	-5912
▁훌륭	-5913
위에서	-5914
▁이상을	-5915
▁대부분을	-5916
▁하나가	-5917
▁미국으로	-5918
침을	-5919
▁말이다	-5920
.'	-5921
소설	-5922
▁유력	-5923
▁캠퍼	-5924
▁용어	-5925
중의	-5926
▁역이다	-5927
모는	-5928
▁비판을	-5929
▁외국인	-5930
비트	-5931
▁1932	-5932
▁기도	-5933
▁혼자	-5934
▁오다	-5935
▁언덕	-5936
▁일컫	-5937
월의	-5938
▁발휘	-5939
▁아래에	-5940
▁보냈	-5941
현을	-5942
▁개량	-5943
▁토지	-5944
▁뚜렷	-5945
▁열매	-5946
▁안드로	-5947
▁넣어	-5948
비디오	-5949
▁미드필	-5950
▁고급	-5951
▁타이거	-5952
▁1934	-5953
▁대한민국에서	-5954
공간	-5955
▁로드	-5956
근혜	-5957
공신	-5958
리코	-5959
▁자원	-5960
▁지불	-5961
1,	-5962
메리칸	-5963
▁많았다	-5964
▁속도	-5965
행성	-5966
▁명칭을	-5967
집을	-5968
▁북쪽으로	-5969
▁힌	-5970
▁흑인	-5971
당으로	-5972
주의는	-5973
▁동양	-5974
▁자금	-5975
▁군사를	-5976
▁적극적으로	-5977
▁즈	-5978
▁안티	-5979
▁사회의	-5980
▁일종의	-5981
▁조선시대의	-5982
▁맨체스터	-5983
AT	-5984
함은	-5985
▁해리	-5986
이라며	-5987
▁이용할	-5988
odice	-5989
▁시작했고	-5990
현은	-5991
▁맺고	-5992
▁사단	-5993
▁스마트	-5994
후에	-5995
▁거느	-5996
▁감독은	-5997
▁살인	-5998
보다도	-5999
▁가상	-6000
▁집안	-6001
드레	-6002
▁파르	-6003
▁입은	-6004
강을	-6005
지면	-6006
▁디스크	-6007
▁운영하고	-6008
if	-6009
법과	-6010
스에게	-6011
프와	-6012
인가	-6013
교는	-6014
▁의학	-6015
▁대학의	-6016
목으로	-6017
로에	-6018
▁밝은	-6019
▁후퇴	-6020
비히	-6021
▁이어서	-6022
▁말레이시아	-6023
▁드물	-6024
▁오는	-6025
래의	-6026
카의	-6027
▁US	-6028
▁국정	-6029
펙트	-6030
▁닌	-6031
▁총선	-6032
한다면	-6033
▁맺었다	-6034
▁일본은	-6035
▁최우수	-6036
▁사용했다	-6037
름은	-6038
▁물려	-6039
▁영향으로	-6040
담을	-6041
▁반대하는	-6042
▁포지션은	-6043
비치	-6044
▁사전	-6045
르를	-6046
all	-6047
▁가와	-6048
▁장소	-6049
▁콘스탄티노	-6050
33	-6051
생물	-6052
▁촌	-6053
▁따서	-6054
▁픽	-6055
관계를	-6056
▁왕조의	-6057
권과	-6058
95	-6059
베리아	-6060
청은	-6061
▁철거	-6062
▁본다	-6063
령으로	-6064
호에	-6065
에서부터	-6066
▁안동	-6067
▁개인의	-6068
▁되었는데	-6069
결승	-6070
-20	-6071
▁인상	-6072
▁보이고	-6073
▁도쿠가와	-6074
▁자랑	-6075
▁미드필더	-6076
▁Ch	-6077
▁필수	-6078
▁수리	-6079
▁상태를	-6080
▁파워	-6081
▁세계대전	-6082
▁투어	-6083
▁반응을	-6084
▁싱가	-6085
하에서	-6086
▁정식으로	-6087
▁마주	-6088
▁전문가	-6089
스피	-6090
▁미쓰	-6091
하라는	-6092
▁놓여	-6093
크와	-6094
힌다	-6095
▁정체	-6096
▁철저	-6097
▁코르	-6098
▁정확히	-6099
▁토벌	-6100
게는	-6101
▁구멍	-6102
▁생기	-6103
▁실천	-6104
ess	-6105
▁말해	-6106
▁이웃	-6107
당하고	-6108
▁그만	-6109
▁안내	-6110
▁아이돌	-6111
▁주된	-6112
▁발표된	-6113
▁시카고	-6114
▁보여주는	-6115
▁65	-6116
▁고객	-6117
▁사찰	-6118
비스	-6119
▁루마	-6120
▁세력이	-6121
▁1928	-6122
▁프로그래밍	-6123
▁항의	-6124
▁역사가	-6125
▁이라크	-6126
▁비례	-6127
▁경향이	-6128
▁가리킨다	-6129
▁성공했다	-6130
▁포함하는	-6131
▁수를	-6132
▁라이트	-6133
▁살아남	-6134
▁역임하였다	-6135
▁무대	-6136
산과	-6137
▁수컷	-6138
▁강하게	-6139
드라	-6140
▁사건의	-6141
▁위치에	-6142
▁고위	-6143
▁1951	-6144
▁목숨	-6145
▁하던	-6146
▁형사	-6147
▁이끌어	-6148
▁낸	-6149
조와	-6150
▁42	-6151
▁붙어	-6152
▁석유	-6153
▁부르고	-6154
▁새끼	-6155
▁차단	-6156
▁나뉘어	-6157
▁설립되었다	-6158
너는	-6159
▁나타난	-6160
정도	-6161
▁터널	-6162
▁1921	-6163
폴리	-6164
다의	-6165
▁감옥	-6166
▁명단	-6167
포로	-6168
▁잡고	-6169
년경	-6170
았는데	-6171
▁+	-6172
▁수소	-6173
▁겉	-6174
다시	-6175
▁제이	-6176
▁코치	-6177
65	-6178
▁주변의	-6179
▁의견을	-6180
▁노르웨이	-6181
심이	-6182
투스	-6183
▁속의	-6184
▁혼인	-6185
가능	-6186
속의	-6187
▁부동	-6188
리우스	-6189
▁상태가	-6190
▁힘들	-6191
▁의미하는	-6192
▁감시	-6193
▁상하	-6194
▁암호	-6195
▁죽자	-6196
▁이론을	-6197
에서만	-6198
▁늑	-6199
▁신도	-6200
▁아르헨티나	-6201
▁가설	-6202
키퍼	-6203
▁대결	-6204
▁광범위	-6205
▁별도의	-6206
▁1924	-6207
▁관객	-6208
▁마감	-6209
자키	-6210
▁부상으로	-6211
ab	-6212
▁구글	-6213
▁영구	-6214
애를	-6215
▁결의	-6216
▁일련의	-6217
▁더블	-6218
▁청구	-6219
오로	-6220
▁가마	-6221
▁대칭	-6222
▁게임의	-6223
니와	-6224
▁멀티	-6225
당에서	-6226
하면서도	-6227
해에	-6228
연대	-6229
토를	-6230
▁올림픽에서	-6231
시대에	-6232
▁인기가	-6233
▁복음	-6234
▁와서	-6235
▁KBO	-6236
▁영향력을	-6237
49	-6238
▁삼았다	-6239
▁1923	-6240
내의	-6241
역과	-6242
▁1900	-6243
▁탓	-6244
▁AP	-6245
▁1931	-6246
▁히로시마	-6247
▁패션	-6248
물과	-6249
▁노무	-6250
▁디스	-6251
▁집을	-6252
▁대해서도	-6253
▁이어지는	-6254
▁가나	-6255
▁1925	-6256
러가	-6257
타가	-6258
▁마크	-6259
▁덜	-6260
▁경기가	-6261
질은	-6262
행이	-6263
▁막기	-6264
▁부탁	-6265
▁아무런	-6266
▁작곡가	-6267
스팅	-6268
천군	-6269
▁상호작용	-6270
▁쌀	-6271
문과	-6272
▁성향	-6273
▁큐	-6274
▁to	-6275
▁블라	-6276
▁에너지를	-6277
▁보스	-6278
▁관계는	-6279
모의	-6280
중인	-6281
▁자라	-6282
▁사건에	-6283
▁고속도로	-6284
▁손에	-6285
▁노동자	-6286
보로	-6287
오고	-6288
▁정통	-6289
▁창원	-6290
▁초청	-6291
▁변호사	-6292
민족행위	-6293
받침	-6294
본은	-6295
▁구원	-6296
▁시를	-6297
▁일원	-6298
▁지중	-6299
▁업무를	-6300
▁퀸	-6301
▁원시	-6302
▁이온	-6303
▁노선을	-6304
▁서쪽으로	-6305
▁보편	-6306
갔고	-6307
제도	-6308
▁codice	-6309
ON	-6310
▁사도	-6311
았지만	-6312
배우	-6313
배를	-6314
사기	-6315
절을	-6316
페르	-6317
▁중부	-6318
▁관해	-6319
▁대원	-6320
_8	-6321
ine	-6322
▁말로	-6323
▁첫째	-6324
▁사랑을	-6325
▁예로	-6326
▁i	-6327
▁무릎	-6328
▁여성의	-6329
시스코	-6330
▁미국에	-6331
▁운동에	-6332
▁대학교의	-6333
▁덩	-6334
▁짝	-6335
▁대법	-6336
▁열었다	-6337
▁자신은	-6338
방향	-6339
영이	-6340
체육	-6341
▁편의	-6342
▁츠	-6343
▁성경	-6344
▁그리스의	-6345
▁웃	-6346
삼국	-6347
▁땅을	-6348
▁않았지만	-6349
▁유고	-6350
EC	-6351
▁군대	-6352
▁일상	-6353
▁또다른	-6354
▁사람들	-6355
43	-6356
="	-6357
▁성과	-6358
▁극복	-6359
▁나고	-6360
▁양산	-6361
▁크레	-6362
▁히트	-6363
속에	-6364
연의	-6365
클리	-6366
▁승부	-6367
▁이익	-6368
야는	-6369
실에서	-6370
▁골키퍼	-6371
▁화가	-6372
▁AFC	-6373
코스	-6374
▁대대	-6375
▁않기	-6376
▁모습이	-6377
▁올라가	-6378
▁가끔	-6379
▁축소	-6380
시에서	-6381
▁심지어	-6382
▁인터뷰에서	-6383
▁개최된	-6384
▁가이	-6385
▁개명	-6386
▁대화	-6387
▁유통	-6388
▁상황에	-6389
▁화산	-6390
노는	-6391
족을	-6392
▁검색	-6393
▁우수	-6394
▁설치된	-6395
▁처음에	-6396
▁데이터를	-6397
▁순환	-6398
▁압도	-6399
▁타율	-6400
까지도	-6401
▁빌보드	-6402
▁멘	-6403
드러	-6404
▁세계를	-6405
▁원래는	-6406
티는	-6407
▁논리	-6408
식에서	-6409
ight	-6410
청년	-6411
▁사항	-6412
▁정수	-6413
슨이	-6414
▁끈	-6415
경기에서	-6416
▁했	-6417
▁대동	-6418
▁원주민	-6419
고자	-6420
위원회가	-6421
▁비틀	-6422
▁동쪽으로	-6423
등에	-6424
브를	-6425
▁집필	-6426
▁롱	-6427
래곤	-6428
▁착용	-6429
▁박근혜	-6430
▁전작	-6431
▁1929	-6432
▁텐	-6433
자베	-6434
차전	-6435
▁달하는	-6436
▁든	-6437
▁보험	-6438
▁전형적인	-6439
▁삶을	-6440
▁일종이다	-6441
▁핑	-6442
▁공기	-6443
▁보스턴	-6444
▁앨범을	-6445
▁권리	-6446
▁에드워드	-6447
비와	-6448
▁구성원	-6449
▁남녀	-6450
▁노스	-6451
▁별로	-6452
나게	-6453
시장	-6454
야구	-6455
▁스키	-6456
▁화합	-6457
이라면	-6458
ct	-6459
▁남겨	-6460
▁원하는	-6461
▁분자	-6462
▁운영하는	-6463
▁남아프리카	-6464
임은	-6465
100	-6466
▁현존	-6467
▁수밖에	-6468
▁회사의	-6469
리안	-6470
▁비공	-6471
▁서명	-6472
판의	-6473
▁텍사스	-6474
▁불렀	-6475
▁석방	-6476
▁선조	-6477
▁하와	-6478
▁받으며	-6479
▁현역	-6480
▁그녀를	-6481
무장	-6482
▁시드	-6483
▁전체를	-6484
▁소화	-6485
▁명으로	-6486
▁급속	-6487
▁적도	-6488
▁발표되었다	-6489
살이	-6490
▁자체가	-6491
▁1907	-6492
▁싫	-6493
▁기부	-6494
▁단행	-6495
▁타이틀을	-6496
ne	-6497
▁개국	-6498
▁독재	-6499
▁일본인	-6500
▁배경으로	-6501
▁랜	-6502
▁전화	-6503
▁있어야	-6504
가락	-6505
▁순서	-6506
▁증언	-6507
티움	-6508
▁이재	-6509
▁1922	-6510
99	-6511
바일	-6512
▁46	-6513
▁겨우	-6514
▁선호	-6515
▁신화	-6516
▁실수	-6517
▁심리	-6518
▁어두	-6519
▁꺼	-6520
▁부속	-6521
▁해발	-6522
투아	-6523
▁중시	-6524
쳤고	-6525
▁이념	-6526
▁내셔널	-6527
▁영화이다	-6528
였다고	-6529
▁화이트	-6530
▁중화민국	-6531
▁법정	-6532
▁방송을	-6533
▁수감	-6534
에게도	-6535
▁그럼	-6536
▁수백	-6537
▁신의	-6538
남도의	-6539
▁지었다	-6540
고속도로	-6541
.<	-6542
▁며	-6543
이면	-6544
▁시조	-6545
▁600	-6546
▁살았다	-6547
▁모토	-6548
▁힙합	-6549
로지	-6550
▁내가	-6551
▁주간	-6552
거래	-6553
신과	-6554
▁폭력	-6555
적이며	-6556
건의	-6557
라운	-6558
▁수영	-6559
▁하인	-6560
석으로	-6561
오가	-6562
졌으나	-6563
▁나이에	-6564
▁부르기도	-6565
됐고	-6566
중이	-6567
▁이은	-6568
▁기본적인	-6569
▁대선	-6570
▁시상	-6571
▁약탈	-6572
▁얻게	-6573
▁영혼	-6574
▁마드리드	-6575
편의	-6576
자였던	-6577
▁전투는	-6578
▁현상을	-6579
41	-6580
▁중에서도	-6581
▁47	-6582
▁거둔	-6583
중이다	-6584
▁밥	-6585
쿠스	-6586
훼손	-6587
▁주목을	-6588
▁리그에서	-6589
▁감사	-6590
▁포트	-6591
▁실제로는	-6592
▁해설	-6593
▁성격을	-6594
계열	-6595
▁넘겨	-6596
▁뮤직비디오	-6597
되던	-6598
▁득표	-6599
▁등도	-6600
문으로	-6601
▁덕분에	-6602
▁전라북도	-6603
테이	-6604
▁전술	-6605
▁영화의	-6606
▁1905	-6607
ard	-6608
▁이날	-6609
▁쏘	-6610
▁OS	-6611
▁담고	-6612
▁대변	-6613
▁북미	-6614
▁사제	-6615
▁입법	-6616
▁죽고	-6617
▁건물은	-6618
▁레이다	-6619
마저	-6620
▁재생	-6621
그램	-6622
스트는	-6623
말로	-6624
▁도중에	-6625
▁그들	-6626
▁공주	-6627
▁병력을	-6628
▁돌아왔다	-6629
든지	-6630
▁팔레	-6631
▁있다가	-6632
▁주요한	-6633
밀한	-6634
▁추대	-6635
회와	-6636
42	-6637
토가	-6638
파이	-6639
▁데려	-6640
▁쇠퇴	-6641
▁기용	-6642
▁전직	-6643
하였을	-6644
▁작품의	-6645
성에서	-6646
▁자가	-6647
▁정권을	-6648
▁상의	-6649
▁접속	-6650
데르	-6651
▁재료	-6652
▁카운	-6653
세기의	-6654
▁일으킨	-6655
부사	-6656
▁곧바로	-6657
령은	-6658
▁수호	-6659
▁기능이	-6660
▁교사	-6661
▁무산	-6662
▁수직	-6663
주의와	-6664
▁반면에	-6665
슬로	-6666
평균	-6667
▁맞추	-6668
▁사로	-6669
▁프랭	-6670
니스탄	-6671
▁대표로	-6672
▁사람으로	-6673
▁찬성	-6674
▁꾸준히	-6675
▁수준의	-6676
달러	-6677
▁삽입	-6678
▁전신	-6679
▁없지만	-6680
▁혈액	-6681
▁없었고	-6682
▁1912	-6683
코의	-6684
▁망원	-6685
▁관계에	-6686
▁아래의	-6687
▁1917	-6688
▁결심	-6689
▁황제의	-6690
디는	-6691
▁재산	-6692
▁바르셀	-6693
87	-6694
MA	-6695
방에	-6696
▁800	-6697
▁사다	-6698
▁못하게	-6699
▁오키	-6700
ue	-6701
층에	-6702
▁명시	-6703
해지고	-6704
▁상태에	-6705
교가	-6706
즈와	-6707
▁요미	-6708
▁없었던	-6709
▁급격	-6710
▁170	-6711
법인	-6712
ell	-6713
현이	-6714
▁소요	-6715
▁때문이었다	-6716
집합	-6717
천의	-6718
켓몬	-6719
ill	-6720
▁코미디	-6721
년까지는	-6722
▁이어졌다	-6723
▁산화	-6724
▁가치를	-6725
▁만들기	-6726
▁세우고	-6727
▁전해진다	-6728
▁차지하였다	-6729
▁적응	-6730
▁다이묘	-6731
▁변화가	-6732
▁생각을	-6733
▁전동차	-6734
▁닮	-6735
졌지만	-6736
▁정도이다	-6737
▁열리는	-6738
▁스프	-6739
▁MV	-6740
▁우리는	-6741
▁준결승	-6742
▁AT	-6743
▁삼아	-6744
▁점성	-6745
▁JR	-6746
▁되찾	-6747
▁살펴	-6748
▁소리	-6749
▁약간의	-6750
▁우리가	-6751
등급	-6752
▁세월	-6753
▁메모리	-6754
▁지나지	-6755
▁계기가	-6756
▁위대한	-6757
▁폴리	-6758
차에	-6759
▁포항	-6760
졌는데	-6761
▁불가리아	-6762
보호	-6763
▁셋째	-6764
자들과	-6765
률을	-6766
미니	-6767
▁동반	-6768
▁마치고	-6769
▁1926	-6770
령에	-6771
이었는데	-6772
▁천체	-6773
▁체육	-6774
▁인물로	-6775
▁갈색	-6776
▁연안	-6777
▁방법이	-6778
▁맞춰	-6779
▁공간을	-6780
▁1927	-6781
▁넷	-6782
▁란	-6783
▁기하	-6784
▁예외	-6785
터와	-6786
피스	-6787
▁다음은	-6788
치기	-6789
▁행위를	-6790
서양	-6791
▁옮겼다	-6792
▁적어도	-6793
▁시달	-6794
▁포함된다	-6795
분은	-6796
습을	-6797
97	-6798
시스템	-6799
▁바람에	-6800
▁생태	-6801
▁압축	-6802
▁비로	-6803
▁주변에	-6804
▁번주	-6805
▁않았던	-6806
▁인구의	-6807
▁지리	-6808
▁에르	-6809
▁유용	-6810
▁비롯해	-6811
▁크기가	-6812
▁사람이다	-6813
▁발전을	-6814
▁출연했다	-6815
청의	-6816
▁공화국의	-6817
기지	-6818
▁삭제	-6819
▁포함된	-6820
▁1,000	-6821
대신	-6822
_10	-6823
▁기상	-6824
▁이명박	-6825
▁이용하는	-6826
점과	-6827
▁예전	-6828
▁중지	-6829
폴리스	-6830
▁되었다고	-6831
▁영국에서	-6832
▁프랑스는	-6833
졌을	-6834
피를	-6835
▁책은	-6836
▁밖으로	-6837
▁장례	-6838
▁크리	-6839
▁블록	-6840
▁선두	-6841
우고	-6842
▁이행	-6843
▁상황이	-6844
▁의정부	-6845
노의	-6846
실한	-6847
주년	-6848
▁곳은	-6849
▁대단	-6850
▁소방	-6851
▁체험	-6852
▁유전자	-6853
▁1/	-6854
▁돌파	-6855
▁무리	-6856
보통	-6857
▁알레	-6858
자이자	-6859
88	-6860
바의	-6861
▁필요로	-6862
▁하다가	-6863
▁앵	-6864
고한	-6865
▁두려워	-6866
▁후쿠오카	-6867
▁라이벌	-6868
▁명성을	-6869
▁모습으로	-6870
▁고안	-6871
생활을	-6872
▁끝으로	-6873
▁동성애	-6874
▁지칭	-6875
▁공장	-6876
▁오케	-6877
▁정부를	-6878
▁퀘	-6879
▁올린	-6880
▁화성	-6881
▁영국과	-6882
방이	-6883
▁시호는	-6884
▁작전을	-6885
▁랩	-6886
▁글로벌	-6887
▁도시로	-6888
▁새벽	-6889
▁결과로	-6890
▁국가가	-6891
▁사우스	-6892
되었다는	-6893
44	-6894
▁걷	-6895
▁톱	-6896
▁영원	-6897
▁타입	-6898
▁리처드	-6899
실에	-6900
▁스승	-6901
▁참모	-6902
▁동맹을	-6903
우스의	-6904
해는	-6905
▁MS	-6906
드리아	-6907
▁올해의	-6908
▁차지한다	-6909
▁당사	-6910
▁포인	-6911
민주당	-6912
▁들었다	-6913
▁역사는	-6914
ub	-6915
▁북아메리카	-6916
졌던	-6917
▁말은	-6918
▁지역이	-6919
대사	-6920
미사	-6921
나라를	-6922
▁이미지	-6923
ove	-6924
▁유대인	-6925
▁튜	-6926
▁배열	-6927
▁붙잡	-6928
가타	-6929
ive	-6930
▁HD	-6931
▁우에	-6932
▁하사	-6933
▁한반도	-6934
대상	-6935
▁칼리	-6936
▁지원하는	-6937
구치	-6938
금은	-6939
▁사양	-6940
▁오버	-6941
▁소리를	-6942
▁들여	-6943
▁사촌	-6944
▁시사	-6945
▁세리에	-6946
▁못한다	-6947
▁웹사이트	-6948
▁전체적으로	-6949
▁보기	-6950
보면	-6951
96	-6952
토미	-6953
▁부유	-6954
▁예산	-6955
▁도움이	-6956
공원	-6957
바는	-6958
▁습격	-6959
▁사용하지	-6960
▁뿐이다	-6961
▁스크린	-6962
지기도	-6963
▁대한제국	-6964
▁입단하였다	-6965
레의	-6966
▁내는	-6967
▁175	-6968
▁아니었다	-6969
▁강릉	-6970
▁병원	-6971
중국	-6972
▁웨일	-6973
▁의미가	-6974
▁크기는	-6975
▁유입	-6976
▁자매	-6977
-10	-6978
▁퍼져	-6979
▁권한을	-6980
▁성과를	-6981
▁전두	-6982
스트라	-6983
▁x	-6984
문관	-6985
색이	-6986
자나	-6987
▁매장	-6988
▁현대의	-6989
▁1908	-6990
미아	-6991
훈련	-6992
▁이하의	-6993
▁이르기까지	-6994
ers	-6995
르와	-6996
보험	-6997
형과	-6998
▁거친	-6999
▁로렌	-7000
▁엘리자베	-7001
▁아니고	-7002
▁베어	-7003
▁탑승	-7004
병으로	-7005
나고	-7006
▁복소	-7007
▁공산당	-7008
쥐는	-7009
▁졸업한	-7010
▁4,	-7011
▁포스트	-7012
마에	-7013
▁뼈	-7014
▁주제	-7015
브로	-7016
▁마그	-7017
▁방언	-7018
▁소형	-7019
▁부분에	-7020
도서	-7021
나라는	-7022
▁때마다	-7023
▁시는	-7024
▁아직도	-7025
▁친일반	-7026
▁크로아티아	-7027
체인	-7028
프란	-7029
▁보이며	-7030
▁매각	-7031
▁도시를	-7032
▁사막	-7033
▁클라	-7034
▁폭탄	-7035
면서도	-7036
▁뜻이다	-7037
용은	-7038
▁IC	-7039
▁우라	-7040
투표	-7041
▁뒤로	-7042
▁연고	-7043
▁운송	-7044
치며	-7045
수도	-7046
▁담은	-7047
▁마법	-7048
▁폭격	-7049
▁시간에	-7050
▁이승만	-7051
▁조선총독부	-7052
대문	-7053
▁보살	-7054
▁선형	-7055
▁역의	-7056
▁프리미어리그	-7057
▁부처	-7058
▁벌였다	-7059
▁루이스	-7060
67	-7061
면과	-7062
▁르네	-7063
▁모임	-7064
▁천안	-7065
▁등장한	-7066
▁밀라노	-7067
▁지내고	-7068
▁감각	-7069
▁서구	-7070
▁잠재	-7071
▁카라	-7072
▁집에서	-7073
률이	-7074
보가	-7075
▁미분	-7076
▁파울	-7077
도니아	-7078
환은	-7079
▁옛날	-7080
▁타원	-7081
Pa	-7082
연한	-7083
▁자세	-7084
▁측은	-7085
▁시대에는	-7086
위원회는	-7087
▁가고	-7088
▁거기	-7089
▁중립	-7090
▁세워진	-7091
▁당해	-7092
▁심한	-7093
▁첩	-7094
마루	-7095
▁간섭	-7096
▁그리스도	-7097
▁허가	-7098
▁걸려	-7099
▁거리를	-7100
▁계획은	-7101
하가	-7102
▁44	-7103
학자이다	-7104
▁구사	-7105
곡은	-7106
년으로	-7107
▁본선에	-7108
▁되었으나	-7109
▁소규모	-7110
금이	-7111
▁성은	-7112
▁수반	-7113
▁원인	-7114
▁코너	-7115
▁존재를	-7116
들인	-7117
▁근육	-7118
▁않았으며	-7119
▁설치되었다	-7120
교도	-7121
▁갈등	-7122
▁상주	-7123
분으로	-7124
상이다	-7125
▁명단에	-7126
고에	-7127
브레	-7128
▁서기	-7129
▁점은	-7130
▁오늘날의	-7131
▁무관	-7132
▁빨리	-7133
▁섬에	-7134
▁것이고	-7135
▁다루는	-7136
▁고통	-7137
▁변신	-7138
▁NH	-7139
▁모터	-7140
▁전의	-7141
▁입었다	-7142
▁주장이	-7143
▁친일반민족행위	-7144
▁방향을	-7145
▁넥	-7146
▁거대	-7147
▁내용의	-7148
으려	-7149
되었기	-7150
▁들어간	-7151
아웃	-7152
▁사가	-7153
작으로	-7154
▁가해	-7155
▁레벨	-7156
▁억제	-7157
▁시절에	-7158
▁구성된다	-7159
▁닉	-7160
국인	-7161
발전	-7162
▁다녔	-7163
데이트	-7164
▁들어와	-7165
▁스트리	-7166
▁범주	-7167
▁사형	-7168
▁유발	-7169
직에서	-7170
▁관심이	-7171
건은	-7172
유로	-7173
▁게르	-7174
▁물이	-7175
론과	-7176
타마	-7177
▁게시	-7178
▁적을	-7179
▁불리며	-7180
▁정의할	-7181
▁했다고	-7182
▁쿼	-7183
란다	-7184
성도	-7185
▁95	-7186
▁연락	-7187
▁참고	-7188
▁토론토	-7189
유는	-7190
▁모바일	-7191
▁세계에	-7192
▁뚫	-7193
어에	-7194
▁소득	-7195
간을	-7196
▁셔	-7197
긴다	-7198
토리	-7199
▁선제	-7200
▁세부	-7201
페이지	-7202
▁영화를	-7203
▁이루어진다	-7204
▁의도	-7205
▁장갑	-7206
▁비잔티움	-7207
▁추가되었다	-7208
▁눈을	-7209
▁패러	-7210
▁공개되었다	-7211
▁잃고	-7212
▁풍부한	-7213
▁프라이	-7214
▁차지하는	-7215
▁곳을	-7216
▁출현	-7217
▁엔진을	-7218
리언	-7219
▁용어는	-7220
▁이곳에	-7221
스부르크	-7222
▁대학에서	-7223
▁벗어	-7224
▁막아	-7225
▁서방	-7226
▁입증	-7227
▁의미로	-7228
▁말라	-7229
▁특허	-7230
▁어릴	-7231
▁외계	-7232
▁주재	-7233
▁다음으로	-7234
버드	-7235
▁신고	-7236
▁일곱	-7237
▁앨범은	-7238
▁사진을	-7239
▁그럼에도	-7240
▁조약을	-7241
▁한국인	-7242
▁입대	-7243
▁기반을	-7244
석에	-7245
▁시게	-7246
▁실업	-7247
▁모양으로	-7248
어에서	-7249
PS	-7250
지방법원	-7251
▁알렉산더	-7252
장한	-7253
▁설이	-7254
화하는	-7255
▁옵	-7256
▁경남	-7257
▁만난	-7258
▁분기	-7259
▁빌딩	-7260
▁색깔	-7261
ip	-7262
▁식품	-7263
▁나라를	-7264
▁활동에	-7265
▁빵	-7266
▁납치	-7267
▁농촌	-7268
노스	-7269
카드	-7270
▁황태	-7271
하겠다고	-7272
보의	-7273
▁성남	-7274
▁압박	-7275
▁서울시	-7276
권으로	-7277
지니아	-7278
▁동치	-7279
▁심사	-7280
▁출신이다	-7281
모델	-7282
▁방위	-7283
산에서	-7284
▁계획이	-7285
▁등장인	-7286
▁말하고	-7287
▁열차는	-7288
곡이	-7289
▁오카	-7290
▁과거에	-7291
ud	-7292
급의	-7293
▁못했고	-7294
▁버리고	-7295
▁지원한다	-7296
앨범	-7297
ity	-7298
▁우익	-7299
율은	-7300
트롤	-7301
▁아동	-7302
▁교수로	-7303
▁있으면	-7304
▁종교적	-7305
기능	-7306
루살	-7307
림을	-7308
▁번뇌	-7309
조판서	-7310
데스리가	-7311
작을	-7312
▁과도	-7313
하라고	-7314
▁간단한	-7315
▁가능성을	-7316
▁기록하고	-7317
보기	-7318
인명	-7319
재의	-7320
▁개성	-7321
▁아들을	-7322
▁로스앤젤레스	-7323
▁빗	-7324
▁발명	-7325
▁초래	-7326
▁140	-7327
다니	-7328
▁냈다	-7329
된다는	-7330
올린	-7331
▁출전하여	-7332
AM	-7333
▁56	-7334
심의	-7335
▁순위	-7336
▁종이	-7337
▁이야기가	-7338
편을	-7339
용이	-7340
▁사령관	-7341
-7	-7342
오와	-7343
▁군은	-7344
▁소스	-7345
▁순수	-7346
▁커버	-7347
▁호환	-7348
▁리그의	-7349
▁플로리다	-7350
▁43	-7351
▁루마니아	-7352
톤의	-7353
▁MVP	-7354
주의에	-7355
▁돌아오	-7356
▁우수한	-7357
▁간에	-7358
▁레지	-7359
▁굽	-7360
초의	-7361
▁먹는다	-7362
재는	-7363
▁데리고	-7364
▁발생한다	-7365
▁동영	-7366
▁성균	-7367
▁휴대	-7368
▁가지게	-7369
공이	-7370
나카	-7371
▁독점	-7372
▁법적	-7373
루살렘	-7374
슬라비아	-7375
▁아메리칸	-7376
업이	-7377
전투	-7378
▁165	-7379
▁목숨을	-7380
님이	-7381
▁규모가	-7382
▁참가했다	-7383
설이	-7384
음의	-7385
▁매니	-7386
▁메달	-7387
▁일로	-7388
▁지대	-7389
▁토너	-7390
펙트럼	-7391
▁쓴다	-7392
▁당했다	-7393
▁결승전에서	-7394
▁센트	-7395
▁계층	-7396
▁유인	-7397
▁이즈	-7398
함으로	-7399
▁클리	-7400
▁행복	-7401
디움	-7402
미르	-7403
▁가야	-7404
▁감정	-7405
▁개발을	-7406
▁유럽에서	-7407
민은	-7408
히고	-7409
▁아울	-7410
호쿠	-7411
▁해협	-7412
▁사이트	-7413
▁활동이	-7414
94	-7415
변을	-7416
▁메모	-7417
▁사립	-7418
▁그려져	-7419
▁먹는	-7420
▁모듈	-7421
연이	-7422
플로	-7423
▁크루	-7424
시켰고	-7425
▁자유를	-7426
83	-7427
▁파크	-7428
▁시스템은	-7429
족과	-7430
▁지목	-7431
년만에	-7432
▁별도로	-7433
▁여동생	-7434
▁자료를	-7435
▁공식적인	-7436
▁명칭으로	-7437
▁요구하는	-7438
▁성벽	-7439
▁프로듀서	-7440
▁BBC	-7441
▁낳았다	-7442
▁단백질	-7443
▁독자적인	-7444
류와	-7445
▁대신에	-7446
▁2.	-7447
▁대답	-7448
▁초상	-7449
▁천황의	-7450
▁중국에서	-7451
후가	-7452
▁심장	-7453
▁편지를	-7454
석과	-7455
▁사과	-7456
▁열어	-7457
▁흩	-7458
청을	-7459
▁효과가	-7460
▁생각했다	-7461
사상	-7462
악의	-7463
▁석사	-7464
들과의	-7465
스와의	-7466
▁세계적인	-7467
▁띤	-7468
뱅크	-7469
▁없애	-7470
▁유적	-7471
▁촉진	-7472
▁힘이	-7473
▁피터	-7474
▁흙	-7475
▁남한	-7476
▁양식	-7477
▁된다는	-7478
▁이곳에서	-7479
▁값을	-7480
▁없기	-7481
▁태국	-7482
▁갱	-7483
우에	-7484
타와	-7485
▁공룡	-7486
▁미국이	-7487
▁결과적으로	-7488
병이	-7489
▁교차	-7490
▁흰색	-7491
▁결과는	-7492
▁충청북도	-7493
전자	-7494
▁소위	-7495
단에서	-7496
바키아	-7497
▁군대는	-7498
▁적절한	-7499
▁차이를	-7500
▁요코하마	-7501
▁비정	-7502
▁업데이트	-7503
왔고	-7504
▁주어졌다	-7505
▁기구	-7506
▁깊이	-7507
▁호흡	-7508
▁명칭이	-7509
▁공원	-7510
▁수천	-7511
▁자리에서	-7512
▁서북	-7513
▁아티스트	-7514
션을	-7515
▁리눅	-7516
▁칙	-7517
▁못해	-7518
▁쪽으로	-7519
▁정치인이다	-7520
칭은	-7521
▁원래의	-7522
등한	-7523
ect	-7524
▁KT	-7525
▁뒤인	-7526
▁전망	-7527
▁정벌	-7528
▁관련하여	-7529
개국	-7530
그래	-7531
본이	-7532
▁평론	-7533
중에서	-7534
▁핫	-7535
▁41	-7536
▁미국인	-7537
성군	-7538
▁마틴	-7539
▁전승	-7540
비행	-7541
파에	-7542
홈런	-7543
회로	-7544
▁빛을	-7545
▁찾을	-7546
▁스티븐	-7547
▁말할	-7548
▁유닛	-7549
▁청주	-7550
▁불만을	-7551
▁얼마나	-7552
류에	-7553
음에	-7554
▁때도	-7555
▁파생	-7556
시고	-7557
▁역전	-7558
▁피난	-7559
해진다	-7560
프가니스탄	-7561
보이	-7562
▁많고	-7563
▁유나이티드	-7564
지마	-7565
▁가득	-7566
▁베네치아	-7567
▁유지하고	-7568
곡의	-7569
▁책봉	-7570
▁원자력	-7571
▁좁은	-7572
▁서서히	-7573
아르	-7574
희는	-7575
▁직무	-7576
▁특성을	-7577
▁빅토리아	-7578
말을	-7579
▁강남	-7580
IN	-7581
라브	-7582
음은	-7583
▁밀접	-7584
▁승차	-7585
▁역이	-7586
▁성공적으로	-7587
턴은	-7588
▁영양	-7589
▁과학자	-7590
▁일본이	-7591
▁졸업했다	-7592
iv	-7593
▁딴	-7594
▁동지	-7595
▁김영삼	-7596
▁쏟	-7597
▁앤드	-7598
▁전향	-7599
▁주파	-7600
▁필라	-7601
▁참조	-7602
▁훈련을	-7603
▁공략	-7604
▁전체의	-7605
▁낱	-7606
실록	-7607
자였다	-7608
▁엑스	-7609
프라	-7610
▁문재	-7611
▁전임	-7612
▁뒤에는	-7613
동물	-7614
▁고립	-7615
▁메탈	-7616
▁익스	-7617
머리	-7618
의에	-7619
▁주거	-7620
▁일본에서는	-7621
▁내지	-7622
▁대지	-7623
▁화폐	-7624
▁말하며	-7625
▁전북	-7626
▁문화의	-7627
▁가질	-7628
▁동서	-7629
▁그동안	-7630
▁공동으로	-7631
레인	-7632
리티	-7633
전한	-7634
총리	-7635
▁부드	-7636
▁카페	-7637
▁위기에	-7638
▁고시	-7639
▁좌익	-7640
▁코파	-7641
▁제공하고	-7642
종합	-7643
주인	-7644
▁학교를	-7645
부문	-7646
▁전남	-7647
안으로	-7648
▁인간이	-7649
미와	-7650
▁스펙트럼	-7651
▁예루살렘	-7652
구조	-7653
민이	-7654
팀이	-7655
▁분산	-7656
▁일대	-7657
ep	-7658
니까	-7659
발의	-7660
▁동시	-7661
▁문화를	-7662
▁최근에	-7663
▁경유	-7664
▁모노	-7665
▁탱	-7666
▁지배를	-7667
문제연구	-7668
져서	-7669
▁내륙	-7670
▁필립	-7671
▁레이블	-7672
▁177	-7673
▁곤충	-7674
▁곳곳	-7675
▁예언	-7676
▁도시는	-7677
▁사로잡	-7678
▁이외에	-7679
▁크기의	-7680
▁구성하는	-7681
끼리	-7682
▁추증	-7683
▁과학적	-7684
▁충분한	-7685
하러	-7686
▁서독	-7687
68	-7688
▁꾀	-7689
출을	-7690
▁금강	-7691
니를	-7692
청이	-7693
환경	-7694
▁You	-7695
▁겸임	-7696
▁멸종	-7697
▁지표	-7698
편이	-7699
▁자손	-7700
▁이익을	-7701
▁애국	-7702
▁이세	-7703
▁임신	-7704
▁작사	-7705
▁적색	-7706
▁중력	-7707
▁홀로	-7708
학과를	-7709
▁전투가	-7710
▁잊	-7711
반의	-7712
▁경험을	-7713
▁있다면	-7714
격이	-7715
아를	-7716
▁배제	-7717
▁유키	-7718
▁착수	-7719
리케이션	-7720
개는	-7721
액을	-7722
였기	-7723
▁알리	-7724
▁오이	-7725
린이	-7726
▁추락	-7727
▁모양을	-7728
칸센	-7729
▁노란	-7730
▁반사	-7731
▁생애	-7732
호선의	-7733
OR	-7734
나마	-7735
▁전쟁은	-7736
▁스타크래프트	-7737
▁!	-7738
▁합동	-7739
▁청동	-7740
▁혁신	-7741
▁후의	-7742
각형	-7743
슬링	-7744
▁아오	-7745
▁총선에서	-7746
주군	-7747
카미	-7748
▁학사	-7749
▁조선민주주의인민공화국의	-7750
가시	-7751
▁이종	-7752
▁일어났	-7753
업에	-7754
▁당한	-7755
▁오염	-7756
▁콘서트	-7757
▁휩	-7758
▁긴급	-7759
▁옆에	-7760
▁작품이	-7761
쪽의	-7762
환의	-7763
▁결정을	-7764
▁극단	-7765
▁향년	-7766
▁내부의	-7767
▁1906	-7768
▁창간	-7769
▁퇴각	-7770
로미터	-7771
▁훌륭한	-7772
▁도시이다	-7773
ew	-7774
결을	-7775
마자	-7776
▁발효	-7777
▁약한	-7778
▁능력이	-7779
▁콜롬	-7780
▁목적은	-7781
인들에게	-7782
▁유고슬라비아	-7783
▁그러자	-7784
▁오디션	-7785
란을	-7786
▁막을	-7787
▁현상이	-7788
▁친일인명	-7789
시절	-7790
▁바티	-7791
▁확인할	-7792
▁람	-7793
▁또다시	-7794
▁일본군	-7795
ant	-7796
▁모래	-7797
▁태양의	-7798
▁맞게	-7799
▁탐험	-7800
▁아프가니스탄	-7801
▁찾아가	-7802
81	-7803
네는	-7804
측의	-7805
▁고고	-7806
▁고교	-7807
▁항구	-7808
▁성질	-7809
▁옹호	-7810
제에서	-7811
▁콘텐츠	-7812
▁1911	-7813
▁그라	-7814
▁보건	-7815
▁섹	-7816
바다	-7817
▁한신	-7818
▁핸	-7819
금의	-7820
▁인조	-7821
▁그레고	-7822
▁이처럼	-7823
지구	-7824
▁테오	-7825
▁딱	-7826
온의	-7827
장군	-7828
ore	-7829
▁꼬리	-7830
▁막대한	-7831
▁소속의	-7832
▁싱가포르	-7833
3,	-7834
▁구역	-7835
▁결정했다	-7836
▁아마추어	-7837
너스	-7838
▁성질을	-7839
▁안토니	-7840
▁데뷔하였다	-7841
▁맞는	-7842
▁승리로	-7843
반을	-7844
▁이순	-7845
▁추적	-7846
▁플루	-7847
▁운동의	-7848
AC	-7849
▁공정	-7850
▁창당	-7851
그레이	-7852
▁차트에서	-7853
DP	-7854
견을	-7855
▁말한	-7856
▁관하여	-7857
▁근거로	-7858
▁대회를	-7859
▁사이에는	-7860
▁졸업하였다	-7861
작은	-7862
한을	-7863
▁내장	-7864
▁연루	-7865
▁적대	-7866
▁뜻으로	-7867
▁모델로	-7868
▁결혼을	-7869
▁수록되어	-7870
▁직접적인	-7871
▁교섭	-7872
▁랭킹	-7873
▁테마	-7874
▁파티	-7875
판으로	-7876
▁받기도	-7877
▁Me	-7878
▁하노	-7879
▁한국에서	-7880
▁왕위	-7881
▁당의	-7882
▁개념은	-7883
▁정도가	-7884
▁본격적인	-7885
▁농구	-7886
▁보좌	-7887
▁중이던	-7888
준은	-7889
▁모집	-7890
▁본토	-7891
▁등이다	-7892
▁남아있다	-7893
▁얇	-7894
▁지방에	-7895
▁준우승	-7896
▁발생했다	-7897
▁일환으로	-7898
▁최종적으로	-7899
▁풀려	-7900
▁끝났다	-7901
▁늘어나	-7902
▁교과	-7903
▁지정되어	-7904
▁5,	-7905
▁구상	-7906
▁디젤	-7907
▁본명은	-7908
▁청와	-7909
경으로	-7910
내에서	-7911
▁선거에	-7912
▁체제를	-7913
▁사용해	-7914
▁머무	-7915
▁장면	-7916
▁군대가	-7917
▁동기	-7918
▁들은	-7919
ain	-7920
켰다	-7921
▁85	-7922
▁맡게	-7923
▁해임	-7924
▁정치인	-7925
단계	-7926
돌프	-7927
▁145	-7928
▁제갈	-7929
▁않는다는	-7930
▁기술이	-7931
▁않도록	-7932
▁골드	-7933
▁몰락	-7934
나라에	-7935
▁AC	-7936
▁끝이	-7937
▁결과가	-7938
▁실험을	-7939
SP	-7940
우라	-7941
현악	-7942
▁Al	-7943
▁지연	-7944
▁호남	-7945
목이	-7946
받지	-7947
▁적의	-7948
▁머리를	-7949
▁운동이	-7950
▁깔	-7951
ang	-7952
▁바꾸었다	-7953
행은	-7954
▁가시	-7955
하였기	-7956
▁하나를	-7957
▁자유롭게	-7958
▁잉글랜드의	-7959
▁사직	-7960
▁진술	-7961
▁호주	-7962
▁곁	-7963
▁짙	-7964
▁원년	-7965
▁일본으로	-7966
본부	-7967
피는	-7968
베리	-7969
▁가쓰	-7970
▁연계	-7971
▁방식의	-7972
▁설립한	-7973
▁신칸센	-7974
▁특수한	-7975
우와	-7976
▁보잉	-7977
▁제후	-7978
▁주에	-7979
▁어렵다	-7980
▁군을	-7981
▁전원	-7982
▁태조	-7983
▁이라는	-7984
즈니	-7985
▁대로	-7986
▁아웃	-7987
▁좋아하는	-7988
공은	-7989
▁특급	-7990
그는	-7991
전기	-7992
▁토착	-7993
▁최신	-7994
▁타워	-7995
▁사실은	-7996
랑이	-7997
온다	-7998
▁일찍이	-7999
▁전투에	-8000
소한	-8001
▁방면	-8002
▁경계를	-8003
▁포맷	-8004
▁흐르는	-8005
▁탄소	-8006
▁교육과	-8007
▁두드러	-8008
▁방식은	-8009
▁카메라	-8010
▁한국에서는	-8011
61	-8012
터로	-8013
▁이론은	-8014
▁참가한	-8015
▁야기	-8016
▁데뷔전을	-8017
_9	-8018
건이	-8019
네의	-8020
성한	-8021
온이	-8022
편에	-8023
82	-8024
아와	-8025
▁이복	-8026
▁뱀	-8027
오를	-8028
▁곳이	-8029
▁떠난	-8030
▁테크	-8031
▁사상을	-8032
▁구체적인	-8033
천시	-8034
▁읍	-8035
색은	-8036
증이	-8037
된다고	-8038
적이었다	-8039
▁가능하게	-8040
여래	-8041
▁제네	-8042
▁700	-8043
▁거기에	-8044
▁형성된	-8045
▁크리스티	-8046
터에	-8047
▁죽을	-8048
▁접하고	-8049
▁치렀다	-8050
▁후반에	-8051
학교에	-8052
▁재위	-8053
곡으로	-8054
▁파트너	-8055
▁이름이다	-8056
과도	-8057
렸던	-8058
▁동굴	-8059
▁아울러	-8060
▁형태가	-8061
▁운반	-8062
AN	-8063
류로	-8064
▁원로	-8065
▁없으나	-8066
▁오리지	-8067
▁불리기도	-8068
률은	-8069
▁근로	-8070
▁반환	-8071
▁49	-8072
▁브라우	-8073
▁속도를	-8074
▁툴	-8075
르바	-8076
있고	-8077
▁측근	-8078
62	-8079
▁끝나고	-8080
▁건의	-8081
합니다	-8082
니에	-8083
▁귀환	-8084
▁숙종	-8085
▁콜로	-8086
▁항일	-8087
▁동아시아	-8088
ID	-8089
▁산악	-8090
▁입사	-8091
▁노선이	-8092
▁상태이다	-8093
▁성립한다	-8094
ED	-8095
▁다녀	-8096
▁찾는	-8097
▁사용자가	-8098
▁임명되어	-8099
렸을	-8100
▁모르	-8101
▁병력	-8102
▁조용	-8103
▁중동	-8104
▁친척	-8105
▁테스트	-8106
▁아니며	-8107
▁이었다	-8108
백을	-8109
하니	-8110
▁아우구	-8111
▁클래식	-8112
▁왕위를	-8113
프란시스코	-8114
84	-8115
▁램	-8116
씨와	-8117
통일	-8118
▁남긴	-8119
▁따르는	-8120
▁아이템	-8121
▁가면	-8122
▁분야의	-8123
▁자격을	-8124
실과	-8125
성이다	-8126
세에게	-8127
▁라이온	-8128
▁발렌	-8129
▁안타	-8130
▁CPU	-8131
▁굉	-8132
기구	-8133
▁아르메	-8134
▁회의에서	-8135
▁경고	-8136
▁기재	-8137
▁목포	-8138
▁발생하였다	-8139
▁펑	-8140
▁레인	-8141
▁여왕	-8142
▁원형	-8143
▁협상	-8144
▁돌아갔다	-8145
란이	-8146
her	-8147
▁클로	-8148
▁관광객	-8149
▁해군의	-8150
▁게임이다	-8151
겼고	-8152
천을	-8153
▁110	-8154
▁칩	-8155
보병	-8156
▁브레이	-8157
▁애플리케이션	-8158
▁무력	-8159
▁종전	-8160
▁연구가	-8161
:1	-8162
▁풋	-8163
▁가라	-8164
▁마친	-8165
▁수익	-8166
▁한양	-8167
어진다	-8168
▁생각된다	-8169
▁하였는데	-8170
검찰	-8171
열이	-8172
▁운항	-8173
▁전통적으로	-8174
▁얘	-8175
▁웨이	-8176
▁왕으로	-8177
▁비가	-8178
▁친선	-8179
▁코스	-8180
▁원자로	-8181
▁무인	-8182
up	-8183
하르트	-8184
▁달러를	-8185
▁페이스	-8186
▁광역	-8187
▁나선	-8188
▁해병	-8189
저는	-8190
▁경전	-8191
▁비스	-8192
제품	-8193
▁땅에	-8194
▁무늬	-8195
교회의	-8196
▁용인	-8197
▁카자	-8198
▁속도로	-8199
▁항공기	-8200
보에	-8201
▁무료	-8202
▁1896	-8203
▁돔	-8204
란의	-8205
았을	-8206
ong	-8207
▁개장	-8208
▁제국이	-8209
▁중앙에	-8210
▁특유의	-8211
▁말하였다	-8212
코가	-8213
▁공의	-8214
▁규슈	-8215
노미야	-8216
▁짓고	-8217
▁비슷하다	-8218
▁떼	-8219
투쟁	-8220
▁각기	-8221
▁마스터	-8222
▁신라의	-8223
▁연구는	-8224
▁항공모	-8225
건설	-8226
이치	-8227
▁백인	-8228
▁인텔	-8229
▁후일	-8230
▁나고야	-8231
코프	-8232
▁모순	-8233
▁무신	-8234
▁연설	-8235
▁트위	-8236
▁면에서	-8237
▁목격	-8238
▁130	-8239
▁250	-8240
▁토마스	-8241
▁강수	-8242
▁동독	-8243
▁충격	-8244
▁이어져	-8245
▁1909	-8246
▁구체적으로	-8247
해주	-8248
▁보르	-8249
▁선을	-8250
▁털이	-8251
▁국가를	-8252
▁프로그램의	-8253
▁컸	-8254
▁54	-8255
▁자식	-8256
라이더	-8257
치면서	-8258
▁화려한	-8259
IC	-8260
▁고가	-8261
▁잘못된	-8262
▁차례로	-8263
▁스파르타	-8264
63	-8265
화학	-8266
▁출력	-8267
연은	-8268
▁목적을	-8269
▁미치는	-8270
▁연평균	-8271
▁무효	-8272
▁자바	-8273
경기를	-8274
▁언어로	-8275
▁젠	-8276
▁보인	-8277
▁후기의	-8278
▁루트비히	-8279
▁참가하였다	-8280
활동	-8281
▁고조	-8282
▁초창	-8283
▁획득하였다	-8284
▁여의	-8285
▁정원	-8286
▁물리학	-8287
님을	-8288
체에서	-8289
▁번호는	-8290
▁일본어	-8291
▁구름	-8292
▁대승	-8293
▁도구	-8294
▁평소	-8295
▁문화적	-8296
▁엔터테인먼	-8297
▁근접	-8298
▁스톤	-8299
▁싫어	-8300
▁펄	-8301
▁막부	-8302
▁폐기	-8303
사이다	-8304
▁보여주고	-8305
게이	-8306
톨레	-8307
▁몸무	-8308
▁삼고	-8309
▁북한의	-8310
▁에스파	-8311
▁의견이	-8312
▁죽이고	-8313
▁당선되었다	-8314
초에	-8315
▁해제	-8316
▁요소를	-8317
년대에는	-8318
업은	-8319
중에는	-8320
▁나갔다	-8321
▁독일은	-8322
▁지금도	-8323
▁1500	-8324
루미	-8325
-15	-8326
▁가요	-8327
▁내내	-8328
▁산하	-8329
▁스토리	-8330
▁주제로	-8331
▁국가에서	-8332
▁스웨덴의	-8333
진과	-8334
▁다가	-8335
▁펴	-8336
타임	-8337
▁간접	-8338
▁빌헬	-8339
▁이수	-8340
시스트	-8341
▁사람에게	-8342
패로	-8343
▁법학	-8344
▁음성	-8345
▁건너가	-8346
▁전부터	-8347
▁마케도니아	-8348
드르	-8349
▁온도	-8350
▁항해	-8351
▁회색	-8352
▁근처의	-8353
▁시기의	-8354
OM	-8355
소리	-8356
슬림	-8357
▁57	-8358
▁NA	-8359
▁팽창	-8360
▁언어를	-8361
▁되었지만	-8362
▁지역에서는	-8363
▁험	-8364
IS	-8365
나르	-8366
러리	-8367
▁차남	-8368
조약	-8369
▁게재	-8370
▁사장	-8371
▁얻기	-8372
▁인류	-8373
▁게임은	-8374
▁경력을	-8375
▁길이가	-8376
▁실패했다	-8377
▁고리	-8378
▁샌프란시스코	-8379
차전에서	-8380
▁젖	-8381
더스	-8382
▁몬테	-8383
스티벌	-8384
명인	-8385
▁기갑	-8386
▁손자	-8387
▁줄어	-8388
▁피고	-8389
▁영국은	-8390
▁중심의	-8391
▁포함해	-8392
▁세워졌다	-8393
▁파키스탄	-8394
있던	-8395
▁몸길	-8396
▁박영	-8397
▁여덟	-8398
▁현의	-8399
과로	-8400
▁클라우	-8401
▁반박	-8402
▁살던	-8403
서에서	-8404
▁조사를	-8405
▁히데요	-8406
택을	-8407
▁스타디움	-8408
▁몰려	-8409
금으로	-8410
▁메트로	-8411
▁제국은	-8412
공학	-8413
▁공용	-8414
▁부흥	-8415
▁아틀	-8416
▁왕립	-8417
▁의거	-8418
▁좋다	-8419
▁그림을	-8420
▁아이를	-8421
ML	-8422
야를	-8423
▁배를	-8424
▁촉구	-8425
▁기록에	-8426
▁조직의	-8427
▁특징은	-8428
오리	-8429
기이다	-8430
▁인도의	-8431
보도	-8432
▁갑작	-8433
▁위키	-8434
▁연방의	-8435
▁1915	-8436
▁지지하는	-8437
▁락	-8438
▁폼	-8439
▁훼손	-8440
▁케이블	-8441
심한	-8442
▁비서	-8443
▁1895	-8444
ET	-8445
▁실용	-8446
▁1904	-8447
테쓰	-8448
포는	-8449
▁정류	-8450
▁정찰	-8451
▁언제나	-8452
▁대폭	-8453
▁영광	-8454
▁거슬러	-8455
▁그랜드	-8456
▁리듬	-8457
▁무죄	-8458
▁사적	-8459
▁상무	-8460
▁양도	-8461
▁준공	-8462
▁플레	-8463
이라도	-8464
▁군사적	-8465
▁형식을	-8466
각이	-8467
▁침몰	-8468
▁평생	-8469
▁관계로	-8470
▁된다고	-8471
▁부르며	-8472
▁쟁	-8473
내기	-8474
▁제휴	-8475
▁덧붙여	-8476
▁서남	-8477
▁의원은	-8478
년대부터	-8479
▁버지니아	-8480
▁밸	-8481
▁섬을	-8482
▁아리	-8483
▁전성	-8484
▁채로	-8485
산군	-8486
▁써서	-8487
▁융합	-8488
▁패턴	-8489
▁아니면	-8490
음으로	-8491
▁시대를	-8492
중심	-8493
▁개업	-8494
▁국토	-8495
▁내리	-8496
▁부통령	-8497
▁에피소드	-8498
▁민족문제연구	-8499
av	-8500
경과	-8501
▁끊임	-8502
▁점이다	-8503
▁중심이	-8504
▁오리지널	-8505
ob	-8506
~3	-8507
▁악화	-8508
제국의	-8509
일리	-8510
후보	-8511
▁무선	-8512
▁강점기	-8513
▁노력을	-8514
▁대주교	-8515
▁정확하게	-8516
▁주에서	-8517
▁활약하였다	-8518
se	-8519
▁51	-8520
▁일에	-8521
▁라이프	-8522
ry	-8523
불교	-8524
원이다	-8525
▁계열의	-8526
▁두번째	-8527
▁한동안	-8528
티의	-8529
800	-8530
▁송시	-8531
▁액션	-8532
▁화면	-8533
▁연속으로	-8534
▁참가하여	-8535
▁간다	-8536
▁전자기	-8537
▁뤼	-8538
때로	-8539
▁강이	-8540
▁공전	-8541
▁대우	-8542
▁빛의	-8543
▁보내는	-8544
▁인물이다	-8545
▁진출하였다	-8546
▁사헌	-8547
▁일도	-8548
▁죄를	-8549
▁시스템의	-8550
IT	-8551
규칙	-8552
목은	-8553
산시	-8554
▁착륙	-8555
▁풀어	-8556
▁리버풀	-8557
▁운행을	-8558
▁전쟁으로	-8559
69	-8560
▁|	-8561
클럽	-8562
▁배정	-8563
▁이듬해인	-8564
▁둘은	-8565
▁예방	-8566
▁종로	-8567
▁블라디	-8568
▁얻는	-8569
▁제수	-8570
때문에	-8571
론적	-8572
타카	-8573
해군	-8574
▁미시	-8575
▁일관	-8576
▁시에서	-8577
▁시작해	-8578
▁않았기	-8579
▁콜롬비아	-8580
▁프랑스와	-8581
질로	-8582
▁발레	-8583
▁의지	-8584
층은	-8585
▁실내	-8586
▁쌓아	-8587
▁진영	-8588
▁대학원	-8589
▁수도권	-8590
▁사용하기	-8591
리스토	-8592
▁구조는	-8593
▁조직을	-8594
둥이	-8595
릭스	-8596
▁의사를	-8597
이었다고	-8598
▁부품	-8599
니스트	-8600
▁티베트	-8601
▁홋카이도	-8602
목에	-8603
번을	-8604
트랙	-8605
▁자전거	-8606
▁첫번째	-8607
ik	-8608
일간	-8609
▁복구	-8610
▁센트럴	-8611
▁주문	-8612
▁침해	-8613
▁거리가	-8614
▁나섰다	-8615
▁조선인	-8616
▁도움으로	-8617
▁운행하는	-8618
ld	-8619
조정	-8620
▁밖의	-8621
▁부른	-8622
▁관점에서	-8623
▁사용하며	-8624
▁관중	-8625
▁국도	-8626
▁기동	-8627
▁형식의	-8628
▁규정하고	-8629
▁랑	-8630
지붕	-8631
▁상임	-8632
▁안의	-8633
▁이자	-8634
▁드래곤	-8635
▁속도가	-8636
ly	-8637
함의	-8638
하였다는	-8639
ast	-8640
▁법무	-8641
북도의	-8642
▁낮아	-8643
▁발라	-8644
▁쿠바	-8645
▁버전은	-8646
▁시작된다	-8647
두는	-8648
열의	-8649
차별	-8650
▁제약	-8651
▁조항	-8652
▁북쪽에	-8653
▁전한다	-8654
▁담당하는	-8655
▁학생들이	-8656
양은	-8657
▁잃은	-8658
▁해적	-8659
관찰	-8660
생이	-8661
우며	-8662
▁댄스	-8663
▁에우	-8664
▁어두운	-8665
▁조건으로	-8666
메르	-8667
▁조기	-8668
▁구간은	-8669
▁토대로	-8670
▁황제가	-8671
▁제외하고는	-8672
림픽	-8673
직한	-8674
치오	-8675
팩트	-8676
▁복사	-8677
▁수신	-8678
▁이정	-8679
▁발견했다	-8680
자도	-8681
▁우루	-8682
▁거리에	-8683
▁영역을	-8684
▁꺾고	-8685
▁스테이지	-8686
즈에	-8687
ith	-8688
▁대조	-8689
▁레닌	-8690
▁법을	-8691
▁약화	-8692
정부의	-8693
▁유니폼	-8694
▁EP	-8695
▁착공	-8696
▁성공한	-8697
▁전에는	-8698
당하였다	-8699
▁걱	-8700
간이	-8701
브는	-8702
럼비아	-8703
▁들어오	-8704
▁끌려	-8705
▁역과	-8706
▁우연히	-8707
▁선언했다	-8708
▁성공적인	-8709
▁이루었다	-8710
▁프로그램은	-8711
자연	-8712
▁기요	-8713
▁복수	-8714
▁손상	-8715
▁획득했다	-8716
▁뿌리	-8717
▁캐나다의	-8718
▁시간은	-8719
▁트윈	-8720
▁때로는	-8721
▁일했다	-8722
금융	-8723
▁날개	-8724
▁양키	-8725
▁페이지	-8726
▁회사는	-8727
위원회의	-8728
▁역사적으로	-8729
팀은	-8730
현에	-8731
형태	-8732
▁팀에	-8733
체이다	-8734
▁활동은	-8735
▁부산광역시	-8736
마리	-8737
▁DJ	-8738
스테이션	-8739
▁건물이	-8740
▁1913	-8741
복지	-8742
▁최상	-8743
▁형태는	-8744
번호	-8745
스톤	-8746
▁급진	-8747
▁모험	-8748
▁신사	-8749
▁무슬림	-8750
공동	-8751
▁인증	-8752
▁둘러싼	-8753
▁때때로	-8754
▁무대에	-8755
▁자신에게	-8756
숙한	-8757
▁바꿔	-8758
자리를	-8759
▁알려지지	-8760
▁합법	-8761
▁공간의	-8762
▁있어서는	-8763
▁정부로부터	-8764
▁닿	-8765
▁52	-8766
▁가공	-8767
▁호수	-8768
안타	-8769
종과	-8770
츠와	-8771
▁외의	-8772
▁정책에	-8773
▁UN	-8774
▁아케	-8775
▁친정	-8776
▁기록하여	-8777
▁이르고	-8778
진에	-8779
▁보상	-8780
▁빨간	-8781
▁중순	-8782
▁활동한	-8783
▁마음작용	-8784
▁아들이다	-8785
슨과	-8786
▁마찰	-8787
▁명문	-8788
▁명백	-8789
진으로	-8790
▁건물을	-8791
▁플라스	-8792
▁들어가는	-8793
먼은	-8794
▁협회	-8795
▁공개된	-8796
교로	-8797
풍을	-8798
▁바그	-8799
▁신하	-8800
▁개발된	-8801
▁문화재자료	-8802
end	-8803
▁상영	-8804
자이너	-8805
▁과정은	-8806
▁지어진	-8807
▁이미지를	-8808
▁잦	-8809
스러	-8810
▁취약	-8811
▁스페셜	-8812
▁한국에	-8813
▁경기에서는	-8814
작가	-8815
▁탓에	-8816
▁구간이	-8817
▁명예의	-8818
▁중심지	-8819
비시	-8820
형이다	-8821
▁지역과	-8822
▁히어로	-8823
▁인정받아	-8824
해방	-8825
:00	-8826
▁쉬운	-8827
▁야스	-8828
▁주니	-8829
량으로	-8830
▁집으로	-8831
손은	-8832
속으로	-8833
▁공무원	-8834
▁사용이	-8835
▁행성의	-8836
▁연구하는	-8837
▁굵	-8838
란은	-8839
ort	-8840
베이스	-8841
생으로	-8842
주년을	-8843
▁포켓몬	-8844
77	-8845
▁고베	-8846
▁유물	-8847
▁의병	-8848
▁이지	-8849
▁경우를	-8850
▁후지와	-8851
▁5000	-8852
▁제목으로	-8853
▁여론	-8854
▁쫓겨	-8855
▁합리	-8856
▁우리의	-8857
▁주축	-8858
▁부문에	-8859
▁화제가	-8860
소송	-8861
▁유신	-8862
▁제사	-8863
▁충족	-8864
▁개혁을	-8865
▁식으로	-8866
▁했다는	-8867
센트	-8868
one	-8869
▁며칠	-8870
▁왜냐	-8871
▁무려	-8872
▁달러의	-8873
▁재산을	-8874
마쓰	-8875
▁멈추	-8876
▁보충	-8877
받는다	-8878
▁나타낼	-8879
▁카이사	-8880
▁봉해졌다	-8881
▁일어나자	-8882
▁출연하였다	-8883
▁석탄	-8884
▁전례	-8885
▁가사	-8886
▁부패	-8887
▁성모	-8888
▁비공식	-8889
▁얻는다	-8890
▁이에야	-8891
▁특이한	-8892
▁올림픽에	-8893
기획	-8894
야가	-8895
▁달린	-8896
▁주한	-8897
다이라	-8898
▁별의	-8899
▁이틀	-8900
▁자발	-8901
가에서	-8902
학이	-8903
▁두루	-8904
▁응답	-8905
▁재발	-8906
▁하우스	-8907
미로	-8908
▁교향곡	-8909
ok	-8910
씨로	-8911
▁넣었다	-8912
▁하버드	-8913
▁우리나라	-8914
▁있습니다	-8915
범죄	-8916
▁배급	-8917
▁꼴	-8918
▁99	-8919
▁개화	-8920
▁모로	-8921
▁종결	-8922
▁흐름	-8923
됐으며	-8924
레나	-8925
황후	-8926
▁점유	-8927
▁흥행	-8928
▁일어날	-8929
▁초점을	-8930
▁민주주의	-8931
프에	-8932
▁Be	-8933
▁내외	-8934
▁평등	-8935
▁프로토콜	-8936
▁비극	-8937
▁사용을	-8938
▁판결을	-8939
군사	-8940
포의	-8941
▁크림	-8942
▁향한	-8943
▁모델은	-8944
▁진정한	-8945
티에	-8946
ord	-8947
▁시집	-8948
▁싶어	-8949
이었기	-8950
▁민주화	-8951
▁발견한	-8952
미에	-8953
▁수치	-8954
▁왕은	-8955
▁유튜	-8956
▁마르크스	-8957
▁생각하고	-8958
▁닌텐	-8959
▁대만	-8960
▁왕족	-8961
▁최저	-8962
▁치열	-8963
▁부대를	-8964
▁플레이어	-8965
▁현존하는	-8966
▁태어났으며	-8967
학자인	-8968
▁무거운	-8969
▁어려움을	-8970
▁대회는	-8971
▁참여하여	-8972
▁수단	-8973
▁않았으나	-8974
▁친일인명사전	-8975
▁강경	-8976
▁느낀	-8977
▁레논	-8978
▁컨트롤	-8979
▁밝혔	-8980
▁선진	-8981
▁되었을	-8982
▁사고로	-8983
▁소수의	-8984
▁아래로	-8985
▁3000	-8986
▁엘리베이	-8987
ss	-8988
고도	-8989
▁다큐	-8990
▁반지	-8991
▁피렌	-8992
학위를	-8993
▁득점을	-8994
▁정부와	-8995
▁지중해	-8996
▁바가	-8997
▁창건	-8998
▁추모	-8999
▁과거의	-9000
▁도심	-9001
▁법원	-9002
▁판타	-9003
▁155	-9004
▁영감을	-9005
▁시즌에는	-9006
▁슐	-9007
원숭	-9008
▁경력	-9009
▁통화	-9010
▁드러나	-9011
▁생기는	-9012
▁격퇴	-9013
▁나들	-9014
▁다루고	-9015
▁시즌의	-9016
▁활발한	-9017
▁료	-9018
제르	-9019
초를	-9020
▁어울	-9021
▁좌파	-9022
민당	-9023
▁영주	-9024
▁유성	-9025
▁남쪽에	-9026
▁별다른	-9027
▁음반은	-9028
▁트레이드	-9029
플러	-9030
▁스틸	-9031
시에는	-9032
누리	-9033
롤라	-9034
리타	-9035
사추	-9036
▁메가	-9037
▁시켜	-9038
▁편리	-9039
화하고	-9040
▁레코드	-9041
수수	-9042
▁AM	-9043
▁메디	-9044
▁앨런	-9045
▁한강	-9046
도사	-9047
▁둥근	-9048
▁시마	-9049
▁노선은	-9050
▁유소년	-9051
▁일어난다	-9052
▁주장하고	-9053
민을	-9054
안전	-9055
▁Th	-9056
▁용이	-9057
▁발매한	-9058
▁발전에	-9059
▁하와이	-9060
?"	-9061
받을	-9062
환이	-9063
▁시작했으며	-9064
속을	-9065
▁가벼	-9066
▁깨달	-9067
▁작고	-9068
▁생각해	-9069
▁받았으나	-9070
▁이마	-9071
▁출토	-9072
▁흔들	-9073
하겠다는	-9074
티오	-9075
▁고도	-9076
▁미하	-9077
▁영의	-9078
▁재편	-9079
▁창시	-9080
▁스트라이	-9081
▁보여주었다	-9082
▁우승하였다	-9083
▁실려	-9084
▁회담	-9085
▁교수는	-9086
▁것인	-9087
▁라운드	-9088
▁스마트폰	-9089
▁길고	-9090
▁리드	-9091
▁유출	-9092
▁이리	-9093
▁만나게	-9094
▁모두가	-9095
▁불을	-9096
▁라틴어	-9097
▁대외	-9098
▁장르	-9099
▁지고	-9100
▁피에	-9101
▁기업의	-9102
▁지명을	-9103
포스	-9104
▁MP	-9105
▁세로	-9106
▁결승전	-9107
▁그룹의	-9108
▁끝까지	-9109
▁De	-9110
있으며	-9111
▁경기장	-9112
▁그렇지	-9113
▁르네상	-9114
층이	-9115
▁구로	-9116
▁받기	-9117
화하여	-9118
▁사용될	-9119
▁중추원	-9120
▁낼	-9121
▁조금씩	-9122
▁움직이는	-9123
번뇌	-9124
애나	-9125
▁관통	-9126
▁수평	-9127
▁유격	-9128
▁이광	-9129
66	-9130
년은	-9131
닉스	-9132
적에	-9133
▁전압	-9134
▁바꾸어	-9135
ind	-9136
▁듯한	-9137
▁남부의	-9138
▁후보가	-9139
▁꽤	-9140
▁뷰	-9141
각의	-9142
수인	-9143
▁바뀐	-9144
▁옷을	-9145
▁학부	-9146
하려면	-9147
▁거주하고	-9148
▁분광	-9149
▁바둑	-9150
▁시모	-9151
▁열고	-9152
▁포괄	-9153
▁53	-9154
▁부과	-9155
▁외곽	-9156
원들이	-9157
▁건물의	-9158
▁대학에	-9159
▁맡았고	-9160
▁하거나	-9161
▁마카	-9162
▁안장	-9163
▁가난한	-9164
▁결정적인	-9165
▁그랑	-9166
▁들이	-9167
투를	-9168
▁77	-9169
▁구에	-9170
▁아폴	-9171
▁코믹	-9172
▁의원이	-9173
▁의회는	-9174
▁이르렀	-9175
▁여기에서	-9176
▁맞지	-9177
▁물에	-9178
▁주립	-9179
▁트라	-9180
▁힘입	-9181
▁부정적인	-9182
▁난이	-9183
▁용산	-9184
▁교수가	-9185
▁선교사	-9186
▁일부로	-9187
▁왜냐하면	-9188
▁홈페이지	-9189
▁분데스리가	-9190
즈키	-9191
칭을	-9192
ock	-9193
▁객관	-9194
▁내고	-9195
▁곡으로	-9196
▁바르셀로나	-9197
II	-9198
▁아가	-9199
▁아트	-9200
▁입문	-9201
▁장의	-9202
▁컴파	-9203
▁주니어	-9204
네가	-9205
지사	-9206
com	-9207
페이스	-9208
▁김동	-9209
▁눈이	-9210
▁조반	-9211
▁1.5	-9212
▁노무현	-9213
트르	-9214
▁출시된	-9215
▁필라델	-9216
▁딜	-9217
리자	-9218
목의	-9219
▁부착	-9220
▁사이가	-9221
▁네덜란드의	-9222
길을	-9223
루와	-9224
▁메르	-9225
▁부를	-9226
▁시와	-9227
▁좌표	-9228
▁요구했다	-9229
▁나이가	-9230
▁다리를	-9231
▁크로스	-9232
카스	-9233
▁따뜻	-9234
▁마라	-9235
▁액체	-9236
▁남아메리카	-9237
능력	-9238
▁학자	-9239
▁급격히	-9240
▁분야에	-9241
!"	-9242
▁기체	-9243
▁두어	-9244
렸으나	-9245
▁부대는	-9246
▁아르메니아	-9247
▁껍	-9248
▁간부	-9249
▁길게	-9250
▁술탄	-9251
▁아파트	-9252
시피	-9253
행의	-9254
▁SN	-9255
▁다항	-9256
▁수수	-9257
▁목표를	-9258
▁조치를	-9259
▁체계를	-9260
▁나라에서	-9261
범한	-9262
▁Re	-9263
▁찾기	-9264
종이다	-9265
▁공사가	-9266
바닥	-9267
▁걸어	-9268
▁이글	-9269
▁사이클	-9270
▁충격을	-9271
▁시절부터	-9272
▁곰	-9273
커는	-9274
▁화살	-9275
▁관습	-9276
▁그중	-9277
▁내보	-9278
▁위안	-9279
하였다가	-9280
▁봐	-9281
일체	-9282
▁소환	-9283
▁시칠	-9284
즈니스	-9285
▁강제로	-9286
▁위원회	-9287
▁후보에	-9288
▁서울에서	-9289
▁탕	-9290
소스	-9291
전도	-9292
TA	-9293
더는	-9294
자책	-9295
▁나아	-9296
포가	-9297
▁도메	-9298
▁뜻의	-9299
▁분배	-9300
▁클린	-9301
▁고무	-9302
▁브로	-9303
▁총대	-9304
▁통근	-9305
미디어	-9306
▁발매했다	-9307
▁거행	-9308
▁지나치게	-9309
너의	-9310
모로	-9311
시픽	-9312
척의	-9313
▁교외	-9314
▁부장	-9315
▁외무	-9316
▁중계	-9317
▁1916	-9318
리브	-9319
▁내린	-9320
▁역설	-9321
▁전념	-9322
▁폐위	-9323
▁바이러	-9324
▁사이를	-9325
▁이곳은	-9326
려면	-9327
자본	-9328
▁삶의	-9329
▁섭취	-9330
▁오렌	-9331
▁맞추어	-9332
▁치료를	-9333
예정	-9334
▁감지	-9335
▁꿈을	-9336
▁지질	-9337
▁빌헬름	-9338
▁스프링	-9339
▁시기는	-9340
▁우라늄	-9341
디의	-9342
장애	-9343
▁실종	-9344
▁기념물	-9345
▁마쳤다	-9346
▁둘러싸고	-9347
▁선수들이	-9348
망이	-9349
▁공무	-9350
▁비오	-9351
▁전인	-9352
돌이	-9353
▁노비	-9354
▁병행	-9355
▁서브	-9356
▁서재	-9357
▁스핀	-9358
▁멤버로	-9359
▁이상으로	-9360
▁있었다는	-9361
▁못할	-9362
▁증기	-9363
▁지바	-9364
▁진군	-9365
대학원	-9366
▁프레임	-9367
저를	-9368
▁고발	-9369
▁매카	-9370
▁추격	-9371
▁힌두	-9372
▁쓰이고	-9373
리크	-9374
블로	-9375
주일	-9376
타나	-9377
▁교도	-9378
▁안양	-9379
▁안쪽	-9380
년간의	-9381
▁도호쿠	-9382
▁시즌이	-9383
▁작품에	-9384
▁남아있는	-9385
▁비판했다	-9386
sp	-9387
▁수렴	-9388
▁이토	-9389
면에는	-9390
사추세	-9391
스키는	-9392
▁구릉	-9393
▁이인	-9394
▁구조가	-9395
▁모델을	-9396
만원	-9397
▁그다	-9398
▁이원	-9399
▁포로	-9400
▁고려의	-9401
투아니아	-9402
▁발족	-9403
▁실시된	-9404
▁알바니아	-9405
우치	-9406
합을	-9407
▁극히	-9408
▁모으	-9409
▁트럭	-9410
▁관현악	-9411
▁일원으로	-9412
달라고	-9413
▁노르웨	-9414
▁하더라도	-9415
그로	-9416
려서	-9417
림이	-9418
▁먹고	-9419
▁오가	-9420
론에서	-9421
▁요미우리	-9422
▁지적했다	-9423
▁r	-9424
▁엉	-9425
카를	-9426
▁어려움	-9427
▁뿔	-9428
란히	-9429
필드	-9430
▁마산	-9431
▁대학을	-9432
▁코치로	-9433
▁아니지만	-9434
▁수록된	-9435
▁허리케	-9436
처리	-9437
▁무승	-9438
▁이화	-9439
▁통칭	-9440
▁포크	-9441
▁한쪽	-9442
서도	-9443
왕에	-9444
천이	-9445
300	-9446
▁발생할	-9447
▁밴드의	-9448
▁태도를	-9449
▁디자이너	-9450
▁CE	-9451
▁구조로	-9452
▁놓았다	-9453
▁비슷하게	-9454
라톱	-9455
▁모드	-9456
▁신비	-9457
▁이영	-9458
▁한화	-9459
▁주를	-9460
▁흥선	-9461
불교의	-9462
▁개봉한	-9463
▁있으면서	-9464
ib	-9465
▁관직	-9466
▁딸을	-9467
▁매달	-9468
▁원산	-9469
▁해를	-9470
으로의	-9471
▁공사를	-9472
▁단종	-9473
▁바위	-9474
▁사육	-9475
▁신장	-9476
▁두개	-9477
▁베타	-9478
▁시로	-9479
▁합계	-9480
▁거느리고	-9481
반응	-9482
석탑	-9483
연구소	-9484
▁대회의	-9485
▁제도의	-9486
▁기생	-9487
▁진동	-9488
▁캠페	-9489
▁여행을	-9490
▁캐스팅	-9491
됨으로써	-9492
Hz	-9493
▁남양	-9494
▁의뢰	-9495
스트의	-9496
해왔다	-9497
▁기간에	-9498
▁다음에	-9499
▁설립하였다	-9500
▁모니	-9501
▁벨라	-9502
▁파란	-9503
▁밟	-9504
역사	-9505
▁숨겨	-9506
▁에릭	-9507
▁인정하지	-9508
레오	-9509
▁나눌	-9510
▁매주	-9511
자리에	-9512
디에	-9513
병의	-9514
황을	-9515
▁당대	-9516
편으로	-9517
▁출전해	-9518
▁데뷔했다	-9519
▁중심기압	-9520
후로	-9521
▁관람	-9522
▁커피	-9523
▁것에서	-9524
▁승리한	-9525
▁바이올린	-9526
▁학교에서	-9527
▁검증	-9528
▁규제	-9529
▁재즈	-9530
▁자신도	-9531
▁측면에서	-9532
MS	-9533
▁받침	-9534
▁보니	-9535
▁잎은	-9536
▁생겼다	-9537
▁성균관	-9538
▁요소가	-9539
▁인터페이	-9540
츠가	-9541
▁추상	-9542
년동안	-9543
디가	-9544
서울	-9545
원군	-9546
▁기호	-9547
▁우승에	-9548
▁철학자	-9549
▁프로리그	-9550
▁성공하였다	-9551
고쿠	-9552
▁무라	-9553
▁쓰인	-9554
▁포유	-9555
▁갇	-9556
량과	-9557
이사	-9558
▁날아	-9559
▁누군	-9560
▁대처	-9561
▁국가에	-9562
▁다큐멘	-9563
글로	-9564
타케	-9565
600	-9566
▁군에	-9567
▁이긴	-9568
▁기록된	-9569
▁마시	-9570
▁사유	-9571
▁자신과	-9572
▁거주하는	-9573
▁일으키는	-9574
▁믹	-9575
신라	-9576
▁경북	-9577
▁날짜	-9578
▁디아	-9579
▁어드	-9580
▁다음해	-9581
▁만났다	-9582
▁은퇴를	-9583
▁생각하는	-9584
▁°	-9585
▁헐	-9586
▁""	-9587
▁소재로	-9588
▁미국에서는	-9589
마와	-9590
주식	-9591
▁기습	-9592
▁몰래	-9593
▁앉아	-9594
▁생각할	-9595
▁태어났	-9596
▁되었다가	-9597
지대	-9598
짜리	-9599
철은	-9600
▁곡의	-9601
▁억압	-9602
▁현장	-9603
▁십자가	-9604
▁봤	-9605
놓고	-9606
▁왕비	-9607
이면서	-9608
▁칭호를	-9609
▁엘리자베스	-9610
석기	-9611
선언	-9612
▁할당	-9613
▁위기를	-9614
인사	-9615
키를	-9616
▁계획에	-9617
▁교황의	-9618
▁준비를	-9619
▁투르크	-9620
▁시스템이	-9621
▁붓	-9622
▁놓은	-9623
▁모방	-9624
▁얻고	-9625
▁출연한	-9626
▁승강장은	-9627
▁배웠다	-9628
▁실패로	-9629
▁왕위에	-9630
▁지방에서	-9631
▁메리	-9632
▁세미	-9633
▁존중	-9634
원들은	-9635
▁기록하는	-9636
▁고쳐	-9637
▁후한	-9638
▁개발에	-9639
▁제작되었다	-9640
qu	-9641
거는	-9642
키와	-9643
▁전당	-9644
▁투옥	-9645
▁신호를	-9646
▁페스티벌	-9647
왕과	-9648
▁칠레	-9649
▁지냈으며	-9650
93	-9651
채를	-9652
▁MC	-9653
▁사르	-9654
▁조건이	-9655
봉을	-9656
테스	-9657
▁동년	-9658
▁작센	-9659
▁활성화	-9660
▁셈	-9661
▁솟	-9662
▁팩	-9663
▁막내	-9664
▁손해	-9665
▁해주	-9666
▁정교회	-9667
▁캡	-9668
▁퓨	-9669
청에	-9670
▁이내	-9671
리아는	-9672
▁실질적인	-9673
▁y	-9674
▁3·	-9675
▁아벨	-9676
▁이치	-9677
▁펜실	-9678
▁노래는	-9679
▁새겨져	-9680
▁독일에서	-9681
슬라	-9682
플라	-9683
▁지혜	-9684
▁생각한다	-9685
▁여기에는	-9686
▁일시적으로	-9687
캠퍼	-9688
~19	-9689
▁매출	-9690
▁NHK	-9691
io	-9692
▁조치	-9693
▁앓	-9694
널티	-9695
차와	-9696
▁박물관	-9697
▁인근에	-9698
바흐	-9699
▁신속	-9700
▁세계대	-9701
▁일본을	-9702
▁대신하여	-9703
▁선보였다	-9704
▁어긋	-9705
▁피부	-9706
▁스카이	-9707
▁좌절	-9708
▁첨가	-9709
▁영화에	-9710
▁분류된다	-9711
▁권위	-9712
왔으며	-9713
▁오디오	-9714
▁페르디	-9715
로동	-9716
▁느껴	-9717
▁크라	-9718
▁앨범의	-9719
박한	-9720
▁반해	-9721
▁야생	-9722
▁외야	-9723
▁타운	-9724
나갔다	-9725
▁블랙홀	-9726
▁군수	-9727
▁박탈	-9728
▁겪었다	-9729
▁무기를	-9730
풍의	-9731
▁de	-9732
▁지폐	-9733
▁함유	-9734
▁웰	-9735
▁거론	-9736
▁사격	-9737
▁장편	-9738
▁힘든	-9739
▁되돌아	-9740
▁운동은	-9741
▁수행하는	-9742
▁급행	-9743
▁차기	-9744
▁문과에	-9745
▁김해	-9746
▁버튼	-9747
▁보지	-9748
▁왕자	-9749
▁의장	-9750
씨이다	-9751
▁IBM	-9752
▁다이아	-9753
학적으로	-9754
▁계속되었다	-9755
▁디스플레이	-9756
▁롬	-9757
찬을	-9758
▁사료	-9759
▁역에	-9760
▁탈환	-9761
▁경찰은	-9762
특별자치	-9763
▁에스파냐	-9764
▁폐지되었다	-9765
수사	-9766
인들	-9767
어지는	-9768
▁도착한	-9769
▁장치를	-9770
▁아버지와	-9771
OC	-9772
▁브라이언	-9773
번에	-9774
주간	-9775
▁로빈	-9776
▁대법원	-9777
▁대통령을	-9778
▁상태였다	-9779
▁중에서는	-9780
▁체포되어	-9781
지나	-9782
▁보완	-9783
▁이슈	-9784
▁평행	-9785
▁현저	-9786
▁회사를	-9787
시민	-9788
▁백악	-9789
▁줄기	-9790
▁음반을	-9791
▁차지한	-9792
방은	-9793
▁몸에	-9794
▁일렉	-9795
▁자율	-9796
▁부족한	-9797
▁힘입어	-9798
▁폴란드의	-9799
▁안드로이드	-9800
▁Sh	-9801
▁결코	-9802
▁부딪	-9803
▁심판	-9804
주의가	-9805
▁사회에	-9806
냈고	-9807
층을	-9808
▁kg	-9809
▁가즈	-9810
▁상반	-9811
▁제독	-9812
▁쫓아	-9813
▁호르	-9814
동에서	-9815
▁잃었다	-9816
▁전체가	-9817
구나	-9818
놓은	-9819
이팅	-9820
▁평면	-9821
▁양식을	-9822
▁은퇴한	-9823
▁월드컵에서	-9824
리면서	-9825
▁펼쳤다	-9826
▁결혼했다	-9827
▁샬	-9828
▁실린	-9829
▁적고	-9830
▁와중에	-9831
▁황해도	-9832
▁투구	-9833
작이	-9834
책임	-9835
▁《》	-9836
▁관념	-9837
▁신흥	-9838
▁거기서	-9839
▁진출에	-9840
상규	-9841
창을	-9842
▁소실	-9843
▁기능은	-9844
▁토머스	-9845
91	-9846
▁앱	-9847
다리	-9848
▁경부	-9849
▁깨닫	-9850
▁배틀	-9851
▁빠진	-9852
▁수습	-9853
▁제압	-9854
▁불교의	-9855
에너	-9856
이즈	-9857
작품	-9858
▁게오	-9859
▁두산	-9860
▁음악가	-9861
카르	-9862
▁시점에서	-9863
▁실패하였다	-9864
CD	-9865
버는	-9866
티스	-9867
▁구동	-9868
▁모음	-9869
▁믿고	-9870
▁특징이	-9871
▁업그레이	-9872
스런	-9873
▁IP	-9874
▁그날	-9875
▁아서	-9876
▁월간	-9877
▁비난을	-9878
▁제사를	-9879
▁중요하다	-9880
▁커뮤니티	-9881
▁하인리히	-9882
▁개발되었다	-9883
▁훔	-9884
서야	-9885
▁민속	-9886
▁전진	-9887
▁차가	-9888
▁경험이	-9889
▁과정에	-9890
▁국경을	-9891
▁비로소	-9892
▁하나님의	-9893
만여	-9894
▁오빠	-9895
▁장난	-9896
▁전선	-9897
▁지식을	-9898
SS	-9899
글라	-9900
내어	-9901
▁야당	-9902
실험	-9903
▁와카	-9904
거리는	-9905
▁그러던	-9906
▁라이선	-9907
▁의식을	-9908
▁작위를	-9909
크에	-9910
▁계절	-9911
▁소총	-9912
▁푸른	-9913
▁군대의	-9914
▁않았다고	-9915
▁72	-9916
▁염색	-9917
▁영조	-9918
▁마케팅	-9919
▁소유하고	-9920
▁자연스럽게	-9921
te	-9922
인간	-9923
작의	-9924
▁88	-9925
▁협의	-9926
▁들어온	-9927
▁리눅스	-9928
▁참고로	-9929
▁대통령에	-9930
인치	-9931
▁원내	-9932
▁이오	-9933
모와	-9934
▁감정을	-9935
▁불리게	-9936
▁우주의	-9937
▁초반에	-9938
▁배치되어	-9939
▁시나리오	-9940
▁도입되었다	-9941
께서	-9942
▁명성	-9943
▁입자	-9944
▁전역	-9945
시키며	-9946
▁에스토	-9947
▁재단	-9948
희의	-9949
사추세츠	-9950
▁출전했다	-9951
▁시작하였고	-9952
관광	-9953
▁멜로	-9954
▁왕실	-9955
▁일컬	-9956
되지는	-9957
현으로	-9958
▁밑에서	-9959
가고	-9960
▁후궁	-9961
▁거리는	-9962
▁결과에	-9963
▁시작되어	-9964
▁확인되었다	-9965
▁상징하는	-9966
리라	-9967
십자	-9968
▁대관	-9969
▁미네	-9970
▁어휘	-9971
▁진단	-9972
▁축제	-9973
▁말씀	-9974
▁바닷	-9975
▁도서관	-9976
▁수술을	-9977
▁실시간	-9978
▁찾아볼	-9979
▁방법이다	-9980
ge	-9981
▁쇼와	-9982
▁영향력	-9983
▁움직임	-9984
▁대한민국은	-9985
▁론	-9986
각은	-9987
돌을	-9988
회장	-9989
_11	-9990
▁주차	-9991
▁접한다	-9992
▁주장한	-9993
▁중간에	-9994
측은	-9995
▁기온은	-9996
▁선수를	-9997
▁요청을	-9998
▁음식을	-9999
▁배우이다	-10000
▁윙	-10001
외선	-10002
▁Un	-10003
▁목사	-10004
▁밑에	-10005
▁신용	-10006
▁프랜	-10007
▁피어	-10008
갔으며	-10009
▁물리적	-10010
강점	-10011
여성	-10012
▁동래	-10013
▁부수	-10014
케이션	-10015
▁리비아	-10016
▁학교에	-10017
▁급제하여	-10018
▁한국전쟁	-10019
▁SF	-10020
▁공학	-10021
▁수업	-10022
해지는	-10023
▁평균자책	-10024
▁봉사	-10025
▁시그	-10026
▁여름에	-10027
▁영상을	-10028
▁동화	-10029
▁브래	-10030
트리올	-10031
▁굉장	-10032
방에서	-10033
▁하드웨어	-10034
▁맏	-10035
녀를	-10036
디스	-10037
▁고성	-10038
▁구마	-10039
▁국소	-10040
▁높고	-10041
▁섬식	-10042
▁영남	-10043
▁이후로는	-10044
▁신규	-10045
▁바오로	-10046
▁제외하면	-10047
경영	-10048
▁섬은	-10049
▁세대	-10050
▁진짜	-10051
▁리메이	-10052
분야	-10053
▁An	-10054
▁계곡	-10055
▁총재	-10056
▁귀중한	-10057
▁자세한	-10058
정원	-10059
토스	-10060
400	-10061
ood	-10062
▁쇼군	-10063
▁신한	-10064
▁아베	-10065
▁측의	-10066
▁단위로	-10067
▁활약한	-10068
▁강점기의	-10069
▁동아일보	-10070
▁휠	-10071
풍속	-10072
▁경비	-10073
▁구제	-10074
▁논문을	-10075
산맥	-10076
▁곡이	-10077
▁오세	-10078
▁문제의	-10079
▁수록곡	-10080
훈은	-10081
▁죽이	-10082
▁기록해	-10083
▁나이트	-10084
▁비용을	-10085
▁존재하며	-10086
▁돋	-10087
▁SC	-10088
▁주석	-10089
▁이래로	-10090
▁함으로써	-10091
▁이루어지고	-10092
▁밀양	-10093
▁신이	-10094
▁전도	-10095
▁회고	-10096
▁개발이	-10097
▁햄	-10098
▁횟	-10099
병원	-10100
진흥	-10101
클린	-10102
▁북극	-10103
▁전제	-10104
▁새누리	-10105
▁시절에는	-10106
장관	-10107
중은	-10108
▁면역	-10109
인슈타	-10110
▁바티칸	-10111
▁추기경	-10112
▁※	-10113
▁→	-10114
르며	-10115
챌린	-10116
▁매개	-10117
▁인물이	-10118
▁크리스토	-10119
그리	-10120
하우	-10121
▁권고	-10122
▁즉각	-10123
▁최근의	-10124
▁광범위한	-10125
밀리	-10126
▁신생	-10127
▁태종	-10128
▁우루과	-10129
▁이유를	-10130
레가	-10131
▁소닉	-10132
▁치명	-10133
▁최대한	-10134
변이	-10135
욕을	-10136
▁구할	-10137
▁미루	-10138
▁야간	-10139
▁마을의	-10140
▁의회의	-10141
▁질량은	-10142
▁지휘하는	-10143
▁기타리스트	-10144
야만	-10145
▁계몽	-10146
년대의	-10147
▁일본과	-10148
▁재활	-10149
등으로	-10150
▁비즈니스	-10151
만명	-10152
▁ST	-10153
▁중기의	-10154
보안	-10155
▁그냥	-10156
▁냉각	-10157
▁도주	-10158
▁정면	-10159
▁대상을	-10160
▁순수한	-10161
러를	-10162
위대	-10163
통의	-10164
▁가미	-10165
▁향후	-10166
▁뛰어나	-10167
▁1894	-10168
▁지속적인	-10169
널드	-10170
클라	-10171
▁마이너	-10172
▁담당하고	-10173
▁아니라고	-10174
▁쿨	-10175
회담	-10176
▁갈릴	-10177
▁구의	-10178
광역시의	-10179
▁이후부터	-10180
▁댐	-10181
측에	-10182
▁선이	-10183
▁요크	-10184
방으로	-10185
▁전라도	-10186
▁퀴	-10187
해와	-10188
▁Sp	-10189
▁동경	-10190
▁진급	-10191
어이다	-10192
ck	-10193
▁제자	-10194
감에	-10195
천은	-10196
ure	-10197
▁개관	-10198
▁위임	-10199
▁밴드는	-10200
▁제안을	-10201
▁호평을	-10202
사우루스	-10203
▁종의	-10204
▁자동으로	-10205
월드	-10206
턴의	-10207
▁말기	-10208
▁자체는	-10209
」,	-10210
무기	-10211
바나	-10212
통합	-10213
ack	-10214
▁지점	-10215
▁직접적으로	-10216
교에	-10217
수아	-10218
for	-10219
▁내부에	-10220
▁사회를	-10221
▁연결된	-10222
▁이산화	-10223
▁경우에도	-10224
▁찌	-10225
바야	-10226
통이	-10227
▁IT	-10228
▁토마	-10229
인들과	-10230
▁2.0	-10231
▁비판이	-10232
▁프톨레	-10233
▁사라졌다	-10234
▁동남아시아	-10235
신에	-10236
음과	-10237
▁담겨	-10238
▁색을	-10239
▁시뮬	-10240
▁공격에	-10241
▁자체를	-10242
▁개최되었다	-10243
▁커널	-10244
▁관직을	-10245
▁방식이	-10246
위원으로	-10247
▁것으로서	-10248
▁낙선	-10249
▁에버	-10250
▁했을	-10251
_15	-10252
▁속도는	-10253
학회	-10254
▁명에	-10255
▁미치	-10256
▁시라	-10257
▁문재인	-10258
▁아마도	-10259
▁진나라	-10260
▁한나라당	-10261
노가	-10262
▁Ar	-10263
지역의	-10264
▁시설이	-10265
▁조선일보	-10266
▁필라델피아	-10267
값을	-10268
구리	-10269
변에	-10270
준의	-10271
▁딸인	-10272
▁채무	-10273
베트남	-10274
임에도	-10275
▁정치가	-10276
▁몬트리올	-10277
▁범위	-10278
▁시초	-10279
스테르	-10280
▁턱	-10281
▁단단	-10282
▁선구	-10283
▁이반	-10284
▁장려	-10285
▁물질을	-10286
▁연기를	-10287
▁의미의	-10288
▁오키나와	-10289
가지의	-10290
칭으로	-10291
▁주제가	-10292
학교에서	-10293
▁움직임을	-10294
▁프랑스에서	-10295
그러	-10296
▁내야	-10297
▁신임	-10298
▁트럼	-10299
▁협박	-10300
▁적극적인	-10301
고등학교를	-10302
세스	-10303
시타	-10304
ame	-10305
▁mm	-10306
▁구출	-10307
▁라우	-10308
▁창업	-10309
▁금메달	-10310
▁않는다고	-10311
▁복귀하였다	-10312
과정	-10313
풍으로	-10314
▁부분의	-10315
지휘	-10316
▁연꽃	-10317
▁유언	-10318
▁기반의	-10319
▁제품을	-10320
▁존재가	-10321
▁소속되어	-10322
브의	-10323
주자	-10324
▁고분	-10325
▁기지	-10326
▁라트	-10327
▁것인데	-10328
▁마을을	-10329
▁있었을	-10330
주기	-10331
▁대책	-10332
▁밀어	-10333
▁주소	-10334
▁추출	-10335
▁피신	-10336
권에서	-10337
나우	-10338
▁사사	-10339
▁하야	-10340
▁김일성	-10341
▁마음이	-10342
▁모르는	-10343
▁설립했다	-10344
▁마쓰다이라	-10345
▁바실	-10346
▁위기	-10347
▁고양이	-10348
▁시드니	-10349
▁얹	-10350
▁트레	-10351
▁최후의	-10352
▁일제강점	-10353
▁방영되었다	-10354
▁오스트리아의	-10355
▁엿	-10356
-11	-10357
▁PD	-10358
▁김용	-10359
▁성격이	-10360
▁긍정적인	-10361
▁감행	-10362
▁풋볼	-10363
운동에	-10364
증으로	-10365
푸르트	-10366
▁비평가	-10367
▁갓	-10368
르드	-10369
번은	-10370
▁돌연	-10371
▁미카	-10372
▁순교	-10373
▁엔지	-10374
버렸다	-10375
▁별명을	-10376
▁이론의	-10377
▁대학교에	-10378
▁이적했다	-10379
레를	-10380
▁무용	-10381
▁사카	-10382
▁재혼	-10383
▁굉장히	-10384
▁파리에서	-10385
구역	-10386
악한	-10387
▁놀라	-10388
▁뒤집	-10389
본으로	-10390
▁알렸다	-10391
▁2,000	-10392
가스	-10393
라미	-10394
▁나눠	-10395
▁순회	-10396
▁진출을	-10397
▁대서양	-10398
▁북쪽의	-10399
▁시설을	-10400
▁가능하며	-10401
▁아버지를	-10402
위인	-10403
▁직선	-10404
▁표명	-10405
▁쓰였다	-10406
▁장군의	-10407
제프	-10408
▁cm	-10409
▁나의	-10410
▁밀접한	-10411
▁서쪽에	-10412
▁물러났다	-10413
루에	-10414
예를	-10415
주곡	-10416
▁넣고	-10417
▁산타	-10418
▁유죄	-10419
▁총괄	-10420
렸는데	-10421
▁공로로	-10422
▁사고가	-10423
▁베이스볼	-10424
▁)	-10425
기기	-10426
▁밤에	-10427
▁분명히	-10428
▁어려워	-10429
▁맡았으며	-10430
▁58	-10431
▁요금	-10432
공산당	-10433
▁팔레스타	-10434
▁엔터테인먼트	-10435
IP	-10436
액은	-10437
열은	-10438
▁경사	-10439
▁직전에	-10440
▁자리잡고	-10441
▁프로그램이	-10442
▁갈아	-10443
▁복지	-10444
▁연애	-10445
▁올바	-10446
▁축출	-10447
▁일이다	-10448
▁지휘관	-10449
▁테이블	-10450
▁회사가	-10451
▁끓	-10452
▁삿	-10453
▁주류	-10454
▁종류가	-10455
▁2020	-10456
▁지역이다	-10457
색과	-10458
축을	-10459
츠를	-10460
▁주장은	-10461
▁관할한다	-10462
▁진행된다	-10463
매매	-10464
▁67	-10465
▁SM	-10466
▁시키	-10467
▁아는	-10468
▁정한	-10469
▁챌린	-10470
▁국가는	-10471
▁그쳤다	-10472
▁동쪽에	-10473
▁먹이를	-10474
▁근처에서	-10475
대손	-10476
▁노태	-10477
▁바꾼	-10478
▁보일	-10479
▁여운	-10480
▁존경	-10481
▁가지며	-10482
▁테일러	-10483
▁다양하다	-10484
▁사천	-10485
▁기술의	-10486
▁북부의	-10487
▁선언하였다	-10488
현과	-10489
▁그다지	-10490
아리	-10491
판과	-10492
ate	-10493
▁드문	-10494
▁변수	-10495
▁불어	-10496
▁조상	-10497
▁규모는	-10498
▁진출했다	-10499
결정	-10500
▁기자회	-10501
▁그렇지만	-10502
천여	-10503
▁제곱	-10504
▁가지가	-10505
▁것보다	-10506
▁여부를	-10507
▁인정하고	-10508
▁던져	-10509
▁빛이	-10510
▁버렸다	-10511
▁선거를	-10512
▁엄격한	-10513
▁지방을	-10514
▁황제로	-10515
▁아래에서	-10516
▁조선인민	-10517
▁지어졌다	-10518
▁플레이스테이션	-10519
▁링컨	-10520
▁발을	-10521
▁오라	-10522
▁임용	-10523
▁건물로	-10524
▁표현을	-10525
▁하나였다	-10526
아나	-10527
▁김재	-10528
가들은	-10529
▁NBA	-10530
▁독일이	-10531
▁어워드	-10532
줬다	-10533
▁무상	-10534
▁여신	-10535
강에서	-10536
이트를	-10537
층석탑	-10538
▁느낌을	-10539
▁데뷔를	-10540
▁총선거	-10541
▁한성부	-10542
▁설명했다	-10543
▁뉘	-10544
▁불이	-10545
▁사기	-10546
▁정신적	-10547
▁부분적으로	-10548
주쿠	-10549
▁PS	-10550
▁궁극	-10551
▁성취	-10552
▁컨셉	-10553
▁적합한	-10554
▁협상을	-10555
▁추측된다	-10556
ov	-10557
식물	-10558
▁미얀	-10559
▁베드로	-10560
▁매사추세츠	-10561
4,	-10562
더니	-10563
▁고수	-10564
▁드럼	-10565
▁리스	-10566
타리오	-10567
▁동물의	-10568
▁서일본	-10569
▁요구를	-10570
▁어머니가	-10571
▁어머니의	-10572
▁정도였다	-10573
:0	-10574
▁햇	-10575
포트	-10576
▁도시가	-10577
▁봉안	-10578
▁서사	-10579
▁자금을	-10580
▁차량은	-10581
▁갤럭	-10582
▁장로	-10583
▁고구려의	-10584
▁고려대학교	-10585
림의	-10586
이후	-10587
▁다중	-10588
▁부적	-10589
▁한계	-10590
프랑스	-10591
▁승부차	-10592
▁그들에게	-10593
사항	-10594
-19	-10595
▁담긴	-10596
▁만의	-10597
▁헤드	-10598
▁모델이	-10599
▁제조업	-10600
▁가톨릭교회	-10601
ha	-10602
사태	-10603
▁모용	-10604
▁헤라	-10605
태평양	-10606
▁기술은	-10607
▁독립된	-10608
▁장면을	-10609
▁등장했다	-10610
▁존재하고	-10611
▁프톨레마이	-10612
▁서해	-10613
▁아예	-10614
▁일조	-10615
쳤으며	-10616
▁말기에	-10617
▁변화에	-10618
▁아름다	-10619
▁전체에	-10620
▁헌법재판	-10621
▁출전하였다	-10622
▁바른	-10623
▁알코	-10624
▁추정되는	-10625
링은	-10626
▁물고	-10627
▁숭배	-10628
▁이나	-10629
▁됐	-10630
발이	-10631
파인	-10632
로부터의	-10633
▁목조	-10634
▁설탕	-10635
▁레이저	-10636
▁1890	-10637
시즘	-10638
올로	-10639
▁쏟아	-10640
▁아랫	-10641
왕으로	-10642
▁여성이	-10643
▁진행된	-10644
▁차량이	-10645
▁옳	-10646
위해	-10647
▁말의	-10648
▁부사	-10649
▁신념	-10650
▁상대식	-10651
▁않으나	-10652
▁하나님	-10653
▁사망하고	-10654
▁흥선대원	-10655
교와	-10656
▁HT	-10657
▁공민	-10658
▁옹립	-10659
▁나오지	-10660
▁어려서	-10661
▁줄여서	-10662
▁이용한다	-10663
액의	-10664
▁공인	-10665
▁것임을	-10666
품이	-10667
▁스파이	-10668
▁역임한	-10669
▁보스니아	-10670
▁취재	-10671
▁게이지	-10672
▁이벤트	-10673
▁벌어졌다	-10674
▁68	-10675
▁넣은	-10676
▁플랑	-10677
일에서	-10678
▁베네딕	-10679
▁전투기	-10680
▁은메달을	-10681
PG	-10682
▁블로그	-10683
▁지정된	-10684
▁차이는	-10685
▁달성했다	-10686
▁만족시키는	-10687
등록	-10688
바시	-10689
▁정밀	-10690
▁초등	-10691
▁한미	-10692
▁공동체	-10693
▁사람과	-10694
▁위협을	-10695
▁환경을	-10696
▁1899	-10697
▁도입하였다	-10698
▁변경하였다	-10699
병은	-10700
▁st	-10701
▁김태	-10702
▁불편	-10703
▁엄격	-10704
▁콘크	-10705
▁버전의	-10706
▁발견되는	-10707
▁분리되어	-10708
▁학자들은	-10709
▁대한민국에	-10710
르지	-10711
▁꽃은	-10712
▁복제	-10713
▁채워	-10714
IM	-10715
ff	-10716
생산	-10717
▁교구	-10718
▁영문	-10719
▁오고	-10720
▁저택	-10721
▁세상에	-10722
▁용어를	-10723
▁페널티	-10724
▁회의를	-10725
▁이야기는	-10726
냐는	-10727
▁벌인	-10728
▁상상	-10729
▁쇼핑	-10730
▁기사를	-10731
▁도쿄도	-10732
▁승인을	-10733
▁원인은	-10734
▁전력을	-10735
▁브라질의	-10736
▁부서	-10737
▁성에	-10738
▁되지만	-10739
▁마음에	-10740
▁기점으로	-10741
영과	-10742
▁나쁜	-10743
▁상용	-10744
▁시점	-10745
▁실전	-10746
▁남쪽의	-10747
▁업적을	-10748
▁등용	-10749
▁때인	-10750
▁세균	-10751
▁요르	-10752
▁탐지	-10753
▁리그에	-10754
▁오프닝	-10755
▁총사령	-10756
롤라이나	-10757
▁바이러스	-10758
▁템	-10759
▁떠올	-10760
▁최적	-10761
드라마	-10762
마르크	-10763
▁스스로를	-10764
IV	-10765
▁가량	-10766
적이지	-10767
철도의	-10768
▁더욱이	-10769
▁우승한	-10770
▁최악의	-10771
▁향하는	-10772
연속	-10773
철의	-10774
풍이	-10775
▁쓰기	-10776
▁안산	-10777
▁전한	-10778
정책을	-10779
▁개념이	-10780
▁병으로	-10781
▁확실히	-10782
▁1898	-10783
▁등지에서	-10784
▁지구에서	-10785
▁맵	-10786
▁나열	-10787
▁쓰지	-10788
▁진정	-10789
▁아이스	-10790
▁나가사키	-10791
▁주어졌다고	-10792
가족	-10793
급을	-10794
모에	-10795
▁김규	-10796
▁나올	-10797
▁등재	-10798
▁시범	-10799
▁육성	-10800
▁천도	-10801
▁화재	-10802
▁속으로	-10803
▁유니버	-10804
▁이유가	-10805
회의에서	-10806
술의	-10807
▁붙은	-10808
▁일명	-10809
▁최하	-10810
▁결정되었다	-10811
▁산다	-10812
▁여진	-10813
▁동일본	-10814
▁엔진은	-10815
▁리메이크	-10816
대책	-10817
▁인문	-10818
▁가까워	-10819
▁민족의	-10820
▁지점에	-10821
제이	-10822
후는	-10823
hPa	-10824
▁식별	-10825
▁축하	-10826
있었다	-10827
▁잡았다	-10828
▁이때부터	-10829
▁멋	-10830
빈은	-10831
▁강과	-10832
▁입성	-10833
까지만	-10834
▁백제의	-10835
▁포인트	-10836
▁해상에서	-10837
골로	-10838
▁김상	-10839
브리지	-10840
▁작곡한	-10841
▁깎	-10842
▁룩	-10843
어요	-10844
▁구리	-10845
▁임기	-10846
▁하얀	-10847
겼으며	-10848
▁벼슬을	-10849
▁장군이	-10850
일으	-10851
▁언더	-10852
▁연세	-10853
▁주말	-10854
▁폭넓	-10855
▁교육의	-10856
▁그리스도의	-10857
고와	-10858
달아	-10859
▁He	-10860
▁까닭	-10861
▁후보를	-10862
oy	-10863
도어	-10864
.25	-10865
▁87	-10866
▁두는	-10867
▁띠고	-10868
▁매입	-10869
▁뻗어	-10870
▁책의	-10871
▁설명한다	-10872
변의	-10873
순위	-10874
▁낱말	-10875
▁대두	-10876
▁비유	-10877
▁장학	-10878
자들에	-10879
▁조약에	-10880
▁철도가	-10881
약성	-10882
▁AS	-10883
▁대피	-10884
▁재능을	-10885
▁떨어지는	-10886
기게	-10887
누엘	-10888
불을	-10889
열에	-10890
▁빌리	-10891
▁식량	-10892
▁연금	-10893
▁한층	-10894
▁차량의	-10895
~2	-10896
-16	-10897
▁윤보	-10898
▁통틀	-10899
▁규모로	-10900
▁독일과	-10901
▁제국을	-10902
위원회를	-10903
모니	-10904
사지	-10905
셰비	-10906
▁버려	-10907
▁불확	-10908
▁용의	-10909
▁정조	-10910
▁타카	-10911
학교의	-10912
▁뜨거운	-10913
▁인근의	-10914
▁주민들은	-10915
▁차원에서	-10916
링을	-10917
▁통행	-10918
▁구간을	-10919
▁사이드	-10920
▁전통을	-10921
신도	-10922
▁강도	-10923
▁미주	-10924
지는데	-10925
▁오렌지	-10926
▁중국과	-10927
▁하느님	-10928
▁스타리그	-10929
▁진행되고	-10930
▁활약하고	-10931
▁대거	-10932
▁대웅	-10933
▁만남	-10934
▁목록은	-10935
▁시위를	-10936
▁없었기	-10937
▁패배를	-10938
▁알려지게	-10939
후를	-10940
▁선종	-10941
▁일방	-10942
▁음악의	-10943
▁피에르	-10944
▁텔	-10945
▁봉쇄	-10946
▁유저	-10947
▁시장에	-10948
▁잃어버	-10949
▁국가대표팀의	-10950
감과	-10951
결과	-10952
▁도는	-10953
▁왕을	-10954
▁적혀	-10955
▁주가	-10956
란트	-10957
▁경제학	-10958
▁물러나	-10959
▁노동조합	-10960
▁디자인을	-10961
▁할아버지	-10962
월과	-10963
▁드림	-10964
▁상수	-10965
▁초과	-10966
▁남기고	-10967
▁자유로운	-10968
황제	-10969
ust	-10970
▁가환	-10971
▁술을	-10972
▁증손	-10973
하자는	-10974
▁기록했고	-10975
▁메시지를	-10976
OP	-10977
자원	-10978
▁결론	-10979
▁번식	-10980
▁예능	-10981
▁예배	-10982
▁적지	-10983
▁문자를	-10984
▁물질의	-10985
▁파일을	-10986
▁함수의	-10987
▁59	-10988
▁할머니	-10989
▁활약했다	-10990
-8	-10991
▁가죽	-10992
▁고지	-10993
▁교역	-10994
▁종족	-10995
기독교	-10996
▁유래한	-10997
▁불러일으	-10998
▁처음부터	-10999
▁체코슬로	-11000
런스	-11001
미쓰	-11002
팀인	-11003
ide	-11004
▁3.	-11005
▁경신	-11006
▁쳐들어	-11007
▁타격을	-11008
▁가짜	-11009
▁먹을	-11010
▁무소	-11011
▁105	-11012
▁밖에도	-11013
▁임시정부	-11014
▁프랑스어	-11015
▁구미	-11016
▁난징	-11017
▁석가	-11018
▁성사	-11019
왕후의	-11020
물질	-11021
▁on	-11022
▁나눈	-11023
▁몸이	-11024
이거나	-11025
▁출전한	-11026
▁참여하고	-11027
몬드	-11028
▁존속	-11029
▁견해를	-11030
▁보호를	-11031
▁이루며	-11032
▁들어간다	-11033
▁사건이다	-11034
▁우호	-11035
품으로	-11036
▁이어진다	-11037
구성	-11038
받게	-11039
▁뒤에도	-11040
▁유튜브	-11041
로이	-11042
희가	-11043
▁광산	-11044
▁군단	-11045
▁바퀴	-11046
▁빌려	-11047
▁애틀	-11048
▁미국을	-11049
▁연구소	-11050
아들	-11051
▁사자	-11052
▁응원	-11053
▁이끈	-11054
▁패키	-11055
▁부동산	-11056
▁스탈린	-11057
▁제도가	-11058
▁코드를	-11059
▁사망하자	-11060
~4	-11061
▁중종	-11062
▁밝히고	-11063
▁아나키	-11064
▁영어로	-11065
▁로저	-11066
▁붙인	-11067
▁엔딩	-11068
▁이진	-11069
시키지	-11070
▁정해진	-11071
▁조선에	-11072
▁야쿠	-11073
▁125	-11074
▁부유한	-11075
▁인접한	-11076
월한	-11077
준이	-11078
토시	-11079
▁법조	-11080
▁정해	-11081
어지고	-11082
프에서	-11083
학적인	-11084
▁철도의	-11085
▁오를	-11086
▁이의	-11087
▁채권	-11088
▁패한	-11089
▁스타일	-11090
▁안에는	-11091
▁끊임없이	-11092
▁아리스토	-11093
▁아버지인	-11094
▁샹	-11095
거를	-11096
▁강연	-11097
▁목을	-11098
▁초신	-11099
▁공부를	-11100
▁피하기	-11101
▁학교의	-11102
▁부분으로	-11103
▁편입되었다	-11104
극장	-11105
크스	-11106
▁2.5	-11107
▁주민들이	-11108
EN	-11109
따라	-11110
▁민족주의	-11111
▁엽	-11112
박사	-11113
▁사면	-11114
대한민	-11115
위원장	-11116
▁국가로	-11117
▁군대에	-11118
▁목표는	-11119
▁중국에	-11120
▁차량을	-11121
반이	-11122
▁모친	-11123
▁상원	-11124
▁입체	-11125
▁해소	-11126
▁차이로	-11127
▁환경에	-11128
▁방식이다	-11129
OL	-11130
공격	-11131
멘트	-11132
▁고민	-11133
▁딸로	-11134
▁만일	-11135
▁별은	-11136
라이트	-11137
으려고	-11138
▁간단히	-11139
▁발매하였다	-11140
~5	-11141
가루	-11142
감한	-11143
돌은	-11144
팀의	-11145
▁비밀리에	-11146
▁공직	-11147
▁발트	-11148
▁얻지	-11149
▁재무	-11150
▁중도	-11151
▁캄보	-11152
암으로	-11153
orld	-11154
▁죽였다	-11155
▁부호	-11156
▁앞면	-11157
▁조명	-11158
▁코어	-11159
운동의	-11160
화이다	-11161
▁많으며	-11162
▁수학자	-11163
▁아이슬	-11164
▁정신을	-11165
▁자본주의	-11166
수엘	-11167
해온	-11168
▁상처	-11169
▁호위	-11170
▁시기를	-11171
▁아무도	-11172
▁취하고	-11173
▁가마쿠라	-11174
▁참여하는	-11175
-6	-11176
▁닦	-11177
병에	-11178
▁비평	-11179
▁선과	-11180
▁섬유	-11181
▁응시	-11182
▁정사	-11183
하자면	-11184
▁본인의	-11185
▁가져왔다	-11186
▁프로젝트를	-11187
▁박헌	-11188
교육을	-11189
▁발언을	-11190
▁사람도	-11191
▁안으로	-11192
▁오하이	-11193
▁유학을	-11194
▁팀으로	-11195
량에	-11196
▁63	-11197
▁98	-11198
▁리만	-11199
▁관련한	-11200
▁압력을	-11201
상으로는	-11202
▁나머지는	-11203
▁프랑스에	-11204
기나	-11205
내가	-11206
정당	-11207
▁62	-11208
▁주행	-11209
▁해밀	-11210
루미늄	-11211
▁때에도	-11212
▁무료로	-11213
▁이름인	-11214
▁조정에	-11215
절한	-11216
▁돌고	-11217
▁둥글	-11218
▁잡혀	-11219
▁중독	-11220
▁시절의	-11221
▁장거리	-11222
▁의미에서	-11223
71	-11224
▁삼촌	-11225
▁이가	-11226
▁케네	-11227
▁퍼시픽	-11228
▁발견하였다	-11229
강이	-11230
▁노리	-11231
▁조달	-11232
▁직면	-11233
네스코	-11234
▁경찰에	-11235
▁1902	-11236
ES	-11237
인한	-11238
감으로	-11239
▁불리고	-11240
▁스튜어	-11241
디아라비아	-11242
▁김수	-11243
▁당일	-11244
▁디자	-11245
▁마천	-11246
▁있기도	-11247
▁투수가	-11248
▁쇄	-11249
법칙	-11250
▁7,	-11251
▁우즈	-11252
▁갈등을	-11253
▁Love	-11254
▁계획이다	-11255
마치	-11256
즈카	-11257
▁거뒀	-11258
▁고백	-11259
▁재현	-11260
▁하우	-11261
▁기여했다	-11262
▁덴마크의	-11263
▁받았지만	-11264
▁중단되었다	-11265
ies	-11266
▁아비	-11267
▁위장	-11268
과정을	-11269
끄러운	-11270
래스카	-11271
케라톱	-11272
▁나가는	-11273
▁전체적인	-11274
▁■	-11275
▁모서	-11276
▁부부	-11277
▁원리	-11278
▁인생	-11279
▁기초를	-11280
▁기회가	-11281
▁그리스어	-11282
▁펜실베이	-11283
▁활동하는	-11284
▁톨	-11285
본의	-11286
ian	-11287
▁이라	-11288
▁자택	-11289
▁소설을	-11290
▁동메달을	-11291
▁타이틀곡	-11292
인조	-11293
준을	-11294
▁문장	-11295
▁밀집	-11296
▁백색	-11297
검찰청	-11298
iver	-11299
▁이론에	-11300
▁이어진	-11301
아프리카	-11302
▁기독교의	-11303
▁라트비아	-11304
두를	-11305
▁66	-11306
▁수동	-11307
양으로	-11308
▁Pro	-11309
▁디즈니	-11310
▁손으로	-11311
▁냄	-11312
▁스쿨	-11313
들과는	-11314
▁뒷받침	-11315
▁시장을	-11316
▁결혼하였다	-11317
RA	-11318
▁난다	-11319
▁닛폰	-11320
▁하락	-11321
▁따른다	-11322
▁잠수함	-11323
것을	-11324
반에	-11325
왔던	-11326
▁기름	-11327
▁석탑	-11328
▁시계	-11329
▁필름	-11330
▁리그를	-11331
▁선수는	-11332
▁프랑크푸르트	-11333
체제	-11334
▁모형	-11335
층으로	-11336
▁2-1	-11337
▁버전이	-11338
▁선발로	-11339
▁저기압	-11340
▁주어진다	-11341
▁고등학교를	-11342
양군	-11343
▁김옥	-11344
▁순천	-11345
▁싸워	-11346
▁씨의	-11347
▁안보	-11348
▁넘어가	-11349
▁분포한다	-11350
▁중화인민공화국의	-11351
74	-11352
결합	-11353
세트	-11354
▁밝힌	-11355
▁보게	-11356
▁어른	-11357
▁오오	-11358
▁유아	-11359
▁플레이어는	-11360
메라	-11361
였을	-11362
제한	-11363
▁잡은	-11364
▁제트	-11365
▁조조	-11366
▁지각	-11367
▁뚜렷한	-11368
▁서울대	-11369
▁성능을	-11370
▁시칠리아	-11371
▁이윤	-11372
▁호의	-11373
▁땄	-11374
▁럭	-11375
할때	-11376
▁공손	-11377
▁산소	-11378
▁우울	-11379
▁전세	-11380
무는	-11381
▁느꼈	-11382
▁닥터	-11383
▁스폰	-11384
▁심의	-11385
자이며	-11386
▁언어의	-11387
▁온타리오	-11388
▁사우디아라비아	-11389
코와	-11390
▁설도	-11391
▁짙은	-11392
▁문서를	-11393
▁온도가	-11394
▁전두환	-11395
▁단기	-11396
▁라파	-11397
▁소지	-11398
▁양이	-11399
▁구조의	-11400
▁방송된	-11401
▁판타지	-11402
대회에서	-11403
▁자신들이	-11404
즈로	-11405
ace	-11406
▁높게	-11407
▁봉건	-11408
▁성분	-11409
▁주위	-11410
▁역까지	-11411
▁영화로	-11412
라리	-11413
▁쌓은	-11414
▁가리키	-11415
▁가벼운	-11416
▁올리고	-11417
▁정치를	-11418
▁생산하는	-11419
▁한국시리즈	-11420
▁데이터베이스	-11421
버러	-11422
설에	-11423
웠고	-11424
▁입각	-11425
▁중일	-11426
계약을	-11427
▁부근에	-11428
▁도요토미	-11429
▁평가했다	-11430
반은	-11431
버린	-11432
ber	-11433
▁고체	-11434
▁사절	-11435
▁연령	-11436
▁카탈	-11437
▁환원	-11438
▁기초로	-11439
▁다음이	-11440
▁이스트	-11441
▁카자흐	-11442
▁펀	-11443
국어	-11444
카타	-11445
▁re	-11446
▁낭만	-11447
▁이며	-11448
▁최연	-11449
▁해인	-11450
▁것들이	-11451
▁대전이	-11452
▁인상을	-11453
▁평가된다	-11454
▁날카	-11455
▁더해	-11456
화에서	-11457
▁섬에서	-11458
▁띤다	-11459
▁미토	-11460
▁발현	-11461
▁세자	-11462
▁관련해	-11463
▁세력의	-11464
▁없어서	-11465
▁연합군	-11466
▁있는지	-11467
내며	-11468
▁디렉	-11469
▁침투	-11470
▁단어는	-11471
▁말하면	-11472
▁제치고	-11473
▁평범한	-11474
릴라	-11475
무가	-11476
스파	-11477
코드	-11478
▁불상	-11479
▁손꼽	-11480
ound	-11481
▁왕국은	-11482
▁왕국을	-11483
▁일컫는	-11484
▁행사를	-11485
▁주장하며	-11486
▁대통령으로	-11487
ran	-11488
▁각자	-11489
▁군이	-11490
▁차례의	-11491
▁머물렀다	-11492
▁젤	-11493
작전	-11494
점이다	-11495
▁질량이	-11496
▁학문을	-11497
들에게는	-11498
▁시장에서	-11499
▁하느님의	-11500
억원	-11501
쟁이	-11502
피의	-11503
▁곳의	-11504
▁이바	-11505
▁오리콘	-11506
길이	-11507
하로	-11508
▁견제	-11509
▁디오	-11510
▁소매	-11511
▁숫자	-11512
▁조언	-11513
프로그램	-11514
▁통일신라	-11515
▁–	-11516
▁뭉	-11517
▁마약	-11518
▁신중	-11519
▁처녀	-11520
▁출산	-11521
▁지키는	-11522
72	-11523
▁거울	-11524
▁달의	-11525
▁물건	-11526
▁중기	-11527
▁학위	-11528
문에서	-11529
▁공간이	-11530
▁친일파	-11531
▁승강장이	-11532
▁정의한다	-11533
▁총대주교	-11534
▁아이슬란드	-11535
제작	-11536
▁기아	-11537
▁포병	-11538
▁얼굴을	-11539
▁즉위한	-11540
국장	-11541
박스	-11542
적과	-11543
집이	-11544
▁문명	-11545
▁원수	-11546
▁일러	-11547
▁해운	-11548
누스는	-11549
▁Con	-11550
▁기간을	-11551
▁내용으로	-11552
▁목소리를	-11553
▁≪	-11554
▁옐	-11555
▁사살	-11556
나가는	-11557
▁고유의	-11558
▁용도로	-11559
▁위험한	-11560
▁이라고	-11561
스컵	-11562
조한	-11563
▁꼭대	-11564
▁문법	-11565
▁이남	-11566
렸다고	-11567
▁문화가	-11568
▁시리즈는	-11569
▁이차	-11570
▁국방부	-11571
▁들어갈	-11572
▁서유럽	-11573
▁안드레	-11574
▁음악에	-11575
▁전세계	-11576
금과	-11577
▁자문	-11578
▁같은해	-11579
▁게임이	-11580
▁관리를	-11581
▁기각	-11582
▁수련	-11583
▁자를	-11584
▁합창	-11585
▁매카트	-11586
▁무대를	-11587
▁보유한	-11588
▁1901	-11589
▁리투아니아	-11590
내지	-11591
플렉	-11592
▁성이	-11593
▁에스토니아	-11594
▁몫	-11595
▁왓	-11596
설은	-11597
_12	-11598
▁보헤	-11599
▁전염	-11600
▁국내외	-11601
HE	-11602
전선	-11603
예정자	-11604
▁10%	-11605
▁구분된다	-11606
▁설치하고	-11607
▁자격으로	-11608
▁취임하였다	-11609
▁등극	-11610
▁이식	-11611
▁135	-11612
▁경기의	-11613
▁비율이	-11614
▁위치는	-11615
아메리카	-11616
▁선수들을	-11617
▁콘스탄티노폴리스	-11618
물인	-11619
증은	-11620
age	-11621
▁분화	-11622
▁승계	-11623
▁항소	-11624
▁해의	-11625
올림픽	-11626
▁정권의	-11627
▁결정하였다	-11628
당해	-11629
▁실망	-11630
▁유교	-11631
▁카롤	-11632
▁회계	-11633
▁대가로	-11634
▁존재할	-11635
▁확실한	-11636
▁떨어졌다	-11637
▁원작으로	-11638
▁3,000	-11639
주지	-11640
▁난민	-11641
▁낸다	-11642
▁세속	-11643
▁게르만	-11644
▁전했다	-11645
▁지냈고	-11646
프스	-11647
▁보전	-11648
▁이노	-11649
▁직결	-11650
▁표방	-11651
▁50%	-11652
박쥐	-11653
토와	-11654
▁나섰	-11655
리그의	-11656
자라고	-11657
▁유지하는	-11658
▁자유주의	-11659
iz	-11660
▁닭	-11661
한테	-11662
▁일체	-11663
▁제의	-11664
▁내려가	-11665
▁대표적	-11666
▁설명하는	-11667
▁유네스코	-11668
▁형태이다	-11669
AL	-11670
▁맑	-11671
▁My	-11672
▁배신	-11673
▁조리	-11674
스포츠	-11675
▁완벽한	-11676
▁1897	-11677
▁부분에서	-11678
들여	-11679
▁DS	-11680
▁부가	-11681
▁상류	-11682
▁알루미늄	-11683
▁독립운동가	-11684
▁펌	-11685
man	-11686
▁동참	-11687
▁무실	-11688
▁어뢰	-11689
▁희귀	-11690
▁서재필	-11691
▁제국에	-11692
▁파이어	-11693
▁입장에서	-11694
원인	-11695
▁오타	-11696
▁짐작	-11697
▁품고	-11698
▁그려진	-11699
▁관리하는	-11700
▁독립적인	-11701
▁Se	-11702
▁김기	-11703
▁미노	-11704
▁정렬	-11705
▁독일어	-11706
▁정도를	-11707
▁정치적인	-11708
그의	-11709
커스	-11710
한은	-11711
▁연봉	-11712
▁유년	-11713
▁체류	-11714
▁더이상	-11715
▁카를로	-11716
▁휘하의	-11717
▁공격하여	-11718
▁러시아는	-11719
▁부문에서	-11720
▁선수이자	-11721
▁위치하며	-11722
무역	-11723
▁바빌	-11724
▁선배	-11725
▁스톡	-11726
▁철회	-11727
사이드	-11728
▁키프로	-11729
▁피해가	-11730
▁다운로드	-11731
▁사회에서	-11732
▁펜실베이니아	-11733
교수	-11734
약한	-11735
-12	-11736
▁갈수록	-11737
▁새로이	-11738
▁주식회	-11739
▁석조	-11740
▁시종	-11741
▁위탁	-11742
▁구스타	-11743
▁이곳을	-11744
▁페르디난	-11745
총장	-11746
▁남극	-11747
▁돌입	-11748
▁병역	-11749
▁싶은	-11750
해주는	-11751
▁공화당	-11752
▁요새를	-11753
▁입단했다	-11754
▁규격	-11755
▁민영	-11756
▁양호	-11757
▁에디	-11758
▁뒤이어	-11759
▁올랐고	-11760
▁결혼하여	-11761
▁과학기술	-11762
▁그러다가	-11763
▁얀	-11764
았기	-11765
▁3.1	-11766
▁마리오	-11767
▁만화가	-11768
▁결정된다	-11769
▁이집트의	-11770
▁정부에서	-11771
소녀	-11772
▁선물	-11773
▁중소	-11774
▁만나는	-11775
▁소속된	-11776
KB	-11777
▁김진	-11778
▁뜻이	-11779
▁하천	-11780
았다고	-11781
▁설치한	-11782
▁전하는	-11783
▁시작하는	-11784
▁수록예정자	-11785
▁인천광역시	-11786
전사	-11787
퍼는	-11788
▁위와	-11789
▁춘추	-11790
▁비율은	-11791
▁휴스턴	-11792
하와	-11793
▁아즈	-11794
▁중재	-11795
는지는	-11796
▁시리즈를	-11797
▁아인슈타	-11798
▁연합군의	-11799
▁주식회사	-11800
▁하나이며	-11801
▁해결하기	-11802
우드	-11803
테면	-11804
품의	-11805
▁기숙	-11806
▁러브	-11807
▁선사	-11808
▁3·1	-11809
▁고통을	-11810
▁나란히	-11811
▁역사적인	-11812
▁제기되었다	-11813
운이	-11814
참모	-11815
▁6,	-11816
▁수확	-11817
기록을	-11818
즈에서	-11819
▁당연히	-11820
▁방문한	-11821
▁선정한	-11822
▁수상한	-11823
▁알코올	-11824
▁한국은	-11825
정신	-11826
집에	-11827
▁권유	-11828
▁말미	-11829
▁트루	-11830
▁역사에	-11831
미국	-11832
▁담배	-11833
▁점에	-11834
▁컬러	-11835
▁평정	-11836
▁거부하고	-11837
▁드러났다	-11838
▁꼭짓	-11839
▁리가	-11840
▁영지	-11841
▁정권이	-11842
▁그레고리오	-11843
▁프로그램에	-11844
스틴	-11845
▁돌을	-11846
▁민병	-11847
▁...	-11848
▁관직에	-11849
▁상태의	-11850
▁선은	-11851
▁축적	-11852
▁결론을	-11853
▁보다는	-11854
▁성장을	-11855
▁영향이	-11856
▁표면에	-11857
▁1903	-11858
▁프랑스가	-11859
간은	-11860
▁견해	-11861
▁극대	-11862
▁즐겨	-11863
▁해명	-11864
프라이	-11865
▁점령한	-11866
▁환경에서	-11867
루수	-11868
르노	-11869
림은	-11870
▁모은	-11871
▁지형	-11872
내셔널	-11873
▁방영된	-11874
▁소송을	-11875
▁일하는	-11876
▁톈	-11877
사나	-11878
티모	-11879
▁5·	-11880
▁걱정	-11881
▁동점	-11882
▁마운	-11883
▁신선	-11884
▁인격	-11885
▁다니는	-11886
▁성공회	-11887
▁제도는	-11888
▁대응하는	-11889
▁자이언츠	-11890
▁준우승을	-11891
에다	-11892
중추	-11893
협의	-11894
훈장	-11895
▁필사	-11896
▁호응	-11897
▁예이다	-11898
▁베네수엘	-11899
으로부터의	-11900
ome	-11901
▁환영	-11902
위원을	-11903
책으로	-11904
▁기존에	-11905
▁서식한다	-11906
▁아이디얼	-11907
▁이루어지는	-11908
aw	-11909
▁헬륨	-11910
게이머	-11911
▁동생인	-11912
▁보내고	-11913
▁승무원	-11914
▁나중에는	-11915
▁값이	-11916
▁코트	-11917
색이다	-11918
▁가족은	-11919
▁드물게	-11920
▁행정구역	-11921
▁실질적으로	-11922
▁캘리포니아주	-11923
▁얽	-11924
니시	-11925
채널	-11926
표는	-11927
▁낳은	-11928
▁조승	-11929
▁화석	-11930
▁사고를	-11931
▁정보가	-11932
▁시리즈에서	-11933
▁두께	-11934
▁마오	-11935
▁암시	-11936
▁충실	-11937
상규명	-11938
▁뮤지션	-11939
▁제목의	-11940
▁포로로	-11941
보통학교	-11942
▁표현하는	-11943
▁5,000	-11944
열차	-11945
전인	-11946
한이	-11947
▁이준	-11948
▁지름	-11949
▁투수로	-11950
▁근무했다	-11951
are	-11952
ire	-11953
▁CF	-11954
▁교전	-11955
▁대치	-11956
▁비주	-11957
▁소모	-11958
▁쾌속	-11959
▁호출	-11960
▁리더십	-11961
▁실력을	-11962
▁실패한	-11963
▁자료가	-11964
수용	-11965
▁공립	-11966
▁단축	-11967
▁본부	-11968
▁성당	-11969
▁스칼	-11970
▁실력	-11971
▁양국	-11972
▁완화	-11973
▁패전	-11974
행위를	-11975
▁아사히	-11976
▁이를테면	-11977
벌을	-11978
벽을	-11979
▁감안	-11980
▁전동	-11981
▁지녔	-11982
▁진공	-11983
▁팀인	-11984
▁대학생	-11985
▁비판하였다	-11986
78	-11987
AP	-11988
▁경상도	-11989
▁변화는	-11990
▁설명할	-11991
근의	-11992
타리	-11993
▁맞은	-11994
▁발원	-11995
▁번에	-11996
▁빈번	-11997
아버지	-11998
커니즘	-11999
▁가지의	-12000
▁과정이	-12001
▁바르샤	-12002
▁부대가	-12003
▁일으킬	-12004
▁저명한	-12005
▁점령하고	-12006
▁온갖	-12007
▁협약	-12008
▁격렬한	-12009
▁니콜라	-12010
▁역사의	-12011
▁중국어	-12012
▁컬럼비아	-12013
락이	-12014
심히	-12015
직으로	-12016
▁시대가	-12017
▁정치에	-12018
개와	-12019
런트	-12020
마로	-12021
컨대	-12022
AS	-12023
야에	-12024
족에	-12025
평화	-12026
▁96	-12027
▁부의	-12028
▁산의	-12029
▁오바	-12030
▁임상	-12031
▁지능	-12032
▁모양이	-12033
▁손가락	-12034
▁실패하고	-12035
▁역임하고	-12036
▁오하이오	-12037
▁진행하고	-12038
▁이루어지지	-12039
▁강에	-12040
▁남해	-12041
▁성주	-12042
▁가문은	-12043
▁넓게	-12044
▁알라	-12045
▁이관	-12046
판에서	-12047
▁소련은	-12048
▁아나운	-12049
세기부터	-12050
▁국제적인	-12051
▁참가하는	-12052
▁시작하면서	-12053
혹한	-12054
▁관장	-12055
▁끝날	-12056
▁담아	-12057
▁생략	-12058
▁제노	-12059
▁사이버	-12060
▁언급한	-12061
▁의미는	-12062
▁결정하는	-12063
▁기록으로	-12064
▁연세대학교	-12065
암은	-12066
연료	-12067
커의	-12068
팀을	-12069
_13	-12070
▁년에	-12071
▁집결	-12072
▁똑같은	-12073
▁전역에	-12074
▁주장에	-12075
▁중반에	-12076
▁되었다는	-12077
▁방송되었다	-12078
자스	-12079
▁꽃이	-12080
▁노트	-12081
▁사원	-12082
▁상장	-12083
▁없던	-12084
▁에미	-12085
▁연쇄	-12086
▁왕복	-12087
▁되었던	-12088
▁상원의	-12089
▁에티오	-12090
적으로도	-12091
▁공격했다	-12092
▁포기하고	-12093
▁때문이라고	-12094
▁프로그램이다	-12095
단위	-12096
안군	-12097
양함	-12098
▁물의	-12099
▁배가	-12100
▁종속	-12101
▁씌	-12102
랑을	-12103
소득	-12104
▁아기	-12105
▁함대	-12106
받았고	-12107
▁궤도를	-12108
▁나라는	-12109
▁넓이는	-12110
▁팀에서	-12111
시켰으며	-12112
▁지방자치	-12113
마일	-12114
▁누르	-12115
▁때가	-12116
▁물어	-12117
▁부천	-12118
▁신부	-12119
▁화강	-12120
▁360	-12121
▁것인지	-12122
▁웨일스	-12123
▁뉴저	-12124
▁이경	-12125
▁페루	-12126
▁전반에	-12127
▁남게	-12128
▁업체	-12129
▁위헌	-12130
▁임명되었고	-12131
기사	-12132
▁발각	-12133
▁정말	-12134
▁진흥	-12135
부에는	-12136
▁서울의	-12137
▁소행성	-12138
▁획득한	-12139
▁고려시대	-12140
▁불가능한	-12141
▁설치하여	-12142
운다	-12143
카라	-12144
▁개종	-12145
▁법인	-12146
▁병을	-12147
▁이산	-12148
▁전속	-12149
▁게이트	-12150
▁공격해	-12151
▁카드를	-12152
▁과거에는	-12153
SD	-12154
두로	-12155
▁난을	-12156
하기는	-12157
▁모습은	-12158
▁영국에	-12159
▁진출한	-12160
▁연결된다	-12161
▁다큐멘터리	-12162
▁겁	-12163
아비	-12164
▁대가	-12165
▁서정	-12166
▁한명	-12167
▁되어있다	-12168
▁학생들의	-12169
▁대한민국과	-12170
독일	-12171
▁본거	-12172
▁싱어	-12173
▁알지	-12174
▁인플	-12175
▁해수	-12176
▁도시에	-12177
▁세력은	-12178
▁제주도	-12179
터스	-12180
▁괴롭	-12181
▁무슨	-12182
▁숨어	-12183
▁시골	-12184
▁외교관	-12185
▁원인을	-12186
▁장군은	-12187
▁함수는	-12188
▁각지에서	-12189
▁최대풍속	-12190
벤처	-12191
심은	-12192
▁김경	-12193
▁라스	-12194
▁리얼	-12195
▁양반	-12196
▁저렴	-12197
안에서	-12198
▁선수들	-12199
나미	-12200
▁발칸	-12201
여명의	-12202
▁1-0	-12203
▁갤럭시	-12204
▁달한다	-12205
▁방송국	-12206
▁일대에	-12207
▁크기를	-12208
▁회장을	-12209
▁후임으로	-12210
두에	-12211
▁61	-12212
▁길에	-12213
▁점프	-12214
▁도입된	-12215
▁물고기	-12216
▁새겨진	-12217
▁주위를	-12218
▁최소한	-12219
▁히가시	-12220
리그에서	-12221
목적	-12222
탄의	-12223
▁베니	-12224
▁산출	-12225
▁숙청	-12226
▁왜곡	-12227
▁영화가	-12228
▁조직이	-12229
lan	-12230
▁건담	-12231
▁맞고	-12232
▁왕세	-12233
▁적다	-12234
▁카디	-12235
계에서는	-12236
▁몸무게는	-12237
▁추가적인	-12238
것도	-12239
현대	-12240
▁간호	-12241
▁맺은	-12242
▁입을	-12243
▁교회를	-12244
▁음악은	-12245
▁나타내고	-12246
감은	-12247
글리	-12248
분석	-12249
700	-12250
▁동행	-12251
▁않자	-12252
▁파스	-12253
사업을	-12254
▁섬으로	-12255
▁성으로	-12256
▁통틀어	-12257
ph	-12258
▁누가	-12259
▁방패	-12260
▁용병	-12261
▁입원	-12262
렸지만	-12263
79	-12264
운을	-12265
▁개가	-12266
▁공모	-12267
▁옥스	-12268
▁폭로	-12269
▁누르고	-12270
▁동명의	-12271
73	-12272
도비	-12273
폭력	-12274
▁반공	-12275
자라는	-12276
크에서	-12277
St	-12278
▁톤	-12279
소수	-12280
▁감리	-12281
▁깨끗	-12282
▁번호	-12283
▁뽑아	-12284
▁척추	-12285
▁편에	-12286
▁엔진이	-12287
▁하에서	-12288
▁사용하면	-12289
▁가동	-12290
▁김창	-12291
▁만세	-12292
▁선비	-12293
▁지주	-12294
베르토	-12295
▁곤란	-12296
▁주체	-12297
▁창의	-12298
▁남동생	-12299
▁아스널	-12300
▁에이스	-12301
▁시베리아	-12302
백과	-12303
서기	-12304
▁76	-12305
▁그후	-12306
▁배상	-12307
▁안테	-12308
▁앞장	-12309
▁살았던	-12310
▁열매는	-12311
살의	-12312
황이	-12313
▁균형	-12314
▁살려	-12315
▁안치	-12316
▁태그	-12317
▁단어를	-12318
▁일대를	-12319
▁불가능하다	-12320
▁Le	-12321
▁가볍	-12322
▁기증	-12323
▁때려	-12324
▁부지	-12325
되므로	-12326
들었다	-12327
일이다	-12328
▁고향인	-12329
▁의혹이	-12330
▁장관을	-12331
▁1800	-12332
▁학생들은	-12333
▁대합	-12334
▁유식	-12335
▁잘라	-12336
▁소문이	-12337
▁1860	-12338
판매	-12339
che	-12340
▁단절	-12341
▁산란	-12342
▁세례	-12343
▁요동	-12344
▁즈음	-12345
▁편곡	-12346
▁그룹은	-12347
▁주위에	-12348
▁아닐	-12349
▁없었	-12350
▁초록	-12351
▁용어로	-12352
▁육군의	-12353
▁활발히	-12354
▁1884	-12355
궁의	-12356
막을	-12357
함마	-12358
▁확신	-12359
▁건설을	-12360
▁범위를	-12361
▁시호를	-12362
▁작용을	-12363
▁그로부터	-12364
▁딘	-12365
말에	-12366
항의	-12367
▁걸린	-12368
▁문인	-12369
▁펠리	-12370
노스케	-12371
▁출신인	-12372
▁대통령과	-12373
▁중요성을	-12374
▁차지하며	-12375
대륙	-12376
준비	-12377
▁갱신	-12378
▁이룩	-12379
▁재미	-12380
▁집계	-12381
버스터	-12382
▁상황은	-12383
▁중대한	-12384
▁카르타	-12385
▁현재도	-12386
의원	-12387
시부터	-12388
▁그래프	-12389
▁다녔다	-12390
▁연구의	-12391
▁트리플	-12392
▁페르난	-12393
▁대학교는	-12394
▁월드컵에	-12395
▁일이었다	-12396
ps	-12397
▁북방	-12398
우스가	-12399
행으로	-12400
▁붙였다	-12401
▁일제의	-12402
▁증거가	-12403
▁일컫는다	-12404
행에	-12405
▁덮여	-12406
▁신축	-12407
▁이북	-12408
▁퇴역	-12409
▁노선의	-12410
▁생각이	-12411
▁르네상스	-12412
고리	-12413
연방	-12414
쪽은	-12415
▁따온	-12416
▁자국	-12417
▁자의	-12418
▁한인	-12419
당하는	-12420
▁나오고	-12421
▁미사일을	-12422
▁프로게이머	-12423
~20	-12424
▁약물	-12425
▁수도원	-12426
▁영지를	-12427
▁일어나고	-12428
제학	-12429
표가	-12430
▁년간	-12431
▁샘플	-12432
▁시공	-12433
▁키워	-12434
▁공간은	-12435
▁무조건	-12436
▁물체의	-12437
▁총리가	-12438
▁아니라는	-12439
▁올라간다	-12440
GB	-12441
승의	-12442
저의	-12443
▁기단	-12444
▁동구	-12445
▁네이버	-12446
▁수도인	-12447
▁공격으로	-12448
강과	-12449
▁가려	-12450
▁규범	-12451
▁분당	-12452
▁불명	-12453
▁칭찬	-12454
▁흔한	-12455
년에도	-12456
법이다	-12457
▁기간은	-12458
▁남부에	-12459
▁도시철도	-12460
PC	-12461
▁솜	-12462
시노	-12463
왕조	-12464
하늘	-12465
▁성서	-12466
▁알제	-12467
▁조광	-12468
▁중대	-12469
▁측에	-12470
▁열차의	-12471
▁작업에	-12472
▁형성하고	-12473
캐롤라이나	-12474
▁성숙	-12475
▁종은	-12476
사들이	-12477
▁구단의	-12478
▁두개골	-12479
▁야마토	-12480
▁콤팩트	-12481
▁결정한다	-12482
근이	-12483
야와	-12484
▁김씨	-12485
▁성종	-12486
▁마을에	-12487
▁실시한	-12488
▁지구에	-12489
▁칼리지	-12490
▁해마다	-12491
금지	-12492
디나	-12493
친구	-12494
ens	-12495
▁사간	-12496
▁텍스트	-12497
▁형성한다	-12498
-17	-12499
▁각본	-12500
▁배려	-12501
▁증권	-12502
군이다	-12503
법에서	-12504
▁비하여	-12505
▁지구를	-12506
스기	-12507
커가	-12508
▁루터	-12509
▁결성된	-12510
▁경향을	-12511
▁선택할	-12512
▁외에는	-12513
만과	-12514
예프	-12515
추는	-12516
칸의	-12517
타입	-12518
▁랜드	-12519
▁서민	-12520
▁있거나	-12521
▁건설되었다	-12522
▁셸	-12523
고려	-12524
발은	-12525
▁합작	-12526
▁호조	-12527
▁소리가	-12528
▁송나라	-12529
레아	-12530
▁궁궐	-12531
▁알을	-12532
▁차용	-12533
▁차체	-12534
▁루이지	-12535
▁예수의	-12536
▁취임했다	-12537
운의	-12538
종교	-12539
-21	-12540
▁김홍	-12541
▁암흑	-12542
▁애덤	-12543
▁잭슨	-12544
▁초빙	-12545
▁태자	-12546
▁보여준	-12547
▁언어는	-12548
▁자세히	-12549
가요	-12550
집의	-12551
▁들을	-12552
▁떠오	-12553
▁슈팅	-12554
▁신시	-12555
▁아바	-12556
나무는	-12557
▁도왔다	-12558
▁동안의	-12559
▁방사성	-12560
▁수행할	-12561
▁아미타	-12562
▁했었다	-12563
▁대학교를	-12564
▁시뮬레이션	-12565
온을	-12566
▁공익	-12567
▁상경	-12568
▁신탁	-12569
▁영유	-12570
▁좌석	-12571
▁카스	-12572
▁몬스터	-12573
▁홍문관	-12574
▁개인적인	-12575
▁시스템에	-12576
▁종교개혁	-12577
.5%	-12578
▁아부	-12579
▁연상	-12580
▁원을	-12581
심에서	-12582
▁밴드를	-12583
▁보도했다	-12584
▁플라스틱	-12585
▁적용되었다	-12586
//	-12587
강은	-12588
로니	-12589
▁NC	-12590
▁법의	-12591
▁불꽃	-12592
▁끌었다	-12593
▁사상은	-12594
▁한편으로	-12595
TS	-12596
뉴스	-12597
법상	-12598
일드	-12599
피가	-12600
▁En	-12601
▁자회	-12602
▁최진	-12603
하우스	-12604
▁본래의	-12605
▁기슭	-12606
▁마루	-12607
▁모인	-12608
▁앙리	-12609
▁퀘벡	-12610
거리가	-12611
▁경계로	-12612
▁남쪽은	-12613
▁임명된	-12614
디언	-12615
시나	-12616
있게	-12617
▁추종	-12618
▁후안	-12619
▁계약이	-12620
▁협주곡	-12621
▁이름에서	-12622
▁특징으로	-12623
▁・	-12624
너가	-12625
르에	-12626
▁간신	-12627
▁토요	-12628
되도록	-12629
▁의혹을	-12630
TC	-12631
광을	-12632
나서	-12633
노를	-12634
채가	-12635
▁가열	-12636
▁나주	-12637
▁대회가	-12638
▁독일에	-12639
▁어렸을	-12640
▁치열한	-12641
▁위치하는	-12642
근은	-12643
▁로즈	-12644
▁불태	-12645
지역에	-12646
▁선출된	-12647
되어있다	-12648
▁도착했다	-12649
▁운행한다	-12650
머는	-12651
▁하차	-12652
▁기준을	-12653
▁다케다	-12654
▁동일하다	-12655
▁받았다고	-12656
디를	-12657
신경	-12658
여객	-12659
▁돌격	-12660
▁사정	-12661
▁아홉	-12662
▁평을	-12663
제도를	-12664
치에서	-12665
터에서	-12666
▁국왕의	-12667
▁이내에	-12668
▁평화를	-12669
▁분위기를	-12670
▁수준으로	-12671
순은	-12672
▁동조	-12673
▁순조	-12674
▁형상	-12675
▁호세	-12676
▁담당했다	-12677
아키	-12678
우지	-12679
ime	-12680
▁극동	-12681
▁전날	-12682
▁천거	-12683
시까지	-12684
▁사전에	-12685
▁십자군	-12686
▁주도로	-12687
▁코리아	-12688
▁보호하기	-12689
▁눌	-12690
ond	-12691
▁유동	-12692
▁중구	-12693
▁국제적	-12694
▁본인이	-12695
▁열차를	-12696
▁투어를	-12697
▁알렉산드로	-12698
아파	-12699
▁뜻은	-12700
▁분출	-12701
▁오지	-12702
▁중장	-12703
만명의	-12704
베니아	-12705
▁기여를	-12706
▁사업에	-12707
▁테니스	-12708
▁트랜스	-12709
▁넬	-12710
보니	-12711
신인	-12712
▁장성	-12713
▁정립	-12714
사령부	-12715
정부는	-12716
▁가지로	-12717
▁나타낸	-12718
▁당하고	-12719
▁드라이버	-12720
▁아시카가	-12721
▁조선로동	-12722
는가	-12723
지능	-12724
히로	-12725
▁맺어	-12726
▁메소	-12727
▁수에	-12728
▁은거	-12729
▁조립	-12730
▁테레	-12731
운드를	-12732
해졌고	-12733
▁거부했다	-12734
▁함부르크	-12735
▁합스부르크	-12736
▁붐	-12737
▁옴	-12738
항에	-12739
▁만났	-12740
▁자선	-12741
▁대신해	-12742
▁런던의	-12743
▁못하여	-12744
▁지도를	-12745
▁혼란을	-12746
업과	-12747
직의	-12748
형인	-12749
_14	-12750
▁수료	-12751
▁페어	-12752
▁폭스	-12753
▁회수	-12754
▁경제의	-12755
▁수도를	-12756
▁인간을	-12757
▁작업이	-12758
▁밭	-12759
융합	-12760
포와	-12761
ign	-12762
▁닫힌	-12763
▁리치	-12764
▁약혼	-12765
▁물건을	-12766
▁제네바	-12767
▁대회에서는	-12768
아래	-12769
밀하게	-12770
파이어	-12771
▁경찰이	-12772
▁음악적	-12773
부상	-12774
▁IM	-12775
▁내무	-12776
▁맞붙	-12777
▁불평	-12778
업으로	-12779
▁토지를	-12780
▁현재에	-12781
계급	-12782
우기	-12783
ite	-12784
▁곡선	-12785
▁공표	-12786
▁글리	-12787
▁마스	-12788
▁논란을	-12789
▁성에서	-12790
▁싸움을	-12791
▁이해할	-12792
▁해군은	-12793
전문학교	-12794
▁기본으로	-12795
업의	-12796
▁미즈	-12797
▁비단	-12798
▁빈곤	-12799
▁나들목	-12800
▁드디어	-12801
▁비용이	-12802
ear	-12803
우리는	-12804
▁미쳤다	-12805
▁바꾸고	-12806
▁북부에	-12807
▁알리는	-12808
▁언론에	-12809
▁재판을	-12810
진상규명	-12811
▁공개했다	-12812
▁이전부터	-12813
▁학생들을	-12814
▁분비	-12815
▁수면	-12816
▁줄여	-12817
▁해고	-12818
레스는	-12819
석에서	-12820
▁위험을	-12821
▁주목할	-12822
▁에너지가	-12823
▁기록되었다	-12824
▁효과적으로	-12825
방위	-12826
분과	-12827
치료	-12828
▁되던	-12829
▁손잡	-12830
▁장을	-12831
▁20%	-12832
▁가을에	-12833
▁경찰의	-12834
▁마이크	-12835
▁세워져	-12836
▁스티브	-12837
▁음반의	-12838
▁나타나고	-12839
▁인정하는	-12840
▁정의된다	-12841
라기	-12842
번이	-12843
비서	-12844
학부	-12845
▁로열	-12846
▁조화	-12847
▁직통	-12848
스트리	-12849
▁무렵에	-12850
▁함수를	-12851
▁스케이팅	-12852
생은	-12853
omp	-12854
▁무의	-12855
▁임관	-12856
▁초연	-12857
도이다	-12858
▁아름답	-12859
▁위에는	-12860
▁집안의	-12861
▁하였지만	-12862
협력	-12863
▁퇴임	-12864
▁판사	-12865
▁수익을	-12866
▁청와대	-12867
▁현상은	-12868
▁런던에서	-12869
비나	-12870
자고	-12871
집단	-12872
▁공이	-12873
▁내정	-12874
▁볼리	-12875
▁조병	-12876
▁중복	-12877
▁충성	-12878
▁환상	-12879
▁싱글로	-12880
▁드래프트에서	-12881
미트	-12882
▁모셔	-12883
▁이장	-12884
▁하마	-12885
▁센고쿠	-12886
주의적인	-12887
▁1871	-12888
▁1880	-12889
▁유사하다	-12890
▁제안했다	-12891
대학교에서	-12892
pp	-12893
능한	-12894
아야	-12895
▁부각	-12896
▁RNA	-12897
▁그곳에	-12898
▁비행기	-12899
▁흔적이	-12900
▁형성되어	-12901
!!	-12902
국사	-12903
_16	-12904
▁이데	-12905
▁죽어	-12906
▁출가	-12907
러시아	-12908
▁운영을	-12909
▁자기의	-12910
▁표현한	-12911
▁받으면서	-12912
▁복귀했다	-12913
레타	-12914
취를	-12915
▁그릇	-12916
▁탄도	-12917
세였다	-12918
▁바이오	-12919
▁지휘를	-12920
▁전역에서	-12921
▁후쿠시마	-12922
▁승격되었다	-12923
루션	-12924
▁th	-12925
▁골프	-12926
▁성리	-12927
▁퍼포	-12928
티미터	-12929
▁닌텐도	-12930
▁반도의	-12931
▁자란다	-12932
▁요청했다	-12933
▁오스트레일리아의	-12934
쉽게	-12935
창의	-12936
▁김구	-12937
▁상세	-12938
▁수장	-12939
▁청산	-12940
기관의	-12941
루스는	-12942
테이션	-12943
▁표현할	-12944
장치	-12945
절이	-12946
ory	-12947
▁내전	-12948
▁오쿠	-12949
▁지옥	-12950
▁플러	-12951
▁물질이	-12952
통제	-12953
▁내어	-12954
▁돌로	-12955
▁듣지	-12956
▁믿는	-12957
▁양을	-12958
▁이케	-12959
▁허위	-12960
▁협조	-12961
▁극심한	-12962
▁다룬다	-12963
▁바꾸는	-12964
▁시험을	-12965
▁열대폭	-12966
▁중점을	-12967
▁북아프리카	-12968
배가	-12969
▁구해	-12970
▁들려	-12971
▁부설	-12972
▁치고	-12973
▁치렀	-12974
▁케임	-12975
가들이	-12976
라이어	-12977
▁평안남도	-12978
▁덤	-12979
바논	-12980
에의	-12981
평론	-12982
▁기간이	-12983
▁일리노	-12984
▁클래스	-12985
▁트라이	-12986
▁선수들은	-12987
▁필요성을	-12988
▁크리스마스	-12989
시한	-12990
▁두꺼	-12991
▁로그	-12992
▁메타	-12993
▁미디	-12994
▁힘썼	-12995
클랜드	-12996
▁말기의	-12997
▁의원을	-12998
방울	-12999
조각	-13000
철이	-13001
홀름	-13002
▁감싸	-13003
▁날이	-13004
▁동인	-13005
▁발의	-13006
▁사토	-13007
▁쇼트	-13008
▁슈트	-13009
개월간	-13010
거리를	-13011
하기가	-13012
▁않아서	-13013
▁포르투갈의	-13014
녀가	-13015
발로	-13016
페란	-13017
▁기어	-13018
▁사슬	-13019
▁토르	-13020
우주연	-13021
▁미시시피	-13022
블리	-13023
직은	-13024
▁대북	-13025
▁문예	-13026
▁오비	-13027
▁타협	-13028
들보다	-13029
▁900	-13030
▁높이가	-13031
▁발생하여	-13032
▁위원회는	-13033
▁등장하였다	-13034
▁킨	-13035
▁스콧	-13036
청에서	-13037
호선이	-13038
▁들어올	-13039
▁서쪽은	-13040
▁자체의	-13041
▁조약이	-13042
▁체포되었다	-13043
궁을	-13044
사한	-13045
총을	-13046
편성	-13047
▁앞의	-13048
▁뉴욕의	-13049
▁심하게	-13050
▁올리는	-13051
▁중심에	-13052
▁혁명의	-13053
린을	-13054
▁간토	-13055
▁끌고	-13056
▁컴백	-13057
▁화를	-13058
▁말까지	-13059
▁클라이	-13060
▁클럽의	-13061
▁연결되는	-13062
▁쾰	-13063
나로	-13064
타니	-13065
해로	-13066
▁세조	-13067
▁청소	-13068
회의를	-13069
▁싸웠다	-13070
과학기술	-13071
▁점령했다	-13072
▁굿	-13073
▁가축	-13074
▁갖지	-13075
▁교리	-13076
▁쓰레	-13077
▁충남	-13078
▁하라	-13079
▁막부의	-13080
▁문제와	-13081
▁오로지	-13082
버리	-13083
▁SP	-13084
▁가솔	-13085
▁상응	-13086
▁연못	-13087
▁패널	-13088
▁구간의	-13089
▁긴테쓰	-13090
▁로마에	-13091
▁미래의	-13092
▁애틀랜	-13093
▁주위의	-13094
▁부드러운	-13095
▁실시하고	-13096
▁언급했다	-13097
것이	-13098
대왕	-13099
령과	-13100
▁죽게	-13101
속에서	-13102
▁나라가	-13103
▁딸이다	-13104
▁붙었다	-13105
▁스카우	-13106
▁천황이	-13107
▁이용해서	-13108
▁평안북도	-13109
액이	-13110
일자	-13111
하임	-13112
▁감금	-13113
▁맥스	-13114
▁브란	-13115
▁유벤	-13116
▁추산	-13117
▁ISO	-13118
▁부작용	-13119
▁방문하여	-13120
▁선수로서	-13121
▁시작하였으며	-13122
▁데카	-13123
▁매매	-13124
▁아담	-13125
▁치안	-13126
▁트래	-13127
▁해가	-13128
것으로	-13129
▁동쪽의	-13130
▁선생의	-13131
▁토너먼	-13132
▁가르쳤다	-13133
▁설명하고	-13134
러와	-13135
성인	-13136
운영	-13137
▁벌여	-13138
루스의	-13139
스터는	-13140
해야만	-13141
▁김옥균	-13142
▁사태가	-13143
▁의무를	-13144
▁방면으로	-13145
▁일본군의	-13146
난을	-13147
▁ID	-13148
▁늑대	-13149
▁지평	-13150
▁히타	-13151
▁소비자	-13152
▁전략을	-13153
▁정책은	-13154
▁제작을	-13155
세기에는	-13156
▁도시에서	-13157
테르부르크	-13158
봉은	-13159
▁강은	-13160
▁방침	-13161
▁장덕	-13162
▁주와	-13163
▁죽인	-13164
▁중앙위원회	-13165
수산	-13166
▁공습	-13167
▁시노	-13168
▁잔류	-13169
사단은	-13170
했음을	-13171
▁소설가	-13172
▁것입니다	-13173
▁동일하게	-13174
▁마을에서	-13175
당시	-13176
언어	-13177
▁시외	-13178
▁악기	-13179
▁진지	-13180
▁플랜	-13181
론으로	-13182
▁쿠데타	-13183
▁프란체	-13184
▁프란츠	-13185
▁닐	-13186
속은	-13187
▁비타	-13188
▁차원	-13189
▁청원	-13190
▁허브	-13191
정부가	-13192
▁장면이	-13193
▁올랐으며	-13194
군단	-13195
통은	-13196
▁검출	-13197
▁발급	-13198
▁취항	-13199
▁판정	-13200
▁향토	-13201
▁강조했다	-13202
MC	-13203
▁쉐	-13204
태를	-13205
▁결별	-13206
▁반경	-13207
▁선도	-13208
▁태극	-13209
▁이상한	-13210
▁프랑수아	-13211
채는	-13212
▁이병	-13213
▁꼽힌다	-13214
▁나폴리	-13215
▁완성된	-13216
▁거북	-13217
▁로이	-13218
▁볼로	-13219
▁사서	-13220
▁읽고	-13221
▁한스	-13222
▁모시고	-13223
▁산업의	-13224
▁점수를	-13225
▁통치를	-13226
▁엔지니어	-13227
▁(	-13228
▁AR	-13229
▁김현	-13230
▁다를	-13231
▁델라	-13232
▁조르	-13233
▁개인이	-13234
▁경쟁을	-13235
▁누구나	-13236
▁종교의	-13237
▁천문학자	-13238
▁헝가리의	-13239
ft	-13240
사리	-13241
술은	-13242
츠키	-13243
▁고소	-13244
▁정유	-13245
▁토니	-13246
▁팀과	-13247
▁파손	-13248
▁횡단	-13249
협의회	-13250
▁북쪽은	-13251
▁유로파	-13252
▁장비를	-13253
▁은퇴하였다	-13254
록을	-13255
졌기	-13256
▁키가	-13257
▁통용	-13258
▁파동	-13259
관계가	-13260
▁가격이	-13261
▁싸우는	-13262
▁영국이	-13263
▁종으로	-13264
▁발표하고	-13265
▁시대부터	-13266
결혼	-13267
▁서임	-13268
▁왼손	-13269
공으로	-13270
▁선임되었다	-13271
▁수여받았다	-13272
과가	-13273
코쿠	-13274
▁라그	-13275
▁어찌	-13276
▁윤리	-13277
▁터뜨	-13278
지었다	-13279
천으로	-13280
▁일대의	-13281
▁절차를	-13282
▁클라이언	-13283
기준	-13284
노에	-13285
리조	-13286
형제	-13287
▁견인	-13288
▁놀이	-13289
▁무척	-13290
▁캠프	-13291
▁탐색	-13292
▁피를	-13293
▁회로	-13294
-200	-13295
▁Mar	-13296
▁작성한	-13297
▁샀	-13298
더의	-13299
▁다툼	-13300
▁자칭	-13301
▁증대	-13302
▁하부	-13303
르에서	-13304
사회의	-13305
▁인간은	-13306
▁남북으로	-13307
▁부근에서	-13308
교구	-13309
자금	-13310
허가	-13311
htt	-13312
▁사범	-13313
▁이렇	-13314
▁파나	-13315
바이트	-13316
스트가	-13317
▁것이나	-13318
▁프레스	-13319
시게	-13320
초로	-13321
토벤	-13322
▁냄새	-13323
▁사관	-13324
▁지장	-13325
▁황후	-13326
▁브로드	-13327
▁행동에	-13328
▁진행되는	-13329
▁고려시대의	-13330
▁기여하였다	-13331
▁한편으로는	-13332
세다	-13333
▁연소	-13334
라에서	-13335
명에서	-13336
▁CEO	-13337
▁1870	-13338
복의	-13339
▁경로	-13340
▁넘게	-13341
▁이규	-13342
▁투항	-13343
하겠다	-13344
▁네이션	-13345
▁디비전	-13346
▁복소수	-13347
▁사용하기도	-13348
ex	-13349
사고	-13350
집은	-13351
편은	-13352
▁넷째	-13353
▁대패	-13354
▁명은	-13355
▁어쩔	-13356
▁창출	-13357
▁타자	-13358
▁포수	-13359
갔다가	-13360
차이나	-13361
▁소련이	-13362
▁조정의	-13363
▁최상위	-13364
cc	-13365
관련	-13366
리던	-13367
▁강희	-13368
▁동문	-13369
▁동학	-13370
▁80%	-13371
▁머리에	-13372
▁모두를	-13373
▁붙여진	-13374
▁지키고	-13375
▁표현이	-13376
대학교의	-13377
▁둘러싸여	-13378
▁캄보디아	-13379
MI	-13380
창은	-13381
▁검정	-13382
▁반격	-13383
▁아크	-13384
▁포장	-13385
▁다니엘	-13386
▁독일군	-13387
▁앨범에	-13388
▁열심히	-13389
▁조사에	-13390
▁공격하는	-13391
보와	-13392
인권	-13393
창한	-13394
포에	-13395
▁경에	-13396
▁농장	-13397
▁딸이	-13398
▁이완	-13399
▁제퍼	-13400
▁휴전	-13401
번으로	-13402
▁후보는	-13403
병과	-13404
폭탄	-13405
▁얼음	-13406
▁중산	-13407
▁동쪽은	-13408
▁아돌프	-13409
▁클레멘	-13410
▁투표를	-13411
▁1600	-13412
▁이용된다	-13413
▁해당된다	-13414
▁뻔	-13415
조부	-13416
토록	-13417
풀이	-13418
▁쓰촨	-13419
▁중엽	-13420
▁호칭	-13421
루에서	-13422
▁대도시	-13423
▁서울로	-13424
▁이용객	-13425
▁접근할	-13426
▁친구인	-13427
개에	-13428
차량	-13429
▁69	-13430
▁공신	-13431
▁배속	-13432
▁상인	-13433
▁이득	-13434
▁즐길	-13435
▁무함마	-13436
▁버전을	-13437
▁서울에	-13438
▁시도를	-13439
▁자랐다	-13440
▁제작에	-13441
▁함경남도	-13442
TP	-13443
▁빔	-13444
미한	-13445
▁브뤼	-13446
▁상이	-13447
▁원의	-13448
▁진도	-13449
교에서	-13450
▁각국의	-13451
▁고대의	-13452
▁올바른	-13453
▁프로레	-13454
▁선수들의	-13455
당인	-13456
▁강풍	-13457
▁경질	-13458
▁돌출	-13459
▁직할	-13460
▁미나미	-13461
▁방법에	-13462
▁가정에서	-13463
▁관해서는	-13464
▁사용되지	-13465
▁성적으로	-13466
밀히	-13467
우로	-13468
▁만성	-13469
▁이방	-13470
▁호를	-13471
심으로	-13472
▁구하는	-13473
▁논쟁이	-13474
▁미시간	-13475
대대	-13476
처는	-13477
해양	-13478
히트	-13479
▁집어	-13480
당하여	-13481
ment	-13482
▁아폴로	-13483
▁허가를	-13484
▁기념하여	-13485
▁사랑하는	-13486
발사	-13487
▁78	-13488
▁미터	-13489
▁페리	-13490
▁고문을	-13491
▁서쪽의	-13492
▁고려하여	-13493
▁늘어났다	-13494
▁일종으로	-13495
▁친일반민족행위진상규명	-13496
노와	-13497
무로	-13498
학원	-13499
화할	-13500
황의	-13501
▁초월	-13502
▁가사를	-13503
▁양자로	-13504
▁조직은	-13505
▁중의원	-13506
▁수단으로	-13507
▁이전까지	-13508
▁구성되었다	-13509
덕션	-13510
캐슬	-13511
훈을	-13512
▁민사	-13513
시간이	-13514
▁다이어	-13515
▁미치지	-13516
▁사례가	-13517
▁약속을	-13518
▁흐름을	-13519
위원회에	-13520
▁단계에서	-13521
▁시내버스	-13522
++	-13523
▁냈	-13524
▁잃게	-13525
▁한해	-13526
▁홈구	-13527
가지가	-13528
▁곡이다	-13529
▁나라에	-13530
▁앨범인	-13531
▁지키기	-13532
▁대표적으로	-13533
▁알려져있다	-13534
▁뾰	-13535
검사	-13536
_17	-13537
▁네오	-13538
▁몸의	-13539
▁무궁	-13540
▁스리	-13541
▁카나	-13542
내었다	-13543
운동이	-13544
일체유	-13545
▁나이지	-13546
▁바뀌어	-13547
▁퍼포먼	-13548
▁관계없이	-13549
▁동치이다	-13550
eb	-13551
거의	-13552
증의	-13553
▁몰수	-13554
▁전함	-13555
▁점과	-13556
터미널	-13557
▁전투의	-13558
▁킥	-13559
비뉴	-13560
빈의	-13561
웠던	-13562
전략	-13563
▁고인	-13564
▁발령	-13565
▁수양	-13566
▁입지	-13567
▁하반	-13568
▁가깝다	-13569
▁견해가	-13570
▁내용에	-13571
▁한계를	-13572
▁음반이다	-13573
▁얕	-13574
암의	-13575
함수	-13576
://	-13577
▁산림	-13578
▁수색	-13579
▁충주	-13580
년대와	-13581
▁목록이다	-13582
▁엮	-13583
▁팜	-13584
꼬리	-13585
요를	-13586
▁긴장	-13587
▁다저	-13588
▁뛰고	-13589
▁옵션	-13590
▁음원	-13591
▁전래	-13592
▁발견되지	-13593
▁사람들과	-13594
지부	-13595
▁86	-13596
▁쾰른	-13597
▁가져온	-13598
▁대단히	-13599
▁쓰시마	-13600
▁코치를	-13601
구르	-13602
진보	-13603
▁문하	-13604
▁벌금	-13605
▁어둠	-13606
▁회피	-13607
▁KIA	-13608
▁대표는	-13609
▁위주로	-13610
▁유학생	-13611
▁초창기	-13612
▁파이널	-13613
▁일본군은	-13614
▁프로젝트는	-13615
복은	-13616
용과	-13617
▁다투	-13618
▁그보다	-13619
▁메달을	-13620
▁보낸다	-13621
▁중국인	-13622
▁아라비아	-13623
▁역사에서	-13624
▁위원회의	-13625
▁체코슬로바키아	-13626
NG	-13627
롭고	-13628
▁감마	-13629
▁늦게	-13630
▁듀얼	-13631
▁상행	-13632
▁씨가	-13633
▁주자	-13634
연으로	-13635
하게도	-13636
▁국가와	-13637
▁당대의	-13638
▁부대의	-13639
▁장소로	-13640
▁캠퍼스	-13641
▁사용되며	-13642
법률	-13643
ost	-13644
▁선로	-13645
▁현행	-13646
▁휩쓸	-13647
▁헌법에	-13648
▁설일체유	-13649
▁경상남도의	-13650
▁인터페이스	-13651
▁국가대표팀에	-13652
▁싣	-13653
파르	-13654
포드	-13655
▁Bl	-13656
▁아날	-13657
▁추첨	-13658
▁피트	-13659
▁되도록	-13660
▁무대로	-13661
▁문화와	-13662
▁상처를	-13663
▁입학하여	-13664
▁오늘날에는	-13665
노프	-13666
▁GS	-13667
▁권장	-13668
▁러일	-13669
▁배구	-13670
▁병이	-13671
▁칼럼	-13672
▁포획	-13673
박물관	-13674
▁심리학	-13675
▁힘으로	-13676
▁내부에서	-13677
▁활발하게	-13678
락의	-13679
▁국어	-13680
▁다름	-13681
이었을	-13682
▁규정에	-13683
▁수학적	-13684
▁아미노	-13685
▁압도적인	-13686
▁예선에서	-13687
▁일어나지	-13688
▁SD	-13689
▁노조	-13690
▁생식	-13691
▁시바	-13692
▁에게	-13693
지에는	-13694
▁30%	-13695
▁가르침	-13696
▁공으로	-13697
▁다양체	-13698
▁말부터	-13699
▁매니저	-13700
▁저작권	-13701
▁헌법을	-13702
▁킬로미터	-13703
▁중앙아시아	-13704
맥스	-13705
ass	-13706
▁GP	-13707
▁봄에	-13708
▁스캔	-13709
▁여수	-13710
▁유연	-13711
▁이닝	-13712
▁효고	-13713
▁인류의	-13714
▁발견하고	-13715
ath	-13716
▁Op	-13717
▁만료	-13718
▁의문	-13719
▁중퇴	-13720
▁게임에	-13721
▁균형을	-13722
▁너무나	-13723
▁레인저	-13724
▁시에는	-13725
▁제시한	-13726
▁선수이며	-13727
시킴	-13728
이야	-13729
▁73	-13730
▁It	-13731
▁마츠	-13732
▁103	-13733
▁왕실의	-13734
▁대대적인	-13735
GM	-13736
브가	-13737
셨다	-13738
▁리우	-13739
▁목성	-13740
▁자책	-13741
▁지위	-13742
▁센다이	-13743
▁오르는	-13744
▁프랭크	-13745
▁혁명을	-13746
▁혐의를	-13747
▁개념으로	-13748
▁단독으로	-13749
▁브라우저	-13750
▁임명하였다	-13751
모든	-13752
연수	-13753
옆면	-13754
▁미친	-13755
▁피겨	-13756
▁위험이	-13757
▁니콜라이	-13758
▁아시안컵	-13759
▁`	-13760
암아	-13761
▁고래	-13762
▁세션	-13763
▁수축	-13764
전부터	-13765
▁바다에	-13766
▁베토벤	-13767
▁정도에	-13768
▁하도록	-13769
▁그녀에게	-13770
▁사이타마	-13771
ll	-13772
ug	-13773
가게	-13774
다를	-13775
투자	-13776
_18	-13777
▁경연	-13778
▁별이	-13779
▁의결	-13780
▁평창	-13781
▁가족과	-13782
▁디트로	-13783
▁떨어뜨	-13784
▁사헌부	-13785
▁전국적으로	-13786
▁Pr	-13787
▁겪고	-13788
▁기회	-13789
▁김포	-13790
▁상트	-13791
▁서포	-13792
▁크롬	-13793
▁투명	-13794
레이터	-13795
조참판	-13796
▁갈등이	-13797
▁보내어	-13798
▁오피스	-13799
▁잡아먹	-13800
▁축구를	-13801
▁표현은	-13802
녀의	-13803
보수	-13804
솔리	-13805
역학	-13806
염을	-13807
▁값은	-13808
▁것일	-13809
능력을	-13810
▁손해배	-13811
▁아틀레	-13812
▁파리의	-13813
▁개교	-13814
▁세기	-13815
▁춘천	-13816
▁컴퍼	-13817
▁파기	-13818
▁가수로	-13819
▁대화를	-13820
▁레바논	-13821
▁열린다	-13822
명이었다	-13823
것은	-13824
권도	-13825
▁04	-13826
▁리틀	-13827
▁바에	-13828
▁살게	-13829
▁타당	-13830
▁하시	-13831
▁슬라브	-13832
▁않아도	-13833
▁역사와	-13834
▁전국의	-13835
▁연합군은	-13836
▁받아들였다	-13837
▁이탈리아에서	-13838
견이	-13839
공파	-13840
▁내걸	-13841
▁루스	-13842
▁우측	-13843
▁우편	-13844
▁유진	-13845
▁중서	-13846
▁헤비	-13847
▁건설된	-13848
▁동영상	-13849
▁생산된	-13850
▁정의를	-13851
▁행성이	-13852
▁지원하고	-13853
▁토너먼트	-13854
좌를	-13855
net	-13856
▁면이	-13857
▁적어	-13858
▁여성을	-13859
▁위원장	-13860
▁다양하게	-13861
▁생겨났다	-13862
▁않았다는	-13863
료는	-13864
▁과반	-13865
▁박스	-13866
▁박쥐	-13867
▁결정에	-13868
▁중국은	-13869
▁황제는	-13870
▁페이스북	-13871
▁슬로바키아	-13872
디지	-13873
타고	-13874
ial	-13875
▁개그	-13876
▁김병	-13877
▁나은	-13878
▁날에	-13879
▁세금	-13880
▁얇은	-13881
▁예는	-13882
▁축조	-13883
▁흥미	-13884
만원을	-13885
자리의	-13886
▁그래미	-13887
▁빠져나	-13888
▁수도로	-13889
▁인테르	-13890
▁제출한	-13891
▁발견되어	-13892
▁플레이어가	-13893
▁가네	-13894
▁개를	-13895
▁마닐	-13896
▁명목	-13897
▁정무	-13898
당한다	-13899
선수권	-13900
지지만	-13901
▁유력한	-13902
▁정의는	-13903
▁지역구	-13904
▁상관없이	-13905
~6	-13906
▁꿀	-13907
가수	-13908
화물	-13909
▁구형	-13910
▁시즈	-13911
▁요약	-13912
▁자작	-13913
▁차를	-13914
▁일하고	-13915
▁카운티	-13916
▁한국과	-13917
▁한국을	-13918
셈부르크	-13919
▁가고시마	-13920
▁따라서는	-13921
항은	-13922
▁바꿀	-13923
▁성곽	-13924
▁유권	-13925
▁차출	-13926
▁처분	-13927
▁천재	-13928
▁포착	-13929
소이다	-13930
족으로	-13931
▁권위를	-13932
▁규정을	-13933
▁그밖에	-13934
▁대대로	-13935
▁분리된	-13936
▁시간의	-13937
▁협정을	-13938
▁1885	-13939
▁병원에서	-13940
▁체크	-13941
각형의	-13942
나라가	-13943
▁민간인	-13944
▁생산을	-13945
▁요리토	-13946
▁종래의	-13947
▁이번에는	-13948
▁증가하고	-13949
▁데서	-13950
▁춤을	-13951
대학의	-13952
부분에	-13953
▁간신히	-13954
▁받아야	-13955
▁쌍둥이	-13956
▁죽음에	-13957
▁패했다	-13958
▁연기했다	-13959
묘한	-13960
품은	-13961
ert	-13962
▁세상	-13963
▁양주	-13964
▁증후	-13965
▁카타	-13966
저기압	-13967
▁내리고	-13968
▁달라고	-13969
▁도입한	-13970
▁어렵게	-13971
▁카스티	-13972
▁기간동안	-13973
▁독자적으로	-13974
▁블라디미르	-13975
▁•	-13976
전시	-13977
_20	-13978
▁불린	-13979
▁공격수	-13980
▁와이번	-13981
척을	-13982
▁미션	-13983
▁염려	-13984
▁주사	-13985
▁터치	-13986
▁폭행	-13987
▁형인	-13988
▁각지의	-13989
▁감옥에	-13990
▁방사능	-13991
▁생긴다	-13992
▁개념이다	-13993
▁개발하고	-13994
▁게임에서	-13995
▁프로젝트의	-13996
유예	-13997
질러	-13998
▁Co	-13999
▁독창	-14000
▁번성	-14001
▁사쓰	-14002
▁실존	-14003
▁입구	-14004
조에서	-14005
▁급속히	-14006
▁세이부	-14007
▁왕가의	-14008
▁가나가와	-14009
▁시기에는	-14010
▁기록하면서	-14011
극의	-14012
무스	-14013
유사	-14014
▁가늘	-14015
▁경의	-14016
▁금성	-14017
▁맥도	-14018
▁부총	-14019
▁시정	-14020
▁진실	-14021
▁티켓	-14022
▁명확한	-14023
▁법칙을	-14024
▁상소를	-14025
▁시장의	-14026
▁형식은	-14027
IL	-14028
▁룰	-14029
도리	-14030
▁국군	-14031
▁도카이	-14032
▁아키텍	-14033
▁항공모함	-14034
▁정기적으로	-14035
더를	-14036
▁마일	-14037
▁모의	-14038
▁뾰족	-14039
▁소니	-14040
▁솟아	-14041
▁승무	-14042
서비스	-14043
월에서	-14044
▁그룹을	-14045
▁똑같이	-14046
▁여겼다	-14047
▁종류는	-14048
▁디자인은	-14049
▁에스페란	-14050
▁카를로스	-14051
▁World	-14052
감의	-14053
▁각본을	-14054
▁영역에	-14055
▁의문을	-14056
▁일리노이	-14057
▁림	-14058
세력	-14059
월호	-14060
푸스	-14061
▁당원	-14062
▁드는	-14063
▁땄다	-14064
▁소금	-14065
▁본선의	-14066
▁불규칙	-14067
▁작가의	-14068
▁부르고뉴	-14069
봉사	-14070
히게	-14071
▁SU	-14072
▁가의	-14073
▁과일	-14074
▁압력	-14075
레스의	-14076
▁계속된	-14077
▁사건과	-14078
▁스테이	-14079
▁틸	-14080
-18	-14081
ree	-14082
▁의석	-14083
▁탐구	-14084
▁팔라	-14085
▁피츠	-14086
관계에	-14087
정이다	-14088
▁작전에	-14089
▁조성된	-14090
▁로마에서	-14091
▁디트로이트	-14092
▁업그레이드	-14093
▁렉	-14094
거진	-14095
복이	-14096
워서	-14097
위안	-14098
주택	-14099
트륨	-14100
▁광둥	-14101
▁이소	-14102
▁점수	-14103
▁느끼고	-14104
▁세금을	-14105
▁손실을	-14106
▁100%	-14107
▁매끄러운	-14108
▁메커니즘	-14109
-9	-14110
강한	-14111
▁궁정	-14112
▁막는	-14113
▁성별	-14114
▁신형	-14115
▁중수	-14116
▁충전	-14117
▁피로	-14118
▁수비수	-14119
▁안전한	-14120
▁안정된	-14121
▁연합의	-14122
▁전화를	-14123
ivers	-14124
▁노르웨이의	-14125
/3	-14126
LS	-14127
사용	-14128
▁리베	-14129
▁원격	-14130
▁국민당	-14131
▁묘사한	-14132
▁시작할	-14133
▁연이어	-14134
▁우즈베	-14135
▁만들었고	-14136
정권	-14137
화점	-14138
▁뛰었다	-14139
▁모티브	-14140
▁역할은	-14141
▁컴퓨터를	-14142
▁히틀러는	-14143
▁설치하였다	-14144
▁출판되었다	-14145
▁10,000	-14146
나에	-14147
련된	-14148
천사	-14149
▁간략	-14150
▁겹쳐	-14151
▁공백	-14152
▁남원	-14153
▁찬양	-14154
▁2-0	-14155
▁길이의	-14156
▁볼셰비	-14157
▁하루에	-14158
▁바르샤바	-14159
▁82	-14160
▁우의	-14161
차례의	-14162
▁90%	-14163
▁가족의	-14164
▁데스크	-14165
▁선수의	-14166
▁예전에	-14167
▁은하의	-14168
▁정치적으로	-14169
그레	-14170
생명	-14171
작인	-14172
ick	-14173
▁글자	-14174
▁데모	-14175
▁북위	-14176
▁칼라	-14177
▁이름과	-14178
▁저항을	-14179
▁참여할	-14180
▁운영되고	-14181
ii	-14182
극을	-14183
더가	-14184
망의	-14185
신학	-14186
▁발병	-14187
▁보드	-14188
▁아세	-14189
▁이겨	-14190
▁입헌	-14191
▁종착	-14192
▁내리는	-14193
▁사라진	-14194
▁환자의	-14195
박물관에	-14196
▁늙	-14197
▁온건	-14198
해지자	-14199
▁101	-14200
▁교수를	-14201
▁끼쳤다	-14202
▁사랑에	-14203
▁순위를	-14204
▁에디션	-14205
▁충청도	-14206
▁물리치고	-14207
▁아날로그	-14208
▁소프트웨어를	-14209
▁왈	-14210
집행	-14211
▁CJ	-14212
▁급성	-14213
▁정작	-14214
▁차츰	-14215
전까지	-14216
▁목적이	-14217
▁삿포로	-14218
▁정하는	-14219
▁발전하였다	-14220
▁커뮤니케이션	-14221
▁Te	-14222
▁가옥	-14223
▁씨는	-14224
▁전지	-14225
▁115	-14226
▁별개의	-14227
▁속하며	-14228
▁체계는	-14229
▁항복을	-14230
▁협력을	-14231
▁효과는	-14232
▁후기에	-14233
▁강수량은	-14234
▁말미암아	-14235
▁베트남의	-14236
▁진행했다	-14237
▁대구광역시	-14238
수리	-14239
숙은	-14240
▁손실	-14241
▁시흥	-14242
▁미스터	-14243
▁예컨대	-14244
▁유리한	-14245
▁자유형	-14246
▁판매를	-14247
▁것이므로	-14248
디와	-14249
료가	-14250
루아	-14251
out	-14252
▁고쿠	-14253
▁모나	-14254
▁산이	-14255
▁절차	-14256
▁출석	-14257
각으로	-14258
▁따뜻한	-14259
▁별명이	-14260
▁아이가	-14261
▁유지할	-14262
▁제국과	-14263
▁유지하기	-14264
▁프로세서	-14265
양성	-14266
테는	-14267
▁국영	-14268
▁마하	-14269
▁면적	-14270
▁면제	-14271
▁제대	-14272
▁환자	-14273
년이다	-14274
▁350	-14275
▁교통의	-14276
▁부근의	-14277
▁주제를	-14278
▁처분을	-14279
▁흥미를	-14280
아일랜드	-14281
▁시작하고	-14282
▁추구하는	-14283
▁해당되는	-14284
:2	-14285
▁EU	-14286
▁광장	-14287
▁요충	-14288
▁종군	-14289
▁젊은이	-14290
▁정리한	-14291
▁수행한다	-14292
▁영화에서	-14293
▁흠	-14294
메다	-14295
심과	-14296
▁공수	-14297
▁막시	-14298
▁무지	-14299
▁불참	-14300
▁빠졌다	-14301
▁생명을	-14302
▁안티오	-14303
▁조직에	-14304
도바	-14305
유키	-14306
▁다듬	-14307
▁에밀	-14308
▁평평	-14309
쪽에는	-14310
▁가솔린	-14311
▁미군의	-14312
▁방안을	-14313
▁시즌은	-14314
▁쓰여진	-14315
▁이론이	-14316
▁회사인	-14317
IG	-14318
운은	-14319
▁공과	-14320
▁기고	-14321
▁대마	-14322
▁정인	-14323
▁현금	-14324
위까지	-14325
▁교회는	-14326
▁동유럽	-14327
▁비주얼	-14328
▁전통적	-14329
▁중국을	-14330
▁서식하는	-14331
▁카자흐스탄	-14332
기둥	-14333
루로	-14334
배에	-14335
평의	-14336
▁81	-14337
▁97	-14338
▁상급	-14339
▁선동	-14340
▁앞선	-14341
▁의약	-14342
▁독일인	-14343
▁마리의	-14344
▁의지를	-14345
날레	-14346
▁새긴	-14347
▁실재	-14348
▁칼뱅	-14349
▁타구	-14350
년도에	-14351
▁노르망	-14352
▁전기의	-14353
▁텔레비	-14354
▁함대를	-14355
▁1889	-14356
문자	-14357
암이	-14358
양에	-14359
ica	-14360
▁보성	-14361
▁수락	-14362
▁워터	-14363
식이다	-14364
▁New	-14365
▁수사를	-14366
▁보존되어	-14367
▁사용되어	-14368
▁여겨지고	-14369
▁원인으로	-14370
▁진행하는	-14371
pe	-14372
보르	-14373
사도	-14374
파크	-14375
▁메뉴	-14376
대회를	-14377
▁가상의	-14378
▁가져다	-14379
▁그래도	-14380
▁되어야	-14381
▁믿었다	-14382
▁장소에	-14383
▁코스타	-14384
▁못했지만	-14385
▁후지와라노	-14386
거가	-14387
님은	-14388
안과	-14389
정상	-14390
▁개항	-14391
▁묶어	-14392
▁부합	-14393
▁정몽	-14394
▁학원	-14395
▁영향력이	-14396
▁있어서의	-14397
▁룩셈부르크	-14398
▁슛	-14399
르다	-14400
리얼	-14401
토로	-14402
▁74	-14403
▁모색	-14404
▁원조	-14405
▁자결	-14406
▁좌측	-14407
▁치루	-14408
▁검찰은	-14409
▁곳곳에	-14410
▁드러머	-14411
▁사쿠라	-14412
킬로미터	-14413
▁지배하는	-14414
공과	-14415
등은	-14416
코를	-14417
iss	-14418
▁느린	-14419
▁마인	-14420
▁소셜	-14421
▁열을	-14422
집으로	-14423
▁5.1	-14424
▁명확히	-14425
▁시신은	-14426
▁질량을	-14427
▁프란치	-14428
▁허리케인	-14429
만인	-14430
무의	-14431
클로	-14432
▁79	-14433
▁더글	-14434
▁온대	-14435
▁작아	-14436
▁구단은	-14437
▁부인은	-14438
▁생겨난	-14439
▁안타를	-14440
▁영어를	-14441
▁전자의	-14442
▁주도한	-14443
EG	-14444
기자	-14445
불이	-14446
▁가오	-14447
▁격추	-14448
▁생체	-14449
▁짧고	-14450
▁항쟁	-14451
르트는	-14452
▁놀라운	-14453
▁쓰기도	-14454
▁연구와	-14455
▁왔으며	-14456
▁체제가	-14457
▁대항하여	-14458
,5	-14459
티가	-14460
ary	-14461
▁al	-14462
▁단식	-14463
▁로맨	-14464
▁맞대	-14465
▁부재	-14466
▁사리	-14467
▁전전	-14468
▁현종	-14469
▁교회에	-14470
▁논쟁을	-14471
▁무리를	-14472
▁분석을	-14473
▁정하고	-14474
▁안토니오	-14475
▁$	-14476
독한	-14477
손의	-14478
올라	-14479
위기	-14480
히메	-14481
▁경작	-14482
▁바꿨	-14483
▁유산	-14484
▁게릴라	-14485
▁별자리	-14486
▁전당에	-14487
▁제한된	-14488
▁지나는	-14489
▁만들어져	-14490
▁변경했다	-14491
▁패하였다	-14492
CC	-14493
관인	-14494
민과	-14495
상도	-14496
헤이	-14497
rom	-14498
▁CR	-14499
▁가구	-14500
▁가신	-14501
▁도미	-14502
▁방치	-14503
▁최성	-14504
▁터보	-14505
사에게	-14506
▁줄무늬	-14507
▁질문에	-14508
받았으며	-14509
▁몸길이는	-14510
▁생각하자	-14511
▁낫	-14512
바퀴	-14513
산성	-14514
▁기기	-14515
▁나를	-14516
▁봉기	-14517
▁전수	-14518
▁헬리	-14519
▁개인적	-14520
▁국립공	-14521
▁뉴저지	-14522
▁동등한	-14523
▁우려가	-14524
▁흐르고	-14525
▁발렌시아	-14526
▁핀란드의	-14527
▁으	-14528
러브	-14529
바람	-14530
창이	-14531
▁그저	-14532
▁사모	-14533
▁서경	-14534
▁소나	-14535
▁풍속	-14536
리스는	-14537
▁본사는	-14538
▁트로이	-14539
▁팬들의	-14540
▁내용이다	-14541
▁박사학위를	-14542
지리	-14543
old	-14544
ont	-14545
▁서태	-14546
▁승점	-14547
팀으로	-14548
▁사이로	-14549
▁위치가	-14550
▁적었다	-14551
▁1848	-14552
▁실시했다	-14553
▁친일반민족행위진상규명위원회가	-14554
ox	-14555
국적	-14556
등과	-14557
▁가맹	-14558
▁검거	-14559
▁경희	-14560
▁퇴적	-14561
▁풍자	-14562
▁했기	-14563
어머니	-14564
▁어느날	-14565
▁들어왔다	-14566
▁영국으로	-14567
제곱	-14568
▁굵은	-14569
▁이빨	-14570
▁징병	-14571
▁회화	-14572
시켜야	-14573
▁낳는다	-14574
▁방향에	-14575
▁일요일	-14576
▁1882	-14577
규는	-14578
act	-14579
▁la	-14580
▁글래	-14581
▁수성	-14582
▁오류	-14583
▁편지	-14584
▁피오	-14585
연대는	-14586
자리는	-14587
▁못했던	-14588
▁유럽과	-14589
▁할리우	-14590
천과	-14591
▁개헌	-14592
▁저격	-14593
▁철폐	-14594
▁헌정	-14595
▁협동	-14596
▁등에게	-14597
▁클럽은	-14598
▁흩어져	-14599
▁이승만은	-14600
▁에티오피아	-14601
▁해체되었다	-14602
궁에	-14603
▁FM	-14604
▁것의	-14605
▁기와	-14606
▁부도	-14607
▁황해	-14608
▁기리기	-14609
▁신앙을	-14610
▁크라이	-14611
▁파운드	-14612
▁독일군의	-14613
▁주민들의	-14614
▁민족문제연구소의	-14615
</	-14616
▁쿤	-14617
끄러	-14618
예가	-14619
출판	-14620
▁71	-14621
▁84	-14622
▁다윈	-14623
▁워크	-14624
▁인과	-14625
▁가족을	-14626
▁달러에	-14627
▁도미니	-14628
▁시신을	-14629
▁청동기	-14630
▁NASA	-14631
▁내에서는	-14632
▁우승했다	-14633
▁컴퓨터의	-14634
ix	-14635
되나	-14636
오자	-14637
우옌	-14638
▁달걀	-14639
▁오노	-14640
▁정서	-14641
▁지극	-14642
▁MTV	-14643
▁건축가	-14644
▁명이다	-14645
▁체제로	-14646
▁간격으로	-14647
▁귀국하여	-14648
▁전까지는	-14649
▁캐릭터를	-14650
▁아일랜드의	-14651
버의	-14652
오게	-14653
행동	-14654
▁김원	-14655
▁신조	-14656
▁넘어서	-14657
▁라이언	-14658
▁작전은	-14659
덴부르크	-14660
믹스	-14661
충은	-14662
▁누적	-14663
▁우회	-14664
라이터	-14665
▁강화를	-14666
▁공격은	-14667
▁치러진	-14668
▁등장인물	-14669
▁무대에서	-14670
▁오케스트	-14671
티즌	-14672
▁가자	-14673
▁거점	-14674
▁소극	-14675
▁시트	-14676
▁싶다	-14677
▁옮긴	-14678
▁원숭	-14679
승으로	-14680
▁단체의	-14681
▁승리에	-14682
▁정상에	-14683
년대까지	-14684
▁건물이다	-14685
OU	-14686
슨을	-14687
전차	-14688
종에	-14689
▁많지	-14690
▁전복	-14691
▁주조	-14692
스키의	-14693
키아의	-14694
▁남았다	-14695
▁대전의	-14696
▁생각한	-14697
▁건축물이다	-14698
DS	-14699
▁찔	-14700
불의	-14701
▁씨앗	-14702
▁진을	-14703
가능한	-14704
위이다	-14705
▁보고서	-14706
▁지닌다	-14707
▁담당한다	-14708
▁뿐이었다	-14709
뤘다	-14710
해석	-14711
▁대역	-14712
▁이송	-14713
▁입수	-14714
▁축성	-14715
▁경기로	-14716
▁공간에	-14717
▁기반한	-14718
▁다음을	-14719
▁대기업	-14720
▁대사헌	-14721
▁박영효	-14722
▁불안정	-14723
▁활약으로	-14724
▁제주특별자치	-14725
▁콰	-14726
갈색	-14727
방과	-14728
▁구와	-14729
▁입주	-14730
▁하원	-14731
대통령	-14732
물리학	-14733
▁사거리	-14734
▁회원국	-14735
음으로써	-14736
네를	-14737
▁대부	-14738
▁모호	-14739
▁사의	-14740
▁하행	-14741
▁해변	-14742
가지로	-14743
그라드	-14744
층에서	-14745
▁구하기	-14746
▁목성의	-14747
▁본사를	-14748
▁원리를	-14749
▁일반화	-14750
▁파라과	-14751
▁아직까지	-14752
▁프로듀싱	-14753
▁벵	-14754
승지	-14755
▁군부	-14756
▁그루	-14757
▁서적	-14758
▁등판해	-14759
▁부드럽	-14760
▁차례에	-14761
▁한다면	-14762
▁프랑스로	-14763
▁형성되었다	-14764
▁지정되었다가	-14765
추진	-14766
▁규탄	-14767
▁메릴	-14768
▁시속	-14769
▁위촉	-14770
▁일간	-14771
▁헌신	-14772
▁종로구	-14773
▁중성자	-14774
▁밝혀지지	-14775
▁이스라엘의	-14776
포구	-14777
_19	-14778
▁그랜	-14779
▁동력	-14780
▁입양	-14781
▁쪽에	-14782
▁카트	-14783
▁피의	-14784
▁성향의	-14785
▁지붕은	-14786
세기까지	-14787
▁대한민국을	-14788
▁성장하였다	-14789
MP	-14790
어인	-14791
호텔	-14792
▁니코	-14793
▁바나	-14794
▁뱅크	-14795
▁얘기	-14796
▁영동	-14797
그리스	-14798
▁비교해	-14799
▁비중이	-14800
▁성향을	-14801
▁전하고	-14802
▁주민의	-14803
▁평론가	-14804
▁강조하는	-14805
▁그레이트	-14806
▁아케이드	-14807
▁여객철도	-14808
▁존재했던	-14809
위성	-14810
황은	-14811
▁DC	-14812
▁계수	-14813
▁매수	-14814
▁면허	-14815
▁사탕	-14816
▁유목	-14817
▁표본	-14818
▁현급	-14819
개국이	-14820
▁거두며	-14821
▁교회가	-14822
▁나이는	-14823
▁원칙을	-14824
▁침공을	-14825
▁캔자스	-14826
▁게임으로	-14827
▁국무총리	-14828
▁뉴욕에서	-14829
대구	-14830
락은	-14831
유지	-14832
▁광학	-14833
▁리오	-14834
▁이고	-14835
▁이범	-14836
▁저하	-14837
▁주오	-14838
▁죽기	-14839
트레이	-14840
▁전신인	-14841
▁참석한	-14842
▁천문학	-14843
▁해안에	-14844
▁활동하던	-14845
▁진행하였다	-14846
▁팔레스타인	-14847
▁낚	-14848
린과	-14849
아스	-14850
유와	-14851
▁감수	-14852
▁고령	-14853
▁리뷰	-14854
▁자제	-14855
ence	-14856
▁상에서	-14857
▁체제의	-14858
▁발표하여	-14859
▁후계자로	-14860
!》	-14861
바가	-14862
약이	-14863
지않	-14864
▁Ex	-14865
▁다비	-14866
▁달고	-14867
▁상담	-14868
▁수교	-14869
▁피할	-14870
▁GDP	-14871
▁주연을	-14872
▁혁명이	-14873
▁파견하여	-14874
스레	-14875
케는	-14876
▁국한	-14877
▁박지	-14878
▁상표	-14879
▁석회	-14880
▁해독	-14881
▁그림은	-14882
▁마르세	-14883
▁스위스의	-14884
▁전반적인	-14885
▁남쪽으로는	-14886
라트	-14887
약의	-14888
요의	-14889
정지	-14890
죄로	-14891
코딩	-14892
▁느낄	-14893
▁미스	-14894
▁장제	-14895
▁지수	-14896
▁예술가	-14897
▁의회에	-14898
▁출판된	-14899
▁사용하게	-14900
름의	-14901
히지	-14902
▁압록	-14903
▁자란	-14904
사들은	-14905
▁반응이	-14906
▁병력이	-14907
▁지시를	-14908
▁토요일	-14909
▁모습이다	-14910
▁아무것도	-14911
▁움직임이	-14912
▁콜로라도	-14913
▁쿠데타를	-14914
▁조선로동당	-14915
,0	-14916
OD	-14917
근을	-14918
▁수녀	-14919
▁저널	-14920
▁총칭	-14921
▁통보	-14922
르트의	-14923
▁비례대표	-14924
벌레	-14925
초는	-14926
출력	-14927
▁도마	-14928
▁라오	-14929
▁부파	-14930
▁카시	-14931
▁파산	-14932
▁강의를	-14933
▁모른다	-14934
▁자기가	-14935
▁하겠다	-14936
▁1883	-14937
▁이탈리아는	-14938
기계	-14939
망에	-14940
▁고산	-14941
▁누이	-14942
▁보라	-14943
▁보복	-14944
▁이회	-14945
▁Man	-14946
▁반응은	-14947
▁서로의	-14948
▁아라곤	-14949
▁죽음의	-14950
▁플래시	-14951
▁학생이	-14952
▁한사람	-14953
▁은퇴했다	-14954
길에	-14955
니코	-14956
막이	-14957
트넘	-14958
▁갑옷	-14959
▁스킴	-14960
▁오크	-14961
▁조인	-14962
▁최후	-14963
▁취업	-14964
▁카우	-14965
▁혐의	-14966
스터의	-14967
▁걸쳐서	-14968
▁그룹이	-14969
▁대륙의	-14970
▁영업을	-14971
▁인간과	-14972
▁장치가	-14973
▁철저히	-14974
▁관리하고	-14975
▁승리했다	-14976
▁의회에서	-14977
소인	-14978
▁러셀	-14979
▁맡는	-14980
▁산을	-14981
▁송신	-14982
▁치른	-14983
갔으나	-14984
테이너	-14985
▁따르고	-14986
▁블루스	-14987
▁스포르	-14988
▁정리에	-14989
국대학교	-14990
▁사용자의	-14991
▁안정적인	-14992
▁어머니를	-14993
매치	-14994
세손	-14995
업체	-14996
청과	-14997
히데	-14998
▁기뻐	-14999
▁정성	-15000
▁집정	-15001
▁퇴장	-15002
▁레스토	-15003
▁미루어	-15004
▁성적이	-15005
▁제도에	-15006
▁중앙의	-15007
▁도쿄에서	-15008
▁독립적으로	-15009
▁튼	-15010
』,	-15011
그가	-15012
스페	-15013
▁Su	-15014
▁각색	-15015
▁중공	-15016
▁체인	-15017
▁회상	-15018
▁계속되는	-15019
▁드라이브	-15020
▁버전으로	-15021
▁비판하는	-15022
▁사용되기도	-15023
▁크리스티안	-15024
▁뷔	-15025
항이	-15026
ile	-15027
▁기수	-15028
▁대행	-15029
▁살라	-15030
▁접수	-15031
▁갈리아	-15032
▁규칙을	-15033
▁생전에	-15034
▁신학자	-15035
▁살아있는	-15036
▁설립하여	-15037
미스	-15038
변속	-15039
승이	-15040
월을	-15041
트루	-15042
▁공방	-15043
▁요인	-15044
▁유비	-15045
▁잦은	-15046
▁총장	-15047
우스와	-15048
▁가라앉	-15049
▁작성된	-15050
▁없었으며	-15051
▁완벽하게	-15052
▁이승만의	-15053
▁통합하여	-15054
랑은	-15055
티를	-15056
부리그	-15057
억원을	-15058
▁도로를	-15059
▁로스쿨	-15060
▁명령에	-15061
▁비중을	-15062
▁장점이	-15063
하였으므로	-15064
▁수록되었다	-15065
▁쥬	-15066
개씩	-15067
니치	-15068
질에	-15069
▁글루	-15070
▁기저	-15071
▁넣는	-15072
▁번영	-15073
단이다	-15074
▁구성은	-15075
▁근거가	-15076
▁문서는	-15077
▁사형을	-15078
▁세우는	-15079
▁중심지로	-15080
▁지역에는	-15081
▁프로레슬링	-15082
▁앗	-15083
▁급히	-15084
▁높여	-15085
▁대명	-15086
▁서원	-15087
▁쌍대	-15088
▁음향	-15089
▁집회	-15090
▁짓는	-15091
▁처럼	-15092
▁싱어송	-15093
▁예선에	-15094
▁주었고	-15095
▁대한항공	-15096
▁실시하는	-15097
▁굶	-15098
치히	-15099
▁나갈	-15100
▁동정	-15101
▁이이	-15102
▁조세	-15103
▁주입	-15104
▁코호	-15105
▁휴식	-15106
▁것과는	-15107
▁경로를	-15108
▁동로마	-15109
▁이기고	-15110
▁제목은	-15111
들이었다	-15112
▁거리에서	-15113
▁운행하고	-15114
▁의미이다	-15115
페테르부르크	-15116
▁엇	-15117
배의	-15118
ase	-15119
▁LA	-15120
▁산에	-15121
▁찍은	-15122
▁가리켜	-15123
▁노래가	-15124
▁도덕적	-15125
▁두개의	-15126
▁자료에	-15127
▁부족으로	-15128
▁붙여졌다	-15129
▁스톡홀름	-15130
▁전해지는	-15131
▁오케스트라	-15132
달마	-15133
▁공성	-15134
▁이븐	-15135
▁제임	-15136
▁촉매	-15137
▁침묵	-15138
▁콩고	-15139
으려는	-15140
▁새끼를	-15141
▁자원을	-15142
른베르크	-15143
▁도카이도	-15144
▁유지했다	-15145
sh	-15146
통과	-15147
훈이	-15148
▁김유	-15149
▁노이	-15150
▁문과	-15151
▁수령	-15152
▁신입	-15153
르타뉴	-15154
▁API	-15155
▁기술적	-15156
▁기업이	-15157
▁원소의	-15158
▁유닉스	-15159
▁패배한	-15160
▁것이지만	-15161
▁구마모토	-15162
▁출발하여	-15163
로우	-15164
태는	-15165
▁대영	-15166
▁보강	-15167
▁이양	-15168
놓았다	-15169
클리드	-15170
헝가리	-15171
▁기법을	-15172
▁모았다	-15173
▁제한을	-15174
▁행하는	-15175
▁러시아와	-15176
▁합류했다	-15177
RE	-15178
az	-15179
▁옌	-15180
내려	-15181
▁가산	-15182
▁낮다	-15183
▁대각	-15184
▁모범	-15185
▁상공	-15186
▁생겼	-15187
▁생일	-15188
▁스태	-15189
▁캐서	-15190
▁호족	-15191
바이잔	-15192
지라도	-15193
▁공격이	-15194
▁그렸다	-15195
▁맞았다	-15196
▁선언을	-15197
▁조조는	-15198
▁대규모의	-15199
▁받았는데	-15200
▁형성하는	-15201
당할	-15202
례로	-15203
망은	-15204
심에	-15205
▁낙하	-15206
▁번은	-15207
▁팔아	-15208
루시아	-15209
▁뉴캐슬	-15210
▁무솔리	-15211
▁요구에	-15212
기갑	-15213
부아	-15214
선형	-15215
▁is	-15216
▁모자	-15217
▁부시	-15218
▁사영	-15219
▁잠깐	-15220
▁폭이	-15221
연구원	-15222
▁LED	-15223
▁끌어들	-15224
▁단어가	-15225
▁에서는	-15226
▁결승전에	-15227
▁영역에서	-15228
▁전해지고	-15229
▁만들어진다	-15230
▁케임브리지	-15231
nt	-15232
선생	-15233
▁공존	-15234
▁동위	-15235
▁미들	-15236
▁배수	-15237
▁압둘	-15238
▁자산	-15239
▁천천	-15240
대에는	-15241
▁검은색	-15242
▁기준이	-15243
▁사상의	-15244
▁성적은	-15245
▁유럽에	-15246
광이	-15247
하길	-15248
▁가중	-15249
▁더빙	-15250
▁숨을	-15251
▁제프	-15252
▁조롱	-15253
▁칼로	-15254
▁헬레	-15255
▁기관이	-15256
▁생성된	-15257
▁시장이	-15258
▁쌓았다	-15259
▁양식의	-15260
▁원정을	-15261
▁전략적	-15262
적이라고	-15263
▁작품에서	-15264
▁한국철도	-15265
▁예정이었으나	-15266
▁랴	-15267
▁탤	-15268
▁NT	-15269
▁드레	-15270
▁쪽은	-15271
되어서	-15272
선이다	-15273
▁강하다	-15274
▁블레이	-15275
▁성매매	-15276
▁유형의	-15277
국제공항	-15278
▁멕시코의	-15279
▁효과적인	-15280
▁실시되었다	-15281
▁△	-15282
광은	-15283
커를	-15284
▁관동	-15285
▁다테	-15286
▁딸과	-15287
▁라마	-15288
▁모른	-15289
▁보낼	-15290
▁스칸	-15291
▁승용	-15292
▁이르게	-15293
▁올림피아	-15294
부르	-15295
순의	-15296
철학	-15297
펜하	-15298
▁경복	-15299
▁복용	-15300
▁전락	-15301
▁가깝게	-15302
▁수업을	-15303
▁조반니	-15304
▁지역인	-15305
▁평가가	-15306
▁가톨릭교	-15307
제르바이잔	-15308
▁선행	-15309
▁아야	-15310
▁허리	-15311
▁휘말	-15312
쳤으나	-15313
화하기	-15314
▁감독과	-15315
▁모르고	-15316
▁사랑의	-15317
▁상태는	-15318
▁작업은	-15319
▁철학적	-15320
▁필리프	-15321
고등법원	-15322
▁가르침을	-15323
▁국내에서	-15324
▁반대하였다	-15325
기며	-15326
처가	-15327
▁갤러	-15328
▁재상	-15329
▁정전	-15330
▁리그로	-15331
▁수용할	-15332
▁왕국이	-15333
▁행위는	-15334
▁극장에서	-15335
▁나타나지	-15336
▁브르타뉴	-15337
▁천연기념	-15338
▁개발하였다	-15339
▁동쪽으로는	-15340
▁요구하였다	-15341
▁활동하다가	-15342
ee	-15343
▁갚	-15344
~10	-15345
▁간첩	-15346
▁그외	-15347
▁밀리	-15348
▁평의	-15349
▁한큐	-15350
▁3.5	-15351
▁각자의	-15352
▁발달한	-15353
▁비롯된	-15354
▁순으로	-15355
▁않다고	-15356
▁않다는	-15357
▁친구가	-15358
▁어머니와	-15359
▁1,500	-15360
▁인터내셔널	-15361
느러	-15362
테크	-15363
하루	-15364
▁92	-15365
▁양육	-15366
▁파직	-15367
▁70%	-15368
▁과도한	-15369
▁로마로	-15370
▁밖에서	-15371
▁음악과	-15372
▁중심을	-15373
권에서는	-15374
하더라도	-15375
▁없으므로	-15376
▁북쪽으로는	-15377
처의	-15378
▁도래	-15379
는다는	-15380
번이나	-15381
였다는	-15382
▁그것의	-15383
▁목소리	-15384
시키는데	-15385
▁근본적인	-15386
▁불과하다	-15387
▁아르헨티나의	-15388
OV	-15389
건축	-15390
두의	-15391
인당	-15392
▁결핵	-15393
▁무작	-15394
▁일기	-15395
▁질문	-15396
▁원나라	-15397
▁전쟁과	-15398
▁시리즈에	-15399
▁맘	-15400
송을	-15401
평군	-15402
현실	-15403
▁CN	-15404
▁몰두	-15405
▁예고	-15406
▁이건	-15407
▁폭풍	-15408
▁황도	-15409
겠지만	-15410
▁교육에	-15411
▁마르코	-15412
▁목록에	-15413
▁철저한	-15414
▁카리브	-15415
▁시작되었고	-15416
▁찢	-15417
공연	-15418
드릭	-15419
방정	-15420
.4%	-15421
▁간선	-15422
▁고사	-15423
▁원통	-15424
▁접한	-15425
▁혼동	-15426
▁온도는	-15427
▁주파수	-15428
▁옥스퍼드	-15429
▁서쪽으로는	-15430
▁스코틀랜드의	-15431
머가	-15432
분열	-15433
살에	-15434
서인	-15435
손이	-15436
▁드리	-15437
▁불변	-15438
▁비영	-15439
▁지는	-15440
대학을	-15441
▁경제는	-15442
▁교사로	-15443
▁대학은	-15444
▁반란이	-15445
▁인증을	-15446
▁문신이다	-15447
▁스타일을	-15448
▁프랑스를	-15449
▁프란체스코	-15450
유적	-15451
▁농산	-15452
▁베른	-15453
▁자아	-15454
▁전격	-15455
▁정자	-15456
▁좌의	-15457
▁모니터	-15458
▁시대는	-15459
▁회사에	-15460
▁들어가게	-15461
▁시즌에서	-15462
▁알래스카	-15463
▁이용하고	-15464
▁출전하지	-15465
분한	-15466
애틀	-15467
▁83	-15468
▁NG	-15469
▁국외	-15470
▁도네	-15471
▁섬과	-15472
▁치세	-15473
선거구	-15474
▁공군의	-15475
▁소식이	-15476
▁스피드	-15477
지역에서	-15478
▁공장에서	-15479
▁예전에는	-15480
ey	-15481
슬레	-15482
있어	-15483
▁거제	-15484
▁기인	-15485
▁놓인	-15486
▁상연	-15487
▁서인	-15488
▁요격	-15489
▁추서	-15490
▁치는	-15491
▁탈취	-15492
좌상은	-15493
▁가지지	-15494
▁마라톤	-15495
▁마을이	-15496
▁받았던	-15497
▁알파벳	-15498
▁암호화	-15499
”,	-15500
단지	-15501
▁상소	-15502
▁우파	-15503
▁장미	-15504
▁대표를	-15505
▁생활에	-15506
▁자세를	-15507
▁집합을	-15508
▁소속이다	-15509
위원회에서	-15510
양과	-15511
탄은	-15512
_21	-15513
▁선봉	-15514
▁시립	-15515
▁유라	-15516
당했고	-15517
사로서	-15518
▁대표가	-15519
▁북한이	-15520
▁뿌리를	-15521
▁소나무	-15522
▁정보는	-15523
▁코호몰	-15524
▁작용하는	-15525
▁프로덕션	-15526
말의	-15527
시경	-15528
요는	-15529
질과	-15530
▁DF	-15531
▁보자	-15532
▁원더	-15533
▁유의	-15534
▁테르	-15535
▁포드	-15536
▁거뒀다	-15537
▁맡기도	-15538
▁안되는	-15539
▁황제를	-15540
▁간주된다	-15541
▁새누리당	-15542
▁없었지만	-15543
▁출연하여	-15544
▁알렉산드르	-15545
동원	-15546
▁AN	-15547
▁성명	-15548
▁온천	-15549
▁재차	-15550
▁프롤	-15551
▁대중의	-15552
▁부르게	-15553
▁여지가	-15554
▁영원히	-15555
▁운행이	-15556
▁참가할	-15557
▁천황은	-15558
기관으로	-15559
▁독일군은	-15560
▁스트리트	-15561
▁중요하게	-15562
미즈	-15563
보국	-15564
오에	-15565
▁맛이	-15566
▁자서	-15567
▁장이	-15568
▁점거	-15569
▁키는	-15570
▁투르	-15571
▁내각의	-15572
▁되므로	-15573
▁분야를	-15574
과정에서	-15575
▁출신이며	-15576
조리	-15577
▁에콰	-15578
▁여우	-15579
▁온다	-15580
달라는	-15581
학과에	-15582
▁공격할	-15583
▁노란색	-15584
▁느끼게	-15585
▁병사를	-15586
▁부모의	-15587
▁존재로	-15588
▁챙	-15589
네시	-15590
박을	-15591
승은	-15592
요가	-15593
절로	-15594
체계	-15595
▁간이	-15596
▁격려	-15597
▁면을	-15598
▁미륵	-15599
▁양측	-15600
▁질환	-15601
▁총을	-15602
▁후배	-15603
나에서	-15604
리기도	-15605
▁광고를	-15606
▁문화는	-15607
▁사항을	-15608
▁음악이	-15609
▁관련되어	-15610
▁노선으로	-15611
▁여겨졌다	-15612
▁종료되었다	-15613
▁효율적으로	-15614
사범	-15615
줄기	-15616
▁Am	-15617
▁로얄	-15618
▁배운	-15619
▁볼프	-15620
▁장인	-15621
▁증폭	-15622
▁필드	-15623
단에는	-15624
작이다	-15625
▁III	-15626
▁결혼한	-15627
▁단계에	-15628
▁멤버가	-15629
▁시청률	-15630
▁지위에	-15631
삼국사기	-15632
▁보호하는	-15633
▁살아남은	-15634
▁살펴보면	-15635
개미	-15636
기하	-15637
슈퍼	-15638
▁답변	-15639
▁로버	-15640
▁사바	-15641
▁우드	-15642
▁적게	-15643
▁채취	-15644
비치는	-15645
스라는	-15646
▁Mus	-15647
▁경제를	-15648
▁사단은	-15649
▁주장도	-15650
▁책에서	-15651
▁최연소	-15652
이었다는	-15653
▁공헌하였다	-15654
▁상트페테르부르크	-15655
림과	-15656
서원	-15657
재단	-15658
▁레온	-15659
▁자크	-15660
▁하니	-15661
▁국적을	-15662
▁기관총	-15663
▁전투로	-15664
▁정책의	-15665
▁거치면서	-15666
▁수행했다	-15667
▁통과하는	-15668
▁강철	-15669
▁식당	-15670
▁작다	-15671
▁표지	-15672
조사를	-15673
▁계획의	-15674
▁규모를	-15675
▁반정부	-15676
▁의원의	-15677
▁장소를	-15678
▁플라이	-15679
▁콘서트를	-15680
▁거절하였다	-15681
▁줄어들었다	-15682
▁스튜디오에서	-15683
▁》	-15684
-14	-15685
ach	-15686
▁강대	-15687
▁경시	-15688
▁과장	-15689
▁목판	-15690
▁보증	-15691
▁콜린	-15692
중으로	-15693
▁가격은	-15694
▁가문을	-15695
▁가문이	-15696
▁거리의	-15697
▁연주를	-15698
▁장기간	-15699
▁항성의	-15700
▁헤이안	-15701
▁심지어는	-15702
▁일으킨다	-15703
oh	-15704
▁헛	-15705
▁경과	-15706
▁데스	-15707
▁시합	-15708
▁신민	-15709
▁함흥	-15710
▁협정	-15711
▁방어를	-15712
시키면서	-15713
▁가수이다	-15714
▁후반부터	-15715
원자	-15716
초가	-15717
.3%	-15718
▁자켓	-15719
▁장사	-15720
▁컸다	-15721
두었다	-15722
▁도르트	-15723
▁컴퓨팅	-15724
▁무시하고	-15725
재와	-15726
칼리	-15727
▁대안	-15728
▁리바	-15729
▁맞춘	-15730
▁복권	-15731
▁악의	-15732
▁우세	-15733
▁이태	-15734
▁조형	-15735
년경에	-15736
지거나	-15737
▁천천히	-15738
▁물리학자	-15739
▁정상적인	-15740
▁대체되었다	-15741
.)	-15742
절에	-15743
타우	-15744
턴이	-15745
▁반전	-15746
▁연한	-15747
▁읽는	-15748
▁허블	-15749
▁가로지	-15750
▁기대를	-15751
▁사실에	-15752
▁일본국	-15753
▁중요시	-15754
▁히틀러	-15755
▁공화국이	-15756
▁옮겨졌다	-15757
▁전반적으로	-15758
6,	-15759
▁촛	-15760
순이	-15761
▁Sc	-15762
▁부당	-15763
▁오로	-15764
▁인명	-15765
▁전이	-15766
▁측이	-15767
▁콜라	-15768
▁공로를	-15769
▁산업은	-15770
▁신화의	-15771
▁원소는	-15772
▁훈장을	-15773
▁스크린도	-15774
▁익스플로	-15775
사유	-15776
쿠니	-15777
.6%	-15778
▁CC	-15779
▁vs	-15780
▁벽돌	-15781
▁불행	-15782
▁연인	-15783
▁은신	-15784
▁토끼	-15785
▁표를	-15786
▁헬싱	-15787
들처럼	-15788
순위로	-15789
슈타인	-15790
▁마오쩌	-15791
▁주머니	-15792
▁진행을	-15793
▁측에서	-15794
▁해에는	-15795
▁서울중앙	-15796
▁시즌부터	-15797
▁아이들을	-15798
디로	-15799
어리	-15800
잡이	-15801
장로	-15802
▁CM	-15803
▁구한	-15804
▁평택	-15805
리아와	-15806
▁검사를	-15807
▁공세를	-15808
▁극장판	-15809
▁단체인	-15810
▁박사는	-15811
▁소유한	-15812
▁의사소	-15813
▁명령했다	-15814
지던	-15815
통치	-15816
-09	-15817
▁반포	-15818
▁불분	-15819
▁잠정	-15820
▁남자가	-15821
▁방송이	-15822
▁사카이	-15823
▁스트레	-15824
▁용어가	-15825
▁스페인은	-15826
▁슬로베니아	-15827
언이	-15828
▁남하	-15829
▁연희	-15830
▁유료	-15831
▁폭파	-15832
로스는	-15833
▁번째는	-15834
▁전적으로	-15835
다르	-15836
맥을	-15837
▁군정	-15838
▁넓고	-15839
▁당황	-15840
▁상해	-15841
▁요하	-15842
▁일진	-15843
▁평일	-15844
▁현악	-15845
▁미얀마	-15846
▁아래는	-15847
했음에도	-15848
▁설립하고	-15849
▁이동하는	-15850
▁명명되었다	-15851
▁알렉산드리아	-15852
▁댓	-15853
검은	-15854
속도	-15855
월이	-15856
위한	-15857
인터	-15858
척이	-15859
-50	-15860
▁네팔	-15861
▁세네	-15862
▁알맞	-15863
▁야외	-15864
▁우르	-15865
▁유혹	-15866
▁잡는	-15867
▁집착	-15868
전에는	-15869
▁1-2	-15870
▁다리가	-15871
▁단계로	-15872
▁단계를	-15873
▁아이폰	-15874
▁연설을	-15875
▁철학을	-15876
▁탄핵을	-15877
▁패하여	-15878
▁포로가	-15879
▁활동의	-15880
▁최고인민	-15881
▁활동하며	-15882
다양	-15883
▁BC	-15884
▁겪은	-15885
▁극락	-15886
▁마다	-15887
▁무성	-15888
▁병자	-15889
▁쪽이	-15890
음보살	-15891
이트는	-15892
직하고	-15893
현에서	-15894
▁가족이	-15895
▁계통의	-15896
▁달리는	-15897
▁알프레	-15898
▁존재는	-15899
▁투표에서	-15900
니오	-15901
독을	-15902
부원	-15903
유도	-15904
좌의	-15905
컴퓨	-15906
.7%	-15907
oul	-15908
▁결선	-15909
▁마녀	-15910
▁법에	-15911
▁영등	-15912
▁전담	-15913
▁절단	-15914
▁직장	-15915
▁케빈	-15916
▁후세	-15917
기면서	-15918
▁네티즌	-15919
▁삼각형	-15920
▁요청에	-15921
▁유래된	-15922
▁응우옌	-15923
▁연구에서	-15924
통에	-15925
.2%	-15926
▁과연	-15927
▁낙동	-15928
블랜드	-15929
▁남성의	-15930
▁맡았던	-15931
▁병원에	-15932
▁시위가	-15933
▁장치는	-15934
▁지진이	-15935
▁헬리콥	-15936
▁도입했다	-15937
▁역임했으며	-15938
▁프란치스코	-15939
말라	-15940
신앙	-15941
책이	-15942
▁공감	-15943
▁도피	-15944
▁돕는	-15945
▁동등	-15946
▁말과	-15947
▁매체	-15948
▁인자	-15949
▁파면	-15950
▁해왕	-15951
브리엘	-15952
화되고	-15953
▁머물렀	-15954
▁무궁화	-15955
▁전기를	-15956
▁지리적	-15957
▁직후에	-15958
▁추가된	-15959
▁라이브러	-15960
▁자리하고	-15961
▁담당하였다	-15962
먼드	-15963
청구	-15964
ous	-15965
▁남인	-15966
▁비는	-15967
▁회귀	-15968
리라고	-15969
▁1.0	-15970
▁책이다	-15971
▁파일럿	-15972
대학교는	-15973
LA	-15974
▁깜	-15975
기동	-15976
매김	-15977
ake	-15978
▁4.	-15979
▁누나	-15980
▁매킨	-15981
▁박정	-15982
▁쉽다	-15983
▁오아	-15984
▁이천	-15985
로스의	-15986
▁극도로	-15987
▁머리카	-15988
▁밀도가	-15989
▁언론의	-15990
▁이사를	-15991
▁자녀를	-15992
▁대회이다	-15993
▁덧붙였다	-15994
LE	-15995
설의	-15996
코르	-15997
ork	-15998
▁GN	-15999
▁나간	-16000
▁선원	-16001
▁쏘아	-16002
▁이현	-16003
▁준수	-16004
▁건조한	-16005
▁달했다	-16006
▁불확실	-16007
▁장관이	-16008
▁증상이	-16009
▁회장이	-16010
▁에너지의	-16011
▁일렉트로	-16012
▁경제적으로	-16013
슬리	-16014
▁대접	-16015
▁루카	-16016
▁번창	-16017
▁베풀	-16018
▁실무	-16019
▁안성	-16020
▁전무	-16021
▁진한	-16022
▁하트	-16023
호선과	-16024
▁마르틴	-16025
▁사업이	-16026
▁아마존	-16027
▁제의를	-16028
▁지원이	-16029
▁총애를	-16030
▁1868	-16031
▁with	-16032
▁목소리가	-16033
▁보이지만	-16034
재산	-16035
▁동탁	-16036
▁말도	-16037
▁튀니	-16038
▁포격	-16039
▁호크	-16040
▁건축물	-16041
▁자치구	-16042
▁그룹으로	-16043
▁캐릭터가	-16044
▁광범위하게	-16045
다와	-16046
반도	-16047
시기	-16048
▁파는	-16049
▁레드삭	-16050
▁문화에	-16051
▁반도체	-16052
▁주계열	-16053
▁기록이다	-16054
▁방정식을	-16055
버스터미널	-16056
▁크리스토퍼	-16057
▁앰	-16058
리온	-16059
직이	-16060
탄이	-16061
▁AV	-16062
▁간혹	-16063
▁온난	-16064
▁이타	-16065
▁파병	-16066
리아를	-16067
▁2~3	-16068
▁거쳤다	-16069
▁밝혀진	-16070
▁손상을	-16071
▁이란의	-16072
▁인해서	-16073
▁제정된	-16074
▁출전을	-16075
▁하원의	-16076
▁에너지는	-16077
▁운행되고	-16078
▁적용된다	-16079
▁몹	-16080
변호	-16081
크레	-16082
타워	-16083
▁강행	-16084
▁단말	-16085
▁때를	-16086
▁영산	-16087
▁조로	-16088
▁청색	-16089
▁파고	-16090
▁피핀	-16091
▁그만큼	-16092
▁기관차	-16093
▁기술과	-16094
▁무역을	-16095
▁스미스	-16096
▁요시노	-16097
▁자료는	-16098
▁이론에서	-16099
▁현장에서	-16100
▁북아일랜드	-16101
▁아제르바이잔	-16102
층과	-16103
▁89	-16104
▁be	-16105
▁매력	-16106
▁명종	-16107
▁위를	-16108
▁인원	-16109
▁잠실	-16110
▁포털	-16111
▁한달	-16112
▁구축함	-16113
▁바이킹	-16114
▁보이게	-16115
▁서대문	-16116
▁세포의	-16117
▁식물의	-16118
▁애리조	-16119
▁자라는	-16120
▁비교하여	-16121
▁클라우드	-16122
▁공개적으로	-16123
▁관제	-16124
▁배에	-16125
▁실각	-16126
▁언니	-16127
▁틈을	-16128
▁신화에	-16129
대학교를	-16130
▁개발했다	-16131
▁들어오는	-16132
▁여겨지는	-16133
▁임명했다	-16134
▁자료이다	-16135
▁쟈	-16136
공주	-16137
있지	-16138
해질	-16139
해튼	-16140
▁교정	-16141
▁루시	-16142
▁화해	-16143
▁미주리	-16144
▁상업적	-16145
▁총리는	-16146
▁대항하는	-16147
▁받아들이지	-16148
▁프랑스군은	-16149
가장	-16150
상업	-16151
절의	-16152
지정	-16153
▁돕기	-16154
▁일각	-16155
▁조국	-16156
▁조슈	-16157
시간에	-16158
에너지	-16159
ical	-16160
▁니가타	-16161
▁배우로	-16162
▁서양의	-16163
▁숫자는	-16164
▁시애틀	-16165
▁언론인	-16166
▁작품인	-16167
▁터키의	-16168
방향으로	-16169
▁인기있는	-16170
리야	-16171
▁광해	-16172
▁닮은	-16173
▁마땅	-16174
▁윤휴	-16175
▁음료	-16176
▁첨단	-16177
▁충렬	-16178
▁취한	-16179
span	-16180
▁3-1	-16181
▁것인가	-16182
▁기타를	-16183
▁높았다	-16184
▁대전차	-16185
▁수준을	-16186
▁암컷은	-16187
▁이동할	-16188
▁적당한	-16189
▁정권은	-16190
▁치명적인	-16191
▁판매하는	-16192
▁아리스토텔레	-16193
다드	-16194
만년	-16195
짐에	-16196
▁사신	-16197
▁세습	-16198
▁하급	-16199
▁등번호	-16200
▁본인은	-16201
▁전원이	-16202
▁정리는	-16203
▁집합의	-16204
▁미나모토	-16205
▁연루되어	-16206
▁클리블랜드	-16207
▁z	-16208
득점	-16209
든다	-16210
직할	-16211
▁몽고	-16212
▁반감	-16213
동이다	-16214
▁영국군	-16215
▁오일러	-16216
▁왕에게	-16217
되었음을	-16218
▁공산당의	-16219
▁국가보안	-16220
▁프로그램으로	-16221
ah	-16222
악을	-16223
팀에	-16224
▁귀속	-16225
▁방콕	-16226
▁번도	-16227
▁불필	-16228
▁아데	-16229
▁예가	-16230
▁예하	-16231
▁재선	-16232
▁정이	-16233
익스피	-16234
▁3.0	-16235
▁법무부	-16236
▁의회가	-16237
▁장르의	-16238
▁정의된	-16239
▁제품의	-16240
▁하노버	-16241
만으로는	-16242
▁1893	-16243
▁공간으로	-16244
▁샐	-16245
삼진	-16246
약은	-16247
컵을	-16248
▁돋보	-16249
▁말고	-16250
▁보며	-16251
▁왕과	-16252
▁인가	-16253
▁팔작	-16254
▁희극	-16255
티아의	-16256
▁구성을	-16257
▁몇몇의	-16258
▁성명을	-16259
▁아무리	-16260
▁여론이	-16261
▁자유의	-16262
▁지원하기	-16263
▁하나로서	-16264
▁무산되었다	-16265
▁임명되었으며	-16266
▁괄	-16267
년엔	-16268
늦게	-16269
오던	-16270
▁극우	-16271
▁키르	-16272
되다가	-16273
르면서	-16274
▁기업인	-16275
▁데뷔한	-16276
▁비율을	-16277
▁서로를	-16278
▁시이다	-16279
월부터는	-16280
마크	-16281
▁싸웠	-16282
▁내무부	-16283
▁방식에	-16284
▁성격의	-16285
▁측정하는	-16286
pt	-16287
네마	-16288
미네	-16289
임의	-16290
좌에	-16291
택이	-16292
col	-16293
▁달에	-16294
▁만드	-16295
▁스노	-16296
▁자진	-16297
▁중형	-16298
▁헌액	-16299
▁1-1	-16300
▁국내에	-16301
▁논의가	-16302
▁라파엘	-16303
▁수시로	-16304
▁회장은	-16305
▁공화국은	-16306
▁다이아몬드	-16307
MB	-16308
▁쉴	-16309
감사	-16310
증에	-16311
.8%	-16312
▁넥센	-16313
▁아메	-16314
▁열려	-16315
▁적분	-16316
▁클러	-16317
▁같다고	-16318
▁내린다	-16319
▁스테파	-16320
▁여파로	-16321
▁증거를	-16322
▁지나면	-16323
▁참여를	-16324
▁프로모	-16325
강전에서	-16326
▁도르트문	-16327
▁분포하고	-16328
formula	-16329
~8	-16330
달의	-16331
own	-16332
▁국의	-16333
▁냉전	-16334
▁둔다	-16335
▁맛을	-16336
▁모금	-16337
▁박테	-16338
▁색이	-16339
▁수로	-16340
▁슬픔	-16341
▁태백	-16342
도서관	-16343
▁동대문	-16344
▁지내는	-16345
▁찬사를	-16346
▁조약으로	-16347
▁존재했다	-16348
▁포함되지	-16349
겐의	-16350
▁93	-16351
▁연립	-16352
▁외래	-16353
▁육체	-16354
▁절벽	-16355
▁1/3	-16356
▁각지에	-16357
▁교황이	-16358
▁기원은	-16359
▁소련군	-16360
▁핵융합	-16361
조판서를	-16362
▁앨범으로	-16363
▁j	-16364
지오	-16365
▁SL	-16366
▁링크	-16367
▁바흐	-16368
▁좀더	-16369
▁태평	-16370
▁1,2	-16371
▁것이기	-16372
▁기록과	-16373
▁느끼는	-16374
▁사이토	-16375
▁없음을	-16376
▁웨스턴	-16377
▁입자의	-16378
▁방지하기	-16379
▁생물학적	-16380
▁설치했다	-16381
▁이산화탄	-16382
▁*	-16383
초와	-16384
해줄	-16385
▁섭정	-16386
▁유타	-16387
▁이항	-16388
도르프	-16389
스트에	-16390
▁관료로	-16391
▁머리가	-16392
▁오른손	-16393
▁정도는	-16394
▁협회의	-16395
리우스는	-16396
▁결합하여	-16397
▁명확하게	-16398
▁볼리비아	-16399
▁올림픽의	-16400
▁죽음으로	-16401
▁사이에서는	-16402
가며	-16403
▁방화	-16404
학으로	-16405
▁두각을	-16406
▁장애인	-16407
▁어드벤처	-16408
int	-16409
irl	-16410
▁곱셈	-16411
▁델타	-16412
▁만날	-16413
▁무서	-16414
▁발착	-16415
▁서초	-16416
▁유해	-16417
제이다	-16418
체제를	-16419
▁걸리는	-16420
▁것들을	-16421
▁조약은	-16422
▁대다수의	-16423
▁콘스탄티	-16424
스투	-16425
▁김명	-16426
▁미세	-16427
▁구조에	-16428
▁구조와	-16429
▁미래에	-16430
▁성능이	-16431
▁수요가	-16432
▁기록하였고	-16433
▁승리하였다	-16434
브스	-16435
율과	-16436
토르	-16437
▁8,	-16438
▁미네소	-16439
▁선으로	-16440
▁시기가	-16441
▁저널리	-16442
▁취임한	-16443
▁화제를	-16444
▁둘러싸인	-16445
▁성씨이다	-16446
▁활동으로	-16447
목과	-16448
소시	-16449
▁변광	-16450
▁악마	-16451
▁앞세	-16452
▁켈트	-16453
▁히사	-16454
나가의	-16455
리라는	-16456
왔으나	-16457
장에게	-16458
▁장면은	-16459
▁행동이	-16460
▁1863	-16461
▁1886	-16462
▁가르치는	-16463
▁달라진다	-16464
▁제시하였다	-16465
▁파괴되었다	-16466
▁확정되었다	-16467
공립	-16468
행과	-16469
▁노후	-16470
▁순차	-16471
▁용서	-16472
서이다	-16473
세이다	-16474
ream	-16475
▁급격한	-16476
▁단체는	-16477
▁숫자를	-16478
▁있듯이	-16479
▁가능성도	-16480
▁관계자는	-16481
▁대비하여	-16482
▁동안에는	-16483
▁공개하였다	-16484
미래	-16485
탑을	-16486
▁나노	-16487
▁부러	-16488
▁수복	-16489
▁쉽지	-16490
▁스맥	-16491
프레스	-16492
▁김정은	-16493
▁도시인	-16494
▁인정을	-16495
▁자유당	-16496
▁지상파	-16497
라운드에서	-16498
런은	-16499
비용	-16500
언은	-16501
표의	-16502
▁구는	-16503
▁사인	-16504
▁염기	-16505
▁쳤다	-16506
▁후예	-16507
그룹의	-16508
단체의	-16509
시키려	-16510
▁220	-16511
▁고유한	-16512
▁메시지	-16513
▁설계를	-16514
▁세월호	-16515
▁일부의	-16516
▁화학적	-16517
▁1892	-16518
▁장소에서	-16519
분간	-16520
케의	-16521
▁거세	-16522
▁권총	-16523
▁별을	-16524
▁신정	-16525
▁칼을	-16526
스터를	-16527
▁교황은	-16528
▁그러다	-16529
▁시간과	-16530
▁인물은	-16531
▁클리어	-16532
▁국가들은	-16533
▁선언하고	-16534
▁지점에서	-16535
나기	-16536
례가	-16537
테의	-16538
회원	-16539
히토	-16540
und	-16541
▁그릴	-16542
▁내며	-16543
▁백두	-16544
▁별세	-16545
▁암석	-16546
▁콘솔	-16547
테스는	-16548
▁사쓰마	-16549
▁상대를	-16550
▁시절을	-16551
▁아들은	-16552
▁의석을	-16553
▁전역을	-16554
▁제한이	-16555
▁구성하고	-16556
▁말하자면	-16557
▁인터뷰를	-16558
▁주인공이	-16559
주의자들은	-16560
▁대전광역시	-16561
▁국유	-16562
▁김인	-16563
▁너머	-16564
▁발기	-16565
▁부채	-16566
▁수필	-16567
▁시몬	-16568
▁진사	-16569
약으로	-16570
▁그러면	-16571
▁안된다	-16572
▁조조가	-16573
▁행동은	-16574
▁거점으로	-16575
▁스맥다운	-16576
▁예정이었다	-16577
AD	-16578
HO	-16579
틴은	-16580
ref	-16581
▁AE	-16582
▁나빠	-16583
▁비엔	-16584
▁파인	-16585
▁핸드	-16586
▁나타날	-16587
▁않았을	-16588
▁이루지	-16589
▁접근을	-16590
▁나폴레옹은	-16591
▁주인공으로	-16592
전대	-16593
조치	-16594
▁명인	-16595
▁사당	-16596
▁산요	-16597
▁이씨	-16598
▁공항은	-16599
▁공헌을	-16600
▁없으면	-16601
▁컨트리	-16602
▁패하고	-16603
▁피해자	-16604
▁국민들의	-16605
▁진행되어	-16606
▁과학자들은	-16607
강전	-16608
마귀	-16609
▁경매	-16610
▁블레	-16611
▁서스	-16612
▁세바	-16613
▁원반	-16614
▁종을	-16615
▁간사이	-16616
▁난카이	-16617
▁등지에	-16618
▁여러번	-16619
▁외부의	-16620
▁철도는	-16621
도스	-16622
언론	-16623
자르	-16624
-13	-16625
▁몸은	-16626
▁조에	-16627
라에몽	-16628
▁공장을	-16629
▁그리는	-16630
▁당국은	-16631
▁모델의	-16632
▁사후에	-16633
▁하늘을	-16634
▁국가대표로	-16635
7,	-16636
고래	-16637
랑의	-16638
태가	-16639
ife	-16640
▁민정	-16641
▁셀레	-16642
▁소외	-16643
▁해부	-16644
▁헤어	-16645
지역을	-16646
▁눈물을	-16647
▁도로가	-16648
▁떠난다	-16649
▁생산이	-16650
▁예로는	-16651
▁움직일	-16652
▁탁월한	-16653
▁1866	-16654
▁고향으로	-16655
▁내놓았다	-16656
▁여름에는	-16657
▁컴파일러	-16658
▁발달하였다	-16659
▁떡	-16660
교사	-16661
기만	-16662
라로	-16663
상대	-16664
▁래퍼	-16665
▁법은	-16666
▁스텔	-16667
▁식을	-16668
▁이례	-16669
▁제너	-16670
▁존스	-16671
▁청룡	-16672
문제를	-16673
▁가르쳐	-16674
▁광저우	-16675
▁아들의	-16676
▁왕조가	-16677
▁정의에	-16678
▁토트넘	-16679
▁결승골을	-16680
▁기업이다	-16681
▁못하도록	-16682
▁승강장을	-16683
▁완성되었다	-16684
▁널	-16685
▁싼	-16686
공화	-16687
광의	-16688
그마	-16689
길은	-16690
표로	-16691
▁기성	-16692
▁주세	-16693
▁첼시	-16694
부사로	-16695
▁뛰어넘	-16696
▁유래했다	-16697
▁증가했다	-16698
▁한국방송	-16699
군인	-16700
술이	-16701
전국	-16702
▁거칠	-16703
▁고아	-16704
▁묻혀	-16705
▁유가	-16706
▁접해	-16707
▁지자	-16708
시즌을	-16709
▁단체가	-16710
▁아이치	-16711
▁접어들	-16712
▁지방은	-16713
▁책임이	-16714
부에서는	-16715
▁스스로의	-16716
▁주변에는	-16717
▁캐릭터의	-16718
FF	-16719
▁꽂	-16720
▁씻	-16721
년제	-16722
대수	-16723
송의	-16724
오나	-16725
플레	-16726
row	-16727
▁강간	-16728
▁굴복	-16729
▁끼고	-16730
▁리옹	-16731
▁맹활	-16732
▁세비	-16733
▁아쉬	-16734
▁타락	-16735
▁투여	-16736
협회의	-16737
▁40%	-16738
▁기지를	-16739
▁미하일	-16740
▁언어가	-16741
▁영토로	-16742
▁이론과	-16743
▁적외선	-16744
▁체결된	-16745
▁하나다	-16746
▁장남으로	-16747
▁진출한다	-16748
▁콘크리트	-16749
놀이	-16750
대군	-16751
루냐	-16752
보장	-16753
일기	-16754
lay	-16755
▁레전	-16756
▁음모	-16757
▁엘리트	-16758
▁여학생	-16759
▁가브리엘	-16760
▁국회에서	-16761
▁베네딕토	-16762
▁스테이션	-16763
▁장악하고	-16764
▁현대적인	-16765
▁싱어송라이터	-16766
▁쪼	-16767
분해	-16768
▁국적	-16769
▁나비	-16770
▁났다	-16771
▁니혼	-16772
▁대에	-16773
▁렌즈	-16774
▁배척	-16775
▁번갈	-16776
▁사쿠	-16777
▁양대	-16778
▁인력	-16779
▁자립	-16780
▁카프	-16781
상태가	-16782
▁본부를	-16783
▁사신을	-16784
▁인물을	-16785
▁책으로	-16786
▁현대에	-16787
일부터는	-16788
▁대한제국의	-16789
하신	-16790
▁고생	-16791
▁모차	-16792
▁물체	-16793
▁발동	-16794
▁을사	-16795
고에서	-16796
▁독일을	-16797
▁보였고	-16798
▁토리노	-16799
▁투쟁을	-16800
▁흐른다	-16801
▁1888	-16802
▁사용하던	-16803
▁생각하여	-16804
▁우에스기	-16805
▁유지하였다	-16806
▁릭	-16807
대교	-16808
륜구	-16809
츠크	-16810
▁고장	-16811
▁군벌	-16812
▁뒤의	-16813
▁정주	-16814
▁찾고	-16815
▁한창	-16816
▁경력이	-16817
▁클레이	-16818
▁혼자서	-16819
▁강력하게	-16820
▁수행하고	-16821
▁스타일의	-16822
▁이용되고	-16823
▁부임하였다	-16824
▁판매되었다	-16825
▁궁전	-16826
▁꿈꾸	-16827
▁등번	-16828
▁물과	-16829
▁스킬	-16830
▁아프	-16831
▁위그	-16832
▁조류	-16833
누스의	-16834
▁길이를	-16835
▁보이기	-16836
▁조선후	-16837
▁함대는	-16838
▁중국에서는	-16839
▁현대자동차	-16840
구간	-16841
께끼	-16842
두가	-16843
세르	-16844
트레	-16845
▁CS	-16846
▁늦은	-16847
▁비싼	-16848
▁비전	-16849
▁종신	-16850
▁트란	-16851
▁편이	-16852
리아가	-16853
▁산스크	-16854
▁연대는	-16855
▁이사벨	-16856
▁한민족	-16857
▁1876	-16858
▁경기도의	-16859
▁돌아가는	-16860
▁설정되어	-16861
▁인공지능	-16862
▁효율적인	-16863
▁증가하였다	-16864
▁최고인민회의	-16865
결한	-16866
박이	-16867
토쿠	-16868
▁관악	-16869
▁노바	-16870
▁대왕	-16871
▁반입	-16872
▁습득	-16873
▁안고	-16874
▁은혜	-16875
▁입국	-16876
▁희곡	-16877
▁과학의	-16878
▁규정이	-16879
▁챌린지	-16880
▁파시즘	-16881
▁학교는	-16882
대학으로	-16883
▁싱글이다	-16884
▁집안에서	-16885
QL	-16886
▁괌	-16887
▁EC	-16888
▁격투	-16889
▁다발	-16890
▁불완	-16891
▁조계	-16892
▁트렌	-16893
기관이	-16894
다니며	-16895
▁수차례	-16896
▁토스카	-16897
▁통일을	-16898
▁섀	-16899
욱은	-16900
쿠버	-16901
희를	-16902
▁Go	-16903
▁농부	-16904
▁더비	-16905
▁마우	-16906
▁분지	-16907
▁위함	-16908
▁제니	-16909
운동가	-16910
▁705	-16911
▁겨울에	-16912
▁노래의	-16913
▁따르지	-16914
▁무사히	-16915
▁미군정	-16916
▁왕조는	-16917
▁이베리아	-16918
▁적용되는	-16919
▁인정받았다	-16920
율로	-16921
ish	-16922
▁개원	-16923
▁박종	-16924
▁페니	-16925
렸다는	-16926
야말로	-16927
▁받아서	-16928
▁표기한다	-16929
공에	-16930
렉션	-16931
로워	-16932
티나	-16933
▁kt	-16934
▁고기	-16935
▁노면	-16936
▁인재	-16937
▁거두어	-16938
▁나무를	-16939
▁남편이	-16940
▁무엇이	-16941
▁바다를	-16942
▁이름도	-16943
▁조화를	-16944
법원에서	-16945
▁보호하고	-16946
▁서울특별시의	-16947
리면	-16948
밴드	-16949
처분	-16950
하곤	-16951
▁GO	-16952
▁살짝	-16953
▁올드	-16954
▁칸의	-16955
▁행진	-16956
▁현을	-16957
살이풀	-16958
회의에	-16959
▁노선에	-16960
▁맨해튼	-16961
▁사상이	-16962
▁코펜하	-16963
▁사회민주	-16964
▁인상적인	-16965
▁플랫폼을	-16966
▁합격하여	-16967
5,	-16968
모스	-16969
보자	-16970
티와	-16971
▁경호	-16972
▁다마	-16973
▁때와	-16974
▁불에	-16975
▁종업	-16976
▁휩싸	-16977
해서는	-16978
▁마누엘	-16979
▁문자는	-16980
▁사회가	-16981
▁아나톨	-16982
▁전자는	-16983
▁측면을	-16984
▁1861	-16985
▁진출하여	-16986
▁헥	-16987
골이	-16988
유산	-16989
▁91	-16990
▁도출	-16991
▁삼중	-16992
▁연동	-16993
▁오기	-16994
▁읽을	-16995
▁초고	-16996
▁하치	-16997
▁말에서	-16998
▁앨범이	-16999
▁조사한	-17000
기관이다	-17001
디나비아	-17002
▁순서대로	-17003
면적	-17004
어스	-17005
증과	-17006
클래	-17007
헌법	-17008
▁대니	-17009
▁뚫고	-17010
▁복장	-17011
▁이메	-17012
▁대사를	-17013
▁바탕에	-17014
▁비해서	-17015
▁이뤄진	-17016
▁총독부	-17017
▁파이터	-17018
▁형제는	-17019
▁시도했다	-17020
▁없었다고	-17021
▁이들에게	-17022
▁거부하였다	-17023
종인	-17024
투로	-17025
훈의	-17026
ich	-17027
▁돼지	-17028
▁막고	-17029
▁바와	-17030
▁천왕	-17031
▁계승한	-17032
▁당하는	-17033
▁볼로냐	-17034
▁연고로	-17035
▁이것에	-17036
▁줄이기	-17037
▁증거는	-17038
▁않았는데	-17039
▁공격하였다	-17040
▁웬	-17041
움이	-17042
티코	-17043
▁계단	-17044
▁공고	-17045
▁공자	-17046
▁김광	-17047
▁김윤	-17048
▁동명	-17049
▁선천	-17050
▁와인	-17051
▁입는	-17052
▁정제	-17053
▁추존	-17054
▁파벌	-17055
시켜서	-17056
▁SNS	-17057
▁교황청	-17058
▁군대와	-17059
▁기사가	-17060
▁사태를	-17061
▁스즈키	-17062
▁펠리페	-17063
▁선수였다	-17064
▁유클리드	-17065
▁폐지하고	-17066
▁프린스턴	-17067
▁캉	-17068
동성	-17069
뮤직	-17070
쓰고	-17071
점인	-17072
▁객원	-17073
▁맹세	-17074
▁복역	-17075
▁신봉	-17076
▁옥타	-17077
마리의	-17078
버스는	-17079
층에는	-17080
▁450	-17081
▁동서로	-17082
▁사람에	-17083
▁원소를	-17084
▁총학생	-17085
▁하려고	-17086
▁성장했다	-17087
▁신한은행	-17088
OK	-17089
▁꿰	-17090
예수	-17091
와도	-17092
와서	-17093
텐셜	-17094
▁김준	-17095
▁카카	-17096
▁USB	-17097
▁국왕이	-17098
▁무너뜨	-17099
▁버린다	-17100
▁오리온	-17101
▁자국의	-17102
▁집단의	-17103
▁합의를	-17104
▁공간이다	-17105
▁발탁되어	-17106
▁제시했다	-17107
▁활용하여	-17108
▁안장되었다	-17109
na	-17110
확인	-17111
.1%	-17112
▁SE	-17113
▁고든	-17114
▁과시	-17115
▁모신	-17116
▁민법	-17117
▁부에	-17118
▁히메	-17119
▁글자를	-17120
▁이스탄	-17121
~1	-17122
배로	-17123
서스	-17124
일인	-17125
▁사림	-17126
▁서거	-17127
▁시국	-17128
▁우두	-17129
▁한가	-17130
▁허정	-17131
방송을	-17132
수에서	-17133
자에서	-17134
쪽에서	-17135
▁능력은	-17136
▁사업은	-17137
▁영토가	-17138
▁카이로	-17139
▁거절했다	-17140
▁대량으로	-17141
▁등에서는	-17142
▁벨기에의	-17143
▁사라지고	-17144
▁용어이다	-17145
▁집행유예	-17146
브르	-17147
카쓰	-17148
▁대포	-17149
▁법이	-17150
▁지미	-17151
▁코코	-17152
사단의	-17153
스카야	-17154
▁경우와	-17155
▁나누는	-17156
▁배터리	-17157
▁서부의	-17158
▁안전을	-17159
▁여기는	-17160
▁케네디	-17161
▁하므로	-17162
▁1864	-17163
▁의미하며	-17164
콜라	-17165
▁네모	-17166
▁보리	-17167
▁오대	-17168
▁중합	-17169
▁포토	-17170
▁한의	-17171
▁기관의	-17172
▁내세워	-17173
▁밀도는	-17174
▁병력은	-17175
▁분쟁이	-17176
▁1850	-17177
▁애틀랜타	-17178
▁클럽에서	-17179
▁군용	-17180
▁밀란	-17181
▁안창	-17182
▁만난다	-17183
▁위치로	-17184
▁지구와	-17185
▁처벌을	-17186
▁총리로	-17187
▁특성상	-17188
▁계속하여	-17189
▁날카로운	-17190
▁일찍부터	-17191
▁×	-17192
명도	-17193
오기	-17194
찰을	-17195
ool	-17196
▁재일	-17197
▁지류	-17198
당하자	-17199
민들이	-17200
▁10,	-17201
▁끝내기	-17202
▁만주국	-17203
▁문학의	-17204
▁원칙에	-17205
▁자격이	-17206
화하였다	-17207
▁삼층석탑	-17208
▁산스크리트	-17209
▁증명하였다	-17210
▁복선	-17211
▁산성	-17212
▁수산	-17213
▁실버	-17214
▁아빠	-17215
▁평탄	-17216
정부를	-17217
▁고종의	-17218
▁노태우	-17219
▁배치된	-17220
▁인물의	-17221
▁장악한	-17222
▁하나씩	-17223
▁1830	-17224
▁사용자는	-17225
▁이해하는	-17226
▁타이베이	-17227
▁팔작지붕	-17228
▁회장으로	-17229
▁가톨릭교회의	-17230
여우	-17231
▁띄는	-17232
▁재래	-17233
▁전산	-17234
▁정은	-17235
▁포럼	-17236
▁프론	-17237
▁뜻에서	-17238
▁아내가	-17239
▁자리는	-17240
▁지분을	-17241
▁초부터	-17242
▁추정되며	-17243
▁함경북도	-17244
▁개통되었다	-17245
▁요청하였다	-17246
▁일반적이다	-17247
메트	-17248
배치	-17249
열과	-17250
치면	-17251
_24	-17252
▁다행	-17253
▁보나	-17254
▁빅뱅	-17255
▁실은	-17256
▁이모	-17257
▁지침	-17258
▁학과	-17259
하지도	-17260
▁국내의	-17261
▁레오폴	-17262
▁신청을	-17263
▁엔진의	-17264
▁연대를	-17265
▁주변에서	-17266
▁증가하는	-17267
지방검찰청	-17268
▁«	-17269
번대	-17270
보리	-17271
살을	-17272
▁가던	-17273
▁백과	-17274
▁본인	-17275
▁상기	-17276
▁섬이	-17277
▁세레	-17278
▁소말	-17279
▁연수	-17280
▁참수	-17281
▁커플	-17282
▁후진	-17283
웨이트	-17284
▁1.2	-17285
▁노선이다	-17286
▁승진했다	-17287
▁자유민주	-17288
▁조직하여	-17289
▁진행한다	-17290
▁들어서면서	-17291
링턴	-17292
자문	-17293
▁XP	-17294
▁노인	-17295
▁도둑	-17296
▁섞여	-17297
▁어리	-17298
▁책록	-17299
▁패해	-17300
▁되어서	-17301
▁아이콘	-17302
▁일반적	-17303
▁적용된	-17304
▁크레이	-17305
▁반대하여	-17306
▁인도차이나	-17307
개소	-17308
부리	-17309
트니	-17310
▁교원	-17311
▁극한	-17312
▁둘이	-17313
▁원활	-17314
▁주먹	-17315
유가행	-17316
▁대수적	-17317
▁발전소	-17318
▁세례를	-17319
▁아닌가	-17320
▁애비뉴	-17321
▁태양과	-17322
▁겨울에는	-17323
▁삼국시대	-17324
▁국제적으로	-17325
▁설계되었다	-17326
uc	-17327
꾸로	-17328
로폰	-17329
상황	-17330
카리	-17331
▁급증	-17332
▁단층	-17333
▁복직	-17334
▁신을	-17335
▁중등	-17336
▁찾지	-17337
▁카즈	-17338
▁벗어난	-17339
▁비스타	-17340
▁종류로	-17341
▁판정을	-17342
▁하이드	-17343
▁힘썼다	-17344
▁교황으로	-17345
▁일대에서	-17346
▁조별리그	-17347
▁지칭하는	-17348
통상	-17349
▁개미	-17350
▁계의	-17351
▁배터	-17352
▁송진	-17353
▁자생	-17354
▁준동	-17355
▁해저	-17356
시이다	-17357
청으로	-17358
▁OST	-17359
▁나오게	-17360
▁바람이	-17361
▁보통의	-17362
▁분쟁을	-17363
▁스칼라	-17364
▁야구를	-17365
▁주변을	-17366
▁프레데	-17367
▁자신만의	-17368
나리	-17369
시인	-17370
아마	-17371
움에	-17372
▁갈래	-17373
▁남미	-17374
▁미소	-17375
▁알폰	-17376
▁임의	-17377
▁통영	-17378
▁팔꿈	-17379
공사가	-17380
글라데	-17381
시간을	-17382
▁겉보기	-17383
▁구역은	-17384
▁끝난다	-17385
▁이해를	-17386
▁세력으로	-17387
▁중앙정보	-17388
▁프로세스	-17389
▁분리되었다	-17390
벨트	-17391
체고	-17392
터널	-17393
하되	-17394
▁반역	-17395
▁분수	-17396
▁아산	-17397
▁양보	-17398
▁하르	-17399
olog	-17400
▁AKB	-17401
▁법원은	-17402
▁보기도	-17403
▁장관은	-17404
▁종류에	-17405
▁4000	-17406
▁보고서를	-17407
▁아프리카의	-17408
참찬	-17409
킥을	-17410
택은	-17411
터키	-17412
▁각국	-17413
▁낮고	-17414
▁동형	-17415
▁주권	-17416
▁진해	-17417
마스터	-17418
시설을	-17419
제도의	-17420
▁기반이	-17421
▁부모는	-17422
▁속하게	-17423
▁실행할	-17424
▁조약의	-17425
▁교회에서	-17426
▁마지막에	-17427
▁필수적인	-17428
▁아이디어를	-17429
▁유식유가행	-17430
▁철도역이다	-17431
▁체결하였다	-17432
▁필요하다고	-17433
▁죠	-17434
설과	-17435
전달	-17436
패의	-17437
.9%	-17438
▁계엄	-17439
▁다크	-17440
▁두지	-17441
▁마린	-17442
▁유태	-17443
▁지쿠	-17444
▁후작	-17445
▁뒤늦게	-17446
▁개칭되었다	-17447
▁어려서부터	-17448
▁프로그램에서	-17449
군주	-17450
년째	-17451
장도	-17452
▁소울	-17453
▁전하	-17454
▁정동	-17455
▁포식	-17456
▁하동	-17457
경찰서	-17458
▁혜택을	-17459
▁1881	-17460
▁애리조나	-17461
▁컨테이너	-17462
▁Univers	-17463
든가	-17464
충이	-17465
키타	-17466
▁Tr	-17467
▁겪게	-17468
▁맞춤	-17469
▁보석	-17470
▁세분	-17471
▁승하	-17472
▁식사	-17473
▁오해	-17474
▁존슨	-17475
▁지탱	-17476
보았다	-17477
▁군이다	-17478
▁기준에	-17479
▁본질적	-17480
▁영국령	-17481
▁직위를	-17482
▁출시한	-17483
▁향상을	-17484
아비달마	-17485
▁1887	-17486
▁내려졌다	-17487
▁이어지고	-17488
네르	-17489
백의	-17490
복음	-17491
빌딩	-17492
_22	-17493
▁브랜	-17494
▁비늘	-17495
▁세트	-17496
▁안나	-17497
▁종묘	-17498
▁하남	-17499
▁교회와	-17500
▁불가피	-17501
▁선택한	-17502
▁인사를	-17503
▁제안한	-17504
▁채널을	-17505
▁하늘의	-17506
▁미네소타	-17507
▁서비스가	-17508
▁설립되어	-17509
TE	-17510
보지	-17511
▁격렬	-17512
▁공안	-17513
▁금호	-17514
▁대출	-17515
▁애완	-17516
▁원고	-17517
▁키보	-17518
림으로	-17519
▁국정원	-17520
▁기억을	-17521
▁역할로	-17522
▁우위를	-17523
▁자료로	-17524
▁통과한	-17525
▁해준다	-17526
지역으로	-17527
▁지도자로	-17528
먼의	-17529
문인	-17530
순환	-17531
지어	-17532
les	-17533
▁나지	-17534
▁빌라	-17535
▁성행	-17536
▁출동	-17537
▁하프	-17538
▁3-0	-17539
▁생각은	-17540
▁연락을	-17541
▁오스카	-17542
▁요제프	-17543
▁원자핵	-17544
▁이론적	-17545
▁이보다	-17546
▁평안도	-17547
▁프레이	-17548
▁행사가	-17549
▁합류하였다	-17550
▁스칸디나비아	-17551
파리	-17552
▁깨고	-17553
▁원천	-17554
▁직사	-17555
▁파우	-17556
▁화엄	-17557
▁힘의	-17558
데스는	-17559
▁스크립	-17560
▁1865	-17561
▁셰익스피	-17562
▁자유한국	-17563
▁전달하는	-17564
▁중화민국의	-17565
PD	-17566
막의	-17567
비한	-17568
시다	-17569
카에	-17570
파울	-17571
-08	-17572
▁국보	-17573
▁나뭇	-17574
▁막스	-17575
▁비대	-17576
▁적발	-17577
▁"20	-17578
▁경성부	-17579
▁당선된	-17580
▁문자로	-17581
▁북한은	-17582
▁선거구	-17583
▁옆으로	-17584
▁조지프	-17585
▁학교가	-17586
▁메릴랜드	-17587
▁설명하기	-17588
▁인정했다	-17589
▁체결했다	-17590
▁힐베르트	-17591
▁교체되었다	-17592
55	-17593
때는	-17594
브와	-17595
아에	-17596
임에	-17597
주어	-17598
▁모욕	-17599
▁배반	-17600
▁실리	-17601
▁일차	-17602
▁일화	-17603
▁있은	-17604
▁잔존	-17605
▁장녀	-17606
▁전멸	-17607
▁죽여	-17608
개이다	-17609
운드의	-17610
▁거두고	-17611
▁믿는다	-17612
▁버스를	-17613
▁성립된	-17614
▁정당이	-17615
▁도입하여	-17616
▁배치되었다	-17617
oll	-17618
▁맥락	-17619
▁숙부	-17620
▁우정	-17621
▁장흥	-17622
▁징수	-17623
▁수단을	-17624
▁시민의	-17625
▁의사가	-17626
▁팬들이	-17627
▁표현의	-17628
▁휴대전	-17629
▁그것이다	-17630
▁시민들이	-17631
봉의	-17632
▁구호	-17633
▁끝을	-17634
▁떠날	-17635
▁문무	-17636
▁부풀	-17637
▁소생	-17638
▁헌납	-17639
부분이	-17640
▁주지사	-17641
▁즐기는	-17642
▁형제가	-17643
▁일본군이	-17644
▁지상역이다	-17645
▁룸	-17646
▁뱃	-17647
개정	-17648
춘추	-17649
투수	-17650
▁고딕	-17651
▁지출	-17652
▁직교	-17653
▁판례	-17654
▁황족	-17655
시키면	-17656
▁논란의	-17657
▁다시금	-17658
▁듯하다	-17659
▁따왔다	-17660
▁벌이는	-17661
▁지구가	-17662
▁팬들은	-17663
▁활동과	-17664
▁계속했다	-17665
▁남베트남	-17666
▁청나라의	-17667
▁창설되었다	-17668
열대	-17669
▁DD	-17670
▁김지	-17671
▁셀주	-17672
▁주주	-17673
▁항목	-17674
대군의	-17675
원숭이	-17676
▁구단이	-17677
▁동부의	-17678
▁뒤에서	-17679
▁부부는	-17680
▁요소로	-17681
▁점성술	-17682
▁드러냈다	-17683
▁발발하자	-17684
▁전성기를	-17685
▁개인적으로	-17686
▁아프리카계	-17687
▁지속되었다	-17688
▁학생들에게	-17689
RT	-17690
▁딕	-17691
링의	-17692
파일	-17693
_23	-17694
▁객체	-17695
▁글꼴	-17696
▁도루	-17697
▁맥아	-17698
▁이단	-17699
▁혐오	-17700
집에서	-17701
▁기술로	-17702
▁버스가	-17703
▁얻었고	-17704
▁에어로	-17705
▁일원이	-17706
▁창원시	-17707
▁통하는	-17708
▁동원하여	-17709
▁우루과이	-17710
EM	-17711
합의	-17712
yst	-17713
▁기쁨	-17714
▁랴오	-17715
▁상에	-17716
▁워너	-17717
▁코시	-17718
▁퇴직	-17719
기관인	-17720
▁교류를	-17721
▁이겼다	-17722
▁총리를	-17723
▁학문적	-17724
▁못하였고	-17725
▁방정식은	-17726
▁제거하고	-17727
▁영국에서는	-17728
▁현재까지도	-17729
▁스크린도어가	-17730
네티	-17731
달라	-17732
수소	-17733
▁2》	-17734
▁꽃잎	-17735
▁아유	-17736
▁즐거	-17737
▁편안	-17738
▁황폐	-17739
공무원	-17740
프로세	-17741
▁머물러	-17742
▁범위는	-17743
▁북유럽	-17744
▁산맥의	-17745
▁정리를	-17746
▁주니치	-17747
▁충돌이	-17748
▁취리히	-17749
▁해병대	-17750
▁해석을	-17751
▁스페이스	-17752
▁위원으로	-17753
▁인디애나	-17754
▁신설되었다	-17755
▁추가적으로	-17756
급은	-17757
불은	-17758
코타	-17759
피에	-17760
▁길러	-17761
▁로비	-17762
▁무언	-17763
▁발해	-17764
▁샌드	-17765
▁소통	-17766
▁오락	-17767
▁완결	-17768
났지만	-17769
만명이	-17770
▁60%	-17771
▁남편의	-17772
▁도널드	-17773
▁명예를	-17774
▁빠지게	-17775
▁수준이	-17776
▁예술의	-17777
▁이제는	-17778
▁크기와	-17779
▁개시했다	-17780
▁데스크톱	-17781
▁방글라데	-17782
▁수수께끼	-17783
▁히틀러의	-17784
▁팰	-17785
마사	-17786
이한	-17787
전적	-17788
태수	-17789
▁단원	-17790
▁산둥	-17791
▁조차	-17792
▁조현	-17793
▁갔다가	-17794
▁단체를	-17795
▁방사선	-17796
▁영역은	-17797
스테르담	-17798
엔터테인	-17799
▁HTML	-17800
▁제작했다	-17801
▁테스트를	-17802
들고	-17803
옥은	-17804
▁날려	-17805
▁도읍	-17806
▁미키	-17807
▁블로	-17808
▁여인	-17809
▁인형	-17810
년마다	-17811
▁ATP	-17812
▁두가지	-17813
▁미래를	-17814
▁신뢰를	-17815
▁처리를	-17816
▁조지아의	-17817
미노	-17818
▁건널	-17819
▁설문	-17820
운동은	-17821
▁강력히	-17822
▁두꺼운	-17823
▁선조의	-17824
▁차세대	-17825
▁철도를	-17826
▁평했다	-17827
▁그룹이다	-17828
▁성공한다	-17829
▁식민지를	-17830
▁인테르나	-17831
▁일치한다	-17832
▁선고받았다	-17833
링이	-17834
은하	-17835
▁가군	-17836
▁영장	-17837
▁예일	-17838
▁주저	-17839
▁책이	-17840
항으로	-17841
▁고시엔	-17842
▁구성요	-17843
▁그것에	-17844
▁방향의	-17845
▁법안을	-17846
▁하기로	-17847
▁행성은	-17848
▁행위가	-17849
▁향했다	-17850
▁회의에	-17851
▁게오르크	-17852
▁않으므로	-17853
▁비스마르크	-17854
▁닷	-17855
광년	-17856
채의	-17857
칭이	-17858
포타	-17859
호란	-17860
▁감추	-17861
▁근래	-17862
▁동네	-17863
▁아타	-17864
▁조심	-17865
▁튼튼	-17866
▁편을	-17867
지로서	-17868
▁방대한	-17869
▁비타민	-17870
▁일행은	-17871
▁자연의	-17872
▁한계가	-17873
▁마오쩌둥	-17874
▁미쓰비시	-17875
▁조사에서	-17876
▁주어졌을	-17877
▁알고리즘은	-17878
▁프톨레마이오스	-17879
비오	-17880
서비	-17881
선인	-17882
입을	-17883
자동	-17884
▁몹시	-17885
▁싸이	-17886
▁점도	-17887
▁조봉	-17888
▁최강	-17889
▁최장	-17890
▁광해군	-17891
▁권유로	-17892
▁바닥에	-17893
▁숫자가	-17894
▁자체에	-17895
▁조건에	-17896
▁당선되어	-17897
▁오클랜드	-17898
▁홉	-17899
스틱	-17900
천년	-17901
ook	-17902
▁On	-17903
▁가도	-17904
▁굴절	-17905
▁길다	-17906
▁꾸며	-17907
▁단정	-17908
▁일족	-17909
▁입어	-17910
▁채굴	-17911
버린다	-17912
상태에	-17913
▁감독에	-17914
▁귀국한	-17915
▁이주한	-17916
▁있으니	-17917
▁주의를	-17918
▁질량의	-17919
▁감독이다	-17920
▁말하기를	-17921
남에	-17922
품과	-17923
행렬	-17924
▁Cl	-17925
▁거룩	-17926
▁나바	-17927
▁농림	-17928
▁어업	-17929
▁저자	-17930
▁죽는	-17931
▁총무	-17932
▁코소	-17933
▁코카	-17934
▁0.5	-17935
▁가졌고	-17936
▁배우고	-17937
▁결승에서	-17938
▁반대했다	-17939
▁연합군이	-17940
HC	-17941
경비	-17942
도상	-17943
움의	-17944
.19	-17945
▁독서	-17946
▁신해	-17947
▁판의	-17948
》,《	-17949
▁Sch	-17950
▁거쳐서	-17951
▁요인이	-17952
▁재료로	-17953
▁통합을	-17954
▁파견된	-17955
▁확실하지	-17956
▁가면라이더	-17957
▁파견되었다	-17958
격은	-17959
럴드	-17960
리쿠	-17961
최고	-17962
ark	-17963
▁성폭	-17964
▁순식	-17965
▁슈투	-17966
▁일리	-17967
▁조회	-17968
었다는	-17969
▁머리는	-17970
▁반격을	-17971
▁설명을	-17972
▁신주쿠	-17973
▁신학적	-17974
▁여성은	-17975
▁이같은	-17976
▁전국에	-17977
해지면서	-17978
군도	-17979
대승	-17980
발생	-17981
보건	-17982
제인	-17983
조지	-17984
▁소의	-17985
▁시부	-17986
▁요절	-17987
▁인산	-17988
▁그렇기	-17989
▁등급을	-17990
▁아내와	-17991
▁역할이	-17992
▁이름에	-17993
▁1873	-17994
▁만들어낸	-17995
▁모델이다	-17996
▁정차한다	-17997
▁처리하는	-17998
▁합류하여	-17999
▁스트라이커	-18000
▁이탈리아를	-18001
모노	-18002
부도	-18003
히드	-18004
▁군과	-18005
▁김형	-18006
▁너비	-18007
▁천수	-18008
간으로	-18009
연패를	-18010
▁가격을	-18011
▁반대를	-18012
▁밝혀져	-18013
▁세계로	-18014
▁참가를	-18015
▁출연해	-18016
▁바르셀로	-18017
▁승리하여	-18018
▁의원으로	-18019
▁주관하는	-18020
▁경기장에서	-18021
▁원칙적으로	-18022
▁인터페이스를	-18023
US	-18024
▁쿡	-18025
각에	-18026
료의	-18027
메가	-18028
▁94	-18029
▁대담	-18030
▁대주	-18031
▁마비	-18032
▁성전	-18033
▁수염	-18034
▁앤더	-18035
▁정적	-18036
▁하코	-18037
▁것들은	-18038
▁구멍이	-18039
▁대승을	-18040
▁루돌프	-18041
▁몽골의	-18042
▁설립을	-18043
▁세상의	-18044
▁운동과	-18045
▁정해져	-18046
▁지나친	-18047
으로서는	-18048
▁네트워크를	-18049
▁핼	-18050
경쟁	-18051
천에	-18052
톤은	-18053
티시	-18054
.11	-18055
▁</	-18056
▁농경	-18057
▁변동	-18058
▁부회	-18059
▁불화	-18060
▁철강	-18061
▁평민	-18062
▁품은	-18063
문화의	-18064
▁계산할	-18065
▁구멍을	-18066
▁선거는	-18067
▁여기고	-18068
▁연달아	-18069
▁이적한	-18070
▁죽임을	-18071
▁지켰다	-18072
▁투자를	-18073
▁의과대학	-18074
시킴으로써	-18075
BI	-18076
너를	-18077
쾌한	-18078
탑은	-18079
▁구경	-18080
▁징계	-18081
▁확고	-18082
버스가	-18083
시험에	-18084
▁구분할	-18085
▁담당한	-18086
▁말에는	-18087
▁바다의	-18088
▁사진이	-18089
▁의식이	-18090
▁정교한	-18091
▁회사이다	-18092
▁참석하였다	-18093
▁취득하였다	-18094
▁€	-18095
복합	-18096
품에	-18097
혔고	-18098
▁BM	-18099
▁공로	-18100
▁당내	-18101
▁데는	-18102
▁매진	-18103
▁부추	-18104
▁상정	-18105
▁우아	-18106
▁자처	-18107
▁하비	-18108
▁거꾸로	-18109
▁광대한	-18110
▁그룹에	-18111
▁다니며	-18112
▁수도는	-18113
▁실수로	-18114
대한민국	-18115
▁서비스는	-18116
▁즉위하자	-18117
▁개최하였다	-18118
hy	-18119
버가	-18120
여를	-18121
외교	-18122
차트	-18123
▁기압	-18124
▁떼어	-18125
▁변질	-18126
▁음이	-18127
▁재앙	-18128
▁추축	-18129
▁케냐	-18130
▁펑크	-18131
▁128	-18132
▁끝나는	-18133
▁나가노	-18134
▁법률을	-18135
▁조직된	-18136
▁행위에	-18137
▁1200	-18138
▁명령으로	-18139
▁방송에서	-18140
▁역임했고	-18141
▁강동	-18142
▁구금	-18143
▁깊게	-18144
▁늘려	-18145
▁댓글	-18146
▁버마	-18147
▁색은	-18148
▁중위	-18149
▁청계	-18150
▁친한	-18151
▁코난	-18152
▁현직	-18153
▁데에는	-18154
▁신앙의	-18155
▁얼굴은	-18156
▁조건은	-18157
▁체제는	-18158
▁편찬한	-18159
▁현실을	-18160
▁1862	-18161
▁결정하고	-18162
▁생각하였다	-18163
▁수행하였다	-18164
▁언급하였다	-18165
노르	-18166
어사	-18167
orn	-18168
▁고이	-18169
▁신동	-18170
▁엔터	-18171
▁주임	-18172
▁털은	-18173
▁0.0	-18174
▁시장은	-18175
▁전차를	-18176
들에게도	-18177
적이라는	-18178
ho	-18179
▁늪	-18180
라니	-18181
매를	-18182
수지	-18183
안보	-18184
쿠는	-18185
키에	-18186
▁유망	-18187
▁저는	-18188
▁전위	-18189
로마치	-18190
세포의	-18191
▁갈라져	-18192
▁대체할	-18193
▁되풀이	-18194
▁로마를	-18195
▁무엇을	-18196
▁외국어	-18197
▁공부했다	-18198
▁생성되는	-18199
▁자택에서	-18200
▁차지했고	-18201
기본	-18202
▁사위	-18203
▁칸은	-18204
▁나무로	-18205
▁넘치는	-18206
▁물체가	-18207
▁비영리	-18208
▁여부에	-18209
▁대중적인	-18210
▁떨어진다	-18211
▁스페인어	-18212
".	-18213
움과	-18214
▁경무	-18215
▁관세	-18216
▁명사	-18217
▁신진	-18218
▁인적	-18219
▁침체	-18220
▁쿠르	-18221
났다고	-18222
왕에게	-18223
▁같았다	-18224
▁과정의	-18225
▁보냈고	-18226
▁여부는	-18227
▁왕조를	-18228
▁이곳의	-18229
▁차원의	-18230
▁회원이	-18231
▁극단적인	-18232
▁기념하는	-18233
▁선고했다	-18234
▁종교적인	-18235
?”	-18236
▁쓰게	-18237
▁온라	-18238
▁허드	-18239
▁가량의	-18240
▁미카엘	-18241
▁자유와	-18242
잉글랜드	-18243
하기까지	-18244
▁명목으로	-18245
▁승강장으로	-18246
▁시스템으로	-18247
▁자발적으로	-18248
co	-18249
달이	-18250
물리	-18251
미나	-18252
향의	-18253
▁5%	-18254
▁기법	-18255
▁당주	-18256
▁미라	-18257
▁충북	-18258
▁칭송	-18259
▁토크	-18260
▁필연	-18261
구조를	-18262
▁공적을	-18263
▁나트륨	-18264
▁제품은	-18265
▁줄이고	-18266
▁기념하기	-18267
▁당하였다	-18268
▁발전했다	-18269
▁손해배상	-18270
▁캐나다에서	-18271
절도	-18272
▁공예	-18273
▁미성	-18274
▁바우	-18275
▁반죽	-18276
▁잡을	-18277
▁장원	-18278
▁혼성	-18279
ance	-18280
▁영국인	-18281
▁유지를	-18282
▁저지른	-18283
▁케이스	-18284
▁탑재한	-18285
▁확장을	-18286
했으므로	-18287
▁1592	-18288
▁부진으로	-18289
▁우승으로	-18290
▁주장으로	-18291
▁후손들이	-18292
▁미나모토노	-18293
라서	-18294
적한	-18295
책은	-18296
충의	-18297
▁박람	-18298
▁비준	-18299
▁산은	-18300
▁제동	-18301
▁타케	-18302
▁분노를	-18303
▁소유의	-18304
▁아내인	-18305
▁야구장	-18306
▁외야수	-18307
▁정신과	-18308
▁철학의	-18309
▁가운데에	-18310
▁나타냈다	-18311
▁노력했다	-18312
▁순식간에	-18313
▁있었기에	-18314
▁주전으로	-18315
스콘	-18316
윽고	-18317
▁감상	-18318
▁연말	-18319
▁치뤄	-18320
▁테베	-18321
부사를	-18322
▁결승에	-18323
▁그녀와	-18324
▁사업의	-18325
▁산으로	-18326
▁연관이	-18327
▁이사회	-18328
▁정권에	-18329
▁직업을	-18330
▁페트로	-18331
▁피라미	-18332
▁1891	-18333
▁돌아오는	-18334
▁디자인이	-18335
▁분위기가	-18336
▁채택되었다	-18337
담당	-18338
바를	-18339
바와	-18340
조작	-18341
▁내포	-18342
▁민감	-18343
▁본존	-18344
▁사슴	-18345
▁생길	-18346
▁어우	-18347
▁쪽의	-18348
▁취할	-18349
▁퍼즐	-18350
▁호프	-18351
▁htt	-18352
▁명단의	-18353
▁수비를	-18354
▁간단하게	-18355
▁야쿠르트	-18356
▁이상적인	-18357
▁퐁	-18358
딘은	-18359
리한	-18360
오지	-18361
_25	-18362
ons	-18363
▁관점	-18364
▁날로	-18365
▁무술	-18366
▁버린	-18367
▁에레	-18368
▁였다	-18369
▁줄곧	-18370
▁진수	-18371
▁핑크	-18372
▁후방	-18373
대회에	-18374
드래곤	-18375
부분은	-18376
트트릭	-18377
하자고	-18378
▁개인용	-18379
▁노동당	-18380
▁돌아갈	-18381
▁소속사	-18382
▁와세다	-18383
▁전제로	-18384
▁취하는	-18385
▁펼쳐져	-18386
쪽으로는	-18387
▁벌어지는	-18388
▁시민들의	-18389
▁집중되어	-18390
▁코펜하겐	-18391
▁하였다고	-18392
▁겔	-18393
▁쿄	-18394
동국	-18395
▁Gr	-18396
▁되게	-18397
▁마애	-18398
▁만장	-18399
▁유길	-18400
▁이누	-18401
▁특집	-18402
연승을	-18403
하려던	-18404
▁고쳤다	-18405
▁근거를	-18406
▁마음의	-18407
▁맡는다	-18408
▁불교를	-18409
▁상품을	-18410
▁이윽고	-18411
▁일주일	-18412
▁제공할	-18413
▁양식으로	-18414
▁참여하지	-18415
▁우즈베키스탄	-18416
▁썩	-18417
값은	-18418
]],	-18419
▁가기	-18420
▁나루	-18421
▁놓아	-18422
▁웹툰	-18423
▁증진	-18424
▁평야	-18425
루이스	-18426
▁리그인	-18427
▁볼티모	-18428
▁앨범이다	-18429
▁어디까지	-18430
▁자리매김	-18431
▁일제강점기	-18432
시브	-18433
트맨	-18434
▁고온	-18435
▁고원	-18436
▁연행	-18437
▁투신	-18438
▁한족	-18439
부대를	-18440
▁무리가	-18441
▁부정적	-18442
▁세웠고	-18443
▁시체를	-18444
▁실권을	-18445
▁양상을	-18446
▁의회를	-18447
▁1872	-18448
▁도착하여	-18449
▁이동하여	-18450
▁출마하여	-18451
▁회사에서	-18452
▁유래하였다	-18453
~7	-18454
다나	-18455
봉이	-18456
사자	-18457
성장	-18458
에미	-18459
900	-18460
▁00	-18461
▁근사	-18462
▁보름	-18463
▁상고	-18464
▁상점	-18465
▁완비	-18466
▁자코	-18467
▁저질	-18468
▁조소	-18469
▁천사	-18470
▁몬테네	-18471
▁사라져	-18472
▁유래는	-18473
▁작가가	-18474
주식회사	-18475
▁미야자키	-18476
▁안전하게	-18477
▁4,000	-18478
▁시스템에서	-18479
"|	-18480
AI	-18481
In	-18482
도라	-18483
진한	-18484
▁관상	-18485
▁글이	-18486
▁부다	-18487
▁스텝	-18488
▁전교	-18489
▁코린	-18490
중이던	-18491
탈리아	-18492
▁구간에	-18493
▁대량의	-18494
▁비율로	-18495
▁샌디에	-18496
▁서울을	-18497
▁시코쿠	-18498
▁얼굴에	-18499
▁인식을	-18500
▁충성을	-18501
▁라틴어로	-18502
▁이용하면	-18503
▁설립되었으며	-18504
림에	-18505
신정	-18506
필을	-18507
ink	-18508
lat	-18509
▁물은	-18510
▁상부	-18511
▁송출	-18512
▁제재	-18513
▁줄일	-18514
▁직을	-18515
급으로	-18516
▁브뤼셀	-18517
▁영향은	-18518
▁와일드	-18519
▁조선을	-18520
▁종교는	-18521
▁포도주	-18522
▁피렌체	-18523
▁해군이	-18524
▁희망을	-18525
▁추정하고	-18526
▁협력하여	-18527
▁노력하였다	-18528
▁만들었으며	-18529
▁발탁되었다	-18530
▁상황이었다	-18531
FL	-18532
냐고	-18533
돈의	-18534
몽골	-18535
▁Br	-18536
▁다닌	-18537
▁메카	-18538
▁오자	-18539
▁일괄	-18540
▁지분	-18541
▁진흙	-18542
▁초콜	-18543
▁핵무	-18544
호선은	-18545
▁CBS	-18546
▁가이드	-18547
▁기원을	-18548
▁단점이	-18549
▁리프트	-18550
▁반발을	-18551
▁재계약	-18552
▁정당한	-18553
▁정보의	-18554
▁혼란에	-18555
▁후대에	-18556
판에서는	-18557
▁넘어갔다	-18558
▁대학교와	-18559
▁절대적인	-18560
▁측에서는	-18561
▁경상북도의	-18562
XT	-18563
빈이	-18564
사라	-18565
속이	-18566
▁고집	-18567
▁군중	-18568
▁그럴	-18569
▁마블	-18570
▁무찌	-18571
▁박해	-18572
▁색의	-18573
▁유포	-18574
▁자민	-18575
▁장안	-18576
▁정경	-18577
▁해남	-18578
▁호쿠	-18579
▁후유	-18580
기술을	-18581
슬레틱	-18582
▁1~2	-18583
▁성질이	-18584
▁신임을	-18585
▁입장에	-18586
▁작가로	-18587
▁죽이는	-18588
▁케이프	-18589
▁호르몬	-18590
했습니다	-18591
▁무로마치	-18592
▁이슬람교	-18593
▁설명하였다	-18594
▁실시하였다	-18595
균은	-18596
기통	-18597
레와	-18598
립의	-18599
모양	-18600
변수	-18601
월은	-18602
ier	-18603
per	-18604
▁ex	-18605
▁개수	-18606
▁남산	-18607
▁배향	-18608
▁아소	-18609
▁에른	-18610
▁주창	-18611
▁키스	-18612
▁펼친	-18613
삼국지	-18614
▁교수의	-18615
▁다리는	-18616
▁대학이	-18617
▁돌려보	-18618
▁철학과	-18619
▁확률이	-18620
▁확인된	-18621
▁지원했다	-18622
▁트레이닝	-18623
▁미드필더로	-18624
아니	-18625
▁9,	-18626
▁광무	-18627
▁광물	-18628
▁군복	-18629
▁기를	-18630
▁만인	-18631
▁배후	-18632
▁슈타	-18633
▁신원	-18634
▁여타	-18635
▁중원	-18636
▁찍어	-18637
▁향을	-18638
▁혼혈	-18639
로니아	-18640
▁게스트	-18641
▁떠나게	-18642
▁바꿨다	-18643
▁앨리스	-18644
▁주기로	-18645
▁코드는	-18646
▁패러디	-18647
▁폭넓은	-18648
년까지의	-18649
ction	-18650
▁국왕으로	-18651
▁근거하여	-18652
▁법적으로	-18653
▁소아시아	-18654
▁입학했다	-18655
▁생산되었다	-18656
너와	-18657
무덤	-18658
암을	-18659
탈을	-18660
▁목재	-18661
▁배의	-18662
▁비어	-18663
▁창녕	-18664
가이자	-18665
차전은	-18666
▁GNU	-18667
▁비정상	-18668
▁장착한	-18669
▁전자가	-18670
▁프리스	-18671
▁1869	-18672
▁국가정보	-18673
▁이전하였다	-18674
▁취소되었다	-18675
▁괘	-18676
궁은	-18677
주아	-18678
▁JT	-18679
▁데미	-18680
▁받던	-18681
▁불신	-18682
▁아뢰	-18683
▁참의	-18684
▁치환	-18685
▁카사	-18686
▁캐시	-18687
▁헌병	-18688
▁개최한	-18689
▁사상에	-18690
▁설계된	-18691
▁소설의	-18692
▁오르게	-18693
해졌으며	-18694
▁명나라에	-18695
▁신분으로	-18696
▁아들이자	-18697
▁이외에는	-18698
▁함수이다	-18699
▁대승불교의	-18700
▁러시아에서	-18701
▁낡	-18702
▁뢰	-18703
▁싹	-18704
키로	-18705
티넘	-18706
화문	-18707
▁개개	-18708
▁대좌	-18709
▁띠는	-18710
▁사귀	-18711
▁성도	-18712
▁소문	-18713
▁족의	-18714
▁카지	-18715
▁포츠	-18716
▁현은	-18717
바야시	-18718
활동에	-18719
▁물러난	-18720
▁미군은	-18721
▁재료를	-18722
▁지하에	-18723
공화국의	-18724
▁러시아가	-18725
▁민주노동	-18726
▁승강장의	-18727
▁이적하여	-18728
▁평가받고	-18729
▁제작하였다	-18730
▁설일체유부의	-18731
▁시작되었으며	-18732
▁뭐	-18733
렌은	-18734
빨리	-18735
팀과	-18736
▁낮추	-18737
▁세라	-18738
▁요괴	-18739
▁형용	-18740
다니는	-18741
▁기원후	-18742
▁독립한	-18743
▁번이나	-18744
▁범위가	-18745
▁사명을	-18746
▁새정치	-18747
▁세력에	-18748
▁아카이	-18749
▁양자역	-18750
▁정책이	-18751
▁타인의	-18752
▁폼페이	-18753
▁한번도	-18754
▁경우이다	-18755
--	-18756
.,	-18757
빌리	-18758
▁레일	-18759
▁묶여	-18760
▁사각	-18761
▁삼은	-18762
▁잠입	-18763
연합회	-18764
▁가공의	-18765
▁결정할	-18766
▁내용과	-18767
▁생명의	-18768
▁에이전	-18769
▁영원한	-18770
▁일부러	-18771
사회주의	-18772
▁1878	-18773
▁공간에서	-18774
▁급격하게	-18775
▁대중에게	-18776
▁본관으로	-18777
▁참가하고	-18778
▁컴퓨터에	-18779
[...]
