{
  "version": "1.0",
  "truncation": null,
  "padding": null,
  "added_tokens": [
    {
      "id": 0,
      "content": "[PAD]",
      "single_word": false,
      "lstrip": false,
      "rstrip": false,
      "normalized": false,
      "special": true
    },
    {
      "id": 1,
      "content": "[UNK]",
      "single_word": false,
      "lstrip": false,
      "rstrip": false,
      "normalized": false,
      "special": true
    },
    {
      "id": 2,
      "content": "[CLS]",
      "single_word": false,
      "lstrip": false,
      "rstrip": false,
      "normalized": false,
      "special": true
    },
    {
      "id": 3,
      "content": "[SEP]",
      "single_word": false,
      "lstrip": false,
      "rstrip": false,
      "normalized": false,
      "special": true
    },
    {
      "id": 4,
      "content": "[MASK]",
      "single_word": false,
      "lstrip": false,
      "rstrip": false,
      "normalized": false,
      "special": true
    }
  ],
  "normalizer": {
    "type": "BertNormalizer",
    "clean_text": true,
    "handle_chinese_chars": true,
    "strip_accents": null,
    "lowercase": false
  },
  "pre_tokenizer": {
    "type": "BertPreTokenizer"
  },
  "post_processor": {
    "type": "TemplateProcessing",
    "single": [
      {
        "SpecialToken": {
          "id": "[CLS]",
          "type_id": 0
        }
      },
      {
        "Sequence": {
          "id": "A",
          "type_id": 0
        }
      },
      {
        "SpecialToken": {
          "id": "[SEP]",
          "type_id": 0
        }
      }
    ],
    "pair": [
      {
        "SpecialToken": {
          "id": "[CLS]",
          "type_id": 0
        }
      },
      {
        "Sequence": {
          "id": "A",
          "type_id": 0
        }
      },
      {
        "SpecialToken": {
          "id": "[SEP]",
          "type_id": 0
        }
      },
      {
        "Sequence": {
          "id": "B",
          "type_id": 1
        }
      },
      {
        "SpecialToken": {
          "id": "[SEP]",
          "type_id": 1
        }
      }
    ],
    "special_tokens": {
      "[CLS]": {
        "id": "[CLS]",
        "ids": [
          2
        ],
        "tokens": [
          "[CLS]"
        ]
      },
      "[SEP]": {
        "id": "[SEP]",
        "ids": [
          3
        ],
        "tokens": [
          "[SEP]"
        ]
      }
    }
  },
  "decoder": {
    "type": "WordPiece",
    "prefix": "##",
    "cleanup": true
  },
  "model": {
    "type": "WordPiece",
    "unk_token": "[UNK]",
    "continuing_subword_prefix": "##",
    "max_input_chars_per_word": 100,
    "vocab": {
      "[PAD]": 0,
      "[UNK]": 1,
      "[CLS]": 2,
      "[SEP]": 3,
      "[MASK]": 4,
      "\"": 5,
      "'": 6,
      "0": 7,
      "1": 8,
      "2": 9,
      "3": 10,
      "4": 11,
      "5": 12,
      "6": 13,
      "7": 14,
      "8": 15,
      "9": 16,
      "A": 17,
      "B": 18,
      "C": 19,
      "D": 20,
      "E": 21,
      "F": 22,
      "G": 23,
      "H": 24,
      "I": 25,
      "J": 26,
      "K": 27,
      "L": 28,
      "M": 29,
      "N": 30,
      "O": 31,
      "P": 32,
      "Q": 33,
      "R": 34,
      "S": 35,
      "T": 36,
      "U": 37,
      "V": 38,
      "W": 39,
      "X": 40,
      "Y": 41,
      "Z": 42,
      "a": 43,
      "b": 44,
      "c": 45,
      "d": 46,
      "e": 47,
      "f": 48,
      "g": 49,
      "h": 50,
      "i": 51,
      "j": 52,
      "k": 53,
      "l": 54,
      "m": 55,
      "n": 56,
      "o": 57,
      "p": 58,
      "q": 59,
      "r": 60,
      "s": 61,
      "t": 62,
      "u": 63,
      "v": 64,
      "w": 65,
      "x": 66,
      "y": 67,
      "z": 68,
      "ㄱ": 69,
      "ㄲ": 70,
      "ㄳ": 71,
      "ㄴ": 72,
      "ㄵ": 73,
      "ㄶ": 74,
      "ㄷ": 75,
      "ㄸ": 76,
      "ㄹ": 77,
      "ㄺ": 78,
      "ㄻ": 79,
      "ㄼ": 80,
      "ㄽ": 81,
      "ㄾ": 82,
      "ㄿ": 83,
      "ㅀ": 84,
      "ㅁ": 85,
      "ㅂ": 86,
      "ㅃ": 87,
      "ㅄ": 88,
      "ㅅ": 89,
      "ㅆ": 90,
      "ㅇ": 91,
      "ㅈ": 92,
      "ㅉ": 93,
      "ㅊ": 94,
      "ㅋ": 95,
      "ㅌ": 96,
      "ㅍ": 97,
      "ㅎ": 98,
      "ㅏ": 99,
      "ㅐ": 100,
      "ㅑ": 101,
      "ㅒ": 102,
      "ㅓ": 103,
      "ㅔ": 104,
      "ㅕ": 105,
      "ㅖ": 106,
      "ㅗ": 107,
      "ㅘ": 108,
      "ㅙ": 109,
      "ㅚ": 110,
      "ㅛ": 111,
      "ㅜ": 112,
      "ㅝ": 113,
      "ㅞ": 114,
      "ㅟ": 115,
      "ㅠ": 116,
      "ㅡ": 117,
      "ㅢ": 118,
      "ㅣ": 119,
      "가": 120,
      "각": 121,
      "갂": 122,
      "간": 123,
      "갇": 124,
      "갈": 125,
      "갉": 126,
      "감": 127,
      "갑": 128,
      "값": 129,
      "갓": 130,
      "갔": 131,
      "강": 132,
      "갖": 133,
      "갗": 134,
      "갘": 135,
      "같": 136,
      "갚": 137,
      "갛": 138,
      "개": 139,
      "객": 140,
      "갠": 141,
      "갤": 142,
      "갬": 143,
      "갭": 144,
      "갯": 145,
      "갰": 146,
      "갱": 147,
      "갶": 148,
      "갸": 149,
      "갹": 150,
      "갼": 151,
      "걀": 152,
      "걈": 153,
      "걋": 154,
      "걍": 155,
      "걑": 156,
      "걔": 157,
      "걘": 158,
      "거": 159,
      "걱": 160,
      "걲": 161,
      "건": 162,
      "걷": 163,
      "걸": 164,
      "검": 165,
      "겁": 166,
      "겂": 167,
      "것": 168,
      "겄": 169,
      "겅": 170,
      "겇": 171,
      "겉": 172,
      "겊": 173,
      "겋": 174,
      "게": 175,
      "겍": 176,
      "겐": 177,
      "겔": 178,
      "겜": 179,
      "겝": 180,
      "겟": 181,
      "겠": 182,
      "겡": 183,
      "겣": 184,
      "겨": 185,
      "격": 186,
      "겪": 187,
      "견": 188,
      "겯": 189,
      "결": 190,
      "겸": 191,
      "겹": 192,
      "겻": 193,
      "겼": 194,
      "경": 195,
      "겿": 196,
      "곁": 197,
      "곂": 198,
      "계": 199,
      "곅": 200,
      "곈": 201,
      "곗": 202,
      "곘": 203,
      "고": 204,
      "곡": 205,
      "곤": 206,
      "곧": 207,
      "골": 208,
      "곪": 209,
      "곬": 210,
      "곯": 211,
      "곰": 212,
      "곱": 213,
      "곳": 214,
      "공": 215,
      "곶": 216,
      "곷": 217,
      "곹": 218,
      "곺": 219,
      "과": 220,
      "곽": 221,
      "관": 222,
      "괁": 223,
      "괄": 224,
      "괌": 225,
      "괍": 226,
      "괏": 227,
      "광": 228,
      "괕": 229,
      "괘": 230,
      "괜": 231,
      "괭": 232,
      "괴": 233,
      "괵": 234,
      "괸": 235,
      "괼": 236,
      "굄": 237,
      "굇": 238,
      "굉": 239,
      "교": 240,
      "굑": 241,
      "굔": 242,
      "굘": 243,
      "굠": 244,
      "굣": 245,
      "굥": 246,
      "굦": 247,
      "구": 248,
      "국": 249,
      "군": 250,
      "굳": 251,
      "굴": 252,
      "굵": 253,
      "굶": 254,
      "굻": 255,
      "굼": 256,
      "굽": 257,
      "굿": 258,
      "궁": 259,
      "궂": 260,
      "궃": 261,
      "궇": 262,
      "궈": 263,
      "궉": 264,
      "권": 265,
      "궎": 266,
      "궐": 267,
      "궘": 268,
      "궜": 269,
      "궝": 270,
      "궡": 271,
      "궤": 272,
      "궨": 273,
      "궬": 274,
      "궴": 275,
      "궷": 276,
      "귀": 277,
      "귁": 278,
      "귄": 279,
      "귈": 280,
      "귐": 281,
      "귑": 282,
      "귓": 283,
      "규": 284,
      "귝": 285,
      "균": 286,
      "귤": 287,
      "귬": 288,
      "그": 289,
      "극": 290,
      "근": 291,
      "귿": 292,
      "글": 293,
      "긁": 294,
      "긆": 295,
      "금": 296,
      "급": 297,
      "긋": 298,
      "긍": 299,
      "긑": 300,
      "긔": 301,
      "긜": 302,
      "기": 303,
      "긱": 304,
      "긴": 305,
      "긷": 306,
      "길": 307,
      "긾": 308,
      "김": 309,
      "깁": 310,
      "깂": 311,
      "깃": 312,
      "깄": 313,
      "깅": 314,
      "깆": 315,
      "깊": 316,
      "깋": 317,
      "까": 318,
      "깍": 319,
      "깎": 320,
      "깐": 321,
      "깓": 322,
      "깔": 323,
      "깖": 324,
      "깜": 325,
      "깝": 326,
      "깟": 327,
      "깠": 328,
      "깡": 329,
      "깢": 330,
      "깥": 331,
      "깨": 332,
      "깩": 333,
      "깬": 334,
      "깰": 335,
      "깸": 336,
      "깹": 337,
      "깻": 338,
      "깼": 339,
      "깽": 340,
      "꺄": 341,
      "꺅": 342,
      "꺌": 343,
      "꺠": 344,
      "꺤": 345,
      "꺼": 346,
      "꺽": 347,
      "꺾": 348,
      "껀": 349,
      "껄": 350,
      "껌": 351,
      "껍": 352,
      "껏": 353,
      "껐": 354,
      "껑": 355,
      "께": 356,
      "껙": 357,
      "껜": 358,
      "껠": 359,
      "껩": 360,
      "껫": 361,
      "껭": 362,
      "껴": 363,
      "껶": 364,
      "껸": 365,
      "껼": 366,
      "꼇": 367,
      "꼈": 368,
      "꼍": 369,
      "꼬": 370,
      "꼭": 371,
      "꼮": 372,
      "꼰": 373,
      "꼳": 374,
      "꼴": 375,
      "꼼": 376,
      "꼽": 377,
      "꼿": 378,
      "꽁": 379,
      "꽂": 380,
      "꽃": 381,
      "꽅": 382,
      "꽆": 383,
      "꽈": 384,
      "꽉": 385,
      "꽌": 386,
      "꽐": 387,
      "꽛": 388,
      "꽝": 389,
      "꽤": 390,
      "꽥": 391,
      "꽦": 392,
      "꽨": 393,
      "꽹": 394,
      "꾀": 395,
      "꾄": 396,
      "꾐": 397,
      "꾕": 398,
      "꾜": 399,
      "꾸": 400,
      "꾹": 401,
      "꾼": 402,
      "꾾": 403,
      "꾿": 404,
      "꿀": 405,
      "꿇": 406,
      "꿈": 407,
      "꿉": 408,
      "꿋": 409,
      "꿍": 410,
      "꿎": 411,
      "꿏": 412,
      "꿔": 413,
      "꿕": 414,
      "꿘": 415,
      "꿨": 416,
      "꿩": 417,
      "꿰": 418,
      "꿴": 419,
      "꿸": 420,
      "뀀": 421,
      "뀌": 422,
      "뀍": 423,
      "뀐": 424,
      "뀔": 425,
      "뀜": 426,
      "뀝": 427,
      "뀠": 428,
      "뀨": 429,
      "끄": 430,
      "끅": 431,
      "끈": 432,
      "끊": 433,
      "끌": 434,
      "끍": 435,
      "끎": 436,
      "끓": 437,
      "끔": 438,
      "끕": 439,
      "끗": 440,
      "끙": 441,
      "끝": 442,
      "끼": 443,
      "끽": 444,
      "낀": 445,
      "낄": 446,
      "낌": 447,
      "낍": 448,
      "낏": 449,
      "낑": 450,
      "나": 451,
      "낙": 452,
      "낚": 453,
      "낛": 454,
      "난": 455,
      "낟": 456,
      "날": 457,
      "낡": 458,
      "낢": 459,
      "낣": 460,
      "남": 461,
      "납": 462,
      "낫": 463,
      "났": 464,
      "낭": 465,
      "낮": 466,
      "낯": 467,
      "낱": 468,
      "낲": 469,
      "낳": 470,
      "내": 471,
      "낵": 472,
      "낸": 473,
      "낻": 474,
      "낼": 475,
      "냄": 476,
      "냅": 477,
      "냇": 478,
      "냈": 479,
      "냉": 480,
      "냐": 481,
      "냑": 482,
      "냔": 483,
      "냘": 484,
      "냠": 485,
      "냡": 486,
      "냣": 487,
      "냤": 488,
      "냥": 489,
      "냬": 490,
      "넀": 491,
      "넁": 492,
      "너": 493,
      "넉": 494,
      "넋": 495,
      "넌": 496,
      "넎": 497,
      "널": 498,
      "넑": 499,
      "넒": 500,
      "넓": 501,
      "넖": 502,
      "넗": 503,
      "넘": 504,
      "넙": 505,
      "넚": 506,
      "넛": 507,
      "넜": 508,
      "넝": 509,
      "넡": 510,
      "넢": 511,
      "넣": 512,
      "네": 513,
      "넥": 514,
      "넨": 515,
      "넬": 516,
      "넴": 517,
      "넵": 518,
      "넷": 519,
      "넸": 520,
      "넹": 521,
      "녀": 522,
      "녁": 523,
      "년": 524,
      "녅": 525,
      "녈": 526,
      "녋": 527,
      "념": 528,
      "녑": 529,
      "녓": 530,
      "녔": 531,
      "녕": 532,
      "녘": 533,
      "녙": 534,
      "녜": 535,
      "녝": 536,
      "녠": 537,
      "녤": 538,
      "녬": 539,
      "녯": 540,
      "노": 541,
      "녹": 542,
      "논": 543,
      "놀": 544,
      "놂": 545,
      "놈": 546,
      "놉": 547,
      "놋": 548,
      "농": 549,
      "높": 550,
      "놓": 551,
      "놔": 552,
      "놘": 553,
      "놨": 554,
      "놩": 555,
      "놰": 556,
      "뇌": 557,
      "뇍": 558,
      "뇐": 559,
      "뇔": 560,
      "뇜": 561,
      "뇨": 562,
      "뇩": 563,
      "뇬": 564,
      "뇰": 565,
      "뇸": 566,
      "뇻": 567,
      "뇽": 568,
      "누": 569,
      "눅": 570,
      "눈": 571,
      "눋": 572,
      "눌": 573,
      "눔": 574,
      "눕": 575,
      "눗": 576,
      "눙": 577,
      "눞": 578,
      "눠": 579,
      "눴": 580,
      "눼": 581,
      "뉘": 582,
      "뉙": 583,
      "뉜": 584,
      "뉠": 585,
      "뉨": 586,
      "뉩": 587,
      "뉴": 588,
      "뉵": 589,
      "뉸": 590,
      "뉼": 591,
      "늄": 592,
      "늇": 593,
      "늉": 594,
      "느": 595,
      "늑": 596,
      "늒": 597,
      "는": 598,
      "늗": 599,
      "늘": 600,
      "늙": 601,
      "늚": 602,
      "늠": 603,
      "늡": 604,
      "늣": 605,
      "능": 606,
      "늦": 607,
      "늩": 608,
      "늪": 609,
      "늬": 610,
      "늰": 611,
      "늴": 612,
      "늿": 613,
      "니": 614,
      "닉": 615,
      "닌": 616,
      "닐": 617,
      "닑": 618,
      "님": 619,
      "닙": 620,
      "닛": 621,
      "닜": 622,
      "닝": 623,
      "닞": 624,
      "닢": 625,
      "다": 626,
      "닥": 627,
      "닦": 628,
      "단": 629,
      "닫": 630,
      "달": 631,
      "닭": 632,
      "닮": 633,
      "닯": 634,
      "닳": 635,
      "담": 636,
      "답": 637,
      "닷": 638,
      "닸": 639,
      "당": 640,
      "닺": 641,
      "닻": 642,
      "닽": 643,
      "닿": 644,
      "대": 645,
      "댁": 646,
      "댄": 647,
      "댈": 648,
      "댐": 649,
      "댑": 650,
      "댓": 651,
      "댔": 652,
      "댕": 653,
      "댚": 654,
      "댛": 655,
      "댜": 656,
      "댠": 657,
      "댤": 658,
      "댱": 659,
      "댸": 660,
      "더": 661,
      "덕": 662,
      "덖": 663,
      "던": 664,
      "덙": 665,
      "덛": 666,
      "덜": 667,
      "덞": 668,
      "덟": 669,
      "덣": 670,
      "덤": 671,
      "덥": 672,
      "덧": 673,
      "덨": 674,
      "덩": 675,
      "덪": 676,
      "덫": 677,
      "덭": 678,
      "덮": 679,
      "덯": 680,
      "데": 681,
      "덱": 682,
      "덴": 683,
      "델": 684,
      "뎀": 685,
      "뎁": 686,
      "뎃": 687,
      "뎅": 688,
      "뎌": 689,
      "뎐": 690,
      "뎗": 691,
      "뎝": 692,
      "뎠": 693,
      "뎡": 694,
      "뎦": 695,
      "뎨": 696,
      "뎬": 697,
      "뎰": 698,
      "도": 699,
      "독": 700,
      "돇": 701,
      "돈": 702,
      "돋": 703,
      "돌": 704,
      "돎": 705,
      "돐": 706,
      "돔": 707,
      "돕": 708,
      "돗": 709,
      "동": 710,
      "돚": 711,
      "돛": 712,
      "돝": 713,
      "돟": 714,
      "돠": 715,
      "돤": 716,
      "돨": 717,
      "돰": 718,
      "돴": 719,
      "돵": 720,
      "돼": 721,
      "돽": 722,
      "됀": 723,
      "됄": 724,
      "됌": 725,
      "됏": 726,
      "됐": 727,
      "되": 728,
      "됙": 729,
      "된": 730,
      "될": 731,
      "됢": 732,
      "됨": 733,
      "됩": 734,
      "됫": 735,
      "됬": 736,
      "됭": 737,
      "됮": 738,
      "됰": 739,
      "됴": 740,
      "됸": 741,
      "됼": 742,
      "둉": 743,
      "둏": 744,
      "두": 745,
      "둑": 746,
      "둔": 747,
      "둗": 748,
      "둘": 749,
      "둚": 750,
      "둟": 751,
      "둠": 752,
      "둡": 753,
      "둣": 754,
      "둥": 755,
      "둬": 756,
      "둰": 757,
      "둴": 758,
      "둿": 759,
      "뒀": 760,
      "뒁": 761,
      "뒈": 762,
      "뒤": 763,
      "뒨": 764,
      "뒬": 765,
      "뒴": 766,
      "뒵": 767,
      "뒷": 768,
      "뒸": 769,
      "뒹": 770,
      "듀": 771,
      "듁": 772,
      "듄": 773,
      "듈": 774,
      "듐": 775,
      "듕": 776,
      "드": 777,
      "득": 778,
      "든": 779,
      "듣": 780,
      "들": 781,
      "듦": 782,
      "듧": 783,
      "듫": 784,
      "듬": 785,
      "듭": 786,
      "듯": 787,
      "등": 788,
      "듸": 789,
      "디": 790,
      "딕": 791,
      "딘": 792,
      "딛": 793,
      "딜": 794,
      "딤": 795,
      "딥": 796,
      "딧": 797,
      "딨": 798,
      "딩": 799,
      "딪": 800,
      "딫": 801,
      "딯": 802,
      "따": 803,
      "딱": 804,
      "딴": 805,
      "딷": 806,
      "딸": 807,
      "땀": 808,
      "땁": 809,
      "땃": 810,
      "땄": 811,
      "땅": 812,
      "땋": 813,
      "때": 814,
      "땍": 815,
      "땐": 816,
      "땔": 817,
      "땜": 818,
      "땝": 819,
      "땟": 820,
      "땠": 821,
      "땡": 822,
      "땨": 823,
      "땸": 824,
      "땽": 825,
      "떄": 826,
      "떘": 827,
      "떙": 828,
      "떠": 829,
      "떡": 830,
      "떢": 831,
      "떤": 832,
      "떥": 833,
      "떦": 834,
      "떨": 835,
      "떪": 836,
      "떫": 837,
      "떯": 838,
      "떰": 839,
      "떱": 840,
      "떳": 841,
      "떴": 842,
      "떵": 843,
      "떻": 844,
      "떼": 845,
      "뗀": 846,
      "뗄": 847,
      "뗌": 848,
      "뗏": 849,
      "뗐": 850,
      "뗑": 851,
      "뗘": 852,
      "뗬": 853,
      "뗴": 854,
      "뗼": 855,
      "또": 856,
      "똑": 857,
      "똔": 858,
      "똘": 859,
      "똠": 860,
      "똣": 861,
      "똥": 862,
      "똫": 863,
      "똬": 864,
      "뙈": 865,
      "뙡": 866,
      "뙤": 867,
      "뙨": 868,
      "뚜": 869,
      "뚝": 870,
      "뚠": 871,
      "뚤": 872,
      "뚧": 873,
      "뚫": 874,
      "뚬": 875,
      "뚯": 876,
      "뚱": 877,
      "뚸": 878,
      "뛔": 879,
      "뛰": 880,
      "뛴": 881,
      "뛸": 882,
      "뜀": 883,
      "뜁": 884,
      "뜨": 885,
      "뜩": 886,
      "뜬": 887,
      "뜯": 888,
      "뜰": 889,
      "뜷": 890,
      "뜸": 891,
      "뜹": 892,
      "뜻": 893,
      "뜽": 894,
      "띁": 895,
      "띄": 896,
      "띅": 897,
      "띈": 898,
      "띌": 899,
      "띔": 900,
      "띠": 901,
      "띡": 902,
      "띤": 903,
      "띨": 904,
      "띰": 905,
      "띱": 906,
      "띳": 907,
      "띵": 908,
      "라": 909,
      "락": 910,
      "란": 911,
      "랃": 912,
      "랄": 913,
      "람": 914,
      "랍": 915,
      "랏": 916,
      "랐": 917,
      "랑": 918,
      "랒": 919,
      "랓": 920,
      "랖": 921,
      "랗": 922,
      "래": 923,
      "랙": 924,
      "랛": 925,
      "랜": 926,
      "랠": 927,
      "랢": 928,
      "램": 929,
      "랩": 930,
      "랫": 931,
      "랬": 932,
      "랭": 933,
      "랰": 934,
      "랲": 935,
      "랴": 936,
      "략": 937,
      "랸": 938,
      "랼": 939,
      "럄": 940,
      "럅": 941,
      "럇": 942,
      "럈": 943,
      "량": 944,
      "럐": 945,
      "럔": 946,
      "럘": 947,
      "러": 948,
      "럭": 949,
      "런": 950,
      "럲": 951,
      "럴": 952,
      "럼": 953,
      "럽": 954,
      "럿": 955,
      "렀": 956,
      "렁": 957,
      "렃": 958,
      "렆": 959,
      "렇": 960,
      "레": 961,
      "렉": 962,
      "렌": 963,
      "렐": 964,
      "렗": 965,
      "렘": 966,
      "렙": 967,
      "렛": 968,
      "렜": 969,
      "렝": 970,
      "렠": 971,
      "려": 972,
      "력": 973,
      "련": 974,
      "렬": 975,
      "렴": 976,
      "렵": 977,
      "렷": 978,
      "렸": 979,
      "령": 980,
      "례": 981,
      "롄": 982,
      "롈": 983,
      "롐": 984,
      "롓": 985,
      "로": 986,
      "록": 987,
      "론": 988,
      "롤": 989,
      "롬": 990,
      "롭": 991,
      "롯": 992,
      "롱": 993,
      "롲": 994,
      "롸": 995,
      "롹": 996,
      "롼": 997,
      "뢀": 998,
      "뢨": 999,
      "뢰": 1000,
      "뢱": 1001,
      "뢴": 1002,
      "뢸": 1003,
      "룀": 1004,
      "룁": 1005,
      "룅": 1006,
      "료": 1007,
      "룍": 1008,
      "룐": 1009,
      "룔": 1010,
      "룝": 1011,
      "룟": 1012,
      "룡": 1013,
      "룧": 1014,
      "루": 1015,
      "룩": 1016,
      "룬": 1017,
      "룰": 1018,
      "룸": 1019,
      "룹": 1020,
      "룻": 1021,
      "룽": 1022,
      "뤀": 1023,
      "뤄": 1024,
      "뤈": 1025,
      "뤌": 1026,
      "뤗": 1027,
      "뤘": 1028,
      "뤠": 1029,
      "뤡": 1030,
      "뤨": 1031,
      "뤵": 1032,
      "뤼": 1033,
      "뤽": 1034,
      "륀": 1035,
      "륄": 1036,
      "륌": 1037,
      "륍": 1038,
      "륏": 1039,
      "륐": 1040,
      "륑": 1041,
      "류": 1042,
      "륙": 1043,
      "륜": 1044,
      "률": 1045,
      "륨": 1046,
      "륩": 1047,
      "륫": 1048,
      "륭": 1049,
      "륱": 1050,
      "르": 1051,
      "륵": 1052,
      "른": 1053,
      "륻": 1054,
      "를": 1055,
      "륽": 1056,
      "름": 1057,
      "릅": 1058,
      "릇": 1059,
      "릉": 1060,
      "릊": 1061,
      "릌": 1062,
      "릍": 1063,
      "릎": 1064,
      "릐": 1065,
      "릘": 1066,
      "리": 1067,
      "릭": 1068,
      "린": 1069,
      "릳": 1070,
      "릴": 1071,
      "릷": 1072,
      "림": 1073,
      "립": 1074,
      "릿": 1075,
      "링": 1076,
      "맃": 1077,
      "맄": 1078,
      "맆": 1079,
      "마": 1080,
      "막": 1081,
      "맊": 1082,
      "만": 1083,
      "많": 1084,
      "맏": 1085,
      "말": 1086,
      "맑": 1087,
      "맔": 1088,
      "맗": 1089,
      "맘": 1090,
      "맙": 1091,
      "맛": 1092,
      "맜": 1093,
      "망": 1094,
      "맞": 1095,
      "맟": 1096,
      "맠": 1097,
      "맡": 1098,
      "맣": 1099,
      "매": 1100,
      "맥": 1101,
      "맨": 1102,
      "맬": 1103,
      "맴": 1104,
      "맵": 1105,
      "맷": 1106,
      "맸": 1107,
      "맹": 1108,
      "맺": 1109,
      "맻": 1110,
      "맽": 1111,
      "먀": 1112,
      "먁": 1113,
      "먄": 1114,
      "먈": 1115,
      "먕": 1116,
      "먗": 1117,
      "머": 1118,
      "먹": 1119,
      "먼": 1120,
      "멀": 1121,
      "멂": 1122,
      "멈": 1123,
      "멉": 1124,
      "멋": 1125,
      "멍": 1126,
      "멎": 1127,
      "멏": 1128,
      "멓": 1129,
      "메": 1130,
      "멕": 1131,
      "멘": 1132,
      "멜": 1133,
      "멤": 1134,
      "멥": 1135,
      "멧": 1136,
      "멨": 1137,
      "멩": 1138,
      "멪": 1139,
      "멫": 1140,
      "며": 1141,
      "멱": 1142,
      "면": 1143,
      "멵": 1144,
      "멸": 1145,
      "몀": 1146,
      "몃": 1147,
      "몄": 1148,
      "명": 1149,
      "몆": 1150,
      "몇": 1151,
      "몊": 1152,
      "몌": 1153,
      "몐": 1154,
      "모": 1155,
      "목": 1156,
      "몫": 1157,
      "몬": 1158,
      "몯": 1159,
      "몰": 1160,
      "몴": 1161,
      "몸": 1162,
      "몹": 1163,
      "못": 1164,
      "몽": 1165,
      "뫂": 1166,
      "뫄": 1167,
      "뫈": 1168,
      "뫔": 1169,
      "뫙": 1170,
      "뫼": 1171,
      "묀": 1172,
      "묄": 1173,
      "묏": 1174,
      "묑": 1175,
      "묘": 1176,
      "묜": 1177,
      "묠": 1178,
      "묫": 1179,
      "묭": 1180,
      "무": 1181,
      "묵": 1182,
      "묶": 1183,
      "문": 1184,
      "묻": 1185,
      "물": 1186,
      "묽": 1187,
      "묾": 1188,
      "뭄": 1189,
      "뭅": 1190,
      "뭇": 1191,
      "뭉": 1192,
      "뭍": 1193,
      "뭏": 1194,
      "뭐": 1195,
      "뭔": 1196,
      "뭘": 1197,
      "뭡": 1198,
      "뭣": 1199,
      "뭬": 1200,
      "뭰": 1201,
      "뭴": 1202,
      "뮈": 1203,
      "뮌": 1204,
      "뮐": 1205,
      "뮝": 1206,
      "뮤": 1207,
      "뮨": 1208,
      "뮬": 1209,
      "뮴": 1210,
      "뮺": 1211,
      "므": 1212,
      "믁": 1213,
      "믄": 1214,
      "믈": 1215,
      "믐": 1216,
      "믓": 1217,
      "믕": 1218,
      "믜": 1219,
      "믠": 1220,
      "믯": 1221,
      "미": 1222,
      "믹": 1223,
      "민": 1224,
      "믾": 1225,
      "믿": 1226,
      "밀": 1227,
      "밂": 1228,
      "밈": 1229,
      "밉": 1230,
      "밋": 1231,
      "밌": 1232,
      "밍": 1233,
      "밎": 1234,
      "및": 1235,
      "밑": 1236,
      "밒": 1237,
      "바": 1238,
      "박": 1239,
      "밖": 1240,
      "반": 1241,
      "밚": 1242,
      "받": 1243,
      "발": 1244,
      "밝": 1245,
      "밞": 1246,
      "밟": 1247,
      "밠": 1248,
      "밡": 1249,
      "밣": 1250,
      "밤": 1251,
      "밥": 1252,
      "밧": 1253,
      "밨": 1254,
      "방": 1255,
      "밪": 1256,
      "밫": 1257,
      "밭": 1258,
      "밯": 1259,
      "배": 1260,
      "백": 1261,
      "밴": 1262,
      "밷": 1263,
      "밸": 1264,
      "뱀": 1265,
      "뱁": 1266,
      "뱃": 1267,
      "뱄": 1268,
      "뱅": 1269,
      "뱆": 1270,
      "뱉": 1271,
      "뱌": 1272,
      "뱍": 1273,
      "뱐": 1274,
      "뱔": 1275,
      "뱜": 1276,
      "뱟": 1277,
      "뱡": 1278,
      "버": 1279,
      "벅": 1280,
      "번": 1281,
      "벉": 1282,
      "벋": 1283,
      "벌": 1284,
      "벏": 1285,
      "범": 1286,
      "법": 1287,
      "벗": 1288,
      "벙": 1289,
      "벚": 1290,
      "벛": 1291,
      "벜": 1292,
      "베": 1293,
      "벡": 1294,
      "벤": 1295,
      "벧": 1296,
      "벨": 1297,
      "벰": 1298,
      "벱": 1299,
      "벳": 1300,
      "벴": 1301,
      "벵": 1302,
      "벹": 1303,
      "벼": 1304,
      "벽": 1305,
      "변": 1306,
      "별": 1307,
      "볍": 1308,
      "볏": 1309,
      "볐": 1310,
      "병": 1311,
      "볓": 1312,
      "볕": 1313,
      "볘": 1314,
      "볙": 1315,
      "볜": 1316,
      "볠": 1317,
      "보": 1318,
      "복": 1319,
      "볶": 1320,
      "본": 1321,
      "볻": 1322,
      "볼": 1323,
      "봄": 1324,
      "봅": 1325,
      "봇": 1326,
      "봉": 1327,
      "봍": 1328,
      "봐": 1329,
      "봔": 1330,
      "봘": 1331,
      "봣": 1332,
      "봤": 1333,
      "봥": 1334,
      "봬": 1335,
      "봭": 1336,
      "뵈": 1337,
      "뵉": 1338,
      "뵌": 1339,
      "뵐": 1340,
      "뵘": 1341,
      "뵙": 1342,
      "뵛": 1343,
      "뵜": 1344,
      "뵝": 1345,
      "뵤": 1346,
      "뵨": 1347,
      "뵬": 1348,
      "뵴": 1349,
      "부": 1350,
      "북": 1351,
      "분": 1352,
      "붇": 1353,
      "불": 1354,
      "붉": 1355,
      "붏": 1356,
      "붐": 1357,
      "붑": 1358,
      "붓": 1359,
      "붔": 1360,
      "붕": 1361,
      "붖": 1362,
      "붘": 1363,
      "붙": 1364,
      "붜": 1365,
      "붸": 1366,
      "뷀": 1367,
      "뷁": 1368,
      "뷋": 1369,
      "뷔": 1370,
      "뷕": 1371,
      "뷘": 1372,
      "뷜": 1373,
      "뷤": 1374,
      "뷧": 1375,
      "뷰": 1376,
      "뷴": 1377,
      "뷸": 1378,
      "븀": 1379,
      "븃": 1380,
      "브": 1381,
      "븍": 1382,
      "븐": 1383,
      "븓": 1384,
      "블": 1385,
      "븜": 1386,
      "븟": 1387,
      "븡": 1388,
      "븥": 1389,
      "븨": 1390,
      "비": 1391,
      "빅": 1392,
      "빈": 1393,
      "빋": 1394,
      "빌": 1395,
      "빎": 1396,
      "빔": 1397,
      "빕": 1398,
      "빗": 1399,
      "빙": 1400,
      "빚": 1401,
      "빛": 1402,
      "빝": 1403,
      "빠": 1404,
      "빡": 1405,
      "빤": 1406,
      "빨": 1407,
      "빩": 1408,
      "빰": 1409,
      "빱": 1410,
      "빳": 1411,
      "빴": 1412,
      "빵": 1413,
      "빻": 1414,
      "빼": 1415,
      "빽": 1416,
      "뺀": 1417,
      "뺄": 1418,
      "뺌": 1419,
      "뺏": 1420,
      "뺐": 1421,
      "뺑": 1422,
      "뺘": 1423,
      "뺙": 1424,
      "뺨": 1425,
      "뺬": 1426,
      "뺴": 1427,
      "뺵": 1428,
      "뺸": 1429,
      "뺼": 1430,
      "뻇": 1431,
      "뻐": 1432,
      "뻑": 1433,
      "뻔": 1434,
      "뻗": 1435,
      "뻘": 1436,
      "뻣": 1437,
      "뻤": 1438,
      "뻥": 1439,
      "뻩": 1440,
      "뻬": 1441,
      "뻰": 1442,
      "뻴": 1443,
      "뻼": 1444,
      "뼈": 1445,
      "뼉": 1446,
      "뼌": 1447,
      "뼘": 1448,
      "뼛": 1449,
      "뼤": 1450,
      "뽀": 1451,
      "뽁": 1452,
      "뽄": 1453,
      "뽈": 1454,
      "뽐": 1455,
      "뽑": 1456,
      "뽕": 1457,
      "뽝": 1458,
      "뾰": 1459,
      "뿅": 1460,
      "뿌": 1461,
      "뿍": 1462,
      "뿐": 1463,
      "뿔": 1464,
      "뿜": 1465,
      "뿟": 1466,
      "뿡": 1467,
      "쀼": 1468,
      "쁘": 1469,
      "쁜": 1470,
      "쁠": 1471,
      "쁨": 1472,
      "쁩": 1473,
      "쁭": 1474,
      "삐": 1475,
      "삑": 1476,
      "삔": 1477,
      "삘": 1478,
      "삠": 1479,
      "삡": 1480,
      "삣": 1481,
      "삥": 1482,
      "사": 1483,
      "삭": 1484,
      "삮": 1485,
      "삯": 1486,
      "산": 1487,
      "삳": 1488,
      "살": 1489,
      "삵": 1490,
      "삶": 1491,
      "삻": 1492,
      "삼": 1493,
      "삽": 1494,
      "삿": 1495,
      "샀": 1496,
      "상": 1497,
      "샂": 1498,
      "샅": 1499,
      "샇": 1500,
      "새": 1501,
      "색": 1502,
      "샊": 1503,
      "샌": 1504,
      "샏": 1505,
      "샐": 1506,
      "샘": 1507,
      "샙": 1508,
      "샛": 1509,
      "샜": 1510,
      "생": 1511,
      "샞": 1512,
      "샤": 1513,
      "샥": 1514,
      "샨": 1515,
      "샬": 1516,
      "샴": 1517,
      "샵": 1518,
      "샷": 1519,
      "샹": 1520,
      "샽": 1521,
      "샾": 1522,
      "섀": 1523,
      "섁": 1524,
      "섄": 1525,
      "섈": 1526,
      "섐": 1527,
      "섓": 1528,
      "섕": 1529,
      "서": 1530,
      "석": 1531,
      "섞": 1532,
      "선": 1533,
      "섡": 1534,
      "섣": 1535,
      "설": 1536,
      "섥": 1537,
      "섦": 1538,
      "섨": 1539,
      "섬": 1540,
      "섭": 1541,
      "섯": 1542,
      "섰": 1543,
      "성": 1544,
      "섵": 1545,
      "섶": 1546,
      "섷": 1547,
      "세": 1548,
      "섹": 1549,
      "센": 1550,
      "섿": 1551,
      "셀": 1552,
      "셈": 1553,
      "셉": 1554,
      "셋": 1555,
      "셌": 1556,
      "셍": 1557,
      "셑": 1558,
      "셔": 1559,
      "셕": 1560,
      "셖": 1561,
      "션": 1562,
      "셜": 1563,
      "셤": 1564,
      "셥": 1565,
      "셧": 1566,
      "셨": 1567,
      "셩": 1568,
      "셰": 1569,
      "셱": 1570,
      "셴": 1571,
      "셸": 1572,
      "솀": 1573,
      "솁": 1574,
      "솃": 1575,
      "솅": 1576,
      "소": 1577,
      "속": 1578,
      "솎": 1579,
      "솏": 1580,
      "손": 1581,
      "솑": 1582,
      "솓": 1583,
      "솔": 1584,
      "솜": 1585,
      "솝": 1586,
      "솟": 1587,
      "송": 1588,
      "솥": 1589,
      "솦": 1590,
      "솨": 1591,
      "솬": 1592,
      "솻": 1593,
      "솽": 1594,
      "쇄": 1595,
      "쇘": 1596,
      "쇠": 1597,
      "쇤": 1598,
      "쇨": 1599,
      "쇰": 1600,
      "쇳": 1601,
      "쇼": 1602,
      "쇽": 1603,
      "숀": 1604,
      "숄": 1605,
      "숌": 1606,
      "숍": 1607,
      "숏": 1608,
      "숑": 1609,
      "숔": 1610,
      "숖": 1611,
      "수": 1612,
      "숙": 1613,
      "순": 1614,
      "숟": 1615,
      "술": 1616,
      "숡": 1617,
      "숧": 1618,
      "숨": 1619,
      "숩": 1620,
      "숫": 1621,
      "숭": 1622,
      "숮": 1623,
      "숯": 1624,
      "숰": 1625,
      "숱": 1626,
      "숲": 1627,
      "숳": 1628,
      "숴": 1629,
      "숸": 1630,
      "쉅": 1631,
      "쉈": 1632,
      "쉉": 1633,
      "쉐": 1634,
      "쉑": 1635,
      "쉔": 1636,
      "쉘": 1637,
      "쉠": 1638,
      "쉡": 1639,
      "쉥": 1640,
      "쉬": 1641,
      "쉭": 1642,
      "쉰": 1643,
      "쉴": 1644,
      "쉼": 1645,
      "쉽": 1646,
      "쉿": 1647,
      "슁": 1648,
      "슈": 1649,
      "슉": 1650,
      "슌": 1651,
      "슐": 1652,
      "슘": 1653,
      "슙": 1654,
      "슛": 1655,
      "슝": 1656,
      "스": 1657,
      "슥": 1658,
      "슨": 1659,
      "슬": 1660,
      "슭": 1661,
      "슯": 1662,
      "슳": 1663,
      "슴": 1664,
      "습": 1665,
      "슷": 1666,
      "승": 1667,
      "슼": 1668,
      "슽": 1669,
      "슾": 1670,
      "싀": 1671,
      "싄": 1672,
      "싈": 1673,
      "시": 1674,
      "식": 1675,
      "신": 1676,
      "싡": 1677,
      "싣": 1678,
      "실": 1679,
      "싦": 1680,
      "싪": 1681,
      "싫": 1682,
      "심": 1683,
      "십": 1684,
      "싯": 1685,
      "싰": 1686,
      "싱": 1687,
      "싲": 1688,
      "싵": 1689,
      "싶": 1690,
      "싸": 1691,
      "싹": 1692,
      "싼": 1693,
      "싾": 1694,
      "싿": 1695,
      "쌀": 1696,
      "쌈": 1697,
      "쌉": 1698,
      "쌋": 1699,
      "쌌": 1700,
      "쌍": 1701,
      "쌓": 1702,
      "쌔": 1703,
      "쌕": 1704,
      "쌘": 1705,
      "쌤": 1706,
      "쌩": 1707,
      "쌰": 1708,
      "쌴": 1709,
      "썅": 1710,
      "써": 1711,
      "썩": 1712,
      "썪": 1713,
      "썬": 1714,
      "썰": 1715,
      "썸": 1716,
      "썹": 1717,
      "썻": 1718,
      "썼": 1719,
      "썽": 1720,
      "쎃": 1721,
      "쎄": 1722,
      "쎅": 1723,
      "쎈": 1724,
      "쎌": 1725,
      "쎕": 1726,
      "쎘": 1727,
      "쎙": 1728,
      "쎴": 1729,
      "쎼": 1730,
      "쎾": 1731,
      "쏘": 1732,
      "쏙": 1733,
      "쏜": 1734,
      "쏟": 1735,
      "쏠": 1736,
      "쏨": 1737,
      "쏩": 1738,
      "쏫": 1739,
      "쏭": 1740,
      "쏱": 1741,
      "쏳": 1742,
      "쏴": 1743,
      "쏸": 1744,
      "쐇": 1745,
      "쐈": 1746,
      "쐉": 1747,
      "쐐": 1748,
      "쐑": 1749,
      "쐬": 1750,
      "쐰": 1751,
      "쐼": 1752,
      "쑈": 1753,
      "쑤": 1754,
      "쑥": 1755,
      "쑨": 1756,
      "쑬": 1757,
      "쑴": 1758,
      "쑷": 1759,
      "쑹": 1760,
      "쒀": 1761,
      "쒜": 1762,
      "쒸": 1763,
      "쒼": 1764,
      "쓔": 1765,
      "쓘": 1766,
      "쓩": 1767,
      "쓰": 1768,
      "쓱": 1769,
      "쓴": 1770,
      "쓸": 1771,
      "쓺": 1772,
      "쓿": 1773,
      "씀": 1774,
      "씁": 1775,
      "씃": 1776,
      "씅": 1777,
      "씉": 1778,
      "씌": 1779,
      "씐": 1780,
      "씨": 1781,
      "씩": 1782,
      "씬": 1783,
      "씰": 1784,
      "씸": 1785,
      "씹": 1786,
      "씻": 1787,
      "씼": 1788,
      "씽": 1789,
      "앃": 1790,
      "아": 1791,
      "악": 1792,
      "앆": 1793,
      "안": 1794,
      "앉": 1795,
      "않": 1796,
      "앋": 1797,
      "알": 1798,
      "앎": 1799,
      "앏": 1800,
      "앓": 1801,
      "암": 1802,
      "압": 1803,
      "앖": 1804,
      "앗": 1805,
      "았": 1806,
      "앙": 1807,
      "앚": 1808,
      "앛": 1809,
      "앜": 1810,
      "앝": 1811,
      "앞": 1812,
      "앟": 1813,
      "애": 1814,
      "액": 1815,
      "앤": 1816,
      "앧": 1817,
      "앨": 1818,
      "앰": 1819,
      "앱": 1820,
      "앳": 1821,
      "앴": 1822,
      "앵": 1823,
      "앹": 1824,
      "야": 1825,
      "약": 1826,
      "얀": 1827,
      "얂": 1828,
      "얄": 1829,
      "얅": 1830,
      "얆": 1831,
      "얇": 1832,
      "얉": 1833,
      "얊": 1834,
      "얌": 1835,
      "얍": 1836,
      "얏": 1837,
      "얐": 1838,
      "양": 1839,
      "얕": 1840,
      "얖": 1841,
      "얗": 1842,
      "얘": 1843,
      "얜": 1844,
      "얠": 1845,
      "얨": 1846,
      "얩": 1847,
      "얫": 1848,
      "얬": 1849,
      "얭": 1850,
      "어": 1851,
      "억": 1852,
      "얶": 1853,
      "언": 1854,
      "얹": 1855,
      "얺": 1856,
      "얻": 1857,
      "얼": 1858,
      "얽": 1859,
      "얾": 1860,
      "엄": 1861,
      "업": 1862,
      "없": 1863,
      "엇": 1864,
      "었": 1865,
      "엉": 1866,
      "엊": 1867,
      "엌": 1868,
      "엎": 1869,
      "에": 1870,
      "엑": 1871,
      "엔": 1872,
      "엗": 1873,
      "엘": 1874,
      "엝": 1875,
      "엠": 1876,
      "엡": 1877,
      "엣": 1878,
      "엤": 1879,
      "엥": 1880,
      "엩": 1881,
      "엪": 1882,
      "여": 1883,
      "역": 1884,
      "엮": 1885,
      "엯": 1886,
      "연": 1887,
      "엳": 1888,
      "열": 1889,
      "엵": 1890,
      "엶": 1891,
      "엷": 1892,
      "엹": 1893,
      "염": 1894,
      "엽": 1895,
      "엾": 1896,
      "엿": 1897,
      "였": 1898,
      "영": 1899,
      "옄": 1900,
      "옅": 1901,
      "옆": 1902,
      "옇": 1903,
      "예": 1904,
      "옉": 1905,
      "옌": 1906,
      "옐": 1907,
      "옘": 1908,
      "옙": 1909,
      "옛": 1910,
      "옜": 1911,
      "옝": 1912,
      "오": 1913,
      "옥": 1914,
      "온": 1915,
      "올": 1916,
      "옭": 1917,
      "옮": 1918,
      "옯": 1919,
      "옰": 1920,
      "옲": 1921,
      "옳": 1922,
      "옴": 1923,
      "옵": 1924,
      "옷": 1925,
      "옸": 1926,
      "옹": 1927,
      "옺": 1928,
      "옻": 1929,
      "옽": 1930,
      "옾": 1931,
      "와": 1932,
      "왁": 1933,
      "완": 1934,
      "왈": 1935,
      "왐": 1936,
      "왑": 1937,
      "왓": 1938,
      "왔": 1939,
      "왕": 1940,
      "왜": 1941,
      "왝": 1942,
      "왠": 1943,
      "왬": 1944,
      "왯": 1945,
      "왰": 1946,
      "왱": 1947,
      "외": 1948,
      "왹": 1949,
      "왼": 1950,
      "왿": 1951,
      "욀": 1952,
      "욈": 1953,
      "욋": 1954,
      "욌": 1955,
      "욍": 1956,
      "욎": 1957,
      "요": 1958,
      "욕": 1959,
      "욘": 1960,
      "욜": 1961,
      "욤": 1962,
      "욥": 1963,
      "욧": 1964,
      "욨": 1965,
      "용": 1966,
      "욯": 1967,
      "우": 1968,
      "욱": 1969,
      "운": 1970,
      "욷": 1971,
      "울": 1972,
      "욺": 1973,
      "욿": 1974,
      "움": 1975,
      "웁": 1976,
      "웃": 1977,
      "웅": 1978,
      "웆": 1979,
      "웇": 1980,
      "워": 1981,
      "웍": 1982,
      "원": 1983,
      "웑": 1984,
      "월": 1985,
      "웜": 1986,
      "웟": 1987,
      "웠": 1988,
      "웡": 1989,
      "웤": 1990,
      "웨": 1991,
      "웩": 1992,
      "웬": 1993,
      "웰": 1994,
      "웸": 1995,
      "웹": 1996,
      "웻": 1997,
      "웽": 1998,
      "윁": 1999,
      "위": 2000,
      "윅": 2001,
      "윈": 2002,
      "윋": 2003,
      "윌": 2004,
      "윔": 2005,
      "윕": 2006,
      "윗": 2007,
      "윘": 2008,
      "윙": 2009,
      "윛": 2010,
      "윟": 2011,
      "유": 2012,
      "육": 2013,
      "윤": 2014,
      "윥": 2015,
      "율": 2016,
      "윰": 2017,
      "윱": 2018,
      "윳": 2019,
      "융": 2020,
      "윶": 2021,
      "윷": 2022,
      "윻": 2023,
      "으": 2024,
      "윽": 2025,
      "윾": 2026,
      "은": 2027,
      "읁": 2028,
      "읂": 2029,
      "읃": 2030,
      "을": 2031,
      "읅": 2032,
      "읆": 2033,
      "읇": 2034,
      "읊": 2035,
      "읋": 2036,
      "음": 2037,
      "읍": 2038,
      "읏": 2039,
      "응": 2040,
      "읒": 2041,
      "읓": 2042,
      "읔": 2043,
      "읕": 2044,
      "읖": 2045,
      "읗": 2046,
      "의": 2047,
      "읙": 2048,
      "읜": 2049,
      "읠": 2050,
      "읨": 2051,
      "읫": 2052,
      "읭": 2053,
      "이": 2054,
      "익": 2055,
      "읶": 2056,
      "인": 2057,
      "읹": 2058,
      "읺": 2059,
      "읻": 2060,
      "일": 2061,
      "읽": 2062,
      "읿": 2063,
      "잂": 2064,
      "잃": 2065,
      "임": 2066,
      "입": 2067,
      "잆": 2068,
      "잇": 2069,
      "있": 2070,
      "잉": 2071,
      "잊": 2072,
      "잋": 2073,
      "잌": 2074,
      "잍": 2075,
      "잎": 2076,
      "잏": 2077,
      "자": 2078,
      "작": 2079,
      "잔": 2080,
      "잖": 2081,
      "잗": 2082,
      "잘": 2083,
      "잙": 2084,
      "잚": 2085,
      "잛": 2086,
      "잠": 2087,
      "잡": 2088,
      "잣": 2089,
      "잤": 2090,
      "장": 2091,
      "잦": 2092,
      "잨": 2093,
      "잩": 2094,
      "재": 2095,
      "잭": 2096,
      "잰": 2097,
      "잴": 2098,
      "잼": 2099,
      "잽": 2100,
      "잿": 2101,
      "쟀": 2102,
      "쟁": 2103,
      "쟂": 2104,
      "쟃": 2105,
      "쟈": 2106,
      "쟉": 2107,
      "쟌": 2108,
      "쟐": 2109,
      "쟘": 2110,
      "쟙": 2111,
      "쟛": 2112,
      "쟝": 2113,
      "쟤": 2114,
      "쟨": 2115,
      "쟬": 2116,
      "저": 2117,
      "적": 2118,
      "젃": 2119,
      "전": 2120,
      "젅": 2121,
      "젇": 2122,
      "절": 2123,
      "젊": 2124,
      "젋": 2125,
      "젏": 2126,
      "점": 2127,
      "접": 2128,
      "젓": 2129,
      "젔": 2130,
      "정": 2131,
      "젖": 2132,
      "젗": 2133,
      "제": 2134,
      "젝": 2135,
      "젠": 2136,
      "젣": 2137,
      "젤": 2138,
      "젬": 2139,
      "젭": 2140,
      "젯": 2141,
      "젱": 2142,
      "젲": 2143,
      "져": 2144,
      "젹": 2145,
      "젼": 2146,
      "젿": 2147,
      "졀": 2148,
      "졈": 2149,
      "졉": 2150,
      "졋": 2151,
      "졌": 2152,
      "졍": 2153,
      "졔": 2154,
      "졘": 2155,
      "졩": 2156,
      "조": 2157,
      "족": 2158,
      "존": 2159,
      "졶": 2160,
      "졸": 2161,
      "좀": 2162,
      "좁": 2163,
      "좃": 2164,
      "종": 2165,
      "좆": 2166,
      "좇": 2167,
      "좋": 2168,
      "좌": 2169,
      "좍": 2170,
      "좐": 2171,
      "좔": 2172,
      "좡": 2173,
      "좧": 2174,
      "좨": 2175,
      "죄": 2176,
      "죈": 2177,
      "죌": 2178,
      "죔": 2179,
      "죕": 2180,
      "죗": 2181,
      "죙": 2182,
      "죠": 2183,
      "죡": 2184,
      "죤": 2185,
      "죵": 2186,
      "주": 2187,
      "죽": 2188,
      "준": 2189,
      "줃": 2190,
      "줄": 2191,
      "줌": 2192,
      "줍": 2193,
      "줏": 2194,
      "중": 2195,
      "줘": 2196,
      "줜": 2197,
      "줫": 2198,
      "줬": 2199,
      "줴": 2200,
      "쥐": 2201,
      "쥔": 2202,
      "쥘": 2203,
      "쥠": 2204,
      "쥣": 2205,
      "쥬": 2206,
      "쥰": 2207,
      "쥴": 2208,
      "쥼": 2209,
      "쥿": 2210,
      "즁": 2211,
      "즈": 2212,
      "즉": 2213,
      "즌": 2214,
      "즐": 2215,
      "즑": 2216,
      "즘": 2217,
      "즙": 2218,
      "즛": 2219,
      "증": 2220,
      "즞": 2221,
      "즤": 2222,
      "즨": 2223,
      "지": 2224,
      "직": 2225,
      "진": 2226,
      "짇": 2227,
      "질": 2228,
      "짊": 2229,
      "짎": 2230,
      "짐": 2231,
      "집": 2232,
      "짓": 2233,
      "짔": 2234,
      "징": 2235,
      "짖": 2236,
      "짘": 2237,
      "짙": 2238,
      "짚": 2239,
      "짛": 2240,
      "짜": 2241,
      "짝": 2242,
      "짠": 2243,
      "짢": 2244,
      "짤": 2245,
      "짥": 2246,
      "짦": 2247,
      "짧": 2248,
      "짫": 2249,
      "짬": 2250,
      "짭": 2251,
      "짮": 2252,
      "짯": 2253,
      "짰": 2254,
      "짱": 2255,
      "째": 2256,
      "짹": 2257,
      "짼": 2258,
      "쨀": 2259,
      "쨈": 2260,
      "쨉": 2261,
      "쨋": 2262,
      "쨌": 2263,
      "쨍": 2264,
      "쨔": 2265,
      "쨘": 2266,
      "쨩": 2267,
      "쩃": 2268,
      "쩄": 2269,
      "쩌": 2270,
      "쩍": 2271,
      "쩐": 2272,
      "쩔": 2273,
      "쩜": 2274,
      "쩝": 2275,
      "쩟": 2276,
      "쩡": 2277,
      "쩨": 2278,
      "쩩": 2279,
      "쩬": 2280,
      "쩰": 2281,
      "쩻": 2282,
      "쩽": 2283,
      "쪄": 2284,
      "쪗": 2285,
      "쪘": 2286,
      "쪤": 2287,
      "쪨": 2288,
      "쪼": 2289,
      "쪽": 2290,
      "쫀": 2291,
      "쫃": 2292,
      "쫄": 2293,
      "쫌": 2294,
      "쫍": 2295,
      "쫏": 2296,
      "쫑": 2297,
      "쫒": 2298,
      "쫓": 2299,
      "쫗": 2300,
      "쫘": 2301,
      "쫙": 2302,
      "쬐": 2303,
      "쬔": 2304,
      "쬘": 2305,
      "쬠": 2306,
      "쬬": 2307,
      "쬼": 2308,
      "쭈": 2309,
      "쭉": 2310,
      "쭌": 2311,
      "쭐": 2312,
      "쭘": 2313,
      "쭙": 2314,
      "쭝": 2315,
      "쭤": 2316,
      "쮜": 2317,
      "쮠": 2318,
      "쮸": 2319,
      "쯔": 2320,
      "쯕": 2321,
      "쯘": 2322,
      "쯤": 2323,
      "쯧": 2324,
      "쯩": 2325,
      "찌": 2326,
      "찍": 2327,
      "찎": 2328,
      "찐": 2329,
      "찔": 2330,
      "찜": 2331,
      "찝": 2332,
      "찟": 2333,
      "찡": 2334,
      "찢": 2335,
      "찣": 2336,
      "찧": 2337,
      "차": 2338,
      "착": 2339,
      "찬": 2340,
      "찮": 2341,
      "찯": 2342,
      "찰": 2343,
      "찱": 2344,
      "참": 2345,
      "찹": 2346,
      "찻": 2347,
      "찼": 2348,
      "창": 2349,
      "찾": 2350,
      "찿": 2351,
      "채": 2352,
      "책": 2353,
      "챈": 2354,
      "챌": 2355,
      "챔": 2356,
      "챕": 2357,
      "챗": 2358,
      "챘": 2359,
      "챙": 2360,
      "챠": 2361,
      "챡": 2362,
      "챤": 2363,
      "챦": 2364,
      "챨": 2365,
      "챰": 2366,
      "챱": 2367,
      "챵": 2368,
      "처": 2369,
      "척": 2370,
      "천": 2371,
      "첟": 2372,
      "철": 2373,
      "첨": 2374,
      "첩": 2375,
      "첫": 2376,
      "첬": 2377,
      "청": 2378,
      "첮": 2379,
      "체": 2380,
      "첵": 2381,
      "첸": 2382,
      "첼": 2383,
      "쳄": 2384,
      "쳅": 2385,
      "쳇": 2386,
      "쳉": 2387,
      "쳐": 2388,
      "쳑": 2389,
      "쳔": 2390,
      "쳘": 2391,
      "쳠": 2392,
      "쳡": 2393,
      "쳣": 2394,
      "쳤": 2395,
      "쳥": 2396,
      "쳬": 2397,
      "쳰": 2398,
      "초": 2399,
      "촉": 2400,
      "촌": 2401,
      "촐": 2402,
      "촘": 2403,
      "촙": 2404,
      "촛": 2405,
      "총": 2406,
      "촤": 2407,
      "촥": 2408,
      "촨": 2409,
      "촬": 2410,
      "촹": 2411,
      "쵀": 2412,
      "최": 2413,
      "쵣": 2414,
      "쵤": 2415,
      "쵸": 2416,
      "쵹": 2417,
      "쵼": 2418,
      "춈": 2419,
      "춉": 2420,
      "춍": 2421,
      "추": 2422,
      "축": 2423,
      "춘": 2424,
      "춛": 2425,
      "출": 2426,
      "춝": 2427,
      "춤": 2428,
      "춥": 2429,
      "춧": 2430,
      "충": 2431,
      "춭": 2432,
      "춰": 2433,
      "춴": 2434,
      "췄": 2435,
      "췅": 2436,
      "췌": 2437,
      "췐": 2438,
      "췡": 2439,
      "취": 2440,
      "췩": 2441,
      "췬": 2442,
      "췰": 2443,
      "췽": 2444,
      "츄": 2445,
      "츈": 2446,
      "츌": 2447,
      "츔": 2448,
      "츙": 2449,
      "츠": 2450,
      "측": 2451,
      "츤": 2452,
      "츨": 2453,
      "츩": 2454,
      "츰": 2455,
      "츳": 2456,
      "층": 2457,
      "츺": 2458,
      "츼": 2459,
      "치": 2460,
      "칙": 2461,
      "친": 2462,
      "칠": 2463,
      "칡": 2464,
      "칢": 2465,
      "침": 2466,
      "칩": 2467,
      "칫": 2468,
      "칭": 2469,
      "칯": 2470,
      "칱": 2471,
      "칲": 2472,
      "칳": 2473,
      "카": 2474,
      "칵": 2475,
      "칸": 2476,
      "칼": 2477,
      "캄": 2478,
      "캅": 2479,
      "캇": 2480,
      "캉": 2481,
      "캌": 2482,
      "캍": 2483,
      "캐": 2484,
      "캑": 2485,
      "캔": 2486,
      "캘": 2487,
      "캠": 2488,
      "캡": 2489,
      "캣": 2490,
      "캤": 2491,
      "캥": 2492,
      "캪": 2493,
      "캬": 2494,
      "캰": 2495,
      "캴": 2496,
      "컁": 2497,
      "컈": 2498,
      "커": 2499,
      "컥": 2500,
      "컨": 2501,
      "컫": 2502,
      "컬": 2503,
      "컴": 2504,
      "컵": 2505,
      "컷": 2506,
      "컸": 2507,
      "컹": 2508,
      "컽": 2509,
      "케": 2510,
      "켁": 2511,
      "켄": 2512,
      "켈": 2513,
      "켐": 2514,
      "켑": 2515,
      "켓": 2516,
      "켕": 2517,
      "켜": 2518,
      "켠": 2519,
      "켤": 2520,
      "켬": 2521,
      "켯": 2522,
      "켰": 2523,
      "켱": 2524,
      "켸": 2525,
      "콀": 2526,
      "코": 2527,
      "콕": 2528,
      "콘": 2529,
      "콙": 2530,
      "콜": 2531,
      "콤": 2532,
      "콥": 2533,
      "콧": 2534,
      "콩": 2535,
      "콬": 2536,
      "콮": 2537,
      "콰": 2538,
      "콱": 2539,
      "콴": 2540,
      "콸": 2541,
      "쾀": 2542,
      "쾁": 2543,
      "쾃": 2544,
      "쾅": 2545,
      "쾌": 2546,
      "쾍": 2547,
      "쾡": 2548,
      "쾨": 2549,
      "쾩": 2550,
      "쾬": 2551,
      "쾰": 2552,
      "쾻": 2553,
      "쾽": 2554,
      "쿄": 2555,
      "쿈": 2556,
      "쿌": 2557,
      "쿙": 2558,
      "쿠": 2559,
      "쿡": 2560,
      "쿤": 2561,
      "쿨": 2562,
      "쿰": 2563,
      "쿱": 2564,
      "쿳": 2565,
      "쿵": 2566,
      "쿼": 2567,
      "쿽": 2568,
      "퀀": 2569,
      "퀄": 2570,
      "퀌": 2571,
      "퀍": 2572,
      "퀏": 2573,
      "퀑": 2574,
      "퀘": 2575,
      "퀜": 2576,
      "퀠": 2577,
      "퀩": 2578,
      "퀭": 2579,
      "퀴": 2580,
      "퀵": 2581,
      "퀸": 2582,
      "퀼": 2583,
      "큄": 2584,
      "큅": 2585,
      "큇": 2586,
      "큉": 2587,
      "큐": 2588,
      "큔": 2589,
      "큘": 2590,
      "큠": 2591,
      "큣": 2592,
      "큥": 2593,
      "크": 2594,
      "큭": 2595,
      "큰": 2596,
      "클": 2597,
      "큹": 2598,
      "큼": 2599,
      "큽": 2600,
      "킁": 2601,
      "킄": 2602,
      "킈": 2603,
      "키": 2604,
      "킥": 2605,
      "킨": 2606,
      "킬": 2607,
      "킴": 2608,
      "킵": 2609,
      "킷": 2610,
      "킹": 2611,
      "킼": 2612,
      "킽": 2613,
      "타": 2614,
      "탁": 2615,
      "탄": 2616,
      "탇": 2617,
      "탈": 2618,
      "탉": 2619,
      "탐": 2620,
      "탑": 2621,
      "탓": 2622,
      "탔": 2623,
      "탕": 2624,
      "탘": 2625,
      "탙": 2626,
      "태": 2627,
      "택": 2628,
      "탠": 2629,
      "탣": 2630,
      "탤": 2631,
      "탬": 2632,
      "탭": 2633,
      "탯": 2634,
      "탰": 2635,
      "탱": 2636,
      "탸": 2637,
      "탼": 2638,
      "턀": 2639,
      "턔": 2640,
      "터": 2641,
      "턱": 2642,
      "턴": 2643,
      "털": 2644,
      "텀": 2645,
      "텁": 2646,
      "텃": 2647,
      "텄": 2648,
      "텅": 2649,
      "텉": 2650,
      "테": 2651,
      "텍": 2652,
      "텐": 2653,
      "텔": 2654,
      "텕": 2655,
      "템": 2656,
      "텝": 2657,
      "텟": 2658,
      "텡": 2659,
      "텥": 2660,
      "텦": 2661,
      "텨": 2662,
      "텬": 2663,
      "텼": 2664,
      "텽": 2665,
      "톄": 2666,
      "톈": 2667,
      "토": 2668,
      "톡": 2669,
      "톤": 2670,
      "톨": 2671,
      "톰": 2672,
      "톱": 2673,
      "톳": 2674,
      "통": 2675,
      "톹": 2676,
      "톺": 2677,
      "톼": 2678,
      "퇀": 2679,
      "퇘": 2680,
      "퇴": 2681,
      "퇵": 2682,
      "퇸": 2683,
      "퇼": 2684,
      "툅": 2685,
      "툇": 2686,
      "툉": 2687,
      "툐": 2688,
      "툘": 2689,
      "툠": 2690,
      "툥": 2691,
      "투": 2692,
      "툭": 2693,
      "툰": 2694,
      "툴": 2695,
      "툼": 2696,
      "툽": 2697,
      "툿": 2698,
      "퉁": 2699,
      "퉈": 2700,
      "퉜": 2701,
      "퉤": 2702,
      "튀": 2703,
      "튁": 2704,
      "튄": 2705,
      "튈": 2706,
      "튐": 2707,
      "튓": 2708,
      "튕": 2709,
      "튜": 2710,
      "튝": 2711,
      "튠": 2712,
      "튤": 2713,
      "튬": 2714,
      "튭": 2715,
      "튱": 2716,
      "트": 2717,
      "특": 2718,
      "튼": 2719,
      "튽": 2720,
      "튿": 2721,
      "틀": 2722,
      "틂": 2723,
      "틈": 2724,
      "틉": 2725,
      "틋": 2726,
      "틍": 2727,
      "틑": 2728,
      "틔": 2729,
      "틩": 2730,
      "티": 2731,
      "틱": 2732,
      "틴": 2733,
      "틸": 2734,
      "팀": 2735,
      "팁": 2736,
      "팃": 2737,
      "팅": 2738,
      "팈": 2739,
      "팉": 2740,
      "파": 2741,
      "팍": 2742,
      "팎": 2743,
      "판": 2744,
      "팑": 2745,
      "팔": 2746,
      "팜": 2747,
      "팝": 2748,
      "팟": 2749,
      "팠": 2750,
      "팡": 2751,
      "팤": 2752,
      "팥": 2753,
      "팦": 2754,
      "패": 2755,
      "팩": 2756,
      "팬": 2757,
      "팯": 2758,
      "팰": 2759,
      "팸": 2760,
      "팹": 2761,
      "팻": 2762,
      "팼": 2763,
      "팽": 2764,
      "퍁": 2765,
      "퍄": 2766,
      "퍈": 2767,
      "퍌": 2768,
      "퍙": 2769,
      "퍠": 2770,
      "퍼": 2771,
      "퍽": 2772,
      "펀": 2773,
      "펄": 2774,
      "펌": 2775,
      "펍": 2776,
      "펏": 2777,
      "펐": 2778,
      "펑": 2779,
      "페": 2780,
      "펙": 2781,
      "펜": 2782,
      "펠": 2783,
      "펨": 2784,
      "펩": 2785,
      "펫": 2786,
      "펭": 2787,
      "펴": 2788,
      "편": 2789,
      "펼": 2790,
      "폄": 2791,
      "폅": 2792,
      "폈": 2793,
      "평": 2794,
      "폏": 2795,
      "폐": 2796,
      "폘": 2797,
      "포": 2798,
      "폭": 2799,
      "폰": 2800,
      "폳": 2801,
      "폴": 2802,
      "폶": 2803,
      "폼": 2804,
      "폽": 2805,
      "폿": 2806,
      "퐁": 2807,
      "퐃": 2808,
      "퐈": 2809,
      "퐌": 2810,
      "퐝": 2811,
      "퐷": 2812,
      "푀": 2813,
      "푁": 2814,
      "푄": 2815,
      "푈": 2816,
      "푓": 2817,
      "푕": 2818,
      "표": 2819,
      "푝": 2820,
      "푠": 2821,
      "푣": 2822,
      "푤": 2823,
      "푯": 2824,
      "푱": 2825,
      "푶": 2826,
      "푸": 2827,
      "푹": 2828,
      "푼": 2829,
      "풀": 2830,
      "풂": 2831,
      "품": 2832,
      "풋": 2833,
      "풍": 2834,
      "풔": 2835,
      "풜": 2836,
      "풰": 2837,
      "퓌": 2838,
      "퓐": 2839,
      "퓔": 2840,
      "퓨": 2841,
      "퓬": 2842,
      "퓰": 2843,
      "퓸": 2844,
      "프": 2845,
      "픈": 2846,
      "플": 2847,
      "픔": 2848,
      "픕": 2849,
      "픙": 2850,
      "픜": 2851,
      "픝": 2852,
      "픞": 2853,
      "픠": 2854,
      "피": 2855,
      "픽": 2856,
      "핀": 2857,
      "필": 2858,
      "핌": 2859,
      "핍": 2860,
      "핏": 2861,
      "핑": 2862,
      "핒": 2863,
      "핔": 2864,
      "하": 2865,
      "학": 2866,
      "한": 2867,
      "핝": 2868,
      "핞": 2869,
      "핟": 2870,
      "할": 2871,
      "핢": 2872,
      "핥": 2873,
      "핦": 2874,
      "함": 2875,
      "합": 2876,
      "핫": 2877,
      "핬": 2878,
      "항": 2879,
      "핮": 2880,
      "핱": 2881,
      "핲": 2882,
      "핳": 2883,
      "해": 2884,
      "핵": 2885,
      "핶": 2886,
      "핸": 2887,
      "핻": 2888,
      "핼": 2889,
      "햄": 2890,
      "햅": 2891,
      "햇": 2892,
      "했": 2893,
      "행": 2894,
      "햊": 2895,
      "햋": 2896,
      "햌": 2897,
      "햏": 2898,
      "햐": 2899,
      "햑": 2900,
      "햔": 2901,
      "햗": 2902,
      "햘": 2903,
      "햝": 2904,
      "햠": 2905,
      "햡": 2906,
      "햣": 2907,
      "햤": 2908,
      "향": 2909,
      "햬": 2910,
      "햿": 2911,
      "헀": 2912,
      "헁": 2913,
      "허": 2914,
      "헉": 2915,
      "헌": 2916,
      "헐": 2917,
      "험": 2918,
      "헙": 2919,
      "헛": 2920,
      "헜": 2921,
      "헝": 2922,
      "헤": 2923,
      "헥": 2924,
      "헨": 2925,
      "헬": 2926,
      "헰": 2927,
      "헴": 2928,
      "헵": 2929,
      "헷": 2930,
      "헸": 2931,
      "헹": 2932,
      "헿": 2933,
      "혀": 2934,
      "혁": 2935,
      "현": 2936,
      "혅": 2937,
      "혈": 2938,
      "혐": 2939,
      "협": 2940,
      "혓": 2941,
      "혔": 2942,
      "형": 2943,
      "혜": 2944,
      "혠": 2945,
      "혤": 2946,
      "혬": 2947,
      "혯": 2948,
      "혱": 2949,
      "호": 2950,
      "혹": 2951,
      "혼": 2952,
      "혿": 2953,
      "홀": 2954,
      "홈": 2955,
      "홉": 2956,
      "홋": 2957,
      "홍": 2958,
      "홑": 2959,
      "홓": 2960,
      "화": 2961,
      "확": 2962,
      "환": 2963,
      "홛": 2964,
      "활": 2965,
      "홤": 2966,
      "홥": 2967,
      "홧": 2968,
      "황": 2969,
      "홰": 2970,
      "홱": 2971,
      "횃": 2972,
      "횄": 2973,
      "회": 2974,
      "획": 2975,
      "횐": 2976,
      "횓": 2977,
      "횔": 2978,
      "횝": 2979,
      "횟": 2980,
      "횡": 2981,
      "효": 2982,
      "횩": 2983,
      "횬": 2984,
      "횰": 2985,
      "횻": 2986,
      "횽": 2987,
      "후": 2988,
      "훅": 2989,
      "훈": 2990,
      "훋": 2991,
      "훌": 2992,
      "훍": 2993,
      "훑": 2994,
      "훓": 2995,
      "훔": 2996,
      "훕": 2997,
      "훗": 2998,
      "훙": 2999,
      "훜": 3000,
      "훝": 3001,
      "훠": 3002,
      "훤": 3003,
      "훨": 3004,
      "훵": 3005,
      "훼": 3006,
      "훽": 3007,
      "휀": 3008,
      "휄": 3009,
      "휏": 3010,
      "휑": 3011,
      "휘": 3012,
      "휙": 3013,
      "휜": 3014,
      "휠": 3015,
      "휨": 3016,
      "휩": 3017,
      "휫": 3018,
      "휭": 3019,
      "휴": 3020,
      "휼": 3021,
      "흄": 3022,
      "흉": 3023,
      "흐": 3024,
      "흑": 3025,
      "흔": 3026,
      "흗": 3027,
      "흘": 3028,
      "흙": 3029,
      "흝": 3030,
      "흠": 3031,
      "흡": 3032,
      "흥": 3033,
      "흩": 3034,
      "흫": 3035,
      "희": 3036,
      "흭": 3037,
      "흰": 3038,
      "흴": 3039,
      "힁": 3040,
      "히": 3041,
      "힉": 3042,
      "힌": 3043,
      "힐": 3044,
      "힘": 3045,
      "힙": 3046,
      "힛": 3047,
      "힜": 3048,
      "힝": 3049,
      "##라": 3050,
      "##야": 3051,
      "##마": 3052,
      "##군": 3053,
      "##하": 3054,
      "##진": 3055,
      "##개": 3056,
      "##국": 3057,
      "##회": 3058,
      "##의": 3059,
      "##를": 3060,
      "##u": 3061,
      "##i": 3062,
      "##l": 3063,
      "##a": 3064,
      "##j": 3065,
      "##c": 3066,
      "##e": 3067,
      "##밍": 3068,
      "##비": 3069,
      "##용": 3070,
      "##없": 3071,
      "##이": 3072,
      "##래": 3073,
      "##류": 3074,
      "##에": 3075,
      "##서": 3076,
      "##축": 3077,
      "##기": 3078,
      "##관": 3079,
      "##들": 3080,
      "##로": 3081,
      "##부": 3082,
      "##터": 3083,
      "##k": 3084,
      "##h": 3085,
      "##r": 3086,
      "##o": 3087,
      "##아": 3088,
      "##링": 3089,
      "##신": 3090,
      "##펙": 3091,
      "##크": 3092,
      "##릉": 3093,
      "##참": 3094,
      "##봉": 3095,
      "##붙": 3096,
      "##는": 3097,
      "##데": 3098,
      "##되": 3099,
      "##었": 3100,
      "##n": 3101,
      "##b": 3102,
      "##채": 3103,
      "##동": 3104,
      "##으": 3105,
      "##단": 3106,
      "##였": 3107,
      "##다": 3108,
      "##1": 3109,
      "##0": 3110,
      "##m": 3111,
      "##2": 3112,
      "##와": 3113,
      "##민": 3114,
      "##투": 3115,
      "##표": 3116,
      "##가": 3117,
      "##출": 3118,
      "##석": 3119,
      "##스": 3120,
      "##타": 3121,
      "##당": 3122,
      "##광": 3123,
      "##도": 3124,
      "##시": 3125,
      "##답": 3126,
      "##게": 3127,
      "##어": 3128,
      "##을": 3129,
      "##K": 3130,
      "##케": 3131,
      "##미": 3132,
      "##칼": 3133,
      "##처": 3134,
      "##나": 3135,
      "##정": 3136,
      "##화": 3137,
      "##사": 3138,
      "##업": 3139,
      "##본": 3140,
      "##며": 3141,
      "##식": 3142,
      "##재": 3143,
      "##판": 3144,
      "##애": 3145,
      "##학": 3146,
      "##협": 3147,
      "##읍": 3148,
      "##보": 3149,
      "##그": 3150,
      "##t": 3151,
      "##s": 3152,
      "##계": 3153,
      "##효": 3154,
      "##론": 3155,
      "##지": 3156,
      "##여": 3157,
      "##적": 3158,
      "##외": 3159,
      "##선": 3160,
      "##g": 3161,
      "##d": 3162,
      "##루": 3163,
      "##산": 3164,
      "##름": 3165,
      "##저": 3166,
      "##w": 3167,
      "##T": 3168,
      "##A": 3169,
      "##피": 3170,
      "##닝": 3171,
      "##은": 3172,
      "##므": 3173,
      "##황": 3174,
      "##영": 3175,
      "##강": 3176,
      "##현": 3177,
      "##7": 3178,
      "##달": 3179,
      "##러": 3180,
      "##역": 3181,
      "##원": 3182,
      "##상": 3183,
      "##공": 3184,
      "##모": 3185,
      "##션": 3186,
      "##환": 3187,
      "##경": 3188,
      "##족": 3189,
      "##란": 3190,
      "##체": 3191,
      "##L": 3192,
      "##p": 3193,
      "##텔": 3194,
      "##실": 3195,
      "##고": 3196,
      "##져": 3197,
      "##온": 3198,
      "##인": 3199,
      "##렐": 3200,
      "##니": 3201,
      "##구": 3202,
      "##활": 3203,
      "##술": 3204,
      "##육": 3205,
      "##임": 3206,
      "##톤": 3207,
      "##핵": 3208,
      "##성": 3209,
      "##득": 3210,
      "##력": 3211,
      "##엽": 3212,
      "##살": 3213,
      "##리": 3214,
      "##중": 3215,
      "##씨": 3216,
      "##해": 3217,
      "##병": 3218,
      "##품": 3219,
      "##드": 3220,
      "##매": 3221,
      "##레": 3222,
      "##일": 3223,
      "##테": 3224,
      "##집": 3225,
      "##립": 3226,
      "##토": 3227,
      "##문": 3228,
      "##종": 3229,
      "##평": 3230,
      "##음": 3231,
      "##패": 3232,
      "##랜": 3233,
      "##냉": 3234,
      "##면": 3235,
      "##옥": 3236,
      "##각": 3237,
      "##입": 3238,
      "##소": 3239,
      "##위": 3240,
      "##대": 3241,
      "##겠": 3242,
      "##우": 3243,
      "##옌": 3244,
      "##칸": 3245,
      "##별": 3246,
      "##혹": 3247,
      "##랐": 3248,
      "##방": 3249,
      "##객": 3250,
      "##흥": 3251,
      "##주": 3252,
      "##점": 3253,
      "##감": 3254,
      "##파": 3255,
      "##슬": 3256,
      "##트": 3257,
      "##느": 3258,
      "##바": 3259,
      "##릿": 3260,
      "##y": 3261,
      "##P": 3262,
      "##C": 3263,
      "##려": 3264,
      "##Q": 3265,
      "##희": 3266,
      "##양": 3267,
      "##함": 3268,
      "##벤": 3269,
      "##연": 3270,
      "##너": 3271,
      "##혜": 3272,
      "##젠": 3273,
      "##발": 3274,
      "##복": 3275,
      "##얼": 3276,
      "##누": 3277,
      "##틴": 3278,
      "##형": 3279,
      "##탈": 3280,
      "##치": 3281,
      "##료": 3282,
      "##제": 3283,
      "##자": 3284,
      "##할": 3285,
      "##혁": 3286,
      "##딩": 3287,
      "##과": 3288,
      "##까": 3289,
      "##새": 3290,
      "##겨": 3291,
      "##티": 3292,
      "##오": 3293,
      "##워": 3294,
      "##배": 3295,
      "##S": 3296,
      "##수": 3297,
      "##두": 3298,
      "##질": 3299,
      "##속": 3300,
      "##준": 3301,
      "##엄": 3302,
      "##버": 3303,
      "##장": 3304,
      "##색": 3305,
      "##키": 3306,
      "##월": 3307,
      "##만": 3308,
      "##친": 3309,
      "##더": 3310,
      "##럴": 3311,
      "##프": 3312,
      "##르": 3313,
      "##툼": 3314,
      "##생": 3315,
      "##른": 3316,
      "##승": 3317,
      "##킴": 3318,
      "##써": 3319,
      "##작": 3320,
      "##됐": 3321,
      "##륨": 3322,
      "##추": 3323,
      "##W": 3324,
      "##순": 3325,
      "##린": 3326,
      "##잡": 3327,
      "##줄": 3328,
      "##전": 3329,
      "##조": 3330,
      "##차": 3331,
      "##쟁": 3332,
      "##교": 3333,
      "##념": 3334,
      "##씬": 3335,
      "##랑": 3336,
      "##켓": 3337,
      "##I": 3338,
      "##빈": 3339,
      "##무": 3340,
      "##탑": 3341,
      "##련": 3342,
      "##막": 3343,
      "##염": 3344,
      "##센": 3345,
      "##했": 3346,
      "##길": 3347,
      "##창": 3348,
      "##례": 3349,
      "##꽃": 3350,
      "##힐": 3351,
      "##운": 3352,
      "##통": 3353,
      "##된": 3354,
      "##돔": 3355,
      "##필": 3356,
      "##럼": 3357,
      "##락": 3358,
      "##초": 3359,
      "##택": 3360,
      "##퀴": 3361,
      "##플": 3362,
      "##철": 3363,
      "##6": 3364,
      "##9": 3365,
      "##명": 3366,
      "##직": 3367,
      "##페": 3368,
      "##N": 3369,
      "##노": 3370,
      "##밀": 3371,
      "##룡": 3372,
      "##맹": 3373,
      "##숭": 3374,
      "##뿐": 3375,
      "##베": 3376,
      "##청": 3377,
      "##카": 3378,
      "##됨": 3379,
      "##네": 3380,
      "##퀘": 3381,
      "##곶": 3382,
      "##법": 3383,
      "##안": 3384,
      "##세": 3385,
      "##갑": 3386,
      "##행": 3387,
      "##향": 3388,
      "##근": 3389,
      "##송": 3390,
      "##웃": 3391,
      "##격": 3392,
      "##후": 3393,
      "##삼": 3394,
      "##람": 3395,
      "##왕": 3396,
      "##좌": 3397,
      "##최": 3398,
      "##예": 3399,
      "##열": 3400,
      "##맥": 3401,
      "##뜩": 3402,
      "##쓰": 3403,
      "##엘": 3404,
      "##F": 3405,
      "##착": 3406,
      "##슨": 3407,
      "##콥": 3408,
      "##슛": 3409,
      "##응": 3410,
      "##꾸": 3411,
      "##렸": 3412,
      "##4": 3413,
      "##호": 3414,
      "##간": 3415,
      "##탄": 3416,
      "##3": 3417,
      "##씀": 3418,
      "##십": 3419,
      "##랍": 3420,
      "##믹": 3421,
      "##틸": 3422,
      "##웅": 3423,
      "##8": 3424,
      "##번": 3425,
      "##증": 3426,
      "##렴": 3427,
      "##둠": 3428,
      "##한": 3429,
      "##등": 3430,
      "##건": 3431,
      "##z": 3432,
      "##폰": 3433,
      "##합": 3434,
      "##천": 3435,
      "##R": 3436,
      "##G": 3437,
      "##E": 3438,
      "##코": 3439,
      "##물": 3440,
      "##금": 3441,
      "##울": 3442,
      "##셨": 3443,
      "##설": 3444,
      "##검": 3445,
      "##퍼": 3446,
      "##5": 3447,
      "##v": 3448,
      "##절": 3449,
      "##벌": 3450,
      "##샘": 3451,
      "##턴": 3452,
      "##셔": 3453,
      "##찬": 3454,
      "##켜": 3455,
      "##갔": 3456,
      "##메": 3457,
      "##독": 3458,
      "##거": 3459,
      "##범": 3460,
      "##롤": 3461,
      "##멧": 3462,
      "##앙": 3463,
      "##쿠": 3464,
      "##팀": 3465,
      "##섭": 3466,
      "##특": 3467,
      "##받": 3468,
      "##침": 3469,
      "##륙": 3470,
      "##D": 3471,
      "##북": 3472,
      "##쪽": 3473,
      "##항": 3474,
      "##농": 3475,
      "##묘": 3476,
      "##유": 3477,
      "##블": 3478,
      "##빼": 3479,
      "##요": 3480,
      "##x": 3481,
      "##섬": 3482,
      "##능": 3483,
      "##완": 3484,
      "##허": 3485,
      "##년": 3486,
      "##큼": 3487,
      "##델": 3488,
      "##톡": 3489,
      "##졌": 3490,
      "##숙": 3491,
      "##척": 3492,
      "##불": 3493,
      "##O": 3494,
      "##슈": 3495,
      "##급": 3496,
      "##컬": 3497,
      "##포": 3498,
      "##반": 3499,
      "##셋": 3500,
      "##촌": 3501,
      "##책": 3502,
      "##푸": 3503,
      "##폭": 3504,
      "##f": 3505,
      "##백": 3506,
      "##견": 3507,
      "##V": 3508,
      "##쇄": 3509,
      "##심": 3510,
      "##억": 3511,
      "##록": 3512,
      "##렌": 3513,
      "##머": 3514,
      "##닉": 3515,
      "##말": 3516,
      "##랸": 3517,
      "##칠": 3518,
      "##펄": 3519,
      "##닥": 3520,
      "##존": 3521,
      "##즈": 3522,
      "##갈": 3523,
      "##취": 3524,
      "##율": 3525,
      "##결": 3526,
      "##츠": 3527,
      "##량": 3528,
      "##냐": 3529,
      "##Y": 3530,
      "##액": 3531,
      "##H": 3532,
      "##탕": 3533,
      "##깃": 3534,
      "##슐": 3535,
      "##히": 3536,
      "##팅": 3537,
      "##겐": 3538,
      "##림": 3539,
      "##손": 3540,
      "##찰": 3541,
      "##편": 3542,
      "##망": 3543,
      "##팔": 3544,
      "##녀": 3545,
      "##변": 3546,
      "##샤": 3547,
      "##령": 3548,
      "##쳐": 3549,
      "##즘": 3550,
      "##숀": 3551,
      "##런": 3552,
      "##남": 3553,
      "##렬": 3554,
      "##풍": 3555,
      "##험": 3556,
      "##죄": 3557,
      "##텐": 3558,
      "##올": 3559,
      "##캐": 3560,
      "##꿔": 3561,
      "##싱": 3562,
      "##총": 3563,
      "##캘": 3564,
      "##날": 3565,
      "##짜": 3566,
      "##털": 3567,
      "##분": 3568,
      "##것": 3569,
      "##든": 3570,
      "##U": 3571,
      "##죽": 3572,
      "##빛": 3573,
      "##박": 3574,
      "##쥐": 3575,
      "##륄": 3576,
      "##권": 3577,
      "##폴": 3578,
      "##댁": 3579,
      "##님": 3580,
      "##악": 3581,
      "##캠": 3582,
      "##브": 3583,
      "##홀": 3584,
      "##핥": 3585,
      "##글": 3586,
      "##층": 3587,
      "##곤": 3588,
      "##았": 3589,
      "##던": 3590,
      "##곡": 3591,
      "##B": 3592,
      "##펜": 3593,
      "##쉬": 3594,
      "##암": 3595,
      "##펀": 3596,
      "##켈": 3597,
      "##훈": 3598,
      "##난": 3599,
      "##폐": 3600,
      "##맛": 3601,
      "##헌": 3602,
      "##멘": 3603,
      "##언": 3604,
      "##먹": 3605,
      "##켰": 3606,
      "##태": 3607,
      "##듯": 3608,
      "##홍": 3609,
      "##첩": 3610,
      "##목": 3611,
      "##때": 3612,
      "##궤": 3613,
      "##넛": 3614,
      "##잣": 3615,
      "##콘": 3616,
      "##옹": 3617,
      "##클": 3618,
      "##습": 3619,
      "##탐": 3620,
      "##담": 3621,
      "##랭": 3622,
      "##웰": 3623,
      "##컴": 3624,
      "##퐁": 3625,
      "##디": 3626,
      "##략": 3627,
      "##뤼": 3628,
      "##극": 3629,
      "##알": 3630,
      "##킨": 3631,
      "##충": 3632,
      "##Z": 3633,
      "##롬": 3634,
      "##욱": 3635,
      "##끔": 3636,
      "##몬": 3637,
      "##M": 3638,
      "##걸": 3639,
      "##먼": 3640,
      "##혼": 3641,
      "##쿤": 3642,
      "##렛": 3643,
      "##븀": 3644,
      "##듀": 3645,
      "##내": 3646,
      "##봤": 3647,
      "##빌": 3648,
      "##흐": 3649,
      "##넌": 3650,
      "##랄": 3651,
      "##징": 3652,
      "##엔": 3653,
      "##궁": 3654,
      "##릴": 3655,
      "##접": 3656,
      "##획": 3657,
      "##뮤": 3658,
      "##펩": 3659,
      "##퇴": 3660,
      "##솔": 3661,
      "##킬": 3662,
      "##커": 3663,
      "##핍": 3664,
      "##휘": 3665,
      "##템": 3666,
      "##돼": 3667,
      "##팟": 3668,
      "##찌": 3669,
      "##뢰": 3670,
      "##될": 3671,
      "##줬": 3672,
      "##긴": 3673,
      "##칙": 3674,
      "##찾": 3675,
      "##덕": 3676,
      "##곽": 3677,
      "##춘": 3678,
      "##볼": 3679,
      "##밖": 3680,
      "##꼬": 3681,
      "##꺼": 3682,
      "##짐": 3683,
      "##댕": 3684,
      "##닐": 3685,
      "##움": 3686,
      "##규": 3687,
      "##촬": 3688,
      "##얀": 3689,
      "##q": 3690,
      "##룹": 3691,
      "##힌": 3692,
      "##둔": 3693,
      "##갱": 3694,
      "##왔": 3695,
      "##압": 3696,
      "##렀": 3697,
      "##썹": 3698,
      "##웠": 3699,
      "##엣": 3700,
      "##돌": 3701,
      "##괴": 3702,
      "##컵": 3703,
      "##랬": 3704,
      "##샛": 3705,
      "##튼": 3706,
      "##츄": 3707,
      "##헤": 3708,
      "##슴": 3709,
      "##컷": 3710,
      "##램": 3711,
      "##붓": 3712,
      "##딸": 3713,
      "##쑥": 3714,
      "##잖": 3715,
      "##뉴": 3716,
      "##릎": 3717,
      "##퓨": 3718,
      "##쇼": 3719,
      "##튜": 3720,
      "##팝": 3721,
      "##넨": 3722,
      "##첸": 3723,
      "##륵": 3724,
      "##골": 3725,
      "##셜": 3726,
      "##빅": 3727,
      "##훙": 3728,
      "##젤": 3729,
      "##렉": 3730,
      "##괄": 3731,
      "##확": 3732,
      "##콤": 3733,
      "##눈": 3734,
      "##깨": 3735,
      "##멜": 3736,
      "##벨": 3737,
      "##헥": 3738,
      "##J": 3739,
      "##잔": 3740,
      "##쥬": 3741,
      "##좡": 3742,
      "##균": 3743,
      "##풀": 3744,
      "##측": 3745,
      "##틀": 3746,
      "##챕": 3747,
      "##큐": 3748,
      "##촉": 3749,
      "##냈": 3750,
      "##닌": 3751,
      "##톨": 3752,
      "##롭": 3753,
      "##졸": 3754,
      "##칭": 3755,
      "##않": 3756,
      "##귀": 3757,
      "##왜": 3758,
      "##캄": 3759,
      "##윗": 3760,
      "##괘": 3761,
      "##익": 3762,
      "##약": 3763,
      "##둥": 3764,
      "##났": 3765,
      "##댈": 3766,
      "##굴": 3767,
      "##힘": 3768,
      "##엉": 3769,
      "##픈": 3770,
      "##잎": 3771,
      "##덴": 3772,
      "##앴": 3773,
      "##룩": 3774,
      "##헴": 3775,
      "##휴": 3776,
      "##즌": 3777,
      "##핸": 3778,
      "##ㅣ": 3779,
      "##롄": 3780,
      "##X": 3781,
      "##녘": 3782,
      "##널": 3783,
      "##끼": 3784,
      "##같": 3785,
      "##뜯": 3786,
      "##맷": 3787,
      "##있": 3788,
      "##쥔": 3789,
      "##듈": 3790,
      "##텍": 3791,
      "##째": 3792,
      "##납": 3793,
      "##쩨": 3794,
      "##값": 3795,
      "##놓": 3796,
      "##탠": 3797,
      "##쌀": 3798,
      "##뜸": 3799,
      "##률": 3800,
      "##융": 3801,
      "##봐": 3802,
      "##옙": 3803,
      "##릭": 3804,
      "##밟": 3805,
      "##굿": 3806,
      "##콩": 3807,
      "##렙": 3808,
      "##틱": 3809,
      "##떠": 3810,
      "##햄": 3811,
      "##빵": 3812,
      "##롱": 3813,
      "##뇽": 3814,
      "##낫": 3815,
      "##딘": 3816,
      "##빙": 3817,
      "##혀": 3818,
      "##쁘": 3819,
      "##죠": 3820,
      "##삐": 3821,
      "##맵": 3822,
      "##셀": 3823,
      "##룰": 3824,
      "##맘": 3825,
      "##힝": 3826,
      "##녕": 3827,
      "##놀": 3828,
      "##쾡": 3829,
      "##께": 3830,
      "##짓": 3831,
      "##깥": 3832,
      "##켄": 3833,
      "##렵": 3834,
      "##뮬": 3835,
      "##멸": 3836,
      "##몰": 3837,
      "##핀": 3838,
      "##쓸": 3839,
      "##봄": 3840,
      "##샷": 3841,
      "##럽": 3842,
      "##탁": 3843,
      "##떨": 3844,
      "##밥": 3845,
      "##킥": 3846,
      "##궐": 3847,
      "##혈": 3848,
      "##찍": 3849,
      "##쉐": 3850,
      "##뽀": 3851,
      "##륩": 3852,
      "##뚱": 3853,
      "##옷": 3854,
      "##덜": 3855,
      "##욕": 3856,
      "##펑": 3857,
      "##샨": 3858,
      "##튬": 3859,
      "##잠": 3860,
      "##멀": 3861,
      "##젼": 3862,
      "##뮴": 3863,
      "##퓰": 3864,
      "##닛": 3865,
      "##늬": 3866,
      "##꾼": 3867,
      "##잇": 3868,
      "##몸": 3869,
      "##맨": 3870,
      "##봇": 3871,
      "##휼": 3872,
      "##벽": 3873,
      "##혐": 3874,
      "##앨": 3875,
      "##먀": 3876,
      "##싸": 3877,
      "##뱀": 3878,
      "##탯": 3879,
      "##늘": 3880,
      "##흘": 3881,
      "##툴": 3882,
      "##냥": 3883,
      "##낼": 3884,
      "##핑": 3885,
      "##돈": 3886,
      "##헬": 3887,
      "##못": 3888,
      "##셰": 3889,
      "##앵": 3890,
      "##눠": 3891,
      "##룬": 3892,
      "##럭": 3893,
      "##엠": 3894,
      "##낌": 3895,
      "##짱": 3896,
      "##겔": 3897,
      "##픽": 3898,
      "##흑": 3899,
      "##꿈": 3900,
      "##펴": 3901,
      "##랙": 3902,
      "##빠": 3903,
      "##몽": 3904,
      "##춤": 3905,
      "##붕": 3906,
      "##낸": 3907,
      "##솜": 3908,
      "##펠": 3909,
      "##텝": 3910,
      "##씩": 3911,
      "##룽": 3912,
      "##헨": 3913,
      "##듬": 3914,
      "##논": 3915,
      "##굽": 3916,
      "##푯": 3917,
      "##흉": 3918,
      "##잉": 3919,
      "##넬": 3920,
      "##귤": 3921,
      "##뱅": 3922,
      "##띠": 3923,
      "##렘": 3924,
      "##둘": 3925,
      "##섯": 3926,
      "##랴": 3927,
      "##밤": 3928,
      "##뇨": 3929,
      "##덤": 3930,
      "##숲": 3931,
      "##멍": 3932,
      "##큘": 3933,
      "##끄": 3934,
      "##넣": 3935,
      "##뭇": 3936,
      "##핲": 3937,
      "##랩": 3938,
      "##웨": 3939,
      "##밭": 3940,
      "##웤": 3941,
      "##닙": 3942,
      "##넷": 3943,
      "##덩": 3944,
      "##뷔": 3945,
      "##곳": 3946,
      "##쳤": 3947,
      "##퀼": 3948,
      "##럿": 3949,
      "##캣": 3950,
      "##셉": 3951,
      "##쿼": 3952,
      "##듐": 3953,
      "##찡": 3954,
      "##놈": 3955,
      "##윈": 3956,
      "##첼": 3957,
      "##묵": 3958,
      "##앤": 3959,
      "##랫": 3960,
      "##폼": 3961,
      "##곱": 3962,
      "##딕": 3963,
      "##맡": 3964,
      "##뀌": 3965,
      "##낭": 3966,
      "##룸": 3967,
      "##킹": 3968,
      "##캔": 3969,
      "##쾌": 3970,
      "##좁": 3971,
      "##떡": 3972,
      "##팽": 3973,
      "##횡": 3974,
      "##윤": 3975,
      "##쉽": 3976,
      "##벼": 3977,
      "##뒤": 3978,
      "##릇": 3979,
      "##랏": 3980,
      "##밸": 3981,
      "##숑": 3982,
      "##덧": 3983,
      "##펭": 3984,
      "##귄": 3985,
      "##엿": 3986,
      "##홈": 3987,
      "##웬": 3988,
      "##팎": 3989,
      "##삽": 3990,
      "##듣": 3991,
      "##튀": 3992,
      "##갬": 3993,
      "##짼": 3994,
      "##볶": 3995,
      "##챠": 3996,
      "##끝": 3997,
      "##쯩": 3998,
      "##섹": 3999,
      "##쿨": 4000,
      "##펫": 4001,
      "##빗": 4002,
      "##렝": 4003,
      "##뇌": 4004,
      "##흡": 4005,
      "##젝": 4006,
      "##믐": 4007,
      "##즐": 4008,
      "##멋": 4009,
      "##칩": 4010,
      "##따": 4011,
      "##밴": 4012,
      "##눌": 4013,
      "##쯔": 4014,
      "##넥": 4015,
      "##뎅": 4016,
      "##춰": 4017,
      "##쌍": 4018,
      "##쳅": 4019,
      "##슝": 4020,
      "##뉘": 4021,
      "##엡": 4022,
      "##욘": 4023,
      "##캡": 4024,
      "##벳": 4025,
      "##턱": 4026,
      "##슘": 4027,
      "##얄": 4028,
      "##뛰": 4029,
      "##쿄": 4030,
      "##딱": 4031,
      "##돋": 4032,
      "##탱": 4033,
      "##낙": 4034,
      "##셴": 4035,
      "##흙": 4036,
      "##팥": 4037,
      "##톱": 4038,
      "##눔": 4039,
      "##륜": 4040,
      "##쇠": 4041,
      "##옵": 4042,
      "##덱": 4043,
      "##끌": 4044,
      "##렁": 4045,
      "##컨": 4046,
      "##겸": 4047,
      "##꼴": 4048,
      "##쩌": 4049,
      "##흠": 4050,
      "##싯": 4051,
      "##퉁": 4052,
      "##깅": 4053,
      "##겹": 4054,
      "##뜰": 4055,
      "##쯤": 4056,
      "##윔": 4057,
      "##땃": 4058,
      "##옐": 4059,
      "##햐": 4060,
      "##텀": 4061,
      "##늑": 4062,
      "##멕": 4063,
      "##밑": 4064,
      "##솟": 4065,
      "##숍": 4066,
      "##뼈": 4067,
      "##뜨": 4068,
      "##쌈": 4069,
      "##햇": 4070,
      "##킷": 4071,
      "##흰": 4072,
      "##팬": 4073,
      "##맞": 4074,
      "##냅": 4075,
      "##렇": 4076,
      "##앞": 4077,
      "##곰": 4078,
      "##깔": 4079,
      "##궂": 4080,
      "##댄": 4081,
      "##롯": 4082,
      "##겼": 4083,
      "##챔": 4084,
      "##뷰": 4085,
      "##븐": 4086,
      "##퀜": 4087,
      "##캰": 4088,
      "##샹": 4089,
      "##첨": 4090,
      "##잘": 4091,
      "##벡": 4092,
      "##캉": 4093,
      "##꼿": 4094,
      "##귈": 4095,
      "##좀": 4096,
      "##헵": 4097,
      "##및": 4098,
      "##틈": 4099,
      "##끈": 4100,
      "##덮": 4101,
      "##높": 4102,
      "##쏠": 4103,
      "##멈": 4104,
      "##콧": 4105,
      "##륀": 4106,
      "##녹": 4107,
      "##앉": 4108,
      "##갯": 4109,
      "##짝": 4110,
      "##낮": 4111,
      "##딜": 4112,
      "##읽": 4113,
      "##겟": 4114,
      "##꺽": 4115,
      "##뢨": 4116,
      "##쉘": 4117,
      "##촨": 4118,
      "##헝": 4119,
      "##댐": 4120,
      "##탬": 4121,
      "##홉": 4122,
      "##줍": 4123,
      "##몹": 4124,
      "##곧": 4125,
      "##탸": 4126,
      "##숨": 4127,
      "##룔": 4128,
      "##탰": 4129,
      "##딧": 4130,
      "##둑": 4131,
      "##앰": 4132,
      "##줘": 4133,
      "##벵": 4134,
      "##꼭": 4135,
      "##솥": 4136,
      "##늄": 4137,
      "##슭": 4138,
      "##뭉": 4139,
      "##닷": 4140,
      "##셧": 4141,
      "##옴": 4142,
      "##낵": 4143,
      "##웜": 4144,
      "##녔": 4145,
      "##쉴": 4146,
      "##깊": 4147,
      "##훼": 4148,
      "##탓": 4149,
      "##찮": 4150,
      "##벙": 4151,
      "##쟈": 4152,
      "##갓": 4153,
      "##퍄": 4154,
      "##몫": 4155,
      "##텁": 4156,
      "##챗": 4157,
      "##떼": 4158,
      "##콜": 4159,
      "##줴": 4160,
      "##웍": 4161,
      "##뢸": 4162,
      "##땅": 4163,
      "##옛": 4164,
      "##뿌": 4165,
      "##눗": 4166,
      "##셈": 4167,
      "##김": 4168,
      "##횟": 4169,
      "##뷸": 4170,
      "##슷": 4171,
      "##콕": 4172,
      "##훤": 4173,
      "##뱌": 4174,
      "##놉": 4175,
      "##셩": 4176,
      "##뻐": 4177,
      "##푹": 4178,
      "##쏘": 4179,
      "##즙": 4180,
      "##쿡": 4181,
      "##얹": 4182,
      "##틔": 4183,
      "##딤": 4184,
      "##앗": 4185,
      "##ㄱ": 4186,
      "##댑": 4187,
      "##툰": 4188,
      "##됩": 4189,
      "##잼": 4190,
      "##룻": 4191,
      "##궉": 4192,
      "##챌": 4193,
      "##왈": 4194,
      "##쫓": 4195,
      "##빡": 4196,
      "##눅": 4197,
      "##킁": 4198,
      "##숴": 4199,
      "##젖": 4200,
      "##쿰": 4201,
      "##맺": 4202,
      "##톈": 4203,
      "##훌": 4204,
      "##넴": 4205,
      "##긍": 4206,
      "##껐": 4207,
      "##냇": 4208,
      "##쾀": 4209,
      "##큰": 4210,
      "##섰": 4211,
      "##숫": 4212,
      "##냑": 4213,
      "##믈": 4214,
      "##궈": 4215,
      "##낀": 4216,
      "##줌": 4217,
      "##팡": 4218,
      "##돕": 4219,
      "##뚤": 4220,
      "##쭤": 4221,
      "##밈": 4222,
      "##낯": 4223,
      "##춧": 4224,
      "##듭": 4225,
      "##싼": 4226,
      "##삭": 4227,
      "##젓": 4228,
      "##녜": 4229,
      "##샴": 4230,
      "##썬": 4231,
      "##뻘": 4232,
      "##녁": 4233,
      "##쑤": 4234,
      "##쌌": 4235,
      "##좋": 4236,
      "##텃": 4237,
      "##췄": 4238,
      "##팩": 4239,
      "##핫": 4240,
      "##뚜": 4241,
      "##풋": 4242,
      "##졔": 4243,
      "##헐": 4244,
      "##팜": 4245,
      "##쥘": 4246,
      "##뤠": 4247,
      "##꽝": 4248,
      "##놋": 4249,
      "##퀄": 4250,
      "##셸": 4251,
      "##꿩": 4252,
      "##껏": 4253,
      "##엑": 4254,
      "##넘": 4255,
      "##왁": 4256,
      "##컹": 4257,
      "##륌": 4258,
      "##붉": 4259,
      "##젱": 4260,
      "##씌": 4261,
      "##퀸": 4262,
      "##뽑": 4263,
      "##핼": 4264,
      "##펌": 4265,
      "##샬": 4266,
      "##탤": 4267,
      "##쁜": 4268,
      "##껴": 4269,
      "##쾰": 4270,
      "##갤": 4271,
      "##또": 4272,
      "##껍": 4273,
      "##샌": 4274,
      "##푼": 4275,
      "##짚": 4276,
      "##꽂": 4277,
      "##껀": 4278,
      "##둣": 4279,
      "##낚": 4280,
      "##팍": 4281,
      "##닿": 4282,
      "##닭": 4283,
      "##딴": 4284,
      "##혔": 4285,
      "##캅": 4286,
      "##썩": 4287,
      "##젬": 4288,
      "##뫼": 4289,
      "##뜻": 4290,
      "##꿇": 4291,
      "##볕": 4292,
      "##엥": 4293,
      "##륭": 4294,
      "##탭": 4295,
      "##녤": 4296,
      "##뿔": 4297,
      "##굉": 4298,
      "##덛": 4299,
      "##텟": 4300,
      "##벗": 4301,
      "##빨": 4302,
      "##쵸": 4303,
      "##넵": 4304,
      "##윅": 4305,
      "##땐": 4306,
      "##퉈": 4307,
      "##뎌": 4308,
      "##뤽": 4309,
      "##깝": 4310,
      "##쉰": 4311,
      "##덟": 4312,
      "##퓸": 4313,
      "##놨": 4314,
      "##눕": 4315,
      "##겁": 4316,
      "##샵": 4317,
      "##볍": 4318,
      "##튽": 4319,
      "##룀": 4320,
      "##댔": 4321,
      "##냄": 4322,
      "##볐": 4323,
      "##딪": 4324,
      "##욧": 4325,
      "##뵤": 4326,
      "##뤄": 4327,
      "##긋": 4328,
      "##맴": 4329,
      "##뒷": 4330,
      "##갼": 4331,
      "##젯": 4332,
      "##쭉": 4333,
      "##굼": 4334,
      "##싶": 4335,
      "##꼰": 4336,
      "##콴": 4337,
      "##쎄": 4338,
      "##웁": 4339,
      "##끗": 4340,
      "##썼": 4341,
      "##젹": 4342,
      "##똥": 4343,
      "##촐": 4344,
      "##쾨": 4345,
      "##췬": 4346,
      "##솬": 4347,
      "##촙": 4348,
      "##밋": 4349,
      "##꽁": 4350,
      "##벉": 4351,
      "##멤": 4352,
      "##쯕": 4353,
      "##켤": 4354,
      "##찹": 4355,
      "##겉": 4356,
      "##콰": 4357,
      "##찐": 4358,
      "##꽌": 4359,
      "##짖": 4360,
      "##땠": 4361,
      "##랗": 4362,
      "##웹": 4363,
      "##잽": 4364,
      "##튠": 4365,
      "##킵": 4366,
      "##꿀": 4367,
      "##싹": 4368,
      "##윌": 4369,
      "##섕": 4370,
      "##겅": 4371,
      "##꿍": 4372,
      "##핌": 4373,
      "##겡": 4374,
      "##뮈": 4375,
      "##탉": 4376,
      "##뎃": 4377,
      "##톰": 4378,
      "##녅": 4379,
      "##쩡": 4380,
      "##뜬": 4381,
      "##힛": 4382,
      "##옺": 4383,
      "##훅": 4384,
      "##섀": 4385,
      "##찔": 4386,
      "##캥": 4387,
      "##껄": 4388,
      "##쾅": 4389,
      "##늠": 4390,
      "##ㅏ": 4391,
      "##솝": 4392,
      "##솀": 4393,
      "##흔": 4394,
      "##맬": 4395,
      "##똑": 4396,
      "##엮": 4397,
      "##둬": 4398,
      "##늉": 4399,
      "##뚫": 4400,
      "##벅": 4401,
      "##캇": 4402,
      "##랠": 4403,
      "##뚝": 4404,
      "##촘": 4405,
      "##닮": 4406,
      "##눴": 4407,
      "##엇": 4408,
      "##뽄": 4409,
      "##췌": 4410,
      "##퍽": 4411,
      "##쁠": 4412,
      "##쓴": 4413,
      "##늪": 4414,
      "##툐": 4415,
      "##꾀": 4416,
      "##잭": 4417,
      "##윙": 4418,
      "##쳥": 4419,
      "##톳": 4420,
      "##얌": 4421,
      "##둉": 4422,
      "##썸": 4423,
      "##뇰": 4424,
      "##쿵": 4425,
      "##쩍": 4426,
      "##쨩": 4427,
      "##껑": 4428,
      "##닫": 4429,
      "##귬": 4430,
      "##굵": 4431,
      "##쑹": 4432,
      "##많": 4433,
      "##뎀": 4434,
      "##꿋": 4435,
      "##땡": 4436,
      "##퀀": 4437,
      "##긔": 4438,
      "##낄": 4439,
      "##츨": 4440,
      "##좨": 4441,
      "##뚬": 4442,
      "##뵈": 4443,
      "##껫": 4444,
      "##켑": 4445,
      "##슌": 4446,
      "##눙": 4447,
      "##쉥": 4448,
      "##빔": 4449,
      "##엌": 4450,
      "##쁨": 4451,
      "##샐": 4452,
      "##넓": 4453,
      "##픔": 4454,
      "##멩": 4455,
      "##콸": 4456,
      "##셍": 4457,
      "##쩐": 4458,
      "##찻": 4459,
      "##툭": 4460,
      "##덥": 4461,
      "##뮐": 4462,
      "##앱": 4463,
      "##꿨": 4464,
      "##툽": 4465,
      "##뱃": 4466,
      "##퓌": 4467,
      "##깐": 4468,
      "##랖": 4469,
      "##썰": 4470,
      "##텅": 4471,
      "##씽": 4472,
      "##챰": 4473,
      "##걀": 4474,
      "##숄": 4475,
      "##삿": 4476,
      "##쌓": 4477,
      "##챙": 4478,
      "##냔": 4479,
      "##핟": 4480,
      "##웽": 4481,
      "##짧": 4482,
      "##냘": 4483,
      "##댜": 4484,
      "##폿": 4485,
      "##돛": 4486,
      "##앳": 4487,
      "##텡": 4488,
      "##쿳": 4489,
      "##늦": 4490,
      "##벰": 4491,
      "##밝": 4492,
      "##갸": 4493,
      "##뽕": 4494,
      "##쨈": 4495,
      "##젭": 4496,
      "##옻": 4497,
      "##뻔": 4498,
      "##렷": 4499,
      "##굄": 4500,
      "##짤": 4501,
      "##챤": 4502,
      "##핏": 4503,
      "##껌": 4504,
      "##릍": 4505,
      "##죌": 4506,
      "##솁": 4507,
      "##튤": 4508,
      "##썽": 4509,
      "##셌": 4510,
      "##낱": 4511,
      "##뒀": 4512,
      "##옘": 4513,
      "##럄": 4514,
      "##뷜": 4515,
      "##삥": 4516,
      "##넝": 4517,
      "##펍": 4518,
      "##숱": 4519,
      "##맙": 4520,
      "##걱": 4521,
      "##윕": 4522,
      "##갰": 4523,
      "##갭": 4524,
      "##켠": 4525,
      "##덫": 4526,
      "##뇬": 4527,
      "##닳": 4528,
      "##댓": 4529,
      "##릅": 4530,
      "##넉": 4531,
      "##끽": 4532,
      "##밧": 4533,
      "##볓": 4534,
      "##윳": 4535,
      "##돗": 4536,
      "##셤": 4537,
      "##텨": 4538,
      "##칵": 4539,
      "##섞": 4540,
      "##즉": 4541,
      "##뱉": 4542,
      "##뵨": 4543,
      "##쪼": 4544,
      "##쎴": 4545,
      "##봅": 4546,
      "##갠": 4547,
      "##쑴": 4548,
      "##귑": 4549,
      "##쨌": 4550,
      "##뤘": 4551,
      "##튐": 4552,
      "##뎨": 4553,
      "##갖": 4554,
      "##딥": 4555,
      "##쭈": 4556,
      "##핬": 4557,
      "##힙": 4558,
      "##빴": 4559,
      "##넸": 4560,
      "##뎬": 4561,
      "##윰": 4562,
      "##깽": 4563,
      "##폄": 4564,
      "##씰": 4565,
      "##꼈": 4566,
      "##찯": 4567,
      "##팸": 4568,
      "##샥": 4569,
      "##깎": 4570,
      "##컥": 4571,
      "##팰": 4572,
      "##뭍": 4573,
      "##왓": 4574,
      "##뷴": 4575,
      "##쩔": 4576,
      "##뻤": 4577,
      "##줃": 4578,
      "##깡": 4579,
      "##뀐": 4580,
      "##퇼": 4581,
      "##쭝": 4582,
      "##돨": 4583,
      "##쏙": 4584,
      "##깍": 4585,
      "##큅": 4586,
      "##큠": 4587,
      "##윁": 4588,
      "##훗": 4589,
      "##똘": 4590,
      "##춥": 4591,
      "##끓": 4592,
      "##앓": 4593,
      "##짠": 4594,
      "##밌": 4595,
      "##헷": 4596,
      "##붐": 4597,
      "##쳬": 4598,
      "##햔": 4599,
      "##퓔": 4600,
      "##긱": 4601,
      "##빳": 4602,
      "##켐": 4603,
      "##얏": 4604,
      "##뺌": 4605,
      "##맸": 4606,
      "##얍": 4607,
      "##뻬": 4608,
      "##캬": 4609,
      "##셱": 4610,
      "##됭": 4611,
      "##읻": 4612,
      "##굳": 4613,
      "##옉": 4614,
      "##푀": 4615,
      "##뮌": 4616,
      "##쭌": 4617,
      "##삵": 4618,
      "##훠": 4619,
      "##뺏": 4620,
      "##뭄": 4621,
      "##챈": 4622,
      "##쎈": 4623,
      "##룟": 4624,
      "##ㅇ": 4625,
      "##짬": 4626,
      "##씻": 4627,
      "##괼": 4628,
      "##됴": 4629,
      "##찜": 4630,
      "##욜": 4631,
      "##낑": 4632,
      "##햠": 4633,
      "##혠": 4634,
      "##겜": 4635,
      "##녠": 4636,
      "##틍": 4637,
      "##쿱": 4638,
      "##챘": 4639,
      "##뷘": 4640,
      "##벚": 4641,
      "##쌤": 4642,
      "##빕": 4643,
      "##텄": 4644,
      "##짭": 4645,
      "##컫": 4646,
      "##띔": 4647,
      "##맄": 4648,
      "##싣": 4649,
      "##씸": 4650,
      "##팠": 4651,
      "##샅": 4652,
      "##쫀": 4653,
      "##퀩": 4654,
      "##닦": 4655,
      "##훔": 4656,
      "##쳔": 4657,
      "##떤": 4658,
      "##쇽": 4659,
      "##깁": 4660,
      "##쉈": 4661,
      "##닢": 4662,
      "##셥": 4663,
      "##헛": 4664,
      "##웡": 4665,
      "##솎": 4666,
      "##꼽": 4667,
      "##롼": 4668,
      "##쫄": 4669,
      "##귐": 4670,
      "##츈": 4671,
      "##휠": 4672,
      "##옆": 4673,
      "##쉔": 4674,
      "##켕": 4675,
      "##몄": 4676,
      "##듸": 4677,
      "##웟": 4678,
      "##쌔": 4679,
      "##샾": 4680,
      "##쪄": 4681,
      "##짢": 4682,
      "##삶": 4683,
      "##곁": 4684,
      "##욤": 4685,
      "##칫": 4686,
      "##딛": 4687,
      "##읔": 4688,
      "##짇": 4689,
      "##죤": 4690,
      "##뺨": 4691,
      "##튿": 4692,
      "##씹": 4693,
      "##걷": 4694,
      "##쳇": 4695,
      "##냠": 4696,
      "##깟": 4697,
      "##땜": 4698,
      "##찼": 4699,
      "##탔": 4700,
      "##뭐": 4701,
      "##쑨": 4702,
      "##놔": 4703,
      "##팃": 4704,
      "##왐": 4705,
      "##빽": 4706,
      "##슥": 4707,
      "##듄": 4708,
      "##뢴": 4709,
      "##톄": 4710,
      "##팁": 4711,
      "##룅": 4712,
      "##꼼": 4713,
      "##츤": 4714,
      "##뫄": 4715,
      "##맣": 4716,
      "##붇": 4717,
      "##숏": 4718,
      "##떳": 4719,
      "##묻": 4720,
      "##쐐": 4721,
      "##팻": 4722,
      "##쭐": 4723,
      "##얻": 4724,
      "##왼": 4725,
      "##쟝": 4726,
      "##씃": 4727,
      "##넙": 4728,
      "##볜": 4729,
      "##ㅡ": 4730,
      "##똣": 4731,
      "##폈": 4732,
      "##뒴": 4733,
      "##꾹": 4734,
      "##흗": 4735,
      "##륐": 4736,
      "##깜": 4737,
      "##쮸": 4738,
      "##첵": 4739,
      "##쥣": 4740,
      "##땀": 4741,
      "##밉": 4742,
      "##솽": 4743,
      "##넹": 4744,
      "##잍": 4745,
      "##깻": 4746,
      "##떻": 4747,
      "##덭": 4748,
      "##믄": 4749,
      "##쫑": 4750,
      "##푠": 4751,
      "##ㄹ": 4752,
      "##떵": 4753,
      "##뀔": 4754,
      "##큔": 4755,
      "##츔": 4756,
      "##꿉": 4757,
      "##럇": 4758,
      "##뇩": 4759,
      "##먁": 4760,
      "##듦": 4761,
      "##ㄴ": 4762,
      "##잿": 4763,
      "##ㅋ": 4764,
      "##쟌": 4765,
      "##ㄲ": 4766,
      "##돠": 4767,
      "##얗": 4768,
      "##렜": 4769,
      "##륍": 4770,
      "##ㅁ": 4771,
      "##첫": 4772,
      "##쥴": 4773,
      "##뱁": 4774,
      "##윽": 4775,
      "##펨": 4776,
      "##뀜": 4777,
      "##횬": 4778,
      "##풜": 4779,
      "##곘": 4780,
      "##싫": 4781,
      "##뇐": 4782,
      "##읕": 4783,
      "##둡": 4784,
      "##퀵": 4785,
      "##핻": 4786,
      "##왑": 4787,
      "##깬": 4788,
      "##꺅": 4789,
      "##잊": 4790,
      "##쏟": 4791,
      "##봍": 4792,
      "##틑": 4793,
      "##꿎": 4794,
      "##얭": 4795,
      "##뿅": 4796,
      "##굣": 4797,
      "##꺾": 4798,
      "##삯": 4799,
      "##얽": 4800,
      "##땄": 4801,
      "##졍": 4802,
      "##얘": 4803,
      "##옮": 4804,
      "##쥠": 4805,
      "##띤": 4806,
      "##녓": 4807,
      "##졶": 4808,
      "##끊": 4809,
      "##뻣": 4810,
      "##옝": 4811,
      "##꿰": 4812,
      "##뵐": 4813,
      "##뤗": 4814,
      "##쳰": 4815,
      "##빤": 4816,
      "##멱": 4817,
      "##줏": 4818,
      "##쏭": 4819,
      "##쉿": 4820,
      "##뻗": 4821,
      "##뿜": 4822,
      "##튈": 4823,
      "##폽": 4824,
      "##쑈": 4825,
      "##릘": 4826,
      "##ㅅ": 4827,
      "##ㄷ": 4828,
      "##쑬": 4829,
      "##곬": 4830,
      "##읜": 4831,
      "##찟": 4832,
      "##뎐": 4833,
      "##갚": 4834,
      "##큉": 4835,
      "##꺄": 4836,
      "##뽁": 4837,
      "##횐": 4838,
      "##헀": 4839,
      "##켁": 4840,
      "##잌": 4841,
      "##쏜": 4842,
      "##슁": 4843,
      "##몇": 4844,
      "##쬐": 4845,
      "##싀": 4846,
      "##햘": 4847,
      "##홋": 4848,
      "##햬": 4849,
      "##꽈": 4850,
      "##퇘": 4851,
      "##ㅗ": 4852,
      "##ㅎ": 4853,
      "##먄": 4854,
      "##숩": 4855,
      "##딨": 4856,
      "##쩬": 4857,
      "##롹": 4858,
      "##잃": 4859,
      "##캌": 4860,
      "##녈": 4861,
      "##캑": 4862,
      "##윛": 4863,
      "##뮺": 4864,
      "##쇨": 4865,
      "##읅": 4866,
      "##똔": 4867,
      "##뱐": 4868,
      "##젊": 4869,
      "##겊": 4870,
      "##쌋": 4871,
      "##챵": 4872,
      "##씁": 4873,
      "##홑": 4874,
      "##뗐": 4875,
      "##뜀": 4876,
      "##녑": 4877,
      "##궜": 4878,
      "##쉼": 4879,
      "##튄": 4880,
      "##읭": 4881,
      "##뛴": 4882,
      "##겪": 4883,
      "##츰": 4884,
      "##뒹": 4885,
      "##햏": 4886,
      "##뉵": 4887,
      "##햅": 4888,
      "##웩": 4889,
      "##몊": 4890,
      "##뼉": 4891,
      "##굠": 4892,
      "##뉜": 4893,
      "##젔": 4894,
      "##볏": 4895,
      "##짹": 4896,
      "##낟": 4897,
      "##넜": 4898,
      "##휭": 4899,
      "##잨": 4900,
      "##꼇": 4901,
      "##퍙": 4902,
      "##츙": 4903,
      "##뒬": 4904,
      "##찝": 4905,
      "##듕": 4906,
      "##끕": 4907,
      "##괭": 4908,
      "##썻": 4909,
      "##홓": 4910,
      "##ㅓ": 4911,
      "##홰": 4912,
      "##퓐": 4913,
      "##꺠": 4914,
      "##햤": 4915,
      "##긷": 4916,
      "##죵": 4917,
      "##귁": 4918,
      "##묫": 4919,
      "##덞": 4920,
      "##좆": 4921,
      "##돤": 4922,
      "##뎠": 4923,
      "##뎁": 4924,
      "##큽": 4925,
      "##뉠": 4926,
      "##찧": 4927,
      "##쾃": 4928,
      "##뮨": 4929,
      "##퉜": 4930,
      "##떴": 4931,
      "##쏩": 4932,
      "##뾰": 4933,
      "##띄": 4934,
      "##뵌": 4935,
      "##늚": 4936,
      "##믜": 4937,
      "##궃": 4938,
      "##묄": 4939,
      "##됙": 4940,
      "##푁": 4941,
      "##잰": 4942,
      "##멥": 4943,
      "##젇": 4944,
      "##칡": 4945,
      "##좐": 4946,
      "##뺄": 4947,
      "##뢱": 4948,
      "##꽅": 4949,
      "##묾": 4950,
      "##푈": 4951,
      "##쿽": 4952,
      "##쌉": 4953,
      "##헙": 4954,
      "##솦": 4955,
      "##뵙": 4956,
      "##읗": 4957,
      "##ㅂ": 4958,
      "##ㅈ": 4959,
      "##겻": 4960,
      "##솅": 4961,
      "##뙈": 4962,
      "##륑": 4963,
      "##묶": 4964,
      "##윘": 4965,
      "##쩩": 4966,
      "##팈": 4967,
      "##껸": 4968,
      "##틋": 4969,
      "##횃": 4970,
      "##ㅔ": 4971,
      "##엎": 4972,
      "##귿": 4973,
      "##뱟": 4974,
      "##쇳": 4975,
      "##텼": 4976,
      "##ㅆ": 4977,
      "##뱄": 4978,
      "##섦": 4979,
      "##쳉": 4980,
      "##뻴": 4981,
      "##낏": 4982,
      "##킄": 4983,
      "##쨋": 4984,
      "##짙": 4985,
      "##갹": 4986,
      "##헹": 4987,
      "##닽": 4988,
      "##맏": 4989,
      "##쫌": 4990,
      "##촛": 4991,
      "##몐": 4992,
      "##떱": 4993,
      "##홥": 4994,
      "##쳣": 4995,
      "##뽐": 4996,
      "##됀": 4997,
      "##붜": 4998,
      "##냣": 4999,
      "##뻑": 5000,
      "##끎": 5001,
      "##펏": 5002,
      "##뻥": 5003,
      "##탼": 5004,
      "##쒼": 5005,
      "##솨": 5006,
      "##쳑": 5007,
      "##덨": 5008,
      "##읿": 5009,
      "##붑": 5010,
      "##숯": 5011,
      "##쎅": 5012,
      "##뜷": 5013,
      "##꽥": 5014,
      "##퍌": 5015,
      "##뒨": 5016,
      "##빚": 5017,
      "##곈": 5018,
      "##퍈": 5019,
      "##슯": 5020,
      "##챨": 5021,
      "##쏨": 5022,
      "##묑": 5023,
      "##쁩": 5024,
      "##횔": 5025,
      "##퇀": 5026,
      "##웻": 5027,
      "##댠": 5028,
      "##읠": 5029,
      "##춈": 5030,
      "##컸": 5031,
      "##츌": 5032,
      "##뛔": 5033,
      "##쪤": 5034,
      "##맟": 5035,
      "##늙": 5036,
      "##궬": 5037,
      "##켯": 5038,
      "##믿": 5039,
      "##쇤": 5040,
      "##괵": 5041,
      "##얜": 5042,
      "##ㅊ": 5043,
      "##ㅜ": 5044,
      "##ㅕ": 5045,
      "##ㅑ": 5046,
      "##갗": 5047,
      "##뚠": 5048,
      "##롸": 5049,
      "##붸": 5050,
      "##핶": 5051,
      "##쩽": 5052,
      "##휜": 5053,
      "##숧": 5054,
      "##뉼": 5055,
      "##텦": 5056,
      "##멵": 5057,
      "##쓱": 5058,
      "##슙": 5059,
      "##옭": 5060,
      "##븃": 5061,
      "##쳄": 5062,
      "##솏": 5063,
      "##쨘": 5064,
      "##놩": 5065,
      "##ㅍ": 5066,
      "##ㅌ": 5067,
      "##갘": 5068,
      "##뒸": 5069,
      "##뇔": 5070,
      "##릷": 5071,
      "##띵": 5072,
      "##혅": 5073,
      "##괌": 5074,
      "##촹": 5075,
      "##믯": 5076,
      "##퀠": 5077,
      "##굔": 5078,
      "##힉": 5079,
      "##됸": 5080,
      "##볘": 5081,
      "##쌩": 5082,
      "##뿟": 5083,
      "##겍": 5084,
      "##틂": 5085,
      "##욀": 5086,
      "##됼": 5087,
      "##큇": 5088,
      "##쌰": 5089,
      "##늗": 5090,
      "##춉": 5091,
      "##ㅛ": 5092,
      "##ㅠ": 5093,
      "##쒀": 5094,
      "##륏": 5095,
      "##딫": 5096,
      "##좇": 5097,
      "##쎌": 5098,
      "##옇": 5099,
      "##찢": 5100,
      "##몌": 5101,
      "##쥰": 5102,
      "##툉": 5103,
      "##멨": 5104,
      "##큄": 5105,
      "##섁": 5106,
      "##퇵": 5107,
      "##켸": 5108,
      "##랒": 5109,
      "##섶": 5110,
      "##댤": 5111,
      "##껙": 5112,
      "##믁": 5113,
      "##끙": 5114,
      "##뎰": 5115,
      "##돇": 5116,
      "##숟": 5117,
      "##궨": 5118,
      "##샀": 5119,
      "##쳠": 5120,
      "##윋": 5121,
      "##봬": 5122,
      "##랼": 5123,
      "##맆": 5124,
      "##잋": 5125,
      "##깩": 5126,
      "##ㄸ": 5127,
      "##멓": 5128,
      "##뭅": 5129,
      "##섄": 5130,
      "##궇": 5131,
      "##숡": 5132,
      "##릐": 5133,
      "##됬": 5134,
      "##쌘": 5135,
      "##낻": 5136,
      "##쫏": 5137,
      "##샙": 5138,
      "##슉": 5139,
      "##왬": 5140,
      "##슼": 5141,
      "##괸": 5142,
      "##낳": 5143,
      "##뉨": 5144,
      "##쉑": 5145,
      "##챡": 5146,
      "##쁭": 5147,
      "##핳": 5148,
      "##풂": 5149,
      "##혓": 5150,
      "##푤": 5151,
      "##펼": 5152,
      "##쩟": 5153,
      "##짯": 5154,
      "##걍": 5155,
      "##밞": 5156,
      "##맑": 5157,
      "##룧": 5158,
      "##띡": 5159,
      "##뿍": 5160,
      "##뗏": 5161,
      "##죕": 5162,
      "##겝": 5163,
      "##띨": 5164,
      "##탙": 5165,
      "##삑": 5166,
      "##롓": 5167,
      "##밷": 5168,
      "##룁": 5169,
      "##팹": 5170,
      "##륫": 5171,
      "##룐": 5172,
      "##펐": 5173,
      "##읒": 5174,
      "##옸": 5175,
      "##겋": 5176,
      "##녝": 5177,
      "##픜": 5178,
      "##샏": 5179,
      "##겿": 5180,
      "##훵": 5181,
      "##몆": 5182,
      "##쏴": 5183,
      "##눼": 5184,
      "##룝": 5185,
      "##웸": 5186,
      "##훨": 5187,
      "##먕": 5188,
      "##귓": 5189,
      "##캴": 5190,
      "##좧": 5191,
      "##콮": 5192,
      "##앟": 5193,
      "##횰": 5194,
      "##떘": 5195,
      "##짊": 5196,
      "##츼": 5197,
      "##짔": 5198,
      "##홧": 5199,
      "##뺀": 5200,
      "##픝": 5201,
      "##짰": 5202,
      "##늿": 5203,
      "##엾": 5204,
      "##곗": 5205,
      "##뇸": 5206,
      "##헉": 5207,
      "##럘": 5208,
      "##럅": 5209,
      "##쿌": 5210,
      "##욥": 5211,
      "##퐝": 5212,
      "##횻": 5213,
      "##킈": 5214,
      "##헸": 5215,
      "##갛": 5216,
      "##쩃": 5217,
      "##칳": 5218,
      "##쟛": 5219,
      "##챦": 5220,
      "##닯": 5221,
      "##컈": 5222,
      "##넒": 5223,
      "##췰": 5224,
      "##죈": 5225,
      "##놘": 5226,
      "##솑": 5227,
      "##푕": 5228,
      "##멂": 5229,
      "##됰": 5230,
      "##퀏": 5231,
      "##읓": 5232,
      "##깢": 5233,
      "##휨": 5234,
      "##뿡": 5235,
      "##죡": 5236,
      "##욷": 5237,
      "##퉤": 5238,
      "##쩄": 5239,
      "##떥": 5240,
      "##쾽": 5241,
      "##푶": 5242,
      "##넡": 5243,
      "##쮠": 5244,
      "##읃": 5245,
      "##땸": 5246,
      "##잴": 5247,
      "##샊": 5248,
      "##즤": 5249,
      "##긁": 5250,
      "##걈": 5251,
      "##몃": 5252,
      "##뵴": 5253,
      "##섨": 5254,
      "##핮": 5255,
      "##돟": 5256,
      "##쾻": 5257,
      "##숌": 5258,
      "##쐬": 5259,
      "##봭": 5260,
      "##뗀": 5261,
      "##럐": 5262,
      "##줜": 5263,
      "##뺑": 5264,
      "##욺": 5265,
      "##쫒": 5266,
      "##뒈": 5267,
      "##꽛": 5268,
      "##졘": 5269,
      "##럈": 5270,
      "##햑": 5271,
      "##튱": 5272,
      "##뗄": 5273,
      "##맜": 5274,
      "##솃": 5275,
      "##냬": 5276,
      "##훑": 5277,
      "##묭": 5278,
      "##쨔": 5279,
      "##읊": 5280,
      "##돐": 5281,
      "##넖": 5282,
      "##깰": 5283,
      "##엊": 5284,
      "##랓": 5285,
      "##욨": 5286,
      "##튕": 5287,
      "##땨": 5288,
      "##둴": 5289,
      "##짛": 5290,
      "##틩": 5291,
      "##풰": 5292,
      "##뚯": 5293,
      "##툠": 5294,
      "##홤": 5295,
      "##왱": 5296,
      "##꾜": 5297,
      "##윾": 5298,
      "##뙤": 5299,
      "##쨉": 5300,
      "##꾿": 5301,
      "##궘": 5302,
      "##쿙": 5303,
      "##삣": 5304,
      "##춴": 5305,
      "##뙨": 5306,
      "##듁": 5307,
      "##툥": 5308,
      "##쩜": 5309,
      "##퀌": 5310,
      "##왰": 5311,
      "##됏": 5312,
      "##샜": 5313,
      "##햊": 5314,
      "##줫": 5315,
      "##윷": 5316,
      "##뉩": 5317,
      "##폘": 5318,
      "##굻": 5319,
      "##뱡": 5320,
      "##틉": 5321,
      "##빰": 5322,
      "##뀨": 5323,
      "##뤀": 5324,
      "##엤": 5325,
      "##뽈": 5326,
      "##늡": 5327,
      "##댱": 5328,
      "##묜": 5329,
      "##읫": 5330,
      "##괜": 5331,
      "##헜": 5332,
      "##좃": 5333,
      "##읏": 5334,
      "##숸": 5335,
      "##껭": 5336,
      "##뎡": 5337,
      "##넁": 5338,
      "##곯": 5339,
      "##쫗": 5340,
      "##끅": 5341,
      "##턔": 5342,
      "##뎝": 5343,
      "##꼍": 5344,
      "##얬": 5345,
      "##쭙": 5346,
      "##뛸": 5347,
      "##셕": 5348,
      "##짘": 5349,
      "##ㅝ": 5350,
      "##졀": 5351,
      "##뭘": 5352,
      "##쥼": 5353,
      "##벱": 5354,
      "##팤": 5355,
      "##겄": 5356,
      "##껠": 5357,
      "##닸": 5358,
      "##좍": 5359,
      "##긆": 5360,
      "##뤌": 5361,
      "##쨍": 5362,
      "##씐": 5363,
      "##굑": 5364,
      "##밫": 5365,
      "##믕": 5366,
      "##읁": 5367,
      "##븨": 5368,
      "##퀍": 5369,
      "##갇": 5370,
      "##랛": 5371,
      "##춛": 5372,
      "##쉭": 5373,
      "##븡": 5374,
      "##뼛": 5375,
      "##댸": 5376,
      "##욿": 5377,
      "##둰": 5378,
      "##꺤": 5379,
      "##왠": 5380,
      "##앜": 5381,
      "##숖": 5382,
      "##쓔": 5383,
      "##쪗": 5384,
      "##텽": 5385,
      "##롲": 5386,
      "##꿘": 5387,
      "##훕": 5388,
      "##팉": 5389,
      "##푱": 5390,
      "##빝": 5391,
      "##옳": 5392,
      "##샇": 5393,
      "##얶": 5394,
      "##륽": 5395,
      "##몯": 5396,
      "##뵬": 5397,
      "##띱": 5398,
      "##멎": 5399,
      "##됮": 5400,
      "##믓": 5401,
      "##뼘": 5402,
      "##튝": 5403,
      "##꽉": 5404,
      "##쟉": 5405,
      "##븥": 5406,
      "##븟": 5407,
      "##릌": 5408,
      "##촤": 5409,
      "##졋": 5410,
      "##푣": 5411,
      "##윥": 5412,
      "##쿈": 5413,
      "##뉸": 5414,
      "##쒸": 5415,
      "##흄": 5416,
      "##휙": 5417,
      "##슾": 5418,
      "##쵣": 5419,
      "##벋": 5420,
      "##둟": 5421,
      "##쭘": 5422,
      "##잦": 5423,
      "##됄": 5424,
      "##븓": 5425,
      "##뗌": 5426,
      "##툇": 5427,
      "##럔": 5428,
      "##괏": 5429,
      "##뺐": 5430,
      "##쬘": 5431,
      "##큭": 5432,
      "##밨": 5433,
      "##돎": 5434,
      "##릳": 5435,
      "##윱": 5436,
      "##쉠": 5437,
      "##즑": 5438,
      "##즛": 5439,
      "##픕": 5440,
      "##늴": 5441,
      "##첮": 5442,
      "##엩": 5443,
      "##껼": 5444,
      "##쓺": 5445,
      "##떰": 5446,
      "##랢": 5447,
      "##휩": 5448,
      "##엗": 5449,
      "##얐": 5450,
      "##ㅢ": 5451,
      "##뢀": 5452,
      "##륻": 5453,
      "##ㅉ": 5454,
      "##삘": 5455,
      "##빋": 5456,
      "##닜": 5457,
      "##혱": 5458,
      "##옽": 5459,
      "##첬": 5460,
      "##칱": 5461,
      "##썅": 5462,
      "##넀": 5463,
      "##좔": 5464,
      "##뺘": 5465,
      "##쾩": 5466,
      "##햌": 5467,
      "##텬": 5468,
      "##뉙": 5469,
      "##섡": 5470,
      "##롈": 5471,
      "##늰": 5472,
      "##랲": 5473,
      "##돰": 5474,
      "##뤈": 5475,
      "##굘": 5476,
      "##꺌": 5477,
      "##낍": 5478,
      "##밯": 5479,
      "##겣": 5480,
      "##쪨": 5481,
      "##훍": 5482,
      "##싿": 5483,
      "##욯": 5484,
      "##콀": 5485,
      "##쎕": 5486,
      "##댚": 5487,
      "##찿": 5488,
      "##뭏": 5489,
      "##셑": 5490,
      "##돴": 5491,
      "##넋": 5492,
      "##흭": 5493,
      "##휀": 5494,
      "##듧": 5495,
      "##튁": 5496,
      "##쪘": 5497,
      "##뤵": 5498,
      "##슽": 5499,
      "##큥": 5500,
      "##ㅃ": 5501,
      "##풔": 5502,
      "##왝": 5503,
      "##졩": 5504,
      "##ㅀ": 5505,
      "##횩": 5506,
      "##셖": 5507,
      "##닺": 5508,
      "##벜": 5509,
      "##렆": 5510,
      "##폅": 5511,
      "##몀": 5512,
      "##췩": 5513,
      "##왹": 5514,
      "##뎗": 5515,
      "##귝": 5516,
      "##ㅐ": 5517,
      "##툿": 5518,
      "##큣": 5519,
      "##뀠": 5520,
      "##욍": 5521,
      "##맽": 5522,
      "##뀍": 5523,
      "##웇": 5524,
      "##릊": 5525,
      "##뱆": 5526,
      "##읖": 5527,
      "##츩": 5528,
      "##뀝": 5529,
      "##쾁": 5530,
      "##헿": 5531,
      "##럲": 5532,
      "##퓬": 5533,
      "##젃": 5534,
      "##깆": 5535,
      "##췐": 5536,
      "##졉": 5537,
      "##롐": 5538,
      "##볙": 5539,
      "##쩝": 5540,
      "##섐": 5541,
      "##놰": 5542,
      "##햿": 5543,
      "##욌": 5544,
      "##쀼": 5545,
      "##앛": 5546,
      "##쎼": 5547,
      "##얇": 5548,
      "##꿏": 5549,
      "##떄": 5550,
      "##잂": 5551,
      "##룍": 5552,
      "##됌": 5553,
      "##씅": 5554,
      "##섵": 5555,
      "##헰": 5556,
      "##쌕": 5557,
      "##뜽": 5558,
      "##갂": 5559,
      "##땝": 5560,
      "##폳": 5561,
      "##쟐": 5562,
      "##뻰": 5563,
      "##뻼": 5564,
      "##밎": 5565,
      "##렠": 5566,
      "##쑷": 5567,
      "##섥": 5568,
      "##돚": 5569,
      "##쌴": 5570,
      "##읙": 5571,
      "##쬼": 5572,
      "##떦": 5573,
      "##툘": 5574,
      "##턀": 5575,
      "##랰": 5576,
      "##쳡": 5577,
      "##늩": 5578,
      "##쯧": 5579,
      "##햣": 5580,
      "##덙": 5581,
      "##랃": 5582,
      "##덣": 5583,
      "##꽹": 5584,
      "##삳": 5585,
      "##핝": 5586,
      "##쬔": 5587,
      "##엪": 5588,
      "##삮": 5589,
      "##쫃": 5590,
      "##꿕": 5591,
      "##괍": 5592,
      "##칢": 5593,
      "##옄": 5594,
      "##죙": 5595,
      "##톼": 5596,
      "##횄": 5597,
      "##깸": 5598,
      "##냡": 5599,
      "##섷": 5600,
      "##냤": 5601,
      "##햡": 5602,
      "##즁": 5603,
      "##앧": 5604,
      "##쩰": 5605,
      "##픠": 5606,
      "##흫": 5607,
      "##똠": 5608,
      "##앆": 5609,
      "##톹": 5610,
      "##뷕": 5611,
      "##늇": 5612,
      "##튓": 5613,
      "##읨": 5614,
      "##핢": 5615,
      "##앚": 5616,
      "##팼": 5617,
      "##굥": 5618,
      "##궡": 5619,
      "##굦": 5620,
      "##늒": 5621,
      "##뺙": 5622,
      "##뤨": 5623,
      "##으로": 5624,
      "##에서": 5625,
      "##었다": 5626,
      "19": 5627,
      "20": 5628,
      "##이다": 5629,
      "있다": 5630,
      "##하였": 5631,
      "##했다": 5632,
      "##하는": 5633,
      "##하고": 5634,
      "##하여": 5635,
      "##으며": 5636,
      "##하였다": 5637,
      "##에는": 5638,
      "##되었다": 5639,
      "##한다": 5640,
      "201": 5641,
      "200": 5642,
      "있는": 5643,
      "##지만": 5644,
      "##부터": 5645,
      "##0년": 5646,
      "##에게": 5647,
      "대한": 5648,
      "##적인": 5649,
      "##까지": 5650,
      "##적으로": 5651,
      "10": 5652,
      "##되어": 5653,
      "##면서": 5654,
      "##들이": 5655,
      "##들은": 5656,
      "##하기": 5657,
      "사용": 5658,
      "이후": 5659,
      "##하게": 5660,
      "18": 5661,
      "##에서는": 5662,
      "##8년": 5663,
      "미국": 5664,
      "##5년": 5665,
      "##er": 5666,
      "##9년": 5667,
      "##았다": 5668,
      "##7년": 5669,
      "한다": 5670,
      "##6년": 5671,
      "일본": 5672,
      "199": 5673,
      "##2년": 5674,
      "##1년": 5675,
      "##4년": 5676,
      "##으나": 5677,
      "그는": 5678,
      "##되었": 5679,
      "##라는": 5680,
      "##or": 5681,
      "##는데": 5682,
      "##였다": 5683,
      "##3년": 5684,
      "##라고": 5685,
      "위해": 5686,
      "되었다": 5687,
      "12": 5688,
      "##리아": 5689,
      "때문": 5690,
      "##00": 5691,
      "지역": 5692,
      "##스트": 5693,
      "그리": 5694,
      "##들의": 5695,
      "##on": 5696,
      "##주의": 5697,
      "것이": 5698,
      "시작": 5699,
      "##들을": 5700,
      "같은": 5701,
      "11": 5702,
      "그러": 5703,
      "다른": 5704,
      "##학교": 5705,
      "##국의": 5706,
      "##된다": 5707,
      "자신": 5708,
      "함께": 5709,
      "##하며": 5710,
      "또한": 5711,
      "따라": 5712,
      "사람": 5713,
      "##an": 5714,
      "프로": 5715,
      "198": 5716,
      "##in": 5717,
      "##이며": 5718,
      "##기도": 5719,
      "그의": 5720,
      "##하지": 5721,
      "때문에": 5722,
      "경우": 5723,
      "가장": 5724,
      "##시아": 5725,
      "##이나": 5726,
      "당시": 5727,
      "##la": 5728,
      "사이": 5729,
      "것을": 5730,
      "##기에": 5731,
      "15": 5732,
      "그러나": 5733,
      "세계": 5734,
      "하나": 5735,
      "##기를": 5736,
      "##되는": 5737,
      "기록": 5738,
      "##에도": 5739,
      "것으로": 5740,
      "이름": 5741,
      "또는": 5742,
      "16": 5743,
      "의해": 5744,
      "했다": 5745,
      "있었다": 5746,
      "##en": 5747,
      "위치": 5748,
      "있으며": 5749,
      "##스의": 5750,
      "##하다": 5751,
      "##레이": 5752,
      "현재": 5753,
      "국가": 5754,
      "197": 5755,
      "에서": 5756,
      "대한민": 5757,
      "통해": 5758,
      "17": 5759,
      "##ar": 5760,
      "된다": 5761,
      "한국": 5762,
      "프랑": 5763,
      "선수": 5764,
      "그리고": 5765,
      "많은": 5766,
      "##일에": 5767,
      "영화": 5768,
      "##지는": 5769,
      "##리는": 5770,
      "##했고": 5771,
      "조선": 5772,
      "##졌다": 5773,
      "##스는": 5774,
      "활동": 5775,
      "##하면서": 5776,
      "들어": 5777,
      "##리를": 5778,
      "만들": 5779,
      "##ti": 5780,
      "196": 5781,
      "##al": 5782,
      "것이다": 5783,
      "##하였고": 5784,
      "아니": 5785,
      "하는": 5786,
      "있었": 5787,
      "포함": 5788,
      "##되고": 5789,
      "대해": 5790,
      "다시": 5791,
      "##es": 5792,
      "가지": 5793,
      "사회": 5794,
      "194": 5795,
      "여러": 5796,
      "14": 5797,
      "경기": 5798,
      "연구": 5799,
      "##mu": 5800,
      "for": 5801,
      "##대로": 5802,
      "독일": 5803,
      "##사를": 5804,
      "##랜드": 5805,
      "##다는": 5806,
      "##로서": 5807,
      "모두": 5808,
      "##상을": 5809,
      "##개의": 5810,
      "##이었다": 5811,
      "13": 5812,
      "모든": 5813,
      "##성을": 5814,
      "일부": 5815,
      "처음": 5816,
      "##지를": 5817,
      "제작": 5818,
      "##mula": 5819,
      "##위를": 5820,
      "3월": 5821,
      "formula": 5822,
      "4월": 5823,
      "정부": 5824,
      "12월": 5825,
      "10월": 5826,
      "자신의": 5827,
      "동안": 5828,
      "시즌": 5829,
      "하였다": 5830,
      "8월": 5831,
      "##이었": 5832,
      "위한": 5833,
      "7월": 5834,
      "전쟁": 5835,
      "##는다": 5836,
      "195": 5837,
      "##장을": 5838,
      "5월": 5839,
      "##he": 5840,
      "##이는": 5841,
      "9월": 5842,
      "6월": 5843,
      "알려": 5844,
      "도시": 5845,
      "감독": 5846,
      "등이": 5847,
      "영국": 5848,
      "인구": 5849,
      "중국": 5850,
      "##어진": 5851,
      "##자가": 5852,
      "##거나": 5853,
      "##이고": 5854,
      "등의": 5855,
      "##니아": 5856,
      "1월": 5857,
      "이루": 5858,
      "##력을": 5859,
      "##대의": 5860,
      "프랑스": 5861,
      "##부분": 5862,
      "것은": 5863,
      "정치": 5864,
      "##ic": 5865,
      "이상": 5866,
      "있어": 5867,
      "이러": 5868,
      "아이": 5869,
      "##라이": 5870,
      "서울": 5871,
      "문제": 5872,
      "새로": 5873,
      "이러한": 5874,
      "으로": 5875,
      "존재": 5876,
      "11월": 5877,
      "##is": 5878,
      "##회의": 5879,
      "일반": 5880,
      "구성": 5881,
      "이용": 5882,
      "##도로": 5883,
      "##했으며": 5884,
      "대표": 5885,
      "다음": 5886,
      "주장": 5887,
      "##보다": 5888,
      "나타": 5889,
      "중심": 5890,
      "##도록": 5891,
      "##0년대": 5892,
      "제1": 5893,
      "193": 5894,
      "가능": 5895,
      "개발": 5896,
      "대한민국": 5897,
      "##들과": 5898,
      "이어": 5899,
      "##도의": 5900,
      "작품": 5901,
      "발견": 5902,
      "##다고": 5903,
      "하지만": 5904,
      "이는": 5905,
      "영향": 5906,
      "##세기": 5907,
      "리그": 5908,
      "라는": 5909,
      "대부분": 5910,
      "##되었고": 5911,
      "##리에": 5912,
      "##시키": 5913,
      "##었고": 5914,
      "##이자": 5915,
      "2월": 5916,
      "번째": 5917,
      "##나라": 5918,
      "##로부터": 5919,
      "음반": 5920,
      "기준": 5921,
      "##스를": 5922,
      "되어": 5923,
      "##시에": 5924,
      "##통령": 5925,
      "발매": 5926,
      "발표": 5927,
      "##하면": 5928,
      "게임": 5929,
      "등을": 5930,
      "국제": 5931,
      "공격": 5932,
      "##자의": 5933,
      "하고": 5934,
      "라고": 5935,
      "##들에게": 5936,
      "음악": 5937,
      "##리가": 5938,
      "##성이": 5939,
      "축구": 5940,
      "참여": 5941,
      "30": 5942,
      "전투": 5943,
      "##at": 5944,
      "192": 5945,
      "이를": 5946,
      "특히": 5947,
      "##정을": 5948,
      "##기가": 5949,
      "##란드": 5950,
      "역사": 5951,
      "##it": 5952,
      "##명의": 5953,
      "발생": 5954,
      "##el": 5955,
      "경제": 5956,
      "##ou": 5957,
      "##로는": 5958,
      "결과": 5959,
      "새로운": 5960,
      "대통령": 5961,
      "##리카": 5962,
      "##에서도": 5963,
      "사건": 5964,
      "##서는": 5965,
      "##스가": 5966,
      "##기는": 5967,
      "유럽": 5968,
      "##하였으며": 5969,
      "대학": 5970,
      "이전": 5971,
      "우승": 5972,
      "##기의": 5973,
      "문화": 5974,
      "최초": 5975,
      "인해": 5976,
      "지방": 5977,
      "관계": 5978,
      "##도를": 5979,
      "이에": 5980,
      "러시아": 5981,
      "##군의": 5982,
      "##리스": 5983,
      "##자를": 5984,
      "제2": 5985,
      "##위원": 5986,
      "생각": 5987,
      "의미": 5988,
      "관련": 5989,
      "##인의": 5990,
      "##와의": 5991,
      "일어": 5992,
      "대회": 5993,
      "##이트": 5994,
      "진행": 5995,
      "##되었으며": 5996,
      "사실": 5997,
      "##쪽으로": 5998,
      "25": 5999,
      "그녀": 6000,
      "다양": 6001,
      "##le": 6002,
      "##대를": 6003,
      "##자는": 6004,
      "##했던": 6005,
      "##요한": 6006,
      "받아": 6007,
      "191": 6008,
      "##이라는": 6009,
      "로마": 6010,
      "수도": 6011,
      "위치한": 6012,
      "시간": 6013,
      "독립": 6014,
      "##이라고": 6015,
      "부분": 6016,
      "##리의": 6017,
      "설립": 6018,
      "##디오": 6019,
      "##사가": 6020,
      "##르는": 6021,
      "자유": 6022,
      "형태": 6023,
      "계속": 6024,
      "받았다": 6025,
      "사망": 6026,
      "##자로": 6027,
      "##us": 6028,
      "##났다": 6029,
      "설치": 6030,
      "이것": 6031,
      "지원": 6032,
      "202": 6033,
      "결정": 6034,
      "이탈": 6035,
      "있던": 6036,
      "기술": 6037,
      "성공": 6038,
      "##re": 6039,
      "##km": 6040,
      "있고": 6041,
      "교육": 6042,
      "##렸다": 6043,
      "##om": 6044,
      "상태": 6045,
      "주로": 6046,
      "##므로": 6047,
      "2010년": 6048,
      "##식을": 6049,
      "아니라": 6050,
      "##르크": 6051,
      "##인이": 6052,
      "##ol": 6053,
      "방송": 6054,
      "매우": 6055,
      "000": 6056,
      "##이스": 6057,
      "중앙": 6058,
      "가지고": 6059,
      "프로그": 6060,
      "선거": 6061,
      "##가지": 6062,
      "##다가": 6063,
      "##학자": 6064,
      "gt": 6065,
      "돌아": 6066,
      "21": 6067,
      "##드는": 6068,
      "##tion": 6069,
      "않았다": 6070,
      "##전을": 6071,
      "lt": 6072,
      "아버": 6073,
      "##스터": 6074,
      "##부의": 6075,
      "이탈리아": 6076,
      "##기로": 6077,
      "생산": 6078,
      "##번째": 6079,
      "##처럼": 6080,
      "##명을": 6081,
      "##화국": 6082,
      "없는": 6083,
      "미국의": 6084,
      "##과의": 6085,
      "운동": 6086,
      "##대에": 6087,
      "##되지": 6088,
      "운영": 6089,
      "차지": 6090,
      "태어": 6091,
      "##as": 6092,
      "않고": 6093,
      "참가": 6094,
      "조직": 6095,
      "##도가": 6096,
      "##이지": 6097,
      "##비아": 6098,
      "결국": 6099,
      "따르": 6100,
      "##해서": 6101,
      "##도는": 6102,
      "전체": 6103,
      "##ing": 6104,
      "##으로서": 6105,
      "구조": 6106,
      "##리그": 6107,
      "여성": 6108,
      "##사의": 6109,
      "계획": 6110,
      "##권을": 6111,
      "대한민국의": 6112,
      "##ch": 6113,
      "##리즈": 6114,
      "##하기도": 6115,
      "등장": 6116,
      "이유": 6117,
      "제공": 6118,
      "같이": 6119,
      "##림픽": 6120,
      "##프트": 6121,
      "역할": 6122,
      "##il": 6123,
      "##장이": 6124,
      "최고": 6125,
      "2008년": 6126,
      "타이": 6127,
      "2007년": 6128,
      "##에서의": 6129,
      "190": 6130,
      "##스와": 6131,
      "##화를": 6132,
      "22": 6133,
      "고려": 6134,
      "데뷔": 6135,
      "해당": 6136,
      "한편": 6137,
      "##하자": 6138,
      "소속": 6139,
      "24": 6140,
      "##명이": 6141,
      "##운데": 6142,
      "인간": 6143,
      "출연": 6144,
      "거의": 6145,
      "##et": 6146,
      "다양한": 6147,
      "주요": 6148,
      "기원": 6149,
      "지정": 6150,
      "방법": 6151,
      "출신": 6152,
      "많이": 6153,
      "라이": 6154,
      "아들": 6155,
      "23": 6156,
      "##스템": 6157,
      "##am": 6158,
      "##으로써": 6159,
      "##음을": 6160,
      "프로그램": 6161,
      "국민": 6162,
      "2009년": 6163,
      "하여": 6164,
      "앨범": 6165,
      "2011년": 6166,
      "##군은": 6167,
      "##하려": 6168,
      "##이션": 6169,
      "영향을": 6170,
      "##우스": 6171,
      "##자인": 6172,
      "올림픽": 6173,
      "##이라": 6174,
      "##수를": 6175,
      "##하던": 6176,
      "가운데": 6177,
      "100": 6178,
      "만들어": 6179,
      "없다": 6180,
      "##ro": 6181,
      "이미": 6182,
      "높은": 6183,
      "2012년": 6184,
      "##사는": 6185,
      "##였던": 6186,
      "후보": 6187,
      "데이": 6188,
      "스페": 6189,
      "##지의": 6190,
      "##원을": 6191,
      "남아": 6192,
      "##했지만": 6193,
      "모습": 6194,
      "필요": 6195,
      "이라는": 6196,
      "연결": 6197,
      "따르면": 6198,
      "마지": 6199,
      "##지가": 6200,
      "인터": 6201,
      "유명": 6202,
      "대학교": 6203,
      "내용": 6204,
      "##수의": 6205,
      "##으로부터": 6206,
      "행정": 6207,
      "##어를": 6208,
      "##스크": 6209,
      "각각": 6210,
      "스타": 6211,
      "##점을": 6212,
      "이다": 6213,
      "##시켰": 6214,
      "유지": 6215,
      "##대학교": 6216,
      "보고": 6217,
      "과정": 6218,
      "일본의": 6219,
      "표현": 6220,
      "26": 6221,
      "직접": 6222,
      "##가는": 6223,
      "##라마": 6224,
      "발전": 6225,
      "마지막": 6226,
      "##부에": 6227,
      "##원의": 6228,
      "열린": 6229,
      "출전": 6230,
      "이루어": 6231,
      "##스로": 6232,
      "##리고": 6233,
      "시스템": 6234,
      "2006년": 6235,
      "##해야": 6236,
      "그것": 6237,
      "바이": 6238,
      "그가": 6239,
      "##머니": 6240,
      "2014년": 6241,
      "않은": 6242,
      "##력이": 6243,
      "대신": 6244,
      "##스타": 6245,
      "28": 6246,
      "##어로": 6247,
      "않았": 6248,
      "가진": 6249,
      "임명": 6250,
      "상황": 6251,
      "작은": 6252,
      "##사로": 6253,
      "of": 6254,
      "##제로": 6255,
      "인정": 6256,
      "##나는": 6257,
      "추가": 6258,
      "공식": 6259,
      "형성": 6260,
      "##FA": 6261,
      "##장으로": 6262,
      "##들에": 6263,
      "##냈다": 6264,
      "시리즈": 6265,
      "1일": 6266,
      "아래": 6267,
      "보여": 6268,
      "그리스": 6269,
      "정보": 6270,
      "27": 6271,
      "이라고": 6272,
      "##이가": 6273,
      "따라서": 6274,
      "##수가": 6275,
      "이름을": 6276,
      "않는": 6277,
      "2013년": 6278,
      "제국": 6279,
      "마이": 6280,
      "##지에": 6281,
      "##전히": 6282,
      "##지고": 6283,
      "##제를": 6284,
      "##원이": 6285,
      "##성의": 6286,
      "기능": 6287,
      "지금": 6288,
      "민주": 6289,
      "노래": 6290,
      "월드": 6291,
      "있는데": 6292,
      "##등학교": 6293,
      "되는": 6294,
      "##군이": 6295,
      "평가": 6296,
      "##ra": 6297,
      "지구": 6298,
      "후에": 6299,
      "인도": 6300,
      "2015년": 6301,
      "##인민": 6302,
      "생활": 6303,
      "##전에서": 6304,
      "##ed": 6305,
      "이야": 6306,
      "수상": 6307,
      "##었으며": 6308,
      "건설": 6309,
      "중요한": 6310,
      "자연": 6311,
      "##인을": 6312,
      "##nd": 6313,
      "##이드": 6314,
      "##대한": 6315,
      "##장은": 6316,
      "비롯": 6317,
      "이론": 6318,
      "알려져": 6319,
      "##전에": 6320,
      "요구": 6321,
      "##운동": 6322,
      "오스트": 6323,
      "##위에": 6324,
      "##대학": 6325,
      "배우": 6326,
      "시대": 6327,
      "일으": 6328,
      "##대표": 6329,
      "##치는": 6330,
      "##상의": 6331,
      "학교": 6332,
      "##으로는": 6333,
      "##사에": 6334,
      "노동": 6335,
      "##인다": 6336,
      "##업을": 6337,
      "##선을": 6338,
      "서로": 6339,
      "건물": 6340,
      "사이에": 6341,
      "정도": 6342,
      "않는다": 6343,
      "시작했다": 6344,
      "##세의": 6345,
      "2005년": 6346,
      "아르": 6347,
      "크게": 6348,
      "공동": 6349,
      "반대": 6350,
      "2016년": 6351,
      "29": 6352,
      "군사": 6353,
      "지역의": 6354,
      "결혼": 6355,
      "##회를": 6356,
      "##os": 6357,
      "프리": 6358,
      "##부를": 6359,
      "역시": 6360,
      "##민주": 6361,
      "진출": 6362,
      "The": 6363,
      "어떤": 6364,
      "관한": 6365,
      "##계를": 6366,
      "2018년": 6367,
      "브라": 6368,
      "##르트": 6369,
      "##어는": 6370,
      "그룹": 6371,
      "##인은": 6372,
      "##ter": 6373,
      "방식": 6374,
      "원래": 6375,
      "항공": 6376,
      "##약을": 6377,
      "연합": 6378,
      "기간": 6379,
      "##되면서": 6380,
      "##왔다": 6381,
      "공개": 6382,
      "##id": 6383,
      "동시에": 6384,
      "##치를": 6385,
      "역할을": 6386,
      "나라": 6387,
      "개최": 6388,
      "##문을": 6389,
      "변경": 6390,
      "하였": 6391,
      "학생": 6392,
      "소련": 6393,
      "드라마": 6394,
      "철도": 6395,
      "50": 6396,
      "졸업": 6397,
      "비판": 6398,
      "##선의": 6399,
      "거쳐": 6400,
      "##임을": 6401,
      "아닌": 6402,
      "플레이": 6403,
      "##대가": 6404,
      "##지로": 6405,
      "있다고": 6406,
      "##수로": 6407,
      "지도": 6408,
      "##이었던": 6409,
      "시절": 6410,
      "##되며": 6411,
      "2017년": 6412,
      "기반": 6413,
      "##했으나": 6414,
      "##대는": 6415,
      "##트로": 6416,
      "##니다": 6417,
      "처음으로": 6418,
      "초기": 6419,
      "기준으로": 6420,
      "##부는": 6421,
      "##프리카": 6422,
      "레이": 6423,
      "판매": 6424,
      "##스탄": 6425,
      "모델": 6426,
      "현대": 6427,
      "##시의": 6428,
      "전통": 6429,
      "2004년": 6430,
      "이르": 6431,
      "##위원회": 6432,
      "기업": 6433,
      "##하는데": 6434,
      "만든": 6435,
      "이동": 6436,
      "기원전": 6437,
      "##드의": 6438,
      "개인": 6439,
      "##일부터": 6440,
      "##원으로": 6441,
      "##ur": 6442,
      "##ac": 6443,
      "##하였으나": 6444,
      "관리": 6445,
      "##학적": 6446,
      "##제가": 6447,
      "수행": 6448,
      "싱글": 6449,
      "대전": 6450,
      "##상이": 6451,
      "189": 6452,
      "혹은": 6453,
      "##ig": 6454,
      "##장의": 6455,
      "마을": 6456,
      "##군을": 6457,
      "31": 6458,
      "제외": 6459,
      "특징": 6460,
      "실시": 6461,
      "증가": 6462,
      "##정한": 6463,
      "인물": 6464,
      "##원은": 6465,
      "개의": 6466,
      "##간의": 6467,
      "##이를": 6468,
      "##드를": 6469,
      "최초의": 6470,
      "정책": 6471,
      "지배": 6472,
      "있을": 6473,
      "정의": 6474,
      "종교": 6475,
      "기본": 6476,
      "기타": 6477,
      "의한": 6478,
      "##레스": 6479,
      "자동": 6480,
      "##격을": 6481,
      "이끌": 6482,
      "##제의": 6483,
      "##상으로": 6484,
      "##ation": 6485,
      "기존": 6486,
      "##중에": 6487,
      "##리오": 6488,
      "일반적으로": 6489,
      "##장에": 6490,
      "하며": 6491,
      "##체의": 6492,
      "달리": 6493,
      "위하여": 6494,
      "연방": 6495,
      "여자": 6496,
      "##트를": 6497,
      "교황": 6498,
      "##진다": 6499,
      "인구는": 6500,
      "분류": 6501,
      "지나": 6502,
      "the": 6503,
      "##주는": 6504,
      "경기에서": 6505,
      "서비": 6506,
      "##소를": 6507,
      "##체를": 6508,
      "있다는": 6509,
      "##od": 6510,
      "상대": 6511,
      "##물을": 6512,
      "민족": 6513,
      "##공화국": 6514,
      "다이": 6515,
      "도입": 6516,
      "##하지만": 6517,
      "##문화": 6518,
      "##장에서": 6519,
      "행동": 6520,
      "##이의": 6521,
      "##자와": 6522,
      "되고": 6523,
      "보통": 6524,
      "공연": 6525,
      "설명": 6526,
      "받았": 6527,
      "말한다": 6528,
      "2년": 6529,
      "어머니": 6530,
      "기관": 6531,
      "이때": 6532,
      "전국": 6533,
      "##ad": 6534,
      "##ent": 6535,
      "보내": 6536,
      "##독교": 6537,
      "운행": 6538,
      "지휘": 6539,
      "2002년": 6540,
      "보호": 6541,
      "##갔다": 6542,
      "##단의": 6543,
      "받은": 6544,
      "비슷": 6545,
      "##수는": 6546,
      "변화": 6547,
      "그를": 6548,
      "40": 6549,
      "그래": 6550,
      "바로": 6551,
      "##나다": 6552,
      "2019년": 6553,
      "##시켰다": 6554,
      "##적을": 6555,
      "##혔다": 6556,
      "##어가": 6557,
      "때문이다": 6558,
      "##됐다": 6559,
      "##일한": 6560,
      "모양": 6561,
      "경찰": 6562,
      "##호로": 6563,
      "##남도": 6564,
      "제3": 6565,
      "##서를": 6566,
      "지지": 6567,
      "##mp": 6568,
      "중화": 6569,
      "오늘": 6570,
      "자신이": 6571,
      "##리와": 6572,
      "지하": 6573,
      "사랑": 6574,
      "이것은": 6575,
      "주변": 6576,
      "##트의": 6577,
      "##있다": 6578,
      "##성은": 6579,
      "전문": 6580,
      "산업": 6581,
      "2000년": 6582,
      "##의를": 6583,
      "추정": 6584,
      "아버지": 6585,
      "없이": 6586,
      "환경": 6587,
      "##리지": 6588,
      "##드로": 6589,
      "되었고": 6590,
      "##동안": 6591,
      "##적은": 6592,
      "비교": 6593,
      "##르게": 6594,
      "##오는": 6595,
      "과거": 6596,
      "국내": 6597,
      "특별": 6598,
      "##이기도": 6599,
      "도쿄": 6600,
      "##있는": 6601,
      "가까": 6602,
      "여기": 6603,
      "자기": 6604,
      "##무를": 6605,
      "##세는": 6606,
      "명칭": 6607,
      "##위로": 6608,
      "##체가": 6609,
      "활약": 6610,
      "작곡": 6611,
      "##했는데": 6612,
      "대부분의": 6613,
      "컴퓨": 6614,
      "##te": 6615,
      "##어의": 6616,
      "##하거나": 6617,
      "중심으로": 6618,
      "##자들은": 6619,
      "출시": 6620,
      "##과는": 6621,
      "2003년": 6622,
      "세포": 6623,
      "어느": 6624,
      "적용": 6625,
      "피해": 6626,
      "있지만": 6627,
      "##리로": 6628,
      "기독교": 6629,
      "방향": 6630,
      "가족": 6631,
      "부산": 6632,
      "##트는": 6633,
      "우주": 6634,
      "공간": 6635,
      "상당": 6636,
      "수는": 6637,
      "스페인": 6638,
      "확인": 6639,
      "##um": 6640,
      "이런": 6641,
      "##마다": 6642,
      "통합": 6643,
      "태양": 6644,
      "실패": 6645,
      "떨어": 6646,
      "##도에": 6647,
      "경상": 6648,
      "역임": 6649,
      "##움을": 6650,
      "##했다고": 6651,
      "부족": 6652,
      "야구": 6653,
      "##학과": 6654,
      "이상의": 6655,
      "받고": 6656,
      "사업": 6657,
      "분야": 6658,
      "##가와": 6659,
      "##스에": 6660,
      "##일까지": 6661,
      "규모": 6662,
      "##단을": 6663,
      "소설": 6664,
      "건축": 6665,
      "올라": 6666,
      "##시간": 6667,
      "개념": 6668,
      "##류의": 6669,
      "##른다": 6670,
      "찾아": 6671,
      "어린": 6672,
      "##ve": 6673,
      "속하는": 6674,
      "대체": 6675,
      "##정에": 6676,
      "이라": 6677,
      "뉴욕": 6678,
      "선택": 6679,
      "컴퓨터": 6680,
      "##피언": 6681,
      "##ec": 6682,
      "##ri": 6683,
      "부르": 6684,
      "더욱": 6685,
      "##구하고": 6686,
      "그들의": 6687,
      "활동을": 6688,
      "##운드": 6689,
      "##당의": 6690,
      "차량": 6691,
      "2020년": 6692,
      "##ot": 6693,
      "##명이다": 6694,
      "##세가": 6695,
      "예를": 6696,
      "##카이": 6697,
      "연주": 6698,
      "##심을": 6699,
      "없었다": 6700,
      "담당": 6701,
      "월드컵": 6702,
      "##제는": 6703,
      "교회": 6704,
      "188": 6705,
      "##라도": 6706,
      "열차": 6707,
      "##사와": 6708,
      "##키는": 6709,
      "최대": 6710,
      "FC": 6711,
      "##적이": 6712,
      "걸쳐": 6713,
      "애니": 6714,
      "노선": 6715,
      "시민": 6716,
      "##BS": 6717,
      "감독의": 6718,
      "과학": 6719,
      "반응": 6720,
      "##관을": 6721,
      "##스코": 6722,
      "##군에": 6723,
      "효과": 6724,
      "있어서": 6725,
      "전에": 6726,
      "##드리": 6727,
      "2001년": 6728,
      "것이라고": 6729,
      "##구의": 6730,
      "공산": 6731,
      "지속": 6732,
      "##시마": 6733,
      "캐나다": 6734,
      "##시켜": 6735,
      "##하도록": 6736,
      "##성과": 6737,
      "##세를": 6738,
      "1년": 6739,
      "이와": 6740,
      "영화이다": 6741,
      "두고": 6742,
      "클럽": 6743,
      "##쪽에": 6744,
      "선정": 6745,
      "##호를": 6746,
      "##린다": 6747,
      "스위": 6748,
      "점령": 6749,
      "기념": 6750,
      "##쳤다": 6751,
      "언급": 6752,
      "##ir": 6753,
      "##부가": 6754,
      "##으면": 6755,
      "데이터": 6756,
      "##성에": 6757,
      "조사": 6758,
      "##한다는": 6759,
      "언어": 6760,
      "지정되었다": 6761,
      "어려": 6762,
      "불구하고": 6763,
      "##자들이": 6764,
      "에너": 6765,
      "##기와": 6766,
      "##했을": 6767,
      "오늘날": 6768,
      "최근": 6769,
      "있게": 6770,
      "내려": 6771,
      "##op": 6772,
      "##시킨": 6773,
      "그녀는": 6774,
      "물리": 6775,
      "위원": 6776,
      "불가": 6777,
      "FI": 6778,
      "##인으로": 6779,
      "사고": 6780,
      "##크로": 6781,
      "##일에는": 6782,
      "사이의": 6783,
      "명령": 6784,
      "획득": 6785,
      "제작된": 6786,
      "##면에": 6787,
      "뛰어": 6788,
      "##기관": 6789,
      "##이로": 6790,
      "국가대표": 6791,
      "##개월": 6792,
      "##글랜드": 6793,
      "##원에": 6794,
      "##학을": 6795,
      "동물": 6796,
      "St": 6797,
      "목표": 6798,
      "포함한": 6799,
      "출판": 6800,
      "최종": 6801,
      "##역을": 6802,
      "최초로": 6803,
      "나가": 6804,
      "예술": 6805,
      "스트": 6806,
      "##렇게": 6807,
      "사상": 6808,
      "##oc": 6809,
      "##어서": 6810,
      "선출": 6811,
      "후반": 6812,
      "보인다": 6813,
      "챔피언": 6814,
      "멤버": 6815,
      "유사": 6816,
      "현재의": 6817,
      "대중": 6818,
      "결승": 6819,
      "베이": 6820,
      "##회는": 6821,
      "##시키는": 6822,
      "##함으로써": 6823,
      "등에": 6824,
      "정신": 6825,
      "선언": 6826,
      "500": 6827,
      "좋은": 6828,
      "##겼다": 6829,
      "이해": 6830,
      "폴란드": 6831,
      "##ia": 6832,
      "##연구": 6833,
      "되었": 6834,
      "소비": 6835,
      "##계의": 6836,
      "##조의": 6837,
      "##메리카": 6838,
      "이유로": 6839,
      "소유": 6840,
      "2차": 6841,
      "##렀다": 6842,
      "전기": 6843,
      "이들은": 6844,
      "##단은": 6845,
      "##덜란드": 6846,
      "등으로": 6847,
      "##되기": 6848,
      "##인민공화국": 6849,
      "##북도": 6850,
      "경기도": 6851,
      "이적": 6852,
      "##가의": 6853,
      "거주": 6854,
      "결합": 6855,
      "##종의": 6856,
      "km": 6857,
      "네덜란드": 6858,
      "##명은": 6859,
      "경험": 6860,
      "##un": 6861,
      "연속": 6862,
      "분석": 6863,
      "##치가": 6864,
      "선발": 6865,
      "##리에서": 6866,
      "##특별": 6867,
      "186": 6868,
      "작업": 6869,
      "##내는": 6870,
      "1999년": 6871,
      "실험": 6872,
      "것에": 6873,
      "##ce": 6874,
      "제안": 6875,
      "헌법": 6876,
      "모습을": 6877,
      "예정": 6878,
      "고대": 6879,
      "잉글랜드": 6880,
      "하나의": 6881,
      "알려진": 6882,
      "##루스": 6883,
      "우리": 6884,
      "있었던": 6885,
      "드러": 6886,
      "##메이션": 6887,
      "3년": 6888,
      "Ch": 6889,
      "##구를": 6890,
      "그들은": 6891,
      "1998년": 6892,
      "제한": 6893,
      "##트남": 6894,
      "##로를": 6895,
      "조지": 6896,
      "##ow": 6897,
      "마르": 6898,
      "수록": 6899,
      "##만을": 6900,
      "##화가": 6901,
      "형식": 6902,
      "완전히": 6903,
      "거두": 6904,
      "##and": 6905,
      "명의": 6906,
      "정확": 6907,
      "포르": 6908,
      "##일을": 6909,
      "##경기": 6910,
      "실제": 6911,
      "##소가": 6912,
      "##상에": 6913,
      "스포": 6914,
      "##금을": 6915,
      "##th": 6916,
      "그런": 6917,
      "분리": 6918,
      "물질": 6919,
      "##BC": 6920,
      "##체는": 6921,
      "##진을": 6922,
      "##이지만": 6923,
      "TV": 6924,
      "하지": 6925,
      "##쪽으로는": 6926,
      "수준": 6927,
      "##명으로": 6928,
      "사용하는": 6929,
      "밝혔다": 6930,
      "방문": 6931,
      "정당": 6932,
      "유전": 6933,
      "전자": 6934,
      "페르": 6935,
      "##이에": 6936,
      "통과": 6937,
      "강화": 6938,
      "주민": 6939,
      "187": 6940,
      "때까지": 6941,
      "아시아": 6942,
      "설계": 6943,
      "이란": 6944,
      "##스턴": 6945,
      "제2차": 6946,
      "##비를": 6947,
      "요청": 6948,
      "##웠다": 6949,
      "여겨": 6950,
      "영토": 6951,
      "표준": 6952,
      "치료": 6953,
      "##부르크": 6954,
      "비해": 6955,
      "##ag": 6956,
      "FIFA": 6957,
      "올랐": 6958,
      "하다": 6959,
      "##주에": 6960,
      "##으므로": 6961,
      "가문": 6962,
      "##만이": 6963,
      "##광역": 6964,
      "##정이": 6965,
      "승리": 6966,
      "##ver": 6967,
      "아직": 6968,
      "움직": 6969,
      "정규": 6970,
      "##원에서": 6971,
      "달러": 6972,
      "이름으로": 6973,
      "성장": 6974,
      "승강": 6975,
      "##학의": 6976,
      "##단이": 6977,
      "애니메이션": 6978,
      "구간": 6979,
      "##메달": 6980,
      "##었던": 6981,
      "하나로": 6982,
      "##들로": 6983,
      "발달": 6984,
      "##회에서": 6985,
      "가리": 6986,
      "메이": 6987,
      "미국에서": 6988,
      "중에": 6989,
      "접근": 6990,
      "##ay": 6991,
      "##지지": 6992,
      "발매된": 6993,
      "##역이다": 6994,
      "사람들이": 6995,
      "가수": 6996,
      "##라의": 6997,
      "영국의": 6998,
      "파괴": 6999,
      "자료": 7000,
      "확장": 7001,
      "##야마": 7002,
      "식민": 7003,
      "보다": 7004,
      "있도록": 7005,
      "평균": 7006,
      "공화국": 7007,
      "##드가": 7008,
      "15일": 7009,
      "못했다": 7010,
      "말했다": 7011,
      "북한": 7012,
      "##일랜드": 7013,
      "##골을": 7014,
      "1997년": 7015,
      "##스카": 7016,
      "##로의": 7017,
      "##치고": 7018,
      "##직을": 7019,
      "언론": 7020,
      "##난다": 7021,
      "그림": 7022,
      "비행": 7023,
      "정도로": 7024,
      "##감을": 7025,
      "3일": 7026,
      "##지와": 7027,
      "나머": 7028,
      "이름은": 7029,
      "중요": 7030,
      "차례": 7031,
      "##형을": 7032,
      "조건": 7033,
      "작가": 7034,
      "사람이": 7035,
      "기여": 7036,
      "널리": 7037,
      "의하여": 7038,
      "##정부": 7039,
      "수용": 7040,
      "교통": 7041,
      "프로젝": 7042,
      "이듬": 7043,
      "이곳": 7044,
      "##계에": 7045,
      "제품": 7046,
      "##상은": 7047,
      "##과에": 7048,
      "친구": 7049,
      "60": 7050,
      "오래": 7051,
      "1995년": 7052,
      "##전의": 7053,
      "1996년": 7054,
      "##스테": 7055,
      "패배": 7056,
      "amp": 7057,
      "##ul": 7058,
      "크로": 7059,
      "아프리카": 7060,
      "##르고": 7061,
      "##관이": 7062,
      "##산을": 7063,
      "아마": 7064,
      "우승을": 7065,
      "구분": 7066,
      "런던": 7067,
      "하나이다": 7068,
      "##인데": 7069,
      "않아": 7070,
      "국립": 7071,
      "In": 7072,
      "비롯한": 7073,
      "스스로": 7074,
      "대하여": 7075,
      "강력": 7076,
      "경쟁": 7077,
      "제조": 7078,
      "##km2": 7079,
      "오른": 7080,
      "하이": 7081,
      "등과": 7082,
      "##트가": 7083,
      "##규모": 7084,
      "##전이": 7085,
      "개혁": 7086,
      "세워": 7087,
      "더불": 7088,
      "이듬해": 7089,
      "##들도": 7090,
      "소프트": 7091,
      "지역에": 7092,
      "불리": 7093,
      "오스트리아": 7094,
      "##인과": 7095,
      "10일": 7096,
      "##르의": 7097,
      "자주": 7098,
      "것이었다": 7099,
      "##소의": 7100,
      "##가를": 7101,
      "##법을": 7102,
      "35": 7103,
      "이사": 7104,
      "더불어": 7105,
      "특정": 7106,
      "배치": 7107,
      "단체": 7108,
      "##선이": 7109,
      "과정에서": 7110,
      "in": 7111,
      "거부": 7112,
      "위에": 7113,
      "##경을": 7114,
      "부여": 7115,
      "마음": 7116,
      "베트남": 7117,
      "마찬": 7118,
      "시설": 7119,
      "##아의": 7120,
      "##단에": 7121,
      "##지에서": 7122,
      "마찬가지": 7123,
      "크리스": 7124,
      "##졌고": 7125,
      "외국": 7126,
      "##지게": 7127,
      "요시": 7128,
      "바탕": 7129,
      "계약": 7130,
      "유래": 7131,
      "##스티": 7132,
      "만나": 7133,
      "사무": 7134,
      "##레일": 7135,
      "남부": 7136,
      "##0년에": 7137,
      "이로": 7138,
      "##시는": 7139,
      "1994년": 7140,
      "##식이": 7141,
      "자치": 7142,
      "일어나": 7143,
      "근처": 7144,
      "##스토": 7145,
      "##회에": 7146,
      "가져": 7147,
      "스웨": 7148,
      "해석": 7149,
      "해결": 7150,
      "##나무": 7151,
      "도착": 7152,
      "갖고": 7153,
      "##스에서": 7154,
      "제국의": 7155,
      "국가대표팀": 7156,
      "##점이": 7157,
      "나온": 7158,
      "알렉": 7159,
      "##아가": 7160,
      "밝혀": 7161,
      "육군": 7162,
      "##mm": 7163,
      "이들": 7164,
      "##톨릭": 7165,
      "이주": 7166,
      "1992년": 7167,
      "있었고": 7168,
      "##문에": 7169,
      "##회가": 7170,
      "회사": 7171,
      "32": 7172,
      "그대로": 7173,
      "20일": 7174,
      "주의": 7175,
      "##한다고": 7176,
      "주연": 7177,
      "지난": 7178,
      "추진": 7179,
      "가르": 7180,
      "왕국": 7181,
      "##비전": 7182,
      "##크라": 7183,
      "5일": 7184,
      "동맹": 7185,
      "##되었으나": 7186,
      "상호": 7187,
      "##소는": 7188,
      "충청": 7189,
      "단순": 7190,
      "##많은": 7191,
      "##러스": 7192,
      "그녀의": 7193,
      "##위가": 7194,
      "연기": 7195,
      "##선거": 7196,
      "먼저": 7197,
      "사라": 7198,
      "들어가": 7199,
      "밴드": 7200,
      "자리": 7201,
      "바뀌": 7202,
      "유명한": 7203,
      "전해": 7204,
      "황제": 7205,
      "##모토": 7206,
      "##당은": 7207,
      "도로": 7208,
      "##NA": 7209,
      "1991년": 7210,
      "스웨덴": 7211,
      "##없이": 7212,
      "경우가": 7213,
      "##호는": 7214,
      "##교육": 7215,
      "맡았다": 7216,
      "주도": 7217,
      "불리는": 7218,
      "통치": 7219,
      "##구에": 7220,
      "생성": 7221,
      "##시코": 7222,
      "디자인": 7223,
      "##하기로": 7224,
      "##지방": 7225,
      "##위의": 7226,
      "주인": 7227,
      "수많은": 7228,
      "전라": 7229,
      "##신을": 7230,
      "##라스": 7231,
      "부정": 7232,
      "##물의": 7233,
      "##받았다": 7234,
      "영어": 7235,
      "300": 7236,
      "것과": 7237,
      "##하의": 7238,
      "인천": 7239,
      "##바이": 7240,
      "반란": 7241,
      "##했다는": 7242,
      "##동을": 7243,
      "아무": 7244,
      "##베이": 7245,
      "나오": 7246,
      "28일": 7247,
      "##시대": 7248,
      "##이기": 7249,
      "##지역": 7250,
      "2일": 7251,
      "##력은": 7252,
      "상대로": 7253,
      "조약": 7254,
      "##em": 7255,
      "##하였는데": 7256,
      "가정": 7257,
      "텔레": 7258,
      "작용": 7259,
      "25일": 7260,
      "##장과": 7261,
      "기초": 7262,
      "시도": 7263,
      "알고": 7264,
      "인터넷": 7265,
      "태어났다": 7266,
      "복귀": 7267,
      "다만": 7268,
      "##주를": 7269,
      "##어나": 7270,
      "##았고": 7271,
      "정식": 7272,
      "스튜": 7273,
      "4일": 7274,
      "##행을": 7275,
      "독일의": 7276,
      "중간": 7277,
      "##우는": 7278,
      "통일": 7279,
      "위험": 7280,
      "##인들이": 7281,
      "7일": 7282,
      "제시": 7283,
      "##im": 7284,
      "30일": 7285,
      "법률": 7286,
      "##프로": 7287,
      "##전은": 7288,
      "있기": 7289,
      "##스키": 7290,
      "##부로": 7291,
      "##og": 7292,
      "1993년": 7293,
      "외교": 7294,
      "스포츠": 7295,
      "지역에서": 7296,
      "의하면": 7297,
      "##베르": 7298,
      "##나이": 7299,
      "근거": 7300,
      "##선에": 7301,
      "프랑스의": 7302,
      "비슷한": 7303,
      "##고를": 7304,
      "현재는": 7305,
      "가톨릭": 7306,
      "파견": 7307,
      "##군과": 7308,
      "##까지는": 7309,
      "해안": 7310,
      "노르": 7311,
      "##화된": 7312,
      "UE": 7313,
      "##이어": 7314,
      "만에": 7315,
      "귀족": 7316,
      "17일": 7317,
      "자동차": 7318,
      "##되기도": 7319,
      "훈련": 7320,
      "있으나": 7321,
      "체포": 7322,
      "살아": 7323,
      "바꾸": 7324,
      "##방송": 7325,
      "은퇴": 7326,
      "8일": 7327,
      "##량이": 7328,
      "##량을": 7329,
      "##시를": 7330,
      "##자에": 7331,
      "브라질": 7332,
      "UEFA": 7333,
      "##트에서": 7334,
      "26일": 7335,
      "16일": 7336,
      "6일": 7337,
      "여름": 7338,
      "몇몇": 7339,
      "시기": 7340,
      "21일": 7341,
      "12일": 7342,
      "##형의": 7343,
      "참여하였다": 7344,
      "북쪽": 7345,
      "묘사": 7346,
      "목적으로": 7347,
      "준비": 7348,
      "이외": 7349,
      "마찬가지로": 7350,
      "공작": 7351,
      "##크의": 7352,
      "##관으로": 7353,
      "18일": 7354,
      "일종": 7355,
      "##사카": 7356,
      "결성": 7357,
      "임시": 7358,
      "##도와": 7359,
      "떨어진": 7360,
      "끝에": 7361,
      "때는": 7362,
      "의원": 7363,
      "대구": 7364,
      "##수한": 7365,
      "14일": 7366,
      "선수이다": 7367,
      "27일": 7368,
      "필리": 7369,
      "남쪽": 7370,
      "##st": 7371,
      "조각": 7372,
      "정치적": 7373,
      "초대": 7374,
      "불교": 7375,
      "경영": 7376,
      "9일": 7377,
      "##라인": 7378,
      "##cm": 7379,
      "##하다가": 7380,
      "##ap": 7381,
      "##였고": 7382,
      "비디오": 7383,
      "얼마": 7384,
      "일을": 7385,
      "##정의": 7386,
      "정부는": 7387,
      "1990년": 7388,
      "형태로": 7389,
      "23일": 7390,
      "##부에서": 7391,
      "11일": 7392,
      "##으면서": 7393,
      "##디어": 7394,
      "교수": 7395,
      "방영": 7396,
      "서울특별": 7397,
      "유대": 7398,
      "프레": 7399,
      "관측": 7400,
      "남자": 7401,
      "위해서": 7402,
      "1989년": 7403,
      "80": 7404,
      "나머지": 7405,
      "안정": 7406,
      "##관은": 7407,
      "다음과": 7408,
      "인식": 7409,
      "서식": 7410,
      "투표": 7411,
      "중단": 7412,
      "면적은": 7413,
      "간의": 7414,
      "##광역시": 7415,
      "기록했다": 7416,
      "이야기": 7417,
      "1988년": 7418,
      "가능한": 7419,
      "바다": 7420,
      "국회의": 7421,
      "##웨어": 7422,
      "##함을": 7423,
      "녹음": 7424,
      "슈퍼": 7425,
      "70": 7426,
      "##민주주의": 7427,
      "국왕": 7428,
      "22일": 7429,
      "29일": 7430,
      "떠나": 7431,
      "재판": 7432,
      "회의": 7433,
      "반면": 7434,
      "공항": 7435,
      "##위는": 7436,
      "나타나": 7437,
      "엔진": 7438,
      "##선은": 7439,
      "상징": 7440,
      "팀의": 7441,
      "##릭터": 7442,
      "방어": 7443,
      "처리": 7444,
      "바르": 7445,
      "제4": 7446,
      "낮은": 7447,
      "감소": 7448,
      "##자리": 7449,
      "##ut": 7450,
      "디지": 7451,
      "시작하였다": 7452,
      "소재": 7453,
      "##리트": 7454,
      "사용할": 7455,
      "스테": 7456,
      "24일": 7457,
      "##정은": 7458,
      "13일": 7459,
      "폐지": 7460,
      "##구가": 7461,
      "전달": 7462,
      "활용": 7463,
      "동일": 7464,
      "시행": 7465,
      "입단": 7466,
      "##만의": 7467,
      "4년": 7468,
      "직후": 7469,
      "고등학교": 7470,
      "##ie": 7471,
      "캐릭터": 7472,
      "##였으며": 7473,
      "##인이다": 7474,
      "제기": 7475,
      "##시키고": 7476,
      "1차": 7477,
      "살해": 7478,
      "##대와": 7479,
      "노력": 7480,
      "아일랜드": 7481,
      "대해서": 7482,
      "##려고": 7483,
      "아카": 7484,
      "이루어진": 7485,
      "##로나": 7486,
      "보수": 7487,
      "19일": 7488,
      "##로가": 7489,
      "완성": 7490,
      "혁명": 7491,
      "선수권": 7492,
      "##ard": 7493,
      "나무": 7494,
      "그린": 7495,
      "대응": 7496,
      "##습니다": 7497,
      "못한": 7498,
      "다르": 7499,
      "음반이다": 7500,
      "강한": 7501,
      "많다": 7502,
      "포르투": 7503,
      "달성": 7504,
      "윌리": 7505,
      "##조를": 7506,
      "지적": 7507,
      "##레일리아": 7508,
      "여전히": 7509,
      "평화": 7510,
      "관련된": 7511,
      "금지": 7512,
      "##트리": 7513,
      "##카와": 7514,
      "번역": 7515,
      "발행": 7516,
      "##자들의": 7517,
      "##소년": 7518,
      "##티아": 7519,
      "##롭게": 7520,
      "못하고": 7521,
      "##트워": 7522,
      "##사에서": 7523,
      "##구는": 7524,
      "##ion": 7525,
      "##웨이": 7526,
      "천황": 7527,
      "##철도": 7528,
      "이집": 7529,
      "시험": 7530,
      "##부와": 7531,
      "체결": 7532,
      "45": 7533,
      "정착": 7534,
      "185": 7535,
      "지진": 7536,
      "유일한": 7537,
      "##성으로": 7538,
      "##ess": 7539,
      "1945년": 7540,
      "중에서": 7541,
      "##간다": 7542,
      "즉위": 7543,
      "이름이": 7544,
      "##안을": 7545,
      "보유": 7546,
      "이래": 7547,
      "생물": 7548,
      "만들었다": 7549,
      "논란": 7550,
      "##되자": 7551,
      "않다": 7552,
      "문제를": 7553,
      "너무": 7554,
      "만들어진": 7555,
      "합류": 7556,
      "##점으로": 7557,
      "2021년": 7558,
      "이슬": 7559,
      "##부터는": 7560,
      "##면을": 7561,
      "필요한": 7562,
      "##속도로": 7563,
      "##ine": 7564,
      "##니는": 7565,
      "타이틀": 7566,
      "전환": 7567,
      "제거": 7568,
      "충돌": 7569,
      "##인들은": 7570,
      "세력": 7571,
      "안에": 7572,
      "일어난": 7573,
      "##당이": 7574,
      "관계를": 7575,
      "이스": 7576,
      "의견": 7577,
      "문학": 7578,
      "선수로": 7579,
      "영역": 7580,
      "다루": 7581,
      "##세포": 7582,
      "##교회": 7583,
      "카를": 7584,
      "보여주": 7585,
      "아내": 7586,
      "##시가": 7587,
      "##거리": 7588,
      "##계가": 7589,
      "사회적": 7590,
      "디지털": 7591,
      "##선에서": 7592,
      "주목": 7593,
      "경기를": 7594,
      "베르": 7595,
      "실제로": 7596,
      "동쪽": 7597,
      "규정": 7598,
      "따른": 7599,
      "##프는": 7600,
      "내각": 7601,
      "것도": 7602,
      "##디아": 7603,
      "and": 7604,
      "180": 7605,
      "구성되어": 7606,
      "있지": 7607,
      "분포": 7608,
      "사이에서": 7609,
      "나중에": 7610,
      "이렇게": 7611,
      "가까운": 7612,
      "근무": 7613,
      "36": 7614,
      "곳에": 7615,
      "옮겨": 7616,
      "본래": 7617,
      "공화": 7618,
      "동생": 7619,
      "멕시코": 7620,
      "##백질": 7621,
      "대륙": 7622,
      "문제가": 7623,
      "다카": 7624,
      "##러운": 7625,
      "에서는": 7626,
      "##미터": 7627,
      "계승": 7628,
      "상업": 7629,
      "##라우": 7630,
      "오스트레일리아": 7631,
      "부모": 7632,
      "물론": 7633,
      "##인지": 7634,
      "##나가": 7635,
      "##동에": 7636,
      "##체로": 7637,
      "##소에": 7638,
      "##물이": 7639,
      "공급": 7640,
      "##적이고": 7641,
      "##전한": 7642,
      "강조": 7643,
      "##식의": 7644,
      "##6년에": 7645,
      "##0년대에": 7646,
      "스코": 7647,
      "대사": 7648,
      "표시": 7649,
      "개통": 7650,
      "##어졌다": 7651,
      "당선": 7652,
      "적이": 7653,
      "사용하여": 7654,
      "##국이": 7655,
      "대해서는": 7656,
      "사실을": 7657,
      "##ity": 7658,
      "해외": 7659,
      "집중": 7660,
      "가능하다": 7661,
      "하루": 7662,
      "##평양": 7663,
      "등록": 7664,
      "라디오": 7665,
      "##주로": 7666,
      "##과를": 7667,
      "취임": 7668,
      "##ab": 7669,
      "촬영": 7670,
      "##주교": 7671,
      "##가로": 7672,
      "##기술": 7673,
      "좋아": 7674,
      "사진": 7675,
      "히로": 7676,
      "##관의": 7677,
      "전략": 7678,
      "인민": 7679,
      "##하라": 7680,
      "주었다": 7681,
      "##하이": 7682,
      "하기": 7683,
      "야마": 7684,
      "##7년에": 7685,
      "관찰": 7686,
      "둘러": 7687,
      "일제": 7688,
      "##준다": 7689,
      "유니": 7690,
      "파이": 7691,
      "주인공": 7692,
      "인근": 7693,
      "지역을": 7694,
      "저항": 7695,
      "넘어": 7696,
      "##아시아": 7697,
      "집단": 7698,
      "##화의": 7699,
      "미래": 7700,
      "소개": 7701,
      "##세에": 7702,
      "건너": 7703,
      "##치의": 7704,
      "개봉": 7705,
      "문서": 7706,
      "보존": 7707,
      "허용": 7708,
      "서비스": 7709,
      "서쪽": 7710,
      "##크는": 7711,
      "##적으로는": 7712,
      "센터": 7713,
      "수가": 7714,
      "33": 7715,
      "Al": 7716,
      "에는": 7717,
      "사용한다": 7718,
      "윌리엄": 7719,
      "##4년에": 7720,
      "이슬람": 7721,
      "최소": 7722,
      "여객": 7723,
      "받아들": 7724,
      "오르": 7725,
      "##내고": 7726,
      "뮤직": 7727,
      "##회사": 7728,
      "헝가": 7729,
      "##5년에": 7730,
      "##인트": 7731,
      "되었으며": 7732,
      "뒤에": 7733,
      "계열": 7734,
      "##되었는데": 7735,
      "사용된다": 7736,
      "최고의": 7737,
      "나누": 7738,
      "##ys": 7739,
      "##론을": 7740,
      "아시": 7741,
      "##석을": 7742,
      "뿐만": 7743,
      "##리포": 7744,
      "몽골": 7745,
      "##작용": 7746,
      "##당을": 7747,
      "하계": 7748,
      "사람은": 7749,
      "##식은": 7750,
      "##크라이나": 7751,
      "184": 7752,
      "##상에서": 7753,
      "스튜디오": 7754,
      "서울특별시": 7755,
      "연장": 7756,
      "무렵": 7757,
      "정권": 7758,
      "##2년에": 7759,
      "인한": 7760,
      "지하철": 7761,
      "이번": 7762,
      "##드와": 7763,
      "동료": 7764,
      "전반": 7765,
      "충분": 7766,
      "에게": 7767,
      "윈도": 7768,
      "에이": 7769,
      "가는": 7770,
      "이후에": 7771,
      "##로로": 7772,
      "##버스": 7773,
      "자본": 7774,
      "이용하여": 7775,
      "대표적인": 7776,
      "점차": 7777,
      "관광": 7778,
      "정부의": 7779,
      "기존의": 7780,
      "##졌으며": 7781,
      "그해": 7782,
      "de": 7783,
      "가입": 7784,
      "##국은": 7785,
      "종종": 7786,
      "신경": 7787,
      "5년": 7788,
      "북부": 7789,
      "말을": 7790,
      "##3년에": 7791,
      "##연합": 7792,
      "적극": 7793,
      "마련": 7794,
      "중의": 7795,
      "##가가": 7796,
      "경우에는": 7797,
      "광주": 7798,
      "제주": 7799,
      "존재한다": 7800,
      "##igh": 7801,
      "##프가": 7802,
      "##과학": 7803,
      "##량의": 7804,
      "우크라이나": 7805,
      "포르투갈": 7806,
      "베네": 7807,
      "사람들은": 7808,
      "젊은": 7809,
      "무역": 7810,
      "여기서": 7811,
      "바탕으로": 7812,
      "##분을": 7813,
      "불러": 7814,
      "사회주의": 7815,
      "부문": 7816,
      "종료": 7817,
      "레코": 7818,
      "집합": 7819,
      "##차를": 7820,
      "##승을": 7821,
      "##되었지만": 7822,
      "있었지만": 7823,
      "내부": 7824,
      "##8년에": 7825,
      "통하여": 7826,
      "감염": 7827,
      "전투에서": 7828,
      "의사": 7829,
      "발사": 7830,
      "일반적인": 7831,
      "제목": 7832,
      "##산으로": 7833,
      "##세기에": 7834,
      "##시즌": 7835,
      "간주": 7836,
      "유로": 7837,
      "네트워": 7838,
      "알렉산": 7839,
      "수비": 7840,
      "##체에": 7841,
      "실행": 7842,
      "##정보": 7843,
      "90": 7844,
      "해군": 7845,
      "##관에": 7846,
      "아우": 7847,
      "##해를": 7848,
      "왔다": 7849,
      "##이던": 7850,
      "##와는": 7851,
      "기록을": 7852,
      "##트에": 7853,
      "위협": 7854,
      "##ell": 7855,
      "오스": 7856,
      "##보다는": 7857,
      "그렇": 7858,
      "전시": 7859,
      "##전으로": 7860,
      "측정": 7861,
      "##9년에": 7862,
      "승격": 7863,
      "##ang": 7864,
      "각종": 7865,
      "단백질": 7866,
      "관심을": 7867,
      "강력한": 7868,
      "지냈다": 7869,
      "##메달을": 7870,
      "구단": 7871,
      "오브": 7872,
      "일이": 7873,
      "조성": 7874,
      "기능을": 7875,
      "미사": 7876,
      "그곳": 7877,
      "##학생": 7878,
      "##하려는": 7879,
      "비밀": 7880,
      "##하에": 7881,
      "만드는": 7882,
      "##리스트": 7883,
      "##았으며": 7884,
      "이며": 7885,
      "종합": 7886,
      "##기고": 7887,
      "남북": 7888,
      "##사업": 7889,
      "인디": 7890,
      "바람": 7891,
      "주는": 7892,
      "신문": 7893,
      "주장했다": 7894,
      "건강": 7895,
      "피아": 7896,
      "증거": 7897,
      "만약": 7898,
      "범죄": 7899,
      "제작에": 7900,
      "침공": 7901,
      "시기에": 7902,
      "##조가": 7903,
      "조선민주주의": 7904,
      "현실": 7905,
      "미술": 7906,
      "삼성": 7907,
      "제도": 7908,
      "텔레비전": 7909,
      "후쿠": 7910,
      "##자에게": 7911,
      "##되었던": 7912,
      "민간": 7913,
      "확보": 7914,
      "##했기": 7915,
      "홍콩": 7916,
      "승리를": 7917,
      "판단": 7918,
      "사령": 7919,
      "38": 7920,
      "어떻": 7921,
      "출발": 7922,
      "확대": 7923,
      "자신을": 7924,
      "작성": 7925,
      "입학": 7926,
      "##해졌다": 7927,
      "##까지의": 7928,
      "##상과": 7929,
      "##ak": 7930,
      "##만에": 7931,
      "##산의": 7932,
      "마이크로": 7933,
      "##워드": 7934,
      "공격을": 7935,
      "쉽게": 7936,
      "##나라의": 7937,
      "지명": 7938,
      "##점에서": 7939,
      "붕괴": 7940,
      "1세": 7941,
      "##임스": 7942,
      "갖추": 7943,
      "성립": 7944,
      "##계는": 7945,
      "##피아": 7946,
      "##호선": 7947,
      "편집": 7948,
      "오후": 7949,
      "2세": 7950,
      "##낸다": 7951,
      "스위스": 7952,
      "##계에서": 7953,
      "중화인민공화국": 7954,
      "##조는": 7955,
      "올랐다": 7956,
      "##파의": 7957,
      "##분에": 7958,
      "채택": 7959,
      "사용되는": 7960,
      "##소로": 7961,
      "##0만": 7962,
      "자리를": 7963,
      "##1년에": 7964,
      "로스": 7965,
      "중국의": 7966,
      "성격": 7967,
      "제5": 7968,
      "외에도": 7969,
      "##원과": 7970,
      "경향": 7971,
      "400": 7972,
      "배경": 7973,
      "##학년": 7974,
      "##지도": 7975,
      "장기": 7976,
      "발표했다": 7977,
      "엘리": 7978,
      "대규모": 7979,
      "##었는데": 7980,
      "원자": 7981,
      "보이": 7982,
      "##ber": 7983,
      "##ist": 7984,
      "인간의": 7985,
      "##버트": 7986,
      "##화에": 7987,
      "##리히": 7988,
      "한다고": 7989,
      "부근": 7990,
      "##치로": 7991,
      "1987년": 7992,
      "1986년": 7993,
      "종류": 7994,
      "내에서": 7995,
      "아니다": 7996,
      "시대의": 7997,
      "##로운": 7998,
      "##주가": 7999,
      "제외한": 8000,
      "어떻게": 8001,
      "합병": 8002,
      "천문": 8003,
      "비용": 8004,
      "이전에": 8005,
      "그려": 8006,
      "항상": 8007,
      "##비가": 8008,
      "##ip": 8009,
      "회복": 8010,
      "오사카": 8011,
      "생활을": 8012,
      "한국의": 8013,
      "##센터": 8014,
      "명예": 8015,
      "같다": 8016,
      "##족의": 8017,
      "한다는": 8018,
      "남편": 8019,
      "재직": 8020,
      "받는": 8021,
      "##시로": 8022,
      "협력": 8023,
      "국방": 8024,
      "파일": 8025,
      "유일": 8026,
      "장애": 8027,
      "183": 8028,
      "출신의": 8029,
      "책임": 8030,
      "##ill": 8031,
      "##은행": 8032,
      "##자들을": 8033,
      "##어들": 8034,
      "Re": 8035,
      "수립": 8036,
      "##라노": 8037,
      "하게": 8038,
      "##하다고": 8039,
      "##est": 8040,
      "보면": 8041,
      "교체": 8042,
      "블랙": 8043,
      "##개를": 8044,
      "유리": 8045,
      "제1차": 8046,
      "Th": 8047,
      "도움을": 8048,
      "스토": 8049,
      "주연으로": 8050,
      "##tic": 8051,
      "34": 8052,
      "##오카": 8053,
      "표기": 8054,
      "대회에서": 8055,
      "에도": 8056,
      "##두고": 8057,
      "##리어": 8058,
      "않을": 8059,
      "31일": 8060,
      "라틴": 8061,
      "##고로": 8062,
      "케이": 8063,
      "##니스": 8064,
      "##대에서": 8065,
      "정보를": 8066,
      "10년": 8067,
      "등은": 8068,
      "##티나": 8069,
      "##밖에": 8070,
      "의미한다": 8071,
      "##었지만": 8072,
      "겨울": 8073,
      "19세기": 8074,
      "##생활": 8075,
      "핀란드": 8076,
      "수입": 8077,
      "##리포니아": 8078,
      "밖에": 8079,
      "##사우": 8080,
      "터키": 8081,
      "그래서": 8082,
      "##라엘": 8083,
      "계산": 8084,
      "##력의": 8085,
      "지상": 8086,
      "##려는": 8087,
      "이끄": 8088,
      "종목": 8089,
      "게이": 8090,
      "##이었고": 8091,
      "기계": 8092,
      "루이": 8093,
      "그것은": 8094,
      "위치해": 8095,
      "고전": 8096,
      "##었으나": 8097,
      "기후": 8098,
      "안전": 8099,
      "##ers": 8100,
      "화학": 8101,
      "복잡": 8102,
      "서부": 8103,
      "방식으로": 8104,
      "계약을": 8105,
      "구축": 8106,
      "공공": 8107,
      "동부": 8108,
      "##의로": 8109,
      "신라": 8110,
      "불과": 8111,
      "##지션": 8112,
      "1980년": 8113,
      "이끄는": 8114,
      "세르": 8115,
      "##당한": 8116,
      "남성": 8117,
      "##로서의": 8118,
      "여행": 8119,
      "전사": 8120,
      "있었으며": 8121,
      "했지만": 8122,
      "##all": 8123,
      "##라비아": 8124,
      "얼굴": 8125,
      "An": 8126,
      "##설을": 8127,
      "나폴": 8128,
      "하면서": 8129,
      "유형": 8130,
      "##TV": 8131,
      "해방": 8132,
      "보이는": 8133,
      "시장": 8134,
      "대립": 8135,
      "음력": 8136,
      "##어도": 8137,
      "프로듀": 8138,
      "다섯": 8139,
      "캘리포니아": 8140,
      "이스라엘": 8141,
      "보도": 8142,
      "조정": 8143,
      "##전쟁": 8144,
      "알아": 8145,
      "##하고자": 8146,
      "##물로": 8147,
      "관할": 8148,
      "정상": 8149,
      "##어와": 8150,
      "##메이": 8151,
      "힘을": 8152,
      "귀국": 8153,
      "##ue": 8154,
      "##시대의": 8155,
      "아랍": 8156,
      "제정": 8157,
      "##트와": 8158,
      "##르타": 8159,
      "인기를": 8160,
      "179": 8161,
      "위치하고": 8162,
      "II": 8163,
      "측면": 8164,
      "모스크": 8165,
      "##ty": 8166,
      "등에서": 8167,
      "라이브": 8168,
      "출생": 8169,
      "아키": 8170,
      "마리아": 8171,
      "##로스": 8172,
      "##즈의": 8173,
      "강원": 8174,
      "득점": 8175,
      "통신": 8176,
      "##단으로": 8177,
      "수정": 8178,
      "1985년": 8179,
      "##문이": 8180,
      "파리": 8181,
      "재정": 8182,
      "이루어져": 8183,
      "##하려고": 8184,
      "홈런": 8185,
      "사례": 8186,
      "출연하였고": 8187,
      "##키아": 8188,
      "##레이션": 8189,
      "##리기": 8190,
      "1984년": 8191,
      "에드": 8192,
      "##트라": 8193,
      "##화는": 8194,
      "농업": 8195,
      "구성된": 8196,
      "사람의": 8197,
      "##교의": 8198,
      "윈도우": 8199,
      "초반": 8200,
      "전개": 8201,
      "경우도": 8202,
      "당시의": 8203,
      "##보드": 8204,
      "##명한": 8205,
      "매년": 8206,
      "##제에": 8207,
      "덴마": 8208,
      "##호가": 8209,
      "했고": 8210,
      "##티브": 8211,
      "##문화재": 8212,
      "태평양": 8213,
      "##질을": 8214,
      "개선": 8215,
      "고양": 8216,
      "기억": 8217,
      "훨씬": 8218,
      "##인들의": 8219,
      "에스": 8220,
      "의해서": 8221,
      "연극": 8222,
      "인사": 8223,
      "##역으로": 8224,
      "##시킬": 8225,
      "시작되었다": 8226,
      "##어져": 8227,
      "대형": 8228,
      "과정을": 8229,
      "에너지": 8230,
      "잘못": 8231,
      "참석": 8232,
      "일종이다": 8233,
      "공유": 8234,
      "수학": 8235,
      "##uc": 8236,
      "남동": 8237,
      "정리": 8238,
      "##슨은": 8239,
      "비교적": 8240,
      "##oun": 8241,
      "중반": 8242,
      "인수": 8243,
      "##틀랜드": 8244,
      "1위를": 8245,
      "떨어져": 8246,
      "심각": 8247,
      "##받아": 8248,
      "경계": 8249,
      "검은": 8250,
      "부른다": 8251,
      "뛰어난": 8252,
      "##ne": 8253,
      "죽은": 8254,
      "##량은": 8255,
      "마사": 8256,
      "죽음": 8257,
      "유엔": 8258,
      "시대에": 8259,
      "##기업": 8260,
      "##종이": 8261,
      "역사상": 8262,
      "폭발": 8263,
      "사실상": 8264,
      "전혀": 8265,
      "##류를": 8266,
      "가능성이": 8267,
      "지역은": 8268,
      "그에게": 8269,
      "짧은": 8270,
      "지금의": 8271,
      "노예": 8272,
      "공부": 8273,
      "아름": 8274,
      "37": 8275,
      "##겠다고": 8276,
      "뒤를": 8277,
      "변호": 8278,
      "오히": 8279,
      "회원": 8280,
      "##력으로": 8281,
      "동일한": 8282,
      "불가능": 8283,
      "##ran": 8284,
      "나는": 8285,
      "##권의": 8286,
      "##해의": 8287,
      "##국을": 8288,
      "##리학": 8289,
      "속에서": 8290,
      "태어난": 8291,
      "전차": 8292,
      "##고등학교": 8293,
      "##ub": 8294,
      "##사회": 8295,
      "도시로": 8296,
      "있었는데": 8297,
      "저장": 8298,
      "##소에서": 8299,
      "##지면서": 8300,
      "본격": 8301,
      "비난": 8302,
      "은행": 8303,
      "75": 8304,
      "1982년": 8305,
      "##ud": 8306,
      "##시와": 8307,
      "나서": 8308,
      "탑재": 8309,
      "가격": 8310,
      "행사": 8311,
      "##실을": 8312,
      "##점에": 8313,
      "Mar": 8314,
      "181": 8315,
      "예상": 8316,
      "핵심": 8317,
      "세계에서": 8318,
      "##our": 8319,
      "연맹": 8320,
      "대상으로": 8321,
      "##인에": 8322,
      "150": 8323,
      "트리": 8324,
      "##신의": 8325,
      "인하여": 8326,
      "##당에": 8327,
      "정복": 8328,
      "##데미": 8329,
      "##분의": 8330,
      "잠시": 8331,
      "필리핀": 8332,
      "수출": 8333,
      "하는데": 8334,
      "55": 8335,
      "##슈타": 8336,
      "블루": 8337,
      "관심": 8338,
      "식물": 8339,
      "##았던": 8340,
      "##av": 8341,
      "##음에도": 8342,
      "KBS": 8343,
      "선의": 8344,
      "##비는": 8345,
      "근대": 8346,
      "설정": 8347,
      "##ph": 8348,
      "##지기": 8349,
      "고구": 8350,
      "편입": 8351,
      "토론": 8352,
      "##라가": 8353,
      "카메": 8354,
      "##사령": 8355,
      "이승": 8356,
      "##크를": 8357,
      "만화": 8358,
      "속에": 8359,
      "있었으나": 8360,
      "고용": 8361,
      "형태의": 8362,
      "##자이다": 8363,
      "도움": 8364,
      "##서로": 8365,
      "시의": 8366,
      "조금": 8367,
      "채널": 8368,
      "되면서": 8369,
      "오랜": 8370,
      "##력과": 8371,
      "해체": 8372,
      "이것이": 8373,
      "##품을": 8374,
      "권한": 8375,
      "정부가": 8376,
      "원칙": 8377,
      "카이": 8378,
      "요리": 8379,
      "##받은": 8380,
      "때에는": 8381,
      "요새": 8382,
      "시간이": 8383,
      "기반으로": 8384,
      "이끌고": 8385,
      "##료를": 8386,
      "개정": 8387,
      "마드리": 8388,
      "통제": 8389,
      "##력에": 8390,
      "보급": 8391,
      "박사": 8392,
      "##개발": 8393,
      "##왕의": 8394,
      "북서": 8395,
      "##프의": 8396,
      "주교": 8397,
      "##구로": 8398,
      "##종은": 8399,
      "42": 8400,
      "목적": 8401,
      "높이": 8402,
      "되지": 8403,
      "정도의": 8404,
      "De": 8405,
      "했으나": 8406,
      "##그룹": 8407,
      "2개": 8408,
      "도달": 8409,
      "##미널": 8410,
      "##니어": 8411,
      "2개의": 8412,
      "암살": 8413,
      "적은": 8414,
      "가로": 8415,
      "비율": 8416,
      "통한": 8417,
      "플로": 8418,
      "만큼": 8419,
      "타고": 8420,
      "##권이": 8421,
      "##네시아": 8422,
      "##세이": 8423,
      "##바르": 8424,
      "넓은": 8425,
      "전역": 8426,
      "카운": 8427,
      "##단체": 8428,
      "거대한": 8429,
      "##신이": 8430,
      "##함에": 8431,
      "아나": 8432,
      "이민": 8433,
      "##ge": 8434,
      "플랫": 8435,
      "국가의": 8436,
      "사는": 8437,
      "Le": 8438,
      "투수": 8439,
      "경기에": 8440,
      "반복": 8441,
      "오히려": 8442,
      "시각": 8443,
      "투자": 8444,
      "##를린": 8445,
      "나뉘": 8446,
      "우선": 8447,
      "고정": 8448,
      "그에": 8449,
      "사후": 8450,
      "##에게는": 8451,
      "비록": 8452,
      "대항": 8453,
      "출마": 8454,
      "##용으로": 8455,
      "##미디": 8456,
      "물러": 8457,
      "특수": 8458,
      "1983년": 8459,
      "국경": 8460,
      "##se": 8461,
      "때에": 8462,
      "자체": 8463,
      "증명": 8464,
      "##if": 8465,
      "데이비": 8466,
      "항복": 8467,
      "Ne": 8468,
      "거절": 8469,
      "앞서": 8470,
      "사용되었다": 8471,
      "제임스": 8472,
      "얻었다": 8473,
      "세운": 8474,
      "단일": 8475,
      "##시오": 8476,
      "Un": 8477,
      "##하다는": 8478,
      "갈등": 8479,
      "무장": 8480,
      "마침": 8481,
      "세이": 8482,
      "##법원": 8483,
      "구체": 8484,
      "##면의": 8485,
      "##형이": 8486,
      "계획을": 8487,
      "길이": 8488,
      "##10": 8489,
      "##모리": 8490,
      "신앙": 8491,
      "클래": 8492,
      "보였다": 8493,
      "열대": 8494,
      "내용을": 8495,
      "소프트웨어": 8496,
      "대상": 8497,
      "지원을": 8498,
      "모스크바": 8499,
      "유도": 8500,
      "##해진": 8501,
      "애플": 8502,
      "##스럽": 8503,
      "했으며": 8504,
      "결과를": 8505,
      "추측": 8506,
      "39": 8507,
      "외에": 8508,
      "발생한": 8509,
      "사람을": 8510,
      "장착": 8511,
      "##산업": 8512,
      "개편": 8513,
      "인터뷰": 8514,
      "스파": 8515,
      "전후": 8516,
      "세우": 8517,
      "머리": 8518,
      "##대전": 8519,
      "부인": 8520,
      "확실": 8521,
      "철학": 8522,
      "고향": 8523,
      "메이저": 8524,
      "창설": 8525,
      "붉은": 8526,
      "64": 8527,
      "##주시": 8528,
      "1981년": 8529,
      "청년": 8530,
      "##CA": 8531,
      "##테인": 8532,
      "목록": 8533,
      "임명되었다": 8534,
      "차지했다": 8535,
      "아주": 8536,
      "설립된": 8537,
      "형제": 8538,
      "Ar": 8539,
      "위의": 8540,
      "##도시": 8541,
      "구별": 8542,
      "##다운": 8543,
      "##간에": 8544,
      "원정": 8545,
      "##군으로": 8546,
      "없어": 8547,
      "##드에": 8548,
      "##ice": 8549,
      "오래된": 8550,
      "그것을": 8551,
      "1979년": 8552,
      "장악": 8553,
      "##ong": 8554,
      "전쟁이": 8555,
      "##서에": 8556,
      "북동": 8557,
      "##유럽": 8558,
      "1973년": 8559,
      "나오는": 8560,
      "처음에는": 8561,
      "##셔널": 8562,
      "##정책": 8563,
      "시작한": 8564,
      "드래": 8565,
      "식민지": 8566,
      "##타를": 8567,
      "##사이": 8568,
      "160": 8569,
      "##국에": 8570,
      "북아": 8571,
      "평양": 8572,
      "##법에": 8573,
      "방출": 8574,
      "##더라도": 8575,
      "구조를": 8576,
      "태어나": 8577,
      "머물": 8578,
      "##공항": 8579,
      "요한": 8580,
      "없고": 8581,
      "투입": 8582,
      "##렸고": 8583,
      "공포": 8584,
      "##사키": 8585,
      "##주와": 8586,
      "팀은": 8587,
      "금융": 8588,
      "##리게": 8589,
      "##베르크": 8590,
      "##자들": 8591,
      "##수와": 8592,
      "세웠다": 8593,
      "후손": 8594,
      "사용한": 8595,
      "##일러": 8596,
      "전쟁을": 8597,
      "공산주의": 8598,
      "1972년": 8599,
      "것처럼": 8600,
      "##일의": 8601,
      "이후에는": 8602,
      "아르헨": 8603,
      "이른": 8604,
      "확정": 8605,
      "고등": 8606,
      "저지": 8607,
      "합의": 8608,
      "스코틀랜드": 8609,
      "기획": 8610,
      "이중": 8611,
      "하나는": 8612,
      "구역": 8613,
      "논쟁": 8614,
      "##다른": 8615,
      "무기": 8616,
      "생존": 8617,
      "수여": 8618,
      "계급": 8619,
      "내에": 8620,
      "##드에서": 8621,
      "어렵": 8622,
      "흔히": 8623,
      "추정된다": 8624,
      "하늘": 8625,
      "##이었으며": 8626,
      "마리": 8627,
      "점에서": 8628,
      "##르가": 8629,
      "서양": 8630,
      "됐다": 8631,
      "##ight": 8632,
      "플랫폼": 8633,
      "48": 8634,
      "아카데미": 8635,
      "마쓰": 8636,
      "하자": 8637,
      "##라운드": 8638,
      "##이었으나": 8639,
      "나카": 8640,
      "포함되어": 8641,
      "1970년": 8642,
      "##공화": 8643,
      "##싱턴": 8644,
      "의존": 8645,
      "##도에서": 8646,
      "절대": 8647,
      "하였고": 8648,
      "않았고": 8649,
      "##익을": 8650,
      "업무": 8651,
      "탄생": 8652,
      "알게": 8653,
      "##일보": 8654,
      "##ob": 8655,
      "약속": 8656,
      "금속": 8657,
      "##지며": 8658,
      "##번의": 8659,
      "하드": 8660,
      "생겨": 8661,
      "위해서는": 8662,
      "교토": 8663,
      "제출": 8664,
      "##나의": 8665,
      "##점은": 8666,
      "끝나": 8667,
      "제6": 8668,
      "기사": 8669,
      "3개": 8670,
      "세종": 8671,
      "##산은": 8672,
      "일으켰": 8673,
      "시내": 8674,
      "광고": 8675,
      "병사": 8676,
      "조합": 8677,
      "##식으로": 8678,
      "브랜드": 8679,
      "박물": 8680,
      "대비": 8681,
      "보는": 8682,
      "이후로": 8683,
      "무엇": 8684,
      "헤이": 8685,
      "오리": 8686,
      "트랙": 8687,
      "##마스": 8688,
      "##스포": 8689,
      "글로": 8690,
      "##받고": 8691,
      "20세기": 8692,
      "혼란": 8693,
      "##스러운": 8694,
      "그러한": 8695,
      "이유는": 8696,
      "편성": 8697,
      "의료": 8698,
      "##색을": 8699,
      "활발": 8700,
      "##ian": 8701,
      "##도르": 8702,
      "시청": 8703,
      "의회": 8704,
      "##아버": 8705,
      "##유의": 8706,
      "##같은": 8707,
      "역대": 8708,
      "##서의": 8709,
      "1974년": 8710,
      "발매되었다": 8711,
      "##서가": 8712,
      "베이징": 8713,
      "나이": 8714,
      "선고": 8715,
      "##가에": 8716,
      "되면": 8717,
      "남서": 8718,
      "불린다": 8719,
      "##동이": 8720,
      "##동의": 8721,
      "넘는": 8722,
      "고구려": 8723,
      "나와": 8724,
      "에피": 8725,
      "##수에": 8726,
      "판결": 8727,
      "##동차": 8728,
      "약간": 8729,
      "이르는": 8730,
      "##프를": 8731,
      "인공": 8732,
      "산맥": 8733,
      "신설": 8734,
      "문자": 8735,
      "182": 8736,
      "시간을": 8737,
      "받지": 8738,
      "번째로": 8739,
      "소년": 8740,
      "방법을": 8741,
      "없다고": 8742,
      "통해서": 8743,
      "솔로": 8744,
      "붙여": 8745,
      "##무원": 8746,
      "##요일": 8747,
      "##스리그": 8748,
      "상당히": 8749,
      "빠르게": 8750,
      "##경에": 8751,
      "베를린": 8752,
      "##ry": 8753,
      "##타이": 8754,
      "반영": 8755,
      "##화로": 8756,
      "##니의": 8757,
      "##언을": 8758,
      "강제": 8759,
      "##증을": 8760,
      "동의": 8761,
      "##당했다": 8762,
      "##보를": 8763,
      "##하나": 8764,
      "빠른": 8765,
      "요소": 8766,
      "##문의": 8767,
      "버스": 8768,
      "##리즘": 8769,
      "CD": 8770,
      "##리케": 8771,
      "##기에는": 8772,
      "불안": 8773,
      "차이가": 8774,
      "스피": 8775,
      "##적이다": 8776,
      "지식": 8777,
      "##00만": 8778,
      "MBC": 8779,
      "코미디": 8780,
      "백작": 8781,
      "##령을": 8782,
      "양성": 8783,
      "한때": 8784,
      "살고": 8785,
      "높아": 8786,
      "논의": 8787,
      "점을": 8788,
      "아메리카": 8789,
      "##만큼": 8790,
      "태풍": 8791,
      "지닌": 8792,
      "##지자": 8793,
      "보냈다": 8794,
      "방향으로": 8795,
      "멸망": 8796,
      "장식": 8797,
      "체계": 8798,
      "공식적으로": 8799,
      "##판을": 8800,
      "##법은": 8801,
      "반발": 8802,
      "얻어": 8803,
      "다니": 8804,
      "포기": 8805,
      "##데스": 8806,
      "전설": 8807,
      "군대를": 8808,
      "작전": 8809,
      "##재를": 8810,
      "##추어": 8811,
      "##라를": 8812,
      "일본에서": 8813,
      "##테르": 8814,
      "##테인먼": 8815,
      "예선": 8816,
      "생명": 8817,
      "##자이": 8818,
      "등장하는": 8819,
      "주고": 8820,
      "해서": 8821,
      "##기압": 8822,
      "##술을": 8823,
      "##병을": 8824,
      "도서": 8825,
      "##로드": 8826,
      "그런데": 8827,
      "##지인": 8828,
      "##차례": 8829,
      "사용하고": 8830,
      "##료로": 8831,
      "창립": 8832,
      "##구와": 8833,
      "독자": 8834,
      "##누스": 8835,
      "41": 8836,
      "Com": 8837,
      "은하": 8838,
      "하나님": 8839,
      "모리": 8840,
      "##이란": 8841,
      "조선민주주의인민공화국": 8842,
      "오토": 8843,
      "전용": 8844,
      "도망": 8845,
      "43": 8846,
      "포지션": 8847,
      "엔터": 8848,
      "집안": 8849,
      "경상남도": 8850,
      "##ss": 8851,
      "1971년": 8852,
      "소비에": 8853,
      "플라": 8854,
      "본선": 8855,
      "진입": 8856,
      "##당과": 8857,
      "##수록": 8858,
      "##뿐만": 8859,
      "포위": 8860,
      "행성": 8861,
      "##ae": 8862,
      "##후의": 8863,
      "작품을": 8864,
      "##치에": 8865,
      "##주에서": 8866,
      "취급": 8867,
      "##다이": 8868,
      "러시아의": 8869,
      "178": 8870,
      "오픈": 8871,
      "제7": 8872,
      "원작": 8873,
      "1978년": 8874,
      "##ate": 8875,
      "아파": 8876,
      "명명": 8877,
      "##브리": 8878,
      "진화": 8879,
      "탈출": 8880,
      "##자기": 8881,
      "빠져": 8882,
      "프란": 8883,
      "##관리": 8884,
      "총독": 8885,
      "네트워크": 8886,
      "팀을": 8887,
      "예측": 8888,
      "##스케": 8889,
      "##나와": 8890,
      "한번": 8891,
      "삼국": 8892,
      "표면": 8893,
      "보컬": 8894,
      "유사한": 8895,
      "65": 8896,
      "보조": 8897,
      "청소년": 8898,
      "명이": 8899,
      "오전": 8900,
      "##신은": 8901,
      "1975년": 8902,
      "이전의": 8903,
      "중세": 8904,
      "중화민": 8905,
      "청나라": 8906,
      "흡수": 8907,
      "부상": 8908,
      "했던": 8909,
      "1976년": 8910,
      "외부": 8911,
      "라인": 8912,
      "워싱턴": 8913,
      "곳에서": 8914,
      "Sh": 8915,
      "1963년": 8916,
      "##번째로": 8917,
      "피아노": 8918,
      "##경기에": 8919,
      "##산이": 8920,
      "1948년": 8921,
      "개시": 8922,
      "해당하는": 8923,
      "1969년": 8924,
      "##가이다": 8925,
      "브리": 8926,
      "##ore": 8927,
      "##형은": 8928,
      "47": 8929,
      "##버그": 8930,
      "벨기에": 8931,
      "이야기를": 8932,
      "부활": 8933,
      "상륙": 8934,
      "거리": 8935,
      "그들이": 8936,
      "수집": 8937,
      "##류가": 8938,
      "시즌을": 8939,
      "원주": 8940,
      "현재까지": 8941,
      "이용해": 8942,
      "분쟁": 8943,
      "선교": 8944,
      "재위": 8945,
      "받았고": 8946,
      "모여": 8947,
      "##드시": 8948,
      "##격으로": 8949,
      "이들의": 8950,
      "승인": 8951,
      "##사인": 8952,
      "해에": 8953,
      "친일": 8954,
      "히데": 8955,
      "후에는": 8956,
      "아테": 8957,
      "##비의": 8958,
      "제대로": 8959,
      "신성": 8960,
      "아들이": 8961,
      "##협회": 8962,
      "##ich": 8963,
      "때부터": 8964,
      "깊은": 8965,
      "##분이": 8966,
      "것이며": 8967,
      "받게": 8968,
      "##화와": 8969,
      "거래": 8970,
      "##리아의": 8971,
      "어떠": 8972,
      "발견된": 8973,
      "대공": 8974,
      "베이스": 8975,
      "주어": 8976,
      "콘스탄": 8977,
      "돌아가": 8978,
      "도중": 8979,
      "##물은": 8980,
      "3개의": 8981,
      "기술을": 8982,
      "DNA": 8983,
      "##었다고": 8984,
      "##소프트": 8985,
      "159": 8986,
      "강의": 8987,
      "##즈는": 8988,
      "이제": 8989,
      "##에게서": 8990,
      "대학교에서": 8991,
      "##키스탄": 8992,
      "자신들의": 8993,
      "1968년": 8994,
      "1950년": 8995,
      "대략": 8996,
      "보장": 8997,
      "이나": 8998,
      "하면": 8999,
      "공통": 9000,
      "상승": 9001,
      "조절": 9002,
      "종류의": 9003,
      "피해를": 9004,
      "정책을": 9005,
      "건립": 9006,
      "수송": 9007,
      "진압": 9008,
      "창조": 9009,
      "##대회": 9010,
      "##OS": 9011,
      "st": 9012,
      "가서": 9013,
      "##통을": 9014,
      "이하": 9015,
      "##ant": 9016,
      "1960년": 9017,
      "경상북도": 9018,
      "취득": 9019,
      "##석이": 9020,
      "##경의": 9021,
      "집행": 9022,
      "##공업": 9023,
      "##ain": 9024,
      "운동을": 9025,
      "이뤄": 9026,
      "호텔": 9027,
      "효율": 9028,
      "##되었을": 9029,
      "선보": 9030,
      "아르헨티나": 9031,
      "훗날": 9032,
      "##리우": 9033,
      "##만은": 9034,
      "LG": 9035,
      "시티": 9036,
      "한국에서": 9037,
      "##하였지만": 9038,
      "헝가리": 9039,
      "1980년대": 9040,
      "이탈리아의": 9041,
      "##세계": 9042,
      "##에르": 9043,
      "##되면": 9044,
      "총리": 9045,
      "##소와": 9046,
      "경성": 9047,
      "웨스트": 9048,
      "##로그": 9049,
      "역을": 9050,
      "1977년": 9051,
      "44": 9052,
      "내의": 9053,
      "##음이": 9054,
      "##법의": 9055,
      "능력을": 9056,
      "온라인": 9057,
      "##히는": 9058,
      "##선으로": 9059,
      "##형으로": 9060,
      "##제국": 9061,
      "시작으로": 9062,
      "나치": 9063,
      "건조": 9064,
      "슬로": 9065,
      "목표로": 9066,
      "규칙": 9067,
      "응용": 9068,
      "페르시아": 9069,
      "단계": 9070,
      "그와": 9071,
      "##마의": 9072,
      "##단과": 9073,
      "포함하여": 9074,
      "소수": 9075,
      "1946년": 9076,
      "사건을": 9077,
      "출입": 9078,
      "##차로": 9079,
      "각각의": 9080,
      "##시킨다": 9081,
      "52": 9082,
      "공을": 9083,
      "행정구": 9084,
      "레드": 9085,
      "맡고": 9086,
      "##였으나": 9087,
      "우려": 9088,
      "##per": 9089,
      "활성": 9090,
      "장면": 9091,
      "수사": 9092,
      "말레이": 9093,
      "잡아": 9094,
      "지키": 9095,
      "##리적": 9096,
      "##호의": 9097,
      "카운티": 9098,
      "##기까지": 9099,
      "PC": 9100,
      "말았다": 9101,
      "##전과": 9102,
      "##이와": 9103,
      "존재하는": 9104,
      "않으며": 9105,
      "지어": 9106,
      "##생의": 9107,
      "간단": 9108,
      "만족": 9109,
      "##ens": 9110,
      "인종": 9111,
      "설치되어": 9112,
      "독특": 9113,
      "달라": 9114,
      "신인": 9115,
      "팀이": 9116,
      "##일은": 9117,
      "구속": 9118,
      "##모를": 9119,
      "##오프": 9120,
      "뜻을": 9121,
      "to": 9122,
      "이용한": 9123,
      "1로": 9124,
      "농민": 9125,
      "##안에": 9126,
      "운용": 9127,
      "불법": 9128,
      "로버트": 9129,
      "##경제": 9130,
      "동원": 9131,
      "전공": 9132,
      "맡아": 9133,
      "시즌에": 9134,
      "보아": 9135,
      "##겠다는": 9136,
      "1일에": 9137,
      "어떠한": 9138,
      "주둔": 9139,
      "경제적": 9140,
      "주식": 9141,
      "남은": 9142,
      "##터는": 9143,
      "반드시": 9144,
      "방사": 9145,
      "탈락": 9146,
      "선거에서": 9147,
      "re": 9148,
      "장관": 9149,
      "##보는": 9150,
      "영입": 9151,
      "일부는": 9152,
      "##권은": 9153,
      "##SA": 9154,
      "##시설": 9155,
      "##art": 9156,
      "앞두고": 9157,
      "만주": 9158,
      "생긴": 9159,
      "아미": 9160,
      "포도": 9161,
      "Be": 9162,
      "이것을": 9163,
      "4개": 9164,
      "##라와": 9165,
      "##조에": 9166,
      "##킨다": 9167,
      "제외하고": 9168,
      "기록한": 9169,
      "사건이": 9170,
      "대기": 9171,
      "제어": 9172,
      "##FC": 9173,
      "##음악": 9174,
      "연구를": 9175,
      "유명하다": 9176,
      "미디어": 9177,
      "엄청": 9178,
      "향상": 9179,
      "Sp": 9180,
      "학문": 9181,
      "##에만": 9182,
      "##박쥐": 9183,
      "점점": 9184,
      "개신": 9185,
      "것이라는": 9186,
      "아침": 9187,
      "울산": 9188,
      "트레이": 9189,
      "##ord": 9190,
      "오른쪽": 9191,
      "##어진다": 9192,
      "양자": 9193,
      "운전": 9194,
      "46": 9195,
      "시작하여": 9196,
      "서비스를": 9197,
      "역임했다": 9198,
      "적절": 9199,
      "동남": 9200,
      "전파": 9201,
      "평가를": 9202,
      "##리노": 9203,
      "##건을": 9204,
      "대표팀": 9205,
      "한반": 9206,
      "다수의": 9207,
      "##티노": 9208,
      "끝난": 9209,
      "1964년": 9210,
      "기대": 9211,
      "트로": 9212,
      "챔피언스리그": 9213,
      "되자": 9214,
      "##미를": 9215,
      "##생을": 9216,
      "대부분은": 9217,
      "승강장": 9218,
      "이집트": 9219,
      "자녀": 9220,
      "전통적인": 9221,
      "##자치": 9222,
      "동계": 9223,
      "국회의원": 9224,
      "맞이": 9225,
      "문화재": 9226,
      "54": 9227,
      "노부": 9228,
      "검찰": 9229,
      "##ff": 9230,
      "##공화국의": 9231,
      "계기로": 9232,
      "풍부": 9233,
      "갖춘": 9234,
      "##들어": 9235,
      "##크가": 9236,
      "나타내는": 9237,
      "모아": 9238,
      "진보": 9239,
      "##문학": 9240,
      "프로세": 9241,
      "##의회": 9242,
      "앞에": 9243,
      "##겠다": 9244,
      "##io": 9245,
      "보낸": 9246,
      "왼쪽": 9247,
      "연관": 9248,
      "차별": 9249,
      "삼각": 9250,
      "##교를": 9251,
      "1940년": 9252,
      "##들로부터": 9253,
      "소비에트": 9254,
      "3차": 9255,
      "고종": 9256,
      "사법": 9257,
      "사태": 9258,
      "인지": 9259,
      "갈라": 9260,
      "채용": 9261,
      "장군": 9262,
      "마케": 9263,
      "경우는": 9264,
      "1967년": 9265,
      "##권에": 9266,
      "없다는": 9267,
      "자살": 9268,
      "메이지": 9269,
      "지붕": 9270,
      "##터를": 9271,
      "##격한": 9272,
      "분열": 9273,
      "##본을": 9274,
      "스케": 9275,
      "프로젝트": 9276,
      "일찍": 9277,
      "##주의를": 9278,
      "마침내": 9279,
      "##기에서": 9280,
      "##경찰": 9281,
      "##조합": 9282,
      "학위를": 9283,
      "문헌": 9284,
      "##곡을": 9285,
      "둘러싸": 9286,
      "태어났": 9287,
      "오페": 9288,
      "오스만": 9289,
      "빼앗": 9290,
      "##마트": 9291,
      "발표한": 9292,
      "파악": 9293,
      "인기": 9294,
      "##리우스": 9295,
      "##치아": 9296,
      "신뢰": 9297,
      "음반은": 9298,
      "타이완": 9299,
      "느끼": 9300,
      "상당한": 9301,
      "기자": 9302,
      "이룬": 9303,
      "##니아의": 9304,
      "모양의": 9305,
      "마지막으로": 9306,
      "##정으로": 9307,
      "들어서": 9308,
      "##국에서": 9309,
      "##명에": 9310,
      "정확한": 9311,
      "수상했다": 9312,
      "성인": 9313,
      "##영화": 9314,
      "스크": 9315,
      "1990년대": 9316,
      "갖는": 9317,
      "합성": 9318,
      "작업을": 9319,
      "##쿠라": 9320,
      "회전": 9321,
      "많아": 9322,
      "콘서": 9323,
      "Pro": 9324,
      "##차가": 9325,
      "##락을": 9326,
      "인도네시아": 9327,
      "부임": 9328,
      "논란이": 9329,
      "실질": 9330,
      "Con": 9331,
      "지니": 9332,
      "발표하였다": 9333,
      "##ort": 9334,
      "교육을": 9335,
      "##oh": 9336,
      "##식에": 9337,
      "차트": 9338,
      "대성": 9339,
      "##미가": 9340,
      "있음을": 9341,
      "향해": 9342,
      "##로마": 9343,
      "1949년": 9344,
      "받을": 9345,
      "목소": 9346,
      "반대로": 9347,
      "##장이다": 9348,
      "니콜": 9349,
      "스티": 9350,
      "1962년": 9351,
      "당시에는": 9352,
      "해산": 9353,
      "##하마": 9354,
      "교환": 9355,
      "박정": 9356,
      "1개": 9357,
      "검사": 9358,
      "##주의의": 9359,
      "##시키기": 9360,
      "세르비아": 9361,
      "마이클": 9362,
      "왕국의": 9363,
      "올리": 9364,
      "##플레이": 9365,
      "늘어": 9366,
      "하였으나": 9367,
      "##법이": 9368,
      "##문은": 9369,
      "##패를": 9370,
      "1944년": 9371,
      "##네스": 9372,
      "FA": 9373,
      "연출": 9374,
      "작품은": 9375,
      "성능": 9376,
      "가을": 9377,
      "##해도": 9378,
      "177": 9379,
      "잇는": 9380,
      "##국으로": 9381,
      "여기에": 9382,
      "##망을": 9383,
      "##항공": 9384,
      "저작": 9385,
      "지낸": 9386,
      "체코": 9387,
      "##틀러": 9388,
      "철도역이다": 9389,
      "전철": 9390,
      "지방의": 9391,
      "명확": 9392,
      "장치": 9393,
      "글을": 9394,
      "6년": 9395,
      "일치": 9396,
      "에어": 9397,
      "국무": 9398,
      "최다": 9399,
      "학습": 9400,
      "출간": 9401,
      "위반": 9402,
      "헨리": 9403,
      "리더": 9404,
      "##화되어": 9405,
      "##무라": 9406,
      "1966년": 9407,
      "하나인": 9408,
      "미군": 9409,
      "주장하였다": 9410,
      "##저우": 9411,
      "무시": 9412,
      "유기": 9413,
      "동작": 9414,
      "상품": 9415,
      "것이라": 9416,
      "하였으며": 9417,
      "##장인": 9418,
      "그렇게": 9419,
      "후속": 9420,
      "##마이": 9421,
      "1965년": 9422,
      "알려졌다": 9423,
      "1위": 9424,
      "인접": 9425,
      "파라": 9426,
      "말에": 9427,
      "He": 9428,
      "음악을": 9429,
      "Lo": 9430,
      "##명과": 9431,
      "##20": 9432,
      "되며": 9433,
      "소녀": 9434,
      "가졌다": 9435,
      "오랫": 9436,
      "53": 9437,
      "의무": 9438,
      "##미는": 9439,
      "##선과": 9440,
      "사용되고": 9441,
      "건국": 9442,
      "때의": 9443,
      "조작": 9444,
      "##없는": 9445,
      "세인트": 9446,
      "일정": 9447,
      "##ST": 9448,
      "특별한": 9449,
      "트랜": 9450,
      "##end": 9451,
      "##노동": 9452,
      "0으로": 9453,
      "승진": 9454,
      "카르": 9455,
      "##나이티": 9456,
      "49": 9457,
      "51": 9458,
      "브루": 9459,
      "##ik": 9460,
      "자극": 9461,
      "##제와": 9462,
      "##이센": 9463,
      "빌보드": 9464,
      "완료": 9465,
      "후기": 9466,
      "##바로": 9467,
      "##론의": 9468,
      "소장": 9469,
      "지냈": 9470,
      "##프레": 9471,
      "##왕이": 9472,
      "접촉": 9473,
      "##민족": 9474,
      "형태를": 9475,
      "개막": 9476,
      "문제로": 9477,
      "##자들에게": 9478,
      "예수": 9479,
      "1941년": 9480,
      "처형": 9481,
      "바깥": 9482,
      "질병": 9483,
      "##항을": 9484,
      "대통령이": 9485,
      "##구에서": 9486,
      "##레오": 9487,
      "제공한다": 9488,
      "올려": 9489,
      "좌우": 9490,
      "출신으로": 9491,
      "엔터테인먼": 9492,
      "마치": 9493,
      "오랫동안": 9494,
      "분위": 9495,
      "수원": 9496,
      "##일이": 9497,
      "분할": 9498,
      "##산화": 9499,
      "심각한": 9500,
      "동성": 9501,
      "시리아": 9502,
      "보안": 9503,
      "강원도": 9504,
      "##연히": 9505,
      "유나이티": 9506,
      "##ok": 9507,
      "둘째": 9508,
      "밀도는": 9509,
      "갔다": 9510,
      "##방을": 9511,
      "무너": 9512,
      "600": 9513,
      "썼다": 9514,
      "##동으로": 9515,
      "800": 9516,
      "그레이": 9517,
      "개발한": 9518,
      "버전": 9519,
      "##조사": 9520,
      "개최된": 9521,
      "받아들여": 9522,
      "3세": 9523,
      "선수가": 9524,
      "메시": 9525,
      "주관": 9526,
      "##되었다고": 9527,
      "##다면": 9528,
      "개입": 9529,
      "보관": 9530,
      "에피소": 9531,
      "쓰는": 9532,
      "##임이": 9533,
      "전라남도": 9534,
      "연대": 9535,
      "##주었다": 9536,
      "##연맹": 9537,
      "해양": 9538,
      "##ure": 9539,
      "이루어졌다": 9540,
      "성적": 9541,
      "##자로서": 9542,
      "바라": 9543,
      "흘러": 9544,
      "##주년": 9545,
      "이성": 9546,
      "아들로": 9547,
      "##씨의": 9548,
      "단독": 9549,
      "##조판": 9550,
      "4개의": 9551,
      "헤르": 9552,
      "##으니": 9553,
      "배출": 9554,
      "승객": 9555,
      "고속": 9556,
      "시작된": 9557,
      "서버": 9558,
      "시카": 9559,
      "테러": 9560,
      "Coun": 9561,
      "##미의": 9562,
      "1961년": 9563,
      "샤를": 9564,
      "감독이": 9565,
      "##페이": 9566,
      "심지": 9567,
      "##로도": 9568,
      "위치한다": 9569,
      "거두었다": 9570,
      "##였지만": 9571,
      "베스트": 9572,
      "99": 9573,
      "제8": 9574,
      "함락": 9575,
      "##19": 9576,
      "도쿠": 9577,
      "아메": 9578,
      "##타르": 9579,
      "자세": 9580,
      "역사적": 9581,
      "덴마크": 9582,
      "연재": 9583,
      "크로아": 9584,
      "주장한다": 9585,
      "선조": 9586,
      "사람들의": 9587,
      "활동했다": 9588,
      "민주당": 9589,
      "특이": 9590,
      "7년": 9591,
      "성향": 9592,
      "##시티": 9593,
      "1919년": 9594,
      "복합": 9595,
      "##기간": 9596,
      "##거운": 9597,
      "안에서": 9598,
      "요코": 9599,
      "시에": 9600,
      "혼합": 9601,
      "없으며": 9602,
      "절반": 9603,
      "##조직": 9604,
      "##인들을": 9605,
      "발발": 9606,
      "항성": 9607,
      "시위": 9608,
      "##하였다고": 9609,
      "의미를": 9610,
      "상대적으로": 9611,
      "골을": 9612,
      "##었기": 9613,
      "침략": 9614,
      "56": 9615,
      "##산에": 9616,
      "후지": 9617,
      "지금까지": 9618,
      "##ment": 9619,
      "예비": 9620,
      "희생": 9621,
      "부분을": 9622,
      "##iver": 9623,
      "##책을": 9624,
      "##평가": 9625,
      "후계": 9626,
      "새겨": 9627,
      "조종": 9628,
      "그레": 9629,
      "##들에서": 9630,
      "##파는": 9631,
      "120": 9632,
      "일부를": 9633,
      "##ib": 9634,
      "##레옹": 9635,
      "세계의": 9636,
      "잡지": 9637,
      "관계가": 9638,
      "지위를": 9639,
      "##생물": 9640,
      "스미": 9641,
      "지급": 9642,
      "군주": 9643,
      "기회를": 9644,
      "뜻하는": 9645,
      "##역에서": 9646,
      "변화를": 9647,
      "터널": 9648,
      "##표를": 9649,
      "##슨의": 9650,
      "이후의": 9651,
      "##이었지만": 9652,
      "않게": 9653,
      "테이": 9654,
      "분명": 9655,
      "주전": 9656,
      "Me": 9657,
      "얻은": 9658,
      "추천": 9659,
      "##디션": 9660,
      "##전문": 9661,
      "행동을": 9662,
      "##범위": 9663,
      "김일": 9664,
      "아시안": 9665,
      "쓰고": 9666,
      "유럽의": 9667,
      "규모의": 9668,
      "노출": 9669,
      "##qu": 9670,
      "상황에서": 9671,
      "사망했다": 9672,
      "1970년대": 9673,
      "기울": 9674,
      "장교": 9675,
      "새롭게": 9676,
      "##포르": 9677,
      "그때": 9678,
      "##석은": 9679,
      "누구": 9680,
      "1939년": 9681,
      "대개": 9682,
      "하에": 9683,
      "뉴스": 9684,
      "##으로도": 9685,
      "구현": 9686,
      "레오": 9687,
      "##하였던": 9688,
      "##사관": 9689,
      "##리다": 9690,
      "##리칸": 9691,
      "이르러": 9692,
      "공연을": 9693,
      "##질이": 9694,
      "무덤": 9695,
      "##고속도로": 9696,
      "명을": 9697,
      "받았으며": 9698,
      "##각을": 9699,
      "실현": 9700,
      "마이크로소프트": 9701,
      "상태로": 9702,
      "육상": 9703,
      "지내": 9704,
      "보병": 9705,
      "확립": 9706,
      "58": 9707,
      "##부인": 9708,
      "나폴레옹": 9709,
      "95": 9710,
      "아티": 9711,
      "직업": 9712,
      "발견된다": 9713,
      "##름을": 9714,
      "창단": 9715,
      "입장을": 9716,
      "주지": 9717,
      "사냥": 9718,
      "프리미": 9719,
      "독특한": 9720,
      "높이는": 9721,
      "주택": 9722,
      "설득": 9723,
      "##질랜드": 9724,
      "##으로서의": 9725,
      "기둥": 9726,
      "완공": 9727,
      "##그라": 9728,
      "##토의": 9729,
      "보았다": 9730,
      "완전": 9731,
      "천연": 9732,
      "지시": 9733,
      "##투스": 9734,
      "프로그램을": 9735,
      "K리그": 9736,
      "신청": 9737,
      "함수": 9738,
      "경기는": 9739,
      "미니": 9740,
      "한정": 9741,
      "##우리": 9742,
      "나타난다": 9743,
      "듣고": 9744,
      "출범": 9745,
      "후보로": 9746,
      "##IV": 9747,
      "등판": 9748,
      "##복을": 9749,
      "감독을": 9750,
      "##랐다": 9751,
      "##ld": 9752,
      "받는다": 9753,
      "아사": 9754,
      "88": 9755,
      "법칙": 9756,
      "아버지는": 9757,
      "길을": 9758,
      "곡을": 9759,
      "마무": 9760,
      "부르는": 9761,
      "가스": 9762,
      "발굴": 9763,
      "미나": 9764,
      "##교통": 9765,
      "임진": 9766,
      "##민주당": 9767,
      "다스": 9768,
      "재건": 9769,
      "중에는": 9770,
      "마르크": 9771,
      "뉴질랜드": 9772,
      "공군": 9773,
      "어깨": 9774,
      "합쳐": 9775,
      "두려": 9776,
      "##사건": 9777,
      "##라이언": 9778,
      "원년": 9779,
      "방법으로": 9780,
      "있었기": 9781,
      "스탠": 9782,
      "이들을": 9783,
      "신학": 9784,
      "##해가": 9785,
      "길이는": 9786,
      "놓고": 9787,
      "##주의적": 9788,
      "##치게": 9789,
      "85": 9790,
      "충청남도": 9791,
      "##man": 9792,
      "##율을": 9793,
      "성을": 9794,
      "##iv": 9795,
      "어려운": 9796,
      "앞에서": 9797,
      "사임": 9798,
      "사람들을": 9799,
      "아라": 9800,
      "번의": 9801,
      "불렀다": 9802,
      "침입": 9803,
      "추구": 9804,
      "부상을": 9805,
      "두었다": 9806,
      "##해져": 9807,
      "이름의": 9808,
      "170": 9809,
      "지역으로": 9810,
      "졸업하고": 9811,
      "전까지": 9812,
      "데에": 9813,
      "포함한다": 9814,
      "##적의": 9815,
      "##시스": 9816,
      "행위": 9817,
      "##ct": 9818,
      "일으키": 9819,
      "효과를": 9820,
      "가지는": 9821,
      "제공하는": 9822,
      "합격": 9823,
      "멀리": 9824,
      "##스럽게": 9825,
      "치러": 9826,
      "롯데": 9827,
      "자이": 9828,
      "이고": 9829,
      "반도": 9830,
      "근본": 9831,
      "방면": 9832,
      "##뮤니": 9833,
      "개신교": 9834,
      "미드": 9835,
      "##되는데": 9836,
      "다르다": 9837,
      "경우에": 9838,
      "인구가": 9839,
      "준우": 9840,
      "프로이센": 9841,
      "00": 9842,
      "완전한": 9843,
      "음식": 9844,
      "하위": 9845,
      "당초": 9846,
      "어린이": 9847,
      "망명": 9848,
      "이기": 9849,
      "시작한다": 9850,
      "폐쇄": 9851,
      "기록이": 9852,
      "재배": 9853,
      "##여서": 9854,
      "해야": 9855,
      "국민의": 9856,
      "Se": 9857,
      "노래를": 9858,
      "취소": 9859,
      "##ational": 9860,
      "지켜": 9861,
      "##iz": 9862,
      "나왔다": 9863,
      "##화되었다": 9864,
      "##타는": 9865,
      "##상태": 9866,
      "66": 9867,
      "단지": 9868,
      "유행": 9869,
      "참전": 9870,
      "##체와": 9871,
      "돈을": 9872,
      "가담": 9873,
      "##일로": 9874,
      "편찬": 9875,
      "##리코": 9876,
      "미야": 9877,
      "특정한": 9878,
      "변환": 9879,
      "아스": 9880,
      "##가인": 9881,
      "##함과": 9882,
      "만들어졌다": 9883,
      "가문의": 9884,
      "간행": 9885,
      "도와": 9886,
      "역으로": 9887,
      "162": 9888,
      "관여": 9889,
      "##섰다": 9890,
      "1960년대": 9891,
      "##련의": 9892,
      "몰아": 9893,
      "의식": 9894,
      "##하지는": 9895,
      "고문": 9896,
      "나아가": 9897,
      "배우이다": 9898,
      "차이": 9899,
      "필요가": 9900,
      "녹색": 9901,
      "독립운동": 9902,
      "알파": 9903,
      "적합": 9904,
      "##쿠스": 9905,
      "##텐츠": 9906,
      "##앤젤": 9907,
      "성공을": 9908,
      "로켓": 9909,
      "1947년": 9910,
      "언제": 9911,
      "##예술": 9912,
      "만들고": 9913,
      "1920년": 9914,
      "반란을": 9915,
      "##BA": 9916,
      "저서": 9917,
      "##비치": 9918,
      "분노": 9919,
      "위성": 9920,
      "##무부": 9921,
      "기록하였다": 9922,
      "혐의로": 9923,
      "처벌": 9924,
      "최우": 9925,
      "발생하는": 9926,
      "##조로": 9927,
      "##터가": 9928,
      "##니가": 9929,
      "학술": 9930,
      "##지원": 9931,
      "##났고": 9932,
      "관련이": 9933,
      "##ov": 9934,
      "왕실": 9935,
      "동아": 9936,
      "거듭": 9937,
      "통산": 9938,
      "##총독": 9939,
      "중인": 9940,
      "##미야": 9941,
      "벗어나": 9942,
      "일시": 9943,
      "조별": 9944,
      "텍사": 9945,
      "코르": 9946,
      "황금": 9947,
      "##었을": 9948,
      "##리나": 9949,
      "부하": 9950,
      "철수": 9951,
      "##의의": 9952,
      "##통신": 9953,
      "로스앤젤": 9954,
      "의심": 9955,
      "인디언": 9956,
      "정지": 9957,
      "##니즘": 9958,
      "제작한": 9959,
      "##학자들은": 9960,
      "공헌": 9961,
      "저술": 9962,
      "##개혁": 9963,
      "##판이": 9964,
      "광범위": 9965,
      "까지": 9966,
      "##티오": 9967,
      "인쇄": 9968,
      "##동은": 9969,
      "##방의": 9970,
      "소속으로": 9971,
      "##인민공화국의": 9972,
      "빅토": 9973,
      "##물이다": 9974,
      "##어야": 9975,
      "곡은": 9976,
      "일본에": 9977,
      "##일본": 9978,
      "공업": 9979,
      "1958년": 9980,
      "##AR": 9981,
      "1000": 9982,
      "발견되었다": 9983,
      "국회": 9984,
      "엄청난": 9985,
      "유일하게": 9986,
      "데이비드": 9987,
      "코로나": 9988,
      "돌아와": 9989,
      "세력을": 9990,
      "##종을": 9991,
      "##린은": 9992,
      "않지만": 9993,
      "들고": 9994,
      "다르게": 9995,
      "테스트": 9996,
      "가슴": 9997,
      "펼쳐": 9998,
      "사우": 9999,
      "##이므로": 10000,
      "##ock": 10001,
      "부대": 10002,
      "##화한": 10003,
      "도시의": 10004,
      "화물": 10005,
      "올렸다": 10006,
      "##되었다가": 10007,
      "터미널": 10008,
      "##토니": 10009,
      "##파를": 10010,
      "##ect": 10011,
      "정기": 10012,
      "도덕": 10013,
      "##바라": 10014,
      "어디": 10015,
      "단편": 10016,
      "맡은": 10017,
      "중이다": 10018,
      "##마르": 10019,
      "1956년": 10020,
      "가치": 10021,
      "단어": 10022,
      "##역의": 10023,
      "해도": 10024,
      "US": 10025,
      "##계획": 10026,
      "석유": 10027,
      "페이": 10028,
      "사운드": 10029,
      "인권": 10030,
      "##ly": 10031,
      "57": 10032,
      "1942년": 10033,
      "무게": 10034,
      "##령이": 10035,
      "김영": 10036,
      "속한": 10037,
      "후원": 10038,
      "##재판": 10039,
      "##ast": 10040,
      "시스템을": 10041,
      "##ind": 10042,
      "로마의": 10043,
      "제일": 10044,
      "기다": 10045,
      "##론은": 10046,
      "##one": 10047,
      "대리": 10048,
      "대수": 10049,
      "벌어": 10050,
      "##선수": 10051,
      "161": 10052,
      "이루고": 10053,
      "대부분이": 10054,
      "나이로": 10055,
      "내렸다": 10056,
      "현상": 10057,
      "확률": 10058,
      "##론이": 10059,
      "You": 10060,
      "다소": 10061,
      "##치지": 10062,
      "정비": 10063,
      "##무늬": 10064,
      "상위": 10065,
      "##요시": 10066,
      "##고는": 10067,
      "##머스": 10068,
      "##au": 10069,
      "포함하고": 10070,
      "고유": 10071,
      "임금": 10072,
      "5개": 10073,
      "드라이": 10074,
      "영화는": 10075,
      "끌어": 10076,
      "##층의": 10077,
      "NA": 10078,
      "##시에서": 10079,
      "##퍼드": 10080,
      "1만": 10081,
      "플래": 10082,
      "다운": 10083,
      "##지컬": 10084,
      "지지를": 10085,
      "##진의": 10086,
      "자리잡": 10087,
      "변형": 10088,
      "##슬러": 10089,
      "개체": 10090,
      "소송": 10091,
      "##사이트": 10092,
      "##ory": 10093,
      "따로": 10094,
      "##터의": 10095,
      "##석의": 10096,
      "##동맹": 10097,
      "##양을": 10098,
      "클라": 10099,
      "이시": 10100,
      "2000": 10101,
      "대표하는": 10102,
      "신호": 10103,
      "신체": 10104,
      "##고기": 10105,
      "사망한": 10106,
      "##터리": 10107,
      "나타나는": 10108,
      "성적을": 10109,
      "##에른": 10110,
      "긍정": 10111,
      "투쟁": 10112,
      "##역이": 10113,
      "다수": 10114,
      "##카가": 10115,
      "km2": 10116,
      "크기": 10117,
      "##듯이": 10118,
      "##관계": 10119,
      "강등": 10120,
      "프라": 10121,
      "##백만": 10122,
      "##주고": 10123,
      "1943년": 10124,
      "SK": 10125,
      "전면": 10126,
      "미국과": 10127,
      "시카고": 10128,
      "왕조": 10129,
      "해리": 10130,
      "메인": 10131,
      "포지션은": 10132,
      "##내에": 10133,
      "계통": 10134,
      "63": 10135,
      "프린": 10136,
      "##학에서": 10137,
      "그곳에서": 10138,
      "존재하지": 10139,
      "나타내": 10140,
      "쓰이는": 10141,
      "영웅": 10142,
      "바닥": 10143,
      "##브라": 10144,
      "노벨": 10145,
      "##ith": 10146,
      "출장": 10147,
      "##진은": 10148,
      "프리드리": 10149,
      "Par": 10150,
      "기상": 10151,
      "눈에": 10152,
      "정체": 10153,
      "##자료": 10154,
      "소련의": 10155,
      "여겨진다": 10156,
      "오직": 10157,
      "홍보": 10158,
      "175": 10159,
      "전형": 10160,
      "프랑크": 10161,
      "지은": 10162,
      "탈퇴": 10163,
      "##프리": 10164,
      "활동하였다": 10165,
      "##진이": 10166,
      "##인도": 10167,
      "스카": 10168,
      "가게": 10169,
      "준다": 10170,
      "##관과": 10171,
      "연구에": 10172,
      "##로와": 10173,
      "원주민": 10174,
      "62": 10175,
      "보여준다": 10176,
      "등급": 10177,
      "밝히": 10178,
      "부친": 10179,
      "##국민": 10180,
      "##신으로": 10181,
      "영상": 10182,
      "1959년": 10183,
      "프로그래": 10184,
      "감독으로": 10185,
      "영국에서": 10186,
      "논문": 10187,
      "즉시": 10188,
      "68": 10189,
      "##드라": 10190,
      "##루가": 10191,
      "##파가": 10192,
      "초에": 10193,
      "동안에": 10194,
      "##체스터": 10195,
      "게다가": 10196,
      "못하는": 10197,
      "권력을": 10198,
      "##중앙": 10199,
      "지속적으로": 10200,
      "Am": 10201,
      "스프": 10202,
      "그래픽": 10203,
      "다케": 10204,
      "수요": 10205,
      "##재로": 10206,
      "비례": 10207,
      "활약을": 10208,
      "다다": 10209,
      "레알": 10210,
      "조지아": 10211,
      "내가": 10212,
      "##되어야": 10213,
      "매일": 10214,
      "있었다고": 10215,
      "사실이": 10216,
      "스페인의": 10217,
      "주장을": 10218,
      "176": 10219,
      "스키": 10220,
      "부분이": 10221,
      "##씨는": 10222,
      "##카이도": 10223,
      "사용된": 10224,
      "지도자": 10225,
      "리처": 10226,
      "자리에": 10227,
      "##하므로": 10228,
      "선박": 10229,
      "명나라": 10230,
      "1954년": 10231,
      "##되지만": 10232,
      "방해": 10233,
      "이혼": 10234,
      "##안의": 10235,
      "그것이": 10236,
      "##에이": 10237,
      "챔피언십": 10238,
      "민중": 10239,
      "위로": 10240,
      "##들이다": 10241,
      "##조선": 10242,
      "가나": 10243,
      "금메달을": 10244,
      "성경": 10245,
      "학살": 10246,
      "주최": 10247,
      "이끌었다": 10248,
      "바이에른": 10249,
      "맞아": 10250,
      "##받는": 10251,
      "박정희": 10252,
      "##동과": 10253,
      "##키가": 10254,
      "의학": 10255,
      "커뮤니": 10256,
      "1952년": 10257,
      "참여했다": 10258,
      "변경되었다": 10259,
      "##족이": 10260,
      "72": 10261,
      "곳으로": 10262,
      "권력": 10263,
      "여객철도": 10264,
      "복잡한": 10265,
      "관료": 10266,
      "일어나는": 10267,
      "우리는": 10268,
      "##물에": 10269,
      "일부가": 10270,
      "작품이다": 10271,
      "##보고": 10272,
      "세계적으로": 10273,
      "남쪽으로": 10274,
      "체제": 10275,
      "##르기": 10276,
      "##ust": 10277,
      "유고": 10278,
      "명칭은": 10279,
      "구입": 10280,
      "개조": 10281,
      "작동": 10282,
      "히틀러": 10283,
      "가리키는": 10284,
      "알바": 10285,
      "74": 10286,
      "파트": 10287,
      "현지": 10288,
      "##포를": 10289,
      "##학교를": 10290,
      "IC": 10291,
      "않으면": 10292,
      "##함이": 10293,
      "이후에도": 10294,
      "##ER": 10295,
      "부담": 10296,
      "해상": 10297,
      "억제": 10298,
      "통계": 10299,
      "##우가": 10300,
      "158": 10301,
      "의혹": 10302,
      "집권": 10303,
      "##류는": 10304,
      "느낌": 10305,
      "정교": 10306,
      "##시험": 10307,
      "명령을": 10308,
      "지금은": 10309,
      "크고": 10310,
      "문제에": 10311,
      "##인에게": 10312,
      "선전": 10313,
      "스마트": 10314,
      "보유하고": 10315,
      "천주교": 10316,
      "##영을": 10317,
      "고속도로": 10318,
      "분자": 10319,
      "164": 10320,
      "IS": 10321,
      "이들이": 10322,
      "책임을": 10323,
      "사업을": 10324,
      "##정과": 10325,
      "브라운": 10326,
      "병합": 10327,
      "시나": 10328,
      "니시": 10329,
      "나누어": 10330,
      "전부": 10331,
      "##색의": 10332,
      "되는데": 10333,
      "상을": 10334,
      "163": 10335,
      "순간": 10336,
      "1953년": 10337,
      "받아들이": 10338,
      "바뀌었다": 10339,
      "바르셀": 10340,
      "이른바": 10341,
      "다음날": 10342,
      "대통령은": 10343,
      "방지": 10344,
      "오프": 10345,
      "##리며": 10346,
      "##ond": 10347,
      "연결하는": 10348,
      "공중": 10349,
      "줄어들": 10350,
      "SBS": 10351,
      "협회": 10352,
      "##례를": 10353,
      "##세로": 10354,
      "대통령의": 10355,
      "장비": 10356,
      "##ood": 10357,
      "##ath": 10358,
      "선정되었다": 10359,
      "##관에서": 10360,
      "속한다": 10361,
      "프로토": 10362,
      "##tern": 10363,
      "호소": 10364,
      "대회에": 10365,
      "리버": 10366,
      "##우를": 10367,
      "##우주": 10368,
      "사망하였다": 10369,
      "도요": 10370,
      "방식을": 10371,
      "##종으로": 10372,
      "연간": 10373,
      "CO": 10374,
      "##역은": 10375,
      "위치를": 10376,
      "서울대학교": 10377,
      "전쟁에서": 10378,
      "뜻한다": 10379,
      "##는지": 10380,
      "##오스": 10381,
      "재개": 10382,
      "상황을": 10383,
      "##역에": 10384,
      "개별": 10385,
      "일어났다": 10386,
      "그로": 10387,
      "발탁": 10388,
      "En": 10389,
      "98": 10390,
      "이었다": 10391,
      "일정한": 10392,
      "##축구": 10393,
      "##세대": 10394,
      "##처를": 10395,
      "##천만": 10396,
      "한나라": 10397,
      "사단": 10398,
      "희망": 10399,
      "##씨가": 10400,
      "##질의": 10401,
      "부분은": 10402,
      "Sc": 10403,
      "로봇": 10404,
      "필요하다": 10405,
      "시리즈의": 10406,
      "중부": 10407,
      "1955년": 10408,
      "없을": 10409,
      "이온": 10410,
      "연습": 10411,
      "##차는": 10412,
      "이어지는": 10413,
      "내셔널": 10414,
      "더블": 10415,
      "추방": 10416,
      "시인": 10417,
      "##스트로": 10418,
      "##ence": 10419,
      "도모": 10420,
      "파르": 10421,
      "포함하는": 10422,
      "##km2이고": 10423,
      "양의": 10424,
      "전쟁에": 10425,
      "점이": 10426,
      "구매": 10427,
      "##직에": 10428,
      "액션": 10429,
      "찰스": 10430,
      "##BO": 10431,
      "완벽": 10432,
      "##안이": 10433,
      "로드": 10434,
      "##연을": 10435,
      "단위": 10436,
      "돌려": 10437,
      "맞서": 10438,
      "##tive": 10439,
      "내용이": 10440,
      "문을": 10441,
      "심리": 10442,
      "역은": 10443,
      "만한": 10444,
      "갑자기": 10445,
      "네이": 10446,
      "인용": 10447,
      "조선의": 10448,
      "73": 10449,
      "##IA": 10450,
      "##공사": 10451,
      "정차": 10452,
      "되돌": 10453,
      "노르웨이": 10454,
      "아테네": 10455,
      "못하였다": 10456,
      "쿠데": 10457,
      "타임": 10458,
      "밝혀졌다": 10459,
      "충분히": 10460,
      "검토": 10461,
      "##느냐": 10462,
      "경주": 10463,
      "국제공항": 10464,
      "공사": 10465,
      "노스": 10466,
      "상실": 10467,
      "AP": 10468,
      "Ro": 10469,
      "장남": 10470,
      "싱가": 10471,
      "##즈가": 10472,
      "통상": 10473,
      "열렸다": 10474,
      "말하는": 10475,
      "이웃": 10476,
      "자라": 10477,
      "얻을": 10478,
      "사람들에게": 10479,
      "후임": 10480,
      "2022년": 10481,
      "군이다": 10482,
      "##격이": 10483,
      "아들인": 10484,
      "Ma": 10485,
      "대장": 10486,
      "제이": 10487,
      "아름다운": 10488,
      "59": 10489,
      "투어": 10490,
      "##전에서는": 10491,
      "화이트": 10492,
      "##루를": 10493,
      "##왕은": 10494,
      "복무": 10495,
      "152": 10496,
      "능력": 10497,
      "임무": 10498,
      "SS": 10499,
      "수십": 10500,
      "없게": 10501,
      "##왜란": 10502,
      "이상이": 10503,
      "루마": 10504,
      "사용했다": 10505,
      "계속해서": 10506,
      "북쪽으로": 10507,
      "자금": 10508,
      "추기": 10509,
      "개념을": 10510,
      "미사일": 10511,
      "밀려": 10512,
      "마크": 10513,
      "이전에는": 10514,
      "플레이오프": 10515,
      "쓰여": 10516,
      "역사를": 10517,
      "책을": 10518,
      "18세기": 10519,
      "특징이다": 10520,
      "유형문화재": 10521,
      "티베": 10522,
      "##우의": 10523,
      "살인": 10524,
      "조선총독": 10525,
      "만다": 10526,
      "비상": 10527,
      "세웠": 10528,
      "76": 10529,
      "가이": 10530,
      "국도": 10531,
      "##ial": 10532,
      "##달러": 10533,
      "브레": 10534,
      "궤도": 10535,
      "##마를": 10536,
      "여성의": 10537,
      "일련의": 10538,
      "남아프리카": 10539,
      "700": 10540,
      "왕의": 10541,
      "반응을": 10542,
      "무사": 10543,
      "##다란": 10544,
      "상태에서": 10545,
      "추가로": 10546,
      "분야에서": 10547,
      "물을": 10548,
      "성직": 10549,
      "언덕": 10550,
      "했는데": 10551,
      "초기에": 10552,
      "대체로": 10553,
      "동양": 10554,
      "뮤지컬": 10555,
      "남아있": 10556,
      "전력": 10557,
      "나왔": 10558,
      "초등학교": 10559,
      "##ide": 10560,
      "왕이": 10561,
      "##영은": 10562,
      "저녁": 10563,
      "한글": 10564,
      "게임을": 10565,
      "연산": 10566,
      "1918년": 10567,
      "다룬": 10568,
      "##sh": 10569,
      "대량": 10570,
      "##개가": 10571,
      "##경이": 10572,
      "140": 10573,
      "종사": 10574,
      "프리드리히": 10575,
      "165": 10576,
      "1938년": 10577,
      "임진왜란": 10578,
      "##데이": 10579,
      "##렬한": 10580,
      "##했다가": 10581,
      "화합": 10582,
      "1인": 10583,
      "토지": 10584,
      "아이디": 10585,
      "그들을": 10586,
      "내세": 10587,
      "나타났다": 10588,
      "기소": 10589,
      "상하이": 10590,
      "카드": 10591,
      "##만으로": 10592,
      "##박물": 10593,
      "2세는": 10594,
      "달하는": 10595,
      "코파": 10596,
      "##타운": 10597,
      "말레이시아": 10598,
      "개칭": 10599,
      "확산": 10600,
      "조카": 10601,
      "경향이": 10602,
      "##강의": 10603,
      "##색으로": 10604,
      "단순한": 10605,
      "강점": 10606,
      "벌어진": 10607,
      "포스트": 10608,
      "미국은": 10609,
      "커버": 10610,
      "화려": 10611,
      "156": 10612,
      "개인의": 10613,
      "계곡": 10614,
      "선포": 10615,
      "1957년": 10616,
      "##마는": 10617,
      "전쟁의": 10618,
      "아버지의": 10619,
      "부진": 10620,
      "다리": 10621,
      "##레아": 10622,
      "갖추고": 10623,
      "마무리": 10624,
      "##렸으며": 10625,
      "168": 10626,
      "##체육": 10627,
      "흑인": 10628,
      "##고가": 10629,
      "내놓": 10630,
      "##동생": 10631,
      "사회의": 10632,
      "자원": 10633,
      "##평을": 10634,
      "주기": 10635,
      "96": 10636,
      "수의": 10637,
      "##니스탄": 10638,
      "직원": 10639,
      "61": 10640,
      "독립을": 10641,
      "작품으로": 10642,
      "골든": 10643,
      "권리를": 10644,
      "20년": 10645,
      "근처에": 10646,
      "County": 10647,
      "무한": 10648,
      "선생": 10649,
      "소식을": 10650,
      "오버": 10651,
      "프로듀서": 10652,
      "시작했고": 10653,
      "##트릭": 10654,
      "##kg": 10655,
      "##크와": 10656,
      "싸우": 10657,
      "소멸": 10658,
      "지불": 10659,
      "임대": 10660,
      "징역": 10661,
      "필수": 10662,
      "##야의": 10663,
      "##TA": 10664,
      "파워": 10665,
      "1936년": 10666,
      "외국인": 10667,
      "기병": 10668,
      "##하기를": 10669,
      "전주": 10670,
      "NH": 10671,
      "군인": 10672,
      "##르를": 10673,
      "루트": 10674,
      "여섯": 10675,
      "##점의": 10676,
      "##파로": 10677,
      "77": 10678,
      "후인": 10679,
      "히트": 10680,
      "비롯하여": 10681,
      "일으켜": 10682,
      "가까이": 10683,
      "텍사스": 10684,
      "꾸준": 10685,
      "##투아": 10686,
      "##조차": 10687,
      "달려": 10688,
      "입고": 10689,
      "영업": 10690,
      "분해": 10691,
      "에르": 10692,
      "전신": 10693,
      "창작": 10694,
      "##만한": 10695,
      "상호작용": 10696,
      "구글": 10697,
      "도전": 10698,
      "극장": 10699,
      "상관": 10700,
      "위대한": 10701,
      "##지이다": 10702,
      "##가들은": 10703,
      "해발": 10704,
      "단순히": 10705,
      "라이트": 10706,
      "수소": 10707,
      "의미하는": 10708,
      "총선": 10709,
      "격파": 10710,
      "블라": 10711,
      "수석": 10712,
      "탄압": 10713,
      "67": 10714,
[...]
