[PAD]
[UNK]
[CLS]
[SEP]
[MASK]
"
'
0
1
2
3
4
5
6
7
8
9
A
B
C
D
E
F
G
H
I
J
K
L
M
N
O
P
Q
R
S
T
U
V
W
X
Y
Z
a
b
c
d
e
f
g
h
i
j
k
l
m
n
o
p
q
r
s
t
u
v
w
x
y
z
ㄱ
ㄲ
ㄳ
ㄴ
ㄵ
ㄶ
ㄷ
ㄸ
ㄹ
ㄺ
ㄻ
ㄼ
ㄽ
ㄾ
ㄿ
ㅀ
ㅁ
ㅂ
ㅃ
ㅄ
ㅅ
ㅆ
ㅇ
ㅈ
ㅉ
ㅊ
ㅋ
ㅌ
ㅍ
ㅎ
ㅏ
ㅐ
ㅑ
ㅒ
ㅓ
ㅔ
ㅕ
ㅖ
ㅗ
ㅘ
ㅙ
ㅚ
ㅛ
ㅜ
ㅝ
ㅞ
ㅟ
ㅠ
ㅡ
ㅢ
ㅣ
가
각
갂
간
갇
갈
갉
감
갑
값
갓
갔
강
갖
갗
갘
같
갚
갛
개
객
갠
갤
갬
갭
갯
갰
갱
갶
갸
갹
갼
걀
걈
걋
걍
걑
걔
걘
거
걱
걲
건
걷
걸
검
겁
겂
것
겄
겅
겇
겉
겊
겋
게
겍
겐
겔
겜
겝
겟
겠
겡
겣
겨
격
겪
견
겯
결
겸
겹
겻
겼
경
겿
곁
곂
계
곅
곈
곗
곘
고
곡
곤
곧
골
곪
곬
곯
곰
곱
곳
공
곶
곷
곹
곺
과
곽
관
괁
괄
괌
괍
괏
광
괕
괘
괜
괭
괴
괵
괸
괼
굄
굇
굉
교
굑
굔
굘
굠
굣
굥
굦
구
국
군
굳
굴
굵
굶
굻
굼
굽
굿
궁
궂
궃
궇
궈
궉
권
궎
궐
궘
궜
궝
궡
궤
궨
궬
궴
궷
귀
귁
귄
귈
귐
귑
귓
규
귝
균
귤
귬
그
극
근
귿
글
긁
긆
금
급
긋
긍
긑
긔
긜
기
긱
긴
긷
길
긾
김
깁
깂
깃
깄
깅
깆
깊
깋
까
깍
깎
깐
깓
깔
깖
깜
깝
깟
깠
깡
깢
깥
깨
깩
깬
깰
깸
깹
깻
깼
깽
꺄
꺅
꺌
꺠
꺤
꺼
꺽
꺾
껀
껄
껌
껍
껏
껐
껑
께
껙
껜
껠
껩
껫
껭
껴
껶
껸
껼
꼇
꼈
꼍
꼬
꼭
꼮
꼰
꼳
꼴
꼼
꼽
꼿
꽁
꽂
꽃
꽅
꽆
꽈
꽉
꽌
꽐
꽛
꽝
꽤
꽥
꽦
꽨
꽹
꾀
꾄
꾐
꾕
꾜
꾸
꾹
꾼
꾾
꾿
꿀
꿇
꿈
꿉
꿋
꿍
꿎
꿏
꿔
꿕
꿘
꿨
꿩
꿰
꿴
꿸
뀀
뀌
뀍
뀐
뀔
뀜
뀝
뀠
뀨
끄
끅
끈
끊
끌
끍
끎
끓
끔
끕
끗
끙
끝
끼
끽
낀
낄
낌
낍
낏
낑
나
낙
낚
낛
난
낟
날
낡
낢
낣
남
납
낫
났
낭
낮
낯
낱
낲
낳
내
낵
낸
낻
낼
냄
냅
냇
냈
냉
냐
냑
냔
냘
냠
냡
냣
냤
냥
냬
넀
넁
너
넉
넋
넌
넎
널
넑
넒
넓
넖
넗
넘
넙
넚
넛
넜
넝
넡
넢
넣
네
넥
넨
넬
넴
넵
넷
넸
넹
녀
녁
년
녅
녈
녋
념
녑
녓
녔
녕
녘
녙
녜
녝
녠
녤
녬
녯
노
녹
논
놀
놂
놈
놉
놋
농
높
놓
놔
놘
놨
놩
놰
뇌
뇍
뇐
뇔
뇜
뇨
뇩
뇬
뇰
뇸
뇻
뇽
누
눅
눈
눋
눌
눔
눕
눗
눙
눞
눠
눴
눼
뉘
뉙
뉜
뉠
뉨
뉩
뉴
뉵
뉸
뉼
늄
늇
늉
느
늑
늒
는
늗
늘
늙
늚
늠
늡
늣
능
늦
늩
늪
늬
늰
늴
늿
니
닉
닌
닐
닑
님
닙
닛
닜
닝
닞
닢
다
닥
닦
단
닫
달
닭
닮
닯
닳
담
답
닷
닸
당
닺
닻
닽
닿
대
댁
댄
댈
댐
댑
댓
댔
댕
댚
댛
댜
댠
댤
댱
댸
더
덕
덖
던
덙
덛
덜
덞
덟
덣
덤
덥
덧
덨
덩
덪
덫
덭
덮
덯
데
덱
덴
델
뎀
뎁
뎃
뎅
뎌
뎐
뎗
뎝
뎠
뎡
뎦
뎨
뎬
뎰
도
독
돇
돈
돋
돌
돎
돐
돔
돕
돗
동
돚
돛
돝
돟
돠
돤
돨
돰
돴
돵
돼
돽
됀
됄
됌
됏
됐
되
됙
된
될
됢
됨
됩
됫
됬
됭
됮
됰
됴
됸
됼
둉
둏
두
둑
둔
둗
둘
둚
둟
둠
둡
둣
둥
둬
둰
둴
둿
뒀
뒁
뒈
뒤
뒨
뒬
뒴
뒵
뒷
뒸
뒹
듀
듁
듄
듈
듐
듕
드
득
든
듣
들
듦
듧
듫
듬
듭
듯
등
듸
디
딕
딘
딛
딜
딤
딥
딧
딨
딩
딪
딫
딯
따
딱
딴
딷
딸
땀
땁
땃
땄
땅
땋
때
땍
땐
땔
땜
땝
땟
땠
땡
땨
땸
땽
떄
떘
떙
떠
떡
떢
떤
떥
떦
떨
떪
떫
떯
떰
떱
떳
떴
떵
떻
떼
뗀
뗄
뗌
뗏
뗐
뗑
뗘
뗬
뗴
뗼
또
똑
똔
똘
똠
똣
똥
똫
똬
뙈
뙡
뙤
뙨
뚜
뚝
뚠
뚤
뚧
뚫
뚬
뚯
뚱
뚸
뛔
뛰
뛴
뛸
뜀
뜁
뜨
뜩
뜬
뜯
뜰
뜷
뜸
뜹
뜻
뜽
띁
띄
띅
띈
띌
띔
띠
띡
띤
띨
띰
띱
띳
띵
라
락
란
랃
랄
람
랍
랏
랐
랑
랒
랓
랖
랗
래
랙
랛
랜
랠
랢
램
랩
랫
랬
랭
랰
랲
랴
략
랸
랼
럄
럅
럇
럈
량
럐
럔
럘
러
럭
런
럲
럴
럼
럽
럿
렀
렁
렃
렆
렇
레
렉
렌
렐
렗
렘
렙
렛
렜
렝
렠
려
력
련
렬
렴
렵
렷
렸
령
례
롄
롈
롐
롓
로
록
론
롤
롬
롭
롯
롱
롲
롸
롹
롼
뢀
뢨
뢰
뢱
뢴
뢸
룀
룁
룅
료
룍
룐
룔
룝
룟
룡
룧
루
룩
룬
룰
룸
룹
룻
룽
뤀
뤄
뤈
뤌
뤗
뤘
뤠
뤡
뤨
뤵
뤼
뤽
륀
륄
륌
륍
륏
륐
륑
류
륙
륜
률
륨
륩
륫
륭
륱
르
륵
른
륻
를
륽
름
릅
릇
릉
릊
릌
릍
릎
릐
릘
리
릭
린
릳
릴
릷
림
립
릿
링
맃
맄
맆
마
막
맊
만
많
맏
말
맑
맔
맗
맘
맙
맛
맜
망
맞
맟
맠
맡
맣
매
맥
맨
맬
맴
맵
맷
맸
맹
맺
맻
맽
먀
먁
먄
먈
먕
먗
머
먹
먼
멀
멂
멈
멉
멋
멍
멎
멏
멓
메
멕
멘
멜
멤
멥
멧
멨
멩
멪
멫
며
멱
면
멵
멸
몀
몃
몄
명
몆
몇
몊
몌
몐
모
목
몫
몬
몯
몰
몴
몸
몹
못
몽
뫂
뫄
뫈
뫔
뫙
뫼
묀
묄
묏
묑
묘
묜
묠
묫
묭
무
묵
묶
문
묻
물
묽
묾
뭄
뭅
뭇
뭉
뭍
뭏
뭐
뭔
뭘
뭡
뭣
뭬
뭰
뭴
뮈
뮌
뮐
뮝
뮤
뮨
뮬
뮴
뮺
므
믁
믄
믈
믐
믓
믕
믜
믠
믯
미
믹
민
믾
믿
밀
밂
밈
밉
밋
밌
밍
밎
및
밑
밒
바
박
밖
반
밚
받
발
밝
밞
밟
밠
밡
밣
밤
밥
밧
밨
방
밪
밫
밭
밯
배
백
밴
밷
밸
뱀
뱁
뱃
뱄
뱅
뱆
뱉
뱌
뱍
뱐
뱔
뱜
뱟
뱡
버
벅
번
벉
벋
벌
벏
범
법
벗
벙
벚
벛
벜
베
벡
벤
벧
벨
벰
벱
벳
벴
벵
벹
벼
벽
변
별
볍
볏
볐
병
볓
볕
볘
볙
볜
볠
보
복
볶
본
볻
볼
봄
봅
봇
봉
봍
봐
봔
봘
봣
봤
봥
봬
봭
뵈
뵉
뵌
뵐
뵘
뵙
뵛
뵜
뵝
뵤
뵨
뵬
뵴
부
북
분
붇
불
붉
붏
붐
붑
붓
붔
붕
붖
붘
붙
붜
붸
뷀
뷁
뷋
뷔
뷕
뷘
뷜
뷤
뷧
뷰
뷴
뷸
븀
븃
브
븍
븐
븓
블
븜
븟
븡
븥
븨
비
빅
빈
빋
빌
빎
빔
빕
빗
빙
빚
빛
빝
빠
빡
빤
빨
빩
빰
빱
빳
빴
빵
빻
빼
빽
뺀
뺄
뺌
뺏
뺐
뺑
뺘
뺙
뺨
뺬
뺴
뺵
뺸
뺼
뻇
뻐
뻑
뻔
뻗
뻘
뻣
뻤
뻥
뻩
뻬
뻰
뻴
뻼
뼈
뼉
뼌
뼘
뼛
뼤
뽀
뽁
뽄
뽈
뽐
뽑
뽕
뽝
뾰
뿅
뿌
뿍
뿐
뿔
뿜
뿟
뿡
쀼
쁘
쁜
쁠
쁨
쁩
쁭
삐
삑
삔
삘
삠
삡
삣
삥
사
삭
삮
삯
산
삳
살
삵
삶
삻
삼
삽
삿
샀
상
샂
샅
샇
새
색
샊
샌
샏
샐
샘
샙
샛
샜
생
샞
샤
샥
샨
샬
샴
샵
샷
샹
샽
샾
섀
섁
섄
섈
섐
섓
섕
서
석
섞
선
섡
섣
설
섥
섦
섨
섬
섭
섯
섰
성
섵
섶
섷
세
섹
센
섿
셀
셈
셉
셋
셌
셍
셑
셔
셕
셖
션
셜
셤
셥
셧
셨
셩
셰
셱
셴
셸
솀
솁
솃
솅
소
속
솎
솏
손
솑
솓
솔
솜
솝
솟
송
솥
솦
솨
솬
솻
솽
쇄
쇘
쇠
쇤
쇨
쇰
쇳
쇼
쇽
숀
숄
숌
숍
숏
숑
숔
숖
수
숙
순
숟
술
숡
숧
숨
숩
숫
숭
숮
숯
숰
숱
숲
숳
숴
숸
쉅
쉈
쉉
쉐
쉑
쉔
쉘
쉠
쉡
쉥
쉬
쉭
쉰
쉴
쉼
쉽
쉿
슁
슈
슉
슌
슐
슘
슙
슛
슝
스
슥
슨
슬
슭
슯
슳
슴
습
슷
승
슼
슽
슾
싀
싄
싈
시
식
신
싡
싣
실
싦
싪
싫
심
십
싯
싰
싱
싲
싵
싶
싸
싹
싼
싾
싿
쌀
쌈
쌉
쌋
쌌
쌍
쌓
쌔
쌕
쌘
쌤
쌩
쌰
쌴
썅
써
썩
썪
썬
썰
썸
썹
썻
썼
썽
쎃
쎄
쎅
쎈
쎌
쎕
쎘
쎙
쎴
쎼
쎾
쏘
쏙
쏜
쏟
쏠
쏨
쏩
쏫
쏭
쏱
쏳
쏴
쏸
쐇
쐈
쐉
쐐
쐑
쐬
쐰
쐼
쑈
쑤
쑥
쑨
쑬
쑴
쑷
쑹
쒀
쒜
쒸
쒼
쓔
쓘
쓩
쓰
쓱
쓴
쓸
쓺
쓿
씀
씁
씃
씅
씉
씌
씐
씨
씩
씬
씰
씸
씹
씻
씼
씽
앃
아
악
앆
안
앉
않
앋
알
앎
앏
앓
암
압
앖
앗
았
앙
앚
앛
앜
앝
앞
앟
애
액
앤
앧
앨
앰
앱
앳
앴
앵
앹
야
약
얀
얂
얄
얅
얆
얇
얉
얊
얌
얍
얏
얐
양
얕
얖
얗
얘
얜
얠
얨
얩
얫
얬
얭
어
억
얶
언
얹
얺
얻
얼
얽
얾
엄
업
없
엇
었
엉
엊
엌
엎
에
엑
엔
엗
엘
엝
엠
엡
엣
엤
엥
엩
엪
여
역
엮
엯
연
엳
열
엵
엶
엷
엹
염
엽
엾
엿
였
영
옄
옅
옆
옇
예
옉
옌
옐
옘
옙
옛
옜
옝
오
옥
온
올
옭
옮
옯
옰
옲
옳
옴
옵
옷
옸
옹
옺
옻
옽
옾
와
왁
완
왈
왐
왑
왓
왔
왕
왜
왝
왠
왬
왯
왰
왱
외
왹
왼
왿
욀
욈
욋
욌
욍
욎
요
욕
욘
욜
욤
욥
욧
욨
용
욯
우
욱
운
욷
울
욺
욿
움
웁
웃
웅
웆
웇
워
웍
원
웑
월
웜
웟
웠
웡
웤
웨
웩
웬
웰
웸
웹
웻
웽
윁
위
윅
윈
윋
윌
윔
윕
윗
윘
윙
윛
윟
유
육
윤
윥
율
윰
윱
윳
융
윶
윷
윻
으
윽
윾
은
읁
읂
읃
을
읅
읆
읇
읊
읋
음
읍
읏
응
읒
읓
읔
읕
읖
읗
의
읙
읜
읠
읨
읫
읭
이
익
읶
인
읹
읺
읻
일
읽
읿
잂
잃
임
입
잆
잇
있
잉
잊
잋
잌
잍
잎
잏
자
작
잔
잖
잗
잘
잙
잚
잛
잠
잡
잣
잤
장
잦
잨
잩
재
잭
잰
잴
잼
잽
잿
쟀
쟁
쟂
쟃
쟈
쟉
쟌
쟐
쟘
쟙
쟛
쟝
쟤
쟨
쟬
저
적
젃
전
젅
젇
절
젊
젋
젏
점
접
젓
젔
정
젖
젗
제
젝
젠
젣
젤
젬
젭
젯
젱
젲
져
젹
젼
젿
졀
졈
졉
졋
졌
졍
졔
졘
졩
조
족
존
졶
졸
좀
좁
좃
종
좆
좇
좋
좌
좍
좐
좔
좡
좧
좨
죄
죈
죌
죔
죕
죗
죙
죠
죡
죤
죵
주
죽
준
줃
줄
줌
줍
줏
중
줘
줜
줫
줬
줴
쥐
쥔
쥘
쥠
쥣
쥬
쥰
쥴
쥼
쥿
즁
즈
즉
즌
즐
즑
즘
즙
즛
증
즞
즤
즨
지
직
진
짇
질
짊
짎
짐
집
짓
짔
징
짖
짘
짙
짚
짛
짜
짝
짠
짢
짤
짥
짦
짧
짫
짬
짭
짮
짯
짰
짱
째
짹
짼
쨀
쨈
쨉
쨋
쨌
쨍
쨔
쨘
쨩
쩃
쩄
쩌
쩍
쩐
쩔
쩜
쩝
쩟
쩡
쩨
쩩
쩬
쩰
쩻
쩽
쪄
쪗
쪘
쪤
쪨
쪼
쪽
쫀
쫃
쫄
쫌
쫍
쫏
쫑
쫒
쫓
쫗
쫘
쫙
쬐
쬔
쬘
쬠
쬬
쬼
쭈
쭉
쭌
쭐
쭘
쭙
쭝
쭤
쮜
쮠
쮸
쯔
쯕
쯘
쯤
쯧
쯩
찌
찍
찎
찐
찔
찜
찝
찟
찡
찢
찣
찧
차
착
찬
찮
찯
찰
찱
참
찹
찻
찼
창
찾
찿
채
책
챈
챌
챔
챕
챗
챘
챙
챠
챡
챤
챦
챨
챰
챱
챵
처
척
천
첟
철
첨
첩
첫
첬
청
첮
체
첵
첸
첼
쳄
쳅
쳇
쳉
쳐
쳑
쳔
쳘
쳠
쳡
쳣
쳤
쳥
쳬
쳰
초
촉
촌
촐
촘
촙
촛
총
촤
촥
촨
촬
촹
쵀
최
쵣
쵤
쵸
쵹
쵼
춈
춉
춍
추
축
춘
춛
출
춝
춤
춥
춧
충
춭
춰
춴
췄
췅
췌
췐
췡
취
췩
췬
췰
췽
츄
츈
츌
츔
츙
츠
측
츤
츨
츩
츰
츳
층
츺
츼
치
칙
친
칠
칡
칢
침
칩
칫
칭
칯
칱
칲
칳
카
칵
칸
칼
캄
캅
캇
캉
캌
캍
캐
캑
캔
캘
캠
캡
캣
캤
캥
캪
캬
캰
캴
컁
컈
커
컥
컨
컫
컬
컴
컵
컷
컸
컹
컽
케
켁
켄
켈
켐
켑
켓
켕
켜
켠
켤
켬
켯
켰
켱
켸
콀
코
콕
콘
콙
콜
콤
콥
콧
콩
콬
콮
콰
콱
콴
콸
쾀
쾁
쾃
쾅
쾌
쾍
쾡
쾨
쾩
쾬
쾰
쾻
쾽
쿄
쿈
쿌
쿙
쿠
쿡
쿤
쿨
쿰
쿱
쿳
쿵
쿼
쿽
퀀
퀄
퀌
퀍
퀏
퀑
퀘
퀜
퀠
퀩
퀭
퀴
퀵
퀸
퀼
큄
큅
큇
큉
큐
큔
큘
큠
큣
큥
크
큭
큰
클
큹
큼
큽
킁
킄
킈
키
킥
킨
킬
킴
킵
킷
킹
킼
킽
타
탁
탄
탇
탈
탉
탐
탑
탓
탔
탕
탘
탙
태
택
탠
탣
탤
탬
탭
탯
탰
탱
탸
탼
턀
턔
터
턱
턴
털
텀
텁
텃
텄
텅
텉
테
텍
텐
텔
텕
템
텝
텟
텡
텥
텦
텨
텬
텼
텽
톄
톈
토
톡
톤
톨
톰
톱
톳
통
톹
톺
톼
퇀
퇘
퇴
퇵
퇸
퇼
툅
툇
툉
툐
툘
툠
툥
투
툭
툰
툴
툼
툽
툿
퉁
퉈
퉜
퉤
튀
튁
튄
튈
튐
튓
튕
튜
튝
튠
튤
튬
튭
튱
트
특
튼
튽
튿
틀
틂
틈
틉
틋
틍
틑
틔
틩
티
틱
틴
틸
팀
팁
팃
팅
팈
팉
파
팍
팎
판
팑
팔
팜
팝
팟
팠
팡
팤
팥
팦
패
팩
팬
팯
팰
팸
팹
팻
팼
팽
퍁
퍄
퍈
퍌
퍙
퍠
퍼
퍽
펀
펄
펌
펍
펏
펐
펑
페
펙
펜
펠
펨
펩
펫
펭
펴
편
펼
폄
폅
폈
평
폏
폐
폘
포
폭
폰
폳
폴
폶
폼
폽
폿
퐁
퐃
퐈
퐌
퐝
퐷
푀
푁
푄
푈
푓
푕
표
푝
푠
푣
푤
푯
푱
푶
푸
푹
푼
풀
풂
품
풋
풍
풔
풜
풰
퓌
퓐
퓔
퓨
퓬
퓰
퓸
프
픈
플
픔
픕
픙
픜
픝
픞
픠
피
픽
핀
필
핌
핍
핏
핑
핒
핔
하
학
한
핝
핞
핟
할
핢
핥
핦
함
합
핫
핬
항
핮
핱
핲
핳
해
핵
핶
핸
핻
핼
햄
햅
햇
했
행
햊
햋
햌
햏
햐
햑
햔
햗
햘
햝
햠
햡
햣
햤
향
햬
햿
헀
헁
허
헉
헌
헐
험
헙
헛
헜
헝
헤
헥
헨
헬
헰
헴
헵
헷
헸
헹
헿
혀
혁
현
혅
혈
혐
협
혓
혔
형
혜
혠
혤
혬
혯
혱
호
혹
혼
혿
홀
홈
홉
홋
홍
홑
홓
화
확
환
홛
활
홤
홥
홧
황
홰
홱
횃
횄
회
획
횐
횓
횔
횝
횟
횡
효
횩
횬
횰
횻
횽
후
훅
훈
훋
훌
훍
훑
훓
훔
훕
훗
훙
훜
훝
훠
훤
훨
훵
훼
훽
휀
휄
휏
휑
휘
휙
휜
휠
휨
휩
휫
휭
휴
휼
흄
흉
흐
흑
흔
흗
흘
흙
흝
흠
흡
흥
흩
흫
희
흭
흰
흴
힁
히
힉
힌
힐
힘
힙
힛
힜
힝
##라
##야
##마
##군
##하
##진
##개
##국
##회
##의
##를
##u
##i
##l
##a
##j
##c
##e
##밍
##비
##용
##없
##이
##래
##류
##에
##서
##축
##기
##관
##들
##로
##부
##터
##k
##h
##r
##o
##아
##링
##신
##펙
##크
##릉
##참
##봉
##붙
##는
##데
##되
##었
##n
##b
##채
##동
##으
##단
##였
##다
##1
##0
##m
##2
##와
##민
##투
##표
##가
##출
##석
##스
##타
##당
##광
##도
##시
##답
##게
##어
##을
##K
##케
##미
##칼
##처
##나
##정
##화
##사
##업
##본
##며
##식
##재
##판
##애
##학
##협
##읍
##보
##그
##t
##s
##계
##효
##론
##지
##여
##적
##외
##선
##g
##d
##루
##산
##름
##저
##w
##T
##A
##피
##닝
##은
##므
##황
##영
##강
##현
##7
##달
##러
##역
##원
##상
##공
##모
##션
##환
##경
##족
##란
##체
##L
##p
##텔
##실
##고
##져
##온
##인
##렐
##니
##구
##활
##술
##육
##임
##톤
##핵
##성
##득
##력
##엽
##살
##리
##중
##씨
##해
##병
##품
##드
##매
##레
##일
##테
##집
##립
##토
##문
##종
##평
##음
##패
##랜
##냉
##면
##옥
##각
##입
##소
##위
##대
##겠
##우
##옌
##칸
##별
##혹
##랐
##방
##객
##흥
##주
##점
##감
##파
##슬
##트
##느
##바
##릿
##y
##P
##C
##려
##Q
##희
##양
##함
##벤
##연
##너
##혜
##젠
##발
##복
##얼
##누
##틴
##형
##탈
##치
##료
##제
##자
##할
##혁
##딩
##과
##까
##새
##겨
##티
##오
##워
##배
##S
##수
##두
##질
##속
##준
##엄
##버
##장
##색
##키
##월
##만
##친
##더
##럴
##프
##르
##툼
##생
##른
##승
##킴
##써
##작
##됐
##륨
##추
##W
##순
##린
##잡
##줄
##전
##조
##차
##쟁
##교
##념
##씬
##랑
##켓
##I
##빈
##무
##탑
##련
##막
##염
##센
##했
##길
##창
##례
##꽃
##힐
##운
##통
##된
##돔
##필
##럼
##락
##초
##택
##퀴
##플
##철
##6
##9
##명
##직
##페
##N
##노
##밀
##룡
##맹
##숭
##뿐
##베
##청
##카
##됨
##네
##퀘
##곶
##법
##안
##세
##갑
##행
##향
##근
##송
##웃
##격
##후
##삼
##람
##왕
##좌
##최
##예
##열
##맥
##뜩
##쓰
##엘
##F
##착
##슨
##콥
##슛
##응
##꾸
##렸
##4
##호
##간
##탄
##3
##씀
##십
##랍
##믹
##틸
##웅
##8
##번
##증
##렴
##둠
##한
##등
##건
##z
##폰
##합
##천
##R
##G
##E
##코
##물
##금
##울
##셨
##설
##검
##퍼
##5
##v
##절
##벌
##샘
##턴
##셔
##찬
##켜
##갔
##메
##독
##거
##범
##롤
##멧
##앙
##쿠
##팀
##섭
##특
##받
##침
##륙
##D
##북
##쪽
##항
##농
##묘
##유
##블
##빼
##요
##x
##섬
##능
##완
##허
##년
##큼
##델
##톡
##졌
##숙
##척
##불
##O
##슈
##급
##컬
##포
##반
##셋
##촌
##책
##푸
##폭
##f
##백
##견
##V
##쇄
##심
##억
##록
##렌
##머
##닉
##말
##랸
##칠
##펄
##닥
##존
##즈
##갈
##취
##율
##결
##츠
##량
##냐
##Y
##액
##H
##탕
##깃
##슐
##히
##팅
##겐
##림
##손
##찰
##편
##망
##팔
##녀
##변
##샤
##령
##쳐
##즘
##숀
##런
##남
##렬
##풍
##험
##죄
##텐
##올
##캐
##꿔
##싱
##총
##캘
##날
##짜
##털
##분
##것
##든
##U
##죽
##빛
##박
##쥐
##륄
##권
##폴
##댁
##님
##악
##캠
##브
##홀
##핥
##글
##층
##곤
##았
##던
##곡
##B
##펜
##쉬
##암
##펀
##켈
##훈
##난
##폐
##맛
##헌
##멘
##언
##먹
##켰
##태
##듯
##홍
##첩
##목
##때
##궤
##넛
##잣
##콘
##옹
##클
##습
##탐
##담
##랭
##웰
##컴
##퐁
##디
##략
##뤼
##극
##알
##킨
##충
##Z
##롬
##욱
##끔
##몬
##M
##걸
##먼
##혼
##쿤
##렛
##븀
##듀
##내
##봤
##빌
##흐
##넌
##랄
##징
##엔
##궁
##릴
##접
##획
##뮤
##펩
##퇴
##솔
##킬
##커
##핍
##휘
##템
##돼
##팟
##찌
##뢰
##될
##줬
##긴
##칙
##찾
##덕
##곽
##춘
##볼
##밖
##꼬
##꺼
##짐
##댕
##닐
##움
##규
##촬
##얀
##q
##룹
##힌
##둔
##갱
##왔
##압
##렀
##썹
##웠
##엣
##돌
##괴
##컵
##랬
##샛
##튼
##츄
##헤
##슴
##컷
##램
##붓
##딸
##쑥
##잖
##뉴
##릎
##퓨
##쇼
##튜
##팝
##넨
##첸
##륵
##골
##셜
##빅
##훙
##젤
##렉
##괄
##확
##콤
##눈
##깨
##멜
##벨
##헥
##J
##잔
##쥬
##좡
##균
##풀
##측
##틀
##챕
##큐
##촉
##냈
##닌
##톨
##롭
##졸
##칭
##않
##귀
##왜
##캄
##윗
##괘
##익
##약
##둥
##났
##댈
##굴
##힘
##엉
##픈
##잎
##덴
##앴
##룩
##헴
##휴
##즌
##핸
##ㅣ
##롄
##X
##녘
##널
##끼
##같
##뜯
##맷
##있
##쥔
##듈
##텍
##째
##납
##쩨
##값
##놓
##탠
##쌀
##뜸
##률
##융
##봐
##옙
##릭
##밟
##굿
##콩
##렙
##틱
##떠
##햄
##빵
##롱
##뇽
##낫
##딘
##빙
##혀
##쁘
##죠
##삐
##맵
##셀
##룰
##맘
##힝
##녕
##놀
##쾡
##께
##짓
##깥
##켄
##렵
##뮬
##멸
##몰
##핀
##쓸
##봄
##샷
##럽
##탁
##떨
##밥
##킥
##궐
##혈
##찍
##쉐
##뽀
##륩
##뚱
##옷
##덜
##욕
##펑
##샨
##튬
##잠
##멀
##젼
##뮴
##퓰
##닛
##늬
##꾼
##잇
##몸
##맨
##봇
##휼
##벽
##혐
##앨
##먀
##싸
##뱀
##탯
##늘
##흘
##툴
##냥
##낼
##핑
##돈
##헬
##못
##셰
##앵
##눠
##룬
##럭
##엠
##낌
##짱
##겔
##픽
##흑
##꿈
##펴
##랙
##빠
##몽
##춤
##붕
##낸
##솜
##펠
##텝
##씩
##룽
##헨
##듬
##논
##굽
##푯
##흉
##잉
##넬
##귤
##뱅
##띠
##렘
##둘
##섯
##랴
##밤
##뇨
##덤
##숲
##멍
##큘
##끄
##넣
##뭇
##핲
##랩
##웨
##밭
##웤
##닙
##넷
##덩
##뷔
##곳
##쳤
##퀼
##럿
##캣
##셉
##쿼
##듐
##찡
##놈
##윈
##첼
##묵
##앤
##랫
##폼
##곱
##딕
##맡
##뀌
##낭
##룸
##킹
##캔
##쾌
##좁
##떡
##팽
##횡
##윤
##쉽
##벼
##뒤
##릇
##랏
##밸
##숑
##덧
##펭
##귄
##엿
##홈
##웬
##팎
##삽
##듣
##튀
##갬
##짼
##볶
##챠
##끝
##쯩
##섹
##쿨
##펫
##빗
##렝
##뇌
##흡
##젝
##믐
##즐
##멋
##칩
##따
##밴
##눌
##쯔
##넥
##뎅
##춰
##쌍
##쳅
##슝
##뉘
##엡
##욘
##캡
##벳
##턱
##슘
##얄
##뛰
##쿄
##딱
##돋
##탱
##낙
##셴
##흙
##팥
##톱
##눔
##륜
##쇠
##옵
##덱
##끌
##렁
##컨
##겸
##꼴
##쩌
##흠
##싯
##퉁
##깅
##겹
##뜰
##쯤
##윔
##땃
##옐
##햐
##텀
##늑
##멕
##밑
##솟
##숍
##뼈
##뜨
##쌈
##햇
##킷
##흰
##팬
##맞
##냅
##렇
##앞
##곰
##깔
##궂
##댄
##롯
##겼
##챔
##뷰
##븐
##퀜
##캰
##샹
##첨
##잘
##벡
##캉
##꼿
##귈
##좀
##헵
##및
##틈
##끈
##덮
##높
##쏠
##멈
##콧
##륀
##녹
##앉
##갯
##짝
##낮
##딜
##읽
##겟
##꺽
##뢨
##쉘
##촨
##헝
##댐
##탬
##홉
##줍
##몹
##곧
##탸
##숨
##룔
##탰
##딧
##둑
##앰
##줘
##벵
##꼭
##솥
##늄
##슭
##뭉
##닷
##셧
##옴
##낵
##웜
##녔
##쉴
##깊
##훼
##탓
##찮
##벙
##쟈
##갓
##퍄
##몫
##텁
##챗
##떼
##콜
##줴
##웍
##뢸
##땅
##옛
##뿌
##눗
##셈
##김
##횟
##뷸
##슷
##콕
##훤
##뱌
##놉
##셩
##뻐
##푹
##쏘
##즙
##쿡
##얹
##틔
##딤
##앗
##ㄱ
##댑
##툰
##됩
##잼
##룻
##궉
##챌
##왈
##쫓
##빡
##눅
##킁
##숴
##젖
##쿰
##맺
##톈
##훌
##넴
##긍
##껐
##냇
##쾀
##큰
##섰
##숫
##냑
##믈
##궈
##낀
##줌
##팡
##돕
##뚤
##쭤
##밈
##낯
##춧
##듭
##싼
##삭
##젓
##녜
##샴
##썬
##뻘
##녁
##쑤
##쌌
##좋
##텃
##췄
##팩
##핫
##뚜
##풋
##졔
##헐
##팜
##쥘
##뤠
##꽝
##놋
##퀄
##셸
##꿩
##껏
##엑
##넘
##왁
##컹
##륌
##붉
##젱
##씌
##퀸
##뽑
##핼
##펌
##샬
##탤
##쁜
##껴
##쾰
##갤
##또
##껍
##샌
##푼
##짚
##꽂
##껀
##둣
##낚
##팍
##닿
##닭
##딴
##혔
##캅
##썩
##젬
##뫼
##뜻
##꿇
##볕
##엥
##륭
##탭
##녤
##뿔
##굉
##덛
##텟
##벗
##빨
##쵸
##넵
##윅
##땐
##퉈
##뎌
##뤽
##깝
##쉰
##덟
##퓸
##놨
##눕
##겁
##샵
##볍
##튽
##룀
##댔
##냄
##볐
##딪
##욧
##뵤
##뤄
##긋
##맴
##뒷
##갼
##젯
##쭉
##굼
##싶
##꼰
##콴
##쎄
##웁
##끗
##썼
##젹
##똥
##촐
##쾨
##췬
##솬
##촙
##밋
##꽁
##벉
##멤
##쯕
##켤
##찹
##겉
##콰
##찐
##꽌
##짖
##땠
##랗
##웹
##잽
##튠
##킵
##꿀
##싹
##윌
##섕
##겅
##꿍
##핌
##겡
##뮈
##탉
##뎃
##톰
##녅
##쩡
##뜬
##힛
##옺
##훅
##섀
##찔
##캥
##껄
##쾅
##늠
##ㅏ
##솝
##솀
##흔
##맬
##똑
##엮
##둬
##늉
##뚫
##벅
##캇
##랠
##뚝
##촘
##닮
##눴
##엇
##뽄
##췌
##퍽
##쁠
##쓴
##늪
##툐
##꾀
##잭
##윙
##쳥
##톳
##얌
##둉
##썸
##뇰
##쿵
##쩍
##쨩
##껑
##닫
##귬
##굵
##쑹
##많
##뎀
##꿋
##땡
##퀀
##긔
##낄
##츨
##좨
##뚬
##뵈
##껫
##켑
##슌
##눙
##쉥
##빔
##엌
##쁨
##샐
##넓
##픔
##멩
##콸
##셍
##쩐
##찻
##툭
##덥
##뮐
##앱
##꿨
##툽
##뱃
##퓌
##깐
##랖
##썰
##텅
##씽
##챰
##걀
##숄
##삿
##쌓
##챙
##냔
##핟
##웽
##짧
##냘
##댜
##폿
##돛
##앳
##텡
##쿳
##늦
##벰
##밝
##갸
##뽕
##쨈
##젭
##옻
##뻔
##렷
##굄
##짤
##챤
##핏
##껌
##릍
##죌
##솁
##튤
##썽
##셌
##낱
##뒀
##옘
##럄
##뷜
##삥
##넝
##펍
##숱
##맙
##걱
##윕
##갰
##갭
##켠
##덫
##뇬
##닳
##댓
##릅
##넉
##끽
##밧
##볓
##윳
##돗
##셤
##텨
##칵
##섞
##즉
##뱉
##뵨
##쪼
##쎴
##봅
##갠
##쑴
##귑
##쨌
##뤘
##튐
##뎨
##갖
##딥
##쭈
##핬
##힙
##빴
##넸
##뎬
##윰
##깽
##폄
##씰
##꼈
##찯
##팸
##샥
##깎
##컥
##팰
##뭍
##왓
##뷴
##쩔
##뻤
##줃
##깡
##뀐
##퇼
##쭝
##돨
##쏙
##깍
##큅
##큠
##윁
##훗
##똘
##춥
##끓
##앓
##짠
##밌
##헷
##붐
##쳬
##햔
##퓔
##긱
##빳
##켐
##얏
##뺌
##맸
##얍
##뻬
##캬
##셱
##됭
##읻
##굳
##옉
##푀
##뮌
##쭌
##삵
##훠
##뺏
##뭄
##챈
##쎈
##룟
##ㅇ
##짬
##씻
##괼
##됴
##찜
##욜
##낑
##햠
##혠
##겜
##녠
##틍
##쿱
##챘
##뷘
##벚
##쌤
##빕
##텄
##짭
##컫
##띔
##맄
##싣
##씸
##팠
##샅
##쫀
##퀩
##닦
##훔
##쳔
##떤
##쇽
##깁
##쉈
##닢
##셥
##헛
##웡
##솎
##꼽
##롼
##쫄
##귐
##츈
##휠
##옆
##쉔
##켕
##몄
##듸
##웟
##쌔
##샾
##쪄
##짢
##삶
##곁
##욤
##칫
##딛
##읔
##짇
##죤
##뺨
##튿
##씹
##걷
##쳇
##냠
##깟
##땜
##찼
##탔
##뭐
##쑨
##놔
##팃
##왐
##빽
##슥
##듄
##뢴
##톄
##팁
##룅
##꼼
##츤
##뫄
##맣
##붇
##숏
##떳
##묻
##쐐
##팻
##쭐
##얻
##왼
##쟝
##씃
##넙
##볜
##ㅡ
##똣
##폈
##뒴
##꾹
##흗
##륐
##깜
##쮸
##첵
##쥣
##땀
##밉
##솽
##넹
##잍
##깻
##떻
##덭
##믄
##쫑
##푠
##ㄹ
##떵
##뀔
##큔
##츔
##꿉
##럇
##뇩
##먁
##듦
##ㄴ
##잿
##ㅋ
##쟌
##ㄲ
##돠
##얗
##렜
##륍
##ㅁ
##첫
##쥴
##뱁
##윽
##펨
##뀜
##횬
##풜
##곘
##싫
##뇐
##읕
##둡
##퀵
##핻
##왑
##깬
##꺅
##잊
##쏟
##봍
##틑
##꿎
##얭
##뿅
##굣
##꺾
##삯
##얽
##땄
##졍
##얘
##옮
##쥠
##띤
##녓
##졶
##끊
##뻣
##옝
##꿰
##뵐
##뤗
##쳰
##빤
##멱
##줏
##쏭
##쉿
##뻗
##뿜
##튈
##폽
##쑈
##릘
##ㅅ
##ㄷ
##쑬
##곬
##읜
##찟
##뎐
##갚
##큉
##꺄
##뽁
##횐
##헀
##켁
##잌
##쏜
##슁
##몇
##쬐
##싀
##햘
##홋
##햬
##꽈
##퇘
##ㅗ
##ㅎ
##먄
##숩
##딨
##쩬
##롹
##잃
##캌
##녈
##캑
##윛
##뮺
##쇨
##읅
##똔
##뱐
##젊
##겊
##쌋
##챵
##씁
##홑
##뗐
##뜀
##녑
##궜
##쉼
##튄
##읭
##뛴
##겪
##츰
##뒹
##햏
##뉵
##햅
##웩
##몊
##뼉
##굠
##뉜
##젔
##볏
##짹
##낟
##넜
##휭
##잨
##꼇
##퍙
##츙
##뒬
##찝
##듕
##끕
##괭
##썻
##홓
##ㅓ
##홰
##퓐
##꺠
##햤
##긷
##죵
##귁
##묫
##덞
##좆
##돤
##뎠
##뎁
##큽
##뉠
##찧
##쾃
##뮨
##퉜
##떴
##쏩
##뾰
##띄
##뵌
##늚
##믜
##궃
##묄
##됙
##푁
##잰
##멥
##젇
##칡
##좐
##뺄
##뢱
##꽅
##묾
##푈
##쿽
##쌉
##헙
##솦
##뵙
##읗
##ㅂ
##ㅈ
##겻
##솅
##뙈
##륑
##묶
##윘
##쩩
##팈
##껸
##틋
##횃
##ㅔ
##엎
##귿
##뱟
##쇳
##텼
##ㅆ
##뱄
##섦
##쳉
##뻴
##낏
##킄
##쨋
##짙
##갹
##헹
##닽
##맏
##쫌
##촛
##몐
##떱
##홥
##쳣
##뽐
##됀
##붜
##냣
##뻑
##끎
##펏
##뻥
##탼
##쒼
##솨
##쳑
##덨
##읿
##붑
##숯
##쎅
##뜷
##꽥
##퍌
##뒨
##빚
##곈
##퍈
##슯
##챨
##쏨
##묑
##쁩
##횔
##퇀
##웻
##댠
##읠
##춈
##컸
##츌
##뛔
##쪤
##맟
##늙
##궬
##켯
##믿
##쇤
##괵
##얜
##ㅊ
##ㅜ
##ㅕ
##ㅑ
##갗
##뚠
##롸
##붸
##핶
##쩽
##휜
##숧
##뉼
##텦
##멵
##쓱
##슙
##옭
##븃
##쳄
##솏
##쨘
##놩
##ㅍ
##ㅌ
##갘
##뒸
##뇔
##릷
##띵
##혅
##괌
##촹
##믯
##퀠
##굔
##힉
##됸
##볘
##쌩
##뿟
##겍
##틂
##욀
##됼
##큇
##쌰
##늗
##춉
##ㅛ
##ㅠ
##쒀
##륏
##딫
##좇
##쎌
##옇
##찢
##몌
##쥰
##툉
##멨
##큄
##섁
##퇵
##켸
##랒
##섶
##댤
##껙
##믁
##끙
##뎰
##돇
##숟
##궨
##샀
##쳠
##윋
##봬
##랼
##맆
##잋
##깩
##ㄸ
##멓
##뭅
##섄
##궇
##숡
##릐
##됬
##쌘
##낻
##쫏
##샙
##슉
##왬
##슼
##괸
##낳
##뉨
##쉑
##챡
##쁭
##핳
##풂
##혓
##푤
##펼
##쩟
##짯
##걍
##밞
##맑
##룧
##띡
##뿍
##뗏
##죕
##겝
##띨
##탙
##삑
##롓
##밷
##룁
##팹
##륫
##룐
##펐
##읒
##옸
##겋
##녝
##픜
##샏
##겿
##훵
##몆
##쏴
##눼
##룝
##웸
##훨
##먕
##귓
##캴
##좧
##콮
##앟
##횰
##떘
##짊
##츼
##짔
##홧
##뺀
##픝
##짰
##늿
##엾
##곗
##뇸
##헉
##럘
##럅
##쿌
##욥
##퐝
##횻
##킈
##헸
##갛
##쩃
##칳
##쟛
##챦
##닯
##컈
##넒
##췰
##죈
##놘
##솑
##푕
##멂
##됰
##퀏
##읓
##깢
##휨
##뿡
##죡
##욷
##퉤
##쩄
##떥
##쾽
##푶
##넡
##쮠
##읃
##땸
##잴
##샊
##즤
##긁
##걈
##몃
##뵴
##섨
##핮
##돟
##쾻
##숌
##쐬
##봭
##뗀
##럐
##줜
##뺑
##욺
##쫒
##뒈
##꽛
##졘
##럈
##햑
##튱
##뗄
##맜
##솃
##냬
##훑
##묭
##쨔
##읊
##돐
##넖
##깰
##엊
##랓
##욨
##튕
##땨
##둴
##짛
##틩
##풰
##뚯
##툠
##홤
##왱
##꾜
##윾
##뙤
##쨉
##꾿
##궘
##쿙
##삣
##춴
##뙨
##듁
##툥
##쩜
##퀌
##왰
##됏
##샜
##햊
##줫
##윷
##뉩
##폘
##굻
##뱡
##틉
##빰
##뀨
##뤀
##엤
##뽈
##늡
##댱
##묜
##읫
##괜
##헜
##좃
##읏
##숸
##껭
##뎡
##넁
##곯
##쫗
##끅
##턔
##뎝
##꼍
##얬
##쭙
##뛸
##셕
##짘
##ㅝ
##졀
##뭘
##쥼
##벱
##팤
##겄
##껠
##닸
##좍
##긆
##뤌
##쨍
##씐
##굑
##밫
##믕
##읁
##븨
##퀍
##갇
##랛
##춛
##쉭
##븡
##뼛
##댸
##욿
##둰
##꺤
##왠
##앜
##숖
##쓔
##쪗
##텽
##롲
##꿘
##훕
##팉
##푱
##빝
##옳
##샇
##얶
##륽
##몯
##뵬
##띱
##멎
##됮
##믓
##뼘
##튝
##꽉
##쟉
##븥
##븟
##릌
##촤
##졋
##푣
##윥
##쿈
##뉸
##쒸
##흄
##휙
##슾
##쵣
##벋
##둟
##쭘
##잦
##됄
##븓
##뗌
##툇
##럔
##괏
##뺐
##쬘
##큭
##밨
##돎
##릳
##윱
##쉠
##즑
##즛
##픕
##늴
##첮
##엩
##껼
##쓺
##떰
##랢
##휩
##엗
##얐
##ㅢ
##뢀
##륻
##ㅉ
##삘
##빋
##닜
##혱
##옽
##첬
##칱
##썅
##넀
##좔
##뺘
##쾩
##햌
##텬
##뉙
##섡
##롈
##늰
##랲
##돰
##뤈
##굘
##꺌
##낍
##밯
##겣
##쪨
##훍
##싿
##욯
##콀
##쎕
##댚
##찿
##뭏
##셑
##돴
##넋
##흭
##휀
##듧
##튁
##쪘
##뤵
##슽
##큥
##ㅃ
##풔
##왝
##졩
##ㅀ
##횩
##셖
##닺
##벜
##렆
##폅
##몀
##췩
##왹
##뎗
##귝
##ㅐ
##툿
##큣
##뀠
##욍
##맽
##뀍
##웇
##릊
##뱆
##읖
##츩
##뀝
##쾁
##헿
##럲
##퓬
##젃
##깆
##췐
##졉
##롐
##볙
##쩝
##섐
##놰
##햿
##욌
##쀼
##앛
##쎼
##얇
##꿏
##떄
##잂
##룍
##됌
##씅
##섵
##헰
##쌕
##뜽
##갂
##땝
##폳
##쟐
##뻰
##뻼
##밎
##렠
##쑷
##섥
##돚
##쌴
##읙
##쬼
##떦
##툘
##턀
##랰
##쳡
##늩
##쯧
##햣
##덙
##랃
##덣
##꽹
##삳
##핝
##쬔
##엪
##삮
##쫃
##꿕
##괍
##칢
##옄
##죙
##톼
##횄
##깸
##냡
##섷
##냤
##햡
##즁
##앧
##쩰
##픠
##흫
##똠
##앆
##톹
##뷕
##늇
##튓
##읨
##핢
##앚
##팼
##굥
##궡
##굦
##늒
##뺙
##뤨
##으로
##에서
##었다
19
20
##이다
있다
##하였
##했다
##하는
##하고
##하여
##으며
##하였다
##에는
##되었다
##한다
201
200
있는
##지만
##부터
##0년
##에게
대한
##적인
##까지
##적으로
10
##되어
##면서
##들이
##들은
##하기
사용
이후
##하게
18
##에서는
##8년
미국
##5년
##er
##9년
##았다
##7년
한다
##6년
일본
199
##2년
##1년
##4년
##으나
그는
##되었
##라는
##or
##는데
##였다
##3년
##라고
위해
되었다
12
##리아
때문
##00
지역
##스트
그리
##들의
##on
##주의
것이
시작
##들을
같은
11
그러
다른
##학교
##국의
##된다
자신
함께
##하며
또한
따라
사람
##an
프로
198
##in
##이며
##기도
그의
##하지
때문에
경우
가장
##시아
##이나
당시
##la
사이
것을
##기에
15
그러나
세계
하나
##기를
##되는
기록
##에도
것으로
이름
또는
16
의해
했다
있었다
##en
위치
있으며
##스의
##하다
##레이
현재
국가
197
에서
대한민
통해
17
##ar
된다
한국
프랑
선수
그리고
많은
##일에
영화
##지는
##리는
##했고
조선
##졌다
##스는
활동
##하면서
들어
##리를
만들
##ti
196
##al
것이다
##하였고
아니
하는
있었
포함
##되고
대해
다시
##es
가지
사회
194
여러
14
경기
연구
##mu
for
##대로
독일
##사를
##랜드
##다는
##로서
모두
##상을
##개의
##이었다
13
모든
##성을
일부
처음
##지를
제작
##mula
##위를
3월
formula
4월
정부
12월
10월
자신의
동안
시즌
하였다
8월
##이었
위한
7월
전쟁
##는다
195
##장을
5월
##he
##이는
9월
6월
알려
도시
감독
등이
영국
인구
중국
##어진
##자가
##거나
##이고
등의
##니아
1월
이루
##력을
##대의
프랑스
##부분
것은
정치
##ic
이상
있어
이러
아이
##라이
서울
문제
새로
이러한
으로
존재
11월
##is
##회의
일반
구성
이용
##도로
##했으며
대표
다음
주장
##보다
나타
중심
##도록
##0년대
제1
193
가능
개발
대한민국
##들과
이어
##도의
작품
발견
##다고
하지만
이는
영향
##세기
리그
라는
대부분
##되었고
##리에
##시키
##었고
##이자
2월
번째
##나라
##로부터
음반
기준
##스를
되어
##시에
##통령
발매
발표
##하면
게임
등을
국제
공격
##자의
하고
라고
##들에게
음악
##리가
##성이
축구
참여
30
전투
##at
192
이를
특히
##정을
##기가
##란드
역사
##it
##명의
발생
##el
경제
##ou
##로는
결과
새로운
대통령
##리카
##에서도
사건
##서는
##스가
##기는
유럽
##하였으며
대학
이전
우승
##기의
문화
최초
인해
지방
관계
##도를
이에
러시아
##군의
##리스
##자를
제2
##위원
생각
의미
관련
##인의
##와의
일어
대회
##이트
진행
##되었으며
사실
##쪽으로
25
그녀
다양
##le
##대를
##자는
##했던
##요한
받아
191
##이라는
로마
수도
위치한
시간
독립
##이라고
부분
##리의
설립
##디오
##사가
##르는
자유
형태
계속
받았다
사망
##자로
##us
##났다
설치
이것
지원
202
결정
이탈
있던
기술
성공
##re
##km
있고
교육
##렸다
##om
상태
주로
##므로
2010년
##식을
아니라
##르크
##인이
##ol
방송
매우
000
##이스
중앙
가지고
프로그
선거
##가지
##다가
##학자
gt
돌아
21
##드는
##tion
않았다
##전을
lt
아버
##스터
##부의
이탈리아
##기로
생산
##번째
##처럼
##명을
##화국
없는
미국의
##과의
운동
##대에
##되지
운영
차지
태어
##as
않고
참가
조직
##도가
##이지
##비아
결국
따르
##해서
##도는
전체
##ing
##으로서
구조
##리그
여성
##사의
계획
##권을
대한민국의
##ch
##리즈
##하기도
등장
이유
제공
같이
##림픽
##프트
역할
##il
##장이
최고
2008년
타이
2007년
##에서의
190
##스와
##화를
22
고려
데뷔
해당
한편
##하자
소속
24
##명이
##운데
인간
출연
거의
##et
다양한
주요
기원
지정
방법
출신
많이
라이
아들
23
##스템
##am
##으로써
##음을
프로그램
국민
2009년
하여
앨범
2011년
##군은
##하려
##이션
영향을
##우스
##자인
올림픽
##이라
##수를
##하던
가운데
100
만들어
없다
##ro
이미
높은
2012년
##사는
##였던
후보
데이
스페
##지의
##원을
남아
##했지만
모습
필요
이라는
연결
따르면
마지
##지가
인터
유명
대학교
내용
##수의
##으로부터
행정
##어를
##스크
각각
스타
##점을
이다
##시켰
유지
##대학교
보고
과정
일본의
표현
26
직접
##가는
##라마
발전
마지막
##부에
##원의
열린
출전
이루어
##스로
##리고
시스템
2006년
##해야
그것
바이
그가
##머니
2014년
않은
##력이
대신
##스타
28
##어로
않았
가진
임명
상황
작은
##사로
of
##제로
인정
##나는
추가
공식
형성
##FA
##장으로
##들에
##냈다
시리즈
1일
아래
보여
그리스
정보
27
이라고
##이가
따라서
##수가
이름을
않는
2013년
제국
마이
##지에
##전히
##지고
##제를
##원이
##성의
기능
지금
민주
노래
월드
있는데
##등학교
되는
##군이
평가
##ra
지구
후에
인도
2015년
##인민
생활
##전에서
##ed
이야
수상
##었으며
건설
중요한
자연
##인을
##nd
##이드
##대한
##장은
비롯
이론
알려져
##전에
요구
##운동
오스트
##위에
##대학
배우
시대
일으
##대표
##치는
##상의
학교
##으로는
##사에
노동
##인다
##업을
##선을
서로
건물
사이에
정도
않는다
시작했다
##세의
2005년
아르
크게
공동
반대
2016년
29
군사
지역의
결혼
##회를
##os
프리
##부를
역시
##민주
진출
The
어떤
관한
##계를
2018년
브라
##르트
##어는
그룹
##인은
##ter
방식
원래
항공
##약을
연합
기간
##되면서
##왔다
공개
##id
동시에
##치를
역할을
나라
개최
##문을
변경
하였
학생
소련
드라마
철도
50
졸업
비판
##선의
거쳐
##임을
아닌
플레이
##대가
##지로
있다고
##수로
지도
##이었던
시절
##되며
2017년
기반
##했으나
##대는
##트로
##니다
처음으로
초기
기준으로
##부는
##프리카
레이
판매
##스탄
모델
현대
##시의
전통
2004년
이르
##위원회
기업
##하는데
만든
이동
기원전
##드의
개인
##일부터
##원으로
##ur
##ac
##하였으나
관리
##학적
##제가
수행
싱글
대전
##상이
189
혹은
##ig
##장의
마을
##군을
31
제외
특징
실시
증가
##정한
인물
##원은
개의
##간의
##이를
##드를
최초의
정책
지배
있을
정의
종교
기본
기타
의한
##레스
자동
##격을
이끌
##제의
##상으로
##ation
기존
##중에
##리오
일반적으로
##장에
하며
##체의
달리
위하여
연방
여자
##트를
교황
##진다
인구는
분류
지나
the
##주는
경기에서
서비
##소를
##체를
있다는
##od
상대
##물을
민족
##공화국
다이
도입
##하지만
##문화
##장에서
행동
##이의
##자와
되고
보통
공연
설명
받았
말한다
2년
어머니
기관
이때
전국
##ad
##ent
보내
##독교
운행
지휘
2002년
보호
##갔다
##단의
받은
비슷
##수는
변화
그를
40
그래
바로
##나다
2019년
##시켰다
##적을
##혔다
##어가
때문이다
##됐다
##일한
모양
경찰
##호로
##남도
제3
##서를
지지
##mp
중화
오늘
자신이
##리와
지하
사랑
이것은
주변
##트의
##있다
##성은
전문
산업
2000년
##의를
추정
아버지
없이
환경
##리지
##드로
되었고
##동안
##적은
비교
##르게
##오는
과거
국내
특별
##이기도
도쿄
##있는
가까
여기
자기
##무를
##세는
명칭
##위로
##체가
활약
작곡
##했는데
대부분의
컴퓨
##te
##어의
##하거나
중심으로
##자들은
출시
##과는
2003년
세포
어느
적용
피해
있지만
##리로
기독교
방향
가족
부산
##트는
우주
공간
상당
수는
스페인
확인
##um
이런
##마다
통합
태양
실패
떨어
##도에
경상
역임
##움을
##했다고
부족
야구
##학과
이상의
받고
사업
분야
##가와
##스에
##일까지
규모
##단을
소설
건축
올라
##시간
개념
##류의
##른다
찾아
어린
##ve
속하는
대체
##정에
이라
뉴욕
선택
컴퓨터
##피언
##ec
##ri
부르
더욱
##구하고
그들의
활동을
##운드
##당의
차량
2020년
##ot
##명이다
##세가
예를
##카이
연주
##심을
없었다
담당
월드컵
##제는
교회
188
##라도
열차
##사와
##키는
최대
FC
##적이
걸쳐
애니
노선
시민
##BS
감독의
과학
반응
##관을
##스코
##군에
효과
있어서
전에
##드리
2001년
것이라고
##구의
공산
지속
##시마
캐나다
##시켜
##하도록
##성과
##세를
1년
이와
영화이다
두고
클럽
##쪽에
선정
##호를
##린다
스위
점령
기념
##쳤다
언급
##ir
##부가
##으면
데이터
##성에
조사
##한다는
언어
지정되었다
어려
불구하고
##자들이
에너
##기와
##했을
오늘날
최근
있게
내려
##op
##시킨
그녀는
물리
위원
불가
FI
##인으로
사고
##크로
##일에는
사이의
명령
획득
제작된
##면에
뛰어
##기관
##이로
국가대표
##개월
##글랜드
##원에
##학을
동물
St
목표
포함한
출판
최종
##역을
최초로
나가
예술
스트
##렇게
사상
##oc
##어서
선출
후반
보인다
챔피언
멤버
유사
현재의
대중
결승
베이
##회는
##시키는
##함으로써
등에
정신
선언
500
좋은
##겼다
이해
폴란드
##ia
##연구
되었
소비
##계의
##조의
##메리카
이유로
소유
2차
##렀다
전기
이들은
##단은
##덜란드
등으로
##되기
##인민공화국
##북도
경기도
이적
##가의
거주
결합
##종의
km
네덜란드
##명은
경험
##un
연속
분석
##치가
선발
##리에서
##특별
186
작업
##내는
1999년
실험
것에
##ce
제안
헌법
모습을
예정
고대
잉글랜드
하나의
알려진
##루스
우리
있었던
드러
##메이션
3년
Ch
##구를
그들은
1998년
제한
##트남
##로를
조지
##ow
마르
수록
##만을
##화가
형식
완전히
거두
##and
명의
정확
포르
##일을
##경기
실제
##소가
##상에
스포
##금을
##th
그런
분리
물질
##BC
##체는
##진을
##이지만
TV
하지
##쪽으로는
수준
##명으로
사용하는
밝혔다
방문
정당
유전
전자
페르
##이에
통과
강화
주민
187
때까지
아시아
설계
이란
##스턴
제2차
##비를
요청
##웠다
여겨
영토
표준
치료
##부르크
비해
##ag
FIFA
올랐
하다
##주에
##으므로
가문
##만이
##광역
##정이
승리
##ver
아직
움직
정규
##원에서
달러
이름으로
성장
승강
##학의
##단이
애니메이션
구간
##메달
##었던
하나로
##들로
발달
##회에서
가리
메이
미국에서
중에
접근
##ay
##지지
발매된
##역이다
사람들이
가수
##라의
영국의
파괴
자료
확장
##야마
식민
보다
있도록
평균
공화국
##드가
15일
못했다
말했다
북한
##일랜드
##골을
1997년
##스카
##로의
##치고
##직을
언론
##난다
그림
비행
정도로
##감을
3일
##지와
나머
이름은
중요
차례
##형을
조건
작가
사람이
기여
널리
의하여
##정부
수용
교통
프로젝
이듬
이곳
##계에
제품
##상은
##과에
친구
60
오래
1995년
##전의
1996년
##스테
패배
amp
##ul
크로
아프리카
##르고
##관이
##산을
아마
우승을
구분
런던
하나이다
##인데
않아
국립
In
비롯한
스스로
대하여
강력
경쟁
제조
##km2
오른
하이
등과
##트가
##규모
##전이
개혁
세워
더불
이듬해
##들도
소프트
지역에
불리
오스트리아
##인과
10일
##르의
자주
것이었다
##소의
##가를
##법을
35
이사
더불어
특정
배치
단체
##선이
과정에서
in
거부
위에
##경을
부여
마음
베트남
마찬
시설
##아의
##단에
##지에서
마찬가지
크리스
##졌고
외국
##지게
요시
바탕
계약
유래
##스티
만나
사무
##레일
남부
##0년에
이로
##시는
1994년
##식이
자치
일어나
근처
##스토
##회에
가져
스웨
해석
해결
##나무
도착
갖고
##스에서
제국의
국가대표팀
##점이
나온
알렉
##아가
밝혀
육군
##mm
이들
##톨릭
이주
1992년
있었고
##문에
##회가
회사
32
그대로
20일
주의
##한다고
주연
지난
추진
가르
왕국
##비전
##크라
5일
동맹
##되었으나
상호
##소는
충청
단순
##많은
##러스
그녀의
##위가
연기
##선거
먼저
사라
들어가
밴드
자리
바뀌
유명한
전해
황제
##모토
##당은
도로
##NA
1991년
스웨덴
##없이
경우가
##호는
##교육
맡았다
주도
불리는
통치
##구에
생성
##시코
디자인
##하기로
##지방
##위의
주인
수많은
전라
##신을
##라스
부정
##물의
##받았다
영어
300
것과
##하의
인천
##바이
반란
##했다는
##동을
아무
##베이
나오
28일
##시대
##이기
##지역
2일
##력은
상대로
조약
##em
##하였는데
가정
텔레
작용
25일
##장과
기초
시도
알고
인터넷
태어났다
복귀
다만
##주를
##어나
##았고
정식
스튜
4일
##행을
독일의
중간
##우는
통일
위험
##인들이
7일
제시
##im
30일
법률
##프로
##전은
있기
##스키
##부로
##og
1993년
외교
스포츠
지역에서
의하면
##베르
##나이
근거
##선에
프랑스의
비슷한
##고를
현재는
가톨릭
파견
##군과
##까지는
해안
노르
##화된
UE
##이어
만에
귀족
17일
자동차
##되기도
훈련
있으나
체포
살아
바꾸
##방송
은퇴
8일
##량이
##량을
##시를
##자에
브라질
UEFA
##트에서
26일
16일
6일
여름
몇몇
시기
21일
12일
##형의
참여하였다
북쪽
묘사
목적으로
준비
이외
마찬가지로
공작
##크의
##관으로
18일
일종
##사카
결성
임시
##도와
떨어진
끝에
때는
의원
대구
##수한
14일
선수이다
27일
필리
남쪽
##st
조각
정치적
초대
불교
경영
9일
##라인
##cm
##하다가
##ap
##였고
비디오
얼마
일을
##정의
정부는
1990년
형태로
23일
##부에서
11일
##으면서
##디어
교수
방영
서울특별
유대
프레
관측
남자
위해서
1989년
80
나머지
안정
##관은
다음과
인식
서식
투표
중단
면적은
간의
##광역시
기록했다
이야기
1988년
가능한
바다
국회의
##웨어
##함을
녹음
슈퍼
70
##민주주의
국왕
22일
29일
떠나
재판
회의
반면
공항
##위는
나타나
엔진
##선은
상징
팀의
##릭터
방어
처리
바르
제4
낮은
감소
##자리
##ut
디지
시작하였다
소재
##리트
사용할
스테
24일
##정은
13일
폐지
##구가
전달
활용
동일
시행
입단
##만의
4년
직후
고등학교
##ie
캐릭터
##였으며
##인이다
제기
##시키고
1차
살해
##대와
노력
아일랜드
대해서
##려고
아카
이루어진
##로나
보수
19일
##로가
완성
혁명
선수권
##ard
나무
그린
대응
##습니다
못한
다르
음반이다
강한
많다
포르투
달성
윌리
##조를
지적
##레일리아
여전히
평화
관련된
금지
##트리
##카와
번역
발행
##자들의
##소년
##티아
##롭게
못하고
##트워
##사에서
##구는
##ion
##웨이
천황
##철도
이집
시험
##부와
체결
45
정착
185
지진
유일한
##성으로
##ess
1945년
중에서
##간다
즉위
이름이
##안을
보유
이래
생물
만들었다
논란
##되자
않다
문제를
너무
만들어진
합류
##점으로
2021년
이슬
##부터는
##면을
필요한
##속도로
##ine
##니는
타이틀
전환
제거
충돌
##인들은
세력
안에
일어난
##당이
관계를
이스
의견
문학
선수로
영역
다루
##세포
##교회
카를
보여주
아내
##시가
##거리
##계가
사회적
디지털
##선에서
주목
경기를
베르
실제로
동쪽
규정
따른
##프는
내각
것도
##디아
and
180
구성되어
있지
분포
사이에서
나중에
이렇게
가까운
근무
36
곳에
옮겨
본래
공화
동생
멕시코
##백질
대륙
문제가
다카
##러운
에서는
##미터
계승
상업
##라우
오스트레일리아
부모
물론
##인지
##나가
##동에
##체로
##소에
##물이
공급
##적이고
##전한
강조
##식의
##6년에
##0년대에
스코
대사
표시
개통
##어졌다
당선
적이
사용하여
##국이
대해서는
사실을
##ity
해외
집중
가능하다
하루
##평양
등록
라디오
##주로
##과를
취임
##ab
촬영
##주교
##가로
##기술
좋아
사진
히로
##관의
전략
인민
##하라
주었다
##하이
하기
야마
##7년에
관찰
둘러
일제
##준다
유니
파이
주인공
인근
지역을
저항
넘어
##아시아
집단
##화의
미래
소개
##세에
건너
##치의
개봉
문서
보존
허용
서비스
서쪽
##크는
##적으로는
센터
수가
33
Al
에는
사용한다
윌리엄
##4년에
이슬람
최소
여객
받아들
오르
##내고
뮤직
##회사
헝가
##5년에
##인트
되었으며
뒤에
계열
##되었는데
사용된다
최고의
나누
##ys
##론을
아시
##석을
뿐만
##리포
몽골
##작용
##당을
하계
사람은
##식은
##크라이나
184
##상에서
스튜디오
서울특별시
연장
무렵
정권
##2년에
인한
지하철
이번
##드와
동료
전반
충분
에게
윈도
에이
가는
이후에
##로로
##버스
자본
이용하여
대표적인
점차
관광
정부의
기존의
##졌으며
그해
de
가입
##국은
종종
신경
5년
북부
말을
##3년에
##연합
적극
마련
중의
##가가
경우에는
광주
제주
존재한다
##igh
##프가
##과학
##량의
우크라이나
포르투갈
베네
사람들은
젊은
무역
여기서
바탕으로
##분을
불러
사회주의
부문
종료
레코
집합
##차를
##승을
##되었지만
있었지만
내부
##8년에
통하여
감염
전투에서
의사
발사
일반적인
제목
##산으로
##세기에
##시즌
간주
유로
네트워
알렉산
수비
##체에
실행
##정보
90
해군
##관에
아우
##해를
왔다
##이던
##와는
기록을
##트에
위협
##ell
오스
##보다는
그렇
전시
##전으로
측정
##9년에
승격
##ang
각종
단백질
관심을
강력한
지냈다
##메달을
구단
오브
일이
조성
기능을
미사
그곳
##학생
##하려는
비밀
##하에
만드는
##리스트
##았으며
이며
종합
##기고
남북
##사업
인디
바람
주는
신문
주장했다
건강
피아
증거
만약
범죄
제작에
침공
시기에
##조가
조선민주주의
현실
미술
삼성
제도
텔레비전
후쿠
##자에게
##되었던
민간
확보
##했기
홍콩
승리를
판단
사령
38
어떻
출발
확대
자신을
작성
입학
##해졌다
##까지의
##상과
##ak
##만에
##산의
마이크로
##워드
공격을
쉽게
##나라의
지명
##점에서
붕괴
1세
##임스
갖추
성립
##계는
##피아
##호선
편집
오후
2세
##낸다
스위스
##계에서
중화인민공화국
##조는
올랐다
##파의
##분에
채택
사용되는
##소로
##0만
자리를
##1년에
로스
중국의
성격
제5
외에도
##원과
경향
400
배경
##학년
##지도
장기
발표했다
엘리
대규모
##었는데
원자
보이
##ber
##ist
인간의
##버트
##화에
##리히
한다고
부근
##치로
1987년
1986년
종류
내에서
아니다
시대의
##로운
##주가
제외한
어떻게
합병
천문
비용
이전에
그려
항상
##비가
##ip
회복
오사카
생활을
한국의
##센터
명예
같다
##족의
한다는
남편
재직
받는
##시로
협력
국방
파일
유일
장애
183
출신의
책임
##ill
##은행
##자들을
##어들
Re
수립
##라노
하게
##하다고
##est
보면
교체
블랙
##개를
유리
제1차
Th
도움을
스토
주연으로
##tic
34
##오카
표기
대회에서
에도
##두고
##리어
않을
31일
라틴
##고로
케이
##니스
##대에서
정보를
10년
등은
##티나
##밖에
의미한다
##었지만
겨울
19세기
##생활
핀란드
수입
##리포니아
밖에
##사우
터키
그래서
##라엘
계산
##력의
지상
##려는
이끄
종목
게이
##이었고
기계
루이
그것은
위치해
고전
##었으나
기후
안전
##ers
화학
복잡
서부
방식으로
계약을
구축
공공
동부
##의로
신라
불과
##지션
1980년
이끄는
세르
##당한
남성
##로서의
여행
전사
있었으며
했지만
##all
##라비아
얼굴
An
##설을
나폴
하면서
유형
##TV
해방
보이는
시장
대립
음력
##어도
프로듀
다섯
캘리포니아
이스라엘
보도
조정
##전쟁
알아
##하고자
##물로
관할
정상
##어와
##메이
힘을
귀국
##ue
##시대의
아랍
제정
##트와
##르타
인기를
179
위치하고
II
측면
모스크
##ty
등에서
라이브
출생
아키
마리아
##로스
##즈의
강원
득점
통신
##단으로
수정
1985년
##문이
파리
재정
이루어져
##하려고
홈런
사례
출연하였고
##키아
##레이션
##리기
1984년
에드
##트라
##화는
농업
구성된
사람의
##교의
윈도우
초반
전개
경우도
당시의
##보드
##명한
매년
##제에
덴마
##호가
했고
##티브
##문화재
태평양
##질을
개선
고양
기억
훨씬
##인들의
에스
의해서
연극
인사
##역으로
##시킬
시작되었다
##어져
대형
과정을
에너지
잘못
참석
일종이다
공유
수학
##uc
남동
정리
##슨은
비교적
##oun
중반
인수
##틀랜드
1위를
떨어져
심각
##받아
경계
검은
부른다
뛰어난
##ne
죽은
##량은
마사
죽음
유엔
시대에
##기업
##종이
역사상
폭발
사실상
전혀
##류를
가능성이
지역은
그에게
짧은
지금의
노예
공부
아름
37
##겠다고
뒤를
변호
오히
회원
##력으로
동일한
불가능
##ran
나는
##권의
##해의
##국을
##리학
속에서
태어난
전차
##고등학교
##ub
##사회
도시로
있었는데
저장
##소에서
##지면서
본격
비난
은행
75
1982년
##ud
##시와
나서
탑재
가격
행사
##실을
##점에
Mar
181
예상
핵심
세계에서
##our
연맹
대상으로
##인에
150
트리
##신의
인하여
##당에
정복
##데미
##분의
잠시
필리핀
수출
하는데
55
##슈타
블루
관심
식물
##았던
##av
##음에도
KBS
선의
##비는
근대
설정
##ph
##지기
고구
편입
토론
##라가
카메
##사령
이승
##크를
만화
속에
있었으나
고용
형태의
##자이다
도움
##서로
시의
조금
채널
되면서
오랜
##력과
해체
이것이
##품을
권한
정부가
원칙
카이
요리
##받은
때에는
요새
시간이
기반으로
이끌고
##료를
개정
마드리
통제
##력에
보급
박사
##개발
##왕의
북서
##프의
주교
##구로
##종은
42
목적
높이
되지
정도의
De
했으나
##그룹
2개
도달
##미널
##니어
2개의
암살
적은
가로
비율
통한
플로
만큼
타고
##권이
##네시아
##세이
##바르
넓은
전역
카운
##단체
거대한
##신이
##함에
아나
이민
##ge
플랫
국가의
사는
Le
투수
경기에
반복
오히려
시각
투자
##를린
나뉘
우선
고정
그에
사후
##에게는
비록
대항
출마
##용으로
##미디
물러
특수
1983년
국경
##se
때에
자체
증명
##if
데이비
항복
Ne
거절
앞서
사용되었다
제임스
얻었다
세운
단일
##시오
Un
##하다는
갈등
무장
마침
세이
##법원
구체
##면의
##형이
계획을
길이
##10
##모리
신앙
클래
보였다
열대
내용을
소프트웨어
대상
지원을
모스크바
유도
##해진
애플
##스럽
했으며
결과를
추측
39
외에
발생한
사람을
장착
##산업
개편
인터뷰
스파
전후
세우
머리
##대전
부인
확실
철학
고향
메이저
창설
붉은
64
##주시
1981년
청년
##CA
##테인
목록
임명되었다
차지했다
아주
설립된
형제
Ar
위의
##도시
구별
##다운
##간에
원정
##군으로
없어
##드에
##ice
오래된
그것을
1979년
장악
##ong
전쟁이
##서에
북동
##유럽
1973년
나오는
처음에는
##셔널
##정책
시작한
드래
식민지
##타를
##사이
160
##국에
북아
평양
##법에
방출
##더라도
구조를
태어나
머물
##공항
요한
없고
투입
##렸고
공포
##사키
##주와
팀은
금융
##리게
##베르크
##자들
##수와
세웠다
후손
사용한
##일러
전쟁을
공산주의
1972년
것처럼
##일의
이후에는
아르헨
이른
확정
고등
저지
합의
스코틀랜드
기획
이중
하나는
구역
논쟁
##다른
무기
생존
수여
계급
내에
##드에서
어렵
흔히
추정된다
하늘
##이었으며
마리
점에서
##르가
서양
됐다
##ight
플랫폼
48
아카데미
마쓰
하자
##라운드
##이었으나
나카
포함되어
1970년
##공화
##싱턴
의존
##도에서
절대
하였고
않았고
##익을
업무
탄생
알게
##일보
##ob
약속
금속
##지며
##번의
하드
생겨
위해서는
교토
제출
##나의
##점은
끝나
제6
기사
3개
세종
##산은
일으켰
시내
광고
병사
조합
##식으로
브랜드
박물
대비
보는
이후로
무엇
헤이
오리
트랙
##마스
##스포
글로
##받고
20세기
혼란
##스러운
그러한
이유는
편성
의료
##색을
활발
##ian
##도르
시청
의회
##아버
##유의
##같은
역대
##서의
1974년
발매되었다
##서가
베이징
나이
선고
##가에
되면
남서
불린다
##동이
##동의
넘는
고구려
나와
에피
##수에
판결
##동차
약간
이르는
##프를
인공
산맥
신설
문자
182
시간을
받지
번째로
소년
방법을
없다고
통해서
솔로
붙여
##무원
##요일
##스리그
상당히
빠르게
##경에
베를린
##ry
##타이
반영
##화로
##니의
##언을
강제
##증을
동의
##당했다
##보를
##하나
빠른
요소
##문의
버스
##리즘
CD
##리케
##기에는
불안
차이가
스피
##적이다
지식
##00만
MBC
코미디
백작
##령을
양성
한때
살고
높아
논의
점을
아메리카
##만큼
태풍
지닌
##지자
보냈다
방향으로
멸망
장식
체계
공식적으로
##판을
##법은
반발
얻어
다니
포기
##데스
전설
군대를
작전
##재를
##추어
##라를
일본에서
##테르
##테인먼
예선
생명
##자이
등장하는
주고
해서
##기압
##술을
##병을
도서
##로드
그런데
##지인
##차례
사용하고
##료로
창립
##구와
독자
##누스
41
Com
은하
하나님
모리
##이란
조선민주주의인민공화국
오토
전용
도망
43
포지션
엔터
집안
경상남도
##ss
1971년
소비에
플라
본선
진입
##당과
##수록
##뿐만
포위
행성
##ae
##후의
작품을
##치에
##주에서
취급
##다이
러시아의
178
오픈
제7
원작
1978년
##ate
아파
명명
##브리
진화
탈출
##자기
빠져
프란
##관리
총독
네트워크
팀을
예측
##스케
##나와
한번
삼국
표면
보컬
유사한
65
보조
청소년
명이
오전
##신은
1975년
이전의
중세
중화민
청나라
흡수
부상
했던
1976년
외부
라인
워싱턴
곳에서
Sh
1963년
##번째로
피아노
##경기에
##산이
1948년
개시
해당하는
1969년
##가이다
브리
##ore
##형은
47
##버그
벨기에
이야기를
부활
상륙
거리
그들이
수집
##류가
시즌을
원주
현재까지
이용해
분쟁
선교
재위
받았고
모여
##드시
##격으로
이들의
승인
##사인
해에
친일
히데
후에는
아테
##비의
제대로
신성
아들이
##협회
##ich
때부터
깊은
##분이
것이며
받게
##화와
거래
##리아의
어떠
발견된
대공
베이스
주어
콘스탄
돌아가
도중
##물은
3개의
기술을
DNA
##었다고
##소프트
159
강의
##즈는
이제
##에게서
대학교에서
##키스탄
자신들의
1968년
1950년
대략
보장
이나
하면
공통
상승
조절
종류의
피해를
정책을
건립
수송
진압
창조
##대회
##OS
st
가서
##통을
이하
##ant
1960년
경상북도
취득
##석이
##경의
집행
##공업
##ain
운동을
이뤄
호텔
효율
##되었을
선보
아르헨티나
훗날
##리우
##만은
LG
시티
한국에서
##하였지만
헝가리
1980년대
이탈리아의
##세계
##에르
##되면
총리
##소와
경성
웨스트
##로그
역을
1977년
44
내의
##음이
##법의
능력을
온라인
##히는
##선으로
##형으로
##제국
시작으로
나치
건조
슬로
목표로
규칙
응용
페르시아
단계
그와
##마의
##단과
포함하여
소수
1946년
사건을
출입
##차로
각각의
##시킨다
52
공을
행정구
레드
맡고
##였으나
우려
##per
활성
장면
수사
말레이
잡아
지키
##리적
##호의
카운티
##기까지
PC
말았다
##전과
##이와
존재하는
않으며
지어
##생의
간단
만족
##ens
인종
설치되어
독특
달라
신인
팀이
##일은
구속
##모를
##오프
뜻을
to
이용한
1로
농민
##안에
운용
불법
로버트
##경제
동원
전공
맡아
시즌에
보아
##겠다는
1일에
어떠한
주둔
경제적
주식
남은
##터는
반드시
방사
탈락
선거에서
re
장관
##보는
영입
일부는
##권은
##SA
##시설
##art
앞두고
만주
생긴
아미
포도
Be
이것을
4개
##라와
##조에
##킨다
제외하고
기록한
사건이
대기
제어
##FC
##음악
연구를
유명하다
미디어
엄청
향상
Sp
학문
##에만
##박쥐
점점
개신
것이라는
아침
울산
트레이
##ord
오른쪽
##어진다
양자
운전
46
시작하여
서비스를
역임했다
적절
동남
전파
평가를
##리노
##건을
대표팀
한반
다수의
##티노
끝난
1964년
기대
트로
챔피언스리그
되자
##미를
##생을
대부분은
승강장
이집트
자녀
전통적인
##자치
동계
국회의원
맞이
문화재
54
노부
검찰
##ff
##공화국의
계기로
풍부
갖춘
##들어
##크가
나타내는
모아
진보
##문학
프로세
##의회
앞에
##겠다
##io
보낸
왼쪽
연관
차별
삼각
##교를
1940년
##들로부터
소비에트
3차
고종
사법
사태
인지
갈라
채용
장군
마케
경우는
1967년
##권에
없다는
자살
메이지
지붕
##터를
##격한
분열
##본을
스케
프로젝트
일찍
##주의를
마침내
##기에서
##경찰
##조합
학위를
문헌
##곡을
둘러싸
태어났
오페
오스만
빼앗
##마트
발표한
파악
인기
##리우스
##치아
신뢰
음반은
타이완
느끼
상당한
기자
이룬
##니아의
모양의
마지막으로
##정으로
들어서
##국에서
##명에
정확한
수상했다
성인
##영화
스크
1990년대
갖는
합성
작업을
##쿠라
회전
많아
콘서
Pro
##차가
##락을
인도네시아
부임
논란이
실질
Con
지니
발표하였다
##ort
교육을
##oh
##식에
차트
대성
##미가
있음을
향해
##로마
1949년
받을
목소
반대로
##장이다
니콜
스티
1962년
당시에는
해산
##하마
교환
박정
1개
검사
##주의의
##시키기
세르비아
마이클
왕국의
올리
##플레이
늘어
하였으나
##법이
##문은
##패를
1944년
##네스
FA
연출
작품은
성능
가을
##해도
177
잇는
##국으로
여기에
##망을
##항공
저작
지낸
체코
##틀러
철도역이다
전철
지방의
명확
장치
글을
6년
일치
에어
국무
최다
학습
출간
위반
헨리
리더
##화되어
##무라
1966년
하나인
미군
주장하였다
##저우
무시
유기
동작
상품
것이라
하였으며
##장인
그렇게
후속
##마이
1965년
알려졌다
1위
인접
파라
말에
He
음악을
Lo
##명과
##20
되며
소녀
가졌다
오랫
53
의무
##미는
##선과
사용되고
건국
때의
조작
##없는
세인트
일정
##ST
특별한
트랜
##end
##노동
0으로
승진
카르
##나이티
49
51
브루
##ik
자극
##제와
##이센
빌보드
완료
후기
##바로
##론의
소장
지냈
##프레
##왕이
접촉
##민족
형태를
개막
문제로
##자들에게
예수
1941년
처형
바깥
질병
##항을
대통령이
##구에서
##레오
제공한다
올려
좌우
출신으로
엔터테인먼
마치
오랫동안
분위
수원
##일이
분할
##산화
심각한
동성
시리아
보안
강원도
##연히
유나이티
##ok
둘째
밀도는
갔다
##방을
무너
600
썼다
##동으로
800
그레이
개발한
버전
##조사
개최된
받아들여
3세
선수가
메시
주관
##되었다고
##다면
개입
보관
에피소
쓰는
##임이
전라남도
연대
##주었다
##연맹
해양
##ure
이루어졌다
성적
##자로서
바라
흘러
##주년
이성
아들로
##씨의
단독
##조판
4개의
헤르
##으니
배출
승객
고속
시작된
서버
시카
테러
Coun
##미의
1961년
샤를
감독이
##페이
심지
##로도
위치한다
거두었다
##였지만
베스트
99
제8
함락
##19
도쿠
아메
##타르
자세
역사적
덴마크
연재
크로아
주장한다
선조
사람들의
활동했다
민주당
특이
7년
성향
##시티
1919년
복합
##기간
##거운
안에서
요코
시에
혼합
없으며
절반
##조직
##인들을
발발
항성
시위
##하였다고
의미를
상대적으로
골을
##었기
침략
56
##산에
후지
지금까지
##ment
예비
희생
부분을
##iver
##책을
##평가
후계
새겨
조종
그레
##들에서
##파는
120
일부를
##ib
##레옹
세계의
잡지
관계가
지위를
##생물
스미
지급
군주
기회를
뜻하는
##역에서
변화를
터널
##표를
##슨의
이후의
##이었지만
않게
테이
분명
주전
Me
얻은
추천
##디션
##전문
행동을
##범위
김일
아시안
쓰고
유럽의
규모의
노출
##qu
상황에서
사망했다
1970년대
기울
장교
새롭게
##포르
그때
##석은
누구
1939년
대개
하에
뉴스
##으로도
구현
레오
##하였던
##사관
##리다
##리칸
이르러
공연을
##질이
무덤
##고속도로
명을
받았으며
##각을
실현
마이크로소프트
상태로
육상
지내
보병
확립
58
##부인
나폴레옹
95
아티
직업
발견된다
##름을
창단
입장을
주지
사냥
프리미
독특한
높이는
주택
설득
##질랜드
##으로서의
기둥
완공
##그라
##토의
보았다
완전
천연
지시
##투스
프로그램을
K리그
신청
함수
경기는
미니
한정
##우리
나타난다
듣고
출범
후보로
##IV
등판
##복을
감독을
##랐다
##ld
받는다
아사
88
법칙
아버지는
길을
곡을
마무
부르는
가스
발굴
미나
##교통
임진
##민주당
다스
재건
중에는
마르크
뉴질랜드
공군
어깨
합쳐
두려
##사건
##라이언
원년
방법으로
있었기
스탠
이들을
신학
##해가
길이는
놓고
##주의적
##치게
85
충청남도
##man
##율을
성을
##iv
어려운
앞에서
사임
사람들을
아라
번의
불렀다
침입
추구
부상을
두었다
##해져
이름의
170
지역으로
졸업하고
전까지
데에
포함한다
##적의
##시스
행위
##ct
일으키
효과를
가지는
제공하는
합격
멀리
##스럽게
치러
롯데
자이
이고
반도
근본
방면
##뮤니
개신교
미드
##되는데
다르다
경우에
인구가
준우
프로이센
00
완전한
음식
하위
당초
어린이
망명
이기
시작한다
폐쇄
기록이
재배
##여서
해야
국민의
Se
노래를
취소
##ational
지켜
##iz
나왔다
##화되었다
##타는
##상태
66
단지
유행
참전
##체와
돈을
가담
##일로
편찬
##리코
미야
특정한
변환
아스
##가인
##함과
만들어졌다
가문의
간행
도와
역으로
162
관여
##섰다
1960년대
##련의
몰아
의식
##하지는
고문
나아가
배우이다
차이
필요가
녹색
독립운동
알파
적합
##쿠스
##텐츠
##앤젤
성공을
로켓
1947년
언제
##예술
만들고
1920년
반란을
##BA
저서
##비치
분노
위성
##무부
기록하였다
혐의로
처벌
최우
발생하는
##조로
##터가
##니가
학술
##지원
##났고
관련이
##ov
왕실
동아
거듭
통산
##총독
중인
##미야
벗어나
일시
조별
텍사
코르
황금
##었을
##리나
부하
철수
##의의
##통신
로스앤젤
의심
인디언
정지
##니즘
제작한
##학자들은
공헌
저술
##개혁
##판이
광범위
까지
##티오
인쇄
##동은
##방의
소속으로
##인민공화국의
빅토
##물이다
##어야
곡은
일본에
##일본
공업
1958년
##AR
1000
발견되었다
국회
엄청난
유일하게
데이비드
코로나
돌아와
세력을
##종을
##린은
않지만
들고
다르게
테스트
가슴
펼쳐
사우
##이므로
##ock
부대
##화한
도시의
화물
올렸다
##되었다가
터미널
##토니
##파를
##ect
정기
도덕
##바라
어디
단편
맡은
중이다
##마르
1956년
가치
단어
##역의
해도
US
##계획
석유
페이
사운드
인권
##ly
57
1942년
무게
##령이
김영
속한
후원
##재판
##ast
시스템을
##ind
로마의
제일
기다
##론은
##one
대리
대수
벌어
##선수
161
이루고
대부분이
나이로
내렸다
현상
확률
##론이
You
다소
##치지
정비
##무늬
상위
##요시
##고는
##머스
##au
포함하고
고유
임금
5개
드라이
영화는
끌어
##층의
NA
##시에서
##퍼드
1만
플래
다운
##지컬
지지를
##진의
자리잡
변형
##슬러
개체
소송
##사이트
##ory
따로
##터의
##석의
##동맹
##양을
클라
이시
2000
대표하는
신호
신체
##고기
사망한
##터리
나타나는
성적을
##에른
긍정
투쟁
##역이
다수
##카가
km2
크기
##듯이
##관계
강등
프라
##백만
##주고
1943년
SK
전면
미국과
시카고
왕조
해리
메인
포지션은
##내에
계통
63
프린
##학에서
그곳에서
존재하지
나타내
쓰이는
영웅
바닥
##브라
노벨
##ith
출장
##진은
프리드리
Par
기상
눈에
정체
##자료
소련의
여겨진다
오직
홍보
175
전형
프랑크
지은
탈퇴
##프리
활동하였다
##진이
##인도
스카
가게
준다
##관과
연구에
##로와
원주민
62
보여준다
등급
밝히
부친
##국민
##신으로
영상
1959년
프로그래
감독으로
영국에서
논문
즉시
68
##드라
##루가
##파가
초에
동안에
##체스터
게다가
못하는
권력을
##중앙
지속적으로
Am
스프
그래픽
다케
수요
##재로
비례
활약을
다다
레알
조지아
내가
##되어야
매일
있었다고
사실이
스페인의
주장을
176
스키
부분이
##씨는
##카이도
사용된
지도자
리처
자리에
##하므로
선박
명나라
1954년
##되지만
방해
이혼
##안의
그것이
##에이
챔피언십
민중
위로
##들이다
##조선
가나
금메달을
성경
학살
주최
이끌었다
바이에른
맞아
##받는
박정희
##동과
##키가
의학
커뮤니
1952년
참여했다
변경되었다
##족이
72
곳으로
권력
여객철도
복잡한
관료
일어나는
우리는
##물에
일부가
작품이다
##보고
세계적으로
남쪽으로
체제
##르기
##ust
유고
명칭은
구입
개조
작동
히틀러
가리키는
알바
74
파트
현지
##포를
##학교를
IC
않으면
##함이
이후에도
##ER
부담
해상
억제
통계
##우가
158
의혹
집권
##류는
느낌
정교
##시험
명령을
지금은
크고
문제에
##인에게
선전
스마트
보유하고
천주교
##영을
고속도로
분자
164
IS
이들이
책임을
사업을
##정과
브라운
병합
시나
니시
나누어
전부
##색의
되는데
상을
163
순간
1953년
받아들이
바뀌었다
바르셀
이른바
다음날
대통령은
방지
오프
##리며
##ond
연결하는
공중
줄어들
SBS
협회
##례를
##세로
대통령의
장비
##ood
##ath
선정되었다
##관에서
속한다
프로토
##tern
호소
대회에
리버
##우를
##우주
사망하였다
도요
방식을
##종으로
연간
CO
##역은
위치를
서울대학교
전쟁에서
뜻한다
##는지
##오스
재개
상황을
##역에
개별
일어났다
그로
발탁
En
98
이었다
일정한
##축구
##세대
##처를
##천만
한나라
사단
희망
##씨가
##질의
부분은
Sc
로봇
필요하다
시리즈의
중부
1955년
없을
이온
연습
##차는
이어지는
내셔널
더블
추방
시인
##스트로
##ence
도모
파르
포함하는
##km2이고
양의
전쟁에
점이
구매
##직에
액션
찰스
##BO
완벽
##안이
로드
##연을
단위
돌려
맞서
##tive
내용이
문을
심리
역은
만한
갑자기
네이
인용
조선의
73
##IA
##공사
정차
되돌
노르웨이
아테네
못하였다
쿠데
타임
밝혀졌다
충분히
검토
##느냐
경주
국제공항
공사
노스
상실
AP
Ro
장남
싱가
##즈가
통상
열렸다
말하는
이웃
자라
얻을
사람들에게
후임
2022년
군이다
##격이
아들인
Ma
대장
제이
아름다운
59
투어
##전에서는
화이트
##루를
##왕은
복무
152
능력
임무
SS
수십
없게
##왜란
이상이
루마
사용했다
계속해서
북쪽으로
자금
추기
개념을
미사일
밀려
마크
이전에는
플레이오프
쓰여
역사를
책을
18세기
특징이다
유형문화재
티베
##우의
살인
조선총독
만다
비상
세웠
76
가이
국도
##ial
##달러
브레
궤도
##마를
여성의
일련의
남아프리카
700
왕의
반응을
무사
##다란
상태에서
추가로
분야에서
물을
성직
언덕
했는데
초기에
대체로
동양
뮤지컬
남아있
전력
나왔
초등학교
##ide
왕이
##영은
저녁
한글
게임을
연산
1918년
다룬
##sh
대량
##개가
##경이
140
종사
프리드리히
165
1938년
임진왜란
##데이
##렬한
##했다가
화합
1인
토지
아이디
그들을
내세
나타났다
기소
상하이
카드
##만으로
##박물
2세는
달하는
코파
##타운
말레이시아
개칭
확산
조카
경향이
##강의
##색으로
단순한
강점
벌어진
포스트
미국은
커버
화려
156
개인의
계곡
선포
1957년
##마는
전쟁의
아버지의
부진
다리
##레아
갖추고
마무리
##렸으며
168
##체육
흑인
##고가
내놓
##동생
사회의
자원
##평을
주기
96
수의
##니스탄
직원
61
독립을
작품으로
골든
권리를
20년
근처에
County
무한
선생
소식을
오버
프로듀서
시작했고
##트릭
##kg
##크와
싸우
소멸
지불
임대
징역
필수
##야의
##TA
파워
1936년
외국인
기병
##하기를
전주
NH
군인
##르를
루트
여섯
##점의
##파로
77
후인
히트
비롯하여
일으켜
가까이
텍사스
꾸준
##투아
##조차
달려
입고
영업
분해
에르
전신
창작
##만한
상호작용
구글
도전
극장
상관
위대한
##지이다
##가들은
해발
단순히
라이트
수소
의미하는
총선
격파
블라
수석
탄압
67
복원
##ug
8강
나고
##마을
##타의
##혁명
평안
##린의
아이돌
직전
##aw
##베르트
1937년
싸움
CP
선호
초기의
##영의
##네이
근육
급제
Wh
동방
##사단
승려
폴리
##ric
##되거나
군의
용어
세상을
스탈
8년
##입니다
앞으로
따서
끝내
우리가
그녀가
쓰인다
##법으로
##목을
활동하고
10월에
이루는
1억
거짓
##위와
나타낸다
대부분을
##경은
가난
개방
##ack
보편
양쪽
몸을
서쪽으로
##안은
##ace
##환으로
유효
##루는
전직
86
대대
1번
병원
내용은
김대
시상
포켓
대상이
좋지
##카의
3월에
그럼
Bl
올해의
유치
만든다
작곡가
탐사
##베리아
일은
전투를
최우수
주간
##ary
가와
##았으나
연결되어
##자들과
사우스
기록하며
참여한
이로써
재능
죽었다
##m의
코드
##타로
##DP
2로
역이다
12월에
재학
157
보물
##되게
설치된
손을
특성
##부대
운영하는
개설
##서양
멜로
위원회
교회의
서서
현역
1914년
떠났다
지니고
재생
오늘날의
87
##현의
보건
들어갔다
Co
걸친
연료
사용하였다
유학
##장관
구멍
보냈
Sch
##공을
발언
##ton
본격적으로
비트
십자
##즈를
하나가
##어버
고위
문제는
전송
동쪽으로
##국가
##별로
##코는
나라의
정부에
##열을
대한민국에서는
크로아티아
디스
일컫
Bo
제9
##과대학
##키의
##감이
Wor
위에서
차단
##ah
Ph
##오의
##츠는
2008
일으켰다
들면
인구의
자전
크리
미리
가리킨다
Col
##pe
1930년
임무를
##데르
사용자
별도의
##시스코
정치인이다
원인이
##하기에
패션
폭탄
등장한다
##EC
바르셀로나
예정이다
오페라
사퇴
편이다
##iss
수리
1933년
암호
영토를
어머니는
출시되었다
AT
보이지
154
1951년
아틀
유배
회장
145
##강을
속의
##국과
사람들
##환을
강요
덧붙
유발
하기도
진행되었다
##속에
집에
##기록
##고등
그리하여
하여금
포함된다
구성하는
되기
열차가
에드워드
말이
잠재
##율이
##BM
고객
수영
##기념
##보살
##베스
동북
##활동을
##면에서
주장하는
히로시마
화산
차지하고
##비에
심지어
속해
상태를
신분
당시에
넣어
##미르
프리미어
WW
##비스
##식과
높다
##고의
##사우루스
본질
잠수
로스앤젤레스
중학교
##루의
##치와
##천군
프라이
##론에
뮌헨
암컷
차트에서
한일
조선시대의
설립되었다
시사
지향
잉글랜드의
미쓰
##계로
도쿠가와
Te
개척
##up
김정
디스크
한국어
돌아온
않았지만
서구
유전자
교향
사전
기록은
166
아래에
사마
혈액
##군에게
##실은
이상을
##였는데
##배우
토론토
일상
크레
지중
##공산
서기
##비시
##olog
적극적으로
득표
보스
산화
팔레
##형에
왕조의
장소
영구
와이
아버지가
84
원소
알고리즘
##아서
97
프랭
상속
##에선
대다
com
가깝
##ire
##개로
130
입장
지구의
있으므로
##물과
가공
##정에서
##사무
93
##름이
기록되어
이르렀다
78
갖게
연예
형식으로
재임
##카는
노선을
명으로
피터
올림픽에서
##드리아
동해
155
비판을
남겼다
약탈
제도를
최대의
넓이는
마음을
아메리칸
삶을
자가
탄핵
한자
공산당
공화국의
유한
##발을
##목에
##친다
##츠의
9월에
광복
##비로
##모가
강하게
무대
일종의
##스트라
000명
##다의
##호에
운영하고
##장애
아티스트
홈런을
성우
##인인
가설
1932년
##유를
진주
##공원
##에서부터
안드로
##로서는
주변의
153
수준의
소집
영향력을
특징을
북아메리카
##왕을
영화의
업무를
입법
훌륭
1935년
##마가
##하를
##가락
서술
일원
처음에
선임
사건으로
성공했다
바이러스
명칭을
콘스탄티노
##면이
호수
나뉜
루이스
000명이다
적응
인기가
151
고급
추산으로
생태
특별히
My
##아는
##재가
발간
이룬다
밝은
입은
철거
촉진
클레
가진다
Joh
자는
##조건
인터뷰에서
Man
멸종
후쿠오카
기반을
3대
소프트웨
전라북도
배포
웨일
71
오케
##펙트
##드러
가속
##프와
복음
속도
캠퍼
결의
1910년
2번
과도
17세기
##ris
##파와
위치에
##하라는
자이언
유력
92
##이닝
대표로
부르고
가상
노동자
반대하는
##니스트
방법은
알레
않기
이라크
갈색
구성원
영향으로
모바
마주
물려
북미
##서와
##가타
##에서만
기여했다
##게임
태국
##의원
##화하는
데이터를
뚜렷
소득
칼리
##대부
##결승
세계대전
여러가지
힙합
##같이
호흡
아동
11월에
일단
질량
백성
진학
##거래
이어서
드물
발휘
장수
##ont
MS
죽음을
##프라
##코스
세월
이익
##행성
##갔고
##등을
미국으로
면역
##았는데
후퇴
원시
힘들
##판은
살아남
Ad
##ivers
항의
##실이
유대인
##ck
교차
압도
혼자
##침을
허락
##rom
1934년
##이게
도움이
비틀
##기인
2010
##슨이
6월에
신의
엑스
4월에
상황에
스티븐
관객
이른다
##리안
선출되었다
가치가
군대
로맨
오는
172
의도
##해에
카라
##학은
초기에는
유통
##면은
##소설
음반을
수술
할아버
##국제
출전하여
보여주는
파키스탄
출연했다
HIV
중성
82
비공
수를
인상
주력
이론을
오다
##ical
불렸다
쓰러
커다란
크다
##ive
수상하였다
##산시
5월에
##중한
중화민국
실천
화성
##로에
##한의
향토
화장
나온다
게르
##았지만
신고
1924년
167
##대장
정식으로
DV
하인
##방향
##호와
교류
창원
발음
초청
상태가
감시
##보다도
참가한
##세한
##천시
리처드
본다
농촌
획득했다
##군에서
사랑을
생기
아프가
전체를
##기구
다이묘
라고도
1세의
이벤
착용
##마뱀
174
8월에
막기
적어도
정통
폭력
대동
레닌
진격
##비히
##지면
정확히
목숨
접한다
##ass
집을
포트
기본적으로
##까지도
이외의
그러므로
올스타
그럼에도
자랑
전화
##그램
연구는
올라가
기구
달아
지칭
al
공장
호주
##여자
##주의자
New
대법
91
권리
블록
용어는
1928년
일본은
안토니
대학의
또다른
서명
##학에
##산과
##했었다
세부
수컷
숙종
황제의
##폴리
##클리
드래프트
6개월
##위에서
사도
##피스
##족은
방정
엘리자
대학교의
식품
##고자
##렀고
사건은
감정
계층
형사
후에도
이어졌다
사건의
##실로
7월에
데려
타이거
그만
##우스는
불가리아
공기
구원
만들기
94
이명
##하여야
맨체스터
이념
동성애
km2이다
김성
이자
##중의
Love
소형
##적이며
##중을
지나지
##ies
##미아
가마
부유
##토는
##age
모터
주에
나들
보스턴
부동
##러는
##MA
영혼
하던
##한다면
이용할
맞추
##행위
원래는
부탁
검색
대변
##ep
입력
2세의
멀티
어두
콘텐츠
없었고
인조
리그에서
아프가니스탄
##양이
되었는데
지리
한성
에너지를
곳이다
땅을
벨라
많았다
서방
웹사이트
해당한다
그들
##간을
유튜
환승
##리언
기도
##ula
글로벌
81
열리는
화가
an
안동
변호사
방언
말로
소규모
연고
바이러
##판에
참가했다
Car
담고
남겨
명시
##씨를
##됨에
##ite
미드필
83
원하는
##스팅
포켓몬
##더스
교사
신화
##자키
게임의
의견을
##디움
##하면서도
수도권
##목으로
110
배경으로
골드
대화
##부장
##주의와
무릎
시드
집필
체육
##체인
171
강을
밴드의
비정
1921년
중추
자체가
##폴리스
##슬라비아
이외에도
69
제네
포함된
##운동을
이끌어
축소
##orm
##스부르크
##먼트
1931년
사건에
보험
2012
최근에는
미국에
쿠바
하느
cod
감옥
군사를
마드리드
발전을
취리히
##ier
사다
주된
##대신
139
트라
없지만
##밀한
##ann
개량
맺고
##힌다
루마니아
##단에서
대한민국에서
##당하고
형성된
EP
들은
##레인
주제
##이상
##절을
그녀를
작품의
극복
감독은
꼬리
카자
##연대
##되던
순환
##래프트
사이를
개봉한
로렌
##타가
손에
##디는
분기
모습이
번주
상태에
모바일
말라
세력이
그라
붙어
##령의
철저
##구치
관계에
스프링
가치를
##담을
미국인
자신은
Cl
예방
##슬로
수백
하와
이르기까지
덕분에
##조참
1925년
메탈
도미
101
실제로는
1세는
##동물
소방
##자동차
We
##시장
##시스트
##니와
Ex
영화를
##식에서
##되었다는
본토
중에서도
##아이
##시리즈
##리티
##양의
주목을
##유가
조선시대
나타난
미드필더
##제르
하버
##집을
베네치아
89
감각
마감
결과로
동반
##케이
고안
수밖에
증언
##계와
1923년
경기가
것인
앤드
인류
시절에
JR
운송
로서
##성군
##심이
적절한
가끔
오키
##받침
##ase
공주
크라
회사의
##ID
일으킨
ch
백제
##비트
HD
종교적
소리
유입
치렀다
받으며
6개
on
콜롬
1929년
급격
밀라노
사막
유용
##행정
##남도의
남녀
현존
1922년
##용을
##배를
AC
말이다
요미
##하에서
##비디오
일어났
와서
타격
##관계를
##주의는
스톤
잡고
유고슬라비아
독재
##프란
농구
##지니아
##족을
예산
편의
반면에
##포로
쇠퇴
관해
독점
##테이
세계를
적도
크루
##노스
하느님
##졌지만
첫째
실내
준결승
##민의
##결을
고고
놀라
마그
16강
운동에
종이
허가
레이블
없었던
##나게
프로그래밍
거느
평론
문화적
사로
##라면
##당으로
##페르
Gr
못하게
##즈니
재즈
리드
새끼
##son
나이에
놓여
되기도
연안
##다시
##학자이다
2009
때문이었다
소화
탄소
보이고
안내
칠레
##차의
##졌는데
우에
영국과
않았으며
아무런
국정
발레
##신문
##자였던
##오고
김종
있어야
태양의
열었다
인도의
##마저
명성을
##독립
넘겨
말해
pro
새벽
##치기
파트너
결승전에서
나뉘어
르네
주거
행위를
##ost
발렌
지역이
고통
함경
1의
혼인
그리스의
유럽에서
아르메
도중에
법적
제10
논리
중립
##본은
거리를
수직
##왕후
정부를
닌텐
포유
현상을
앨범을
##석으로
벼슬
맺었다
전형적인
국경을
##ft
권한을
싱가포르
주재
##제도
생각을
상황이
성격을
수호
##0m
사가
##졌으나
필라
##로미터
##중이
##ach
##자이자
게임이다
전문가
유적
##르와
##건의
삼았다
우수
리그의
부산광역시
##슬라
##졌던
국가가
모임
1군
풍부한
영감을
출현
##AN
##ere
기부
마틴
영양
##말로
차지하는
오카
규슈
비스
Pr
공원
패턴
1917년
맞춰
##역과
발생한다
관계는
UN
강남
알리
3번
후보가
때마다
심장
##코의
거대
베토
석방
예외
##ound
WWE
역임하였다
성과를
모험
##쳤고
사항
원인
이은
##교도
도시를
2층
구사
되찾
파크
##당에서
병력을
##클레
결정했다
라틴어
바둑
부상으로
홋카이도
##라에
부속
초래
##브를
가능성을
##가능
코치
##게는
##프랑
겨우
천체
##부사
비롯해
몬테
소스
##도니아
아오
입증
트럼
거둔
수감
행복
##레나
##모의
플로리다
##보호
압박
동맹을
##년에
석사
##슬링
30분
뮤직비디오
삽입
운반
리투아
소요
음반의
다루는
바람에
주어진
파생
않았던
곧바로
크기가
판타
##란색
##바키아
1월에
효과가
th
들었다
건물은
센트
얻게
토벌
##우스의
베토벤
망원
결심
##les
##토리
배급
재료
149
탐험
##의가
모양으로
4대
Su
모토
현대의
근로
개명
산하
변화가
AFC
일본인
##감독
##법인
2013
##령으로
감사
역에서
요코하마
돌파
##로지
##스에게
Univers
해협
기능이
필요로
DVD
전술
캐나다의
두려워
지었다
이름이다
고리
무관
##정치
그리스도
##작으로
1927년
##tem
Br
당나라
들여
신도
##우고
##치오
##르바
꾸준히
##ung
메트로
##행이
Is
방향을
대해서도
무리
자매
죽자
##문과
메달
밖으로
이미지
생애
##주의에
중시
졸업한
가시
##치며
##제에서
대학에서
000명의
2011
영원
일곱
##아웃
##실에서
##브로
재산
정권을
탑승
##계약
정치인
부문에
세워진
동굴
보이며
순수
이즈
##가시
고립
관심이
2위
갖는다
접속
아리
콜로
##나마
##너스
포항
못했고
찬성
교수로
법정
사찰
##률이
BBC
불리며
1부
벡터
대원
이라고도
단층
SN
노무
벌였다
##타마
메모리
무산
오리지
##세와
##키퍼
##통합
##하시
사용하지
남아메리카
곳은
기하
##보이
##실의
발표된
1926년
충청북도
La
혁신
##된다는
##보로
##비와
##루살
밀접
시달
연설
##하겠다고
##ern
경험을
소위
146
시가
지질
##해지고
##장한
나뉜다
배열
예로
클리
##권과
79
내는
행정구역이다
화폐
##ium
자격
지원하는
있다가
발명
크기의
박근
장례
지연
올림픽에
인물로
나고야
상하
시게
약간의
사립
##모는
되었다고
소리를
##경기에서
특허
##든지
30년
##Pa
윤치
수천
승부
클라우
##이었는데
보르
성과
작전을
##어에
##성에서
##점과
기본적인
codice
##슬림
설립한
경유
MV
삼아
우익
##토미
##차에
9년
빨간
1907년
납치
없기
##용의
담은
##하르트
마치고
##타와
의미가
한반도
모래
선두
오염
임의의
빅토리아
간에
##AM
##면으로
##루살렘
청구
필립
하다가
행렬
##되었기
15일에
##고한
존재를
대조
베어
##법과
5개의
극단
기용
퍼져
##나카
특성을
발매한
나들목
집에서
프랑스는
거친
바이올
Or
간섭
John
벗어
추적
조건을
##들인
기동
매니
붙잡
##토가
도시는
##레는
사람으로
골키퍼
##ous
물이
사진을
수반
테오
페이스
참조
전체의
공개되었다
대선
실업
성공적으로
방송을
옹호
##아르
169
##생활을
1회
당사
리듬
중지
##즈와
들어간
##기지
##크래프트
##나를
외계
참모
##AC
##피를
##노는
모습으로
곳을
뒤로
좁은
##ED
초점을
공간을
주요한
##트랙
유나이티드
OS
다녔
박쥐
왕립
과학적
이재
##연한
플루
##너는
결과적으로
1950년대
기타리스트
계기가
이용하는
스웨덴의
1호
대단
147
데뷔했다
에스파
비잔
그려져
문재
파티
흰색
것이고
세우고
##편의
전망
##ala
프리미어리그
얼마나
습격
##중인
방위
클로
파울
##이면
##럼비아
##률을
시간에
강릉
삭제
책은
##탄을
다음으로
개찰
등도
사제
외무
트위
부르기도
공룡
홀로
##리온
##오로
오리지널
참가하여
프로그램이다
레지
연락
##등한
##습을
미국이
아우구
깊이
먹는
부처
염색
##으려
폭격
1905년
막대한
매각
이날
아케
##land
##족과
커뮤니티
##류에
World
가고
##베리
16세기
##지마
##시켰고
눈을
무슬림
##름은
##yn
##PS
상주
박근혜
게시
원로
항구
##이치
레코드
공개된
##50
부분에
문화의
부드
죽고
##스피
콜롬비아
브레이
##ick
KT
지대
##야구
##각형
2번째
만난
태조
##ear
임신
상의
아니고
문화를
압축
예루살렘
##였다고
2월에
공식적인
음성
##타카
했다고
자유를
인간이
AM
손상
패러
세계에
끝으로
##체에서
##대원
##왔고
걸려
미치는
##래의
##돌프
동기
사유
사령관
트라이
주변에
동일본
황태
##ron
##에게도
##ish
1912년
##ame
동시
옮겼다
충분한
그중
별로
사촌
예전
타입
##내의
##면서도
대로
방법이
##연구소
##ile
##인들에게
##펙트럼
가질
보인
적대
전향
##니에
##토를
적색
중국에서
가쓰
전동차
조기
살았다
세균
약칭
조약을
후의
돌아왔다
주니어
총선에서
아마도
광역
오이
KBO
경계를
마스터
##사우루
들이
에스토
##사이드
학사
##az
##터와
##IS
콘서트
##프란시스코
개발을
데뷔하였다
데리고
의정부
천안
규모가
2회
가득
매장
역전
입었다
##트롤
도시이다
광범위한
협상
##실한
군대가
군대는
단행
서쪽으로는
하사
##투표
##IN
생각했다
스타디움
전해진다
곤충
대칭
양산
휴대
크림
141
등장한
스트라이
2만
##미술
##지기도
소속의
플레
직접적인
##국인
긴급
동쪽으로는
##대문
##리케이션
##판의
준우승
성남
##어에서
##함은
##류와
수익
세계적인
레벨
막을
남쪽으로는
##청년
쇼와
산악
##하라고
##공신
차지하였다
안드
2007
사이트
카메라
마르크스
베른
전염
추대
의미로
경전
구상
좌익
##호쿠
##ool
##보험
1906년
위키
작사
찾는
##도서
2016
일환으로
##나라는
##론적
관련하여
보여주었다
사형
이익을
##류로
발표되었다
때때
빨리
##본부
##라고도
활동에
보기
분산
선제
박물관
일대
중동
##머리
샌프란시스코
##브레
목숨을
SF
간접
라며
라이프
##석에
##amp
위기에
##미사
급진
오디션
##구조
10만
##하였을
144
일부로
아울
측은
##훈련
##시스템
##수이다
훈련을
블라디
야기
##사람
##환경
과학자
장갑
코믹
후반에
타이틀을
서북
##성도
##일리
아직도
남긴
두드러
뿐이다
항해
세리에
버리고
웨이
##우라
##율은
173
##야는
##계열
##티스
2014
결정을
올린
초상
##오가
발라
유인
##12
체험
##고에
지배를
250
요구하는
배제
거리에
피렌
##살이
경력을
모순
모양을
모음
##니카
##북도의
##끼리
##해군
##릭스
익스
실시된
관광객
스펙트럼
잃고
이행
##편을
1908년
과거에
못한다
시모
계획은
다큐
막아
우라
##나고
##노의
발견했다
영조
지역과
나라를
모듈
사용을
였다
한신
##문으로
발생했다
수록되어
내륙
심한
##면과
유지하고
공동으로
마법
않도록
내지
비로
활성화
서독
옛날
막부
사과
색깔
토마스
하천
편지를
##보병
##았을
활동이
##old
아마추어
때때로
냈다
북쪽으로는
점은
##애나
아웃
##bert
차이를
##등의
백인
스승
시를
##플로
관하여
브로
##orn
들어와
Ed
빌딩
심사
인증
##마에
도메
##IC
##ale
##파에
살펴
일본이
되었으나
레인
버지니아
##등이
회색
##니를
관점에서
##리브
##드르
계획이
학교를
아르메니아
##실에
##방에
돌아오
전작
전체적으로
2위를
이하의
##ON
유튜브
El
그랜드
그동안
공정
##곡은
##직에서
지방에
라이벌
자료를
우승에
그레고
능력이
빌헬
##무네
##코프
운동의
재발
하우스
반사
셋째
이수
##오와
된다는
잘못된
개국
떠난
목격
빛을
호남
대만
싱어
창당
가해
불만을
열차는
근처의
All
리가
엔진을
시스템은
독자적인
It
영주
지어진
쪽으로
피난
##나르
##yl
추락
##청의
원래의
15년
못해
시작했으며
모로
원형
합리
선거에
거슬러
##하러
##출을
##장군
##원숭
##마자
국가를
않는다는
크로스
##히고
##졌을
찾을
##속의
##ance
##ome
사로잡
동영
##병으로
대신에
모델로
명칭이
청주
우수한
성벽
2015
##자이너
건담
양식
##중학교
합동
역사가
등장인
내내
통화
##자나
노선이
중력
토너
작품이
창간
지지하는
길이가
우리의
현급
태어났으며
고시
위상
전승
모르
##다니
분야의
제공하고
옆에
코스
##영이
음악가
결과가
리눅
발효
##파이
##말을
움직임
모집
요소를
복수
최종적으로
케이블
3D
미시
불렀
친척
##션을
148
##스테이션
원자력
가라
수단
##대사
##자유
법무
##린이
가능하게
티베트
제조업
고양이
##000
Ac
마오
##신경
##플러
맡았으며
아들을
2000년대
주장이
##위원회는
##oph
공무원
대의
사양
##청이
125
도구
말은
비평가
정수
태종
##병이
날개
용인
##겼고
위치하며
성공적인
열어
저널
##이라고도
이세
##청은
다음은
##이라면
클래식
거기
다가
흐르는
시스템의
뒤인
장르
전의
##령은
프랑스에서
발생하였다
##조판서
IP
보살
제국이
이곳에
왕위
힘이
당했다
유키
타워
##였기
머리를
제11
말할
중이던
##등급
12년
##비행
1900년
훌륭한
보좌
섬의
섬유
자리에서
내용의
진출에
취약
해임
개장
악화
없애
있으면
대회를
열매
##대상
135
달러를
알렉산더
##총리
##ism
항공기
야스
SC
지표
중심지
부정적인
##민이
일로
##아를
가지게
미얀
유물
진정한
일관
민주주의
물리학
경남
동서
테크
##금이
100만
1세가
저택
직무
##보면
선형
융합
점성
야생
##령에
143
SM
전임
##음에
##교가
군사적
##분으로
기록하고
2세가
총재
폐기
리투아니아
부통령
팽창
호르
##ree
이승만
6개의
대지
진술
##바의
있다면
청동
##마루
접하고
토착
힌두
나선
별도로
##노미야
아니었다
##들과의
카페
##문제
이야기가
##액을
서서히
발족
##ica
온도
시대에는
구로
스릴
해병
##향을
##유산
##롤라
##받지
역사적으로
최근에
이곳에서
시조
우루
사용해
경고
무력
##루미
국가에서
고지
내부의
마시
머무
여왕
2017
근거로
지중해
시기의
##작을
##츠와
전투가
그랑
동아시아
##공학
앨범은
말하며
##스톤
##지구
성의
##중심
그룹의
때로는
비극
이론은
하나님의
##곡이
하나를
애플리케이션
##우에
사용자가
##학과를
기온
약한
입대
전원
주파
##렸던
경기장
자손
자유롭게
두번째
목적은
발현
일렉
##tt
때도
지역에서는
1일부터
섭취
역의
충족
##후에
09
재단
##론과
##TS
이명박
##티는
##티움
사람에게
몸길
부패
종로
아니며
문화재자료
or
대서양
향한
##OR
공략
수업
##ix
##보의
미네
스마트폰
##된다고
금강
많고
이오
플라스
##ose
약물
여성이
##30
센트럴
정벌
사이클
MVP
다큐멘
가야
메르
연계
연구가
제국은
##oci
##데이트
말하고
##iel
##공간
결과는
첫번째
하노
##민당
Mus
메디
입사
착수
##스와의
##정도
포함해
포함되었다
4번
꺾고
변신
대주교
두개
연루
않았기
아틀레
곳곳
속도로
Ge
진단
##보가
이어져
카이사
전통적으로
치료를
실용
언어를
##연의
##ork
사이에는
디자이너
##하가
##OC
획득하였다
당한
포로
면에서
자격을
##편이
주제로
모노
무대에
적의
##그래
고조
말한
##함으로
속도를
언어로
얻기
간단한
신사
##스티벌
일본어
지목
138
##본이
노선은
퍼시
##AS
이외에
아트
조용
채로
전투에
남한
댄스
설이
##eth
합법
##센트
##리스토
결승전
나의
최상
현상이
##48
예언
맞는
코너
해설
아니면
Intern
##전자
감지
뜻으로
흔들
##미와
1904년
분데스
포크
##시대에
천황의
정원
지속적인
바티
영광
퇴각
화려한
순서
재무
결혼을
확인할
구름
서울시
성균
##모델
조선민주주의인민공화국의
정도가
##단계
##ts
##문관
##발전
##켰다
##효소
Tr
게재
당해
##러리
##제품
가면
무선
애국
월간
질환
대학원
CE
##터로
##tor
캘리포니아주
끊임
테마
##필드
늘어나
착륙
참고
호환
##변을
구간은
목적을
몰락
무늬
전남
황후
##이즈
살던
순위
얻는
중종
Gre
On
브라이언
##방이
##림을
후보에
네덜란드의
대폭
##ina
아이스
##학자인
사장
제후
##0km
대한제국
일찍이
도심
프랜
2018
128
삶의
이정
##상이다
##해는
적을
##바흐
2부
동지
또다시
마카
성질
##ke
죽을
청와
##자였다
##번호
발견되는
기술이
개념은
본격적인
루트비히
법학
어릴
페이지
##바다
##둥이
복사
부착
##소한
##수도
##rans
스릴러
마라
어려움을
고도
##pp
##프스
분데스리가
드럼
담당하는
규제
당의
측근
사실은
어두운
08
종전
사용하기
발생할
라우
술탄
안쪽
친선
따르는
맞게
메모
브라우
카자흐
낳았다
뒤에는
신장
어드
##숙한
2대
메리
##카드
##층에
이처럼
##회와
##TC
##리자
##형과
127
노래이다
식별
발매했다
마케도니아
병력
앨런
전부터
책봉
##기능
스타일
세대
##차별
정부와
정확하게
프레임
시정
105
건의
전북
제약
##악의
25일에
보내는
정리한
노력을
##증이
이미지를
하버드
영국은
##나라를
메가
##ox
판타지
로부터
##로써
발전에
겸임
의지
##있고
실패했다
구체적인
##우옌
##포스
20일에
한국인
실험을
회사는
##성한
기록에
이루어진다
University
권유
아베
유닛
응답
##권으로
조선총독부
하거나
##신과
##급의
##디의
학생들이
주식회사
귀환
해제
##적이었다
바꾸었다
##됐고
Fran
밴드는
##심한
시작해
구성된다
거주하는
아울러
시대를
황제가
##반의
##곡으로
2006
##ign
달러의
2루
준공
타원
##합니다
참가하였다
상영
업데이트
##주군
##리크
게임은
수록된
마친
##초등학교
##tis
##건은
대회는
1911년
곳이
뜻이다
일원으로
##물질
역사는
운동이
##oth
노르웨
Go
명백
아인
##테스
전두
##che
조직의
찾아가
어렵다
조사를
##석과
갑작
내장
운항
정조
##특별자치
아파트
값을
오고
##치면서
##속으로
여기에는
기생
득점을
##마리
나이트
장편
부분적으로
##지방법원
##0명
##바는
무용
선진
약화
##레이드
136
형태가
성공한
플레이어
3번째
3개월
주문
##보통
##종합
출연하였다
교섭
사기
##렸을
ex
충격
##황후
##금은
프랑스와
명칭으로
낮아
##카스
##안전
복구
##백을
10대
데뷔전을
드래곤
##글라
##ons
발견한
방식의
동남아시아
하인리히
일본군
##are
관통
체제를
최신
설치되었다
계열의
곡으로
부흥
북쪽에
##팀이
과거의
교과
대결
조치를
크기는
포인
급속
랭킹
구간이
거기에
트럭
출전했다
회의에서
피부
##산에서
##란을
##직한
##페이스
##널드
스토리
자식
좋아하는
CPU
매주
성종
DJ
돌연
디아
유아
##me
제12
이스트
포괄
##코가
##반을
연구소
##ystem
경력
고교
부품
한동안
영향력
부과
##베이스
무거운
번호는
##관광
##판으로
기업의
스크린
이복
##주인
비서
아세
흐름
##화학
11일에
베타
라이온
각본
며칠
평생
##랑이
건너가
엔터테인먼트
##내기
건물을
종의
##건설
103
자신에게
아미노
목포
##청을
엘리자베스
르네상
시집
활동한
소나
##동시
##oll
2004년에
인천광역시
긍정적인
입문
##gr
그리스어
각기
무료
사상을
액체
##투쟁
##강에
##카미
타율
둘러싼
교외
배를
##스러
10일에
일어날
제도의
##11
비공식
가요
##페이지
##카르
중심의
임명되어
MP
산타
##ola
Comp
기재
서남
##메르
##Hz
공동체
##교회의
당대
반환
여동생
주립
##병원
##소수
생각된다
물리적
2의
과의
어워드
지각
에릭
##리시
독일에서
부르며
국토
보상
##ma
##우며
##안으로
142
초창
##인들
개발된
왕위를
우연히
인텔
##슨과
##금으로
이듬해인
PS
가사
##긴다
일본에서는
설치류의
필라델
고베
비즈
오클
해적
##시피
##ES
11년
빛의
지점
곡의
임상
자발
다이아
그렇지
무인
학자
시작되어
유니버
땅에
지내고
타운
30일에
AS
보충
##란트
2008년에
문신
식량
##크스
##닉스
들어가는
과정에
공의
맡게
##그로
관계로
일으키는
연속으로
토머스
가장자
137
2005년에
브래
아가
쿠르
##게이
죽이고
그림을
고분
재산을
목표를
가벼
이치
리그에
빌헬름
시마
이종
##곡의
제목으로
sp
##보기
알려지지
라트
시기는
점이다
##리면서
##홈런
모델을
8개
피에
도움으로
제외하고는
마케팅
에스토니아
전성
특유의
푸른
##텔레
사용하며
프로그램의
도쿄도
베이스볼
법을
부른
서일본
화재
훼손
##편에
조직을
받기도
당선되었다
팔레스타
바그
캠페
호칭
##att
중앙에
의장
##공의
##경기를
##명인
1909년
알바니아
조치
##회로
차례로
노무현
토대로
할당
1915년
##민은
방식은
작고
##건이
제13
개혁을
And
느낀
양도
왕으로
유성
아래로
항일
##측의
RNA
일했다
텍스트
##해진다
강제로
들어오
##바이러스
추가되었다
가난한
여론
여덟
역이
##온다
2004
선언했다
북한의
금메달
독일은
김대중
서브
##사기
사르
영역을
되었을
코로나19
에우
작품에
자전거
누르고
중순
##교는
무효
무려
박탈
여행을
쫓겨
2007년에
정책에
대우
수신
##색이
중심기압
하였는데
보니
중독
프랑스어
##라이터
졸업했다
연방의
신칸
안타
오렌
전쟁으로
수평
잃은
전세계
집으로
##사추
##주일
1930년대
들을
##ene
선교사
하와이
3위
무신
바가
보잉
누군
##니치
##수아
비가
특수한
##하였기
판결을
우주의
컨트롤
소수의
##tu
##활동
된다고
우리나라
의견이
주와
아이를
##산맥
일본으로
2006년에
기업이
간다
손자
##트르
##프에
대답
동메달을
석탄
싶어
##조약
연구하는
출시된
근접
의원은
철학자
##화하고
급격히
알코
콩고
##ai
이적하였다
고가
먹이를
##있으며
##스테르
보스니아
관습
끝이
##이었기
달린
바위
바꿔
통근
건물이
조건으로
현존하는
전인
##란다
##own
108
독일어
맡았고
##지사
##토스
자신과
있었다는
방영된
일시적으로
몰려
삼고
한쪽
##해주
##집합
플레이스테이션
개성
매카
뿌리
##int
백악
이상으로
04
외곽
펜실
##학회
자본주의
매개
스틸
점유
##현악
##한을
객관
남쪽에
밝혔
법원
28일에
연애
연고로
##de
##내에서
##있던
기간에
것보다
명단에
용이
##가루
##사전
되었지만
스파이
로맨스
2면
페루
교육과
따뜻
인플
화면
##보에
은퇴한
물에
있습니다
##견을
세워졌다
지바
포맷
기체
뜻의
밖의
받기
이틀
착공
##마쓰
##세스
끌려
듯한
커피
##용이
##작가
##글로
##지방선거
리버풀
수치
원자로
##천을
움직이는
멈추
쉬운
주축
차가
##연이
##열이
모두가
ar
없으나
함유
##즈키
경북
오디오
전도
##패로
끝나고
대처
알라
##오를
13년
승리로
시라
##산군
사회에
지정되어
사적
주도는
탓에
풀려
후지와
##업에
제15
진영
촉구
평소
##리타
##났으며
전투는
후보를
26일에
2군
로빈
##의에
17일에
1896년
디젤
구조는
작곡한
남부의
미토
섬에
3만
무라
비단
폐지되었다
의사를
의원이
전에는
##실록
##져서
##테쓰
##됐으며
브라질의
특이한
에스파냐
공학
속도가
이지
사용될
폴란드의
깨달
##ime
반박
와카
##터에
스파르타
7개
빌리
정교회
##서에서
##조와
2005
마쓰다
도서관
권위
척추
##스틴
##규칙
##anc
이에야
신칸센
이토
##우치
했다는
차지한
사고로
단종
둘은
##하겠다는
##천의
인정받아
동경
싫어
위안
은메달을
##쥐과에
기요
본선에
##lo
##IT
12일에
남아있다
프로토콜
쇼군
##니까
##MS
어려움
크리스토
마찰
사료
거리가
군단
미카
짓고
트윈
동년
러브
써서
자바
카탈
지나치게
##ake
끝났다
평범
##시절
##반응
##미에
응우옌
트레
평행
##야를
중심이
문재인
군을
신속
쓰인
##발의
##세츠
이루었다
선거를
동독
부터
엔지
##위원회의
돌아갔다
##대학원
등이다
미하
현장
22일에
프로그램은
운행하는
나가사키
##광역시의
##초에
Ab
나이가
동물의
여의
##클린
설립했다
멤버로
급행
상무
##원들은
상임
정찰
창시
##원군
결과에
2000년에
사육
과정은
사격
의거
형식을
아니지만
기념물
도호쿠
일에
해군의
##민을
##타케
요미우리
비잔티움
먹는다
쌓아
클린
후일
생기는
왜냐
1913년
수행하는
번호
분광
선을
축제
##러의
##수엘
##더는
##ET
##위원회가
비례대표
회담
ST
격퇴
공립
시칠
있어서는
출전해
요구했다
우울
이긴
좌파
투르크
소속되어
측면에서
오세
헤드
##란의
##중에는
제17
레이다
사카
장난
##받을
날짜
출력
노래는
부장
평등
##레의
##편성
##앨범
1916년
##식물
의뢰
##경으로
##erv
국가에
활동은
1개의
900
##16
##구리
않았으나
공전
요르
##투를
##초의
##네는
en
버전은
##타임
##중이다
구마
꿈을
애틀
올림
유출
##이거나
##받는다
##박스
정도이다
둥근
##한국
27일에
인근에
디즈니
##네의
16일에
For
주에서
##과도
##enn
캄보
페스티벌
##사상
생각하는
싱어송
부를
오가
크리스티
길고
증기
흥행
##러가
##금의
탈환
기호
안양
어울
체계를
##다리
##원들이
##디가
전쟁은
상태이다
검증
신하
팀에
풀어
최저
시즌에는
생각하고
보여주고
메타
미스터
본선의
위기
지어졌다
칼리지
##식이다
##생산
그러자
에피소드
NHK
신비
##아와
##온의
##셰비
사람이다
특징은
실수
제휴
피고
하얀
##병의
전국동시
DS
교도
이마
학자들은
학교에서
전자기
##현이
##란이
##하였다는
차지한다
명문
##진과
##ction
##미로
##이었다고
추정되는
활약하였다
디스플레이
고발
소닉
비용을
전국동시지방선거
모방
양키
조항
치열
군대의
유신
##복지
받았으나
대승
버튼
스리
실종
장려
차기
##턴은
##라이트
트랜스
바이올린
관중
히어로
##률은
13일에
1895년
학부
한강
지방에서
21일에
옷을
전례
죄를
찾기
초연
##관찰
##여래
##밀리
비슷하게
깨닫
요소가
차남
김영삼
목사
##후보
07
안티
유격
실질적인
가즈
나아
아서
경기에서는
스카이
입자
##학위를
한국에
경험이
궁극
다리를
동화
첨가
플랑
진행된
비즈니스
Bla
시점에서
##학교에
기록하여
대외
안의
컬럼비아
##느러
지원한다
연결된
##ology
3루
장의
##달라고
##소스
2019
##ley
##ild
두루
라운드
신생
##크에
##클럽
##꼬리
다루고
세로
편리
##ii
Pla
전념
충격을
##브리지
다음에
인물이다
PD
무죄
얼음
##소리
14일에
것에서
##서도
##토시
18일에
##으로의
기록된
개발에
언제나
개업
나갔다
장로
##ven
##디에
확인되었다
소유하고
규정하고
사우디아
모니
보완
화살
##석기
10개
참여하여
23일에
100m
고무
좌절
추모
미국에서는
영화로
시즌의
##OM
##올로
##ans
민주화
힘입
##스트는
분배
억압
원내
DC
가미
내린
논문을
##츠가
경우를
동로마
롤링
못할
배정
수수
아폴
환원
##커니즘
수도원
둘러싸고
14년
Qu
스콧
시켜
내보
부대를
숨겨
##하우
생각한다
2003년에
다녀
아비
의회는
##AT
이르고
MC
눈이
북극
조반
추상
침몰
##하니
##과이
##수수
한국에서는
싱글로
부족한
아바
캐스팅
향후
##통일
##짜리
경제학
용어를
##row
스페셜
지점에
걸어
내외
실린
이순
자금을
정신적
유소년
주장하고
##하려면
유니폼
사우디아라비아
나이지
마리오
세미
주류
테일러
시절부터
형식의
민속
승차
용산
케네
##바닥
분리되어
지냈으며
##롤라이나
반지
에티오
조상
##기이다
##ML
재활
##이팅
NBA
나쁜
별의
출연한
제네바
Tra
주말
한화
모으
선구
소실
##풍을
아버지와
불리기도
베네수엘
왜냐하면
특급
##iam
##시타
##분은
히데요
Amer
1위에
군수
김해
나섰다
아는
외의
일도
자율
치명
않았다고
오스트리아의
안드로이드
##사추세츠
##서야
##누리
##안타
검은색
피어
##gh
강경
드림
별칭
##라미
##억원
정부로부터
관념
낙선
바닷
##디스
##이라도
만나게
곡이
부적
##채를
##mer
도착한
모시
칭호를
##우와
##커스
##놓고
맞지
행성의
##톨레
결정적인
방송된
별다른
이슈
자체는
중화인민공화국의
드러나
상상
식으로
현저
##인치
인정하지
레논
매달
신념
전한다
구조가
학교에
마산
산소
일명
##II
##범죄
제외하면
열고
##소송
교수는
물고기
아예
##생으로
특징으로
바꾸어
Mo
감정을
불을
진짜
##케이션
##인들과
영화에
제14
필라델피아
존중
##생이
##팀은
No
경비
넣었다
역과
직면
총대
International
라트비아
##ius
토마
대통령을
운행을
이곳은
3위를
이어진
전진
ne
세션
신규
알렸다
##용은
##먼은
##왔으며
극히
암시
계획에
끝까지
소재로
초반에
1천
야당
왕비
지금도
활발한
##려서
전체가
분야에
##주년을
떠올
입체
##미디어
##인가
시작하였고
결코
정류
총괄
##교로
건물의
마을을
3일에
3학년
사바
##화하여
##학적으로
상원
신호를
종결
##등록
IT
모드
##체이다
##카를
조선인
로저
한양
102
조금씩
길게
단단
십자가
아즈
제안을
제품을
시나리오
퍼시픽
공무
포인트
인접한
5천
닥터
신라의
심판
##야가
이산화
인산
사용이
선수들이
24일에
키프로
##아나
##가스
##공이
##스트의
국가로
닌텐도
06
Ste
느껴
##퍼스
대회이다
분명히
기갑
지식을
시드니
부대는
##블로
##몬드
병행
효소
##티에
126
프로듀싱
바실
전선
제자
##이면서
##정부의
##수인
7일에
승인을
##란히
공화당
복제
##량으로
맞추어
준비를
창업
호평을
##way
##두는
##열의
##층이
##하였다가
작센
거론
공사를
이빨
게오
성모
소환
세계대
2009년에
내고
대회의
슬라
지혜
총선거
##강점
##해지는
순수한
지명을
추출
공사가
먹고
무소
예배
출산
##네스코
대학을
구조로
2일에
등재
시골
재현
##행은
카자흐스탄
4차
간부
신용
이끈
파리에서
##도사
일어난다
상징하는
##ife
최대한
통칭
##결합
남아있는
모델은
05
도마뱀
사직
풋볼
성공하였다
침해
##이사
계절
몸무
##해왔다
음악의
최근의
오키나와
고성
##너의
##질로
대학에
않는다고
일어나자
밑에서
박영
서사
엄격한
피에르
미주
서해
와중에
##스파
##렸으나
일조
##음은
##즈에
118
5일에
밀어
##ta
##함의
##길을
112
그렇다면
공용
군은
몰래
미치
지자
갤럭
계몽
유죄
##해방
수록곡
다중
스핀
왕자
이원
잃어버
형태는
4세
담긴
성질을
화석
화제가
있었을
남양
앉아
태도를
##진에
##르며
사회를
Will
날아
뜨거운
쫓아
폐위
필름
함으로써
##되지는
하나였다
대신하여
항공모
이래로
줄기
##가에서
제16
구체적으로
1층
보지
에버
철도의
표명
19일에
바뀐
번뇌
의미의
4일에
링컨
안보
주행
차원에서
##업이
##IM
FM
교차로
##목이
##enc
설립하였다
근처에서
##우주연
싱어송라이터
경사
명에
좋다
진군
칭찬
한계
29일에
##런스
지역이다
사이드
##ark
##슈타인
디비시
소총
영상을
오빠
회사를
그러던
일제강점
Her
사헌
##그리
##제프
유지하는
덴마크의
권고
몸에
원산
음식을
의회의
출토
펼쳤다
##바야
##플라
일본을
##군사
##현은
##갔으며
기습
범위
전제
투구
제19
직접적으로
공민
관람
느꼈
복지
이리
민족주의
부유한
부수
최후의
빈곤
쓰기
어휘
주를
##진흥
설명했다
스스로를
겪었다
굉장
##마일
##실과
현종
##망이
##시키며
시점
진동
##심의
월드컵에서
시설을
거행
막내
가짜
김동
도주
##중에서
##형태
##예를
전두환
몬트리
시장에
##아프리카
##소득
##티의
페르디
승리한
제사
지폐
진정
##공동
##종이다
##누스는
##르지
2010년에
물고
미스
발트
왕족
추격
하락
##희는
요크
과학기술
힘입어
##und
##톤의
소설을
이라며
리눅스
리메이
향하는
##치료
123
기술의
라이선
SP
교수가
세조
오하이
중소
##중국
개화
본명은
부딪
##동에서
121
냉각
즉각
##단이다
##쪽의
중요하다
북쪽의
기상청
리스
##재의
##라이더
레이저
물질을
얻고
##적에
##속을
##결과를
추기경
우즈
##어지는
여름에
낭만
부서
빠진
위임
하더라도
휴스턴
##등에
##츠를
디자인을
매입
##우드
2020
트레이드
그날
자를
##진으로
##조정
117
진출했다
불평
중도
하야
##사태
10여
형성한다
스트리트
8일에
이글
투옥
표본
시스템이
2학년
Op
이바
중에서는
##모로
##푸르트
존재하며
설탕
##AP
##버러
서울에서
아래의
다큐멘터리
구동
닛폰
무기를
반경
봉사
의식을
초과
했을
##0년경
마을의
중간에
엘리베이
Ag
만났다
유네스코
##주기
주장한
결론
아타
해인
##전기
##금융
거느리고
구리
마약
에이스
##려면
Sou
le
루스
샘플
주차
##ress
##호선의
참여하는
달성했다
관현악
힘든
115
전투기
위기를
##hPa
기록하는
마이너
##적이지
자신도
##ins
실시간
환경을
봉쇄
협의
##놓은
아이슬
스트리
EC
기름
##해와
마음이
두개골
매사추세츠
성취
실려
##위대
제안했다
언더
##운드를
##설이
제작되었다
웨일스
전세
직전에
창건
##지대
##일으
##내어
##돌이
인물이
지휘관
5대
CC
의병
요청을
주제가
##타리오
##커는
하나이며
에서도
운동은
증권
##면에는
지방을
생각해
실패로
체포되어
서식한다
밀접한
GDP
Pe
관장
남극
뒤집
명종
영의
올바
주한
해를
##나갔다
제국을
요구를
시절에는
두어
북부의
쓴다
코트
##포의
2억
리얼
순조
##전도
##렸는데
##간이
132
비판했다
국방부
미분
존경
협박
##자리를
##택을
기록했고
대피
신임
제압
상태였다
시계
자체를
##co
시작된다
독립된
사망하고
서식하는
하드웨어
라스
교황의
오렌지
신흥
##ward
전통을
새겨져
핵무
##전투
굉장히
109
000만
##자원
사회에서
##ise
움직임을
스튜어
지적했다
딸을
털이
회사가
##츠키
##tiv
독일이
되돌아
모르는
본관은
사원
##섬의
제18
등장했다
환경에
불러일으
강점기
이내
친정
회고
##외선
##자들에
아이템
준우승을
133
순회
스쿨
쓰이고
알제
허리케
##나우
기지
담겨
왕은
통틀
##리아는
사이가
참여하고
무승
믿고
불편
최적
##널티
124
이유를
6일에
9일에
난민
높고
말하였다
있으면서
하이드
##현을
범주
이어진다
##가고
대법원
뻗어
중계
직선
##수산
129
독립적인
000여
배틀
제1회
기점으로
넣고
자유주의
유래한
놓았다
불확
사자
수도인
부문에서
1명
뒷받침
조달
##포가
교향곡
AR
Gu
마쳤다
붙은
지고
특징이
2002년에
활약한
##바이잔
그다
성장을
수동
이화
임기
주석
있는지
##omys
장치를
##시까지
이론의
##방에서
##티모
기록하면서
##ail
##책임
들어온
적합한
게르만
강과
##음으로
##자본
##전선
경부
##황을
##수사
고수
목조
심리학
##일과
##ink
위협을
##제르바이잔
단위로
비유
쇼핑
##마와
##ps
##제국의
##포는
한국전쟁
스테이지
부모님
블랙홀
몬트리올
번식
##야만
##고쿠
전체에
지정된
방법이다
이집트의
아이슬란드
시키
진나라
칸의
협상을
106
Cla
시초
업적을
영남
Cor
내리
개최되었다
졸업하였다
알코올
##자스
104
아니라고
찾아볼
교역
##기기
변화에
방영되었다
숭배
양식을
역설
축적
콘크
##변이
사람과
지구와
도시가
설명하는
3으로
글루
나눠
리뷰
봉건
색을
속으로
스티브
없었기
침투
일본과
기록해
생각할
강도
것인데
동명의
숫자
아리스토
조언
측의
##래스카
이루어지고
소매
이식
국가는
마이크
비로소
날카
누가
시로
시뮬
##봉을
##능력
영화제
놓은
서재
##인조
생산하는
##ash
가죽
리비아
여부를
제독
중합
##르노
활약했다
데이터베이스
프로젝트를
글리
볼리
이후로는
확실히
성균관
EU
로열
엄격
프톨레
134
선보였다
야간
팀인
페널티
후기의
##박한
3회
Har
Je
구제
발을
구조의
관직
내부에
이광
##처리
##권에서
119
어머니가
강이
시그
영어로
##풍속
공격에
경찰은
대거
축하
##yc
스타크래프트
III
As
디오
수술을
##누엘
다음해
Bar
갈릴
비오
이반
##척의
남쪽의
분포한다
아름다
BC
공인
옥스
육성
##바시
1894년
환경에서
두산
합창
##자책
후쿠시마
난징
아제르바이잔
인생
채워
##ble
곡이다
리치
송시
일하는
전압
중구
구출
불리게
반해
합스부르크
##브의
참가하는
기반의
패배를
동아일보
레바
여신
##라트
##분야
띠고
서쪽에
세속
이인
##였을
어려워
왕국을
새누리
중재
##회장
##지붕
##임에도
##시에는
##층을
어머니의
위험한
아나운
애틀랜
LP
잃었다
정서
##거는
펜실베이
National
kg
만의
종으로
페어
##구르
이후부터
모친
버려
성별
순교
가지며
가마쿠라
브라우저
황제로
나라에서
지휘하는
오하이오
드문
민감
##까지만
##fer
##욕을
15세기
가수이다
FA컵
1집
피하기
##ener
기간을
되었다가
5만
##음의
##카라
##유키
오스트레일리아의
가축
군대에
불어
할머니
흔한
##제이
##자이며
적극적인
부동산
발원
분화
사슬
##lic
##예프
이름인
문제의
표현을
16년
Ass
말기
보일
시위를
인격
##TO
##EN
조선인민
대한민국은
대통령에
앨범의
여기에서
넣은
최하
추증
발매하였다
자연스럽게
살았던
주소
##ey
##악한
활동하는
만나는
폭풍
##감에
##턴의
의미에서
시간은
데뷔를
그냥
시장을
쏟아
양이
추가적인
예술가
문서이다
7개의
전당
##상으로는
##주식
##목의
##웠고
시즌이
개발되었다
##ater
그리스도의
덧붙여
마쓰다이라
구릉
동구
히가시
##ition
##시부터
국가대표팀의
스탈린
2주
단기
지능
##피는
중심지는
모델이
문명
##쳤으며
보호를
Ins
원작으로
메시지를
2천
왕위에
##교와
빌려
유언
##지나
상반
회계
111
지형
제목의
동쪽에
만일
시장에서
시즌은
아버지를
모형
컨셉
##크에서
자신들이
조선일보
출전한
밤에
참고로
##편으로
주장은
개발이
건물로
거울
베니
인문
후안
제20
느낌을
IBM
문법
제노
##21
##릴라
저명한
종은
113
우승한
줄어
환자
##지는데
##모와
##카타
1500
##ata
우라늄
토니
##브는
본인의
상처
옹립
##비나
##드레
##증으로
##메라
방식이
연기를
자동으로
삼촌
챌린
현의
회의를
##고속
독일과
고백
그들에게
메커니즘
평면
1920년대
3세는
간호
마일
배신
성당
해주
##구역
##검찰
보다는
##cc
##각이
개발하고
갈등을
cm
외야
##당하였다
중국에
시리즈를
아래에서
목표는
주민들이
4번째
Kore
107
가능하며
사망하자
이론에
인근의
To
비평
##림이
관리하는
사랑의
체코슬로
밑에
알루미
영문
##차와
정렬
컴파
투어를
##겼으며
결혼했다
##ower
사사
피신
학위
##씨와
##통의
존재가
명예의
##사령부
프톨레마이
배웠다
불이
수렴
패한
##란은
##버렸다
것으로서
가벼운
에디
잭슨
##방으로
##유는
알려지게
실패하였다
이적했다
공로로
부부
브뤼
컬러
##red
밀양
##족에
정신을
자리잡고
IM
등지에서
협약
##포트
거기서
대관
언어의
축출
##기획
##품으로
버전의
지구에서
일으킬
비난을
5세
딸인
##품이
소속된
##ames
미노
야쿠
##레를
##문에서
##ult
게이트
대상을
만남
밴드를
신이
일컬
촉매
##스컵
##시즘
##쟁이
역임한
런던의
CS
선사
연쇄
##사항
##학이
##we
음악에
펜실베이니아
마루
애비
처녀
##베니아
이유가
정도였다
피해가
일컫는
리메이크
물건
코리아
##디나
주민들은
경신
장거리
해상에서
##링을
구미
상트
이영
타격을
탐지
##AL
##으려고
##팩트
지역구
드러머
##사령관
미얀마
아랫
하우
시작하는
##ank
떨어지는
##테르부르크
바티칸
평범한
종속
지주
중국어
2001년에
김일성
Res
##enti
개념이
거주하고
올랐고
갤럭시
Pa
사천
서유럽
초월
##나서
##작이
캄보디아
생겼다
잡았다
자유로운
북부에
제갈
광산
되지만
카롤
2003
##로부터의
매출
책의
##스런
감행
나가는
소셜
자국
##재는
##손은
be
온타리오
정밀
총리가
##히로
##런트
사라졌다
3분의
본거
소금
입원
##자도
미국을
제2대
매카트
내전
##과정
##que
담배
로즈
이남
변경하였다
받았지만
시설이
총대주교
밀집
바른
상류
장학
##통이
##목적
나오지
가량
디자
부사
조명
최악의
폭넓
##석탑
##감과
##베트남
122
##rop
Char
##절한
##거리는
##즈카
카를로
끊임없이
01
개종
##달아
##OP
사이버
벌어졌다
진급
##대회에서
결정하는
공간의
속하며
시기를
부분의
기술은
##eter
프로그램이
구간을
AD
Ind
개관
연령
##ream
차량을
프랑크푸르트
Colle
##공산당
공직
라마
##스기
사고가
is
교구
부가
서정
세상에
##캐롤라이나
노동조합
담당하고
시칠리아
백색
안장
적고
##태평양
계속되었다
배치되어
One
수습
원리
##교에
360
버렸다
붙인
완화
이노
인상을
##강과
##구성
국제적인
진출을
노리
명성
목을
유형의
타카
트루
프레스
행사를
##초를
2011년에
그룹은
중요성을
문장
##연은
##팀인
##약성
강수
쓰였다
장군의
폭스
상원의
정사
제트
경우에도
##itt
기사를
남부에
재혼
정면
##번에
Per
김재
김수
레전
보전
사절
술을
위장
임용
코어
##ye
##hel
불교의
뚜렷한
난이
않으나
##전사
##십자
존재하고
관리를
연세
##기관이다
성은
영지
태평
##어지고
##화에서
##분석
##내셔널
테이블
얻지
오를
##라기
##미쓰
##안군
중국과
비슷하다
더욱이
가리키
자치구
알루미늄
이가
줄여서
##ler
##주쿠
##분해
대전이
민족의
완벽한
고민
내무
대가로
예능
팀으로
##사이다
##일드
처음부터
대학교에
에티오피아
던져
해소
##품의
##액은
선수를
이탈리아에서
교전
##도어
미래의
장관을
최후
##40
2012년에
가까워
아시카가
성격이
돌고
맥락
분비
수축
칼라
##기준
##학교에서
##ald
리그를
마운
일방
주어졌다
철도가
패키
표면에
##회의원
엔진은
프랭크
블라디미르
So
미루
선수들을
역사적인
강희
견해를
남해
노비
만성
세금
##선언
아무도
매니저
필사
하마
인정하고
시리즈에서
타이틀곡
치러진
가구
클라이
합작
##하자는
##하우스
##고도
##책으로
구단의
손가락
해변
##GB
드라이버
공부를
많으며
앙리
중기
기초를
오프닝
래퍼
말씀
압력을
##부르
주장하며
학교의
크리스마스
네이버
천도
##애를
제국에
노선의
##공은
##행의
##측은
군에
애덤
오바
피트
희귀
##vel
##들과는
##위원장
마음에
NG
악기
오오
##에너
##측에
프랑스에
북아프리카
아사히
이벤트
고통을
루이지
블루스
장군이
##아메리카
##to
1898년
지나면서
규모로
중단되었다
클래스
플라스틱
내야
달이
상용
전년
##음과
##컨대
스위스의
공모
막시
올리고
편곡
##노가
##목은
출신인
발렌시아
3명의
Can
도는
슈트
우편
초등
부분으로
획득한
중의원
고쳐
끝날
안으로
전라도
편입되었다
당일
역에
팔라
포병
##인한
방송국
물질의
재능을
존속
##터스
##현에
##러스트
프로그램에
레바논
두는
##레가
이름에서
해결하기
조약에
승부차
나올
라파
정한
##류이다
##어이다
더불어민주당
입단했다
것임을
마스
##port
##액의
부분에서
8개의
Sm
##나미
그래미
베네딕
알렉산드로
400m
손해
짙은
##ican
CH
손으로
아홉
주가
캠프
이야기는
김용
로이
온도가
이의
추산
코치로
##라톱
##코쿠
모서
미터
쓰지
암흑
자문
잡은
##미한
우승하였다
점령한
##기관으로
오라
##실험
##게이머
개인이
생식
##ky
##IP
##년간
경로
고체
일리노
##청에
과정이
School
누르
포획
##ha
1901년
고려대학교
엔지니어
카디
하원
후한
##방위
언급한
기회가
디비전
벌인
케임
홈페이지
경찰에
스튜디오에서
네오
로도
헤라
후궁
##양군
##lex
통틀어
단어는
빛이
에미
장면을
##하임
가져왔다
증거가
비율이
con
루터
스톡
시베리아
어긋
채권
##타니
연구의
관련한
과거에는
나머지는
아라비아
좌표
해밀
호조
호세
아케이드
부지
수면
작위를
##렸다고
정보가
기능은
분류된다
3천
선물
정해진
제도가
차이는
최연
콘스탄티노폴리스
리틀
신시
효과적으로
니콜라
신탁
##루와
##질은
##멘트
03
노란색
소행성
원수
상태의
방문한
##지역의
삼각형
실망
##성이다
##내며
얼굴을
그쳤다
다니는
신선
아부
채무
##과로
진도
##보안
##번을
보호하기
런던에서
최소한
##마사
##판과
수준으로
전역에
단절
포로로
##지능
##더니
근무했다
트리플
2선의
바꾼
서머
정해
주도로
##AD
##대책
##자연
프랑수아
존재했던
##시키지
페르난
중반에
머물렀다
갈수록
싶은
양국
용의
통행
200m
기존에
뉴저
무의
브로드
비타
호위
##AF
##티코
##열에
20여
도입되었다
세포의
벨라루스
##반이
##oup
기자회
르네상스
구단은
규범
별명을
플랜
할리우
##해온
##무역
##총장
연꽃
우호
철회
##버린
프랑스가
성능을
주제를
##LS
##층은
시기에는
보유한
나폴리
대두
입각
##색은
들어갈
들어간다
결정하였다
시절의
1884년
은퇴를
수확
##량과
##운동에
1999년에
전역에서
3차원
목소리를
War
대가
미시간
##마치
##냐는
바퀴
원나라
##로동
##아리
##ini
왕세
전력을
##바이트
정부에서
연금
황해도
음악적
1902년
인터페이스
아버지인
작업에
4위
만화가
보헤
섬을
용도로
자아
죽이
토르
##사들이
연결된다
헌법재판
NC
안산
##병에
마을에
따온
먹을
몸이
여진
제수
##주의가
그다지
괴롭
점에
조정에
줄무늬
하에서
##론에서
주목할
포르투갈의
할아버지
갈아
##았기
바이킹
슬로바키아
신한
요금
춘추
##오리
##물인
기독교의
언급했다
TH
마우
연상
트래
##권도
교육의
선거구
일종으로
고등학교를
관직을
김태
단축
이닝
초신
##들여
##온은
##양은
##ane
공간이
1루
걱정
없어서
일이다
조승
종착
##구나
나타낼
차지하며
전체적인
선언하였다
다운로드
거리는
더해
무조건
미디
성분
인증을
존재할
영향이
학생이
개인적인
달의
마하
무대를
부의
석가
중점을
##form
감안
말기에
중대
펠리
헤비
형성하고
넘어가
높게
이윤
편에
##희의
##벤처
설명할
제주도
각본을
왕복
##파인
표현하는
##고등학교를
그랜
맞붙
쇼트
퇴적
해운
##회담
##타나
##타이드
##TP
##말라
대한민국에
위험을
품고
##했습니다
파이널
곳의
속도는
자의
적혀
파이어
##창을
##림의
실패한
차량의
추측된다
Don
나중에는
볼셰비
원인은
저렴
테무
##기게
##렸지만
문화가
3가지
건륭
낱말
사살
주사
한층
환영
흥선
##것도
3칸
CN
산란
진흥
바르샤
수익을
잡혀
테니스
항소
##가이자
##한테
사고를
외교관
투표를
헝가리의
비밀리에
때에도
##급을
12개
프로게이머
때인
유저
표방
##버스터
##3명
##폭풍
1시간
광장
아기
초록
취하고
음반으로
제한된
도요토미
입성
나은
메소
la
견제
석조
소지
위탁
으로서
정도를
충성
##inc
##회의에서
즉위한
것인지
지위
##시노
##았다고
프로리그
결정되었다
##oss
그렇지만
강연
기리기
성사
##ner
시작하면서
114
진행되고
##irl
대구광역시
페르디난
ph
권장
동행
자격으로
##레타
##우지
##수용
대회에서는
비판이
차량이
접근할
요새를
꼭대
순천
적지
변화는
사례가
조사에
13세기
이루어지지
국내외
꼭짓
동래
미쳤다
변수
##테면
##연속
때문이라고
공격하여
바이오
500만
격렬한
유년
주체
확신
발견하였다
게임이
블로그
안에는
용어로
유연
환자의
##되도록
##정당
물러났다
다니엘
두꺼
문예
어른
카타
사람도
역사에
건설되었다
각자
남기고
마인
부호
홈구
##행으로
1903년
수상한
조별리그
범위를
##태후
with
나섰
법인
시범
##들보다
##고와
##작의
행동에
3부
##받게
새로이
주장에
플레이어는
낳은
낸다
시와
유동
자선
접하며
도시에
이를테면
결성된
물러나
나이지리아
3세의
기증
브란
업체
##무스
##들에게는
설명한다
작업이
설도
스캔
##나가는
##위원으로
형성하는
##연구원
까닭
무슨
민병
선정한
성숙
와의
왜곡
칼뱅
1899년
규모는
차례의
ISO
기차
일요일
제치고
조리
환상
최대풍속
점령하고
최상위
결론을
사모
예수의
##왔던
##하자면
1897년
확실한
4강
Sa
SE
부작용
에밀
중일
증후
카리브
##경영
##점이다
##함마
##법인이다
가족은
CF
CR
선종
신중
쓰시마
원인을
자택
지녔
##당해
##모니
##준은
##월드
##킬로미터
라이언
후보는
단어를
단계에서
받침
아크
피츠
##체제
##작전
##ella
러시아는
상트페
더글
유학을
지키는
가톨릭교회
정권의
포기하고
일컫는다
Fl
벽돌
왕을
저하
##키와
##거를
##거리를
역사의
소비자
##그라드
교회를
산출
있기도
##께서
정치에
경제의
대통령으로
##베르토
아나키
나눌
섬으로
성서
처럼
##나스
중앙아시아
실질적으로
2명의
길에
떠오
바빌
전했다
창의
##신도
##량에
생산을
방식이다
밝히고
SU
이관
정말
해수
##학적인
##6명
지냈고
02
카스
##be
##네시
##층석탑
##위원회를
부재
영동
온천
건설을
검출
물의
사관
커널
퀘벡
크레이
파스
호는
##과정을
연구에서
국제적
31일에
미시시피
1학년
간신
기아
체류
파리의
한인
호의
영국에
시대부터
스미스
Day
걸린
균형
본인이
선배
아담
이데
카스티
##기나
##리조
##반은
이루어지는
내려가
간단히
##장치
##작은
제작을
수행할
아일랜드의
귀중한
놀이
소니
##주택
##냈고
영화가
학생들은
잠수함
Rec
마블
여운
중산
##경과
##트륨
##교수
##벽을
보내고
세력의
Rock
믿는
횡단
##마르크
##받았고
음반에
비용이
일리노이
구스타
기각
말하면
발칸
승계
차이로
혁명의
설립되었으며
그레이트
마오쩌
강풍
문자를
물어
##두에
요청했다
2명
수련
스폰
시바
심의
유권
##참모
##결정
정치를
##ings
돌입
편지
##ros
Mon
거뒀
돌출
손꼽
크기를
##ger
##5명
##있었다
Black
상트페테르부르크
Mag
mm
바오로
밝힌
업그
죽였다
포장
##도바
##팀의
##리라
##했음을
성공회
##시켰으며
시리즈는
생물학적
부채
진공
퍼포
##반도
진행된다
분리된
기초로
전반에
새겨진
GP
남게
동국
말까지
박스
빈번
알지
유가
##매매
유지하기
그레고리오
없었
같은해
베드로
알을
입장에서
##국장
##80
동조
일체
입을
휘하의
종교개혁
선출된
ID
##다르
##키를
아니라는
지방자치
도입된
거북
##강이
##혹한
##주지
고려의
유래된
##교육을
기회
김진
수에
지도를
케냐
##중은
##질러
왕국은
des
개가
깨끗
뮤지션
발언을
세자
잎은
##군다
##사지
##파크
동안의
##대학교에서
SD
가려
노트
디렉
보게
슈팅
아프
열심
일대에
창출
카우
희극
도시에서
sh
봉해졌다
##na
##타입
##현과
대학생
담아
등극
자회사
##우기
받았다고
##idae
뉴욕의
부드러운
시트
이케
전속
종이다
하부
헬륨
설치하고
임시정부
##정책을
미나미
한성부
노르웨이의
기숙
김상
맞은
아닐
용병
##발이
거부하고
Gra
감리
피로
##개국
##시민
##두로
정치적인
음악은
소송을
분당
진지
총칭
키워
투수가
로마에
뛰어나
등용
잘라
질량이
##막을
##유적
시즌에서
사랑하는
차량은
회사인
나란히
싸워
코드를
마을에서
작용을
나눈
방패
버전이
##각의
드러났다
동생인
번에
신축
협주
##루션
한나라당
모은
비주
파벌
##sch
선비
해고
##13
##년의
그러다가
2013년에
국왕의
그려진
불가능한
CEO
고유의
교리
수학자
조립
##지휘
##드라마
연합군
도덕적
국영
당연히
봉안
성폭
즐겨
##스트리
가족의
레전드
기슭
중대한
헌정
##티넘
##내지
##적으로도
자이언츠
전국동시지방선거의
1면
극대
장군은
##는지는
##브리아
2002
이루며
시스템에
1998년에
1위로
넘게
점프
##열차
HT
그루
수장
##m2
##당하는
##해주는
보여준
드물게
대치
충실
##그레
##슬리
##백과
##글리
설치한
위험이
쿠데타
대안
리우
유교
후임으로
팔레스타인
Med
SA
##개는
##4명
##8명
학생들의
구할
발병
배가
수녀
Gl
글래
맥스
비자
우르
파일을
##섬에
##약한
2001
##erm
##으로부터의
##전문학교
미친
송나라
시장의
탐구
##박사
##롭고
통일신
리보
기준을
인간을
물질이
평균자책
2집
그후
없던
호응
##GA
배우로
경찰의
생체
지옥
토지를
패널
##평균
도왔다
##산성
조선에
출전하였다
산업의
방사성
산림
응원
테레
##신에
##환이
##버리
##전인
##60
조직이
100여
분위기를
뒤에도
명목
쓰레
오비
이내에
##정원
##레스의
##만과
##행에
20대
시즌이다
이곳을
오케스트라
공습
극동
병을
음모
코스타
한스
##iti
##도비
경기의
대통령과
어려서
고래
궤도를
김규
쓰촨
제사를
조르
주머니
킬로미터
##7명
되었다는
떨어졌다
건축가
Of
나열
네이션
원을
중복
##링은
진행하고
##운동의
실시한
우즈베
sc
가사를
넓게
러셀
사면
상인
시는
평화를
##식품
##우스가
##감으로
##yd
##손으로
##디를
위치는
월드컵에
부근에
급제하여
디비시온
골프
김기
손님
신부
응시
파운드
폭로
표지
한미
##잡이
경기장이다
운영을
AK
광둥
뒤이어
승무원
있거나
제곱
##로이
##해로
##제한
##네가
##푸스
##커의
스리랑
회수
다음의
2호
룩셈
말의
민영
##로니
##2명
##사나
선거결과를
야마토
드라이브
##빈은
##난성
##하기는
스피드
잡아먹
성운
윤리
제프
추종
클라이언
##퍼는
##보통학교
1분
se
부대가
치른
##클레오
##값을
프로레
별개의
병역
염기
##ject
##로우
##누스의
##MI
인터페이
합류했다
만세
##희가
사건이다
가문은
본부
혐의
##테이션
##르에
1996년에
자세한
##박물관
마에
비하여
컴퍼
##두를
경향을
붙여진
맺은
무료로
사서
세력은
재미
재판을
고향인
균형을
마츠
무실
영지를
측에
탐색
함부르크
##ole
##버는
##왕과
사용되며
사람들과
선수는
음반이
필요성을
임명되었고
교회에
1885년
1997년에
살아있는
지상역이다
농림
본명
해의
##반에
진행했다
모양이
전략을
서쪽의
박쥐의
5번
극심한
똑같은
목성
소말
집계
페리
##골로
경찰이
승강장은
가져온
3의
감수
길이의
오쿠
주위
타협
팀에서
##더의
##노프
상대식
미네소
양육
원조
##술의
##RA
간주된다
##ike
이북
플러
임명된
1871년
그곳에
원천
잔류
##관계가
##업은
##환의
##왕에
들어올
동쪽의
가나가와
간토
기저
끌고
안테
##순위
##코와
공익
더이상
받으면서
선이
시즈
자기의
플라이
##칼라
##해졌고
내용으로
정의할
건축물이다
청와대
불꽃
저기압
치안
##bo
##팀을
지역인
##이었을
마음작용
유로파
프란츠
둘러싸여
룩셈부르크
동유럽
발각
배상
본사를
외에는
직결
카트
##연방
##간은
기반한
그릇
맞대
배구
##차원
131
대회가
이해할
경계로
행정구역
애비뉴
딸로
불태
터뜨
회피
##즈에서
##극장
진행되는
가열
견인
대책
인데
##아들
##OL
올라간다
되었던
소문이
주위에
시작하였으며
게임에서
4명의
그로부터
끌었다
섬식
주위를
형상
##노에
##ode
베트남의
가로지
동참
볼로
싸우는
##영과
##MP
이때부터
일렉트로
동명
장비를
합계
허브
허가를
##pt
##너가
중국인
역임하고
공천
살려
시흥
이룩
입헌
학문을
협동
##rist
##지었다
##블리
##ana
문화와
비율은
시뮬레이션
불리고
호출
##포드
##머는
##융합
116
겪고
서적
자칭
함대
##ral
##때문에
운행한다
1995년에
리더십
개를
아날
전동
회장을
##다를
##보건
한국은
시대가
슬라브
me
각지에서
데모
만났
분출
작가의
취재
투르
평창
##가르
##린을
##불을
##결과
관련해
건설된
담당했다
##able
Fe
도카이
몸의
통치를
##능한
이전까지
연결되는
플래티넘
Pl
김포
독일에
양주
오로지
즈음
휴전
##대륙
##디언
##스트를
형태이다
분석을
제기되었다
4만
Dav
모인
문서를
우드
##허가
한국시리즈
결혼하여
일어나고
25년
여성을
이진
절단
쿠빌
혁명을
협정
##풍의
ATP
te
가볍
미즈
수색
시종
어둠
인류의
포착
화강
##ual
##나에
방법에
광해군
병으로
임관
하라
현금
예정이었으나
중추원
System
갱신
북방
존스
##추는
##쪽은
사이타마
증가하고
거부했다
묘사한
캠퍼스
고기
이준
##고리
##수소
소련이
선발로
말미
맥도
상수
상세
페미
##라에서
##res
##선이다
##주의적인
얻는다
##ele
경제는
위원회의
의사소
반공
수료
양을
여파로
옵션
정립
##나리
##사업을
##토와
##포구
Life
권총
대웅
만이
실력을
오타
판사
중국을
유지할
광무
동점
물건을
캔자스
##uk
공격으로
##스포츠
부르고뉴
퍼포먼
갈리아
덮여
크롬
형성되어
비행기
완성된
이스라엘의
갈등이
치열한
가동
무함마
북위
숙청
장성
올랐으며
입단하였다
un
모용
세기
않자
오지
선수들
멕시코의
각색
##CD
##ino
마야
##스키는
##연료
##플렉
##titu
연세대학교
국군
긴장
불명
실력
##나오
##올림픽
##ouse
생각이
##트로이트
##호선과
핀란드의
다룬다
2배
국소
들려
무상
온갖
철학적
##uro
##15
##석에서
##inal
Pol
가수로
고다
명사
불린
타자
##방은
##거진
콜로라도
at
독창
상담
압력
앞장
일제의
짐작
##1명
##탄의
##enter
발견되어
국민당
버전을
##계급
##토르
Ele
두께
막부의
바나
성주
시공
시도를
여수
탁월
해명
##열은
구성되었다
##chn
유사하다
둥글
소모
중장
발생하여
인간은
보도했다
Comm
Ber
박헌
소리가
의원을
차용
흐름을
벼슬을
17년
High
가네
갑옷
디트로이트
뽑아
사전에
실존
알리는
약혼
카르타
포스터
##격에
##86
서울대
이전부터
한편으로
상황은
평가했다
카를로스
가격이
자세히
감싸
미치지
스태
아돌프
##아파
##원인
##9명
##밀하게
이상한
비판하였다
제시한
정권이
대대적인
페이스북
기어
늦게
지나는
한족
##단위
##협의회
##졌기
20만
문제와
유럽과
그룹을
효과적인
아무것도
안치
협조
##드릭
기록으로
기록되었다
##elf
스타일을
##해야만
수도를
수단으로
재편
태자
##코드
사용하면
볼리비아
흥선대원
막는
법의
별은
예컨대
자오
절차를
피의
##되므로
##시킴
공격해
설치하여
연합군의
가족과
저작권
다녔다
##원숭이
2인
비엔
상표
유라
##열대
기간이
않아서
네팔
미들
소통
패전
인정하는
개념으로
기여를
프란체
Do
Wal
냄새
달걀
드레
사토
얇은
쪽은
하도록
선수이며
공개했다
경상도
과반
군이
손실
승리에
자체의
##살의
##철의
다양하다
진출하였다
서초
조화
타당
파인
평택
##터널
##SD
모습은
소련은
사랑에
At
경로를
과일
방글라
앞면
##임은
##증은
##불교
중국은
##urn
시험을
station
슬로베니아
LA
데스
육군의
##가들이
##본으로
##지지만
##자고
일본국
사이토
공격했다
시간의
결정한다
떨어뜨
NASA
맞고
배운
올리는
코무네
##들었다
##MC
모두를
##가지의
유리한
것입니다
마닐
모호
무지
발급
붙었다
생략
세금을
양반
어쩔
절차
##암으로
않았다는
선택할
민간인
추구하는
권위를
띤다
민법
영유
제의
##신인
##노를
나타낸
br
진실
청산
##업으로
##매치
##즈로
대학교를
2014년에
출판된
더불어민주
스코틀랜드의
##도르프
가옥
값이
국어
일대를
전날
태극
흥미
##홀름
다이어
1994년에
바꾸고
아스널
##감은
##설에
나라가
오늘날에는
정상적인
집안의
구단이
보드
부천
##화할
##종과
사용되지
##out
의미는
지구에
복귀했다
종류가
느린
맺어
왔으며
유산
##데시
##행위를
200만
대표적
CON
오케스트
크리스토퍼
대명
말부터
읽고
중공
##ren
##변에
인터내셔널
공수
데카
리오
우회
토요
감독과
##과학기술
아름답
정기적으로
다케다
MTV
감마
싸움을
허위
##판에서
##됨으로써
##것을
대신해
종교의
열대폭풍
GS
급성
로그
석회
조조
하트
##제학
관계없이
체코슬로바키아
곤란
치고
해마다
##방울
##발로
##준의
표현한
헌법에
방문하여
고구려의
미네소타
것일
레스토
마녀
비영
선도
전한
존슨
춘천
콜라
콜린
테르
펑크
풍자
##비서
##보니
시작할
영국이
##urus
클레멘
옥스퍼드
관절
워너
줄여
##락이
##철은
수용할
고사
공과
4월부터
대표적으로
개인적
증가했다
사업에
국유
카사
핸드
이용한다
나타내고
기술적
그룹이
가정에서
승격되었다
쓰여진
압도적인
뉴저지
대합
되도록
루시
숨어
어뢰
언어는
장소로
종족
##야와
##아키
##브르
국가와
게임으로
반응이
천문학자
내리는
때가
밖에도
배후
안전한
웨스턴
평정
게임에
##ator
올바른
he
연봉
해저
##하키
##양함
##왕조
##브스
##덕션
발견하고
Sci
과도한
니코
센다이
온대
점수를
풍속
##어스
##루냐
##찬을
##런은
##올라
결정에
##기록을
궁정
##번은
##따라
가지가
이르렀
가르쳤다
나타나고
본래의
죽음의
고령
못하여
붙였다
쌓은
에콰
청원
##황이
##km의
바꾸는
활발히
##ield
1대
늑대
믿었다
선과
어렸을
##ave
##이한
##당인
##도마뱀
##피의
##거리가
##UC
만들었고
진출한
오리콘
5번째
심하게
온건
흔적이
연구와
올림픽의
위원장
##기관의
지진이
니콜라이
불규칙
이소
황제는
##준비
##레이터
하였지만
열차를
여겨졌다
작성한
빨간색
케임브리지
것들이
게이지
경연
명은
투명
##심에서
고려하여
아마존
메달을
경에
은거
증대
천재
히타
##협력
14세기
참여할
등장하였다
친구인
전하는
투수로
하시
##화이다
##슬레
제주특별자치
##검찰청
광저우
그보다
내어
뜻이
별이
선로
##밀히
##믹스
경쟁을
씨의
##키아의
정책은
가족을
출판되었다
William
감금
내부에서
대니
돌을
벌금
사범
집정
##리던
##집단
##파르
12세기
##문화유산
브리튼
종로구
농장
문과에
상부
집결
토요일
포식
피를
##계에서는
##해튼
##집이
역사에서
언론에
목록에
열심히
대도시
델라
번성
차를
##빈의
##말에
##illa
구마모토
기단
상처를
수학적
연립
원인으로
조류
하차
##사랑
##취를
1990년에
그것의
대중의
상관없이
시정촌
도네
서경
포드
##일체
##검사
##궁의
전통적
동등한
상경
상장
제퍼
##하로
##철도의
##격은
##덴부르크
아르헨티나의
공표
대화를
미소
바흐
백화
전이
통용
하원의
##RI
##프로그램
대응하는
방침
세네
여우
의문
의약
장을
중서
에너지가
죽음에
불가능하다
마오쩌둥
견해
공손
되던
싸웠다
파동
하프
##시게
##티가
제국과
지구를
1890년
출시한
불안정
간신히
난다
사간
콘솔
##근이
정치적으로
21세기
누적
다저
대패
시외
아소
음반인
##ital
대전광역시
기관총
증거를
터키의
모니터
메릴
협정을
##서기
##부문
독일인
유지했다
학생들을
도입한
교회는
프로젝트의
프로젝트는
누구나
암호화
3명
경작
다름
세상
요인
초빙
춤을
클러
##ior
##등으로
모자
박테
슈타
예선에서
코코
향년
##파이어
##커가
공격하는
실패하고
##ows
가르침
십자군
바르샤바
구절
사정
시노
오르는
워터
윤보
퇴임
##츠크
##먼드
##헤이
고트
유벤
파란색
18년
무렵에
사태가
광범위하게
산의
산다
손실을
연못
죽어
효고
현재에
영역에
놀라운
아날로그
달라고
똑같이
스칸
의무를
지리적
투여
평을
##마로
##좌상
감독이다
통합하여
나가노
레인저
각국의
아벨
충전
칸은
협력을
##길이
활동하던
결혼하였다
플레이어가
헌법을
취임했다
궁궐
노태
당국은
배려
성적으로
주입
##벌레
대표는
작품에서
##리그의
평론가
내에서는
머리에
취항
카드를
##웠던
선수이자
대한민국과
지휘를
ad
엘리트
의문을
중형
쾌속
현악
##케라톱
##근의
##증의
##mun
가을에
American
세비
의회에서
##계약을
마르코
혼란을
Your
개교
도로를
장르의
주오
평평
##붙이
##ara
중심에
개그
기법
데서
볼프
아데
퇴역
##양으로
##있게
생성된
2개월
Air
구해
당하고
물체의
쌍둥이
에디션
##아일랜드
##가수
##시나
##점인
##직으로
판매를
##ade
동치
둔다
레이스
오크
유의
##시한
##화물
##본의
도착했다
Sec
검사를
문인
위그
투항
현행
##신학
##화하기
##레스는
제3차
포스트시즌
4세기
꽃은
신조
앞의
휩쓸
##니코
##대왕
생산된
나라에
동일하게
##ensis
몰수
바에
부각
엔딩
자작
##림과
##난을
그녀에게
나오고
체포되었다
성향의
5위
9개
로버
압둘
양호
원더
일대의
정무
컴백
헬리
##아야
##행동
##ety
통과하는
논쟁이
미토콘
Up
수도로
조정의
하루에
전반적인
선생님
규정에
나를
민사
우측
제도는
총리는
현상은
##여객
##토모
##액이
리그인
명명되었다
그저
때려
중기의
지출
##14
##도리
##루아
##코타
계획이다
앨범인
##선수권
커뮤니케이션
안토니오
토너먼트
죽인
지평
##동맥
Night
날에
다를
당원
복용
실전
원숭
음향
질량은
해군은
##병은
결정된다
앨범에
수행했다
결합하여
##ull
Time
가상의
강에
혐의를
##23
##형인
방송되었다
싱글이다
부족으로
젊은이
부근에서
따뜻한
고산
일이었다
자민
컨트리
##라리
##전까지
##금지
##DA
정치가
독립적으로
약속을
Nor
개항
남성의
다투
신학자
파손
##군단
##러를
지원하기
요시노
전략적
알렉산드르
주자
##LA
아이치
우승했다
계약이
Live
먹이
못했지만
상공
지미
##칼리
##디와
도시철도
서울의
스페이스
낙동
마천
법조
연소
이방
좌석
##링턴
##는가
##피가
3000
스테이
스케이팅
고소
년간
병원에서
양식의
주조
##웨이트
에서의
형성되었다
지배하는
필리프
2칸
Girl
내정
데스크
안티오
직장
태그
##사들은
##니시
##받았으며
##클라
영화에서
들어갔
으로부터
보복
불상
않다고
유목
치렀고
##통제
출연하여
알려져있다
판매하는
소유한
세이부
##박물관에
글자
의결
자원을
평일
행성이
##하게도
진행하는
기본으로
열차의
점령했다
느끼고
다이아몬드
3층
CJ
GN
수령
여우주연
음원
충남
한편으로는
뛰었다
워크
이겨
품질
##각은
시작하고
선수들은
평가된다
부모의
기인
빌라
이기고
질문
체크
##광을
##애틀
##작인
10개의
인공지능
AG
Mc
벌여
아유
한계를
##위안
것의
명단
무대로
상응
성이
여지가
증손
##ution
##ll
##민과
##운을
가지의
경제를
2015년에
50만
1868년
상업적
강조했다
이번에는
실버
오피스
##뱅크
영향력이
기간은
수준을
일어나지
북아일랜드
김씨
맞춘
미만
부설
옥타
찬사를
##들처럼
##루에
##순환
작업은
사라진
뛰고
루카
식물의
자크
프론
강조하는
서재필
김홍
무척
해가
##채가
##해지자
발견되지
모델이다
패배한
대항하는
초창기
프로레슬링
극장에서
김경
내걸
무작
미세
전까지는
캐서
##국어
##기독교
##역사
##티아의
##람쥐
##줬다
진행하였다
받아야
자료가
조약이
바다에
단독으로
2가
Mic
겹쳐
고대의
꼽힌다
다툼
무대에서
센고쿠
티켓
##체고
##니크
##EE
1월부터
세워져
##ange
어드벤처
구간의
전화를
해부
힘으로
##투자
##전차
##폭탄
##분과
활동했으며
이주한
인접해
의혹을
Bro
아레나
이득
찍은
파나
##심은
독일군
2세와
경질
꽃이
당대의
만을
세례
정작
치세
회로
##치히
노선으로
이란의
1993년에
입학하여
CM
구의
스노
조광
주위의
집어
##수로서
##린과
##창한
##히트
##하기가
사용되어
선수로서
지원하고
역할은
보고서
임명하였다
여겨지는
##스카르
지키기
명확한
다크
있음
장제
전전
허리
경기로
차지했고
주도한
Eng
가신
난을
밖에서
영장
##염을
##학교의
FC와의
명확히
크리스티안
아폴로
드는
자산
직할
피겨
홍문관
역사와
##ement
1848년
아인슈타
간선
광학
돌로
봉기
뾰족
여겼다
화학적
##보르
##준이
##태를
데뷔한
주연을
받아들였다
Music
몸무게는
9시
나라는
노면
마리의
박람
성씨
##air
##산면
##티시
##법에서
##독한
##항에
전쟁과
##ott
디자인은
Li
다윈
오노
이송
체인
##사단은
##문자
##프레스
##했음에도
##심으로
자유의
출발하여
회원국
1라운드
간격으로
긴테쓰
맨해튼
전복
제도에
힘썼
##보와
##오나
인간과
앨범이다
2년간
적용되었다
350
가져다
논란을
기고
방치
시애틀
정유
천천
##연으로
##티드
##항은
##요를
##돌은
##ony
중심지로
24시간
국립공
영역에서
지키고
기기
대기업
알프레
차체
헌신
##다드
##더를
##련된
##왕후의
##런의
것이나
발표하고
정도에
인디애나
##erson
전신인
클라우드
관직에
애리조
올드
판정
##온이
##바스
선수들의
로마에서
공개적으로
설명하고
입국
##니오
##속에서
##차이나
##무로
##무가
위원회는
1992년에
대출
만료
입양
##루시아
##할때
##교에서
##변의
대항하여
논쟁을
어렵게
김현
이경
##병과
##지역에
레스토랑
GO
리베
못했던
보라
씨는
총장
효과는
##수에서
##HO
##any
음악과
##박쥐과에
Geor
말미암
공이
교수를
다테
매매
면허
불참
##어요
##학부
##피에
##코르
캐나다에서
게릴라
증조
##봉사
##사회의
##분열
##언어
의혹이
트럼프
호르몬
후지와라노
3할
금성
김옥
소관의
탄도
했기
회화
##축을
##표가
##리야
##IL
##히메
소프트웨어를
대영
마다가
세트
음료
침묵
코카
##제도를
##쿠버
1883년
장면이
모른
서민
조국
프롤
##국적
##18
##주자
##빌딩
보호하는
그래프
1889년
미래통합
활발하게
건조한
트로이
IV
격추
위헌
이븐
종을
증상이
카나
##트루
##묘한
전국적으로
클럽인
연기했다
몽골의
모색
부도
전지
##직의
왕실의
가늘
모티브
수성
시장이
어찌
장소에
했었다
##에미
##평군
##RT
##위원을
이론이
##위원회에
실시하고
스포르
천문학
SL
고쿠
니가타
매력
오로
##당하여
##환은
##전달
##법상
1970년대에
조선로동
아이폰
2골을
선동
연인
위주로
일하고
화를
##위성
##CC
##갈색
미사일을
박사학위를
##브리엘
스카우
개원
구형
듀얼
짓는
##포와
10분
스타일의
Star
바뀌어
아이디어를
수락
적다
제임
폭행
##지느러
##벌을
제공했다
내용에
이동하는
Robert
1기
도널드
키가
토스카
파산
##17
##쉽게
안정적인
아키텍
우려가
궁전
단어가
무역을
살라
성에
신정
알래스카
이완
##ati
8월에는
30여
표현이
복귀하였다
우크라이나의
제정된
2는
5세기
다항
바꿀
순위를
최성
형인
##학원
현재도
아이가
##isc
연합의
교회가
장애인
유력한
가고시마
공존
리옹
밴드가
튀르크
##위기
##더가
##망에
프랑스를
##ision
문화에
취임하였다
헤르체고
넘어서
돌격
본사는
회상
##설은
남북으로
토너먼
모나
씨가
유학생
##채널
##24
##평화
1991년에
대교
대행
동정
무리를
접어들
죽기
헬레
음악이
##ille
변경했다
기업인
않아도
파이터
다비
마가
발령
책이다
##하와
##카에
##EM
도시인
정치인으로
노래가
규모를
승강장이
증거는
효율적으로
아미타
동영상
공백
면서
부시
원격
중생
키스
##어족
##역학
##레우
##ze
19세기에
국가인
관련되어
관리하고
해안에
국한
동인
리스트
수업을
원정을
##작품
대표가
뉴욕에서
김구
대대로
배속
중엽
##기니
##로이드
계속되는
증가하는
알렉산드리아
후계자로
나갔
달한다
마스크
매체
백제의
서포
역까지
파기
##안에서
##푸르
후반부터
전반적으로
ES
갖지
라오
면적
의석을
##층에서
##ics
콘테
페니
##철이
여겨지고
50년
ac
고토
어업
##되나
##푸아
스타리그
마을이
받았는데
조건이
제목은
피아니스트
1세와
##uck
근본적인
콘크리트
2시간
누이
듣지
연이어
희곡
도로가
레슬링
목적이
소나무
악마
##ura
##터에서
##FL
##한이
시작되었고
수행한다
대체되었다
클럽이다
Str
3세가
목재
아열대
위와
전함
중등
##하이드
##궁을
축구를
사건과
##이라며
역임했으며
스트레
기여하였다
저항을
하느님의
강대
농산
살게
지장
##렉션
참가하고
감염된
최연소
김창
보리
비대
왕가의
코소
##서원
##노와
사용하기도
참가할
소나타
대부
방안을
선천
솟아
카시
사이로
기간동안
공산당의
교통의
노르망
안정된
나타나지
너무나
부드럽
Mac
par
명인
무궁
배수
시코쿠
실재
지쿠
푸에르
##지아
러시아와
조직은
가족이
클럽의
명령에
##경찰서
늘어났다
감옥에
군부
끼쳤다
드디어
밀도가
보강
##하더라도
##하겠다
##지거나
##고래
##근은
##ors
시즌에서는
##회의를
전투의
고원
날이
삿포로
육체
인과
터치
하치
##수리
아라곤
40년
4위를
6세기
규정을
도피
이장
잃게
저는
차원
휴식
흥미를
##자라는
##풀이
노란
부대의
사쓰
서원
의지를
황족
##세르
기타를
1882년
내각의
공로를
보낸다
사항을
선행
없었으며
즐길
채취
피할
##당할
##작이다
##직은
##메다
##클로
비롯된
주민들의
방면으로
1에
너머
부총
자란
접수
켈트
행진
##미트
##집에
##것으로
##끄러
정책의
그래도
공감
루키
상행
슬픔
작전에
지름
##역까지
##자라고
##유로
19년
설립하여
쿠빌라이
Cent
곡선
단선
부에
생명을
중퇴
취업
한명
흩어져
##녀를
운영되고
기업이다
제품의
3인
IA
낙하
몬스터
위에는
튀니
##2의
아들이다
소설가
친구가
시내버스
반도체
돕는
발의
씨앗
입구
토끼
##친구
1999
중앙위원회
천황이
독립운동가
카탈루냐
미토콘드리아
천천히
AN
Ke
각지의
차출
##ki
##안과
위치가
캐릭터를
프란치
대단히
레온
요동
유러
##채는
##어리
달러에
레드삭
고든
징병
히사
##부상
##나에서
##체계
##캐슬
서울로
사실에
요구하였다
##민족행위
겪은
난카이
노이
삼중
시에서
양자로
재해
주었고
##부아
##소이다
조직에
##르트의
구분된다
넷째
반도의
부합
사카이
직통
쾰른
투자를
하남
##플레
##쪽에는
##되어서
##ited
1989년에
보존되어
보이게
비정상
미주리
묶어
선원
점과
트렌
사용자의
개발했다
어머니와
물리치고
국가대표로
왕국이
원칙을
신앙을
독자적으로
오클랜드
6세
공명
아리아
제너
최진
팀과
혁명이
##사한
##루이스
10위
나타날
아프리카의
##아버지
SNS
치명적인
불확실
IN
노조
대마
무성
유진
이차
총을
##uth
아나톨
방사능
성향을
College
Good
PR
대북
바꿨
사위
심리적
이산
자기가
전적으로
커리
되어야
프로세서
Tour
공신
내리고
좌측
##으려는
##법칙
##EG
일본군의
활동하다가
프랑스로
리그로
드라마이다
생겨난
관해서는
경의
없었지만
일간
##강은
##풍이
따라서는
경제적으로
정의를
행동이
레오폴
소극
처분
##사리
##계승
유래했다
6시
것과는
과장
끌어들
단식
대왕
사탕
요충
유비
조세
질문에
##트레
##차량
##훈은
시리즈에
2016년에
반응은
느끼는
단체의
병이
은메달
자라는
직위를
##화되고
##지오
##거의
##망의
발견되며
관할하는
방지하기
Out
성전
시합
요약
우아
정전
핑크
호프
##미스
##날레
##층으로
것이지만
영국으로
만들어져
##대학교의
생활에
명령했다
벨기에의
Che
Jo
배양
적게
후배
##군이다
##가요
##수지
##년이
##히게
2차전
거두며
작성된
남동생
Park
날카로운
단계에
면제
모른다
우정
원의
후세
##재단
이름과
되어있다
마르세
엑스박스
Kn
결별
동네
랜드
무언
병원에
보석
카카
하행
##코를
##암의
7월에는
2017년에
구와
선생의
전자의
케빈
##스레
##각으로
##워서
영국령
건축물
뉴욕주
1년간
##스키의
남쪽은
단계를
석탑
성명
세습
열을
오아
입지
해왕
헬싱
##시브
##저기압
##격의
다양하게
있어서의
5000
##고속도로의
헬리콥
격투
구하기
나비
딸이
염려
전래
접한
파란
##어인
##정부가
##론으로
##치에서
##IG
##OD
##히데
프레데
노인
돼지
번영
손상을
용어가
전국의
터보
##aster
푸에르토
4개월
Wind
국외
남았다
신형
암석
지시를
##터미널
##적이라고
##자리에
##메가
한국과
중앙집
7세기
A매치
Des
강간
높이가
도래
보낼
뿐이었다
않다는
은하의
필드
함대를
##ka
##업체
##협의
##5호로
활동의
문화체육
그룹으로
수록되었다
작용하는
고유한
느낄
봄에
악의
오락
호크
휘말
경상남도의
3년간
사운드트랙
맡는
버전으로
앤더
적어
정상에
총리를
크라이
프렌
해독
허블
##ux
##m에
프랑스령
이해하는
마르틴
플래시
Club
4회
공방
앞선
##쿠니
보내어
구하는
미군의
서임
성리
안나
은혜
파고
##마스터
##lin
##보수
##루스의
##해양
##브가
##내었다
타이베이
서로의
아랍에미
항복을
비영리
애리조나
닫힌
소외
시어
옮긴
자생
잠정
종래의
##하겐
##타스
##정부는
##상도
##번이
##번뇌
프로덕션
시즌부터
현대적인
비교하여
심지어는
쿠데타를
용어이다
comp
아이스하키
Song
강의를
불행
일기
혼동
##자르
##네마
들어오는
유럽에
완벽하게
조반니
고개
메뉴
생겼
유혹
##gy
1980년대에
시간과
아프리카계
수비수
ABC
공고
급격한
농경
동력
따른다
병력이
흐르고
##그는
##세다
아이들을
연주를
베네수엘라
스톡홀름
비타민
1을
ro
관악
놓인
오류
전락
청색
한해
##감의
##준을
##생명
9월에는
비판하는
##ations
북동부
Korea
다듬
모의
불완
산지
하반
확진
##EL
##히토
##림은
서로를
결혼한
종목은
프랜차
우즈베키스탄
남원
냉전
의석
조롱
축조
토리노
하르
황제를
##들리
##처는
공격이
표현할
분야를
서쪽은
목소리
스트라이크
고아
모범
브랜
세군다
영등
현장에서
##sp
##발은
##팀으로
서비스가
참석한
갤러
격려
식당
##겠지만
사회가
##시키는데
어느날
대륙의
생긴다
곳곳에
##디나비아
각자의
돕기
분지
상해
안타를
연설을
준수
집회
##바퀴
1888년
정당이
언론의
무소속
기법을
본인
시신을
파충
##음으로써
가르침을
엔진이
생겨났다
통일신라
Red
고딕
동학
의회에
인테르
입주
칼슘
##황제
##현실
##심과
이용해서
작품인
노래의
결승전에
이사벨
1승
가맹
가브리엘
그렸다
라디
반전
산성
상급
세가
연수
지수
찬양
측에서
##도상
##티미터
##ena
##시키면서
지나가
국내에서
붙여졌다
안드레아
면이
모셔
통보
##운이
사용되기도
선수의
영화배우
##라토
##bur
##각형의
##OU
국제적으로
##ough
이론적
방향에
FC의
자료에
단체인
드래프트에서
Super
율리우스
카툰
##야에
##당했고
##리니
##훈을
10월에는
고려시대의
요구에
1866년
300만
제출한
느끼게
Cal
가자
국적
보증
상연
이렇
일러스트
잠깐
전격
책에서
측면을
타락
트란
패했다
##테크
##테른
##승으로
##무는
##무장
##남에
로마로
JT
KIA
NP
서스
시부
언어가
윗부분
자결
##편은
##령과
##익스피
위치하는
제공할
태양을
컴퓨터를
파견하여
라그
몽고
밀리
스텔
이모
타르
##단지
노래로
전달하는
##berg
케네디
Trans
개헌
루돌프
모았다
바젤
사쿠라
시립
자메이
죽게
차츰
철학을
칭기
##링겐
##sy
##례로
##EP
##척을
한국을
활동하며
일으킨다
도쿄에서
텔레비
규칙을
프란체스코
극우
나노
동위
영업을
예고
유타
장인
쪽에
총리로
회사에
##1의
##나로
##블랜드
##히지
기념하기
옮겨졌다
qu
교사로
안성
철폐
출가
칼럼
평민
하비
않았을
##osa
침공을
파일럿
##조참판
애틀랜타
베리
불분
와인
첨단
청춘
카테
태백
피핀
행하는
##시인
##tr
##돌을
출신이며
##rac
인도에서
노동당
스페인어
제안한
중요하게
부다
산둥
항성의
혼성
##타우
##미즈
##업의
10시
##운동이
투표에서
만들어진다
둘러싸인
대역
보이지만
사리
신화의
천거
칼로
##관계에
##사용
##과가
##극을
##뉴스
5월에는
밝혀지지
솔로몬
모르고
제니
2008년에는
방식에
컴퓨팅
영원히
이산화탄
강서
강철
거리에서
등에게
띄는
스퀘
짧고
허드
##토록
##능력을
##브루
제21
조성된
말과
물체
바우
법무부
세우는
언니
우파
자서
자세를
장소를
주제에
체제의
충주
이르게
접근을
8시
계단
고문을
나갈
스즈키
인정을
종군
증폭
지극
##gan
##청에서
제한을
국가대표팀에
근거가
부근의
LED
다리가
동메달
목판
문학의
바울
수양
왼손
전수
##활성
18세
존재로
시절을
행동은
효율적인
살아남은
급속히
THE
가오
동사
뿌리를
지는
청나라의
##민스터
##사고
##전부터
##심에
##스트가
생각한
요청에
충청도
장기간
게이오
Er
간첩
남미
드라
모차
소울
토크
설립하고
출전하지
클리블랜드
9개의
도출
빠졌다
승무
장이
페트로
##형제
##증에
##포에
움직임이
몇몇의
스칸디나비아
1세기
공채
덴쇼
블레
비치
섬에서
성곽
이양
자와
##국사
##FM
결합을
##str
측정하는
북서부
공장에서
비늘
##여우
이탈리아는
공간에
바다의
무엇을
프린스턴
등장인물
청동기
아틀레티코
펠리페
비주얼
관동
맡았던
번갈
설문
철도는
촉발
##처가
##들이었다
##레이크
설계된
키프로스
부조
아브라
우유
이단
저격
정하는
케이스
##2호로
##대교
##순위로
표현은
주관하는
허리케인
유러피언
사형을
산시
성으로
야외
양측
원리를
##하루
##쿠르
10월부터
공격은
경기도의
수요가
1인당
재상
##por
##주머니
12개의
제3대
동쪽은
개통되었다
명확하게
스트리밍
남자가
다목적
수사를
얻었고
요하
웹툰
처분을
현직
##tain
##코딩
##킨스
100년
의미하며
자유당
가문이
##세포의
말미암아
관세
교정
나트륨
북유럽
전구
##기며
##기갑
##지부
##프라이
것이기
대표를
진행을
설치하였다
1892년
1893년
기념하여
관할한다
점성술
인플레이션
Associ
Met
Sw
et
극도로
매수
산스크
와일드
출석
##미니
##짐에
##끄러운
이론과
이동할
어머니를
Open
거리의
경시
세라
소식이
이베리아
잦은
찾고
함수의
항쟁
##나시
독일군의
발달한
서양의
무시하고
가깝다
4세는
Val
가리는
경희
비중이
지위에
질량을
피오
혐오
##종에
##승지
에이전
재정적
카메룬
가깝게
검거
경복
대도
러일
요제프
의회가
장점이
표를
##uch
##당한다
##지라도
##록을
발표하여
스테파
AV
군대와
기해
좀더
추첨
학원
##티를
##맥스
##레이트
동안에는
기술과
세포가
개념이다
예정이었다
포유류의
높여
시위가
외부의
##세력
##내려
6월에는
여성은
발전하였다
주식회
가라앉
5분
Pri
Ser
by
가이드
병사를
옆면
이규
줄이기
증상을
헤어
##여명의
##중추
##0년부터
7월부터
활약하고
해병대
Mer
결핍
고인
공세를
동등
송신
실무
싶다
자랐다
##테의
##왕으로
##커를
12월에는
삼국사기
탈락했다
Bra
뜻은
매킨
장미
집단의
파는
펜싱
##였다는
##ari
3월에는
교육에
추정하고
부르주
차례에
가중
견해가
공성
굴절
넣는
##사에게
##여성
##모스
##연수
설립되어
받았던
북한이
Heart
그릴
링크
시몬
윌슨
체제가
탄자
##eng
역할로
언론인
대규모의
책임이
시에라
##가능한
거제
경과
바와
불필
아야
안방
작아
치는
##2는
##변속
스페인은
모델의
공화국이
과학자들은
말기의
몰두
영산
예전에
원활
이건
장소에서
평의
중심을
제24
기원후
성장했다
북쪽은
2가지
막스
장사
타지
태국의
피라미
##로워
##공주
##두의
##0년까지
사용하게
해당된다
해당되는
설명하기
남동쪽
4천
King
ML
방화
성명을
용암
이병
정하고
주권
파병
학명
호를
##매김
##집으로
##발사
##추진
##통치
계획의
야마구치
광주광역시
철저히
달에
당황
미키
생전에
영어를
지점에서
하니
후기에
##게이트
##달라
##복음
##장로
##길에
시도했다
헤이안
국무총리
히틀러는
받아들이지
델타
섬은
##마크
##대군
4월에는
야마가타
드리
아다
인명
전무
점수
##ax
##아래
##work
##트넘
##바브
##시즌을
API
중성자
향토문화유산
주파수
7세
리만
많지
원통
지침
팔아
##온을
##BI
한다면
피해자
산스크리트
갖춰
급증
당내
비전
포스
한큐
##ila
##달라는
구조와
2위로
6번
GT
뉴캐슬
동대문
랴오
사쿠
수복
위구르
이태
주전으로
##비르
##르면서
##통은
##물리학
##금과
구조에
대전의
노바
목성의
보성
전담
키르
##카쓰
경기장으로
##라이어
서울에
고려시대
실시했다
회사이다
수여받았다
플랫폼을
알파벳
미하일
Institu
규탄
나일
배에
셰익스피
수필
유해
주니
핵융합
##진보
##페스트
##요의
##웠으며
것이므로
##tif
##학자이자
자연의
지도자로
아무리
지칭하는
Tri
만드
산호
위함
일주일
치즈
흐루
번째는
기준이
걸쳐서
창원시
##ular
철저한
잃어버린
Center
Mor
농부
번도
알프스
조형
##하길
##에의
##지던
##토로
지역에는
사회민주
30만
그룹에
Rh
박사는
서부의
수로
시에는
우의
우월
입수
잡는
초부터
##독을
##죄로
도입했다
오사카부
Ang
연관되어
필수적인
닮은
두각을
빌바
이스탄
체제로
하워드
##견이
##ret
연합군은
기관의
공민왕
가솔
우세
조병
패럴
##판사
##루엔
##품은
국가들은
연주하는
가르치는
반란이
몬테네
Ver
구성을
도둑
섭정
아빠
이이
##하르
##기둥
##테는
##팀에
생산이
열린다
국립공원
주지사
나주
메틸
##바가
##3호로
하나로서
추정되며
국왕이
단백질의
Reg
##테이너
하노버
사헌부
Let
고생
김정은
안되는
재차
전자는
정동
코펜
##야말로
##산염
##티즌
##박을
시민의
무엇이
빠져나
모시고
공장을
내무부
샌드
칭송
통영
##7호로
##셨다
##유지
시작되었으며
계속된
앨범으로
과정의
담당한다
1861년
장악하고
인기있는
평안북도
trans
못하도록
법에
본인은
앙골
정도는
차로
##li
##기사
##살에
사이먼
##mus
학문적
##국제공항
아리스토텔레
아치
##ative
##표는
##양과
##이었다는
1886년
##스카야
달고
이천
자제
차트에
초고
포럼
##다와
##도이다
##막이
##네티
아이언
참여를
비교해
뛰어넘
6번째
강화를
신입
아와
탈취
##권에서는
일본군은
개발하였다
2010년에는
도입하였다
과학의
취임한
미야기
Po
거인
다나카
미칠
방어를
버마
안전을
재선
조인
천왕
코치를
##리얼
##양성
##되었음을
공격수
실시하는
경상북도의
에너지의
줄어들었다
1은
3주
3분
김원
면을
부부는
쓰기도
점거
##ym
##조에서
##님의
15세
1876년
돌연변
코펜하겐
##타고
##화했다
##OV
##놓았다
11세기
2009년에는
##대학의
정의한다
서비스는
동일하다
에스페
비율을
문화체육관광
2기
6대
간략
거치면서
대접
렌즈
보나
위스
있듯이
자격이
키보
탈레
팬들의
폭이
##관련
##틴은
##과정에서
203
##rag
그룹이다
##위원회에서
소유의
Christ
들어가게
주인공으로
북서쪽
피렌체
우루과이
항공모함
BM
RP
불신
사상의
새긴
실리
예하
유료
인가
초콜
포털
폭파
##로스의
##전략
1940년대
공개하였다
신설되었다
3억
City
왕조가
읽는
체계는
케플러
##비오
##이후
##C는
##9호로
활동으로
자유형
다이쇼
주변에서
콘서트를
라파엘
김병
롬바르
본부를
전하고
판정을
프레이
##되다가
##정신
##러진
20분
##amb
활약으로
손해배
예이다
이메
인력
조로
##기면서
##사범
##해질
##랑을
##맥을
영화제에서
가지지
FC로
스트레스
업그레이드
가문을
대위
림프
상에서
싸운
적당한
정보는
멤버가
목소리가
새누리당
결핵
공적
사인
수차례
이타
점진
정제
##rid
##공격
설계되었다
콘스탄티
도메인
프란치스코
글꼴
달리는
유닉스
포수
##오자
##전이다
##운드의
##머가
000명이
컴퓨터의
##eck
1년에
언급하였다
1863년
아직까지
대비하여
메시지
평안남도
AI
광고를
마누엘
읽을
직책
취한
테네시
##화하였다
##SS
##섬과
##B의
1960년대에
공격할
교회에서
이해를
선고받았다
아시안컵
노스캐롤라이나
걸리는
명이다
외래
콤팩트
합친
황해
##메트
##분한
한국방송
마이애
Thom
하늘을
포켓몬스터
Cap
관제
노후
로페
발해
백만
연한
지류
지내는
쳐들어
화해
대한민국을
##ates
현대자동차
대사헌
네트워크를
Fri
불균
중위
회귀
후진
##구멍
##줄기
파괴되었다
종료되었다
중화민국의
아우구스
기질
앵글로
저조
주어진다
##con
2007년에는
필요하다고
없었다고
조사한
전해지는
활용하여
등판해
두꺼운
David
3세기
A3
CBS
가리지
구금
군용
기수
방콕
배터
상기
소피아
온도는
일대에서
쪽이
카이로
##두었다
##르카
##운의
##운영
##증과
러시아가
임명했다
글로브
IOC
구호
군정
기뻐
니혼
선은
수산
시속
아쿠
이제는
책으로
패하였다
포로가
##비용
##서비스
##주의자들은
운행이
##학과에
선언을
사무실은
직후에
미나모토
##슬레틱
동부에
머리카
보며
서부에
충렬
##af
##정권
##훈장
##되어있다
사용자는
교황은
친일파
투쟁을
에콰도르
말고
미셸
밴쿠버
상소를
없으므로
인원
저해
##보장
##질환
##초가
##천이
##벨트
그리는
문화는
발전소
공간으로
Inter
미래를
미래에
암컷은
모금
물과
반포
줄이고
측이
쿠웨이트
후방
##사유
##성인
##형이다
##거가
마라톤
IMF
경호
급히
되므로
마셜
쏘아
##료가
사용하던
사상은
1988년에
기억을
계통의
1개월
Dream
기대를
정월
조회
##서이다
##득점
##yp
##약의
활동하면서
남편이
나름
답변
별을
생일
성도
은신
조슈
##매를
##근을
##ody
1864년
오른손
케이프
귀국하여
신체적
메릴랜드
9세기
EX
San
res
국보
넓고
다마
변동
선봉
신화에
장덕
장치가
협회의
##기자
##25
##황의
##대구
##오에
##좌를
다시금
11월에는
중앙의
조지프
밝혀진
은퇴했다
북동쪽
피아노를
동문
뚫고
클레이
편안
혜택을
##비치는
##미노
##제작
##섬을
대한항공
16개
##이트를
1865년
부모는
단계로
그만큼
늦은
모빌
산을
연동
위를
의원의
직책을
##6호로
기관이
해체되었다
분쟁을
김옥균
5명의
Ev
군중
김유
리조
서대문
숨을
현대에
##야스
제작했다
##지역에서
개봉되었다
검찰은
2세기
8세기
Bre
시기가
에어로
일차
진해
집착
##복이
시간대
세포는
1887년
도로이다
부정적
불과하다
모로코
도루
무서
보였고
산요
에레
우두
##집의
##평의
##유예
##몽골
프랑스군은
교황이
작가가
##르타뉴
공부했다
DD
것들을
국적을
단체가
미라
반정부
성적이
안도
컸다
후예
##슨을
##번지
인정받았다
건물이다
조사에서
영토로
아내가
테스트를
##도서관
경력이
남하
이례
이들에게
##지어
##복의
##약이
1997
##시켜서
성장하였다
바탕에
합류하여
포유류
벗어난
2분
거세
구이
더비
브르타뉴
사슴
절벽
주계열
하급
##bs
##케의
##처의
##료는
교황청
두려움
Phil
미루어
AL
Af
Gener
별명이
일족
전역을
즐거
틈을
##오던
##년을
자신만의
이용된다
인해서
아키타
바닥에
21년
공군의
누나
얘기
호족
황폐
##현으로
##조사를
##리아를
선거인
##스터는
브뤼셀
이데올로
von
경계에
저자
쿠퍼
##조각
##통에
##네르
개인적으로
적용되는
세인트루이스
귀속
나무를
남인
로얄
백두
포함되지
시민들이
이사회
확정되었다
ref
함경남도
강행
단체는
박지
생방송
알프
없음을
연희
열려
육식
입는
청소
헌병
##cus
##트맨
가지로
존재는
가능성도
진행되어
따르고
강력하게
체결했다
오리온
per
결선
미성
배터리
섞여
설명을
싸이
퇴장
##가게
##루스는
##저는
##대회를
##GM
##있어
프로그램으로
2006년에는
체결된
논의가
이스탄불
Hol
Vol
가산
광물
달했다
대사를
뒤늦
땄다
류큐
마비
부르게
시가지
아들의
오해
이씨
이누
중수
출전을
필연
##공연
##호르
1995
있었기에
이어지고
기관차
유사하게
비틀즈의
Min
거점으로
남베트남
맛을
삶에
예로는
홍수
##부리
이용객
2021
2005년에는
1891년
거두었고
유전적
보냈고
대다수의
우에스기
구장
때를
막대
맡기도
반역
배달
승점
의과대학
장벽
##마귀
##모에
##za
##님이
##르트는
나누는
가로질러
USS
새끼를
몸길이는
Paul
볼티모
부당
종신
퍼스트
##우스와
##콜라
1990년대에
국민들의
1881년
장악한
기쁨
목회
버린다
스플
습득
왕과
정적
카프
편이
합의를
##로폰
##나기
##고에서
##브와
영국군
프리메라
수행하고
사태를
시즈오카
능동
단원
마땅
보이기
자민당
행위는
##마디
프로모
자유와
학생들에게
준우승에
스튜어트
거꾸
쉽지
여인
위생
프리스
##경비
##감한
##럴드
500m
분리되었다
##CAF
##ization
가의
과시
맞았다
심해
연락을
들어왔다
##나라에
돌아가는
정보의
마르티
주인공이
건강한
협력하여
##스테르담
미스터리
중소기업
from
서인
설계를
세상의
손잡
제재
칼을
한창
##하되
##서스
##타수
##업과
##its
2연
끝나는
애칭
차관
패밀리
##니언
##종인
##US
3월부터
유명하며
Stud
예전에는
해밀턴
Tw
감자
나간
식사
전원이
채굴
##평론
##유사
##박이
##궁에
##시키려
돌아왔
대학교는
수준이
Rev
구축함
삼국지
구멍을
살짝
자국의
적외선
##바리
위치로
구성하고
않았는데
기반이
Stre
라틴어로
무너뜨
끌어올
미션
방대한
백과
산이
오기
전기를
콜레
황도
##마리의
##ram
##보리
##러와
##후가
##포타
독일을
지원이
기념하는
방사선
James
떠난다
맹세
죽여
추론
##케는
##했기에
참가해
선택한
이주하여
충돌이
##바야시
4로
격리
떠날
사거리
서열
인재
진사
##지스
##제곱
##섬에서
경기장에서
움직일
죽음으로
과잉
도사
축성
회장이
##der
##ype
##불교의
사람에
하나씩
선거는
구조적
플레이오
##tical
갈라져
앞세
애슬레틱
양보
전위
하려고
##라호
##자에서
##RNA
Chris
엔진의
강남구
Bab
NT
굴복
남작
문하
상품을
순으로
승용
왕조를
찰리
##크트
##러드
##락의
##륜구
##ero
중앙정보
득표율
Ju
간혹
관점
군벌
도로는
무술
재래
치렀
##바둑
##하지도
##las
운행하고
베이시스트
제시했다
오세아
강은
기지를
리바
원반
철도를
카지
퇴직
함흥
##공무원
##엔터
기록했으며
한국철도
영국에서는
되어서
보고서를
인정했다
레이싱
서울특별시의
폐지하고
당선된
채널을
##사관학교
탁월한
막고
자회
자행
자책
키보드
##저를
##km에
결승골을
해석을
유니언
덧붙였다
공자
기니
기성
능력은
모욕
샤이
아레
어리
온난
이같은
자진
카세
##라니
##하곤
##세키
##렸다는
##든다
그러다
##atch
판매되었다
1873년
배치된
현실을
성격의
인터뷰를
##방향으로
고시엔
올림피아
프톨레마이오스
1이
App
dis
거점
네티즌
알맞
엄마
##승의
##카리
##요는
11개
역임했고
사업이
교회와
노선에
스스로의
아랍어
산맥의
요르단
세네갈
김지
뒤에서
말도
정당의
크리에
##는지에
##방과
##창의
##메드
##raph
인물을
대중에게
요청하였다
남편의
공유하는
에스페란
Mi
뒤의
북구
에반
이사를
포토
##부에는
##타워
##피오
##생은
그러고
독립한
유지하였다
외국어
이뤄진
##프랑스
OST
값은
마린
백신
사무를
쌓았다
용서
제인
질소
##색과
##리아와
설립을
임명되었으며
대중적인
승리했다
바다를
거뒀다
협주곡
1군에
뉴클레오
말하자면
맞춤
비싼
신학적
양대
재팬
증상
환자가
##라드
##그마
##3명이다
##훈이
아이콘
##ated
정의는
클럽은
보수적인
울산광역시
정교한
각성
급여
기와
길이를
순례
음이
차르
포터
한가
##ling
##인간
##절에
##0년에는
서울중앙
상태는
1일에는
대전차
제한이
코스타리카
간이
공으로
끝을
따왔다
제대
청룡
화제를
##개에
##비언
##한은
##하기까지
일반적이다
계속하여
올라가는
물리학자
가격은
자녀를
내놓았다
2위에
di
거칠
때와
법안을
스와
오대
요인이
직업을
하겠다
해준다
##aj
##로프
##강한
##for
따르지
##세포는
내며
대에
##정부를
##피트
독일군은
아이들이
Institute
초콜릿
Mod
고장
시호를
시신은
자립
지탱
##토쿠
##자금
##든가
16세
출신이다
영토가
성능이
공헌을
트라야
Soci
대포
무솔
불변
사신
요정
증진
진상
체조
추존
커플
##민들이
##공으로
##6명이다
1996
제공하기
가정용
법률을
공항으로
스테이션
혼자서
##시킴으로써
격렬
둘이
만난다
신을
접합
정성
주의를
효종
##ael
##스퍼
내용이다
담당하였다
마르쿠스
위험에
제시하였다
캐릭터가
법칙을
##다니며
조선로동당
사쓰마
7번
믿는다
색이
없으면
적었다
질문을
초까지
최강
##cess
##D의
##충은
9월부터
클럽에서
아시아의
기여한
유용한
거꾸로
가졌고
꿈꾸
띠는
말에서
수중
수단을
순차
파우
훈장을
##해서는
##키타
##4호로
##호선이
##8호로
사이에서는
15분
##대학으로
실시되었다
##선거구
홍콩의
무궁화
가설을
철학의
타임스
##개미
##소시
10세기
국가보안
나타났
인도차이나
마을은
##iew
저지른
대량으로
인상적인
할리우드
가격을
개미
과테
국장
줄일
측에서는
카바
후자의
##관인
##1호로
##제인
##EA
##lay
이름에
이용하고
레이더
자리매김
상업적으로
레코드를
로스쿨
당뇨
레일
머신
머리가
신진
죽는
차세대
타인의
하동
##시기
##덕왕
##oman
진출하여
노선이다
중요시
극단적인
끼고
미생물
어항
장안
책이
반대하였다
지나면
마음의
기초한
정권은
홍콩에서
원칙적으로
콘텐츠를
Bus
남성이
동부의
두개의
쉽다
실증
아카이
재앙
쳤다
히라
##비츠
##서인
##버의
##법이다
##쾌한
영국인
러시아에서
보고했다
UEFA컵
하늘의
프로세스
처벌을
발탁되어
것인가
아틀레틱
곡물
남송
떠났
연평균
옥수수
전기의
제의를
철강
##AI
##살을
##연대는
일부의
참여하지
선거가
추가적으로
평가가
학교는
작곡을
영원한
NGC
##버스터미널
2명이
같다고
끝난다
낮다
단장
성매매
소행
숫자를
오디
향상을
힘의
##ci
##olf
2004년에는
1872년
파견된
고향으로
대조적으로
볼로냐
3위로
상파
인식을
정몽
지분을
편을
희망을
##tin
##대서양
##배가
일반적
사망할
2012년에는
종교적인
예술의
칭기즈
DF
객체
당하는
박종
보행
일리
주제는
찾지
후자는
##종교
##네오
##유도
##냐고
배우고
##시켜야
##ops
귀국한
권한이
확률이
알제리
2시
가타
글자를
등에서는
번창
벌이는
복소
아산
예일
정자
충성을
파시즘
하단
##씨로
##티와
##먼의
##놀이
거쳐서
승강장을
조약으로
오카야마
무산되었다
가면라이더
데스크톱
나미
무로마
직을
집단이
##eb
##BL
여성과
데뷔하였고
구멍이
감상
국회에서
뉴턴
리에
빅뱅
열릴
의원으로
재일
태권도
##렌은
10억
아이디어
로마를
기원은
국민투표
이동하여
정책이
그림은
##mm이다
부모가
cont
광년
그나마
삼림
실각
쓰나
장관이
정점을
징수
파나마
히메
##광이
##학으로
##오게
##조치
##락은
##노리
만들었으며
##app
##ney
고등교육
2라운드
구부
대각
요소로
행위에
화재로
##만으로는
##쉬는
11시
하나다
사회적으로
이상적인
아이의
##atus
자유민주
240
1869년
주민의
##very
미술관
거절하였다
23년
문무
베풀
신학교
여기는
저질
주니치
징집
타케
하기로
향했다
##랑은
##네를
1987년에
##uss
지원했다
바로크
대체할
세종특별자치
000년
장남으로
루이지애나
5시
고이
니켈
대담
비어
상서
팔린
피치
확장을
##리면
##패의
##수단
##8명이다
##천사
##절의
시스템에서
마을로
인물의
공간은
근거하여
노력했다
브리티시
분쟁이
Great
전성기를
iOS
모하
민정
반죽
신세계
어우
연달아
요원
인적
종식
진흙
치환
휩싸
##라며
##광년
생각하여
논란의
제거하고
종목에서
사후에
미야자키
일제강점기
콘테스트
과연
관음
높았다
동인도
버그
복종
상정
성행
실은
안고
암스테르담
왕에게
잭슨의
참수
체르
테라
##군주
##oo
##와서
##양에
##료의
##불이
배치되었다
거절했다
살펴보면
라이선스
0이
갈래
나뭇
복선
복장
위조
카타르
##동원
##가쿠
##해줄
국가들이
앨범이
하이브리
여름에는
메소포타
Hen
구독
사의
스텝
위촉
처한
후작
흑백
##봉은
##지역을
##누스가
##라이드
##스터의
이탈리아를
바람이
미쓰비시
패러디
쓰레기
스리랑카
가나가와현
2번째로
5회
공예
문자로
요절
이보다
코시
편향
##바나
##S는
##속도
##창이
1985년에
도시와
주변을
적용된
작가로
클린턴
감찰
녹음을
미륵
상소
생명의
세례를
이겼다
인테
첼시
한달
##7명이다
##문트
##암은
그것에
시민들의
##기관이
##tics
정체성을
메트로폴리
나우
내재
법원은
베오
신민
재난
줄이는
##배에
제작하였다
제2의
보통의
선출했다
선언하고
분포하는
집중되어
무사히
가공의
##바브웨
각국
기사가
나빠
넘치는
아쉬
줄리
지부
짐바브웨
컴필
팔꿈
함수를
해태
##교사
##항의
20세기에
발견은
다이빙
##uman
태양과
대사관
안전하게
유라시아
위스콘
AE
UC
간사이
객원
높이기
도카이도
만인
맛이
앞둔
예는
오자
주주
##데라
발전했다
추가된
진출할
KO
긴키
만날
범유
사당
실수로
인위
입장에
정인
조부
조심
##ek
20개
13개
프로그램에서
소련군
강력히
##cm의
에드워
TBS
각지에
사명을
인형
직사
파면
피처
해에는
##바와
##손이
프로테
##tian
3월까지
불가피
수준에
남서쪽
OB
Rad
교양
딸과
발기
연대를
원소의
입자의
전차를
제로
조화를
철학과
호기
##직할
##olution
결합한
1867년
조지아의
제거하는
사진이
채택되었다
인도네시아의
스트라이커
무로마치
Rich
두지
밀도
신기
튼튼
##1은
##표의
##출력
##프턴
##NG
##있지
##혔고
계속했다
방송이
인물은
대중교통
결합된
북서쪽으로
아카데미상
폭넓은
Record
Association
Best
Euro
HP
강렬한
게리
부추
알폰
익숙
주며
캐시
파리로
퍼즐
##리스는
##대회에
##쓰고
전투로
운동과
국내에
소설의
##시간이
##기관인
프로젝트에
회의에
Blue
Group
그랑프리
차가운
푸에르토리코
7시
Em
그럴
낳는다
로만
일각
피셔
국가들
활동과
이용되고
30일까지
역할이
식민지를
조건에
거부하였다
천황은
종류는
원칙에
베토벤의
컴필레이션
경건
고추
불에
빛나는
산에
송도
임원
절망
총무
크기와
회장으로
##라나
##집은
##탄이
##5명이다
1월에는
개발하는
발매되었으며
사업은
정신과
가르쳐
아내인
이슬람교
출마하여
텍사스주
Techn
9시에
MA
갔다가
교류를
눈물을
맥아
산하의
수만
우지
자체에
지오
키예프
토미
팬들이
##아노
##골이
주장도
분류하고
이주했다
사라지고
해안을
벌어지는
명백한
오클라호
비단털
Sun
낮고
로비
이언
전멸
패하고
##m이다
##파리
10세
사용했던
중국이
받아서
신청을
뒤늦게
Ap
Si
계수
곡인
라오스
럭비
반감
병자
앨리스
잔존
##by
##표로
##안보
##녀로
1980년에
220
후보의
사랑과
확인된
##연합회
웨스트민스터
의도적으로
발라드
아세틸
관장하는
야쿠르트
2를
4학년
글리코
버스를
산티아
세레
여론이
우간다
의회를
일원이
조셉
호쿠
##정사
2월에는
##대학교를
반대하여
적용된다
연고지로
군복
나지
발동
배척
세바
압록
연안에
우위를
좌의
패해
##호텔
지방은
모습이다
충청남도의
단백질을
지닌다
광대한
남성과
변모
요격
장관은
주세
중이며
충북
칸이
페로
평야
폐렴
확고
##재산
##duc
##위해
##궐선거
세계로
의미이다
2011년에는
지속되었다
나오게
라이브러
지붕은
올리브
Sal
거룩
물결
비준
연말
의식이
총애를
형용
획기
##oot
##go
##버른
##결혼
##극의
사용되었으며
1998
발전과
공화국을
USB
극장판
연루되어
1호선
Lou
구경
만장
무자
법적으로
빠르고
삼척
여부에
이봉
정주
조수
주저
형이상
##리쿠
##바를
##직하고
##행과
##코로
프로그램인
수행하였다
드러냈다
치료에
평안도
우루과
##에너지
7번째
PA
wh
군산
다행
돋보
마요
모리스
시도가
이현
자코
진한
청계
하코
##정상
##함수
##초는
##택이
##퍼런스
제23
시리즈이다
##irst
들어서면서
특성상
탄핵을
Way
남구
말리
밀란
신봉
신전
의사가
패하여
풍경
##창은
이론에서
빅토르
디자인이
Mich
SV
Serv
관례
깃털
단말
대승을
밀레
버린
시장은
않으므로
의류
##도스
##미네
##알라
##약으로
가능성
결정하고
표현의
기관을
서식지
아내와
비율로
구역은
논문에서
끝내기
가와사키
베네딕토
유로파리그
4가지
묻혀
스윙
양조
원고
제가
천사
행사가
##질에
##D는
##었다는
##amm
##ural
통합을
담당한
완성되었다
취득하였다
사단법인이다
세월호
##ency
소말리아
TC
계엄
구획
났다
상이
성악
하므로
##lor
##현에서
##리마
##키에
##섬유
##망은
##M의
결정할
도입하여
거두어
전라남도의
조약의
프랜시스
흐루쇼
Fre
Kar
강하다
겪는
내포
작전은
트램
햇빛
##목과
이루지
아래와
방향의
공화국은
유래되었다
분노를
##엔터테인먼
상파울
4명
7대
Cr
송출
조이
##2명이다
역사학자
생각은
세포를
1862년
요시다
도착하여
##그룹의
향토유적
유니버설
가던
강동
김제
변광
신석기
여학생
있으니
##적과
##막의
##유전
보고되었다
산업은
베르나
당선되어
6만
Wii
능가
성에서
장원
##자리의
##EX
중국으로
출연해
가운데에
싱글인
보호하고
여기고
가리켜
자발적으로
고성능
RT
der
광명
마술
무안
샌디에
설교
전방
죽이는
체스
총회
통일을
##로쿠
##보았다
##원수
##명칭
##녀가
경우와
기록이다
인구를
공격하였다
1878년
캐릭터의
세력으로
광해
구한
부풀
혼혈
##주간
##됐던
존재했다
돌아오는
학교가
40여
##ocial
처리하는
계승한
고전적인
현재까지도
대성당
와이번
앤드루
익스플로
플랑크
하이드록
3점
공양
딸이다
범위가
상점
아델
얕은
유희
유태
일생
정이
질서
##로니아
##사르
##적이라는
##발생
##요가
사람들에
기록과
국가들의
5월부터
2007년부터
기원을
본질적으로
2할
관상
내린다
다우
동서로
디에
생리
세분
세븐
시도는
신동
아님
자처
취하는
카즈
하타
헤겔
화랑
##아스
##단체의
##다니는
##퍼레이션
연구자들은
일부러
기준에
210
조직하여
지하에
생성되는
동원하여
합격하여
1등
MB
금호
동물을
떠나는
리믹스
바스크
뱅크
법은
연관이
이범
자위
형제는
화재가
##라서
200여
이름도
기술로
##대학을
후계자
내세워
가솔린
Net
as
깊게
내주
복권
신원
임의
재료로
종업
찍어
표출
향하여
##ule
##칸의
##9명이다
##결한
기록하였고
인민군
지명되었다
분위기
sub
겪게
관점을
등번호
루체
상단
안정을
주먹
처리를
픽처
##대대
##yr
##캠퍼
라이너
싱글을
싱글은
단체이다
전해지고
450
이바지
90년대
Big
Cro
Ger
김형
드루
반입
병에
서산
워드
카네
토트넘
휴대전
##of
##투로
##저의
##치면
##만인
영향은
이동을
##urch
증가하였다
정의된다
명령으로
하이퍼
명예를
남서부
경전철
2세를
BS
낮추
도키
도르트
벨리
수시로
이회
추억
화엄
##우로
사용은
여성들이
연주자
기초가
야마모토
고전적
등급을
##클리드
##earch
미나모토노
가기
능력과
무명
브루스
비해서
습윤
인사를
출동
##크레
##협정
##복합
##통과
##B는
사망자
트레이닝
베스트셀
어디까지
요미우
데에는
리프트
반대를
부교
설비
전제로
통제를
특성이
형제가
히브리
##군인
##ball
##구스
##임의
발생하고
중앙은행
거두고
보헤미아
제주특별자치도
당주
대량의
온다
자랐
헌납
나타냈다
Mark
북동쪽으로
분위기가
프리미엄
페널티킥
대령
변질
보기도
빠지게
암모
에른
원본
의상
조차
즐기는
지사
호랑
##m로
##화문
##위한
##것이
선수단
2005년부터
출시되었으며
근거를
신앙의
어워드에서
노르망디
감추
견디
도이
분수
순식
여배우
자릿
혈관
##탑을
##직이
##4명이다
##절이
##히코
아닌가
대체적으로
시민권
에너지는
노력하였다
지상파
##CACAF
일찍부터
CONCACAF
Ear
노드
단체를
리튬
슈투
시점에
애완
열두
용해
월터
위원으로
포츠
프루
##공개
##경쟁
##틀리
그녀와
시대는
전국에
원자핵
태풍정보
플라톤
세웠고
4세의
내전이
뜻에서
병력은
살아가
얼룩
에페
여부는
전미
조현
##나가의
##보지
##tra
##적일
##발트
##자마자
##밴드
제작하는
이어주는
만들어낸
2018년에
1592년
연대기
부르주아
Pre
멜버른
창녕
최장
튀어나
항생
##링의
이곳의
제목을
고정된
명명된
선임되었다
A의
Hot
경매
그밖에
깨고
늘려
북부와
브룩
상에
시선
침체
카피
콜럼
폼페이
##기계
##1명이다
##천은
##웨스트
이것에
##act
해결할
자리하고
결성한
입단하여
부문의
Arm
달라진다
수수께
검열
교원
말에는
박해
생길
외환
접해
컨테이너
클루
학과
한계가
함대는
회원이
##아과
##시카
##시설을
##예가
국가에서는
선수였다
14세
연결을
건물에
유래하였다
장애를
머물러
게오르크
del
괴물
기금
나루
섞어
신종
외국의
취할
행위가
##회원
##rich
##투스는
##선발
##집행
##소인
##복은
##천과
1986년에
아이들
올림픽을
시민이
생물학
저지대
연관된
저렴한
3연
떼어
법이
선으로
소문
왕조는
유망
조언을
##들고
##가구
##레와
##두가
##철학
##탄은
##증후
문화방송
진행한
조직된
기능에
50여
공간에서
언어와
1870년
크로아티아의
발발하자
건널
것들은
로베르
세대의
수페르
양식으로
열쇠
예약
일산
있은
전자가
지위가
편으로
현장에
##용과
##청과
##삼진
##으로서는
정치의
제25
설치했다
국내의
1875년
##지역으로
##ublic
권유로
그랬
극적인
근래
김인
삼층석탑
싸울
완수
한겨
##절로
우승으로
1860년
더글러스
가로지르는
로키
받던
생도
솔루션
여단
을사
전하
제왕
##테스는
##조리
##합성
##코토
##거리에서
##샤오
6월까지
관계의
관계자는
정의된
이적하여
일으키고
가드
권력의
김민
범위는
삼는
슬램
심포
염두에
외할
유지를
치유
##당하자
대학은
러시아어
2006년부터
다니며
포도주
아오모리
프레임워
갈리
고생물
권리가
규정이
길러
매리
블로
비중을
생계를
숙부
신해
쓰게
코린
해남
##판매
##A는
##나라가
기술에
##eder
설명하였다
언급된
inter
제기했다
병사들이
아들이자
스크립
GNU
크리에이
1명이
Win
디비
마니
사단은
주역
패트릭
##보국
##폭력
##암이
##ano
구성요
경제가
국가대표팀은
포도당
깨닫고
효고현
개개
고창
기압
꾸며
미만의
버펄
보류
소작
여타
열정
이륙
입어
종말
##net
##무의
##명에서
공격적인
지방으로
돌아갈
역할에
2008년부터
시스템으로
지구가
인식하고
겨울에
보편적인
마그네
##슬라프
결여
맡겨
미합
예멘
점검
집단을
테리
펼친
##타도
##배의
##손의
##폐합
##디아의
##흐트
##큰롤
한국이
성공한다
##하려던
정보통신
평가받고
일어나기
##ific
친일반
아이디얼
익스프레스
Charles
IR
국공
단정
매진
비아
숫자가
##피크
##통상
자신들을
##ese
연구로
6월부터
마지막에
배우는
경찰서
2차원
준비가
분포하고
나폴레옹은
숨겨진
DM
TR
듣는
분홍
유머
통찰
페라
피카
##여단
##리한
##문인
##수송
##버스가
##천면
##헤드
##하자마자
운행되고
사업의
정당한
가톨릭교
고양시
##ission
원로원
힘썼다
위스콘신
22년
도스
보이스
상대를
저주
주창
켄터
크기에
##척이
##림에
##쥐는
시작을
##베이성
브래드
박영효
3시
가토
가닥
교수의
보로
속하지
양상을
의용
이별
제명
지분
해트
##채의
##상황
##인명
##탄올
##먼이
위치에서
공항은
집안에서
신성한
장면은
취소되었다
순식간에
공국
기적
노보
높이의
단어의
몸은
지을
참의원
초당
##하신
##와라
##성장
##면적
##버가
##전에는
1970년에
으로도
필요할
상황이었다
지나친
경찰관
야구를
오늘날까지
바다로
수입을
전설에
만주국
요하네스
수수께끼
대전에서
부인은
적발
통하는
한중
##데자
##70
##xt
##회의에
2004년부터
기관이다
사라져
헤르만
부담을
글러
마다
안창
오가는
향신
후원을
##공과
##체제를
##왕국
시작되는
여러번
##부분에
이전하였다
계속되고
출연한다
비교할
결승에
확장된
녹음한
소재한
히틀러의
Bu
물체가
색의
시크
시체를
애착
옆으로
와세다
친족
흐른다
##기보다는
##순은
발표하면서
정책으로
형식은
영역은
CG
공안
극락
댓글
복수를
중견
질량의
필하
##가미
##사단의
##자로부터
##장에게
##청구
##OW
사회학
##들에게도
영토의
활용한
취득했다
비스마르크
못하였고
반격을
사설
여자가
조니
피드
##로스는
##니티
##하였으므로
이후인
경제에
경제적인
진행한다
출연을
생활의
시민들은
선정된
통과한
달러로
회사에서
묘사했다
국왕으로
마닐라
패럴림픽
노력이
놓아
다마스
몹시
서바이
성적은
아드리아
유포
점도
활동했고
되어서야
생각하였다
반대했다
화합물
라이프치히
##주식회사
거머
끝났
덕에
산으로
신주쿠
예선을
일자리
주임
중원
징계
##회관
##선생
##루에서
##움이
##딘은
1972년에
보통은
2003년부터
물질은
승리하여
##바이러
##스키가
정착한
넘어갔다
핵심적인
목록을
두드러진
단단한
피츠버그
tra
돈이
동탁
문서는
수염
엇갈
온라
정경
태생의
판명
팔작
팬들은
항목
형을
##투스의
##르다
##메이트
제2회
미군정
호소카와
어려움이
부에노스
궁중
도리
발리
사신을
신약성
악성
완봉
요소는
잡을
택시
##협회는
##섬은
##몬트
##쳤지만
러시아에
차지하게
정의에
체포된
시행된
촬영을
절대적인
돌려보
고고학
마르크스주의
##미사일
80년대
구역으로
먼지
숙주
스몰
심화
이윽
줄리아
차고
체계가
##수교
##번으로
##태가
##컵을
##골의
##잉글랜드
1984년에
유럽연합
필요성이
2013년에는
설계한
그만두고
힌두교
몸길이가
##attle
교단
믿을
지그
카니
호모
##비한
##순이
##전시
##등과
가능성은
이해하기
정권에
혼란에
엘리자베
급격하게
24년
3호
Jose
능력에
대나무
도박
발산
섹스
썼으며
염소
예가
작다
지켰다
크기로
황색
##테랑
##초로
##담당
사회는
연구한
연구에서는
아이젠
제공한
환경이
1874년
성립된
재직했다
파생된
컴파일러
##데자네이
Free
도르
맹활
미에
살면서
셰이
엔트
인코딩
있음에도
직원이
출품
키는
평원
행사에
형법
혜성
##비크
##기만
##ning
##시안
##리드
하였다고
중국에서는
##els
##ther
녹음했다
달성하였다
이승만의
나카무라
총독부
노부나가
##고등법원
고온
네모
동의를
부러
송파
어시스트
왕정
재구성
쪽의
타밀
화석이
휘발
##문서
##숙은
생산하고
발전한
이야기의
31일까지
행동의
노르드
측정할
마드리드의
궁극적으로
어려서부터
이윽고
Die
그외
드레스
로큰롤
못했으며
미군이
일식은
차원의
채소
철종
총사령
##ness
##품에
##파르트
감독에
구성은
데이브
조각을
살해한
메디치
Street
오클라호마
공장이
매직
예산을
자궁
##기아
##감사
##확인
항공사
영역의
보여주며
자체적으로
NATO
프랜차이즈
해트트릭
8세
개선을
광양
다발
더빙
만년
면적이
숫자는
자사
##달의
##90
##노미
##후이
국가적
##itch
방송에서
판매량을
이해하고
근거한
1조
감동
게스트
되살
별개로
신임을
않거나
일화
일삼
일괄
정형
중개
##프에서
##순의
##법원에서
세계적
위치하여
영국을
행정부
생성하는
조약은
합류하였다
내각이
집합을
불안정한
반발을
##조판서를
농축
데는
많지만
바오
온도를
이브
장래
총리의
존재한다는
##시키려는
대학교와
어머니인
결승에서
살아가는
서식지는
이민을
##시험에
##aceae
스퀘어
거쳤다
교리를
사귀
안토
인프라
친왕
##처로
##버린다
##항이
제안하였다
나타나며
종류로
##차례의
고마
김명
나인
다국적
생생
아들은
장치는
질서를
품은
하키
##och
##그의
##누마
##움과
소속사
수행한
소설은
겨울에는
중반부터
고등학생
간접적으로
오세아니아
3일부터
경인
과는
맥주
발로
변증
사물
원소는
임기를
진료
초에는
##부족
##가며
##리기도
##ya
##브리어
지배하에
전문적인
법률에
강조하였다
종류에
Award
가졌으며
느슨
들지
미상
방탄
배의
배드
유선
유령
자카
평탄
해주는
##2회
##문제를
##제도의
##자면
##카쿠
##디드
개최하였다
통합되어
스위치
수용체
알렉스
시상식에서
제너럴
3위에
Mat
명목으로
신자
조정은
찍었다
해역
형의
##리라고
##책이
##클래
##에게만
##hem
지방과
생각에
소련과
충돌을
##ipp
탄생한
프랭클린
쿠르드
3번째로
Mil
Tom
금전
도야마
라쿠
마테
변이
변하지
북경
비스타
오일
원동
장쑤
조에
토목
한림
##들만
##가락을
개발도상
##ope
다카라
교체되었다
10년간
##ship
후지와라
마운트
Off
꼬리를
번은
변하는
복역
세리
요즘
유수
정예
조소
행성은
##품과
##조연
##골은
##ert
일본군이
연구하고
##itz
서비스의
영토에
은퇴하였다
초반에는
참석했다
Exp
카스티야
3시에
3명이
CIA
고개를
나르
다룰
목욕
소의
잠입
전대
착취
홈경기
황실
##멕시코
발매되었고
결정이
##tein
내려와
떠나게
인종차별
신뢰를
##르기스
느꼈다
둘다
리어
부회
석권
수년
안녕
엉덩
유역
정화
정계에
죽임을
판의
픽셀
해군이
##집에서
##됐지만
##례의
##HC
##쳤으나
연구소의
12월부터
결혼식을
요청으로
##mm이고
시험에
니콜라스
탄압을
국정원
오이타
XP
고집
미식
반성
속하게
안겨
참의
최남
후유
##원이다
##모어
##임에
##자문
##받기
고려사
지난날
세력에
확대되었다
탑재한
창설되었다
개시했다
대표팀의
##상태에
공헌하였다
백악기
ng
강진
근위
김광
불려
사내
오사
오르게
이길
정박
중부에
키를
파리에
패킷
##ien
##비우스
##협회의
##장사
##히드
1982년에
##하자고
2009년부터
연합군이
확인했다
방문했다
사례는
심각하게
생명체
NHL
용인시
핵무기
브란덴부르크
리우데자네이
가량의
겐지
경무
김윤
날인
남자의
눈치
명나라의
스쿠
온두
전당에
정해져
##효율
##루로
##즈와의
보고를
실시하였다
적용할
구분할
밝혀져
남서쪽으로
프란시스코
신성로마
아미노산
챌린지
4의
Back
TS
다쓰
등지에
색소
제도와
중용
진수
짧게
청량
타는
##참찬
##리라는
##일기
##움의
운동으로
그것이다
지나가는
Inc
그렇기
This
집행유예
자극을
Bad
Sing
묶여
자존
조계
추축
커서
컬렉션
효력을
##아에
##시다
##선인
##간으로
##zy
##블릿
발견할
만들어지는
않는다면
변화하는
최소한의
이승만은
이성질
펼쳐져
서스펜
탄자니아
##네티컷
로트
발착
번이나
서거
은폐
의장을
일진
##데스는
##vin
##OT
##냈으며
만들어졌으며
부족을
내려졌다
성장한
금지하는
1세대
천연기념
Jean
오바마
낙동강
불분명
만드는데
친일반민족행위
길로
나바
다수를
대청
매거진
발포
비옥
사각
아끼
재료를
회원으로
##미치
##그라운드
##해지면서
1974년에
활동했던
##oma
조직으로
확장되었다
지진으로
소수민족
예수회
부진으로
카디널
클레멘스
Thomas
공로
업로드
진단을
톈진
파직
포격
##미나
##른베르크
##층과
##둘러
이상은
대학으로
건설이
개인용
기관으로
1차전
창설된
건립된
순서대로
인터페이스를
6천
공적을
내릴
말린
매립
문명의
벌이고
상고
서태
세르게
실수를
응급
##진한
##어류
##인권
##분류
##언이
1983년에
000m
##이드의
초기부터
지배하고
2000년에는
사무총
##TV에서
함경북도
감리교
동요
둘의
세번째
소아시아
스레
##어지게
##해졌으며
##빈이
##OK
유럽을
제공하였다
데뷔골을
친일인명
미카엘
문화체육관광부
2단
4시
5개월
거란
기밀
단점이
대여
동전
수백만
시호는
여럿
월트
지에
필터
##으러
##모르
##작전을
##후는
##등은
14개
사망하면서
시리즈로
비교하면
시민권을
승리하였다
구간에
아내를
주인공인
일치한다
Fr
갇혀
배워
벤처
부평
소생
실어
악기를
요괴
이니
절충
지린
테베
##가족
##게도
##원자
##조사에
##노르
##좌의
대표되는
인정받고
교황으로
드러내
유전자를
남동쪽으로
머물렀
마다가스카르
Light
고찰
나쁘
벽에
쓰이지
완결
유능한
입자가
##부원군
##사도
##읍에
##인산
##물리
##샤의
감독인
다양체
생산되는
공연은
마르셀
영토는
제품은
왕국과
확실하지
성직자
##여자대학교
Bel
Dis
곳이었다
관리가
보름
비토
살기
성질이
없었으나
역학
중남
천수
컨텐츠
코네티컷
##는지를
##쳐서
##스터를
##대학에서
불리한
연기한
발행하는
실행할
자택에서
가사는
강하고
규명
끔찍
대를
데미
불타
사교
아놀
없도록
절감
침범
테두
파시스트
##보스
1979년에
지방선거
##let
형태와
반대하고
기업은
있어서도
거두지
해결을
바다에서
재판에서
붉은색
폭탄을
인플루엔
Gold
가쿠
나이는
미친다
배로
버스가
장관으로
재개발
캄페
캐리
필두로
##마켓
##지에는
##공장
##너와
##승이
##증권
##설계
##변호
일부이다
시스템과
시리즈가
1877년
부여하는
묘사하고
장로교
9회
거시
바스
불량
불릴
어워
있기에
##마니
##부대를
##상업
##함대
##새를
##까지를
1973년에
채택하고
개편되었다
카카오
가환
가뭄
곡들을
바리
별세
시국
우체
자란다
##링이
##공단
##노스케
##팀과
##림으로
##ility
설명한
2001년부터
결성하여
비용은
유니폼을
AA
것만
고도의
군함
남방
되풀이
모스
바라는
성경의
수인
안된다
올렸고
위쪽
유체
자리는
파푸아
##아니
##레에
##일식이다
시작했는데
사람들도
개발하여
##이트는
2011년부터
내용과
##nder
통합되었다
편찬한
성남시
각료
골짜
무네
엑스포
입지를
정체를
직행
패스
학자들이
##ham
##다오
##저가
##브란
##B48
제공된다
출시했다
식민지의
불리던
임시로
유대교
United
주어지는
로맨틱
토스카나
인테르나
고의
끼친
번호를
실권을
원자가
##처에
##러시아
##소리를
##주어
##호른
##태는
사이언
이적한
##unction
런던에
생성된다
제4회
오스틴
참석하였다
남동부
브루클린
개칭되었다
##문제연구
Soul
증권거래
무솔리
만장일
걸고
구슬
떠돌
사운드를
서귀
서아프리카
양은
장흥
재벌
휘트
##22
##강에서
##수입
##키스
##전대
조선왕조
만들기도
개발자
##ush
민주당의
개최한
##적이지만
사상에
헌법의
상징으로
1차전에서
번역한
얼굴에
비난했다
프로그래머
대다수
쓰러뜨
Lu
메카
면적의
믿음
아흐
용기
회장은
##활동에
영화와
조선을
모두에게
##ett
연합하여
제30
발달하였다
이주하였다
주도권을
무렵부터
입학했다
한번도
일렉트로닉
Act
Dan
PL
모던
반항
복속
사비
안팎
장르를
##처분
##나드
##정지
##피아의
##ality
아이즈
등장하며
인도유럽
불교를
발행한
저술한
에른스트
3단
무리가
삼은
신은
알리고
전장
정선
줄을
출구
##렌의
1992
자유한국
센터에서
##단체인
보컬리스트
##mann
거짓말
브레이크
South
바꿨다
mod
금요일
독서
모신
사상이
섬이다
아들과
영상이
와는
일일
줄곧
화순
환자는
아이들은
요구한다
친구들과
범죄를
설정되어
누구도
대대적으로
##레타리아
방글라데시
Society
ind
rec
무어
물체를
부인이
시원
예수가
왔고
전자를
종묘
직계
친한
##크리
##다람쥐
##와도
##지검
##적한
##례가
##운트
중심지가
유명해졌다
지배권을
주변에는
산업이
예정인
패배했다
장착한
바깥쪽
발탁되었다
망원경
헬싱키
Wil
규격
날려
됐고
살며
심야
에마
의정
인식이
한사람
##구조를
##우회
##감염
##버스는
비판하고
비슷하지만
1880년
선언한
복귀한
가톨릭교회의
모스크바에서
목록은
양성자
거래를
교부
데일리
되게
반격
버클리
양서
연대는
치르
한의
후대에
##보며
##IR
주장으로
축구단
연합국
변경을
바뀌는
알아차
확실하게
전설적인
침략을
수컷은
게일
경주시
과다
날로
띠며
말하기를
배경을
새마을
색상
요양
잔여
조문
호랑이
히브리어
##데일
##중주
##QL
##율과
##훈의
사실상의
수행하기
##문화의
북한은
##프로세
끝나면
그때까지
글래스
아이치현
3집
무르
바비
반동
분자의
불구
불만이
소용
송환
연행
위주의
전리
조조는
키릴
탑신
투하
##나지
##견에서
##팅을
1994
경기장은
항공기를
판매가
전통에
언어이다
파견되어
직후인
다르며
윌리엄스
출마를
체계적인
일치하는
격파하고
교향악
도미니카
하이브리드
5명
Sil
곧이어
남자는
땅에서
유식
클레오
태도
팬들에게
편이며
회유
휴양
##번대
##건축
##받았으나
##유산으로
260
##ection
작가이다
바탕을
아침에
신시내
부다페스트
5의
RS
두뇌
드레이
들의
등단
상자
전교
정종
풍습
형제의
##서비
##모양
##호에서
예술적
스트라
체결하였다
세력과
연맹의
근대적
전역의
나왔고
5세는
6명의
개로
구원을
날을
뉘른베르크
독살
듯하다
미군은
변속
왕래
외무부
요시아
임계
차이나
##노부
##9년에는
하나에
들어서는
다시는
##위원장을
노동자의
종교를
명의로
유래한다
남부에서
국회의원을
스테인
촬영한
대립이
명나라에
패턴을
스타디움에서
시마즈
##ittle
고종의
문과
울프
정계
제동
주식을
죽일
확충
##봉의
##출판
##궤도
많은데
결정은
자연과
공연이
국가대표팀에서
생성한다
##스럽고
팔작지붕
4분
납작
누리
맞물
밑으로
신상
원소를
표면의
##타라
##직원
##법률
##합을
##쳤다고
선수인
제작하고
12월까지
내려오는
출판사
비행을
라이브러리
행복한
선제골을
George
기도를
넓혀
다닐
몰고
부문을
비는
비지
야전
온실
운명을
절친
항만
##술은
##제이다
##EST
##금속
##메스
가지를
제1대
부분과
이탈리아어
##ters
##시간에
단체로
체계적으로
8개월
공휴
나리타
다수가
단계의
도구를
마스코
묻는
새정치
싸웠
주기로
지킬
##토프
##짐을
##왔으나
##약은
1975년에
소유권을
나무로
달성한
상업적인
홈런과
관여하는
후쿠오카현
Island
Elect
Tim
am
kt
군과
금액
기하여
남을
두가지
뒤덮
묘지
복수의
선별
우치
읽어
총기
코리
혈통
##마케
##마력
##DS
##요리
데뷔했으며
태양계
지정되었다가
삼성전
의존하는
##리우스는
주한미
맥락에서
볼셰비키
루체른
Are
구니
높였다
비긴
알기
제리
한데
##말의
있었으므로
개발은
주도이며
무엇보다
이뤄졌다
히트곡
오디션을
기온이
BL
개수
걸프
구두
노골
레즈
리히
법령
병렬
시대로
신학을
역도
조정을
천체의
투신
##비안
##레네
##태수
유지되었다
비판적인
해결하는
가르시아
##지방검찰청
작용한다
하노이
1시
2점
Sk
바투
샤프
영예를
오와
왔던
우한
음운
페레
##술이
##질과
##버를
##급으로
##포시
독일군이
학생을
##시간을
추진하고
자동차의
1주일
거창
고르
굵은
뉴멕시코
단속
릴리
머리와
사림
수지
적당
##개와
##데스의
##강으로
##탈을
##더와
##32
##코어
1981년에
경기인
우승과
건설에
개최되는
##세포가
마카오
Du
수비를
유스
읽기
재회
초식
휴게
##ks
##동물의
사람인
유럽에서는
차지했으며
컴퓨터에
물러난
부임한
동작을
명성황후
노태우
같아
남산
바덴
배반
쓰일
왕당
이들과
초음
회사로
##시드
##레스트
##좌에
##건에
기준으로는
건강이
종목이다
플루토
5차
Pop
gr
괜찮
땅이
렌더
상록
수력
승자
실체
씨를
원소가
점으로
친환경
##바위
##무르
##련을
1969년에
11월부터
게임과
2010년부터
허용하는
합리적인
기온은
##스러워
아나키스트
코무네다
캐서린
메트로폴리탄
가했다
갔고
공세
대제
동적
리프
성인이
신분을
양극
염증
윤휴
일행은
증발
컨설
통솔
##빌리
경우의
만들게
참가를
개념에
왕국에
결성했다
집중적으로
2세대
이후로도
지식인
임무는
갑작스럽게
일방적으로
신한은행
둥지를
생물의
시네마
억울
추운
패스트
할양
##스텐
##타점
##호란
##HD
기관지
이듬해에
거부하는
바뀌게
전해져
사례를
다스리는
로렌스
North
Ca
bl
가우
날씨
낮게
뇌물을
당하였다
땅의
불사
비하면
사하라
수은
쌍의
아킬
지점을
진실을
캐피
##데의
##투어
##천으로
##메니
##닌은
국가정보
##oul
공개한
일반적으로는
승강장으로
그림이
사무라이
얼굴은
필리핀의
제7회
세웠으며
신분으로
미드필더로
일렉트릭
강으로
계의
당연
물은
범람
본부는
순서로
스칼라
영적
왕인
잭슨은
카슈
토양
형이
##광의
##청으로
##규는
##하기에는
참여했으며
로마는
컴퓨터가
오늘날에도
방문객
다르지만
##기술을
무엇보다도
##사무소
코트디
고층
신체의
일자리를
하려는
##군도
##타에
##황은
15일부터
문제점을
설치하는
보내졌다
환경의
보이는데
일으켰고
우려를
열매는
조선인민군
켄터키
PP
듀오
말단
무기로
복직
수교
재결합
크며
##다스
1200
인구밀
이용이
교육이
소속이다
바이마르
##ird
지진의
레코드와
##angu
요리토
후손들이
신설된
힘들다
대단한
5억
West
가령
도로의
리베르
승하
오시
원심
위상을
육지
전면에
지식이
질병을
천장
총회에서
히트를
##재와
##자동
##필을
##디자인
사회과학
8월부터
등장하여
표현하였다
##운동가
처리할
분포하며
아키텐
파라과이
근본적으로
정차한다
What
마이애미
3남
5위를
AF
Kh
Sur
깨어
누렸다
다리는
부부의
양쪽에
지식의
처칠
출혈
타구
털은
훈장
##단백질
##어사
##적이었던
##질량
##조사에서
##간지
##녀의
##BT
1978년에
한국독립
사회적인
멤버들이
그린란드
발행된
어깨를
멜로디
How
pl
su
근사
남겼
마키
불만
셀주
운명
재보
저수
쳐서
클리어
푸아
하쿠
혼다
##오면서
##빨리
당시는
공동체의
스페인과
대체하기
이외에는
캐릭터로
주최한
염색체
헤르체고비나
그러고나서
2일부터
5일부터
경량
구약성
단거리
도구로
아편
우상
인생을
일하였다
##oy
##P는
##RS
##주의로
아이들의
##ita
지구로
소련에
2003년에는
노력으로
제5회
득점하였다
나뉘었다
맞이하였다
어디서
무함마드
허드슨
궤도에
이바라
장크트
주부
즉흥
책에
키르기스
폭력을
##리스와
중앙아메리카
표현하고
추진하였다
노르만
히데요시
system
남매
납부
높이고
무단
복소수
체제에
측면에
현미
호스트
휘하
##지로서
##인사
##랑의
##열과
##헌법
##ME
연구소에서
이끌었고
2019년에
파견되었다
양자역
강점기의
2호선
God
Mad
교장
박사가
보트
빨라
상세한
예시
유클리드
취향
특집
##수염
##순에
##M은
1949년에
##ental
자치체로
공작의
에스컬
선호하는
선제후
심사위원
##sych
Michael
근원
면모를
모라
수증
순항
승정원
애드
오스카
용맹
원했다
전선에서
제창
판본
해시
##하느냐
##공작
##했으므로
##탄에
##lass
일반화
구성되며
작품들은
대통령에게
이미지가
대학교로
태양이
찾아와
데이터의
선출되어
##방송을
게이초
행사할
오리엔
자리잡았다
받아들이는
되돌려
분기점
AU
고치
고기를
기마
릴레이
문정
분사
속이다
쉽고
왕궁
이룰
정진
정관
주일
찾았다
타일
타우
##사다
##할린
##항으로
##백화
발견되고
운동가
요구하고
##운동은
지도자가
지지했다
개념의
오리건
##조차도
호흡을
고립된
무늬가
Europe
공국의
미생
불상이다
새뮤
서진
않기로
의도를
평상
하의
##학사
##토에
##돈의
12세
1999년부터
가입하였다
바람을
인수하여
제6회
##aint
자녀가
KTX
1과
Hist
고을
공영
기를
다나
딱딱
매도
사보이
않으면서
통역
표적
10일부터
18세기에
##학자들이
##리그에서
역할도
오늘에
영역이
영역으로
자살을
무게를
황태자
##륜구동
1점
곳이기도
공기를
방공
산업을
아브
에두
오미
이코
팔렸다
학대
##투르
##인구
##립을
##위치
##대비
##티넨
##심사
##곡과
일본식
서울을
참여해
방송에
##ration
확인하고
##적이거나
Champ
수준에서
밴드이다
인터넷을
나무의
추천으로
지시했다
임금이
해협을
와카야마
HTML
따돌
몰랐
신당
싣고
앞뒤
앤디
연료를
워낙
초의
툴루
하류
함은
##IF
##천년
현대적
간행된
재발매
사간원
스카우트
레퍼
마디
맡는다
반기를
유방
절제
조영
##라르
##gen
##전용
##5년에는
선택을
파괴된
##세포를
레코드에서
Road
Franc
Part
뜻하며
로잔
리포
매디
발톱
법안
본사
봉인
세울
송진
월남
총학생
춘계
취해
학명은
행성을
##26
##방식
##츠에서
##큐슈
##iness
작품들을
이루어질
이동했다
##드리게
전라북도의
제4대
초신성
가볍게
뉴올
대인
번씩
서자
어지
올릴
음주
의논
좋고
허정
##물에서
##값이
세계가
돌아간
과정이다
기능과
멤버들은
사무실
페르시아의
느낌이
플로리다주
##타나베
자메이카
SH
당신
두터
믿음을
비둘
소를
직무를
창고
첩보
취했다
탤런트
##ute
##채와
##경부터
##CO
##머의
##율의
##런이
중국공산당
국제선
사고의
##회사인
전공을
정체성
혁신적인
신속하게
열대폭풍으로
4승
5천만
YG
가든
가혹한
감정이
국철
글렌
도청
도약
멋진
불화
스기
승낙
시켰다
애기
의례
장병
지적이
치우
편견
형상을
##사자
##sc
##지않
##락에
##츠에
##균은
세계는
제작자
##mph
결성되었다
에이즈
장착된
빼앗아
Roy
관목
농어
대군을
밀가루
버티
벽을
북대서양
불경
싶다는
유생
타타르
탱크
##100
##생성
리그가
남아시아
만나고
공급하는
연산군
발족하였으며
기자회견을
가가
경고를
라자
매스
목에
사와
일주
정거
집이
호수의
##왕복
##iter
대학이
프리킥
변화의
클럽으로
재판에
1859년
등록된
병사들은
경성부
##노동조합
다음날인
구스타프
기슭에
손해배상
She
격자
낡은
논의를
동형
미망
봉헌
붙이는
성실
여부
영사
추리
홋카이
##운다
##컴퓨
11개의
1988
##시키면
시간대에
제공하며
플레이를
증가한
증가한다
활약하며
물질로
레코딩
합의했다
주둔하고
차별을
완공되었다
Company
NL
du
갑각
군림
그들과
뇌의
보상을
음모를
일요
임금을
지대에
청주시
##들에는
##역인
##공사가
##브러
19세
##arm
아이오
표현한다
기관은
즉위하였다
##상태가
휴대폰
##rown
Nat
col
굳이
글이
김준
문종
사본
셀레우
시오
신문에
신기록을
심어
이지만
착각
청취
##이야
##A의
##공사의
##고스
##바인
##전에서도
##숙이
2월부터
생각하지
사실이다
참가하지
스타일로
제국주의
스위스에서
이사장
Alb
아테나
##계획을
가장자리에
Pat
랭크
맑은
믿지
바치는
배타
이창
인류가
입당
전력이
학회
합니다
해킹
##광은
##정리
##정맥
##줄을
##무기
올림픽에서는
##ague
패배하여
지진은
집단으로
받아들일
마리아의
1812년
목적에
유효한
외야수
헬레니즘
Sound
Tre
그란
기리는
빚을
소가
시찰
월요일
작가는
코뮌
크메르
타인
파업
헤센
혼잡
##8년에는
##lat
이것들은
운영에
필요하다는
표현했다
FC에서
아내의
개봉된
시청률
문헌에
패러다
브로드웨이
금산
단어로
머리는
무찌
미카와
별자리
병기
부위
연중
영미
오만
웨인
이질
적힌
통로
##신보
##름의
##너드
##차트
##호대
##충의
##뉴얼
##리아가
그러면
##ars
독일로
지원하였다
태어날
유전자의
주민이
1879년
자료이다
주도하는
녹음된
이하로
부친의
특허를
위키백과
2에
CV
끝냈다
뉴잉글랜드
돌이
동맥
바쳐
바디
반달
보이기도
안철
털어
팀이다
함수는
힘에
##마라
##니우스
대한제국의
15개
제작되어
사건에서
등장하고
발전이
방향이
예정되어
즉위하자
White
##사우루스는
알렉산드로스
평평한
NBC
규정한
당하여
분명한
셔틀
시냅
열렬한
왔으나
운수
테살
퇴위
파열
##키나
##예정
##억원을
##움에
9월까지
있어도
2010년까지
지배적인
##ady
남부와
귀족들은
인사들이
몰아내고
Cup
Luc
대의원
발자
분단
비싸
손녀
슈고
스트로
여왕의
현무
##이론
##아로
##희를
##캐스트
1990
1950년에
아이오와
##ason
이루어졌으며
지구로부터
졸업생
추정되고
포르노
보수주의
내각에서
Science
8대
가정을
극한
대상에
드미
루비
사생
식의
오우
의심을
진리
코난
##하늘
##호인
##농업
결정한
정의하는
전문가들은
대항해
청나라에
##고등보통학교
주어졌다고
미성년
새뮤얼
뉴올리언
2승
End
FK
경선
넥센
던진
문맥
생선
성분이
없어진
영락
울릉
원전
추세
탄수
패망
평형
행해
##그러
##모닉
##족들이
아이티
브라더
학생의
레이디
이때의
사업으로
스탈린은
##마저도
SO
겨냥
끝내고
모자이
민요
바트
실효
아스카
외삼
이홍
##군수
##아트
##루크
##임과
##너를
##운드로
##렌스
1993
이루게
발매됐다
참여했고
적용하여
출판한
높아졌다
아들이며
간단하게
메소포타미아
Pet
USA
강변
고갈
권력이
김연
느리게
부왕
불복
쓰이며
아칸
앨라
유미
윤곽
집의
탈당
판단을
##미아의
있다며
있는가
영국군은
##부분이
행동으로
점령하였다
복귀하여
자동차를
떨어진다
문서에
증거로
절반을
알고리즘은
포인트를
Di
it
꽃을
날은
뚜껑
버밍
법원의
볼록
얻었으며
유틸
죽었고
평했다
##미래
##전력
##I는
##3년에는
자연적으로
##운동장
판매하고
2002년에는
우주선
물론이고
##ude
보컬을
훗날의
뉴질랜드의
저널리스트
무승부를
슈투트가
Long
co
극작가
니케
대우를
문장을
앤서
에다
원조를
입상
장소가
전선을
##은하
##네스는
205
##1년에는
지역구의
1976년에
진행되었고
조직과
##리그에
없다며
##리오는
##리오스
2000년부터
내각을
##ally
##oung
성향이
스탠리
패키지
몽고메
지극히
Land
검정
날개를
노론
대문
대덕
미켈
바이트
사수
위축
학파
함을
함양
##라크
##제조
##막에
##백이
선수와
들어갔고
##alth
프로그레
나라로
2002년부터
차량으로
방문하는
자료로
아프리카에서
구분이
귀족들의
상징적인
출범한
프로이센의
기동전사
트위터
시트콤
1세를
6일부터
7만
게놈
라벨
매끄러운
물류
박성
식사를
열리고
이아
체제는
##기통
##표준
##운은
##lation
감독직을
구조이다
받았을
동물이
정당은
주민들을
전시되어
구별된다
베를린에서
선보인
득표율을
복음주의
비정규
RA
교량
로타르
무가
문경
버드
버클
블레이
빈민
쌓고
오게
커져
##중이던
##워스
##호선은
##독일
##충이
##걸이
조선후
모두에서
일어났고
발전된
도입을
전해졌다
나타나기
받아들인
네트워크의
병사들을
Beat
플레이오프에
유치원
Boy
국토교통
서초구
나간다
눈물
순위에서
시키는
였던
원종
장치의
조의
주선
통킹
##TE
##삼존
##먹는
##겁게
일부로서
개발과
데뷔하였으며
내부에는
대립을
신뢰할
바라보는
생기게
휴대용
플러그
1단
Sum
긴밀한
논리적
문자는
서지
성문
손해를
아뢰
자비
촛불
총사령관
포화
##기관을
##28
##스프
##사적
##판에서는
##명이었다
##록에
##딘의
1971년에
부분이다
방법과
평가하는
차량에
언급하고
헌법은
자료는
5년간
##정보를
Project
##노동당
AKB48
어항이다
가면서
단결
도산
따랐다
모모
미완
백혈
베테랑
산하에
성북
전산
팔을
##효과
##우스를
##친왕
##호부터
##반으로
##츠부르크
##리아스
활동하였으며
14일부터
주장하면서
기술이다
이탈리아로
국민이
브라더스
산업에
##rim
거주하던
정당인
고등학교에
사례로
올리버
브레멘
헤라클레
1가
GM
가파
루프
박원
실정
쌍성
악화되어
이항
협업
##이시
##연금
##ense
음악으로
진행할
##adem
도쿄의
되었기
요시쓰
복귀를
이야기이다
등록되어
마련하였다
조정에서
펼쳐진
밀접하게
희귀한
페르난도
대니얼
4세가
9일부터
House
간사
공상
다닌
모세
신천
음의
청각
##방법
##버스를
가능하고
역사학
돌아올
필요에
명령어
네덜란드는
움직이지
유래는
황제에
집합의
오토모
##시설이
적절히
태어났고
싱가포
붙잡혀
클라이언트
화강암
Windows
2개를
GR
Sam
골로
독주
순찰
승부를
없는데
예로부터
일정을
직속
진을
##회사의
##당시
##측이
17세
1930년대에
##시키거나
생산에
공작이
소재를
위협이
배경이
증명하였다
하드웨
##재판소
받아들이고
철저하게
##플레잉
EBS
가도
관해서
넷플
둘을
롤플레잉
마우스
모형을
붕어
소식
시중
안톤
앓고
외부에
진전
형벌
##공무
##입을
##르스
##반대
있었음을
생산한다
라이센
형성되는
비롯되었다
레이크
유로비전
논쟁의
전설의
한반도의
영혼을
AB
Ben
Power
경보
공의회
도읍
뒤따
마구
산책
성소수
숲에서
오일러
클랜
혁명으로
##신앙
##설과
##급은
##히며
##킨은
##펠트
사용자들이
대회인
형성된다
어려울
2차전에서
시도한
얼굴이
플루토늄
격하
데드
바쿠
사치
삶과
신발
에볼
전학
족의
주동
지팡
##동성
##처에서
들어선
조용히
General
7일부터
Alex
NS
Over
Ter
Vir
규합
꽃잎
문자가
병원으로
부인의
셈이다
앞에는
조장
칼륨
타도
퇴출
포스포
함대의
협회는
##고지
##질서
##승은
##팀에서
##망원
중심핵
선거에서는
이탈리아에
계획하고
지휘했다
부족의
대체하는
우리에게
충청북도의
인터넷에
지식과
승진했다
비틀즈
캠페인
이마가와
다카라즈카
NE
명륜
몰도바
무정부
별명으로
보았을
수퍼
신들의
외부에서
채색
콜드
토로
통폐합
펠릭스
##였기에
##직과
##렸기
##칙을
##쳤는데
##뤘다
20일부터
##레이스
이탈리아와
의무가
잠재적인
3선
SR
내기
도도
뜻에
매표
못하며
변혁
섬이
압력이
일과
장점을
지위는
첫날
##선수로
##상공
##근과
##2년에는
설치류
자연스러운
데이터가
접근하는
바뀌었고
합병하여
발발한
사냥을
주기적으로
Play
퍼포먼스
어디까지나
던지는
미미
박진
밝고
배아
입후보
작전이
적재
제천
처방
특성에
##지이며
##방지
##ION
##백의
##왔는데
##6년에는
제27
교육은
시스템이다
실패를
인민해방
단백질은
도달할
데이비스
받아들여지지
시사한다
Research
이노우에
4일부터
6회
국악
내적
내구
높으며
눈의
눌러
러닝
멘델
앨버
여자의
옮겼
잃어
중공업
쥐고
##기스
##데냐
##민들은
##지배
##체계를
##64
##때는
##쇼에서
##쳤던
결국에는
여성들은
230
상황이다
##rad
스페인에서
이와테
##ander
근무하였다
주인공은
분노한
선전포
프톨레마이오
##UCN
IUCN
넘지
늙은
동위원
드나
무도
문학적
보정
세련된
여는
장자
제헌
조봉
##인지는
##구장
##바도르
1968년에
발생하지
대학과
여성주의
2014년에는
2015년에는
대중음악
##ulti
공부하였다
국무총
출간된
##해져서
##ological
까닭에
이바라키
CA
DR
Rem
급속도로
기가
내에서도
단국
듣게
라치오
막강한
무차별
본존
오웬
오류를
인체
친화
캐논
##방식을
##젤로
이어질
최고인민
보고서에
발전의
뉴욕에
북쪽에서
살해하고
삼성전자
계산할
Adv
브레이브
디자인의
Get
Not
Top
국기
동시대
만화를
배는
보너스
사나
스킬
앞쪽
앨리
유영
윤리적
임정
절약
충칭
카스트
피살
##아지
##대리
##배로
##법적
##F는
##거와
1963년에
베르나르
강조한다
파악할
개막전
자랑하는
영광을
원숭이
샌디에이고
Aut
Dr
Jack
과학과
김선
김천
라울
잉여
재검
재계약
코퍼레이션
학업을
해전
##나비
##포인트
11일부터
아니냐는
일부에
대회로
설치할
만들어냈다
40분
언어에
애니메이션이다
중단하고
확보하기
남편을
구체적
Cons
터널을
침입을
Hy
With
너비
누에
다이라
단위의
양자가
와이드
정문
종양
천명
하워
##oid
##화산
##실점
##교수로
##왔다고
##ones
일부인
대한민국이
##시키려고
자유민주당
제공되는
모습과
기독교를
통합된
##ople
아시리아
나타내기
상호작용을
프로그레시브
공기가
대상의
면에
우왕
타오
트레일
행해진
흔적
##다발
##스틱
##새가
##배수
##청장
##건으로
운영한다
정도이며
나오기
사령관으로
남편과
##로그램
끌어들이
의거하여
MT
hPa
pol
끊어
대좌
반유
버스는
사소한
성화
성경을
우스
육군은
진언
회담을
히스
##각에
##했는지
사용에
##7년에는
수도가
인정한
50m
가족들은
선정했다
Church
외교적
아르헨티
도망쳐
현상이다
##슬라브
##사우루스의
가변
걸렸다
굶주
마늘
벨트
벵골
복식
불로
센서
알마
영어의
주성
카와
피쳐
헌액
##거스
##MHz
##회의의
운영되는
지정한
공연에서
부산광역시의
소개되었다
판단하여
중반까지
북서부에
계급의
대비해
제8회
변형된
Enter
MSL
Grand
세계대전이
중앙집권
강에서
거치며
로런
마애
며느
보면서
비야
성체
신곡
이형
이조
전선에
절도
정맥
조조가
증오
캐나
타자로
하층
##ga
##버스의
##조부
##갔으나
16일부터
000명을
2012년부터
##대학교는
나가시마
무렵에는
예상된다
Pi
국사
내게
따위의
서위
아디
어둡
자갈
##그와
##려야
##제철
사용되기
프로야구
1960년에
##alk
베이비
구분하는
박물관에
부진한
건네
결제
마차
방을
배기
생모
약을
조준
직렬
푸틴
피가
##리거나
##버리고
##네프
##엘은
작품으로는
참여하게
참여하였고
임명하여
판매고를
민족문제연구
과거를
드러난
아시아에서
작가인
준비하고
노력하고
처형되었다
플레이오프에서
복음서
중시하는
Cre
경멸
내로
단계는
떠났고
모잠
미츠
안기
정글
코끼리
페드로
흡사
##ee
##란한
##티야
##장치를
##불의
##으로만
독일계
대표작
대한민국에는
사실로
변화와
1839년
불과한
감옥에서
유틸리티
5세의
Bri
op
돼지고
로컬
리차
매복
문학을
방침을
불렀고
비참
사민
순종
아지
없어졌다
영월
이문
입장이
자사의
잠비아
클릭
##들에서는
##화되는
##제비
##베스트
##닌의
프랑코
성공하여
교육부
100명
분류한다
전국에서
작곡했다
위원장을
정규리그
보수당
750
동원해
기다리고
1500m
MLB
산티아고
Hel
Little
거미
구단을
로우
섹션
일가
잎이
풀이
하강
시작하게
대표이사
출전했고
바이어
건설한
모델에
모양은
경쟁에서
내각은
##생활에
후손으로
선고했다
주최하는
방정식을
그도
명왕
변해
복무를
봉기를
스쿼
알베르
우물
인자
자체로
재빨리
지의
질투
초자연
총애
침례
흔하게
##산리
##장성
##길은
##능을
개발되어
방송되는
##스와프
##ama
지휘자
제한하는
제품이
마음대로
나무가
카메라를
제이슨
대법원은
부처의
누군가
번갈아
다행히
5m
내몽골
마켓
맞닿
매듭
명중
위태
종영
지대한
카보
행위로
후루
힘은
##송을
##브고로
##커와
시즌으로
고려할
정책과
상대방의
지지하였다
올라와
월드컵의
500여
폐지되고
다루었다
나폴레옹의
합쳐져
더블린
WHO
공리
관성
구강
서류
섞인
어쨌
에노
최전
충무
코호
##신정
##외교
##구니
##희와
##누아
##제에게
##텐셜
##때까지
유럽으로
방법의
##대학교에
운행된다
##umb
분석에
정당이다
오른쪽에
##노동자
수원시
지내다가
가담한
이시카와
압박을
7명의
Battle
강우
기구를
머릿
백업
삼위
소크라
수와
수심
스펙
여자를
위법
자르
푸젠
함부로
현역에서
화염
##부대가
##타니아
##상인
##수스
##천문
##틀을
##있을
##4년에는
13세
구성한다
##amil
표현으로
아래에는
##레스테
제3회
불가리아의
일종인
개정으로
나뉘며
세르비아의
8강에
방정식
상응하는
MM
York
겉보기
내성
농도가
무쓰
버터
불의
소아
일하던
잡기
틈타
황소
##잡지
##세요
##튼은
##짓는
##혈압
사용되었고
연구원
필요했다
발전시켰다
부산에서
패배로
나누고
입학하였다
전설이
조카인
달아났다
히데요시의
닛폰햄
가늘고
세르게이
공대
내지는
데다
동창
세키가
썼고
않겠다고
철수를
한꺼
##학위
##공립
##빈을
##겐의
##런을
##스트림
프로방
15만
데이빗
280
인물이었다
자동변속
##모토는
건강을
##전쟁이
제정되었다
시각을
Arch
조종사
위안부
제19대
컴퍼니
부에노스아이
한꺼번에
IF
ag
길다
남반
다윗
미트라
사산
셀틱
숙박
아그
외손
이그
전봉
파랑
현상에
휴가
흥분
##ij
##로에서
##공격을
##고트
##별한
##설의
##학교는
##된다면
사회민주주의
경기장을
정치학
아이누
발견되었으며
추가하여
개념과
베르사유
1815년
출간되었다
종사하는
알고리즘을
WC
남조
레버
맡겼다
모임을
불쾌
브리지
비하
액세스
어미
외척
제도로
중상
틀어
함대가
##바에
##건과
##E는
포함되는
##부분은
문제들을
##led
등장하지
실시하여
시설이다
표시하는
조성되어
클라크
유아기를
매사추세츠주
Bas
같지만
꾸몄
루도비
리퍼
밝히는
부주
불렸으며
생을
시발
양력
열렸고
영암
잡지에
재편성
화면에
##바꿈
##벤션
##카드를
인간에게
철도와
전국적인
계약에
장애가
##사이클
Max
당사자
주축으로
신선한
가창
강타
구장으로
논문은
도끼
부제
부대에
출퇴
타일러
펠로폰
후견
제작하여
출연하며
270
판매량
##기관에
드러난다
들어가서
##ograph
수여하는
베이징에서
트랜스포
APG
나왔으며
상하이에서
무죄를
안장되었다
증후군
깨끗한
파충류
FBI
man
곱셈
국회에
네바다
샀다
속을
스킴
시제
안쪽에
에픽
염화
인하
정재
할인
##인들에
##농민
프로파
사회민주당
1950년대에
이용하면
없다면
##ider
개혁의
강조하고
##산업의
투입되었다
여의도
8천
가스가
눈으로
반감을
벗겨
비를
작사가
좋게
흡연
##들로는
##가슴
##지였다
##란에
##변수
##있는데
자신에
1966년에
이상인
관계에서
고려에
인정하였다
형성에
이론이다
명칭이다
분야는
올라온
선택하는
부르봉
해석하는
본래는
잠재적
석방되었다
##other
맥스웰
7회
걸었다
고난
내에서의
달린다
뒤쪽
북반
운하
인생의
자음
잠실
적법
전범
정려
##테로
##제도가
##맨의
##들이나
1991
경제학자
그리스어로
개최했다
연주했다
거부한
비디오를
대응하기
##훈련을
사르데냐
Hell
Pap
가디언
권의
끼워
년에
목이
생포
선양
쇼팽
용기를
이조참
집은
캐롤
콘셉
포격을
하후
##부시
##되기에
##답게
##지리
##플리
##쿠스는
시작하며
사람이었다
도시이며
생산되었다
정의하고
개혁에
지적하였다
보도되었다
바이러스의
동점골을
히타치
알프레드
걸맞
김두
등산
레반
변성
부대로
안중
왕가
이적을
종파
중거리
피니
협정에
호스
활주로
##비노
##정부에
##론자
##끄럽
처음엔
사실과
데뷔하여
임명하고
지구는
오스트로
여기서는
사업가
통과할
통과시켰다
조건은
향상된
부임하였다
민중의
싸움에서
스파이더
프롤레타리아
서포터
lo
김승
나날
마흐
버진
사할린
알로
애매
양념
에로
연안의
옹정
재구
주름
직경
폭포
흔적을
##배치
##록은
기술적인
조직하고
형성했다
방식과
구간에서
활용할
파이프
표기한다
질병의
pre
구에
궁내
뇌물
당나라의
데포르
드로
문학과
바늘
산재
산과
심상
아이다
앞바다
역동
중상을
처해
후추
휴식을
##회전
##테가
##버려
##무관
##했었던
사회와
감독이었던
지원으로
진출한다
##시킨다는
위원회가
고용되어
가로막
Art
하드리아
브랜드를
명확하지
실리콘
해트트릭을
앨라배
MIT
구내
눈은
더하여
도우
디나
머큐
메일
면직
에인
원자의
적자
절을
해피
환관
##국이다
##ues
##업무
##달이
##위스
##티우스
주장하여
라이더
시리즈에서는
교통사
프레슬
1858년
대륙에
##사회주의
세비야
나미비아
인테르나치오
클레오파
8번
경계가
뛰는
문의
보였으나
속에서도
아람
알칼리
인질로
접두
중후
##일스
##방정
##주사
##거리에
##팔로
1977년에
##til
지방에서는
생산한
배우가
전통의
승객이
Like
군청
대본
등에도
매춘
새우
서명을
어쩌
오이라
주권을
집적
코나
##타리
##고시
##절도사
##습니까
발표했고
1일까지
동물로
접근이
전사한
도달한
약속했다
1789년
히틀러가
pr
기계를
남용
띄게
모란
베컴
부엌
양국의
엿볼
호전
##관념
##참여
##여행
##강도
##오지
##법원은
##45
##35
##받으며
진행되었으며
라이베리아
만들어내는
임명되고
싱글이
공항을
##스케이팅
대다수가
몸무게
갈릴레오
캄페오나
60년
cell
가니
귀순
남지
내면
달리고
두었고
따랐
못하자
보그
부자
설명이
성당의
야마다
옮기는
유정
인계
지시에
직관
태블릿
형편
후로
##라로
##부에서는
##후를
##규가
1948년에
분야로
이주해
공작은
전사했다
달아나
개찰구
곳곳에서
객관적
한가운데
비단털쥐과에
많기
명과
선대
속주
식물을
어류
영천
유길
입구에
전술을
절대로
치아
코로
표면을
##기동
##화된다
##실장
##속은
##네트
##볼을
##에게로
12일부터
##이었기에
1935년에
##ely
노동자들의
건물과
프리츠
프로젝트가
자치권을
밴드에
귀족의
대응하여
동료인
사냥꾼
착공하여
폭넓게
8번째
결렬
광서
당수
리즈
마나
맞배
분파
서프랑
속성
싶지
재가
정리를
지남에
출국
탄약
행한
##데다
##ni
##레로
##노마
##빌의
구성하여
과정으로
2001년에는
동일시
##ions
무장한
한때는
위반으로
트랜지
동아프리카
남아있지
선생이
총칭이다
htt
귀가
다채
데니스
리모델
몸통
불충
블룸
사정을
초원
티에
확대를
횡령
##업자
##달을
##귀족
프랑스군의
리그는
25일부터
결정된
아르바이트
기업으로
가문과
##나무는
동맹의
연맹은
##슈타인은
장착되어
3세와
언덕에
##텔레콤
격침
단군
도자
매치
물자
상층
순서를
여긴
여주인
일한
일설
주소를
줄이
친히
포섭
##보게
##임금
##중공업
##주도
##장교
##노조
##급이
이론적으로
배우기
올라갈
State
공화국과
제시하고
묘사된다
엄청나게
긍정적
부진에
디렉터
유러피언컵
Bur
강사
곳에서는
담보
막판
모조리
밀고
베티
속편
쓰이기도
유적이
재창
저그
정읍
중에도
체력
타마
패퇴
학문에
협상이
##기병
##타에서
##작업을
##N의
##룡의
##O의
제26
보고하였다
민주당은
지지하고
올라갔다
프린스
소프트웨어의
신화에서
##IDS
모티브로
Rain
car
골격
국수
기장
내에는
미첼
발가락
볼넷
서구의
설정을
양심
인스타
일자
정세
진핵
펜타
플리
##기상
##화도
##산드로
##탄과
##유와
##것은
사망하였고
결정적
##ets
그룹인
발달하여
320
묘사되어
프레드
취급하는
공헌했다
영의정
평균자책점
어둠의
Joseph
1에서
27년
4인
4위에
DOS
you
니카라
대하
로드리게
마티
명성이
북부에서
삶은
얼터
의병을
있지는
좌천
주기도
코스트
판례
하려
##선형
##선택
##면체
##갔지만
사용자에게
그러면서
5월까지
스테판
의견도
알렉산데르
브랜드로
승객을
이르러서는
화장실
쇼핑몰
세키가하라
Les
Oper
군데
도봉
반도에
섬세한
손자인
안경
여겼
윤석
잠을
제르
출격
케르
환자에게
##들였다
##립의
##베는
##메랄
##암에
발견되었고
기준은
형성하였다
확인한
내려온
공화국에
부정하는
멸망한
650
조절하는
접촉을
치러졌다
##ather
페르디난트
몬테네그로
70년대
대전에
레몬
박상
벨로
수군
수식
승단
양평
외면
의령
잔인
정변
진원
청일
출자
포탑
호찌
##레알
##탈의
##명도
만들며
지방산
기본적
애니메이션의
패배하고
1801년
해외에서
채택한
잘못을
소프트웨어는
최하위
볼티모어
기체의
당했고
로써
리비
부리
성동
손쉽게
장녀
적시
전단
호화
호평
화면을
##합의
##ves
##ford
중심부에
수도원의
방송의
스타트
정보에
항공사로
헌법이
1998년부터
나오며
공유하고
엔터프라이
부친은
루마니아의
제17대
Bill
가결
도발
생리학
세토
오산
오우치
취직
파주
파파
행하여
환자를
##LE
##C의
##번호를
##va
1962년에
이어갔다
영향에
연합을
물리적인
확보하고
의존하고
가끔씩
컴파일
Christian
Peter
mus
간파
곡에
공은
국부
극적으로
낳고
서신을
압하지
청도
홍성
##모양의
##레앙
##평의회
##과와
##리아에
##학교로
##inus
아니기
제작이
가능하도록
필요는
회의가
성격으로
급진적인
갑작스런
원내대표
아나운서
코소보
만장일치로
4명이
HMS
Sy
같고
견고
나가지
레스
막았다
바를
사대
상가
연호
유스티
이랜드
일기로
장시
장차
한민족
##nal
##제어
##설로
과정과
지도자들은
내려다
정신병
북한에
사무소
대륙에서
자본의
초반부터
보관되어
전년도
꼭짓점
아랍에미리트
JTBC
랴오닝
8회
Del
Rob
강사로
광대
목사가
서면
약사
잇따
자부
장대
죄수
테헤
##도움을
17일부터
모델인
적용한
적용되어
언급된다
후반에는
페르미
성장하는
혁명에
종목으로
삼국시대
아테네에서
바이러스가
타원형
장난감
J리그
공군은
구가
남자와
도자기
로고
법원에
본관
전에서
정정
치르고
해전에서
휘두
##T는
##중으로
##치카
##약에
1989
1946년에
프랑스군
참여한다
##이트의
연결하여
인정할
요구되는
시대와
학교로
민족이
정신의
국왕은
4년간
달성하기
금지하고
무너져
나타내며
체제에서
성우이다
함경도
서사시
민감한
천도교
쇼트트랙
8만
BB
가루
감축
꺼내
대책을
선조의
시위에
시니어
신경을
오르고
죽는다
출력을
코드는
토모
팔려
활주
흉내
##uter
##기시
##기부터
##해준다
##형문화재
##법에서는
##히라
##밖에도
공개되었으며
드라마의
수행을
증가를
300여
400만
애플의
테이프
급속한
막시밀
Baby
과테말라
Richard
1m
Cat
Law
mac
대상은
독도
문이
베드
소탕
쓰던
여당
작전의
조석
차오
##나무를
##노트
##백은
##VA
##죄를
러시아를
로마가
이동한다
관리한다
특징적인
민족적
혁명적
1857년
알렉산드
출발한
종목에
##자들로부터
파악하고
소장되어
스탈린의
멀티미디어
그랑프
Green
토마토
셀주크
MD
Mel
Port
self
곳도
구세
살다가
언젠
잇따라
접목
제나라
청사
초전도
##ges
##번호는
##히기
##움은
4월까지
공격하기
이야기로
바로잡
공간이다
사상과
형식이
주민등록
이듬해에는
1854년
여객철도의
마련한
현실에
대항하기
거절하고
꾸준한
바뀐다
경복궁
불필요한
프로모션
획기적인
신시내티
7천
Down
cl
강성
끝에서
묻자
부실
성지
제지
향한다
##색슨
##왔지만
##골에
##era
12시
현재에도
##tim
인도와
모델과
출판했다
북쪽과
##apan
은행의
탈락하였다
완료되었다
##쿠스틱
##irect
##velop
2명을
First
가졌던
개축
격상
농작
로타
묘소
배트맨
법과
보어
북조선
싶다고
아내는
억류
오트
칠곡
후대의
##oft
##주며
20개의
조선에서
선거구에서
발전해
이야기에
##ents
피해는
반응에
도착하였다
통일된
입단하면서
후쿠이
League
공통적으로
일시적인
재활용
ele
김희
무수
보령
삭감
성산
없거나
여주
이심
자명
주기를
증강
한민
형광
##다테
##역이며
##향의
##쿠스의
##능력이
##풍으로
##욱은
경우이다
후보자
항공우주
##ada
Stand
연기되었다
슈퍼컵
채택했다
##ount
대수적
멸종된
##gram
Human
군주의
때로
라인을
변한
부진을
수상을
수명이
시아
신지
원정에
의사의
자리가
조치가
참된
태생
토성
파문
편의를
##사우스
##문화를
##엄을
##책은
##즈마
일본서기
1967년에
1964년에
발표한다
참여하였으며
조직한
개최하고
##rip
최종전에서
분석한
강화하고
Int
단체에
##지방의
도달하는
혼란이
많아서
프로토타입
올스타전
앤드류
##formation
라쿠텐
친일인명사전
드미트리
4는
8일부터
Home
귀를
근교
당신이
명제
물가
봉우
브릿
서신
스이
와중
존슨은
중세의
직교
켈리
특산
할로
##이은
##원장
##위도
##바드
##담이
정치와
대표적이다
발생하며
중앙일보
출전하는
모양인
제품에
##cm이다
유니콘
사령부
##리우스의
800m
불렀으며
교과서
일조했다
알폰소
자릿수
출퇴근
Jour
Na
fl
결장
기업을
길은
노르트
달콤
매번
브렌
상한
압수
와타나베
윤원
지우
캠벨
컨디션
키우
퍼졌다
향하고
호가
##기하
##시온
##족들은
##바키아의
##팔렌
##캠퍼스
프로축구
##arch
1965년에
영국군의
사망자가
유지한다
지나고
우주를
비디오는
삼국유사
소장하고
완전하게
가슴에
직전까지
16강에
지바현
안티고
모서리
관용
금동
꼬리는
맡으며
배분
범위의
시멘트
연화
유화
유독
일었다
절정에
정했다
쪼개
캄파
퀘이
학문의
##무덤
##3의
##범이
선수단은
프랑스인
소련군의
적용하는
승강장의
상품의
로스앤젤레스에서
무릎을
이순신
집정관
건전한
먹기도
민영화
보리스
수렵
슬퍼
없이는
열악한
장신
저스틴
짧아
포를
##이니
##봉이
##데는
##복과
##호프
##ister
##시키게
##시키기도
##omb
차지하여
유지하면서
##idd
환경과
열차로
방문해
Inf
금지되었다
북동부에
Show
대표팀에
ICBM
총선에서는
일리노이주
캄페오나투
4호
Run
Sn
걸린다
공사는
국세
남우주연
다짐
대주
듀엣
반대의
서예
섬과
수치를
실사
옮기고
증축
청송
합하여
화력
화북
##스탕
##해보
##옥은
##형사
##vis
##절도
##악을
사용해서
그리스와
확인하는
330
클라리
사도세
프리미어리그의
그레고리
테크놀
##플렉스
1주
GPS
고종은
공시
남로
넣을
대정
데르
보은
보도를
예종
예선에
자원이
지니는
최영
통신을
하카타
흡입
히노
##오세
##조약을
##네와
##총을
20세
조선이
존재에
지방도
이유에
2007년까지
지정하여
반응하여
1856년
그곳의
원정에서
출입구
어깨에
MVP를
네이션스컵
무작위
##conom
펠로폰네
6위
RC
고해
괴멸
방면의
베를
복위
서클
세무
식물이
알베르트
앨버트
어쿠스틱
입찰
코민
크라우
탈피
현에
##민들의
##PA
##조작
##노카미
##뿐이다
##불은
##록의
노선과
사고는
그림자
일어나게
분포를
공급을
트랜싯
연예인
트럼펫
기하학적
용산구
장학금을
의사소통
집어넣
Lab
MI
기자로
단조
알리기
오차
요리를
자라고
전적
케인
크지
퍼뜨
##bor
##다양
##포도
모두의
자유가
성공은
결국은
필요하지
이루어졌고
자연과학
##ida
출판하였다
결합되어
시도하였다
교수와
떠나고
인근에서
1814년
##order
##oney
ED
LCD
SG
경순
고노
국의
기이
김우
단호
못하면
부지에
비추어
사흘
술에
입었고
잡힌
종들은
증원
현상으로
##AE
##청사
##퍼센트
##담은
##덕을
1958년에
이전까지는
방송은
235
보고서는
지도자이다
예정이었지만
그대로의
결성하였다
제출했다
무엇인
반발하여
이리하여
의약품
옥타비아
3가
교체로
끝은
동거
미적
블랑
쇠고기
아말
인질
인노
인가를
재외
제철
징계를
추후
타쿠
테일
펌프
표트르
##지진
위치와
##ico
이어졌고
발표를
출전하면서
떨어지고
언어에서
500명
제안된
시설은
평화의
##anger
오브젝
제5대
공통된
연습을
화장품
베토벤은
밝혔고
마그네슘
LS
가계
골라
구역을
넘은
더한
상설
선에
시체
식량을
엔리케
의성
의자
주시
차차
착안
토리
학업
##대군의
##오기
##장관을
##O는
##커로
##췄다
당시부터
사이트를
들어섰다
사망한다
표현되어
2013년부터
노동자들이
항공기의
비판적
정신이
오래전부터
1850년
위협에
4000
어렵다는
트랙을
동성애자
##도마뱀붙이
저조한
앨라배마
1칸
Div
Fil
Wr
Young
관문
땅으로
말라고
모티
비슈
신약
안데스
에뮬
에탄올
지선
파편
##부스
##시미
##게르
##상어
##득점을
##오스트
##언론
##언은
공격하고
만들어서
기능의
월드컵을
1997년부터
해석이
파견했다
근무하는
가능하다는
##센터는
목적의
끝나자
어디에
지자체
필하모닉
Que
거치지
곤살
기욤
버섯
버라이어
사영
오류가
이만
장소는
전과
##으론
##27
##사회에
##모습
##실점을
##대성
##더니즘
##ery
##회의는
발생하자
수도원에
이것으로
대중들에게
실험은
비행기를
해안의
전환을
1800년
아우르는
1793년
출생하여
하늘에서
좌우에
그레이엄
공군기
본질적
사이타마현
타지키스탄
충렬왕
개월
때만
르완
미혼
바하
방에
벤치
부지를
상대의
시퀀
앙상
오인
오메가
왕자의
이도
짝짓
티저
##링거
##시스의
##모음
##중계
##버리는
##꽃차례
##규명
들어가지
13일부터
영향력은
참가하게
연결한다
공연에
2020년에
통과하여
표준을
1995년부터
가정의
전차는
소멸하였다
파키스탄의
그만두
폭격기
##투쟁을
죽이려
KD
Ros
가치는
고도로
내란
당신의
덩어
딸의
볼드
비의
어웨이
열거
예수를
이점을
책록
패하면서
후회
##기소
##여야
##ware
##중대
##파티
##카테
##코스는
##fic
1984
선거로
##스크립
진출하는
그림의
서식하고
부모를
승인했다
Party
##라에몽
모으고
버려진
6차
Dem
Tor
가사가
군마
까다
들었고
로널드
순양함
알았다
완비
적분
정량
주인이
출항
프라우
##ca
##당하게
##사단이
##파운드
##연과
##쥐속
##내면
##곳의
것이었고
것으로도
아이작
발견한다
받았다는
돌아간다
2012년까지
평가하였다
제기하였다
규정되어
제주시
제도에서
산맥을
요소들을
집안은
승진하여
장교로
코로나바이러스
윤치호
메르세
Class
DB
cor
노랑
세키
엠블
유산을
작게
케이트
태워
특권을
헌종
현생
힐베르트
##동지
##협회가
##효소는
##향이
##메오
##남의
##것이다
##균의
##하고도
13개의
23일부터
가까스로
제안한다
공화국에서
1855년
성립한다
나와서
조선민주주의인민공화국은
Spec
다스렸다
말레이시아의
아우구스티
풀려났다
거머쥐
5가지
가다
갖가지
나탈
도리어
독성
물품
번호가
변한다
보도가
사각형
선에서
섬세
성적인
수다
암스트
외관
좁아
페인
##대항
8월까지
##ional
비밀을
바람직
열대저기압
체코의
747
오프라인
쿠데타로
4분의
견훤
당국
마시는
묻혔다
버리는
손바닥
아쓰
않던
육박
일대는
임기는
치르게
##지정
##임으로
##해에서
##찬성
15일까지
이상에
가능했다
추가되어
##ray
상대성
경찰과
실험에서
구분하여
슈퍼스타
제기한
일제히
귀국하였다
정복한
트로피를
무게가
할아버지는
백화점
KN
UF
ab
내었다
당한다
덮고
두번째로
박사의
반하여
비석
비리
선물로
세그
소시
오피
창을
총통
카리
코이
테니
##서울
##기본
##ny
##화한다
##열차가
##반과
##디스크
이용되었다
지원하며
방송사
계획된
이루어지며
선출하는
##unk
사무엘
개시하였다
사임했다
고문으로
사우스캐롤라이나
동영상을
엘리베이터
무의식
서바이벌
Vic
군인이다
남기
변주
별자
사하
생제르
예의
집단은
천주
천체가
총선에
템플
##P의
##쓰는
##천에
##손을
들어있는
이전에도
2009년까지
실시한다
소설이다
선택했다
묘사하는
투표에
살해되었다
늘어난
스미스는
자리잡은
승부차기
모니터링
커리어를
앤서니
LC
간을
교사가
남는
대적
문자의
빠뜨
수분
양수
엥겔
여호
접착
죄로
해치
행선
힘과
##하워
##보우
##소방
##너티브
##조류
##길의
##암을
건설했다
멤버는
제4차
건강에
취득한
##ible
강등되었다
싸움이
CoA
예외적으로
Corpor
이득을
피처링
리베르타도
3시간
견습
겸직
군주가
기분
까마귀
당국에
대결을
미르
벌였고
분별
서둘러
설리
스펜
습격을
아드
에바
에든
여긴다
우디
추밀
##uf
##ex
##bit
##민정
##피와
##5m
200년
사회당
조직인
##ington
출전하며
아래쪽
증가하여
교통이
패배하였다
배치하고
요시히
기초하여
체결한
오르지
갖추어
규칙에
분명하게
적합하지
남아있었다
##이닝을
Service
인스타그램
갑신정
거처
거리로
계룡
나면
네브
다치
대선에서
도어
동진
배향
스님
유서
증류
체계의
총격
추계
출정
카미
##라시
##부대의
##2를
##투표를
##달은
##제일
##오르
##워진
##좌파
##곡리
##귀를
활동하였고
발표하였고
설치해
지원하지
고려해
소련을
자동적으로
공작을
나타나게
오르며
가입한
##센터에서
무게는
아테네의
맞추고
사가미
흐름에
총선거에서
##일체유
베스트셀러
32년
9개월
Aug
같았다
경합
골은
논산
많았던
매슈
미끄러
반대한
발광
방울
분쇄
서리
압송
여자는
오른다
올레
유익
일하면서
쥐과에
참전한
하구
해군에
현을
확고한
후미
##기반
##K의
##ture
##현대
##해살이
##치아의
##행사
##vi
##심리
있는지를
1980
1987
1956년에
주장했고
2014년부터
지금까지의
기업에
경험한
##경기장
해안에서
오르기도
지칭한다
갈릴레이
제노바
대웅전
독창적인
##burg
po
경원
도라에몽
되기를
봉화
아픔
야권
월북
임의로
재조
정령
조우
##느라
##받기도
##분간
이어받아
우승하는
사망하여
21일부터
발전은
생활이
효과에
예정된
원작의
남아있던
원시적인
캠페인을
줄무늬가
1골을
B의
CT
거병
고흥
나서는
리브
말하면서
못했다고
바야
범위에
부당한
설일체유
씨족
유다
중건
호리
##min
##란과
##트라는
##코스트
##절은
##UI
대회와
전체에서
가운데서
상대적
기념비
Station
가르치고
도로로
표시된다
1849년
노출된
사임하였다
NAD
준결승전에서
파스칼
노트북
얼터너티브
계량
북베트남
승격을
위배
이들에
찾는다
최순
칸타
클럭
##NE
##호흡
##폭격
형태에
계속되어
차지하면서
참가한다
출전하였고
2005년까지
방문하였다
사진은
마련해
노예로
주교가
##문학상
올리며
파라과
유격수
강수량은
0의
1명을
Hall
Mem
고압
낙엽
내쫓
번영을
사피
선로가
스맥
시우
신군
에나
에치고
워커
원효
전류
정말로
중고
차종
책정
초나라
##하긴
##들까지
##타점을
##리터
##속이
##NT
##극이
지역에서도
시작해서
행동과
부르는데
결승전은
가문에
1994년부터
히로부
기계적
다이묘이다
서해안
다비드
루키우스
버밍엄
코호몰
2와
26년
Ha
Pan
넘버
마리가
망가
선회
수정을
양식이
원에
은둔
이었고
존경을
종래
추서
치루
타점
한참
##line
##36
##범의
##쿠치
##블릭
##곡동
##있다는
18일부터
2월까지
상대방
데이터는
가수이자
부여받았다
추진했다
즉위했다
현실의
남편인
불과했다
편입되어
분열을
레오나르
합쳐서
안드로메다
##하우젠
아이젠하워
EMI
mo
극소
당은
박재
방호
법제
보았고
비키
사격을
수뇌
야드
오슬로
이조판서
조나
조연
지상에
측량
##국립
##그란
##지향
##쿠는
##든의
사용하였으며
1954년에
임명한
요구하며
학교와
변경하여
언급되었다
정당으로
엔진과
현실적인
갖추게
1792년
상륙한
DNA를
가시광
온타리오주
##식품부
Fire
NX
견해도
구루
기악
기네스
껍질
산탄
성간
수위
쌍대
요셉
일체의
있겠
채플
출사
코넬
흐름이
##채로
##화해
##인으로서
##티콘
##갔다가
##변화
1970
발달되어
1798년
것이라며
작동하는
지향하는
입장에서는
용이하게
하얀색
실시간으로
상세히
4억
A와
DA
KS
tv
가모
기공
기구의
대면
러시
먹이는
사네
신부는
쓰네
애초에
인재를
쿠로
퍼텐셜
##구간
##각과
##초와
##예비치
##슈테
사용되었던
경우에만
16세기에
##oud
생산할
28일까지
건축의
1999년에는
1996년부터
충돌로
이슬람의
1세에게
2세에게
구별되는
모여서
만족시키는
스케이트
콘스탄티노폴리
데려가
리스본
엄격하게
트란스
슈투트가르트
4단
4위로
7개월
Sol
가락
거처를
두었으며
막지
상동
세상에서
열성
용액
원나라의
이석
지체
지브
집회를
특성은
화상
##피안타
##파괴
##배는
##작업
##센티미터
다음에는
30대
대학원에서
부분에는
성공에
2006년까지
아르테
출시하였다
의원들이
##시키고자
제거할
주인공의
문서의
남동쪽으로는
##홈런을
미래통합당
불완전
Ig
tr
궤멸
넣으며
달마
대고
세컨
속했다
안무
지형을
참패
총선을
한문
합천
홍익
##2가
##패스
##오버
##노이
##시아의
기록했는데
1600
1961년에
##use
표현된
민주공화
사라지게
남쪽에서
활용하는
시행되었다
이집트에서
That
가격에
일치하지
3세대
한정된
쓰러져
FS
Fla
Ul
구스
규장
많았고
받으면
배리
배울
부회장
예문관
오면
와해
외상
원유
인슐
일당
잊혀
체첸
총살
총알
캔터
##부대는
##아비
##됐으나
##베를린
##카로
##충을
##혈을
사용해야
활동할
동안은
사망했고
모습에
##ures
분류할
기관에
##학과에서
반응의
분석하는
작업한
분리하여
파괴하는
감소하고
가입했다
전차의
원칙으로
지리적으로
카이사르는
늘어나고
마에다
흥미로운
스트라이크아웃
매킨토시
일각에서는
2번의
결탁
공과대학
군인들이
그늘
글라
넬슨
런칭
부양
부름을
산은
신익
쌓여
아코
올해
저우
정명
조경
친위대
커졌다
탄화
훔쳐
##화되면서
##순을
##YP
##망과
1947년에
알려졌으며
256
참가했으며
2008년까지
변경되어
제3의
지속된
##이어야
단백질이
남서부에
독립운동을
소규모의
불러일으켰다
세종특별자치시
비옥한
Year
구타
문교
봉황
부전
부품을
수류
원치
이의를
인신
주화
중신
증식
진화의
찾은
초점
최적의
틀림
호른
황산
히스파
##회사가
##었기에
##토바
##PC
##연하게
##때부터
##틱스
국가들과
7월까지
스타일은
2015년까지
변경된
이끌던
클럽을
살해당했다
레코드에
기후는
반복되는
태풍으로
수요를
파르티아
드물다
우에노
상원의원
홈구장으로
CL
Sl
공병
구도
기종
농도
디스코
별도
부위에
비욘
사에
신호가
열광
오도
종주
지성
지명이
친위
통로를
폭주
품종
##이프
##링크
##토키
##두더
##송이
##검을
##퍼가
##풍은
##담의
하나도
국가이다
발생해
평가되고
플레이어의
##umber
클럽이
데이터베이
##cm로
금지되어
소개하는
지어졌으며
회전하는
지내며
놀라게
장례식
Frank
명백히
광둥성
클러스터
앵글로색슨
1급
Dig
Jul
가두
광도
국산
글씨를
녹아
다리의
두껍
백지
불투
성분을
오코
집전
쿠페
특권
항구를
##단체가
##효과를
##렐라
##입자
##소나
##거북
##악기
##내면서
##값은
##로서도
제29
가운데에는
세포에
위원회를
표준화
가르치
황제에게
1945년에
관찰할
폭발적인
마드리드는
출마한
어렵고
법칙에
임금의
위키백
화살을
3는
600만
mon
강압
개구
내부는
백조
북벌
사정으로
색은
샤오
수단이
자식을
패하며
퓨처
##200
##xy
##엔진
##엔의
##땃쥐
18개
한국으로
10월까지
자연을
종교에
중요성이
의원들은
서식하며
캐릭터는
측면이
스케줄
부적절한
Records
암스트롱
스맥다운
31년
UTC
갑오
경마
국문
권리와
깜짝
노원
더구나
마돈
무겁
법으로
소시에
옮기
위나라
조동
조사가
좀처럼
항문
효력이
##문고
##두와
##프스키
##포럼
##렬히
##커우
##펠러
##lad
포함하지
존재하지만
존재한다고
성공으로
##km로
결혼식
선택된
TV에서
경쟁이
하이델
##ape
합류한
제목이
성격은
하늘에
Commun
정교회의
일상적인
중성미
일어났을
피라미드
거룩한
암모니아
Dark
결사
고종이
관개
미세한
베다
소원
안재
열렸으며
이호
익산
포에
핵탄
##을수록
##원사
##상가
##트인
##바람
##S의
##33
##zo
##섬으로
##림에서
##먼과
작품과
전투와
생산의
상황과
마음으로
해석할
동맹국
제시하는
나누었다
공부하고
전후에
북동쪽으로는
##obal
1776년
느낀다
앙상블
1개를
9세
가온
가수가
노력은
단발
당을
래리
면담
섰다
손수
신안
안다
연장은
영위
자수
자산을
화약
##cle
##여지
##두스
##프셔
##교류
##R은
##쿠마
##브나
때문으로
가능할
이동이
확인하기
국회의사
보존된
지하철의
합병해
전사하였다
##고등학교와
탑재하고
구별할
다니던
이념을
중립을
콜라보
일설에는
5인
과목
넘겼다
던졌다
뒤부터
박찬
보도에
부파
사과를
상사
수마
엔트로
왼쪽에
인연을
장군을
주둥
중량
총영
카오
현지에서
회부
후대
##uel
##lish
##어머니
##쿠의
##곡인
##곳에
##ering
처음이다
26일까지
500년
전통이
우주가
국립중앙
파견한
내각총리
위협하는
세운다
##정책에
업무는
Sport
브루크
##ondon
제15대
Japan
갈비
귀여
달라이
라미
모국
복싱
부부가
브라이
상대가
성찬
소홀
심근
악화되었다
안을
애프
올랭
유폐
진나라의
창씨
톱니
##진구
##1호
##공에
##성이나
##드래
##레르
##집과
##턴이
시작했지만
사람이나
##ines
포함할
25일까지
출연하는
열린우리
추가했다
##민주연합
마을과
찾아온
1851년
##사업에
전세계적으로
오가며
현저하게
뒤집어
프로게이머이다
1편
OK
계곡을
근연
데다가
마른
모션
바보
선명
에일
에트루
##진군
##신저
##학술
##해지기
##점도
##치노
##수준
##장비
##전화
##교인
##센은
##곤은
##혼을
이후는
선수들과
존재하는데
발표하며
##osp
모델링
보통이다
가족들과
과학적인
가입하여
기후를
##슈타트
Lee
절대적
돌아와서
줄어들고
테마로
마찰을
net
갈색을
감각을
고로
닛산
당국의
로베르토
모피
미요시
바쳤다
배설
불문
비활성
빙하
사커
실마
아약
야만
열람
오두
유우
인도를
인원은
자폐
##개념
##들어가
##부도
##케가
미국과의
##3년까지
조선시대에
중국인민
이론으로
인물들이
서비스에
기관인
회의는
전후로
맞이한
에피소드에서
무한한
비잔틴
실용적인
아이템을
콘크리
오하이오주
MR
May
Old
und
거점을
관료로
모형은
무거
반군
사생활
이로부터
주었으며
중랑
최용
특색
포틀랜드
##답을
##름한
##예수교
##목사
2010년대
된다면
이용했다
만들어졌고
후보와
임명되었으나
기타큐슈
위원회에
멤버인
##agement
1795년
좌우로
대법관
버지니아주
합법적인
바실리
여우주연상
Fer
고쳤다
군단의
내림
다뉴
록히드
면적을
문양
성리학
소중
순간에
아츠
어딘
에그
역량을
외로
조개
중학생
청교도
테트라
퍼플
##타인
##전서
##운송
##눈에
200에서
17세기에
모두에
1957년에
진행되며
로마와
인식하는
승진하였다
샤를로
이익이
입각한
농림수산
최고인민회의
Hill
급기
기지로
대뇌
믹스
방안
보루시아
수목
아이는
엘레
작위
짐승
카터
키이
편성이
히말라
##관계의
##가면서
##처벌
##보조
##보존
##산동
##환과
##구미
##해석
##집이다
##과에서
##질라
##키로
##키지
##격투
##포인
##런던
##첩을
지원할
성공하지
##cher
드라마로
비판의
공산당이
명령이
선출되었고
잉글랜드와
관측할
입단한
집합이다
1830년
요코스카
쓰촨성
데포르티
med
밴드로
삼는다
색으로
소프
심부
업계
옷주
장은
지대에서
파격
휠체
##들러
##표에
##IST
##쿠사
##암과
##이다가
1000만
