##다
##는
##에
##이
##을
##하
##의
##은
##를
##년
##고
##에서
##으로
있
##가
##었
##로
##한
##되
##들
##과
##했
##월
이
##적
##와
##였
그
##도
##인
것
##일
##어
##기
##게
##여
하
##지
##며
수
##된
1
되
2
##던
##한다
3
않
##지만
##-
##았
##할
##까지
##에게
##으며
등
4
##만
##해
제
##자
##라고
##부터
한
##는데
사용
때
중
5
##라는
받
##'
##면
##아
'
##면서
없
이후
후
##·
《
미국
##》
6
한다
두
같
10
##다고
말
##개
대한
전
##명
및
##대
했
때문
8
지역
##성
7
시작
##된다
##나
다른
위해
많
일
함께
또한
사람
9
##2
##라
12
경우
가장
##화
일본
##다는
더
이름
##세
주
11
기록
##이나
위치
또는
##1
그러나
하나
##째
대한민국
당시
자
못
따라
의해
세계
##시
국가
그리고
된다
##번
##권
선수
통해
보
가지
경기
활동
뒤
##차
사이
아니
영화
포함
##군
현재
##위
##주
번
다시
첫
‘
내
여러
만들
영국
##신의
큰
모두
##으나
##보다
해
##/
##있
모든
처음
##다가
시즌
##서
한국
인구
##’
등이
동안
##는다
formula
중국
팀
일부
##호
위한
안
##:
조선
정부
도시
데
##국의
##로서
##3
감독
다음
주장
역
시
들
##였으며
프랑스
20
약
제작
등의
##거나
##대의
존재
대
연구
##세기
독일
가능
전쟁
이러
자신
발견
최
정도
높
##도록
할
##했으며
세
##로부터
남
작품
문제
기준
끝
구성
대부분
알
대해
속
대표
##km
각
발매
개발
일반
##%
총
##상
##함
맡
발표
##시키
리그
##형
곳
사회
가
또
서울
##명의
참여
##《
##&
## 
##m
역사
##받
15
아들
얻
발생
〈
는
사건
결과
##전
##어서
대통령
특히
##회
음반
30
의미
새로운
나
다
##와의
공격
영향
축구
성
인해
16
생각
대회
진행
##아의
된
유럽
관련
크
우승
현
게임
##군의
##회의
결정
##될
이것
사망
“
전투
사실
중요
적
대학
계속
다양
비
필요
정치
##팀
##계
좋
지방
점
##자의
##4
주로
설립
##〉
&
예
은
신
매우
시간
상태
##000
국제
작
관계
##”
설치
중심
부분
불
살
##기의
##gt
지
음악
##제
경제
이상
##lt
지원
##그
##5
따르
잘
즉
시대
13
뜻
이용
##처럼
18
14
수도
성공
왕
과정
이전
기술
차지
사
##씨
주요
2010
아버지
군
재
죽
##으로서
##리그
같이
운영
반
위
구조
19
해당
결국
출연
##분
소속
17
아
##음
출신
##당
참가
##본의
데뷔
계획
역할
제공
많이
교육
지정
문화
거의
조직
등장
형태
##해서
##였으나
##부
오
여성
명
##으로부터
열
25
##성의
##간
독립
프로그램
전체
이루
가운데
생산
방법
올림픽
자리
상대
갖
러시아
##")
로마
2008
2007
선거
초
곡
따라서
방송
출전
인간
모습
유지
##됐
##트
연결
볼
##도의
후보
보이
##시의
유명
##스
앨범
##중
승리
그것
임명
##부의
2009
-
직접
그녀
마지막
형성
달
추가
이르
운동
부
입
##해야
시기
##학교
불리
대신
강
21
시스템
##주의
2012
알려져
고려
2011
공식
##졌
삼
##》(
시리즈
동시
표현
##시켰
##서의
물
상황
##억
평가
프로
100
기능
24
of
방식
몇
##으로써
내용
##등
##6
의하
발전
노래
섬
군사
초기
열린
##니
##사
정보
이탈리아
중앙
자유
우리
대학교
회사
건설
역시
여기
변화
이야기
##초의
쓰
건물
2006
##층
비롯
당
집
외
##겠
2014
한편
##야
##선의
개인
아래
23
22
언어
뿐
##세의
진출
그룹
2013
##조
길
행정
공개
본
이론
배우
지금
##선
목적
여자
관리
관한
##대표
서로
제국
요구
반대
활약
졸업
인도
##수의
나라
양
기간
2015
국민
##대학교
타
생활
가진
##원
앞
수상
2000
만
##위원회
날
변경
산
28
개최
낮
드라마
##대학
각각
##용
선
어떤
##구
달리
26
2018
##르
철도
원
결혼
학교
구
증가
2005
27
A
비판
형
소련
학생
##내
싱글
개의
2016
제외
모델
조사
밴드
찾
특징
대상
원래
설명
기
고
그리스
##했으나
##테
대해서
##7
최초
마을
막
시절
거쳐
정책
##8
딸
##오
스페인
의한
남쪽
##제의
##」
인정
무
2017
아닌
위하
##경기
책
비슷
북쪽
2004
혹은
수행
의원
기반
자연
공간
운행
어머니
인물
교수
상
도입
공
전통
될
지구
##기에
이미
이때
간
기본
0
실시
없이
분류
최고
서비스
자기
노선
##상의
정의
29
군대
보여
출시
계약
##체의
추정
세력
네
새
보통
맞
지지
바로
아이
명칭
확인
50
보내
##므로
대전
거리
연방
이끌
##천
적용
작업
##장
기업
##란
역임
##단의
비교
##엔
크기
장
##드
그러
제도
시장
황제
동쪽
에
선정
조
2019
현대
과학
유일
밖
공연
행동
높이
법
서쪽
##네
힘
효과
종교
부르
잡
인기
규모
손
##역
##는지
##골
태어났
만든
이런
실패
이상의
도쿄
넘
「
분야
개념
전국
##가지
먹
공동
부족
종
미
##교의
교회
환경
위해서
별
존
##지의
##리의
길이
산업
31
##점
2002
##론
##마다
2003
넣
방향
the
어느
선출
지배
최대
나오
사업
##시간
성장
눈
특정
소
일어나
교황
열차
FC
가수
선택
몸
1990
월드컵
담당
통합
능력
언급
우주
면적
온
지속
##계의
자체
차
##려고
차이
##0
주도
이유
단
가족
##재의
보호
보인다
클럽
##어야
판매
사랑
불구
컴퓨터
##류
획득
2020
##보
##후
남자
배
##으면
정
##한다는
##려
##티
사상
나이
시민
국내
작가
문
버전
밝혔
시도
민족
##장의
##인의
다르
반응
마음
맺
40
멤버
단체
##진
##개월
##집
기타
##왕
도움
걸쳐
##씩
점령
##급
##간의
##9
나타나
기원전
##대로
확장
##고자
과거
종류
영어
##키
분리
남부
규정
왔
들어가
##단
##법
전기
##10
관심
더욱
모
##시대
에너지
주변
가문
##인민공화국
개
최종
알려진
이유로
##고의
승강장
2001
곧
예정
동물
최근
차량
##수
수록
유사
평균
선언
정당
동
##사의
기독교
##종의
완전히
연기
경기도
동일
인
저
편
통과
만나
##려는
형식
구간
제한
바
땅
대하
목표
친구
노력
그렇
이적
소설
명의
모양
오늘날
B
제안
결합
연속
피해
##임
##기관
거두
경험
엔진
##치
##cm
##金
발달
1980
속도
주연
설계
배치
부산
나머지
분석
부상
아직
내부
비해
##현
잃
북
##시켜
##족
달러
잉글랜드
##녀의
##동의
북부
요청
지나
##곡
##운동
##러
선발
디자인
요소
파리
구분
원인
##식
##나라
반면
작전
널리
글
##크
방
고대
로
명령
##인데
이해
애니메이션
뉴욕
둘
특별
사고
1999
용어
강화
FIFA
방문
의회
야구
기관
##안
난
유래
폴란드
연합
이곳
조약
##두
백
##李
파괴
세포
오래
기여
##amp
공화국
놓
데이터
입장
경찰
거부
조건
##지역
실험
스스로
준비
대체
피
도로
영토
스위스
혁명
1998
지냈
주민
##속
육군
발
머리
쉽
TV
##》,
줄
행사
전자
실제로
성적
##비
이동
##타
자료
마찬가지
##mm
연주
##구의
네덜란드
처리
패배
프로젝트
헌법
##산
영역
지휘
정규
넓
##후의
현상
묘사
접근
##식의
더불
천
##직
도착
대중
그대로
가치
의사
구단
##신
인식
자주
##어의
##강
등과
캐나다
북한
거주
바탕
##당의
올랐
1997
바뀌
음
주의
짧
스
전문
정권
총리
##다면
폐지
정신
K
쪽
행위
입단
부문
체계
##루
1970
작곡
리
##한다고
·
##",
런던
단계
왕국
1995
지명
##s
##뿐
서
드
이듬해
겪
소유
1996
옛
체제
아프리카
감소
상호
정식
출판
물질
먼저
200
호
중화
아시아
문서
부대
왕조
##가의
키
년
베트남
##배
지상
부여
나중
시설
표준
개혁
해군
##위원
##로써
게
서부
##정부
집단
후반
국립
생
칸
강력
면
통치
수많
결성
##대회
##정의
##습니다
의
중단
사진
안정
믿
##사회
치료
##The
추진
남성
민주
나타내
##승
도
##초
복귀
다만
채
경계
##19
1994
##때
##이란
기초
회의
해석
차례
##경
##데
바꾸
##인지
쓰이
은퇴
유
차트
일종
장관
과
떠나
조정
권력
##시즌
파견
긴
##가능
제품
##날
그림
인터넷
무대
지적
돈
위험
삶
여
체포
##코
자동차
관측
주제
지도
해결
작용
1992
통하
녹음
##즈
팔
문자
태양
제시
분포
1960
실제
##칸
60
성격
돌
임시
##"(
몇몇
스웨덴
이렇
##민주주의
낳
방영
문학
##케
죽음
일정
##노
달성
##으므로
장소
지도자
기존
팬
버스
법률
##카
비디오
철학
캐릭터
금지
1991
표시
##광역시
##살
예술
국왕
간의
항공
##12
중간
단어
정치인
##생
스포츠
활용
지위
여전히
##리
수준
##의원
확대
반란
시행
C
##별
##전의
##판
붙
UEFA
##물의
평화
가정
여름
##컵
쓴
통일
논란
완성
웹
싶
기사
상징
직후
개봉
##11
##이의
장군
1993
강한
정리
동부
언론
지난
권리
장치
전달
동생
##아서
소프트웨어
측정
바다
체결
보도
##관계
합류
걸
특성
##하의
##이후
초대
거대
담
회장
골
공사
발행
가까운
떨어진
검
대응
지진
##지방
다루
제거
제기
업무
근무
투수
보고
치
만드
생성
승격
보였
어
경쟁
어린
이래
타이틀
밤
충돌
빛
##존의
근처
행성
##반
아내
득점
근거
강조
약간
겸
의견
박사
공부
수학
측면
나무
계기
따른
정확
귀족
판단
교체
2021
##20
##마의
상당
국회의원
『
수가
1988
주목
정상
인천
공항
##특별시
세웠
신라
듣
##15
개통
부인
인근
병
물론
다리
설정
시험
유형
종료
식민지
소리
노동
##률
부정
깊
텔레비전
일어난
본선
부른다
고등학교
##',
훈련
1989
##달
관할
표기
국경
투표
보유
뛰
and
대구
##각의
취임
촬영
소개
하계
나누
##세계
협력
방어
보냈
제조
외부
무렵
센터
##양의
번역
종종
디지털
조성
##반의
식물
건축
갔
The
함
배경
허용
공작
구역
병력
##질의
##문화
패
뮤직
당선
책임
점차
됐
완전
인사
집중
간주
:
그리
##현재
인한
만화
무기
##량
아일랜드
읽
전환
상업
##관의
전략
총선
기회
실행
작성
마련
등록
보존
##』
##도시
그곳
##으면서
알려
1950
성립
##만의
편성
결승전
##태의
적극
김
노
위협
##섬
도중
표
환자
홈
기념
준
제목
학자
연장
제정
##형의
해안
입학
의식
##소의
##16
스튜디오
이집트
코
교통
##C
##분의
##교육
판
##량의
병사
황
만들어진
형제
개선
계승
##남
그래서
##A
##과학
너무
소재
일제
목
값
동맹
동료
가입
##인민
경기장
각종
발사
기계
올
카
해외
##먼
본래
조지
채택
##한국
승인
##레
갖추
새로
##동안
측
이번
예선
##위의
학문
그해
오스트리아
썼
##기술
나온
##조선
##국
무역
##시킨
##일본
나가
플레이
공급
항상
##말
씨
국회
##산의
##그러나
##편
##난
70
멕시코
##족의
붕괴
마
확보
군인
영상
세상
##길
##님
화학
##에게서
인수
##율
##왔
##규모
즉위
##파
주인공
종목
부근
1986
특수
파
서식
##원의
1945
여행
라디오
기자
조각
불교
##당하
라
##大
종합
검사
마이크
##쓰
##활동
1987
부모
요리
지하
네트워크
재직
가격
살해
밀도
M
미래
경
건강
나왔
빠르
록
침공
500
##당했
지내
공장
위기
계산
레코드
80
지식
중심지
##단체
외교
표면
친
정착
함수
오르
혐의
스타
지점
km
홍콩
##측
불과
##더
한다고
불린다
##전쟁
수립
통제
인하
해체
대륙
##의회
가졌
몽골
따
오후
사회주의
이루어져
##학년
원정
파일
지하철
S
##백
##라며
궤도
현실
이미지
한다는
영
장면
##미국
비용
월드
젊
##과정
화
예상
##해의
애
1985
이끄
계열
강제
##》()
##로서의
##라도
##2010
1984
훨씬
##센터
진
브라질
증거
##마
회원
##미
가톨릭
논문
경향
어떻
공화
진화
수정
경영
마치
학위
회복
온도
영향력
광주
단순
##조사
출발
수용
사례
코드
세우
##됨
##방송
경력
하루
귀국
##구역
갖춘
얼굴
전개
증명
잇
##대전
독자
투자
유로
대립
임무
보수
하지만
의해서
##국가
##'(
일어났
유리
U
매년
농업
기원
##같
빈
##氏
포
불렀
32
##에선
저항
일원
이루어진
목록
##작용
##치의
얼마
전혀
##협회
합의
신문
칼
그런
##바
만약
##것
기후
풀
합병
무장
이루어지
제임스
카드
출생
떨어져
##쿠
##법원
음식
심각
##고등학교
##톤
잘못
성인
이외
핵심
내각
향상
감염
복잡
쇼
병원
왕위
##종
질량
이스라엘
양자
뛰어난
청나라
경상북도
##의의
위원회
탑재
다섯
1982
관찰
수입
지시
오브
##2011
홈런
태어난
연맹
##山
참석
편입
F
숲
##져
##롭
나뉘
개정
##시킬
/
장식
당하
단백질
범죄
단위
##18
조금
수사
자동
기대
##다의
##정보
태어나
##일의
전력
강하
##법의
##또한
90
잠시
##예
비율
대사
돌아가
##13
지키
본격
지대
원칙
전역
미사일
원소
잡지
남편
대형
중반
300
KBS
초반
##파의
밑
자격
분자
토지
핀란드
##寺
범위
옆
띠
##왕의
도달
채널
비난
공유
재판
집합
노동자
그린
1983
끌
##한편
장착
터키
##교회
##2008
고전
##경제
##사업
##츠
남북
오스트레일리아
이어지
권한
##나가
마드리드
전사
양식
와
D
짓
기억
재정
##역의
개편
오히려
거절
자원
일으키
항복
겨울
##시장
확정
덴마크
전차
인정받
##권의
##토
통한
분
##소
##쟁의
이란
출마
핵
신설
##밖에
천황
##민족
##석
시위
신경
구별
청
협회
선의
##세대
갈등
장비
광고
앞서
했으나
선고
추측
윈도우
사후
미치
##언스
논의
T
후기
##진다
강의
반복
##공원
좀
중의
단일
신학
태평양
신화
1979
근대
만큼
##개발
노예
1972
1973
러시
공군
순위
전반
35
구체
교사
1981
알려졌
후손
교
##17
바이러스
감정
창설
경상남도
해방
##王
아주
##2014
##장관
X
##동
##성과
전라남도
은하
직원
바람
가사
##령
연관
전시
이슬람
신호
인터뷰
저장
투어
흔히
성과
정복
조치
어렵
번호
##2009
방출
포지션
우크라
주위
대비
폭발
수여
꽃
##사단
필리핀
미군
##링
요새
기구
투입
고구려
관점
협상
##더라도
오른쪽
##브
앞두
연대
호수
제출
오랜
##2012
들어갔
모스크바
시각
##면의
장애
##돼
질
오사카
상당히
시점
왼쪽
##14
##든
포기
소장
레
통신
연극
고향
코치
장악
이사
메이저
참
산맥
##번의
민주당
슈퍼
최소
##연구
##쪽
##문의
불렸
통해서
붉
1974
##온
건
시인
브랜드
유도
계급
소식
밝
윌리엄
암살
1920
수단
in
##고는
은행
견해
1930
약속
##+
##탈리
##거의
비행
장기
온라인
##개국
고정
위성
열리
선거구
재산
올렸
금메달
##제도
유엔
##무
##2016
위원
집안
##라면
항성
디
열렸
위의
1978
폴
저서
직전
1975
##공화
개시
편지
##자리
아르헨티나
생기
폰
탄생
1940
보장
##패
색
##해졌
동의
흡수
##그룹
주기
대기
죽이
의존
엔터
1971
세운
I
1976
털
무엇
반영
##기원전
의무
올리
빠른
##2015
충청남도
##2007
수출
##잡
##25
##2013
##선수
구축
해서
우선
고용
뉴스
명이
종이
취하
##다른
취급
멸망
##프
##토의
쌓
안전
의도
역대
de
순
반발
대항
거기
활성
오전
외국
E
지니
1969
##21
강원도
물리
##당시
자치
중화민국
숫자
1963
대략
##회사
봄
다니
토론
##관
사이트
접하
##°
철수
루이
베를린
##면서도
##2000
다수
유학
보급
혼란
둔
스코틀랜드
성경
유전자
##정책
##D
먹이
옮겨
금융
내렸
전해
##아야
비록
비밀
J
속하
명명
이익
한때
챔피
귀
마리아
금속
예측
MBC
시의
45
가리키
이제
베
공기
을
호텔
##스럽
미디어
꼬리
잎
진입
찍
##문
1968
공원
정체
근
##문화재
베이징
##2006
인민
철도역
논쟁
이용해
매
극
일으켰
1977
판결
극장
건립
탈출
##로운
##관리
탑
진압
무리
임
##부대
일치
알리
청년
본관
##항
결승
##물
플레이어
##슈
삼성
##시킨다
##500
취득
트랙
여겨
제대로
##건
흐르
G
a
성우
##연대
##스러운
400
##생활
건조
사단
주교
라인
라이브
##〉,
##지대
1948
떠났
중세
꿈
주전
규칙
기획
경주
반드시
##발
하늘
효율
조절
중부
내리
어떠
자금
요
벨기에
전후
독특
##문제
솔로
민간
##했었
스타일
절대
영입
운용
##우스
동원
아메리카
포르투갈
##행위
공산당
이용한
##〈
뉴
##2017
##시설
변호사
##외의
그런데
군주
점점
##공사
##조의
피아노
음력
승진
##라운드
암
우려
압력
##본
단지
인종
처형
##놓
작곡가
##사건
헝가리
1964
앤
장르
풍부
맞이
##학자
응용
박물관
유전
어린이
만족
생물
내의
명단
의료
##작
1946
폭
1967
V
신체
##디
태풍
카운티
##소프트
##줄
좁
분쟁
포위
항
##정
##는가
전설
움직임
##촌
공포
탈락
향하
우수
울산
동계
권
투
부임
##합의
누구
출간
연
성질
마침내
##임의
채용
소년
입자
명예
추산
야
##삼
흑인
해산
공공
##조직
예수
상승
사전
맨
제자
수집
오픈
1962
식
코미디
금
##연합
고유
##30
니
전공
나타났
발언
요인
완료
가스
갈
##차원
자살
추구
싸우
속한다
##모의
파악
창립
DNA
자세
운
##B
나와
육상
변형
경로
에도
##요
지낸
항구
맞추
제어
느끼
모르
연재
워싱턴
1949
외국인
##피
나타난다
##다며
##색
관
1965
향해
망명
목소리
여부
국
인상
1966
상륙
설
지닌
포로
법원
증상
나치
보낸
##폼
1000
자녀
명성
보관
도구
악화
청소년
직업
명나라
옷
회전
플레이오프
성능
구성원
##州
실질
분열
##용의
생명
전부
##산업
##판서
오스만
생존
선생
이승만
##기업
아침
새롭
##만큼
의지
주관
차별
전파
기지
순서
조합
한반도
의장
교토
폭력
##스타
##M
##선거
##∼
교류
소수
현장
술
33
본인
수비
사임
방면
프로듀서
미술
싸움
양성
##–
유나이티
상하
별명
신성
##주년
##kg
R
차원
소비에트
##%)
함락
연안
공주
취소
##2018
##채
헨리
임금
상품
문화재
둘째
고문
##에서부터
##냐
##文
사태
활발
장교
함대
##쥐
거래
##정치
##공화국
전용
의심
등판
떨어지
평양
##포의
콘서트
원작
죄
인접
마리
빌
1961
밝히
##악의
관직
구하
분할
창
교환
항공기
##일반
##민주당
자라
전문가
여객철도
원리
질병
수술
나아가
치렀
##터
출장
일대
대화
##영화
훗날
##변의
##실
구속
전선
##병
##불
초등
로버트
개입
카메라
배출
완공
벽
위반
전화
##우리
개체
행
부부
신앙
##나의
농민
시티
백작
인류
무시
본부
미국인
인권
논리
등지
타격
확산
##구조
창단
왜
오랫동안
태도
충분
쿠
36
38
불법
현지
##곤
사령관
에피소드
부활
플랫
발발
가을
##기간
소녀
##자료
비례
##2005
아카데미
대개
##중의
법칙
제주
방해
조작
움직이
박
그때
보컬
천체
문헌
연합군
단독
원년
빌보드
남겼
현역
해상
요한
유대
연간
벗어나
학습
기둥
연구소
합격
캐
송
##써
좌우
서버
1944
검찰
서양
피하
평
자극
정비
서명
##여자
##우의
카를
심지어
개조
부진
실현
원자
절반
선조
무덤
소비
확립
##단계
사장
##城
손상
전형
구현
챔피언
확실
##철도
무게
터널
히트
속한
밝혀졌
1941
##베
합성
접촉
승객
노출
1958
흐름
꺾
전면
복무
로스앤젤레스
##서울
여겨진다
목사
창조
번의
to
##해도
출범
전라북도
상원
##긴
어려운
보안
##국제
등급
##련의
협정
분위기
충격
신뢰
구원
##학과
관료
일시
II
아무
영지
관여
##현의
아시안
주둔
버리
절
이어졌
만주
세종
##열
##버스
모드
한계
추천
시내
부하
중인
작동
테
편집
##2020
탈
말기
1947
지급
발굴
##스키
상위
가까이
순간
터미널
##다음
적절
##심의
##질
성당
1956
프리
##TV
어려움
연료
캘리포니아
적합
쓰인다
고종
여론
참전
희망
태어났으며
##음악
마이클
##랑
양쪽
처벌
1939
해야
##연구소
엄청난
당했
오페라
손자
고통
##글
준다
육
하위
동작
##어도
CD
계곡
##방의
의학
기도
재료
##업의
수소
해도
##2002
홍보
##척
##2019
나폴레옹
##는다는
공헌
신분
돕
마무리
실수
통산
유적
뿌리
1919
공산주의
올라가
불만
광범위
도전
직
신자
방지
LG
##인가
뉴질랜드
동기
조별
층
영업
##입니다
거
150
사형
가담
계통
로켓
아파트
##호의
모여
어디
주인
##상태
보조
전신
고리
긍정
1954
화면
수원
##각
백성
컵
석유
사운드
##중국
##미터
침략
서구
본사
모아
편찬
다소
보병
##세포
유행
국도
진정
벌이
분노
##=
보여준다
진보
##川
연출
순수
이어
1959
예산
##기구
정하
늦
##체
허가
즉시
멀리
선전
한국어
##・
통상
침입
시리아
##팔
##번호
맞서
소스
따로
변환
##대한민국
저술
특이
사항
34
숨
공동체
##사이트
지은
돌아왔
최다
크로아티아
##색의
##듯이
테스트
가설
##여야
##중앙
##계획
문장
##지원
##졌으며
##위원장
##석의
옮겼
깊이
정지
막부
대대
고양이
##곳
공업
##병원
벌였
민
임기
초점
오직
유대인
이라크
발음
갈색
이중
1952
기체
수도원
태국
메
##강의
건국
과학자
탈퇴
운전
총독
벨
##체제
만났
##2004
화재
위로
의혹
정기
본질
1955
한자
저작
찰스
폐쇄
나타낸다
가게
늘
수치
사냥
1942
커
고도
타이완
##安
집행
집권
뇌
##표
절차
지붕
##우
##였을
##청
데이비드
넓이
##정도
재학
프로이센
입력
##화의
대수
간행
임대
재건
노르웨이
우
##마리
##편의
냈
속해
줄어들
이주
후원
##사우루스
##달러
필수
37
학살
개신교
##거리
개칭
일상
건축물
대선
장남
복원
생긴
##처의
성분
##본부
구입
1953
##포
받아들이
##결과
박정희
느낌
어깨
엔
세대
팝
민주주의
세워
인지
실
글자
시청
마크
이혼
참고
##려면
호주
신인
준우승
기법
설득
m
본명
1943
관광
대체로
이룬다
타이
##동물
1957
##100
광장
##약
이기
충청북도
통계
##우주
코로나
병합
게다가
전철
왕자
단편
간단
주택
메모리
빠져
추방
만든다
##공의
모형
바닥
##쇼
발탁
블랙
물체
하원
테러
번주
한정
##|
업체
줄이
##법인
위원장
##빌
후계자
화가
이른다
##연맹
인도네시아
기소
독일군
축제
갑자기
인증
변하
##갔
승려
##’(
자식
H
화물
분해
경성
띄
진격
점수
도와
신청
##났
챔피언십
##품의
만한
전원
제일
질문
세인트
설치류
상실
효소
수익
암컷
투쟁
##목
앉
액션
가진다
허락
##션
혼인
약물
라틴어
##너
당나라
원형
힘들
묻
공통
홀
선포
##개혁
살인
지역구
##24
탄소
주력
##전이
프리드리히
##오의
##감
시카고
잭슨
수송
도서관
확률
레이
정원
건너
양의
보물
악기
##메
아테네
로봇
충분히
검토
약화
메시지
산하
명확
##공
아랍
##縣
타자
개설
가리킨다
##이론
히틀러
화석
##방
레알
보고서
##설의
##편성
심
##천만
SBS
격파
내놓
심리
이른바
##조차
##없이
에드워드
##렀다
for
결론
공무원
업적
개별
원주민
##작의
윤
합
대량
출력
불러
1938
주최
##소설
도덕
수리
서식지
칭호
감시
뮤지컬
개방
루이스
루
유물
일컫
기호
처
교리
##시에
베이스
전투기
L
날개
블루
##은행
##프랑스
아동
##개의
소멸
##元
2022
영웅
로드
나온다
문신
지불
인용
저녁
##절
막대
후인
시호
화려
벌어진
물건
무료
##심
##십
##맨
창당
급제
심장
1936
##한다면
단순히
예전
항의
손실
위대
##대학원
##기록
##역사
진학
규제
중력
바이에른
P
##미의
##사람
왕의
궁전
당초
가깝
소송
계층
##록
탄압
올려
푸
가리
##고도
거치
파크
##게임
##능력
브라
상인
부담
1937
FA
돌아오
철
누르
##시리즈
가슴
##~)
재배
헌
##계약
권위
메이지
##지구
조카
##양
매일
복합
연고
아티스트
PC
1914
프리미어
진단
수석
시조
여섯
사법
안쪽
남기
남아프리카
노벨
구멍
내전
##예술
아름다운
영화제
증언
멸종
모임
선호
맥
억제
습격
실력
사원
광
들어오
위상
1935
이웃
##박물관
프랑스어
##장이
근본
리더
1951
군단
중학교
혼합
##22
변수
영감
##커
매장
덜
선임
##비의
42
공로
##례의
사퇴
만다
##황의
전직
고등
##비트
분명
승
통화
County
작사
인디언
나뉜다
##백만
##마을
##대상
##이닝
##효소
개명
흰색
##23
정차
##렌
밀
커버
##유럽
일본인
##투
##통신
미니
##버리
접한다
유발
##200
##향의
한글
거듭
선박
이온
##동시
1918
재개
걸친
재즈
##東
돌아와
수컷
징역
지형
강요
55
##제국
롯데
암호
사제
공중
페르시아
코파
라틴
##애
정확히
언덕
조선총독부
N
##2003
한국인
중대
##인조
균형
발간
토대
드물
덕분
가난
폭탄
속의
일으켜
가량
산소
백제
1933
성향
하여금
흔적
임진왜란
지향
내셔널
샤
추기경
촉진
1910
##또는
대다수
일본군
묘
음악가
태조
각지
##차례
##50
홋카이도
##저
##행정
##준
##公
선로
강등
혼자
감각
보편
수요
##듯
방송국
농구
타율
연설
##책
치르
웨스트
##누스
포인트
48
##2001
본다
##비디오
##문학
##부분
수업
차단
뻗
##장애
미리
불상
싱가포르
##영국
유효
##자는
##다시
뮌헨
수십
##내의
받아들여
개량
석방
사무실
공정
=
##격의
묶
슈
백인
39
지리
대가
흑
불안
행하
은메달
범주
##프로
##로스
##’,
##府
나갔
##대한
##이러
75
와서
알고리즘
##도로
복수
##인과
쓸
비행기
왕비
태
구글
축소
이내
군의
끊
바위
맛
탄핵
##세력
##교수
소집
서기
그래픽
살아남
세금
해양
촌
1934
바르셀로나
수준의
사무
특별히
휘
작위
후임
주식
사용자
가공
독일어
소위
루마니아
##재
세부
애플
##%,
뽑
해발
봉
그리스어
동메달
생겼
보상
##대신
64
전송
델
대학원
1932
식품
쥐
서술
##t
부친
자본주의
##품
포스트
동서
태양의
발휘
벌
##K
##박쥐
##子
방언
시신
지구의
압도
피부
##40
족
조조
메인
디스크
저자
하나님
경고
칠
##샤
화제
##당한
구매
먼
기기
고급
쿠데타
##;(
##사이
SK
##손
내지
탓
축
##이상
몰
판사
석
##는다고
You
베스트
논
캠퍼스
완벽
##시험
120
세리
스토리
깨
적도
##아이
착용
##업체
그러므로
지칭
의문
이어서
아이돌
티
일본어
수의
감사
목숨
커다란
북서쪽
종사
인쇄
##처
저지
참조
##공학
##독일
고속도로
빚
밝혀
거점
–
결심
자랑
엘
이하
##흐
왕실
##之
석사
약탈
철거
전술
최우수
장점
1928
##탄
사정
피해자
액체
빠지
##자동차
새끼
학술
##나와
조상
##고등
예비
킹
도쿠가와
##없
당국
여왕
편의
##교통
무력
화산
##암
##平
리드
일환
선수단
연락
춤
리처드
##郡
##술의
##1990
녹색
파워
##히
할아버지
홍
물리학
##민주
##냈
41
용도
프랑스군
##행의
##義
##의식
≪
덕
미드필더
유통
##학회
##값
명시
진영
훌륭
엄격
1924
이민
이벤트
마감
##〉(
드러나
자본
극복
나섰
영구
남동쪽
변
적어도
법안
검색
콘텐츠
##朴
찬성
가끔
혁신
##田
북미
김일성
유기
부탁
형상
600
##민의
##낸
##h
후속
동해
##웨
제사
멀
##통의
생물학
패션
종전
드래프트
초청
민중
소비자
국방
국적
물고기
후퇴
천주교
라이트
올스타
분산
트
오른
대만
##;,
북동쪽
별도
세워졌
각본
##베르크
국제공항
틀
벡터
흰
1929
쌍
중지
파키스탄
이념
기리
집필
부지
뼈
힙합
서방
1931
인생
법학
##마저
##꾼
##외
근육
##체계
주식회사
##중학교
선교사
올라
##道
식량
뚜렷
##싱
##하나
입대
세르비아
배열
배웠
장수
라고
세월
악
그럼에도
##「
##강전
레드
돌파
유입
간격
혈액
계
##쉬
독점
트리
동방
개장
형사
##투표
관객
사과
신부
골든
쓰였
고안
추적
심판
실천
성직자
1900
사양
유용
심사
##으니
때로
스미스
무릎
돌아갔
##판의
희생
##타의
혼
옮기
##院
##成
정교회
43
##南
토
##절의
정면
아무런
진주
1923
선물
출현
##경의
향
태종
1921
1925
용
임신
모바일
추대
녹
##35
재생
개성
##연의
오류
소문
주문
##텐
수백
##틀
직무
상처
##볼
##해진
범
나들목
일단
##학원
주소
음성
재임
1922
고객
##된다는
##거
법정
탄
밀라노
펼쳤
패턴
##中
##君
호소
십
예방
##느냐
사막
##물질
클래식
향토
바깥
##순위
맨체스터
극단
쿠바
도모
매체
사라지
열매
보스턴
오스트리
주니어
##생의
배포
행복
46
감옥
##‘
##장치
스탈린
유력
초래
삭제
지휘관
HIV
다이묘
##안정
문명
47
##26
분화
교역
##푸
##이사
바르
승강
쇠퇴
##300
44
철학자
남서쪽
비중
되찾
글로벌
현존
재능
##학위
리가
800
가르치
칠레
구상
적응
인터페이스
시사
소규모
강도
곧바로
관계자
##사령부
남아메리카
프로그래밍
하우스
##사상
##투스
늘어나
답
전제
공산
##등의
주류
영주
유배
생애
+
전당
총재
통
##고서
아프가니스탄
##리스
샤를
운항
예외
전주
겨우
창작
1927
복구
꾸준히
##예의
가구
학사
믿음
화이트
##성당
입증
##鄭
봉기
결의
빼앗
##덴
첫째
레이블
발명
주지
개국
아이디어
야당
##특별
닮
등도
브라운
표본
국방부
비트
오토
세워진
아메리칸
##주의자
드러내
강점기
신고
체코
데리
##통합
연계
사망자
인공
입사
줄기
마시
##밖
소요
가상
조지아
##환경
총장
소화
##막
신장
대결
##학교의
##한의
밥
밀접
##알
싫
##병의
공세
김대중
매각
활
동굴
연습
일어난다
사유
농촌
허
1926
빅
##턴
##겐
소득
##1999
트레이드
시에
전해진다
별로
파생
##48
사찰
흥미
##그리고
일찍
화성
평생
정조
단선
티베트
##등급
닥터
인원
전동차
유고슬라비아
면역
스타디움
화합물
가하
##녀
심하
##사랑
새벽
사기
기용
요코하마
모리
단층
##총
진실
65
골키퍼
원시
##S
반도
##32
잭
그려져
##부장
##빈
일으킨
##설
대법원
##法
1912
##L
수반
##대가
구름
##님의
핫
벼슬
기부
포트
고속
주석
투구
나폴리
항해
경제학
청구
##또
베네치아
숙종
대로
정교
하느님
쌀
##1980
산화
직위
불가리아
조화
돌아온
마틴
WWE
##明
머물
규슈
거친
진나라
아마
##방식
관하
비하
닌텐도
취리히
자이언츠
페이지
##속도
수영
##력
유튜브
##공식
접속
##재위
캘리포니아주
##헌
진술
##洞
고기
배제
##I
텍사스
압박
메달
1917
상의
실내
부유
기병
나타난
복
##시스템
납치
방정식
내려
수직
박쥐
회담
1907
의정부
부위
이날
연산
재위
색깔
##국장
지연
항공사
사촌
선보였
감
와중
선두
##전문
##작전
##인간
질환
AFC
중동
##존
##행
농장
##里
해제
갑
##실의
사자
##2021
베토벤
##칼
일곱
빨리
놓여
테마
하이
##동맹
짐
##종이
알렸
##청의
벌어졌
칼리지
주어진
##29
가질
세트
국정
어워드
공학
##버렸
사립
몸길이
권고
멜
무슬림
지지자
호흡
중시
##료의
##된다고
커뮤니티
##の
때때로
변신
적색
##신문
곤충
보건
댄스
얼마나
순환
##27
처분
평등
##무의
대조
사신
하사
##약의
1905
소형
타입
기타리스트
##仁
##혁명
건의
##특히
만난
클래스
경유
행렬
걸리
가속
운송
##공항
##읍
일기
들어간
요미우리
기온
##델
산지
교전
##군단
구장
수천
이루어진다
본토
존슨
집회
메리
가시
심한
DVD
사격
싱어
피터
거슬러
회로
굴
주간
아마추어
평소
빌딩
여객
군수
가득
측은
전향
호조
공룡
청주
클
사도
고위
토너먼트
주어졌
250
그리스도
토마스
가로
몸무게
왕립
유산
##1998
착수
##플
##국민
붙여
환승
오리지널
##자면
##분야
서적
대우
라이벌
##光
일행
거인
스크린
52
영혼
##안타
##생산
##formula
펼치
내내
추
루트비히
51
통로
늑대
판매량
##벤
판정
토벌
돔
색상
셋째
정통
##작가
당신
해임
##몬
식민
얇
타원
호평
권유
오케스트라
이행
##번지
올린
체
마쳤
##교
벌어지
바둑
머물렀
##事
##나이
존스
양국
##不
부속
##멘
대공
합리
오디션
##지금
앨
##합니다
부품
##감독
퇴각
1908
##바이러스
쏘
##범의
##움
##린
브
b
원조
입법
과도
##루수
##속의
영조
간부
기점
주재
웨일스
KBO
마주
낸
##그러
약칭
라운드
신하
##탑
##레스
Me
리듬
삽입
평면
물러나
아르
아마도
옹호
합동
제약
자치구
다녔
짙
##야구
블록
##공간
둘러싸
중립
##정권
##돈
##아메리카
BBC
완화
펜
##일식
탐사
##공업
##張
수상자
레벨
버렸
오늘
##60
잠수함
기관차
유한
##룬
시상식
##長
민간인
모험
스펙트럼
간섭
운반
에서
##초등
모시
54
스프링
예루살렘
성벽
전망
##후보
된다는
대안
수장
##島
월
정계
용인
전적
무산
찾아가
1906
##인치
충족
아트
한쪽
뛰어나
연구자
배급
질서
반환
개발자
##28
##原
원수
주체
##기압
지중해
섬유
발족
터
시계
대한제국
국토
프로세서
##모
자매
대장
얼음
##新
##쯤
원자력
49
특허
##대사
##올
동전
##학부
스승
관광객
조항
샌프란시스코
야기
타워
##카드
MVP
선형
우익
친척
##陽
쇼군
##G
여동생
서독
신임
고립
상주
##龍
해협
설이
입지
자손
이탈
서서히
회
##열차
Love
부장
엘리자베스
당대
딴
곡선
자회사
프랑크
떠난
수비수
##“
추락
상관
부패
폐
곳곳
사라졌
제의
들어서
디즈니
귀환
##정상
장편
##구성
디자이너
##레이
##T
##시민
고개
듯
적의
품
오염
부서
퀸
##탈
동양
##400
독립운동
업데이트
마케도니아
입구
그쳤
거둔
##使
##앨범
없애
훈장
하드웨어
성의
어두운
메탈
후의
##틱
랩
언제
회색
랭킹
##X
수감
지목
대칭
향한
톰
##콘
저택
##뒤
비틀즈
##터미널
동영상
덮
호환
##온의
동일본
##천의
##군사
연루
##아도
##기능
황금
시집
서인
특유
##방향
망원경
중점
타임
교차로
개수
##武
몰락
파트너
체험
동등
모집
##西
포유
걸려
모순
56
자국
##시티
여인
창간
x
생태
할당
총회
걷
십자군
모음
시정
##자고
##자마자
그동안
화폐
유치
문재인
##환의
의석
구사
사료
협의
##선이
##끼리
약한
부동산
~)
비평가
독재
노인
##쿠스
##x
넘겨
##축구
신전
on
##德
부통령
조종
등장인물
목격
연령
무늬
입문
도메인
농도
너
발효
황후
공전
##1997
##앙의
겸임
앱
##대대
제주도
참가자
폭격
##북
손해
시체
게재
##E
포르투
##홈런
##永
##1995
쉬
매력
역의
##한데
대령
##자치
스마트폰
마법
엑스
##통
기념물
##尹
EP
연주자
700
표지
왕족
##선과
##宗
라는
##영의
##군수
신의
##검사
##건의
JR
하드
조기
##폴리스
##高
동반
##송의
주어
경상
알파
득표
정벌
잔
검증
채로
복제
재무
애플리케이션
##보병
세균
상대식
##평가
출입
융합
간접
최소한
당한
국기
##유의
##의학
발현
포항
복지
조류
##진의
필
측근
반격
전남
##正
남녀
유역
윤리
##방법
##g
##센
##눈
떨어졌
##趙
##위한
기다리
개척
##≫
1911
더블
나고야
붙이
##블
리눅스
##넨
필름
##1996
상영
마친
당해
내륙
##카이
감지
심리학
##시절
##신경
##듀
나서
다룬
공략
전북
세기
경남
초연
좌파
인터
동인
반사
지나치
스릴러
분지
가르침
53
개막
밀려
W
##술
옛날
책봉
다큐멘터리
상소
문제점
격렬
항목
사우스
##1970
동화
무관
정서
차체
기재
충성
##학
빅토리아
##스카
95
이어져
후쿠오카
##지도
유닛
어릴
##일자
1896
전의
캠프
박근혜
진지
##부문
자가
불화
##철의
##연구원
착공
재단
좌익
섭취
북동부
남긴
그래프
부착
지각
1500
끝내
농
법인
프라
호칭
##1991
##러시아
주자
##원래
게이
##F
섞
회원국
죽였
##업
경전
##새
##표의
##때문
히로시마
##차별
실업
진군
당원
##에너지
종족
부과
방안
##1992
출산
편곡
##종합
##P
과일
##崔
스티븐
당의
##회장
정점
북아메리카
내장
예술가
이은
가져왔
##시기
##고려
콘
데이터베이스
##신라
미쳤
수학자
##최
자유주의
##박
국무
프로세스
벤
기상청
핀
압축
비즈니스
##스테이션
##²
주립
승무원
쓴다
##현대
용기
플
##정당
##역학
산악
비상
여겼
원나라
강릉
촉구
식사
##여서
단종
프랑스와
준공
탑승
##장군
멈추
##아니
무려
##광역
문법
즐기
베타
며칠
퍼져
던지
##여성
로스
중의원
##스리
달의
모으
인디
태자
해리
국민당
중국어
빵
##的
대답
##금의
야생
판타지
##로마
무사
홈페이지
텍스트
육성
잠재
히
##조정
##풍의
##트리
유비
나선
하버드
토머스
착륙
##여기
##철학
무거운
##화학
광복
김구
##性
상임
종의
사면
침해
교향곡
싸웠
국군
트럭
센트럴
##학의
##모든
일체
공격수
전류
##든지
1909
지름
관중
##國
대사관
사적
중구
##『
운명
아울러
공국
방위
조선인
아르메니아
등재
컸
##슬
한동안
codice
그랜드
건너가
존경
흙
떼
맞춰
목성
소설가
노무현
무선
오스트
##전선
관장
민족주의
복사
묘소
##1960
##클
##돌
전승
##조약
합쳐
따뜻
##스와
정치가
코어
##틴
1904
페루
하와이
##룸
인력
직책
빌헬름
##80
음모
원자로
##1994
천문학
탈환
##部
포괄
##행동
매주
##H
제작자
수명
골드
훼손
건담
봉해졌
기름
##자연
일어날
##會
SF
넘어가
##뉴
##음력
필드
##결정
고지
닿
1915
명문
##800
둘러싼
##天
바라
##1945
조언
##자유
지휘자
##재판소
팽창
추격
지나가
류
궁
기습
스톤
##경찰
##왕후
항일
##규칙
문과
소니
##주로
##적의
상속
거느리
주지사
된다고
##짜리
정수
지표
##31
비극
##아들
우연히
포맷
역이
학부
##선조
역과
홀로
출판사
급격히
조명
##소속
달린
계단
1913
##금
##모양
##부사
리투아니아
##"("
이어받
존중
알렉산더
남극
파운드
여덟
거짓
이른
각기
##랜드
에어
청와대
달려
성균관
완
##아일랜드
건축가
증기
불편
걱정
마케팅
별칭
개업
관습
O
이민자
배정
##보이
발전소
##립
차남
##룰
점유
스트리트
경선
e
n
외곽
시드니
단점
보험
모래
캠페인
중기
자발
##보호
##興
써서
크림
소실
표명
디젤
이틀
축구단
유출
마르크스
광산
노르
천문학자
##디의
##서양
손가락
바이올린
고시
##끈
부처
세션
직선
흥행
주축
##레일리
##1993
##타이
##600
날짜
궁정
이조
한나라당
##작품
파티
##人
전장
180
크리스
대책
하천
72
여신
구리
##1989
시키
도왔
교차
양산
모듈
케
분배
꽤
##목적
르네상스
품질
성서
쉬운
선교
후일
##검
응답
간다
휴대
강수량
반경
##軍
##자원
법령
오가
로즈
성씨
##액
하인리히
자산
피트
공적
진동
베이스볼
무한
치세
내려가
사령부
파동
아우
##스가
북서부
##国
##인구
안타
3000
난민
르
대처
##평
##집단
렌즈
중심부
앨런
도심
일찍이
콩고
CPU
크로스
학파
##민
주가
##짓
콜
##께서
자전거
고조
평론가
부른
보잉
블루스
이명박
5000
빌리
##참판
다운로드
##공장
물러났
##石
##발전
흘러
윌슨
섭정
격퇴
연호
프로토콜
안드로이드
폐위
##신학
천연
이동하
의거
듯한
담배
업
놀이
##주식회사
##경기장
카이사르
쓰인
##라인
트럼프
##전자
석탄
향후
협약
필라델피아
##바르
##됐으며
바라보
유해
얘기
친정
##당과
적대
##계급
고베
지분
도서
유신
동년
틈
진리
박탈
##기독교
유니폼
언제나
암시
지수
다스리
58
57
전념
치열
피렌체
##보통학교
커피
백신
비잔티움
장인
경북
##R
일자리
대주교
##도서관
##언의
세로
서일본
속성
##팅
뚫
##유
##、
좌석
과제
편리
급격
서브
디스플레이
##갈의
모방
World
톱
##민국
##즉
노란색
각국
신사
삼국
팔레스타인
행정부
관통
##협정
##34
OS
겸하
여겨졌
##64
동로
앓
반박
가르쳤
##江
RNA
##부르크
혜성
스키
##가들의
##善
외의
이에야스
글씨
##포스
호의
철저
역학
빠졌
요원
확신
##줬
##항의
##고종
독
##항공
##근
왜냐하면
##인도
서울시
##1988
근접
##사고
##서비스
번식
페스티벌
##평등
국장
포켓몬
##킹
이어진다
사명
외계
축적
##부인
기하학
대리
유소년
파라
플랫폼
1916
자문
척
교장
중순
##전기
##영
제네바
끼
리버풀
##도와
##폰
결코
물의
페리
차기
##여단
의병
##보험
아서
스테이지
##복지
깨닫
##친구
송나라
동아시아
##45
##차량
우세
##寧
드럼
서열
보충
바치
주행
둥근
용량
##송라이터
기업인
바가
지사
미터
극히
평범
고발
센
신칸센
##건설
유인
별의
##오늘날
85
낼
##벨
버튼
양도
당일
##林
생명체
##투쟁
고민
110
##회담
주파수
헤
삼각형
롱
##버
##和
##小
##극장
캄보디아
증
직면
멀티
##실점
밟
용이
제휴
힘입
코너
에이스
1895
별다른
중독
두려워
자민
소금
무죄
코스
카페
안동
콩
문인
일관
《》
##韓
이긴
오디오
금액
##첸
우주선
공립
오다
론
자바
익
유연
요금
침몰
추증
든
동사
수용체
##베리
소재지
승부
상수
현의
식별
환영
캐스팅
출입구
관해서
##같이
양상
목조
고체
보전
거행
##누리
##주일
직장
##所
긴급
##노동
앞면
원했
배터리
음원
소환
번영
힐
##운
술탄
##학생
개찰구
좌절
특급
보완
변동
지냈으며
탈당
동독
이사장
연인
곡이
에스파냐
동경
부흥
포격
견제
병행
전임
억압
안의
##昌
아예
주말
##33
샘
동점
신념
써
##사실
하부
거론
고원
SS
설비
급진
해역
상부
각자
저명
효력
사당
##역과
##O
입당
후지
강과
성명
##시마
동지
##리아
독립운동가
##칠
태생
방침
##루스
분명히
생일
전진
함유
긴장
인조
낙선
##소리
해소
스트레스
이빨
협조
드라이브
취지
숭배
##주한
##메이
##hPa
공과
톤
새겨져
통칭
링크
테일러
베이
일화
차종
주어지
바이
전례
협
기단
차이점
강사
동남아시아
자율
엘리베이터
##박스
번뇌
해전
포수
스페인어
##펜
공인
굉장히
・
##700
역설
야간
##좌상
##함의
##으려
물려받
성종
시가
내린
DJ
##忠
##언어
##독립
마약
리메이크
연고지
##랄
유네스코
##풍속
기독
##1950
나의
##척의
##驛
미만
급
대외
장의
진짜
##서원
그만두
컬럼비아
케이블
##처리
회화
대지
##가리
가톨릭교회
##리우스
중재
보일
##단위
종결
##효과
시내버스
초과
암석
##무역
생전
##엘
##家
당사자
출구
들어와
유죄
친일
##36
도호쿠
##吉
노리
미사
했었
##V
에스토니아
##論
##작업
취약
##사가
혁
남겨
합작
탐구
지류
주권
여파
잠
최대한
똑같
##하우스
식당
칭찬
장려
##푼
투옥
##초기
##우루스
주거
아나운서
비서
일족
라이선스
##전투
루터
담긴
##자금
오버
버
신규
오빠
들어왔
스콧
해설
130
폴리
칭하
낱말
발레
시청자
##처음
##시스
스페셜
셋
##올림픽
역전
수면
경사
트위터
자치체
휴전
위쪽
승점
총선거
대원
첨가
스파르타
베네수엘라
##입
육체
구제
교구
총괄
사이드
##김
##한지
카자흐스탄
레이다
##운의
##조건
풋볼
##河
공습
##대부분
##정신
##치료
결혼식
빼
뒷받침
자랐
받아들였
임상
후방
디비전
##공무원
상류
##가장
포크
##전하
##타점
시초
인연
의뢰
좌
정렬
봉사
59
그날
62
##공주
꼭
##海
의상
포도주
##위기
대폭
우루과이
안장
##런
포드
계절
##스포츠
크리스마스
천문
##38
아기
호남
비평
뒤쪽
시골
##上
63
체육
파업
관해
투명
객관
성숙
출토
찾아볼
즉각
##영어
##×
사무소
##부가
평야
##딘
공직
일요일
빠진
매입
콘크리트
묘지
응우옌
돌리
명사
##뉴스
그렸
도주
시나리오
##아래
줄여서
입원
d
전성기
세조
김영삼
88
명목
끈
봉쇄
경비
그려
침투
##사용
사헌부
났
합법
흔하
기갑
흔한
잦
피에르
NBA
##이전
연상
부리
학원
교섭
남서부
칭
전두환
전했
##공격
급행
로고
환원
##핵
분기
철회
드러났
잔류
힘든
##재단
닫
앙리
상당수
##사항
##금융
##징
##연상
침
제압
##洪
휘하
준결승전
껍질
별자리
##모리
##00
개종
##협의회
미얀마
##="
##70
셈
##꼬리
이어진
궁극
열정
##N
부자
하락
중계
한강
1890
##분석
영광
전함
신학자
나쁜
##비용
그냥
##단과
##信
아이템
물리치
통틀
무승부
뜨거운
University
##…
구출
공천
통증
십자가
게르만
이산화
노드
설탕
병조
##넷
수평
##자책점
정밀
느꼈
실전
NHK
전작
##n
##많
스핀
고교
##발의
레이스
##명은
소통
##松
연애
정자
주한
증대
점프
두산
몰래
사거리
실시간
보다
##기사
서원
동위
남동부
리스트
유교
버지니아
##니아
눈물
쌓았
보인
##37
라트비아
천안
혈통
봤
교외
구동
##요소
항공모함
비로소
##堂
들어온
＜
실용
행해
##훈련
공산주의자
우위
##시가
보스니아
재현
붙였
창건
성공회
확실히
##일부
부호
 
기종
솔
##헌법
늘어났
지폐
풍경
진급
오해
##순
여당
세계관
##이온
##문화유산
##水
##90
옵션
연구원
초창기
연세대
컬러
근원
테니스
##權
전인
단장
피신
현금
축출
##라스
왜곡
##첫
타인
##단지
이스트
바깥쪽
##께
엄마
홍수
날씨
해명
목재
폭동
보좌
품종
환상
적자
외교관
패전
##리가
개관
사슬
추출
사직
축하
휴스턴
갤럭시
폭스
시칠리아
실려
##홀
슬로바키아
를
블
히데요시
##殿
장거리
내려오
알코올
학명
##전화
늘리
울
소유자
##송
제독
여단
찬
윌리엄스
실체
벗
##창
메트로
##식품
##극의
프랭크
할리우드
두개골
61
인가
##나무
생겨났
사상자
GDP
성모
재선
맥락
##협력
##지사
화살
띤다
##토스
들어간다
말레이시아
It
브라우저
##禮
만의
인재
동성애
마이너
관리자
마스터
중장
탐지
둥지
정류장
추세
학
집계
협박
##테스
수용소
후자
양키스
결함
인격
누적
몬트리올
##등록
##北
살아가
##비치
가짜
##전문학교
통치자
고백
블랙홀
대거
##記
##셀
부수
##청년
퍼시픽
##케이드
##톱
최신
연이
허브
##폴
폐기
##폭
표적
##어요
용병
##종교
박해
조달
위장
행적
대의
상자
##가구
##활의
##1987
첼시
락
노동당
##캠퍼스
데이비스
언론인
가마쿠라
가죽
아랍어
레이저
99
강연
평행
키우
시위대
한족
전압
옹립
##은데
키프로스
인자
부당
지자체
모토
베른
##아과
여지
성별
##劉
중국인
단절
미쓰
추상
할머니
공채
추모
선비
##중심
##어질
케네디
##머리
희곡
전하
미술관
마찰
민감
소프트
베르
비문
따위
장사
메커니즘
회수
복장
일으킬
마리오
문양
이슈
Z
감행
##守
병역
테이프
센서
타운
##매치
##앤
##직의
##주간
메이
66
래퍼
임용
관념
황태자
존속
선원
##타운
##해당
중위
득표율
##39
컨
라이브러리
노비
우라늄
##미디어
기상
스피드
##門
리뷰
책임자
140
고수
키스
공의회
동구
##머
합계
##柳
1894
##a
##도쿄
수령
시켜
원고
98
마이
##죠
셀
일방
파장
스쿨
비유
개막전
구조물
닛폰
상무
덮여
숙청
플로리다
##비아
패한
누군가
##本
기인
횟수
HD
가벼운
스튜어트
신속
##욕의
##의장
레닌
##안전
##운영
해고
68
##코스
##가족
학업
주사
부재
##孝
끊임없이
프레임
승계
한신
화해
소닉
예언
낸다
##반응
나눌
##기준
##핀
##모델
어휘
혼동
대위
아제르바이잔
수습
승부차기
부시
##시청
##館
자유당
브라이언
##현상
폭넓
평원
최저
##언
붙인
소총
치명
인텔
제수
국무총리
말씀
기금
우호
염색체
대패
가요
##바이
시선
작센
됨
군부
최상위
슬로베니아
따온
선종
상하이
##주가
사물
앞쪽
책의
에릭
살펴보
##매
끼쳤
고고학
석조
휴식
나타낼
1902
##불교
내주
##쌍
후안
##사령관
스티브
저하
##神
댐
##수학
올라간다
범인
남인
단단
모른다
이성
왕가
빨간색
밀집
어원
그치
##젠
근로자
밀리
워너
승자
##相
연평균
설도
##증
허리
자택
##宮
성취
준수
퍼지
원주
##漢
타점
일컬
##주택
성사
입성
링컨
##공개
희생자
분비
하워드
당주
계수
FM
포획
드러머
가나
머무르
가신
도루
위임
콜롬비아
지능
##건물
탐험
조종사
부천
치러진
##宋
명백
황실
일반인
와인
My
##동당
노스
##형태
생산량
지주
1901
누가
바꿔
입체
포도
##음의
미스
원로원
##大夫
##慶
##42
##com
##열의
종래
##태평양
창원
물리학자
매출
세례
스타크래프트
교단
다이아몬드
입각
무인
지혜
해병대
소나타
##수사
영양
규격
##고대
평정
수축
##페르
헝
1899
##樂
##연패
##킬로미터
보스
영원
소지
갈수록
뒷면
##侯
약자
지식인
서유럽
통행
이겼
루스
체류
모았
가동
행진
돼지
##수가
인민군
일조
진도
##버그
초상화
자기장
육지
답변
객체
어렸
##탄소
선사
오프닝
나올
##승의
##官
160
굽
드라이버
레오
촉매
##이다
드문
##해져
알프스
뿔
##협
그다지
해변
나이트
##경찰서
##해진다
##루타
신비
프
혜택
##배의
권장
담겨
기질
백색
체코슬로바키아
핵무기
만남
쌍둥이
조국
누이
우승자
아웃
매니저
들어갈
구절
학교의
실종
심의
##마일
##하위
산다
1898
##86
치즈
운하
96
##으려고
단행
##보건
##육
박스
##대책
제후
문구
미루
언니
##41
##白
KT
명령어
아래쪽
필립
##주인
c
1903
##"),
쳤
플라스틱
##더니
##전차
##궁
나열
##회견
부작용
##의사
승차
##수지
##뱅크
제치
실망
업그레이드
##부로
화자
기아
외모
놀
##큰
멜로디
이토
마쓰다이라
미분
##1986
폭행
##확실
##』(
##체육관
대포
성남
빌려
몰아내
패스
##經
가해
아이슬란드
장갑
대변인
위주
상세
목포
대표작
사위
귀중
광학
76
코무네
대두
만일
재혼
배후
간단히
360
아이디
서울대
뒷
악마
포장
윈도
라마
상상
엠
##》("
숙주
##모토
파트
##업무
##市
##조치
키보드
다룬다
곤란
##다운
##박사
##사와
그랑프리
한양
일명
포스
데모
##켄
무너지
물자
느리
세속
루프
마르
데이
101
외무
쇼와
IBM
##회전
벌인
신도
줄무늬
합스부르크
토양
알루미늄
구호
펑크
파이
##世
가축
67
먼지
증권
폭로
걸렸
란
표방
##텔
까닭
따왔
##그녀
상점
루트
충실
무조건
벌금
내정
경상도
옳
##한테
옮겨졌
##거지
##니스
종속
##源
바티칸
대왕
총칭
염증
##기로
제재
비밀리에
허리케인
##동과
욕구
우측
정해진
코믹스
서자
토니
##축의
북방
##봉
##日
더욱이
두루
서머
77
갱신
입국
예능
코트
##밴드
##변화
창출
기슭
중추원
##복의
레전드
##47
유언
추론
희
분광
##面
방패
##책임
##미술
적혀
##圖
성리학
아스
위탁
##래
벽돌
저렴
한층
감안
한화
안내
패키지
##서기
아시카가
통근
##나갔
강풍
블라디미르
넘기
인형
냉전
격
보석
정말
##유적
##知
상대방
러브
기고
가져오
거처
후궁
회계
경신
##어가
지질
독일인
##어로
##司
비오
서신
타당
아인슈타인
꼭짓점
대행
##1985
소셜
모자
창고
맞붙
전이
꼽
복음
무슨
거뒀
당연히
##인상
군중
추종
뇌물
배신
##谷
기수
우유
##藤
프톨레마이오스
##셨
짜
이의
단식
상장
호출
광물
테이블
밝기
총대주교
##1984
나이지리아
##얼
공자
만성
확진
과목
특권
네이버
짝
유저
참모
품고
노트
##준다
모로코
사회학
III
종로구
사사
##투자
잊
닦
북위
##걸
레논
영의정
거울
예배
고무
##전한
아카데미상
기생
일생
파란색
장례
대학생
프로게이머
##딩
장례식
대군
안보
선배
영국인
재상
모서리
탱크
73
##양식
후대
화장실
##유지
##보통
##강점기
돌연변이
통보
##티스
##馬
##베르
##릭
##U
상단
킬로미터
헌신
아홉
양측
##아프리카
바른
환
둘러싸여
프랑수아
훈
##수단
파산
예조
트윈스
기각
돌입
##준비
페이스
##숙종
##였으므로
푸른
취재
지출
젊은이
기적
호랑이
컴백
러시아어
##헝가리
##書
모친
칩
새로이
##전체
1897
싱
여우
##貞
구할
꼭대기
한인
번성
##村
홈구장
부채
약하
코리아
사살
뉴턴
사인
이주하
시베리아
총독부
##타마
분량
최후
이식
바오로
새겨진
지켜
##省
전한
강원
##부산
유로파
##1940
##1948
두께
New
성도
1884
스마트
중도
##련
낮추
##가스
##無
너비
##평화
등극
##吳
사우디아라비아
계정
##헤
##풀
##44
과장
미세
연쇄
따랐
탐사선
자들
이슬람교
둥글
동명
커널
베어스
디비시온
함선
수년
##먹
단축
치안
동력
##망
##셔
린
##로맨스
##기계
##기가
적당
현종
법무부
업계
블로그
토요일
사본
거주지
정전
##기지
수렴
밝힌
나가사키
##마력
월간
##43
말의
##빛
찬사
##망의
반지름
차관
##람
머신
##월드
다중
##가치
신용
이닝
피난
중성
순회
풍자
횡단
형조
##고속도로
프랑크푸르트
부드러운
가볍
스카이
알바니아
##폭풍
느낀
##행사
수호
동아
에티오피아
##鎭
원천
돌려
만세
연봉
##판사
69
##릉
##극
나란히
유동
##46
누
성전
##득점
##아웃
정적
78
기증
##55
시범
게스트
구축함
밀란
공조
충남
산업의
##세종
평일
말레
콜로
##황제
##락
희귀
충전
구릉
취항
##잎
##시켰으며
##낸다
위키백과
발병
중종
오리콘
##옹
뮤지션
동북
##무기
##町
특색
##프로그램
장벽
라이
그려진
중앙아시아
고치
남동생
등용
바이킹
놀라
개인전
단원
트리플
임관
촉
상공
척추
##社
광역
##는데도
가열
스위치
##클럽
정한
고가
명분
판본
매카트니
천장
보복
퇴역
연합국
빈곤
##타가
##그리스
##스로
증진
선이
채소
리비아
복용
단기
필리프
##09
1860
종점
해의
딘
윙
##인사
영문
대피
##사이다
##데스
도요토미
발렌시아
##有
슈팅
82
##세트
왕복
중복
##플레이
당수
카라
어류
규범
##짐
그릇
쳐
기르
몽
##물리학
임의
불린
냄새
예시
유니
##케이
심화
##교사
누나
반도체
제트
산림
##부에
온대
바퀴
비단
깃발
징계
질소
초월
한성부
기차
##배치
봉건
명제
##코프
서북
팔리
황족
##生
##시인
발급
덧붙여
내기
##제품
##․
##都
파벌
##54
##周
시가지
##차이
정해
발령
붙여진
탐색
##1982
달한다
바르샤바
협주곡
연소
원본
무용
호응
윤치호
##지인
요크
봉안
생략
고소
거쳤
원반
방사성
파병
어업
##비뉴
대치
주역
현저
97
##이것
청원
풍속
인질
링
##햄
접
상용
##당원
베드
상경
곡물
자선
자세히
##공동
즐겨
호세
둔다
얕
##공연
케임브리지
71
고양
생겨나
막내
1800
##의료
롤
제국주의
##아버지
##대장
헬륨
어른
장안
##오스
절단
국영
극동
81
##남의
중추
지지율
친일파
가족의
##보장
직경
패하
##지방선
경연
다양체
##노선
동참
접수
회피
자아
운동가
좌측
콘스탄티노
성주
퇴장
##맹의
##이시아
아무것
색채
##1920
아돌프
##뤼
##%),
1880
갓
##景
일부분
##문자
오른손
##함대
후한
동상
##공신
마블
퇴임
카를로스
페르시
##피의
오키나와
##식물
##친
##野
CEO
##축
굵
##코치
##羅
시드
레스토랑
변이
발각
면제
포병
##聖
치른
텍사스주
아미노산
경찰의
플래티넘
원장
##친의
##려던
민법
##해방
쏟
케냐
##밤
사관
타이거즈
용서
##목사
##최근
##派
##그램
게이트
극심한
350
1885
짐작
##파크
86
턱
##디아
직결
이룩
아베
##테르
##디스
상해
이북
투항
둘레
상트페테르부르크
기분
수동
##과장
아사히
땄
냉각
탐
##John
##퍼
쫓
시달리
적다
i
##利
만료
분기점
정립
반군
진전
kg
맑
##끝
##트라
누리
##1981
동성
자칭
동행
물품
수색
##"()
오로지
저기압
옥
몬
엔지니어
향년
헌정
지부
후속작
순조
##이름
신탁
##字
맹세
##化
삼각
게이지
##통일
선보이
##전국
조선일보
구해
양주
##요리
프란츠
##政
아름답
이성계
부회장
##08
경찰관
포착
산란
기하
모이
##＞
##기획
문하
##로프
##터널
산타
온갖
##재판
두려움
##버린
##비행
##누
##준의
대변
노조
밴
##孫
마오쩌둥
넘어갔
##룡
상연
##삼진
##왕조
74
##채널
나눠
결선
##갈
런
MC
##1979
돌보
##격
클라이언트
친왕
지켰
170
지역인
##인민군
응
컴퍼니
허위
##後
노부나가
아틀레
동아일보
체중
개교
잡아먹
연도
헤드
##1983
깨달
컨트리
가늘
원내
응시
꼽힌다
##훈장
Q
모인
##마루
중성자
##學
기술자
격차
라오스
900
IC
##地
##연
##黃
자전
걸린
옥스퍼드
멸
사가
##노스
출석
거짓말
##동이
생체
##行
##리어
부피
##공산당
중령
대승
입수
李
사회민주당
스리랑카
남작
##소련
알제리
##는다면
1871
체력
##상황
기동
친분
제조업
뉴욕주
얹
발해
어려웠
강남
택시
##대손
##51
##경영
조립
수중
배틀
교과서
##기기
##기인
퍼포먼스
증후군
뱀
##br
##左
홍문관
동유럽
평민
이탈리아어
##살의
보강
산출
공백
신선
School
독성
AC
공신
##티코
mm
어항
탁월
솟
명은
어쩔
대단
##75
히가시
오이
##將軍
시뮬레이션
##운동가
붙여졌
올랐으며
중일
고등교육
##체육
소령
활발히
머
강점
채우
양반
맥주
해인
감자
볼셰비키
던져
앤드
공표
##理
치러
##집의
##사무소
105
함부르크
심해
##교황
왼손
사로잡
검출
##관찰사
##황
매개
감금
1870
흥선대원군
전날
##선생
평평
관광지
with
수료
이용자
##궁의
카이
캄
어려서
아리스토텔레스
인체
주조
##희
듯하
군함
포스터
오렌지
제대
연예인
양호
도장
언
83
클라우드
샘플
##아가
분출
##묘
성체
84
##1972
몰수
##라우
입양
창시자
##함수
##뉴욕
##1946
방글라데시
국어
Of
구도
##실장
##사인
##1973
쓰여진
##the
아종
근교
페이스북
상관없이
87
관계없이
쓰여
부도
##대왕
원전
극대
##65
태양계
미소
노동조합
##52
똑같이
##공단
공익
##패의
##웨이
무실점
92
##완전
수분
북경
103
##1930
권총
남한
궁궐
주주
학계
유아
##연소
게시
향했
##림
발원
창원시
##장소
사무총장
제프
뒤집
무신
예명
청사
산의
연대기
##악장
천사
SM
느린
구형
압
프로레슬링
##과거
대출
흉노
간신히
켄
보헤미아
학대
장기간
배구
설립자
발의
호위
수신
##객의
간토
##영역
살리
##集
관행
가져온
지녔
감싸
국내외
왔으며
익숙
##덕
에디션
룩셈부르크
채권
토착
고르
그저
총사령관
사업가
##차트
경성부
##b
감동
칙령
##영리
##아시아
연금
##요의
옥수수
열심히
계열사
토크
경질
Y
1889
감수
은거
전년
온천
괴물
##아스
##사이드
의의
##킨
세워져
안방
혈관
##조지
쿠빌라이
배려
필터
뾰족
준결승
삼촌
저널
##梁
선도
설교
DC
송시열
##→
이글스
파손
선과
삼성전자
비치
창문
##良
##필
##닌
##드리
##도어
드러냈
폭격기
광대
웃
에콰도르
파이널
달걀
UN
부각
사육
엘리트
##록의
##국립
##형식
##太
따른다
요르단
트랜스
농부
##원장
정찰
##인먼
섬세
##에다
후반기
##스페인
##비전
곁
끼치
디트로이트
##이하
사라
살려
원료
서류
##井
통용
모은
이수
내무부
강렬
프로덕션
##남부
이자
합당
이복
##라서
##좋
##전략
캐시
생계
상담
아레나
상표
경과
싣
엔딩
전도
정착지
##라이트
에르
##답
브라더스
요약
다를
수심
무상
사이버
##다르
폼
도카이
케이
하트
분당
페르
ISO
일가
우편
히로시
금성
스카
자유형
열린다
합친
로마인
##내용
외야수
인터내셔널
##상과
비석
경제학자
##밀도
##조각
실권
##대에
외국어
말리
역량
외관
독창
올바른
##연속
힌두교
갑옷
프랑
##을지
당내
말년
##우드
##자기
강경
##》(,
##은하
축조
강간
그레고리오
##나미
동성애자
전복
실린
##텍
##이탈리아
동조
폭풍
맏
교황청
관람
깎
역사가
근로
겐
메시
노론
선구자
초빙
공용어
당연
뜨
콘솔
가미
##承
##立
지미
##시킴
진공
조리
음료
라이온즈
다케다
아스널
놀라운
##1968
부드럽
나타냈
##및
드림
피아니스트
파문
생식
발라드
아이스하키
구경
스케이팅
연립
p
페이
##리스트
슈트
속주
##셰
젖
골프
station
러시아인
보낸다
학과
##秀
상응
러셀
##연합회
집결
티켓
##주기
씨앗
고장
트로피
##낼
읍
선행
##코드
본국
편집자
찾아내
동네
가혹
교량
##을까
##장과
마산
International
명종
안토니오
##福
한스
지도부
##대통령
회상
창업
우정
노면
##弘
취미
검열
교원
마닐라
워드
신흥
모티브
배속
##陳
##굴
미상
신축
마비
전시회
전염병
들여
악장
##49
무효
다투
##롤
농사
벽화
다툼
세이부
##모르
##전사
플래시
즈음
무함마드
세자
해밀턴
부르고뉴
##基
##다만
##미사일
팔렸
불타
연못
능선
##생명
어둠
지바
##1949
##필요
조부
욕
is
역명
##원소
시공
생긴다
##가수
##제작
모색
퍼
저주
결
리더십
초원
우파
방치
패널
1600
신생
투여
##비시
미키
본문
서문
##帝
종말
##드라마
히로
분파
연장전
##질환
이관
의사소통
체스
바꿀
유격수
매치
왕권
부설
장성
##곡이
고쳐
인명
에스
진상
플라
##연방
##재산
노동력
보위
하차
프랑스인
해리슨
바꿨
실험실
개원
프레
패밀리
세가
SC
가계
##62
##질서
##생물학
빛나
토르
##형제
##53
명확히
꼴
이순신
천재
인테르
피겨
국소
넘치
IT
취업
사이클
말미암
##지점
##범죄
##광
공감
침체
접어들
견인
케이스
양이
원격
##무대
치아
라이프
사범
전지
##1974
내려졌
컨셉
복권
##상업
항소
##엔진
유치원
기념비
맨해튼
의과
##古
##중대
스타리그
느껴
##명령
미생물
어미
붓
야구장
노태우
이상한
##핑
##둘
다저스
정작
동형
##슨
탤런트
죽인
보살
##정에
방사선
증인
광해군
니시
휴가
중퇴
발트
탄도
##잔
미션
원숭이
##앙
의자
##컴퓨터
예컨대
충청도
크루
##도르
시트
경의
카르
커뮤니케이션
인프라
요정
ATP
취했
유권자
신중
애틀랜타
가로지르
출가
난다
비전
##토리
격추
처지
전염
우크라이나
##900
면허
##연료
청동
윗
##06
성문
하노이
1848
수락
##華
##나오
레슬링
대합실
악보
징
줄여
##선언
달라지
야마토
수확
조반니
기관총
##총회
교정
입주
공모
신원
##直
루돌프
수법
버클리
대단히
전래
##종류
##균
활주로
오리
화력
##木
##달의
전방
연한
##피트
전위
양보
##로드
##성능
##계열
익스프레스
##지와
##국군
연수
##영화제
삿포로
세르비
형인
자결
펄
##1971
법무
소모
리치
##스위스
##1919
93
타이거스
##퍼센트
모터
발칸
##귀
표기법
##泰
##기자
예하
친선
##저기압
서재필
##1962
평판
##철
방송사
클린턴
거란
##기동
##1969
포도당
커서
##환
일식
##07
첩
호르몬
변호
바뀐
깨끗
로저
방대
접한
물가
##定
우회
피할
라이언
잘라
북구
##혼
내외
개항
스트라이크
결별
마녀
##인당
1883
채취
성운
차출
투르크
##문서
올라갔
너무나
##기본
빈도
##통치
시야
대의원
매매
곱
케플러
드디어
##땅
반란군
소행
비리
그래도
##부작
##저의
제곱
군사력
음향
능
경찰서
왕가의
몸통
대대로
요건
악의
지침
##정비
꼽히
##벽
일으킨다
크리스토퍼
달아났
안테나
영남
##해석
배우자
가옥
즐길
넷째
##구간
카스티야
모금
마르크스주의
시애틀
주입
일파
##관련
##절차
자유민주당
정무
##FM
##검찰청
개미
##연승
##者
공약
아라비아
타임스
##어스
후작
나타날
중엽
워
타일
89
붙잡
영예
자크
1888
보이스
천천히
신이
##前
마디
자란
연예
외치
##라기
아날로그
종식
순천
줄거리
다나카
충
알렉산드르
기병대
센다이
염기
1882
청동기
리틀
##개인
##1944
프랭클린
##윤
인공지능
##1939
구실
방어선
찰리
##曹
맡기
소나무
히어로즈
##阿
##美
망
##찬
##史
듀오
응원
##지진
##溪
##졌으나
의류
케빈
##태수
이이
급증
실적
##광의
##롱
의약품
듀얼
각도
##필드
곰
정변
윗부분
파울
비준
효
##힘
유닉스
비타민
소방
처녀
커리어
##협의
내세우
아시
에이즈
가솔린
하단
##결합
동정
안치
시켰
소원
자음
##엔터
##지리
수군
정세
타석
묘역
편견
##소스
##1963
##스에
공이
레바논
혜
공존
선진
도망
초신성
인문
퀘벡
MTV
##申
카타르
위함
예고
대서양
희극
양성자
급속
다운
걸쳐서
##1941
미토콘드리아
##수준
대웅전
벨라루스
첨단
시립
명인
요제프
여권
비해서
궁중
##津
염려
수성
##데이
안양
##뮤직
##았었
대중교통
##게끔
##닉
메타
그림자
날카로운
헤르체고비나
어울리
법의
91
화강암
마야
함정
사절
##포드
지층
경관
##바흐
여유
키예프
반전
##거래
투자자
컨트롤
솔루션
도피
이단
호족
##1964
남미
다니엘
##淸
해적
롤링
학회
내걸
관례
가했
##1976
##본래
##畵
79
천문대
중앙부
리옹
의결
고사
부합
유대교
마스
브리튼
쓰시마
##重
텐
크다
1892
##98
강남구
사라진
프랑스령
단행본
##베이
In
알렉산드로스
##요원
느낄
북서
덴
부상자
##아군
##청장
흥
##다이
여진
##륜
##時
원의
실무
오피스
##발매
성령
신학교
서민
애칭
이송
##팬
열도
##독
격리
##令
어긋나
빌라
##촌의
##인권
브레이크
패러디
광저우
삼림
챌린지
##노동당
타협
영화배우
번창
알아보
##碑
번갈
자란다
무제
##사관
갈리아
몫
##95
##범
어찌
##，
배양
석탑
복합체
얀
리믹스
펼쳐
습윤
이뤄졌
1893
##1978
샀
##憲
헬리콥터
민속
##포인트
지선
##쉽
다스렸
레드삭스
떠오르
러시아군
보여준
갚
##외교
##唐
둘러싸인
국교
출처
소매
##캐나다
극도
##벌
항쟁
놓인
##농업
##전통
생존자
차르
예수회
누렸
##豊
연동
사운드트랙
지배자
##일제
무성
신발
비행장
습지
나타낸
파기
##당해
제위
金
이득
##어항
한미
전락
상이
##자본
원로
숨기
찬양
One
##功臣
유혹
지켜보
이남
징수
##徐
##분과
연정
도출
관세
적외선
주어진다
##미래
제주특별자치도
##2022
##마사
##빙
청색
장학금
해저
주화
볼리비아
미나미
보드
##：
부가
아키텍처
수련
제우스
##영조
니콜라이
뛰어들
##W
모호
NASA
요동
이븐
마스크
##智
발리
카터
염소
반감
후배
흩어져
츠
위나라
##솔
불행
생선
바쳤
목회
성지
##소장
오사카부
절벽
가마
스폰서
##伊
##면적
항체
알렉산드리아
##레이스
위구르
##朝鮮
다카
체조
##•
지방산
순교
잔인
##수도
돌출
##죄
원산
얼
자제
##넣
##雲
농림
쾰른
펴
켈트
세습
조용
잠정
##')
도마뱀
EU
##方
##1961
숙부
##다리
선장
충주
대규
폭파
구미
겉보기
##법칙
##05
고쳤
잠깐
##즘
유료
자의
급속히
사업자
상금
협업
##닝
복종
엮
슬픔
##소득
매사추세츠
##으려는
##1975
꾀하
카툰
코끼리
구의
##쥐속
국한
경쟁력
견디
절정
붐
스페이스
##心
구마
방사능
동치
##見
비추
##통제
바꾼
정제
후예
거세
크리스티안
보낼
##대구
라인업
기숙사
제퍼슨
막판
##마크
동맹국
알파벳
빈번
설화
모리스
빙하
마침
클라크
바에
매수
##어떤
광년
호모
##뇌
싸
##플로
##빌딩
##슈퍼
띤
##결국
스즈키
콘테스트
달랐
스톡홀름
##校
악어
믹스
센고쿠
##이스
윤보선
##56
백화점
영원히
파충류
보트
##英
피핀
긴테쓰
프랜차이즈
임원
요시
추첨
에이
→
곽
성곽
시합
##할지
들어섰
기어
##廣
신조
옮긴
요절
##士
##네스
보수당
대역
##었었
동래
##康
동학
##고지
아이폰
몰리
오바마
암흑
더글러스
다윈
작물
##메라
##응의
##기와
규탄
미친
##실험
생겨난
##가로
$
카를로
당황
연말
메뉴
KIA
오클랜드
후지와라노
격려
##감사
##메이지
생겨
##1977
##논의
천도
소행성
마일
북동
최적
220
국외
박헌영
국보
춘천
웹툰
마루
평형
델타
교대
태권도
불분명
450
늙
바그너
온화
마사
##혹은
##앞
힘썼
고의
##와라
돼
플라톤
##담의
##혼의
정사
##회가
CJ
초안
##;/
받들
토리노
브레
##중종
학설
특화
##스터
Life
광도
반지
##원인
##염의
차용
포터
튀
드래곤
la
펜싱
차츰
기저
과시
수교
쇼핑
파일럿
고든
돌아다니
##아어
##윙
청산
김해
##여도
##이런
1868
##단장
##결혼
##응
전전
계몽
결과물
좌표
반성
철저히
##표준
마르쿠스
혐오
칼리
도널드
##기타
월요일
교양
겉
##곡인
예선전
촉발
거리의
도스
미하일
기량
밭
복음서
아폴로
피로
코믹
객차
##선발
서임
주선
뮤
만주국
오스
##광년
폭포
##음에도
수복
##1966
흐른다
##1967
몰두
칭송
현직
불참
##이드
오타
##玉
저조
##오르
대본
평안북도
지면
해결책
계시
##자형
유령
토성
낫
쓰레기
94
가나가와현
동남
유체
고분
젤
렌
마다가스카르
철폐
##협상
그만큼
##궤도
##세자
시직경
##소송
고양시
관문
##路
코르
##壽
릴
두각
##균형
##사회주의
##풍
선동
##大學
인플레이션
시코쿠
애정
도로는
형벌
카메룬
칼슘
구로
내성
빔
흡사
##順
파편
##파리
레일
무어
##1965
##61
캐서린
1200
상가
내면
재활
지붕돌
북유럽
한다면
##킬
##이익
떠난다
##장비
조세
##부를
교육부
하얀
집정관
##p
병기
##꽃
종군
핑크
LED
문예
겹치
아벨
후원자
밀양
##회관
정문
##배우
1886
만난다
어뢰
세련
새겨
리만
프린스턴
갈래
맵
##죽
닉
##라루스
휴
미스터리
라이너
대전의
우즈베키스탄
##별의
SNS
##위치
마라톤
##全
나트륨
다발
종파
Man
##敬
##박의
조롱
벤치
검거
규
##후기
스퀘어
##건축
때려
위키
나갈
직통
##면은
스트라이커
유러피언
단체전
회고
##집행
하노버
유니버설
유방
##陵
앤더슨
풍
본성
중상
모의
소음
##타스
##亭
화장
구금
북아프리카
##이스트
파르
1887
예약
##63
놓이
##라가
중량
합치
##런던
##엠
해리스
##미군
##명칭
##i
스트리밍
신민
대영
Is
쾌속
##잡지
극작가
미군정
체인
빙
추존
우드
##齋
실정
1861
로비
바람직
재차
폐렴
장로
게릴라
동요
단백
지닌다
배운
##당한다
보증
세이
항원
터치
킥
약점
##서로
주차장
1881
앨리스
욕망
쿠퍼
교도소
맥스
덧붙였
터지
##전적
##북부
##보도
College
시중
우울
로렌스
레이더
정화
밝혀진
모욕
졌
##1910
##판매
베리
##浦
베이시스트
비늘
##예선
극우
##칭
##운동장
##루이스
관제
고집
벌여
중수
제명
창의
제작사
힌두
절감
장원
세비야
##이때
묻혔
경보
무술
타락
급히
탈취
용액
##建
자르
적분
##자신
스카우트
남하
재질
##원이
밀러
API
발목
갈라져
총기
램프
더비
##생물
##만약
도래
달라진다
막스
##설계
큐
1876
돌기
신약
왕세자
점거
서진
벨트
##하로
불꽃
가이
후쿠시마
파이터
시국
국정원
125
휠
협동
해독
##셋
그래미
##몸
준주
경계선
컬렉션
대성전
우르
##포르
새긴
소극
정월
유능
어드벤처
##기갑
PD
##58
전담
점성술
##금지
##타수
상사
##沈
끝냈
##카르
##伯
평안남도
##릿
도리
유스
비자
위력
면모
##01
버린다
적군
제인
침묵
색이
##규명
복식
데스
##옆면
포럼
머리카락
별개
##지로
표정
국유
두드러지
뛰어넘
US
수지
민병대
##청구
참의원
취한
사방
두꺼운
1850
매달
박람회
산물
투르
파라과이
해안가
아담
슬
청주시
##ref
##광주
속력
귀속
##구와
달아나
김옥균
화합
잡혀
##빌리
##정적
무언가
금요일
형법
방콕
기해
칼뱅
사민
범행
모범
이뤄진
엔트리
그만
강철
##宣
필연
김규식
##광부
진행자
부름
펠리페
높였
사안
헬기
##라디오
대성
말라
##욕
지장
효종
댄
요격
일산
법정동
민정
##1947
##反
##인물
이스탄불
클리블랜드
##복무
여배우
고아
시속
굳
슛
##정조
자생
긴밀
##새로운
기관지
##담
관찰사
##구로
각성
세군다
##시켜서
규명
아랍에미리트
실재
##최고
유고
##수산
중형
마르세유
동적
##버린다
##느
해안선
포털
##털
1866
수위
바젤
돌격
##인칭
초나라
행정동
수염
소생
##않
인해서
프로그래머
나름
평론
부류
##사범
##파일
##겸
여사
f
##*
아마존
따라가
민영화
장이
Your
사회당
##해군
은혜
선제골
##57
가져
1891
##春
야외
거주자
##워
찐
공민왕
##시오
##분자
퇴직
산스크리트
속편
매거진
소외
##해양
1873
배척
##e
대지진
마카오
굴복
피고인
갤러리
대법관
봉인
퇴위
노부
##롬
##衛
테무르
##율의
군정
포르
민요
배상
자메이카
##광고
##톨
##度
납
대접
##주제
주머니
액
헬
아무리
상기
##야시
우한
콤팩트
##릴
섞여
##보수
특사
알맞
##통상
받침
##문과
##99
알렉스
##구가
실버
종양
감상
독도
미칠
살짝
##버전
박테리아
대북
측이
##우지
온다
시상
유키
사의
송출
도자기
##국은
##견
##라고도
심야
모니터
사설
알아내
무작위
##효율
앞선
##북한
##프리
##부원군
이례
재미
##널
중산
세계유산
##부와
점진
닉슨
##지수
서해안
주름
##활용
1865
##추진
황폐
실각
심문
떠
노르망디
소피아
마우스
레온
접해
청소
종로
함경남도
진로
##창의
##둔
진한
##노미야
##도움
유성
이치
##규
대동
##타임
사상의
브루스
넷
정치학
##파와
외무부
함량
솔로몬
관목
파나마
##佛
##姜
설문
대리인
확고
##59
쇠
상정
스캔들
CF
Time
군벌
생모
지옥
스님
##72
##수상
##복
우아
α
달라
##레이트
간혹
랑
##인은
관절
기차역
메디치
##1942
##학기
조수
우물
덩어리
MP
진흥
금전
척도
흥분
장제스
각료
##노조
102
토끼
108
##타인
자서전
전세
##85
실존
##안의
장래
평안도
##머의
##행성
특집
##岩
##비르
BC
화상
컴퓨팅
대한항공
해상도
##스런
후사
벗어난
꺼내
경전철
##기한
퍼졌
##노동자
셰익스피어
골격
웨스턴
감추
집착
떠날
애니
묘비
카탈루냐
##세손
정했
기세
##延
악단
안티
단면
##지도자
산이
강령
쿠웨이트
##許
마르코
전해졌
##사전
코펜하겐
움직일
제이
바흐
비주얼
가루
감성
고딕
죽임
애리조
##길이
##적료
##아트
슬라브
뒤늦
서경
천거
까지
인지도
방화
격자
환관
녹화
##회원
만날
여타
##네덜란드
##랴
밴쿠버
et
완수
매진
국제선
팔린
신곡
장애물
128
다듬
프란치스코
##이번
이용하
민사
장미
고생
사간원
너머
주창
레이싱
모스크
240
순차
사카이
디스
싸워
백악기
##룽
오프
나주
대사헌
아닌가
전학
도청
재난
##져서
LA
##기반
연기자
콜롬비
##노르
셰
세르
프란체스코
공리
##미술관
기쁨
Music
자행
회귀
##채의
항만
화약
##캐
##엉
딜런
##타워
서사시
실리
네오
##분기
금나라
피라미드
외형
CBS
황색
분수
습득
프랜시스
결제
리조트
##디오
빨간
##만화
열려
그레이트
##通
헤비
채무
주고받
사리
결핍
1863
원산지
두지
로스쿨
극찬
발동
몬테네그로
소말리아
우에스기
몬스터
1864
##어느
등등
##라트
낙동강
개체군
고령
생리학
오크
##学
미드
펜실베이니아
##악
융
성단
##데이터
브뤼셀
딥
마르틴
왜성
1878
##황후
##완의
이데올로기
##숲
선진국
##〉()
글꼴
##키스
장난감
##말의
##삼국사기
켈리
##논
보성
OST
위안
격투
로얄
송환
##代
##1959
참사
과반
친일인명사전
보너스
1872
내보내
가토
##一
베풀
at
앙
##군인
비싼
국호
풍습
마셜
지인
갈라지
장녀
윌
간직
from
에우
€
전무
안개
##1958
##완
##힐
유생
스테이션
##아인
##자사
##楊
가로질러
지탱
##개소
맡겼
과연
##사진
##허
견고
동물원
히데
National
보르
줄일
##디자인
객원
##가운데
사우디
치유
포식자
강행
##J
대표자
##파가
톈진
릭
##청소년
판소리
##정원
알라
자사
간첩
모차르트
전반기
##MHz
거칠
러일
하나다
위촉
##법률
##광장
스파이
혀
로그
극장판
코소보
우울증
쇼트
접전
##명종
##경제학
극한
필두
##花
뷰
All
공통점
도망치
##왕국
아님
치러졌
근거지
일각
##77
##錄
인과
내린다
##시켜야
연달
사이먼
공수
전격
##매체
가까워
바이오
##교류
경쟁자
스틸
효고현
초콜릿
##트릭
추력
재편
##분해
##문학상
##붉
##인터넷
##인식
서남
신형
필립스
##이치현
라이더
기니
##추
슬하
사마
##진흥
출동
배역
공명
고래
재단법인
부사
도망쳤
로이
독서
거쳐서
몰려
서정
다가오
항로
밀가루
##傳
네티즌
유서
응하
변모
학장
리스
LP
##대원
로맨스
던졌
##1936
재발
볼티모어
뉴저지
수로
##下
펌프
##66
아빠
##냐고
잡히
자리매김
##1918
왕정
##발전소
des
##이라고
##공작
##옥
축성
왕궁
뉴캐슬
루크
##지부
von
제왕
##베트남
굴절
열릴
마차
##홍
타구
1830
##태
ABC
강력히
족보
남베트남
##파운드
섹스
모노
##88
아크
##조합
##老
종자
구내
마누엘
바디
연꽃
편향
플로리다주
자비
부다페스트
##난의
볼로냐
태우
On
절망
하류
##하루
평지
충당
복선
그레이
럭비
##도마뱀붙이
불가피
맞춘
남서
오하
이용객
##右
##制
현행
이겨
닭
소자
천연기념물
일당
아부
앞둔
재팬
사바
홈즈
##얀
우상
어려워
##형성
##출신
데스크톱
##소년
저지른
무사히
신종
무솔리니
탄약
낭만주의
로마자
낡
뛰어났
애초
처한
말단
##여행
##思
곤
분류군
울프
계주
##책의
거꾸로
##志
##건강
목적지
최성기
나미
웨인
겐지
증오
##기도
섬기
##처분
##勝
##업자
직행
연산자
완만
커졌
##블의
##1943
그릴
서리
변질
깃털
끝내기
포탄
동문
##야마
대담
부적절
유족
버그
핵융합
재일
단속
가의
왕과
컨테이너
서면
사각형
##제조
선명
시멘트
상급
##主義
부총리
차장
도사
모스
전멸
게리
레인
관심사
자처
친족
야쿠르트
언어학
보루
빅토르
필명
악명
습관
##1937
아이콘
흘리
바로크
그나마
##04
코스타리카
수시로
자진
##펠
##겔
공화정
##서부
아닐
1875
##부족
근래
편안
진료
성남시
파시즘
편이
알래스카
유적지
진사
##유로
클레멘스
패해
Tour
##1956
조공
충북
대에
##根
##노트
미시시피
##성종
불가
불신
강변
끄
조지프
##큐
아라
반주
##커스
수차례
튼튼
4000
##가격
해준다
옹
연회
호스트
##在
도약
사토
##국당
그랜트
##達
한큐
##物
암스테르담
결핵
IP
##치가
##경찰청
파직
우의정
출
경작
농산물
##거래소
브르타뉴
표출
##지식
##朝
##74
##일체
가톨릭교
##폴리
##마치
피처
화기
##케라
선율
넘겼
이메일
##발사
오노
브루클린
대차
아틀레틱
##1900
중소기업
기사단
##까
수녀
##좌
공방전
##68
가라앉
나간
논하
명성황후
반죽
차세대
국력
##佐
백업
총통
System
탐험가
관청
끝난다
패권
과테말라
##였음을
Center
참패
징집
iOS
판명
인공위성
재해
고온
##코리아
##學校
##朱
가와사키
서포터
간략
삽화
주일
분단
여학생
##應
과실
##따라서
킬
만점
후진
업로드
##렀
USB
마하
에게
굿
##錫
이뤄
한문
##라이
착취
파도
1862
좌의정
요충지
홈경기
##바둑
실은
급여
##장교
##결의
별세
영유권
자외선
##1938
드리
스칸디나비아
히브
용의자
보류
인위
##1957
##튼
브로드웨이
##메리
##그리
반점
레인저스
##92
태아
가져다
컨트롤러
단서
스토어
##시리아
낙양
도카이도
복역
경위
1869
미미
미친다
한성
##郞
구획
채색
##분열
미네소타
걸작
##1933
##1953
집행유예
열기
서해
보리
발포
시바
시종
##해준다
##취
과잉
지상파
몹시
##마시
190
대부
복직
대나무
추리
쇠고기
Day
##마지막
미시
기원후
by
수인
111
요시다
높여
##혜의
거성
##순의
106
##왈
유포
##전달
##랭
곡인
가리켜
##심리학
이바지
평의회
##데르
##옥의
##사기
월터
초상
교도
or
##03
조문
##계층
무명
시외버스
그리스인
##지법
양대
직계
조이
육군사관학교
엄
메소포타미아
양육
##쇼와
편집장
헤이
##바다
##眞
뭐
반기
손잡이
%
##계통
짐바브웨
준장
##나스
몰랐
나비
원활
열악
원한
하프
컴필레이션
##라면서
문자열
##배상
잔해
##수다
##폴란드
증세
##위해
조심
##효
죄수
구두
미셸
약혼
##다스
##러스
재앙
##분경
취할
크로
일부러
랭크
##페이
##지나
단정
성원
##기법
들리
##포트
##원칙
의례
와이번스
##미치
제물
퍼스트
허드슨
오락
##1955
타이어
가르
퍼즐
##84
병과
성매매
##세이브
조승우
개헌
##臣
보수주의
철강
##82
워커
농지
월트
##성적
앤드루
대리석
다이
##분류
##멜
리프트
내포
하이브리드
적발
염두
##시경
포화
쿼크
제로
더블린
##인천
##혁
##으면서도
교육자
샬
##노프
##사지
점포
##토록
니콜라
##펠트
서위
방송인
유니버스
증폭
인산
##玄
군세
모로
프레임워크
##합
로빈
카리브
##향
몸돌
치환
타도
##참
##몽
쿨
페어
베스트셀러
제리
##홈
푸에르토리코
No
울리
##副
##된다면
닫힌
마이애미
##구속
##1932
##1952
##1954
위생
##96
투하
만인
총격
##진이
트라이
왜구
칼럼
톰슨
##内
기이
일설
시리
긴키
이주민
##렐
티저
##확인
1867
왕관
##헨
주니치
##La
거북
쿡
프린스
##베리아
개기
가브리엘
별장
##무늬
뤼
입히
온건
##여러
햇빛
백만
사이타마현
토마토
cm
##夫人
관련자
면담
##非
제동
구니
행해졌
숙소
##고시
104
멘
각본가
동진
삭감
배분
##에겐
##어주
색의
도박
주심
트레이닝
닐
동맹군
김정일
이즈
휩쓸
##모스
장로교
진흙
라우
내재
각색
루스벨트
허블
##사원
생길
##京
##th
영장
유골
##빅
##집권
괌
John
가두
나노
사귀
복음주의
교통국
##02
##반사
비단털쥐
넬슨
1877
##流
##울
##아파트
여수
올라오
승용차
부르주아
##버러
##륙
오스틴
우지
탑신
함경북도
펼쳐져
김정은
##庵
Night
복위
접종
##잉
##위성
실렸
##특별자치시
자립
하키
사쓰마
크리
추후
Institute
순식간
##120
차가운
##무스
소울
##드로
주차
팔꿈치
웨스트민스터
##덕의
β
트라야누스
용암
간사이
정황
발산
##현실
##총장
##사법
결여
배수
열강
해부학
원유
납작
참의
필사
에디
##폭력
스텝
튀르크
##잘
어촌
싸울
##76
##연금
명소
축구팀
완결
물려주
조인
침대
파면
눈치
##郎
열세
##마는
280
육식
##여래
토트넘
##대중
취직
주임
##71
1874
여운형
이양
감리교
씻
팩
##지정
되풀이
##78
본체
주부
##나주
##페오
##다면서
복속
##治
×
막강
로열
##자격
##영상
염색
아키
##휘
올드
순양함
성실
재미있
스탠리
열쇠
카이로
생도
가정용
물결
MS
등단
매직
합창
건전
교의
교제
빅뱅
김포
착각
선제
난이도
##인승
신문사
1879
두드러진
##피해
City
Club
교인
##환자
탈레반
##고리
여주
증조부
법관
풀이
##d
카스
데이브
##기원
##세조
삼층석탑
백악관
강해
위패
지나친
부의장
##가요
##나마
##강화
##락의
정부군
##++
후쿠오카현
부제
묻혀
공고
도발
보정
문화방송
##고속
문화유산
##150
성행
##熙
슬로건
채굴
멜버른
##닐
시간대
반항
내세워
조각상
맹활약
수원시
1840
프라이
용산
한창
파이프
##무장
만년
버마
나카무라
메일
개정안
##강과
할양
헌장
##육군
아테
조니
##중세
댓글
##73
햄
경매
납부
왕성
가닥
튀니지
NC
우림
##烈
운임
재회
어시스트
##대행
##87
##마스터
##창조
헤라클레스
활동가
«
##彦
변광성
교부
##榮
담보
돌아갈
##가량
획기
능가
품은
춘추
반대파
게임기
경건
후세인
포르투갈어
토론토
헤르만
##언론
라이프치히
##범위
소동
고산
##보살
원자핵
생화학
흔들
액세스
당선자
평했
##多
프리미엄
Be
으로
배달
아끼
Group
##왜성
모세
##카스
아나키스트
여럿
채워
리튬
IMF
꾸준
로타르
행보
종업원
##경주
터보
콤
팔작지붕
음악원
안산
반정부
분사
사내
셸
결말
유학자
견
가명
수력
제조사
스탠드
##혁신
헌납
드레스
상행
인코딩
수수께끼
숨겨진
슬램
##이제
아이즈
모터스
썼으며
외면
로빈슨
버린
사쿠라
시달렸
##리오
늪
##호대
게시판
정해져
Korea
역도
##鍾
##보스
##그런데
##지지
애덤스
회유
산요
즈
무로마치
##미스
믹
컵스
애인
정신과
의복
다크
교실
##국을
##250
기운
##하이
길드
양은
배의
##태양
Association
피셔
##1935
나쁘
총무
팜
계승자
북극
파란
고노
##축제
엘런
##기통
GO
회고록
유수
"(
##－
토기
야망
##켈
##사태
##불의
랜드
##橋
앤디
데카르트
남용
헤이안
외상
광자
여성주의
돌렸
서사
##탈의
##전력
피닉스
##賢
##심사
베네딕토
위조
##음반
고찰
펼친
연행
가군
궤
잠입
일본식
컴파일러
퍼센트
점검
온타리오
부왕
금환
출입문
##전시
교통사고
패망
##엽
서초구
직물
우두머리
##노바
토착종
##밭
흐루쇼프
번은
신도비
1859
##방위
세분
경영학
격하
동국
115
도교
아치
조셉
##전대
고속버스
간선
갈리
##에스
출격
##블랙
톱니
수에
##69
지성
##女
아우구스투스
올림피아
##현종
유아기
출퇴근
##곤의
##청사
##1924
보조금
식용
로베르
해트
##공과
치과
평창
녹색당
흑백
폐허
대교
##97
지바현
놓치
##미르
##변
흔들리
주나라
신세
저질렀
보직
##鳳
하급
##컨
받치
현판
페르디난트
##안보
내릴
추운
오일
##봉의
사상가
음절
피츠버그
##어군
##혜
캉
##상서
##세로
합니다
잃어버린
정관
##평론가
뽑혔
출자
추억
가져가
수백만
##사무
리본
리버
종착역
방사
안팎
뉴런
가졌으며
규율
인산화
파나
목판
카르타고
전자기
도둑
문단
*
##젤
무척
야심
불경
정령
딱
초록색
성화
귀신
연희
##성서
밝혀져
Park
장자
떨어진다
##화가
변종
##경기도
발라
임하
중용
발가락
촛불
##1923
교과
아편
탄자니아
##마비
##이브스
침범
장쑤
##線
가산
몰도바
비옥
농성
남방
IOC
패킷
112
이주해
##녕
##태종
관우
##91
저해
##날인
##발생
우라
##연기
##폭발
농축
정국
##동생
""
증식
##국과
친밀
제작진
구약
정박
남매
권역
오만
##우라
테리
##如來
위헌
##파이
##峰
유선
##1931
풀려났
##月
y
##원리
친위대
금강
애국
공안
Up
##New
취향
##회로
리모
새겼
관현악
일리노이주
마운트
불러일으켰
##비록
##공립
##67
토목
##御
##고문
신정
##昭
아군
##코파
##넌
순항
##새의
대좌
썩
##뷰
##인들
압록강
묶여
##이듬해
##습의
##바위
증손
도르트문트
##1921
##保
처방
절친
입법부
패럴림픽
진수
g
##일치
줄곧
##그림
왕래
이용이
학력
##복합
히어로
##도스
조형
초당
간판
마법사
패트릭
##구스
##종목
중앙은행
세이브
호투
##순환
콘스탄티노폴리스
피우
##권력
만화가
구와
북군
친선경기
골짜기
전라도
04
##1917
사이토
느슨
##내각
단거리
갑작스럽
##허가
사슴
반동
##규정
##현감
화장품
##靈
국철
게오르크
신석기
##해냈
##백의
가뭄
아이스
도요
파커
##79
아우르
330
##리터
니콜라스
##池
##仲
씨족
왕건
포탑
쥐과
희미
##춘
##이베이
##상국
##마이크
치하
군산
친한
조장
메카
##1914
##cc
##同
불릴
##81
한민
횡
모건
꽃잎
##94
##훗날
유라시아
픽처스
간결
##밀
사소
창립자
스피커
용해
데뷔작
내려와
kt
요직
##쿠니
##靑
놓였
트로이
섹션
도하
CONCACAF
달린다
태수
미학
지난날
툴
겸직
고층
류큐
무과
역사학
##탕
독주
찾아오
묵
편제
발전기
왓슨
치료법
##萬
해태
독살
봉해
##랑의
##선형
온난
자취
버티
##가정
바닷물
소중
로키
창시
와세다
픽셀
##평의회
프로모션
##적한
조나라
##體
첼로
##』,
컨텐츠
맥아더
잔존
##익
침식
시원
##아르
##’()
배리
판매가
요지
##시트
내야수
##상품
실점
하얀색
##俊
다항식
근사
지질학
부실
##모드
거룩
##렌의
IV
공연장
신주쿠
선양
체내
##"&
구타
안경
##어파
깃
리프
원군
합성어
요즘
유화
장난
쓰일
연주회
##남자
일괄
사지
OB
프랑코
##쥐과
입상
클러스터
##루이
출국
##남성
양파
##시아
테두리
하의
서주
가비
출품
##院君
유진
##韓國
켄트
증발
##마이
대승불교
발톱
웃음
농경
평탄
##c
칸국
연예계
공의
절약
유기체
손님
부양
메이커
함경도
선봉
아라곤
에스페란토
소아시아
##동부
##컬
만을
광복군
승단
합금
자정
##팩
##1925
떠올랐
캠
강당
비스마르크
페르난도
캔
트림
##놀
##재료
자릿수
##고전
상반
컴
급성
장병
##다니
열렬
##으러
기뻐
갇혀
호소카와
헬싱
아리
발기인
##1928
손꼽히
외환
확
중원
하반기
짐승
범죄자
##국내
상고
경지
##對
간호
##높
##지에
가르쳐
270
미나모토노
대관식
##像
모함
민심
감마
##章
##1907
할인
벤처
##팝
오토바이
예의
##옛
하인
취해
은폐
항생제
가드
판례
Wii
만장일치
중합
만류
##키로
##표현
##1951
##형사
사라져
직속
##탐
##星
마스코트
서아프리카
난이
도어
화학자
대류
여긴
자명
유가
비싸
과반수
과격
반포
135
대명사
플러스
107
##예산
##육의
웨이
##틸
##惠
기전
지배했
##편이
##선택
기울이
##페이지
작년
기념일
생리
참전하
대표단
보컬리스트
##師
가해자
후지와라
피의자
가중
TBS
강했
유전체
##혐의
협곡
Live
필사본
나간다
상어
모반
수열
능동
계보
사치
##섬유
##제주
이윽고
##歌
몸체
앞바다
무고
타르
고등학생
안토니우스
반대편
징병
조례
온두라스
쳐서
법조인
교황령
메츠
람
엄청나
##場
##글자
재벌
자질
억울
고인돌
소박
##夏
##소수자
##嘉
결의안
항공편
왕인
라스
패자
평택
넘어서
##참여
##이야기
생생
맹
##료
##성인
##토시
승상
210
리즈
다국적
핵분열
난징
외척
감당
단결
공휴일
##학습
볼트
260
##다양
버지니아주
일주일
메트로폴리탄
##에다가
결장
언론사
사서
투신
끌려가
내분
##냥
꿈꾸
##뢰
승률
##제임스
율리우스
손녀
무단
임정
셀주크
걸린다
##디지털
서한
카프
코뮌
아키텐
내세웠
군림
##쌀
##車
오르간
증강
내란
공석
##k
##렛
항문
염
전구
모빌
위시
`
230
에른스트
##1922
특전
향신료
반입
메모
선별
前
머물러
호크스
사랑과
아산
개개인
##참모
##지가
##인산
여의
판매고
전해져
꽂
러
미토
여진족
대원군
모국어
##끼
모피
뱅크
성기
물류
반감기
##스케이팅
종영
##유리
쯤
떨쳤
선구
##植
##관광
유무
딱딱
공용
표절
도미니카
##노동조합
미합중국
콜럼버스
구슬
폐기물
조연
중생
연산군
가독
붕어
##소녀
요괴
올릴
##변호사
무겁
##을수록
강세
전대
애착
조선공산당
황소
##GB
그린란드
와일드
##奉
유클리드
한데
발판
반론
조의
전수
국제법
해병
개인용
##說
브리
앞뒤
날려
십자
##遠
복소수
죽일
##어인
바뀐다
컴파일
확충
익스플로러
##이자
다녀왔
정려
시마즈
에스컬레이터
항우
따지
재판부
루카
넷플릭스
푸틴
되게
초의
출판물
##로로
##號
##1934
교훈
남원
##셴
맞대결
혼합물
방문객
경복궁
##類
택하
위도
물러난
##공황
유충
신시내티
아놀드
로우
사절단
카디널스
청각
이력
문맥
북측
##호기
##렘
##시위
##맥
##양성
##자산
##비스
##흥
불가리
유년
끔찍
##고기
성품
의논
##1926
##소비
시몬
##겟
명상
##레이시
작품상
오나라
혼다
논평
매킨토시
6000
##왜
기성
##임시
세웠으며
##카타
서산
파이어
겹쳐
형의
매사추세츠주
##북쪽
후세
로큰롤
하행
사수
가세
계의
##중화
펠릭스
##齊
1700
축일
##해제
##1000
라이베리아
##臺
엄밀
동향
줬
관용
수나라
능숙
일렉트릭
가방
세네갈
괜찮
체육관
노란
야마모토
객실
GNU
##1905
##귀족
우간다
##관심
악당
##"》
시니어
충청
대제
찾아와
베일
결사
##任
남동
##애니메이션
대타
##모임
넓히
##愛
헤르
##藏
로맨틱
토미
##菩薩
회견
영동
위안부
가이드
##능이
송도
##출력
문학상
익히
##프라이즈
가르시아
##83
야마가타
처칠
##신앙
##泉
##사로
##니까
##恭
##해질
기업가
두뇌
태어날
후계
박영효
경영자
추장
유정
진출권
릴레이
태그
##국회
##그렇
즐겼
##산맥
정해졌
추서
독립군
여정
##八
소론
낙
##면역
프리킥
##향교
al
크롬
친환경
정당인
영리
##−
즐거움
##삼성
##작과
램
피치
퇴출
##콜
##起
요리토모
알폰소
형편
750
관현악단
##키는
##보안
프란시스코
##갑
해치
헤겔
##尙書
정성
##第
주저
제창
정경
##관이
사주
##포고
##하늘
##학문
##현장
현도
##語
온전
외계인
비스타
쌍성
##93
뉘른베르크
현악
예언자
산티아고
텔레
삼진
탁
재결합
시비
이상인
##온도
XP
##출판
공상
CIA
##蘇
복부
모신
칭기즈
통폐합
##임무
올리버
자판
노골
AM
거병
##아목
스윙
코트디부아르
리우데자네이루
AG
겨냥
입혔
##1908
도산
즈음에
##너스
##寶
##戦
지우
##어린
##팟
위계
##윤리
적힌
칭했
갑각류
사역
##甲
세울
음의
서점
양극
수수
##타르
##스타일
##투어
히데요
Company
후면
날아가
##卿
##드가
케이크
승정원
제갈량
일차
##담당
석회암
##명사
모체
유머
사하라
샤프
가령
카피
글러브
심리학자
##세이
##렉
꾸몄
베네치
##우승
모나코
시트콤
##유부
##상대
목요일
##89
남아시아
##나자
여건
##겨울
##대륙
##역이
진언
오하이오주
다이빙
삼각주
##지명
##광해군
##수석
기울였
수량
깨지
##선거법
##대화
##참의
미야자키
이륙
동남쪽
인플루엔자
쓰촨
##란트
성폭행
##롤링
##히라
##구단
der
콘라트
AS
##기념
경도
##시내
위축
유니언
운전자
지리학
통역
##현과
##콩
댈러스
배향
춘계
##보안법
##차관
담당자
##장인
마당
입술
##밍
##기스
##공산
킨
선제후
자동변속기
에세이
석권
지평
##감정
바그다드
환율
그라운드
##럼
##개념
들이
##판결
##主
##경쟁
헌병
휴대폰
##중량
일러스트
탔
진심
온타리오주
109
##페리
최진실
공판
##공동체
당장
모던
천하
##농
##특정
조선소
Society
바지
##전공
빌드
리어
##피스
순종
##진상
모니터링
##연극
여객기
몰타
##오사카
##이집트
##당국
##코어
##촉
To
##內
전미
맷
서거
탈피
에이전트
##폭탄
동남아
북대서양
부화
320
목표물
##동맥
##총독
##명이
환승역
##書院
KTX
다름
##1927
CP
산시
해킹
마다
대상자
남군
전권
승낙
##皇
##성장
##久
연중
바비
##개정
##라이프
에밀
후회
엘리
용맹
굳이
무능
##고교
사생활
레지스터
다닐
##악기
명과
치른다
의주
파시스트
후반전
화랑
##湖
허목
##간다
NBC
번개
##윈도우
사바나
신입
히스
고을
HTML
교관
우연
빼앗기
맞닿
8000
서안
과다
고로
책임지
장대
어웨이
양심
수도사
출정
큐브
##포켓몬스터
문체
드러난다
만연
야권
##구체
퇴진
부인의
##MBC
기미
끼친
싸운
##日本
##신청
선보인
파르티아
낚시
로잔
경이
쉴
조회
##巖
##式
어려울
그대
##인자
백과사전
늘려
격화
##판과
변했
변한다
##했으므로
##尙
NGC
빌바오
잉크
드미트리
##수행
직관
##여름
병렬
##지향
##방지
어둡
범유행
개신
혼잡
가이아
족의
원심
##호른
군청
막지
La
##1929
한중
논리학
펼쳐진
강화도
급속도
료
물리쳤
Street
받아들일
미망인
동률
조용히
##공정
키워
##지상
트램
리마
전속
후쿠시마현
근간
선대
##敎
##질량
모멘트
청중
열망
기밀
##임금
왔으나
로렌
저널리스트
다카라즈카
기장
콜린스
특기
조지아주
던진
##개선
변해
후임자
버터
##례
경희대
돌아올
구강
경합
기압
##II
##원단
##대교
##설비
캐리
식의
봉우리
##집회
적정
용산구
가져갔
##훈의
동일시
프롤레타리아
선천
도적
니콜
##오스트리아
배반
함장
광선
갈릴레오
토로
불의
잠재력
남조
##℃
저격
스크립트
시력
##카를
벡
길거리
매복
650
##부여
##습니까
재빨리
깔
##'()
배아
밸브
날리
##부르
Girl
##CoA
주오
텔
##FC
텐서
모델링
이어질
작중
부조
우왕
##坐像
감축
원자가
##웰
반향
귀가
##서진
동시대
섞인
야마구치
접미사
숀
처치
##"-
바이트
망치
강대국
구전
고갈
지극히
1855
가든
##농구
볼록
##워치
##국어
낭비
##1904
##대리
규합
직렬
넥센
##타현
야구부
바이마르
펜실베이니아주
113
엘비스
유다
크루즈
대장군
##조연상
상식
겨루
##喜
불량
라파엘
균일
##단백질
적절히
아프
1856
논증
##반면
황자
통신사
##崇
트레
##나갈
##秦
##사격
##호텔
올라왔
흡연
hPa
끌어들이
플랑드르
라벨
계량
휴대용
##하임
여의도
마쓰
##ㆍ
##표시
쫓겨나
브레멘
생포
엑
광합성
정확도
재판관
알바니
외교부
커플
색은
##쥬
##날개
가가
스칼라
슈투트가르트
횡령
정정
##101
황위
내몽골
틈타
##떼
저지르
##농민
제너럴
플루토늄
불길
##黨
피쳐
이리
향기
1815
베르사유
도도
NATO
목이
##국인
##수술
스테판
꿀
잡혔
출사
##신부
경량
##로니
##봉사
차명
합쳐져
충칭
피살
EBS
점성
워터
##연구회
꾸
##느라
호전
##텔레콤
##보드
플라이
지하철역
##청년회
만이
##미쓰
개경
##헌의
데니스
곱셈
쿤
압수
북조선
##화폐
개척자
##정주
아키라
##정보원
교파
사커
##투수
헤더
공황
도망가
슈고
중건
롤플레잉
악곡
##親
모였
##증권
싼
유년기
사악
##形
잉카
Go
글로브상
다행히
실책
1858
##魏
터너
워낙
##콜라
ICBM
천도교
핑계
##컷
해수면
영화상
이노우에
제단
리스본
참수
상반기
윤휴
열역학
요하네스
구스타프
돌아와서
뚜껑
##구동
중심핵
균열
##呂
오릭스
##기하학
##-)
##의무
컨퍼런스
##슈타인
김성수
자작
충고
형용사
라이센스
프레드
##蓮
단수
##局
유타
공성전
부르봉
병자호란
야드
튜브
##노카
##도리
중공군
##皇帝
슈트라우스
모자이크
덮개
페로
코퍼레이션
올라와
##토지
변혁
마천
주거지
애슬레틱스
산재
일리노이
돌아간다
첩보
##국제공항
흉내
역동
과자
흐
듀
간호사
출병
비긴
당사
플랑크
##富
언더
##Robert
이즈미
베스
매끄러운
##자문
당당
##뇨
전열
##공군
접목
아름다움
콘스탄티누스
신한은행
##밥
죽여
데려가
국내선
접근성
멋진
실린더
중고
늘렸
익스
축복
수레
충동
시문
세단
##宇
이세
유전학
와카
키릴
권의
부두
##시드
##재정
##본국
구애
패러다임
상설
소의
한꺼번에
##봇
절제
증축
##넬
##뷔
DS
##뮤
결렬
k
합병증
유틸리티
이윤
입헌
거사
인적
재화
데이트
샌디
청춘
미라
미카엘
##群
약해
교란
후보자
중소
변한
중공업
##과목
방법론
베테랑
##마음
함양
정실
조슈
메가
##띠
표창
##정규
##센티미터
##노현
##하이드
형주
일렉트로닉
영장류
대등
이사벨
요법
부의
지킬
상선
향한다
사다
바리
처마
관위
첸
일선
검정
격상
폼페이우스
##식이
수다
##주민
뉴잉글랜드
괴
1801
커져
법과
몽고메리
젠
이랜드
패퇴
가결
책정
세미나
칼륨
로컬
후유증
##국도
제이슨
브란덴부르크
##리라
시제
잔혹
빅터
미야기현
##당할
v
레닌그라드
퇴적
고지대
금색
그럴
프라하
##토와
동거
집의
##閔
곡식
함부로
사탄
바스크
후난
##노래
사림
행해진
실어
이브
##고개
곳도
스킬
로이드
1812
발착
##에르
고난
유명세
##天皇
옥사
덴쇼
Inc
급수
##쵸
남산
치료제
##근대
실사
##설립
스케치
이마
AKB
무패
월남
건네
스트림
##이터
저그
##가인
경멸
내려갔
##得
##丁
##유도
##레트
지르
벨라
중거리
##총의
실명
농담
광둥성
인계
모태
##베트
수급
다이쇼
정맥
해운대
침수
550
성직
야수
혼혈
고토
일과
받아들인
응급
##1906
##오가
접합
1854
억제제
##쯔
폴란드인
식스
크메르
##궤
다마스쿠스
##노마
사다하루
##나투
오일러
렌더링
오슬로
공시
레코딩
마늘
시찰
##codice
푸젠
대도
수비대
여포
대전차
##라니
고추
도성
##압
모잠비크
##부군
재물
실상
프리츠
##처장
서약
##교환
##CD
건륭제
포르노
##러서는
첫날
##九
##려다
나왔으며
##놀이
Black
통솔
사병
국가원수
##순조
함흥
죄인
지남
##시킨다는
##会
##이루
##맹
##댐
격침
##학사
잔여
##나치오
달력
##산업의
재고
조비
선체
##삭스
알프레드
가려
##장기
사령
친히
##領
안톤
광업
탄두
##詩
니켈
장갑차
##윌리엄
지체
손쉽
올라온
쓰촨성
헬레니즘
자백
##전부
향수
##늑대
스킴
요금소
##학명
즉흥
기조
법전
##110
붙잡혀
##신화
고성
비참
돼지고기
1798
자치주
##방어
\
항아리
YG
##쳐
GT
호화
타임즈
##보존
##로라
우체국
##테러
오아시스
주먹
앗
수와
줄기세포
실증
남송
##高麗
걸맞
##몰
하강
행한
멀티미디어
##플레이어
올리브
##그린
엿볼
트라
1857
율
왜군
MSL
빠져나가
며느리
호적
천국
조봉암
자신감
석가모니
돌아간
태블릿
##베이스
데일리
1839
후드
##모두
##나리
##차역
이광수
신병
원점
##%(
내적
실효
불어
1849
1820
##충
당한다
심근
후베이
서품
겁
부스
이마가와
##將
JTBC
트로트
##땃쥐
##정리
구한
와이드
금강산
121
경찰청
##오프
모조리
##》,《
##태풍
올해
내게
영적
중신
다윗
유길준
##魯
THE
##UEFA
동탁
다람쥐
이회창
보좌관
##딸
PS
패치
잠수
아쉽
정형
##年
막아내
##신호
사이즈
통영
종사자
대인
퇴치
##굿
아테나
##차이나
룰
##여우
인문학
요양
매기
보리스
사영
##센트
안겨
문의
피드백
낭만
독수리
##투명
##글의
윈
##엄
매디슨
북아일랜드
교명
클리어
##觀
##印
##석탑
뮐러
무너졌
몸집
전보
드러난
개로
구비
봉헌
1592
대공국
##스와프
모터쇼
Best
카카오
측량
치밀
##色
막시밀리안
##William
##병력
##가사
##130
출항
각광
##베스
##홍콩
##관념
루이지애나
테르
훈족
##태조
기요
단국
##히메
운동량
호기심
중후
이뤘
도제
칼빈
관찰자
포섭
순교자
게이밍
에드
되돌려
경시
나와서
뉴올리언스
정거장
거머쥐
볼넷
버진
##차장
댄서
##署
문종
##테크
아츠
엉덩이
여러분
전범
##선사
점토
수프
근방
아르바이트
문집
구문
절대로
메모리얼
율법
서스펜션
샹
##清
사카
아이오
##공룡
##회수
르네
##정지
##외국어
마포구
Science
북벌
컷
술집
개축
우표
##民
Rock
쩐
손목
라울
쫓아내
##광복
연습생
풀백
##주름
가면라이더
유목
경호
아나톨리아
##활
기근
##불상
##으론
파라오
범람
전사한
장차
구이
유의
내려온
베오그라드
위그
칼라
##차선
신상
도네츠크
##남매
미묘
요나라
하이드
싸이
관개
양분
도끼
기울
북극해
니혼
병원체
고고학자
개구리
파푸아뉴기니
##여의
##병단
Cup
폐차
신진
키웠
황도
##連
보였으나
##越
양력
##監
줄였
##전설
당뇨병
핵탄두
##인원
독재자
##가톨릭
아이디얼
##딜
di
도망쳐
하비
웨
루체른
단자
사할린
지팡이
레즈
조율
##로봇
천연가스
평의원
엔지니어링
##멕시코
가까웠
##전철
쇼트트랙
##축구단
##비서
로버츠
##스페이스
##$
나리타
걸치
자각
##파티
트랜싯
영사
케이트
괴멸
수필
영정
오프라인
행군
자재
창구
적기
t
##네트워크
단과
치루
하지
인디애나
게이오
추계
해커
아이언
가맹
세밀
##베르타
결투
##1912
##퍼스
##플레이오프
수은
다비드
양면
아리아
까
서프랑크
시차
원내대표
왕명
안드레아
미스터
합창단
##리크
통지
동의어
학술지
##팡
김일
건너갔
터빈
##일기
루나
동아프리카
겔
선회
전액
##미자
걸프
에탄올
##요인
##공파
##전과
청룡
귀순
타이탄
스틸러스
남지
##타자
힘쓰
쌍대
단조
##백화점
오른다
가락
지문
민물
##월간
합쳐서
퓨
커브
면직
인치
##山城
디렉터
Research
##선전
다채
옆면
개화파
##노예
영위
##동기
##濟
##마르
##여부
유식
##클래스
타일러
왕좌
##관은
잇따라
##공기
클릭
가치관
##In
천왕
##동지
억
균
웅장
정직
코난
2500
와해
경종
마르크
프레스
##원자력
발열
이질
유림
기한
주기도
##廳
##협약
고생물학
바빌론
데이빗
1814
돌려주
군복
##탱
본작
중공
거시
국공
송파구
1300
수요일
##Love
구가
##www
##1895
도상
##핀란드
##관구
프로그레시브
##토르
자책점
관성
##중계
일자
##마스
탄력
매번
##변경
##진화
##다인
공법
간사
능하
이동한
천안시
프로방스
보행자
##위하
체인지
열거
##파괴
집어넣
노르드
담임
최선
r
참된
티무르
쇼핑몰
표트르
##科
결전
도보
화소
내로
결실
갖가지
##리트
세븐
##台
수도회
##紀
##라흐
앨버트
앤서니
산문
알칼리
떨
종신
##닥터
레이건
##녹
처해
##소송법
세라
안티오키아
기획사
##淵
##요법
갑작스런
##예수
##National
175
히브리
복싱
귀인
상서
닛산
코호몰로지
맥스웰
관대
쓰여졌
자궁
네트
##작인
##»
##레닌주의
##구나
1846
캡
구단주
페널티
##낭
##園
야마다
승지
주포
벌레
가까스로
강타
숙련
공은
원통
직함
##세운
7000
개월
마켓
##로우
119
급습
랴오닝
조각가
알렉산데르
이모
국의
도야마
건널목
##인류
정의당
강서구
##즐
유익
좌천
반역
원만
국문
자오선
기와
##岡
##My
카롤루스
취
##개편
##츄
기부금
##자유주의
부사장
##）
루시
게놈
바닷가
시네마
루비
1789
품목
1853
니카라과
듀엣
아키타
##루가
##JR
섰다
원에
배타
본능
모교
조우
##공급
해왕
유목민
##郭
1795
색소
종묘
부분군
히타치
오우치
퇴단
억류
##호프
사라진다
부에노스아이레스
자막
우월
출세
광경
라이온스
군비
##어머니
공경
##툰
도키
안창호
##시립
함자
호프
박사의
일제히
감명
1793
스파
##祖
해지
스케이트
천수
젠더
착안
1851
문건
##American
##세요
새뮤얼
##브리지
미첼
123
데드
앵글
##러시
무너져
특명
##쿨
자루
##꽃차례
연임
##치카
서클
영등포구
느낀다
숙박
##해리
##이스라엘
##폐의
잇달
석재
농가
수산
낙하
1852
##에도
헌터
##사거리
항소심
##숙의
펼쳐지
안건
빼앗겼
속이
효용
##케이스
실록
제프리
노후
##택
양서류
FBI
신봉
희박
사흘
두껍
경내
왕당파
성폭력
심정
공군기지
레이디
##콤
집사
##냐는
이리하여
클레이
##논문
굴욕
##원조
미디
오토모
##All
사학
질투
압송
잡힌
##묘의
##헤드
피오
##足
##陸
오이라트
네이션스컵
마천루
혈
제지
##徳
불쾌
나눈다
마이어
들어와서
AMD
##촬영
버려진
도미
##히트
운수
불렀으며
초식
달렸
애덤
강희제
##Z
한정판
사모
무쓰
브리지
초석
퍼텐셜
##도구
부터
미주리
형질
크라운
1847
컨디션
##波
소탕
사탕수수
최적화
##잉글랜드
##중간
슈퍼컵
Way
##금속
##;&
도리어
발터
피스
떨어뜨리
오리온
자본가
##주사
해시
##라마
파격
프로이트
워크
조서
##라드
조기어류
외과
철종
광택
##예방
진원
셰퍼드
##다시피
너희
##선인
##아메리칸
정착민
##스웨덴
자수
루키우스
##려다가
허난성
##국사
사드
##수와
1803
##合
추궁
외가
요하
세운다
##載
##那
##단원
관원
레스터
솜씨
죠
철기
##프레
##夫
##득
##통화
천주
##제기
##높이
교차점
일삼
관군
가쓰
##워스
하순
좌표계
117
##隆
루터교
단말기
name
승선
건너편
미수
스택
##자본주의
에바
트럼펫
카스트
##보르
##藩
##보컬
향교
리얼
예문관
사무국
##주체
##살인
##주군
프로토타입
IS
you
##이브
타선
##청이
기권
클로
시이다
셀레우코스
베컴
맞배지붕
요시아키
공식전
반납
불려
끊이
본회의
모여서
짝수
완비
그레
감마선
한국방송공사
##益
##터키
양념
지경
##바라
마오
히로부미
관저
빌미
국부
오메가
##ro
1792
프론트
레몬
##비와
증원
아연
##입자
상세히
위배
미얀
탁구
##본명
##꼴
악역
아미
넓혀
깨달음
여생
화교
전주시
특별법
##은의
##소형
##필리핀
맞대
무지
마리가
원상
시카
개간
신지
단역
1844
암모니아
##賀
왕자의
##이가
##기종
##淳
잼
행운
엔드
마니
플로이드
교구장
버섯
미시간주
##律
##오리
동맥
##비서관
##雄
래리
##최초
it
##리안
징후
해주
교감
야전
미러
세르게이
새우
##文化
견훤
##이우
##낮
매개변수
##보고서
불평
##상자
##원숭이
효모
122
노르만
기판
서체
사르데냐
가도
##祠
##時代
한참
경부
개막식
자격증
Road
##정기
부엌
그래미상
##란스
레이크
사교
오키
동종
빛깔
결탁
##나이트
시그
혼돈
국면
담론
법제
대목
트랜지스터
화요일
치중
좀처럼
케이프
오스카
##判
니스
COVID
##동쪽
##오스트레일리아
떠돌
##（
베르나
캔자스
마레
##墓
정말로
##카미
나카
##址
클라이맥스
##특수
##나치
쏜
계좌
분개
##加
du
1400
필하모닉
아이스크림
윤곽
민족주의자
##혈압
전란
고성군
래
미식축구
추위
##소가
…
##노드
권세
은신
찾아왔
록히드
##修
사우
##공공
음식점
불명
조개
강성
미인
애매
살피
클라
중서부
금호
##플러스
##른
입시
춘
나인
##뿔
견지
{
하우
##들어가
혹독
옅
스태프
MLB
헐
양위
깜짝
##스티
##司馬
포대
반공
##바람
골절
##영장
해운
##虎
수주
거품
배워
먼로
든다
비방
토스카나
스코어
기민
예비역
안철수
##부스
분홍색
룸
발상
매도
사나이
국무부
무효화
정사각형
망루
We
퇴
두르
돌연
##조항
##방면
로페스
##쿤
식이
쟁점
변호인
##됐으나
##양자
줌
만주족
재판소
##인력
정예
사변
지도력
호흡기
육박
당명
##能
열광
진주시
킴
아스카
외벽
현감
##주인공
##주머니
베이커
떠올리
##해인
조차
l
형광
노트북
주계열
##회복
회부
##오늘
군주제
톨킨
아픔
터뜨리
홀수
명백히
애완
마술
로널드
##org
이진
초판
송신
재래
##기억
르완다
안데스
권익
여행자
바나나
미카와
##常
##장로회
배울
교내
##我
익명
유독
영미
습도
127
##1911
##유형
고려대
지령
스케줄
##발견
캠벨
꾸미
참모총장
##瑞
어리석
보유자
어쿠스틱
##주연
청하
세키가하라
자연수
##屬
##프로젝트
초록
일간
수증기
소란
바이어
오비
영사관
저스틴
챌린저
옥상
네덜란드어
독실
NHL
벼
손바닥
비엔나
##신학교
##臨
포위전
트라이아스기
센티미터
##태후
블루어
숫
##어판
##수리
##직원
설사
풍요
맞춤
헤어
##오픈
마인
116
High
##가시
반대쪽
##툼
재정난
번이
시편
통킹
세미
##위안
##룩
##타트
묘호
지방관
##리온
가온
##門下
결집
불복
사각
보어
공영
테헤란
##대인
당은
##분리
용의
도안
윌리
납품
##랩
이완용
##터스
부관
League
돋보이
잉
유폐
아이젠하워
혹
앙골라
마에다
복소
##타리
가로막
##게이트
숙고
장강
도읍
스텔스
교통카드
##평균
수질
##@
하이든
114
##짱
주둔지
##이치
다이노스
속보
의병장
처했
독립국
##族
현명
클레오파트라
노엘
양수
##라이너
위법
편하
친숙
시게루
채집
중개
걸릴
마라
미주
파열
절도사
달콤
##꿈
##≫(
시냅스
유엔군
로저스
월북
##관직
그랬
배지
##羽
##若
예배당
##～
##프라
천적
##유산
하중
만루
스맥다운
##포럼
수퍼
완성도
날렸
반열
습성
플랜
앤드류
##방위군
분류학
말소
턴
##James
##우선
후신
##신고
유물론
충신
산둥성
Records
서바이벌
##코르
##☆
아이작
탄수화물
##표기
서둘러
원치
성명서
##系
의제
딕
##거부
이건
##케도
쓰러져
분쇄
##이렇
##타입
선거인단
지평선
헤센
몽케
요코
알베르트
단군
##대기
뉴저지주
알려졌으며
항전
##KBS
##서장
마린
##공부
##찬의
연유
네임
직권
화성시
##身
쿠페
대머리
##라오
##예프
##고려사
##라프
루피
##名
##좌파
바보
##숭
엔트로피
##튀
송진우
시흥
기생충
표결
모션
순례
리그전
118
페드로
프레슬리
아약스
Jr
고분자
언젠가
현생
##삼국유사
##변수
들어올
근세
개개
휴일
##수입
##노인
고작
고취
궤멸
폴리스
타지키스탄
##동사
보라색
°
서태지
##處
얼터너티브
라쿠텐
##논리
##랜
들어선
그래픽스
입찰
임계
에든버러
##광무
교재
바랐
원정대
##音
웅
York
##레드
##스나
##慧
##나우
##제한
##閣
##恩
##오염
화음
##규의
호감
된다면
##Y
##합병
##1909
조교수
찾아온
국방군
팽
과세
겨울철
수렵
발진
균등
1836
놓쳤
승하
윗면
Out
힐베르트
##半
##해와
열렸으며
잔디
강압
경부선
##容
유학생
군용
현미경
##謙
변장
신익희
##히로
퇴사
American
1841
거느렸
국사
오웬
글렌
니키
##沙
영천
필리스
앵커
공방
거액
신기
상상력
콘퍼런스
마코토
낭독
풀리
부인과
오인
##펙
북상
볶
참모장
스탠
1791
개전
호른
찌르
힙
##竹
가변
##미니
감염자
vs
##요시
꽃받침
이해관계
##外
##1894
윤치영
대법원장
##비율
이나
생성물
간청
##사정
마그네슘
1837
파주
영수
피어스
갈릴레이
##자가
가져올
바를
애벌레
##체가
##결
##화면
##젊
워싱턴주
국악
도마
버드
바트
트윈
공물
관내
다리우스
##독재
원문
누락
유태인
사대부
휠체어
획
깁슨
##숙
의대
165
카지노
##튜
안산시
놈
##특위
과감
##쿰
권위주의
빨강
지리산
##득의
새기
한자어
남북조
헤이그
포상
일한
사죄
##체인
##히어로
해일
탕
남양주시
석기
다마
##작곡
감찰
##바리
##密
수식
질의
토론회
##주도
돌아온다
베다
가곡
도형
던
권투
테라
Song
씬
뭔가
칸트
로크
##글리
세포막
재기
불문
쓰러지
아우구스트
급기야
프린터
반공주의
첨부
성채
군데
투사
괴뢰
장단
버밍엄
후추
알현
밸리
엔리케
##기생
이별
##蘭
로드리게스
##進
콘셉트
다이어
스테파노
DFB
퍼플
늘어난
숨겨
유감
##믹
사무엘
오세
넓혔
셔츠
쫓겨났
조병옥
취약점
##위대
##이상의
부여군
포위망
발광
바투
##‧
도핑
##아요
모터사이클
구토
보라
중첩
서북쪽
##곡선
탄광
현황
킹스
##유물
견딜
소크라테스
로베르토
경기력
픽
한국군
WHO
패주
투니
##몽골
오고타이
벽면
##1592
##아주
747
##됩니다
입적
썬
아바
찢
쐐기
혁명가
전곡
눌러
1776
청교도
네덜란드인
##당신
House
암스트롱
마른
압둘
숭
언어학자
차수
켜
##지난
봉분
동창
용매
원동력
감탄
평방
##돔
##견의
##치를
##구미
##성경
장전
교육학
맞섰
수목
정오
GPS
디에고
후반부
불태우
##分
금고
누워
동산
##트럭
포인터
벵골
##샘
AI
대사간
계투
문고
비활성
이명
한마디
##미시
상환
더구나
조합원
노화
##분쟁
##Charles
기울기
캘
범용
독려
지날
안심
계략
생장
출혈
공화주의
포유류
켈빈
북베트남
1796
##노스케
##대수
허정
진해
앞부분
다짐
고국
띈다
##덜
허버트
##으
##해져서
##International
올랐으나
##장사
Don
기타큐슈
청군
##카라
##오브
연극배우
방정
남단
악성
##茂
독립성
기피
결론지
호가
피크
##심리
공손
노스캐롤라이나
피사
오딘
##무용
##護
대파
대제학
교지
발사체
요셉
##봤
민영
환기
투병
중앙아프리카
성교
##允
##빵
금산
##군부
정량
##세상
간소
##멤버
가정의
제고
병풍
빈약
레퍼토리
사생아
증직
##이유
##원은
사이클론
340
태극
서기관
릴리스
사산
이오
둠
도난
##웅
##慶州
출진
완투
변론
거제
지난해
아나키즘
태양광
끊임없
서기장
##조절
화풍
MIT
##수송
문정
##맛
직류
이바라키현
서남쪽
##웨스트
미노
Soul
##일본서기
##洛
릴리
무궁화호
EMI
새턴
잎자루
This
정주
취한다
합산
받아들여졌
##예정자
본사가
##자네
야행성
길쭉
갱
숙명
Project
##매일
##스크립트
루머
음색
불변
갑신정변
욕설
배상금
예식
##방송국
##시노
##교원
율령
인노
나가노
##예수교
피지
스톰
하카타
이성질체
##三
##로버트
어기
감히
노벨상
##毛
부식
끌려
퍼진
중앙정보부
Heart
여주인공
보였으며
격전
인슐린
##로와
인성
동아리
마구
현저히
기욤
##晋
##세르
바레인
대니
벤피카
예견
##기초
캅카스
등산
구시
친하
랭
하이퍼
도합
##翼
역모
트리오
##복선
미주리주
##중공업
외무성
##실업
##총리
부산광역시
연하
레오폴트
즐겁
펠로폰네소스
롭
음주
##HD
쟈
##異
##톡
매듭
생몰년
철근
조광조
Like
##키를
##유엔
바늘
드레이크
소용돌이
개표
버라이어티
산호
고속도
##상인
한복
##倉
주둥이
엘리엇
호크
대니얼
알바
고제
##야스
##천사
행정관
튜링
다가가
모어
친절
영화관
코일
사무라이
08
원곡
동체
불펜
##지는
솔직
둘러
구했
매니지먼트
기다렸
파주시
Station
생산자
원망
##에이
##土
메릴랜드
비올라
수수료
루카스
해자
분과
발송
관동
혹평
파랑
엑스선
##니스트
황하
화북
천명
126
##마디
특혜
오닐
##문명
여겨져
《"
##LG
1835
##마리아
##파에
태평천국
건륭
남한산성
회차
옆구리
쇠약
195
마을버스
##맘
##처벌
캐논
##상작
포틀랜드
머큐리
올라갈
청일
##아마
##그라
우기
##서쪽
##부부
경치
##슈트
코스트
##스토니
펠
SV
사이언스
앞장서
교묘
##앵
장택상
##인종
들려
테네시주
길버트
보냈으며
리비
##1913
무서운
엄격히
개최지
채권자
##보내
위스콘신
##PD
웨슬리
휴게소
시티즌
철제
##제어
Co
개그
음역
마땅
##였음에도
총알
온전히
##節
달라이
갈라진
쌓여
##煥
델라
효능
펀드
과업
치수
도색
##유가행파
USS
##次
골자
프라임
##105
저축
##순서
내쫓
경감
가이우스
고분군
부결
현은
이와테현
근위
메르세데스
틴
소대
as
##자체
War
##군대
테크놀로지
##고양이
설득력
대국
##致
##링크
부파
학기
계몽주의
테러리스트
##더러
쿠데
실리콘
농경지
우대
##윈
1831
방공
그리스도인
스테레오
##토프
봉작
파우
코리
##천시
##受
정치국
개찰
갑작스러운
##David
중생대
##과제
##頭
환초
GS
야구단
노무라
##상당
대입
외삼촌
합쳐진
전단
아닌지
##심판
서예
지켜야
베티
##파르
매료
201
철자
동북쪽
##든다
변속기
##역할
##캠프
£
반정
시미즈
밑부분
농작물
울음
클라인
##전환
##기장
끼워
때리
짚
비대칭
##淑
샘플링
발작
트루먼
혈압
나르
수류탄
에코
##호골
진위
##스러워
강좌
##르노
점심
##반대
##진과
무자비
##법상
열풍
##월드컵
미우라
고모
평상시
하치
다름없
비잔틴
##기병
시판
오우
##스코
##用
쪼개
체크
트래픽
슈미트
연장선
##만족
연주가
창씨개명
환산
테크
기교
몰아넣
코카
주제가
내각총리대신
##학술
연출가
그레이엄
##산소
##운행
숙성
시나노
무사시
뇌졸중
낙타
##타로
①
인민해방군
국산
스레드
##목표
딸린
독단
##그것
##宅
##싱글
리터
##均
제천
안녕
광화문
꾸짖
분장
개그맨
충렬왕
투기
##실제로
##니즘
핵폭탄
##침
##개년
발부
대열
베이컨
보호자
1832
##위험
고독
##옌
##關
본진
토요타
##대장군
##보물
##皇后
마돈나
##가역
땃쥐
명도
스탠퍼드
##大韓
##1896
교향악단
다치
표제
능통
쇼크
와타나베
##전문가
이교도
중앙아메리카
발이
총애
##位
종실
전철역
신고식
소시에다드
끓
헤라
예리
##과학자
##인증
줄임
엑스포
선방
탈바꿈
남겨진
##갔으며
##姓
보르도
맨틀
##現
풀려나
길목
속씨식물
창업자
체격
서로마
##사당
리얼리티
촐라
우승컵
판서
지휘봉
소켓
해석학
계파
##浩
앙상블
구석기
이범석
적재
##당초
퇴적물
녹말
Dream
관구
코민테른
리사
성악
시아파
잠비아
##스토리
이설
##350
시모
태그팀
접경
버락
##杜
②
##경험
##입법
##에로
예비군
성대
황산
상류층
휘두르
하얼빈
콜린
우에노
대금
##네이션
행방
낙하산
인테리어
##마제
훅
아디
평신도
빈센트
##울루
찬탈
외래
뿜
낯선
샌드위치
##유전자
법규
민권
비지니스
바빌로니아
길러
클로드
비호
이목
1842
불법행위
##최대
수영장
볼륨
키트
감독상
모후
##와인
##듀스
왕릉
프리큐어
폐간
##부정
만기
##일수록
명맥
테드
1790
카테고리
규약
##아동
벗어났
실로
드래곤즈
골수
난입
##kW
##뼈
스톤스
##고급
떡
And
##랍
정언
훔쳐
##춤
지나간다
##곱
##운송
155
분양
섭씨
선상
포교
지에
##은퇴
변천
비트겐슈타인
당기
##지회
##県
##魚
1806
Act
수감자
피자
비어
독소
무찌르
##흰
애기박쥐
제이크
앞장섰
1100
##기온
도표
리차드
##소재
소망
##오카
##命
##로움
Party
##初
키르기스스탄
##그라드
델리
생제르맹
천마
테오
##邑
##괴
미요시
데포르티보
에버턴
유세
##咸
볼프강
궁지
1794
Service
##찌
올바르
##라든가
진다
##남북
124
무수
대뇌
바울
광둥
니케아
트란
군량
##감염
정글
요도
##분배
##물리
직교
특이점
다닌다
안티고노스
산정
처단
알렉세이
아브라함
펑
지반
암초
접시
스팀
목욕
##잭
##리치
480
메디
클럭
주살
등기
임박
물리학상
여야
사법부
system
낙태
기념식
최남단
금화
조던
달려가
출발점
440
##哲
사멸
LCD
급사
표준궤
오즈
페인트
달리기
사르
사이공
##대항전
##베스트
에트루리아
##교리
점성가
##잇
브래들리
##점대
##본관
##1916
탭
결부
맹렬
태극기
구운
음운
출소
##평의
총살
##이용
싹
보호구역
Island
지느러미
##레아
##어업
섬겼
하동
명장
##盧
바뀔
북조
앞세워
학창
발기
전극
땀
메신저
##사장
당파
##居
State
##剛
##장식
##묵
##몇몇
##뜨
새해
##수스
로만
보주
##사도
Award
##以
##요한
초대칭
통계청
폐교
외할아버지
개인주의
틈새
쇼팽
##경비
봐서
하산
Church
##브리
##아라
##사유
소진
다운타운
##誠
##丹
통계학
##웹
##수정
타파
번복
불러일으키
##울산
생산력
동대문
##대우
##아카데미
하층
등록금
##儀
##ha
번지
##1868
##주부
도마뱀붙이
Do
##토키
##봉승
s
가우스
출근
##통계
##Don
모여들
출생지
가한
##유사
##브로
충실히
계약금
보답
놀랍
##하트
골라
플루트
이언
##헤임
##可
정유재란
##시외버스
오카야마
다카하시
이준용
##い
퍼스
##""
남로
132
바란다
온실
##합동
입출력
##독립당
옴
##α
김정
듯이
##정과
베버
pH
신과
들였
오브젝트
바이든
콜레스테롤
템플
##男
드루
##밑
##岳
##삼존
증손자
강희
시그마
##盛
##`
##莊
커티스
가모
인류학
AT
##기금
##이슬람
치마
비기
막바지
대여
수메르
추월
##마트
USA
랜덤
동티
우산
##바스
이론가
토리
미즈
##리드
광시
지하역
스포르팅
김종필
오산
태워
불러왔
##시리
엘리스
##진출
생물학자
김치
##房
Corporation
##네이트
##마이클
폭우
지원자
목장
엘살바도르
변증법
필리포스
브루노
##청주
제식
뒷다리
DB
현청
##여우원숭이
##You
마력
차질
무너뜨리
밀려나
교복
##왔으며
##토모
말린
운석
##》)
고압
##성분
##소유
국수
##석이
절의
타고난
##이미
구석
유실
Part
단기간
강판
APG
미카사
##파트
그늘
퍼부
동차
대해선
##SS
##160
상시
추축국
145
일간지
##어린이
##mg
쿼드
변조
욕심
학비
게이츠
하시모토
반유대주의
필적
케인
매질
기묘
보이콧
페니
헨
##溫
막혀
##고래
발행인
중앙일보
크리에이티브
활기
##나중
비둘기
핵실험
##대강
전투력
서대문구
##합리
곡면
단념
옥타비아누스
따를
격분
의향
산책
나뉜
코팅
##사토
불명예
명하
카불
용지
자갈
폐단
##穆
목걸이
노획
히노
군락
호날두
깔끔
코미디언
정동
남양
매스
노바
스위프트
Boy
이케다
##香
독신
빼앗긴
경덕왕
##부리
1821
370
##퐁
주시
시암
##퉁
##근무
까마귀
촌락
분의
##격투기
##간부
##박람회
##口
코로
척수
앙드레
##지검
사체
##시각
자연주의
투고
미약
##전형
##톰
##兩
롬
교우
##창작
수온
1843
흡입
랜드마크
머무
허베이성
##수원
센타
##후사
퀸스
가나자와
##汝
UTC
산술
##1915
할지
타우
어도비
##발트
떨치
남조선
강가
신한
부활절
##못
##연합군
빈민
인솔
Windows
중합효소
##군주
오렌지색
무너진
닌자
도승지
상법
각인
재원
##전후
##피아
열의
256
##晉
핸드볼
##DOS
디렉터리
##훈
난자
후견인
##曺
기린
카리스마
잔치
콤비
타이밍
원종
몰살
부풀
요시노
Can
가면
아역
##서인
이끌어냈
김해시
기치
국고
엄밀히
가시광선
문물
185
교토부
총학생회
사표
##색이
모아서
호러
##주석
민의원
##기후
울타리
King
임업
거래소
##은지
구스타브
시에라
톨
에드먼드
플래그
염료
##識
탐정
읊
##珍
마그마
##取
##입상
##보리
창안
귀향
민생
취임식
##검찰
##문인
베르너
##舊
거미
이오시프
지뢰
737
양궁
잠실
##친다
스케일
고르바초프
##브라더스
##업계
익사
##留
##파워
일어났으며
파르마
주세페
##징역
켈
포토
영문학
내림
시공간
차분
해인사
키워드
국무원
수송기
근본주의
월급
일례
##버시
Back
고관
임종
아랫부분
목화
##모어
조르주
면화
그루
조엘
섭
승마
귀퉁이
대청
##석사
밝혀냈
연마
어쨌든
생후
뜨겁
동포
##번역
클라리넷
##嶺
괴롭히
##鶴
준동
닭고기
만찬
리포트
불어넣
##기아
##계승
##諸
투르크메니스탄
##미아
##希
아이튠즈
리퍼
신주
##렉스
오미
시부야
카이두
##첩
합법화
##텔레비전
##계수
혼용
피스톤
색조
드나들
##기념관
1845
크리스티
##당했으며
루이지
교주
##ℓ
##龜
##純
아뢰
##叔
취락
##증후군
허들
열람
줄어든
##정확
##수록
간편
민주공화당
컨벤션
표상
##갈래
##툴
##진주
품계
무척추동물
총액
퐁
부탄
안후이
종단
무예
제반
귀양
누각
##사업소
여러해살이풀
헤지
아르눌프
전기장
명예훼손
기틀
보궐
플레이트
전쟁터
서귀포시
##토라
매립
습한
FK
집전
##청과
툰
아이파크
호리
손책
결단
##토사
남의
측도
비약
##충분
대면
섬멸
영하
범하
마거릿
대한축구협회
결점
소주
달래
아가
가네
##성단
아야
##團
강대
##이야말로
빠진다
##용품
박물
플로
카잔
명중
재심
목판본
담장
##v
권력자
전환점
##합작
유민
##교육청
파스칼
##赤
간파
동북부
흘러가
아랍인
##洙
##柱
##올리
본디
수호자
디나모
리그컵
화신
##포로
이지스
HMS
진의
면접
##화상
율리
차가타이
역습
##렌즈
배트맨
고문서
에반스
말러
상쇄
화학식
친형
##자식
##발행
##할수록
##澤
미숙
여객선
방탄소년단
정년
쟁취
##보전
##間
군도
##원정
베이직
어필
##邊
##어라
딜
제니퍼
교화
공예
##가루
##마운트
펜스
캔자스시티
##에프
핵산
##曲
여관
메우
리하르트
##이념
해류
제품군
##방과
은둔
전동
세포질
1810
##사자
허물
고승
포자
맛보
생김새
강화군
##港
올랭피크
전산
청자
공관
관철
목격자
705
불안감
##시와
파인
##설이
째
1783
공학자
악영향
평안
전라
비트코인
내려지
##友
브람스
연어
##브레
아름다움을
비스
맘
미성년자
##住
게이초
##顯
##아계
##증가
덧셈
탐욕
한겨레
##遼
##후반
강박
가입자
초등학생
실태
경영진
남반구
이르지
##점수
자치령
종용
그간
우즈
차림
종가
크리켓
##샨
성자
피렌
뽑히
##太子
예종
페미니스트
무라카미
’
##묘지
레즈비언
서양식
##한글
랜디
감기
##경보
심혈
논산
서울특별시
##용어
##아령
##레딧
낭
회군
민가
유이
세토
미들
##公主
제방
포뮬러
보살상
##추의
강국
##노총
셔틀
##국적
쓰여져
상한
냉정
당부
이치로
신인왕
##스러웠
##영웅
##향상
찬스
전반전
크레타
서아시아
노던
오를레앙
EC
날카롭
##내부
왕후
단판
##체험
하리
##화재
미에현
that
테네시
##삼의
체첸
카이저
낙향
##산면
##장면
컨소시엄
##용량
과수원
##區
고속철도
걸음
용사
노랑
몽골어
에다
##사카
##吏
사연
##兼
##기존
성충
정나라
라자
하구
서던
요코스카
후쿠다
지병
어딘가
##으라고
드레
추밀원
휴양지
크리스티나
세르비아인
열중
하체
적법
떨어질
대문
하룻밤
탄환
##워즈
차량기지
옮겨져
z
상은
반증
샌
퇴화
1799
팔라
급하
르노
수하
신작
캡슐
불명확
해설자
비료
자라나
##학파
쥘
##죽음
미트
마피아
##패스
##靖
##욱
九
##懿
##기념장
소드
##따
거센
이튿날
본다면
옮길
심신
연구실
일의
방비
##하인
##카야
탄성
발명가
##브라질
판권
초능력
그리드
겸손
##바로
##아라비
선서
당도
구독자
뛸
##통신부
홉킨스
제노바
##이세이
비행사
가파른
승천
양손
##파라
알레르기
##헤이
Good
고다이고
##完
산조
##였었
차차
대법
##桂
중학생
##대형
129
반일
제작비
##교통부
##부위
안중근
United
도부
##大臣
##蔡
리오
겹
호찌민
위즈
통합진보당
인장
##将
세컨드
##법원장
개찰기
밝혔으며
전교
##디스크
대학살
유혈
여긴다
##위크
교배
##보상
버려
해산물
1813
예속
순천시
1804
모를
안면
윤리학
선한
피에트로
실크
따내
##도장
순찰
AV
샤를마뉴
요시노부
어선
모리슨
비야
##中樞
자카르타
##草
최장
##麻
##유통
에르빈
높일
북진
##고속도
알아냈
상향
계책
시즈오카현
##敦
1802
미겔
재보궐선거
로렌초
##니치
##곰
모셨
원정군
CM
여과
##출연
콩쿠르
AU
기함
XML
가역
1809
돌진
##원자
바꾼다
##도서
표준어
##시조
킬러
뉴클레오타이드
마취
##시켰으나
##조참
반민
유망주
인출
암수
##캘리포니아
오징어
del
실물
삼위일체
요가
마초
코르테스
Mnet
소학교
구식
청문회
뜰
여름철
푸드
유희
유우
##확장
##감과
라스베이거스
장엄
전황
엷
##제일
북극점
이스
그리스도교
일렉트로
거주민
스테이
정규군
##別
연나라
콰
줄리아
본당
펩타이드
##관료
유품
친교
잉여
##크기
수강
분화구
플러그인
양산시
야구팀
대진
##천문
총상
##트랙
신겐
원술
관아
리바이
넘버
브라이언트
##風
##진영
노릇
무기한
1805
##区
−
##셜
인민공화국
체온
해수
배포판
Blue
##1898
거장
입교
수역
크레
##루시아
루이즈
증류
지린성
##資
##통로
멜론
디비시
대문자
견습
고이즈미
유가족
##침의
##저항
불황
어떻게
트랜스젠더
유추
박차
배당
신뢰도
##일명
눈앞
포천
앵글로색슨
캔터베리
몰입
학년
##’("
광동
전횡
##문고
인턴
잡음
속국
정종
선단
스토
757
전망대
##원종공신
##王后
##좌랑
##치아
징병제
뺀
##브라
미신
205
넘어섰
율곡
블리자드
##주자
효자
산인
##서열
1834
##Q
당할
분투
추진력
국물
네이션스
##시안
##具
던전
합체
협의회
안타깝
피력
공무
##진보
비의
und
조소
라면
##나르
##}
##찰스
##페
##장직
압승
어린아이
석상
트랜
시동
##비판
아과
기물
앞다리
망막
##게이
카톨릭
오목
##樓
##라카
서당
방황
혼재
##물자
컨설팅
##1897
##학적
습기
##目
간장
운동장
시술
144
템포
룬
뛴
기공
알브레히트
카레
잔당
전사자
쫓기
민첩
안성
회중
##웍스
##부상
##祐
Baby
과선교
의외
그물
크리스탈
내려왔
성북구
380
해럴드
요리사
독감
1824
총체
##토가
##랙
##出
##학살
1833
보나파르트
현악기
##이거
트로츠키
금동
한니발
원주시
다스
##상수
놀란
편차
맞먹
##레인
부사관
설과
기념관
심취
완벽히
##수익
##블루
테란
감리
조현
##상호
공지
육류
메사
이따금
##弼
유창
##1871
곶
138
AP
소시지
##부도
##業
무가
##히토
컨셉트
레너드
컬링
오리올
실드
##IUCN
가져야
##제공
확고히
고바야시
사고방식
기독교인
##Paul
항거
최북단
##픽
##감각
서역
면의
편의점
an
세제
강진
미완성
##대비
Light
히말라야
자객
화의
사목
리치먼드
일진회
##목과
Lee
남극점
##특급
광배
152
##우르
##George
콘스탄티노플
코넬
##쇠
아타리
발단
장덕
피난민
2023
음악인
##졸업
146
미혼
마이크로프로세서
쌓이
채플린
##탁의
##포스트
어드밴스
For
##염
프리랜서
##규제
화친
스파이크
이시카와
##隱
주둥
불로
퇴학
##우크라
외쳤
일축
산간
트레이너
교착
##화물
##한국어
건국대
안양시
신빙
##nm
##팔의
##1884
명목상
매핑
근거리
다섯째
708
심포니
버나드
##루프
바스
채무자
셔먼
울주군
본초
##타카
##러브
신예
언더그라운드
무마
나카소네
분담
##위상
##위반
페레스
비아
과도기
Are
##화이트
##병사
##학년도
안주
##로브
현과
몬테
알베르토
갑판
마쓰모토
포리스트
나카모리
서보장
상회
아소
전해진
직각
Vol
##시모
응력
계란
사단장
코러스
야채
극심
매월
포진
America
##명인
기술력
##제이스
침착
색소폰
##티오
탈수소
모용
기후현
##빌보드
괄호
##딕
비서관
손수
##방안
로베르트
마저
남경
돌고래
치킨
위태
##두스
##융
코네티컷
원이
기꺼이
명절
##음식
움직여
이색
해와
레오나르도
경작지
광부
파룬궁
##리언
##섭
속현
아랫
흑색
소라
##스쿨
##Live
근본번뇌
##서부터
남짓
##104
##천억
##PC
##議
##야드
##파로
주계열성
산둥
내수
주황색
광서
풍기
격돌
헌제
##시사
궤간
캔디
##사우
자존심
##先
망하
##No
레비
##자율
##MS
1818
##胡
입안
누명
영산
점령지
##로켓
족장
##극단
##克
히로시마현
##캄
교회법
인터랙티브
로열스
나시오날
RCA
일관된
액수
방한
지루
조교
백두산
맞물려
상권
캐나다인
예금
쥬
위선
액티브
##몇
밀착
시트르산
River
발화
오자
디오
미트라
현관
나리
비무장
볼턴
번역본
당분간
간과
타이거
##지구의
표어
GPU
사키
##委員
##Jean
##麟
##얼굴
추봉
##실과
절멸
##이지의
치솟
박격포
말라리아
등대
머피
껍데기
##머스
봐야
라리
깼
변방
덩치
해남
버퍼
##解
##포장
증설
기가
##된지
정설
##모형
##사업자
거둔다
생산지
케이블카
##견이
##니카
##政府
그려졌
픽션
취입
퍼레이드
사회주의자
##火
시료
도지사
##Battle
들판
여기저기
영성
##전인
뒤지
소아
산체스
마카
##丸
북인
##보조
후학
##탱크
##레코드
공해
코페르니쿠스
정칙
##토기
무릅쓰
조석
초보
유니코드
밀어내
마셨
이오니아
후버
##옥시
조직원
##루트
브루크너
갈라
퓨전
수행원
은화
바쿠
침실
하드리아누스
지원군
멤피스
##st
알파인
도맡
##ft
That
##데이비드
승패
송금
전임자
##발달
무신론자
##호크
##중부
슬롯
모기
수녀원
##지시
모노이드
출제
##바시
강아지
지로
파트너십
쿠르
어종
강호
225
경쾌
꿇
##One
공소
승전
쿠르드
바울로
##발라
##안동
##。
에미
시영
##충의
##트론
##f
##연도
Top
공기업
##틀리
경제력
린다
방울
##1902
##나토
##―
남측
성찰
달라질
회합
거물
아틀라스
듀크
##끌
홀로코스트
자그레브
동프랑크
미모
##원사
스트라스부르
크롬웰
체세포
질감
찔러
아미타
도라에몽
##교체
돌풍
##103
안드레
연해주
성행위
속박
채운
인디애나주
##닷컴
##산군
심했
그라
##흥원
양조
밀워키
##in
비스콘티
310
퍼거슨
동이
인대
비키니
##쿠르
##도덕
군집
##고구려
근소
보임
허구
주니
일면
조짐
##180
찾아갔
##機
팬클럽
미처
엄지
민선
##부의장
벗어날
포식
콘스탄티노스
헬스
활자
궁핍
의인
등반
처남
돌궐
페널티킥을
##연간
조준
주군
##금액
##선우
##레벨
에볼라
에스파뇰
OECD
달인
문중
##대칭
뒷부분
국채
##圭
밤하늘
##리더
##개방
섰
##화성
이동해
게시물
토착민
카리브해
##戸
##리투
아르메니아인
##라다
터진
경은
상과
##Le
##因
大
핵연료
광주시
데르
윈터
노브고로드
##리코
기주
케니
페미니즘
알려준다
##恒
조밀
갔으며
365
Technology
여태
##나기
택했
##연장
플랜트
만화책
##少
헥타르
09
##그래프
재주
행차
제향
명왕
##親王
유성구
##운전
스테이트
##야당
걸로
보인다고
코시
히사
겸했
##World
강우량
깔려
합세
속임수
1816
글래스
재가
사학자
자석
판관
##Black
단발
133
##현지
##제이
##사우스
리키
융기
##이곳
정이
브루나이
합장
연기력
항저우
체르
아오모리현
작사가
줄어드
##燕
##샵
NT
갇힌
전동기
자력
헬렌
준하
##국시
환생
##학당
라오
인맥
억지로
성추행
대주
##혈관
드러낸
AB
교직원
##데뷔
동족
메스
산불
역행
리허설
290
##수요
헤이룽장
폭주
알론소
머리장식
토스카
상동
키드
세세
전과
소변
판별
적성
##상사
##수립
뺨
생태학
팬덤
아사
##봄
##스트로
반려
##깊
옥고
##사회학
##스톤
좌완
##만세
구명
자성
420
성찬
원제
계약서
##고조
202
주스
꽉
##塔
리바운드
근심
05
황갈색
퀘스트
코코넛
Star
요시쓰네
캡틴
강탈
세례명
##으리라
##敏
그걸
##키가
##색한
경마
장조
극성
설계자
두터운
전체주의
1808
스코트
청조
야마
가와
테슬라
대표인
신비주의
때마침
##타시
분별
##색은
회랑
##카메라
문어
살롱
외젠
고요
##구균
터뜨렸
##奎
무안타
##지청
##니시
##병합
꾀
식료품
이뤄지지
##설정
활력
하르
##강사
선언문
벌써
생가
토드
차라리
가릴
##가을
친동생
규장각
##예전
메릴랜드주
##플라
미카
도나우
마땅히
##세인트
페스트
Ⅱ
##如
카우
##노비
신궁
보츠
##완장
##斗
대적
"'
직사각형
##그라운드
금리
경부고속도로
##運動
##오니
임베디드
추앙
사실주의
미르
##복음
디스코
격노
주청
혈청
##였으니
음경
##과일
상파
##Let
스토리지
##≫,
청탁
##자동
##엔드
크리스틴
수차
크릭
웅진
광명
자부심
투영
소관
여수시
행했
Big
향리
##헬
##타이완
단련
봐
버크
##펫
##全州
익산
정몽주
##코사
두기
이사로
괴테
##토론
##也
집현전
밈
지났
##베타
유예
##비평
시어터
빅토리
칼날
UK
음식물
진핵생물
택지
내려진
##²,
소피
난쟁이
##FIFA
뺏
##티아
##오버
숨졌
세그먼트
무공
##노부
로펌
선우
##저압부
사조
##불안
숭실
노사
유린
##오토
피했
제타
쑨원
황해
차후
노선도
##강점
지배층
하디
수능
파멸
팻
##곽
나날
탄탄
웸블리
처해졌
몰렸
##운수
1828
프라이스
해구
1817
눈길
1807
##푸르
반년
##공민왕
##安東
##원주
익주
영지주의
외화
집대성
##도선
서비스업
구독
##夢
파급
약사
균류
##결성
연례
##교도
##兵
부산물
현무암
성간
##大王
덴버
맥도날드
약학
제사장
뷔
파스
스티븐스
##妃
사로잡혀
베르나르
연방군
팀원
지단
##본기
∼
약제
데려오
쥐라기
절터
재야
우화
일리
처우
##우시
##商
가져와
총합
##구인
SD
귀의
1775
쓰러졌
상온
산사태
픽업
##화로
장정
##푸른
춘천시
1787
배럴
##구르
평온
남구
차리
빼내
웰링턴
##品
동군
난간
##토피
##코트
상감
요시타카
미네소타주
받침돌
리서치
움직인다
법조
##135
무색
국명
체질
도자
산기슭
##’)
##워킹
바쁜
강구
절충
신세계
##준다는
다녀온
글래스고
아닐까
망원
만국
라우터
##책임자
간염
850
발트해
라치오
브리트니
카일
잠들
표류
RPG
척추뼈
발주
나스
##宜
선발전
간디
##마인
페라리
쉐
##중화민국
여운
기형
##孟
파월
강물
한눈
분가
##대조
##법안
##석유
학급
남해군
후천
로런스
외피
황궁
##슈테
반칙
양방향
초고층
기악
감형
틸
##드라
##펀
핀다
산투스
춤추
##다발
##102
아파치
##조작
##부모
음소
##으려면
David
완패
부록
한도
##DNA
애호가
학부모
##대사관
구한다
##1903
룩
관광업
Festival
코르도바
이탈리아인
위엄
보호령
카롤링거
스캔
위아래
즐거운
의금부
아케메네스
겸비
육아
사법연수원
악용
##피아노
담화
저작물
##오른쪽
##성명
무지개
##전용
약어
##University
북마
벚꽃
##사슬
통찰력
헤일로
입힌
##스토
수양
델라웨어
신관
헬라
코코
브리티시
파이프라인
##DC
하스
##케스
심복
돌려보내
##페스
요시히로
마인츠
##정류장
군마현
##리프트
1623
페르미
위안스카이
단호
③
##민중
밝혀내
##목록
린네
준위
공급원
관동군
theory
재조합
하이웨이
농민군
후각
154
함포
비시
한탄
쌓인
##레일
고후
코베인
##타우
링네임
꼬마
호송
거쳐야
be
사옥
##돌기
비핵화
혈액형
양양
매장량
시성
친필
앰
인더스
가석방
아즈치
넘긴
##시르
##십의
##1901
묵살
레이아웃
시나
##신성
포고
윈스턴
##레이터
##라이스
##포항
##남쪽
소치
몰려들
소수자
##비밀
바실리
##대군
봉황
##노리
##室
가오슝
주상
##ｍ
##히데
##구치
페인
버펄로스
##방정식
조제프
국민회의
##지휘자
##랏
채팅
##경로
종교인
계엄령
##피터
##미야
##공무
아카
##세가
##氣
##제자
##사단장
##典
자연히
범퍼
비명
시라쿠사
##밀의
##예정
##페더레이션
우쓰노미야
서장
압둘라
강유
교두보
파탄
##약칭
##140
1825
커리
엘리자
마타
상나라
##軒
무궁화
##정거장
중앙선
##일지
원통형
오클라호마
금방
누릴
##형질
자연사
추이
익혔
##亨
끝낸
그쳐
괴롭힘
겉모습
흠
온몸
##오구
등지느러미
공평
게오르기
바덴
미움
명명법
나포
설법
만네
방계
여명
전시관
차드
오미야
송시
01
시마
근연종
Raw
파이터스
원더러스
묵인
##力
오차
참배
국세
##행렬
영세
포브스
파샤
우랄
##사면
##원수
내통
연일
행방불명
쾌락
타타르
랭스
충주시
레저
훔치
켄터키
##모노
##느냐고
##선진
결속
실황
칼데라
서드
울트라
부등식
포켓
개정판
##상하
##다크
액정
##정서
판독
병용
잔기
##달리
##눔
##월경
홀리
마운틴
김천
기쁘
메르
키즈
##쿠라
##獻
##裕
##쇄
##캐스트
도기
GM
##볼트
소작농
##한반도
##220
호스
##스레
레바
다이스케
주앙
##기호
세브
버틀러
유약
오보에
##활성
솜
영연방
에테르
##甫
충성심
2600
미화
가우
궁녀
구덩이
접두사
사간
탬
##탁
##흠
슈바벤
카세트
에인절스
그립
다항
서훈
해양수산부
##직업
초고
전량
##냈으며
트렌드
##실천
상체
현안
최우선
1788
모질
해왕성
##믹스
포워드
인척
교서
건국훈장
창덕궁
##리기
터키어
국경선
외출
스펜서
윈난성
소나
옐친
##메드
##효종
누설
조시
카타
##靜
BMW
득점자
게임즈
에이미
##奇
로런츠
써야
다카시
방문자
호스팅
가환
울창
북반구
##벡
미쳐
시안
급감
모면
아픈
##구락부
1838
마주치
카운터
홀딩스
##여객
##備
1819
##컴
심볼
용품
소유주
뉴기니
엠블럼
키루스
마리우스
살린
문관
올라간
CCTV
사보이아
##肅
스피어스
##β
합천군
배송
영종
서킷
석가
탈옥
노나라
##하마
주교좌
정할
되돌리
승소
행태
실장
시설물
이권
##峴
##해졌으며
시작점
##헨리
루즈벨트
카네기
박수
##貴
적시타
##시도
공사관
크로스오버
모티프
##깨
##쿄
연선
스코
##리프
##THE
더욱더
##360
##증진
##티나
연승
##면허
##바퀴
이봉
##만장
203
##라크
집단군
##녹색
Story
트라우마
게임스
##일보
##綱
진동수
##운용
##정청
기복
보두앵
##성공
ID
와트
도저히
##조가
##範
움직였
팔려
은사
##농장
부락
##言
윔블던
핵미사일
실격
부스터
헝가리인
신앙고백
##첨
창녕
그람
##欲
매튜
무비
상대론
횡포
해피
##125
고귀
내일
##비상
교섭단체
유의미
##분화
##상학
시킨
가선대부
##—
1826
드롭
푸른색
##於
뢰
보육
사중주
프로테스탄트
보이즈
노스캐롤라이나주
##復
가야금
프로펠러
광종
치소
리간드
tvN
멕시코시티
킵차크
##궁주
##동경
Art
##국민회의
교신
회자
밀턴
엡실론
위세
덩샤오핑
공생
##텍스
##연결
말엽
##경우
동결
인삼
##炳
랜
접할
##제학
##튜버
Show
##嚴
흔들림
남아공
시에라리온
이전인
##교단
본드
은밀
의리
트렁크
프로토
나카노
총파업
코니
UFO
앙코르
도고
##갈색
종착
수화
벌어져
관람객
용납
면치
자동화
##235
클라라
흑자
##고용
금관
윤치
신대륙
모계
용역
집약
내밀
교동
세간
프레드릭
Down
청장
문교부
형이상학
연사
##효의
정약용
채웠
스웨덴어
얼스터
##황금
##더블
우크라이나인
징발
셀프
##나트
##역명
휘발
소마
##사슴
칼리파
외직
타로
보이저
교통량
무신론
함의
##330
##지휘
직역
공모전
##바이트
마우리아
What
##워터
알린
수소폭탄
투자가
##측정
##남용
##來
##대전의
민원
##경영자
축약
저널리즘
담수
##티노
농노
##플라이
고용주
##테일
수훈
##禪
종주
성상
##보로
아브
베가
존의
##양면
이각
프라이드
엘프
##댄
심법
피타고라스
##鐵
##실제
##회계
쏟아져
낙인
밝힌다
##평면
보손
부딪히
반대자
해발고도
질책
##종과
플랑크톤
##동포
방어력
탄화수소
##단식
순응
Little
##웃
탄산
더운
##丘
##상공
##http
갈망
학식
수모
세워졌으며
##사마
착오
기침
금메달리스트
##바이오
##自
원더
패의
만물
색인
위해선
소감
##5000
봐도
프로필
진폭
어스
속출
광역시
청정
카바
기동성
시리우스
Red
총명
조계
내려놓
##苦
부응
불사
시연
콘스탄틴
수생
영유
건너온
##만을
##파인
에런
맛있
카탈로그
상석
예멘
기절
##호주
응고
휘발유
조반
전소
탈라
졸
Entertainment
##해결
##유기
얽힌
안기부
##경남
풍미
##레프
전조
홍익
머니
147
##메이트
은하단
소선거구제
볼프
##호수
##전원
잡스
CNN
##적자
조그만
태클
주루
168
##구장
가부장
절개
##백제
##節度使
가봉
##철종
##부서
##양현
개혁주의
예거
드니
##106
##와도
어니스트
북송
수험
환경부
136
##게스
넥스트
##대만
##》《
##테라
안전성
##부처
변명
슬라이드
##선거구
도의
시모노세키
흑사병
뻔
알레산드로
광무
슬퍼하
##1870
##鄕
그레고리
아폴론
##흑
면도
협연
굴곡
뱅크스
뿌려
##마당
식읍
리저브
둑
아프간
##펀드
##후왕
##상대식
에페
밑면
통찰
판의
독학
마이니치
게이머
##토니
예민
##콘텐츠
Games
공격력
끌어들였
연좌
올렸으며
##今
##춘추
아저씨
##제인
굉장
##리히
##하나님
환호
낙엽
중견수
블레어
참가국
##거대
People
냉방
열전
조예
##노사
명륜당
소포
##오모리
##頼
등각
회색빛
클레어
펼쳐진다
긴장감
##109
쿄
##유전
원거리
##카쿠
노이즈
생산물
체구
지오
지낸다
주성
상투
TBC
1780
##릭스
모국
빽빽
대대장
##쟁이
MPEG
박지원
##廉
##持
갈비뼈
##페어
시간표
앵
마운드
플뢰레
##히가시
##위너스
훌린
##카페
##인용
##호가
수선
더더욱
##낙
##1899
##양산
툴루즈
동급
펄스
유기물
##이외
빨라
##하드
##320
관서
코딩
UI
Home
##엘라
##초대
호로
수조
First
아비뇽
아가씨
군역
각오
##창고
세타
시라카와
오스트로네시아
효성
에이지
심왕
##린턴
##貪
##발표
핸드
애틀랜틱
대학원생
베른하르트
장시간
한류
##전술
##재건
여가
목동
##디온
단양
영양분
산발
다량
뉴멕시코
##다섯
131
입회
##진단
에리크
레프트
사카모토
사이고
포메이션
헤딩
9000
레프
##USS
순사
육사
##승인
수표
계모
156
수양대군
원균
아미타불
##라시
검사장
연꽃무늬
양평군
##소닉
1784
손잡
경향신문
##111
##隊
내보냈
폭발물
그려지
##참고
평화상
##수당
프레더릭
거창
곧장
##주이
##시작
##보가
무당
##잠
압류
총탄
문하생
TOP
블레이크
사비
유구
AD
##변동
거둘
디비
아소카
쌍방울
여류
##연산군
경사면
##鉉
##졸
응축
도식
조언자
화원
##보급
나빠
글리제
주필
##출판사
##대혁명
돌아보
인도주의
##한다며
쓰러진
병세
고창
그래
##오이
##터리
월리스
중류
청렴
##牛
##티오피
페트로
큼직
구워
브룩스
##럭
제르
##이카
레버쿠젠
##콘스
하나하나
씌
##表
퍼져나갔
##비리
##표로
소량
쿠키
##경과
##영원
153
##총생산
할지라도
##離
##검토
자켓
문란
재판장
상층
##연령
아명
펭귄
대교구
##서적
##보고
늦추
루키
##보호법
##동방
불허
##가드
저항성
SA
##식과
수세기
##경상북도
앙주
은색
##爾
##롯
흰개미
쇼난
##勳
성가
뒤편
##乙
객
터져
회기
##소원
중앙유럽
151
쿼터
##라즈
##1890
으뜸
귀족원
##데일
포츠머스
부차
허나
1763
##이트
깨어나
다지
평이
슬픈
뜯
보급품
카슈미르
##속곡
##정이
스타트
토고
Line
마애
샐러드
##니즈
염화
로리
흐른
붙잡혔
##드림
아핀
Die
Hall
끌어내
붙여서
##기업인
내슈빌
137
고운
콜라보레이션
당과
꾸려
##사후
그린다
어부
막론
장본인
심도
##鎬
##리카
아이패드
편평
그란
##運
##가공
복건
눈썹
유장
논산시
소프라노
##소니
존호
폴리네시아
아유
알레
##부품
세레
승부조작
제니
파드
베티스
라이프니츠
##지하
김나지움
선거법
《》(
##베를린
주파
무한히
가속기
기류
De
221
접했
##문은
##맥스
이슬람교도
이집트인
Young
시련
명망
본받
반혁명
##普
나뭇잎
덮인
##렙
##라리
카운트
초순
종일
가나안
##강도
##먼저
##而
##慈
라치오주
나선다
##祿
무왕
##侍中
오와리
의성
##단층
##후지
감염병
로테이션
##단일
참으로
정규직
노름
원뿔
울릉도
##체로
##저우
##촌인
Network
되돌아가
허셜
최강
일약
##요건
##아기
실종자
서지
가쓰라
곁들여
웨이브
군기
성조
##녜
휘말리
##행진
라몬
알렉산드라
횃불
우여곡절
##출
아드
##이랑
##홀드
ft
##수소
##우가
경호원
##108
##比
유망
제후국
질적
포스코
통신망
##만과
계획안
—
짠
##도인
카트리지
타악기
죄목
천지
SUV
게르
##메스
베르디
##果
헤르베르트
##댄스
##브리튼
육안
요구사항
벌인다
복도
Game
출몰
베라
다이라노
하이델
신안군
청두
Moon
에린
두부
##정의당
동반자
마사무네
##플리
166
내려다
고조선
##카인
##파스
노먼
발상지
##Michael
버림
인도인
##언어학
생쥐
게양
##추가
비대
아우구스티누스
혈연
승화
펴낸
파피루스
##라이드
체액
냉동
우뚝
##착의
##380
##자키
##전지
교각
유배지
##축산
##연구관
섹시
매표소
##메틸
도큐
이영호
폈
##무로
용접
한두
##항공기
나아갔
950
시역
라이스
주술
웰스
루소
낙관
매트릭스
##포크
부정부패
기의
모자라
대통령령
##아침
##벤츠
##환원
서곡
잉태
페르난데스
페니키아
두른
은밀히
1797
리브
현대식
선거인
##동구
마키
도금
disorder
백지
예우
유계
하이젠베르크
206
하야
화물선
유보
염분
##Thomas
적혈구
##It
##240
##엑스
적당히
푼
뼈대
제패
거느린
##이라크
cell
거제시
아르타
엄호
카파
악한
밀려났
절지동물
##秋
부제학
##노시
땅콩
##1866
끌어들여
올림
공직자
##벡터
각운동량
망라
##권한
##정변
몰아냈
벵
명료
인구수
매출액
난폭
함축
작화
##복사
##감시
오카자키
애용
야마구치현
쇄도
미켈란젤로
고증
수사학
발사대
바우
##크로스
세이버
갈라진다
수니파
서군
단사
커트
클랜
박중양
##선군
마르티네스
후륜
누드
##옛날
뒤셀도르프
적시
펀치
##팜
슈퍼주니어
##구도
나뭇가지
##유학
##寬
학생과
##정체
청취
##상담
쌍용
사투리
##아크
##Hz
쇼펜하우어
##보인다
소방관
망상
코린토스
의용군
명부
##어는
무굴
의탁
##한때
파르티잔
공양
##능
파올로
기마
나혜석
미야기
루손
##시카
피질
암벽
##개미
블레이드
So
부딪혀
케이지
베니스
벨리
납득
공병
##구글
부계
햇볕
회생
##EU
에센
책상
##板
밸런스
##모음
전문학교
다카마쓰
존재감
탄원
##생태
오카다
미일
결번
수없이
전령
전폭
게일
##CH
안달
##실록
분구
테너
야스
맡겨
황태후
St
me
이동식
짝사랑
베일리
##輔
방호
입선
언약
##브랜드
집합론
##文學
화염
준다는
대세
소각
##屋
중산층
다방면
은신처
모더니즘
동대문구
##다거나
##수업
James
프레디
더글라스
되돌아왔
경구
스위트
Now
잘츠부르크
##현은
##전도
##기단
##크로
##블리
해머
##라틴
간통
##관리자
산마리노
리히텐슈타인
##硏究
궁예
##국왕
##-,
##벤처
마틸다
판의금부사
##인회
##스트로스
만슈
##받침돌
193
따라야
##매우
##統
##지능
##소수
씨름
광석
커진다
##법학
##陰
나우
뜬
여호
북단
##섬네일
조그마
죄책감
슬럼프
쭉
177
##버튼
##단순
##교향곡
착
##우림
모셔
도운
##기둥
필로
금이
록의
성동구
본대
라디에이터
ISIL
골반
##강릉
남코
석불
##察
헬멧
켄터키주
트리니다드
##랭킹
Dance
##基壇
가시마
##사냥
경제성장
##우수
##동화
##머신
##최종
1822
w
##한스
148
종반
##교토
##113
탈선
고스트
스프
베이비
로망스
후쿠이
극소
대관
불멸
##메르
##콕
AEK
빈번히
낀
외야
시킬
192
변주
레지스탕스
##무리
히스파니아
##세인
시라
셀러
유미
정역
##나카
카트
풀럼
드래건스
사브르
캡콤
##공유
멘토
곤도
특질
디랙
변할
##노이
미흡
와카야마
트리니티
퍼블릭
##전주
혼수
변성
크레이그
##박정희
##망원경
흩어지
주택지
취역
미시마
White
선적
하녀
마라도나
##이크
##유수
##茶
전문의
슈타
공훈
전군
##스코틀랜드
광원
##녹음
##太后
##六
윤원형
가자
이와키
꼬
##볼넷
도파민
유미르
수혈
옥중
##로크
호프만
천자
한해서
콜라
##스턴스
##버드
##밀리
##서구
##서가
찾아냈
문은
처참
신정부
묻힌
엘튼
서커스
히메
안드로메다
간사장
위급
유니온
##코로나
알렌
배심원
앙골
제법
콜레라
카르타
초음파
한방
트루
##참모총장
##雨
블러드
서계
혼마루
사극
##코마
관중석
##질레
의석수
군소
터졌
번역가
난방
크라
노후화
풍화
장서
아호
명기
레스
스털링
집합체
##평양
430
##그래픽
##東京
중진
철원
##와서
##쟈
만하다
변함
세인트루이스
라인강
세관
양평
디바이스
코덱
엑스트라
故
입궁
이스턴
시즈오카
##줄기
최치원
의종
시퀀스
저술가
찬반
YMCA
다케시
##외부
틀림없
실력자
꾀했
KB
##나간다
##산국
누출
대혁명
어근
News
##高等
##차인
1770
부트
##레크
레슬리
피에로
강인
새의
건반
침팬지
##콰
##圓
London
안드레이
보그
##베크
무안
역전승
사모아
부평
공격자
##衡
지장보살
구스
현내
스와
클랩튼
펼쳐졌
##국민회
비정규직
##분포
##표본
##지기
세차
Council
코레
##동굴
134
##역대
다진
징역형
삽
전집
중국식
수월
##해짐
하동군
방학
도요타
시스
분위
플레
관립
Great
외로움
치렀으며
통도사
시주
롬바르디아
##정맥
개와
문묘
##진지
##강원도
러닝
176
163
##WHO
1593
모리오카
##DS
샬럿
하와
편집기
만행
금품
연화
고착
##1885
관리인
알베르
수탈
##보트
착한
일일이
##동원
나기
##사라
##흔히
183
잡종
쓰러뜨리
런타임
States
##워싱턴
브로드
매슈
에너지원
##성전
시녀
배합
첨탑
Arts
##주임
칼리프
포레스트
정시
태세
에스터
레반트
소장품
Business
봉토
에치젠
㈜
에리
와다
쇼니
생물체
요트
홍준표
털어놓
기약
덥
고려인
하버
플라스마
정찰기
백자
히타이트
히데키
폐업
Times
특징지
유난히
추석
도전자
쫓겨난
와이
나사
##세라
오마
식단
##기관차
호놀룰루
지원병
##칩
총영사관
태정
모른다고
심층
##器
남중국해
복잡도
##토크
##仙
박자
##비츠
접견
리의
무용가
폐암
##받침
옥천
시외
옷감
참석자
연필
##殷
##평야
영월
설계도
지브롤터
마사코
줄어든다
정반대
강서
어리
유임
타개
외손자
##원반
자위대
수뇌부
##경관
##등장
매달려
##융희
##우루
끌려갔
잔재
##신이
익산시
불륜
재건축
스포르차
피리
뒤쫓
다다요시
창법
덤불
밀양시
##종위
Su
##왕복
##助
940
도플러
유키오
##107
기쿠치
##다이쇼
Academy
필기
대양
##도상
##葉
고비
윈드
1811
기만
강경파
원화
##법과
##禹
총수
워런
세웠으나
##祭
참호
엘레
페론
빌럼
호위함
##선교
라임
스튜
07
변주곡
부적
스키타이
##그레
##본이
꾸며
프레데리크
눈동자
명창
교육감
##후쿠오카
##예비치
줄리엣
##꼬
닉스
배드
트레일러
지하실
아키타현
##싶
복사본
난해
##켓
바친
지배력
##집중
매개체
점막
조나단
143
단추
포켓몬스터
오자와
밧줄
##의약품
##중독
##공산주의
레티
보우
백혈구
국제기구
##소서
##홍의
##真
피고
10000
유모
기장군
진흥왕
##作
##각본
아사쿠라
##성체
아와
폭스바겐
##머니
지크
실습
임팩트
##닉스
##스러움
진왕
김원봉
##지형
내뿜
말레이어
폭도
주간지
##to
어쩌면
1680
애스턴
분분
향이
390
포터블
본점
무분별
1778
##于
460
##簡
##타임스
##특이
##부인의
##모스크바
235
##우트
글로브
번진
##刺史
해수욕장
보니파시오
이스마일
경무
스타드
##判書
콕스
##트레이드
나설
용법
은유
교통부
167
중년
휘말려
리소스
##페르시아
그게
수에즈
일절
신구
풍조
##이동
중대장
병상
말투
무제한
##首
윤회
헤르메스
테베
자로
도르
안드로
관사
##애플
도망친
로시
슬로
천구
술탄국
##DVD
산성
저희
##덴쇼
사가미
보병대
제시카
런던탑
분리주의
미달
##여진
##항쟁
굽히
근절
즉석
##z
1829
그로스
##촉진
##그루
시어도어
경직
##표면
##전남
##연수
##開
메탄
아카이브
노미
단언
만회
자유주의자
오름
도에이
정한다
도이
밀정
##무사
생원
178
우르바노
헌종
군관
##조어
용모
포니
석호
콘클라베
간언
성왕
총신
즉위년
죽인다
##존스
보카
페라라
프릴
에드워즈
##루브
Boys
고케닌
진척
한학
중앙당
보수파
질타
천만
직선제
##대응
##충돌
페달
HP
##출장소
##도사
##경전
황금기
##득실
지카
##설치
사탕
배웠으며
고인
##버지니아
오가사와라
##布
고전주의
하마
찰
키케로
##하고
바티스타
군자금
##사리
목욕탕
역병
숙적
외전
##교실
##450
군산시
라디
필리
인조반정
니제르
##亮
UAE
말버러
린치
##self
클라우스
세무
##방해
다각형
공교
##확대
제트기
아산시
도와준다
##글로벌
남진
신변
##경력
엣지
맬컴
은행나무
##요구
심슨
연대장
Who
720
장신구
붙인다
진봉
발문
마모
##尾
타블로
Paul
퍼시
아이누
에미상
랙
수족관
출연진
##브루
장크트갈렌
##수인
##자살
##의미
212
##유공자
차내
노원구
##산업단지
악몽
나일
##요금
주동자
##찰
박혀
호종
약품
스티커
##멸
발췌
##OS
글쓰기
이노
그리핀
찬가
포천시
헤어지
이삭
수신기
1597
##피오
위클리
매니
속명
밀교
시노
##지붕
무안군
##미나미
니콘
무인역
양립
브란트
##클로
##코로
##船
드러낸다
테일
타계
평택시
교통수단
그럼
척의
Management
재래식
프린세스
##231
도호
사사키
아쉬움
1827
군마
##秉
스테로이드
알카에다
분실
정열
##만주
안토니
들어올렸
분전
레버
미그
마한
병영
##烏
##지내
사림파
##교구
##슛
시흥시
선데이
도킹
재킷
초회
##푹
##로바
워터스
뱀파이어
해법
방전
대각선
열등
##진행
멧돼지
##라르
납북
다뤘
달라붙
##모모야마
##데리
산화물
베니
굶
##저널
##정은
와이파이
중선거구
노히트
버펄로
청혼
중남부
창세기
##식민지
니체
통째
##옆
##돼지
##난다
##응우옌
평시
적과
악마의
##1600
##뱅
1823
자작곡
##考
##崎
사천왕
목포시
어룡
##버스터
스파이더맨
##박근혜
외래어
다졌
원판
책자
권위자
에리히
선례
정파
Sun
##포가
완충
##리얼
##調
162
대정
삼중
형태학
요안
##로동
호메로스
매트
공고히
플리머스
살펴볼
몸소
이로쿼이
금광
##실베
아드리아
수집가
피폐
연패
내시
엉뚱
##캉
튜
209
요한네스
##아리
가와치
##釜山
##저축
가디언
IEEE
그라나다
김영
An
주미
교직
눈부신
##Peter
##따라
오리건주
덕양구
215
위그노
##재배
진구
일련
고구마
##준다고
소급
공성
칩셋
##미사
조망
이완
숨진
접대
##까마귀
##부윤
##́
잎겨드랑이
마산시
브래드
관악구
네모난
로라
기뢰
스포츠카
오리온스
아민
이항
빌리지
강수
경색
스펙
굴뚝
##창원
Power
리버스
포용
경미
옹진군
##병과
시발점
HTTP
##트레
410
중합체
##판관
##칼리
1777
에이브러햄
##산지
지청
비상사태
골대
중증
어댑터
##호르몬
##당은
브로
##포르투갈
전출
바이런
##함인
제보
구매자
간택
##오름
Airport
Robert
##型
분이
빗대
사망률
올라섰
가출
효시
씩
고어
사별
유력자
##부호
##인방
지원금
##教
##이중
도우
블라디
##셸
의사당
아오
초본
돌출부
##수출
크로노스
제복
##나폴레옹
##119
##공인
문경
##공수
마티
##경북
선인
이시다
서재
이동은
따라잡
##爲
레게
측실
주자학
##석과
통근열차
짝짓기
##kHz
좡족
##警察
##+)
투척
##스님
변의
연명
##자나
##바닥
재귀
중임
가처분
관공서
청계천
퇴계
병약
보행
맥도널드
퇴거
삼남
위스키
마샬
##에드워드
크레인
울림
##무라
에렌
##가슴
##冠
주법
부적합
172
재촉
포세이돈
꽃가루
소르
걸스
알림
재적
볼가
BS
수동변속기
##地方
에밀리
이끼
종과
법대
비겼
##차림
##欽
약정
마사유키
양지
##대사헌
##컴퍼니
개폐
나가사키현
역무원
화승
고고
##소프트웨어
외적
##수법
##더라면
경영난
고심
William
주방
데이먼
메이어
기네스
뽑힌
마쓰이
##보훈
검소
도울
네바다주
물고
하코
연작
어귀
직사각
유스티니아누스
졸라
또래
관악
전리품
크리스천
팩토리
인기가요
야후
정장
여장
##히사
##정사
##平章
설리번
##트레인
일본국유철도
브로스
에미넴
회동
##지요
누리꾼
친근
판화
시급
숨지
넘어선
아워
다면체
힌
##이리
협동조합
각별
염원
왼발
남태평양
몰린
##보냈
나돌
고뇌
서대문
막히
신조어
2030
혈류
복고
녀석
레지옹
##뱀
수사관
활화산
물색
교학
1648
평양성
##둥
##웨어
##黑
##나크
##필름
CHF
갈아탈
문인석
팔레
다뉴브
##물리학자
법학자
##리자
##집합
알아볼
쾌거
진보당
달라졌
울루
사춘기
남해안
카메오
갇히
##가입
기려
##\
##꼽힌다
##1800
비행선
확증
다롄
테레사
익룡
도조
기울여
1636
최고봉
상징물
워킹
##반경
모음곡
##수호
차갑
알제
요시미쓰
##舞
사마의
증명서
통영시
삼가
왜적
테크노
선수상
다이오드
서간
논설
이게
다키
##수집
##행복
196
번사
국권
수자원
##대역
생활비
##민회
정치범
진사시
필라멘트
형무소
##관한
139
사담
정유
지세
프리메이슨
Sound
##하원
##피질
메이슨
영공
##짜
초명
몸값
방이
##우상
##스카이
##줘야
전륜구동
땐
잠자리
스탠더드
흘려
자이언트
##関
존스턴
랭커스터
##府使
직구
石造
##超
이뤄져
##일본어
##신탁
힉스
힘러
##훙
##지하철
SE
##나선
림
놀랐
낙점
##업과
##우편
마이크로파
패미컴
대사성
플레밍
SQL
신속히
자위
1453
호이
##조성
##론가
괴로움
용감
##매니아
수찬
경원
쓰가
속옷
##覺
포병대
##본과
##카가
##구이
##산이
풍력
##칼의
모회사
첨
말라위
##유르
선덜랜드
##장론
표현주의
양모
권했
벌일
브리핑
나타났으며
##기적
##물론
영화사
##사학자
제철
##희망
경인
정액
뭉쳐
##직과
##비교
명동
고루
##도청
##OH
##워드
프렌치
도치기현
고상
귀여운
Union
식생
##카운트
벌리
##승리
보건복지부
암살자
##부시
##니르
##밸리
Get
##營
완승
양제
##条
펠레
후백제
##내륙
녹훈
에타
##카나
##坂
좌안
Thomas
세미놀
사령탑
##사학
##銀
이승훈
사다리
옥타브
합격자
##자세
비웃
호에
영등포
포구
##자와
아가미
그리피스
##성동
##일과
##實
와이어
##퀸
금기
##樹
작용기
##장성
타이베이
김홍집
##보단
##빠
단량체
대식세포
##라사
드리블
안드레아스
네이션
재통일
코다
##114
##니코스
명지
펜티엄
##구멍
님
폴로
##大君
테트라
낸시
매춘
비고
암반
주고쿠
동면
##교구장
##고사
무네
##總
반다이
다이요
핑
상파울루
은언군
리뉴
##소학교
##狀
마르셀
##중립
힐러리
생사
섞이
##스루
##보위
답습
버블
174
굴드
연합체
체리
판다
호쿠리쿠
장흥
##170
조선족
그야말로
##중형
##이토
이듬
히스패닉
칼뱅주의
호박
주걱
마젤란
##붓
체임벌린
피난처
유괴
로스터
아일랜드어
아이치
선왕
##민법
##영양
##벨트
##하르
맘루크
##영주
광무제
석등
우참찬
이사벨라
##송이
셔터
총감독
곤살레스
##縣監
완봉
대권
순전히
주당
##바트
록펠러
간행물
동식물
안재홍
##용인
##기독
지난다
부역
##식사
##空
꼽혔
하향
풍성
모하메드
흑연
구로다
대마초
테이
메틸
##줄기세포
타지
비버
잠복
유니버시아드
##클라우드
중견
허정숙
중창
석물
모퉁이
풀타임
항공대
##사적
##뫼
번안
##境
##벤투
차베스
폐비
성희롱
마인드
본존
Long
TTC
RX
대일
살포
수계
##콘서트
161
##만이
중등학교
##직이
강자
표범
1392
수구
##이렇게
간척
##유전학
##노르웨이
파이어폭스
간헐
##국민당
역법
##총국
합중국
천주교회
##스테이트
벤저민
##주장
해충
##박자
좌초
청의
##공포
##랫
##아와
##노라
해골
이황
가창력
마사히로
성층
방어전
병부
쿠릴
##메인
정산
이규완
##副使
##신인
루이지애나주
미시시피주
성범죄
##마키
Album
##역시
대국민
사돈
흡
지자
##楚
부마
##112
무례
##인민지원군
대전광역시
훈민정음
연천군
##r
##퇴
가타
##이래
Human
지하수
##ROM
수배
옥스포드
봉급
##1883
##악단
##겸의
카이퍼
164
전년도
Michael
##뉴클레오타이드
궁금
오쿠보
파이썬
인스
RAM
##Blue
알자스
도독
헨드릭스
##출시
##스토어
패소
불운
##임진왜란
##조례
문무왕
파파
크로스컨트리
##성운
미륵
군무
크리슈나
씨방
로베스피에르
캔자스주
하드코어
이제동
눈금
##雙
집요
301
CA
##117
슈퍼스타
##그래서
##의견
당면
페터
##서야
구릉지
Brown
GB
말살
딱히
알콜
에히메현
주제곡
제이미
벤자민
##珠
말초
달성군
##리티
##서경
##엄의
공언
에어컨
피루브산
God
##1860
##삼국지
프런트
상층부
적위
올린다
##廷
##건안
양군
##同知
조식
##다람쥐
More
OVA
아미노
폭락
##져야
유타카
줄인
수출국
마요르카
##형과
옹호자
##사이버
맞선
늘릴
스투
##사운드
##여서는
시일
부산시
유파
문학사
불우
통학
미술품
뒷날
대륙군
Air
불러들였
산호초
김유신
RFC
완주
1786
민회
랄프
##∙
이쪽
부쿠레슈티
바하
에리트레아
##아노
상피
섹터
##매매
김종직
닛코
후시미
##인대
월경
##네오
##입단
RC
##라라
##아키라
##NGC
페루자
팔코
인터라켄
##1882
새천년민주당
##事件
##필수
비정
민주자유당
의전
1750
도선
##Richard
조소앙
실업자
고환
배드민턴
소가
##사나
대역폭
Smith
방위군
Team
##기체
명작
단단히
재림
##용기
하이라이트
즙
##net
로도스
##리오스
##도입
서베를린
앙투아네트
경산
아나톨리
수송선
##이마
올라서
죽이기
##라이브
가니메데
식물원
수도원장
##무덤
##시킨다고
하비에르
##성시
##提學
Japan
##호아
올슨
회송
##정반
신의주
음모론
애국심
라플라스
##介
독보
밀수
안구
견과
슬라이더
가만히
##여고
밑바닥
밀레니엄
토의
살상
##姬
각하
알려졌으나
##IEC
are
공백기
알아차리
오로라
##경상남도
미녀
##생식
보인다는
##季
굳혔
증기선
표지판
항모
지멘스
Development
미로
##도우
다자
개요
##末
211
알토
##梅
실화
##愼
조모
지그문트
포의
##검의
고스란히
윈저
##지배
##750
미스코리아
Christian
##尉
협공
표준시
##대부
승탑
##식스
##數
##계산
내역
##하가
신생아
저온
싸여
온건파
지중
##음성
##웨이브
데려왔
강동
개신교도
##MB
하타
##채권
우익수
시세
황무지
##전작
산시성
만지
##試
##규범
갯벌
페름기
경화
방벽
수호신
##껍질
보상금
##구리
갑과
썬더
근신
배영
##교위
수번뇌
158
##갑의
불러오
로랑
합한
괴팅
국화
쾌적
바이올리니스트
터전
두만강
근해
걸어서
##신장
##기본법
반탁
##성향
슈베르트
스티븐슨
##造
기관사
합방
간간히
##115
별과
##서리
라이터
세심
##독일어
모노레일
911
##그런
이방인
계비
##징시
Health
##순천
##넥
##증과
##연두
아바스
성년
불가사의
신약성경
볼거리
##桓
##AIDS
모유
적갈색
인스트
법원장
재치
림프
석축
가고시마현
Hill
방어율
##자극
640
##온다
주성분
##히스
세도
백두
##외국인
널
카오스
암묵
##태국
헌트
장령
한성부판윤
##감소
##μ
고기압
##鳥
##좀
##하우
유쾌
보냈으나
우니
184
186
안보리
베니토
##사상의
오대
1660
##문법
병의
느려
얽혀
카토
깊숙이
민스크
앨라배마주
1604
아헨
##옷
##블록
법무법인
##아드
헤일
궁수자리
신호장
박원순
##파베
하행선
순절
회남
최우
비야레알
SEED
SNK
木造
드라
여느
보름
##시계
애도
행세
##1889
u
##반란
헌법재판
자존
최고점
General
백조
##싱가포르
##샷
앙투안
다이애나
협력자
노아
이심
GUI
History
머레이
신시사이저
원안
허벅지
돼서
환각
1620
##권리
벌목
##상승
##이코스
득
##제로
산수
쯔
예산군
##국문학
버려졌
지망
성부
―
하남
##메네스
##中書
캐롤
테이크
##대수학
##界
생겼으며
##알파
간도
가택
##1880
##당인
##베르트
재키
##1867
중사
##개조
배격
후송
중흥
1781
갔으나
##카로
퍼펙트
쿠알라룸푸르
화산재
1774
##Rock
노동자당
구미시
바사
네로
서고트
렉스
1018
처한다
660
팔레르모
아래턱
##비노
##영의정
스타트업
캐스트
셀틱스
##번가
버니
조커
##塔身
FTA
명품
두려워한
부유층
원작자
189
배기
관측자
영아
뒤덮
영양소
가전
Space
해부
역적
악수
가르친
##관측
미안
##訓
하모니
입헌군주제
받아들인다
##청나라
##혁명당
##산현
##인터내셔널
분말
핀치
무방
프레스코
204
##닷
뵈
아퀴나스
##주목
##祥
##영업
##퍼시픽
##廟
송준길
재방송
분대
봉수대
사라예보
스트립
##섹스
비닐
Stadium
##아이돌
카를로만
다각
##특성
푸코
태평
##春秋
끊기
고려가
스리
##전서
CH
석좌
##네트
##실에
208
##군관
##아직
매리너스
쇄신
감사원
##힌
생부
##지위
적십자
자퇴
창사
에피
##일정
사유지
올렸으나
가와카미
노이
원사
급한
템
로트
숨겨져
국민정부
지나갈
장막
##카트
##지아
오디
센트
공녀
##뉘
크라쿠프
포츠담
무정
아비
스피릿
강론
##마쓰
##건과
##선승
##절도사
변제
##선원
정에
코카인
토이
뷰티
TNA
##플래닛
##반도
##위키
소품
규소
전해질
##제시
207
##났으며
환대
##116
Foundation
버릴
수당
상계
##스케이프
대동강
자유도
한다며
##鹿
##鏡
폰트
##마켓
##건조
##계곡
##동양
오에
밤낮
소질
|
우등
미하엘
매운
발자국
##여론
##懷
노렸
배쪽
경련
침전
198
##테스트
용수
##先生
공론
성형
##옹주
##정공
##관장
손오공
캐스터
생년
##레인저
실링
##Joseph
봉화
##》·《
##點
계명
##그때
식물학
사무관
Control
##헬기
상륙작전
##121
테살로니키
NGO
모라
매혹
앉히
전봉
일반직
##메가
남학생
멸시
1610
##생성물
182
나토
워털루
험준
였
미술가
##인도네시아
일주
푸르
##수용소
에어백
판각
##로스앤젤레스
호나우두
##尊
영내
##붕괴
##嬪
악행
올랜도
나바라
파이리
탄창
해답
갖춰진
은닉
벙커
##오후
특파원
##국공
##鮮
Not
학생회
플레어
##순수
트레인
레이놀즈
에픽
모른
통정대부
삼국지
여흥
뉴멕시코주
ARM
양당
그친
##種
에이커
##제트
거둬
작풍
배설
상록
두목
엄중
188
중문
여고생
어간
보령
##좌석
상속인
고이
랑고바르드
##갓
신숙주
With
사네
not
속죄
##전라남도
성내
수려
1689
울라
##파키스탄
구마모토현
레인저
##츠카
에나쓰
전자기파
섭동
질주
조력
##입학
어색
신식
##벅스
가속도
컬럼
네이티브
드론
캘빈
곤경
214
해금
##그리스어
##춘의
들어온다
##레오
고질
##아르헨티나
##뉴질랜드
난사
##천과
휴양
티탄
랍비
가오
지터
휴먼
친다
명곡
512
##엥
왕녀
Le
##제정
데메
기입
##사제
##威
겐로쿠
222
쌍방
협소
무주
##주행
##리비
조앤
##侍郞
치매
앞섰
h
흩어진
자유로이
##細
몽골족
##辛
골목
은평구
공단
됐으며
##선고
##한가
골프장
지낼
발돋움
내용물
민진
테크닉
##手
##베드
담양
집시
macOS
##七
찌
트라키아
변경백
##비크
카나리아
오랜만
##유대
세스
알렉산드리
부츠
##僧
제례
성녀
라디칼
이세민
마르코스
##증상
연골
##스트리트
우디
골문
메이든
달팽이
스타즈
##테무르
아센
##귀박
휘트니
부득이
법당
비르
통설
업종
이방원
스무
TCP
코프
Last
##시카고
##고로
MD
가리킬
밀레
##노아
##스프
기숙
샷
프로페셔널
강착
유리창
외무대신
무라야마
카니발
##수면
고창군
대함
##턱
졸업식
크리스토프
레아
##소시
##신체
카스트로
##놈
탐험대
구속력
##랜더
##화석
무위
1598
##넘
희석
친화
하타모토
중심가
##일대
##민스
MX
##等
아람
##포체
##드레스
시에나
##觸
##準
부총재
인덱스
순방
Journal
스탠포드
##서버
노이만
지워
##스코프
플라자
리라
CO
어울려
집적
셰필드
파이브
##객
지극
비견
이나바
##함께
##가문
##가닥
##페스티벌
##멀
##상어
##국방
슐
닥치
피어슨
로어
샤먼
버즈
로제
남오세티야
##其
##바우
리포터
##충청남도
##수이
레지
##隨
##시타
로트링겐
Girls
커비
NCAA
Hot
아르민
패러데이
##질수록
브롱크스
오비탈
지적도
1758
##Big
##인인
서하
패닉
한진
157
동작구
##퍼드
##동일
##從
##생물학자
국회의사당
##커뮤니케이션
##임기
러더퍼드
따돌리
들려주
부조리
미국식
반원
밀고
가꾸
차례차례
##인사이드
##중주
에드윈
##인데도
태운
##바디
푹
싸웠으나
무찔렀
지표면
##3000
이니셜
##자이다
공문
##役
레몽
사쿠
임해
화순군
##내면
##쇼핑
갈아타
##아속
시왕
Radio
사토시
##챠
라싱
심상
합천
##킷
##재정부
##오스만
##직할시
헐리우드
##휴
##리처드
West
불출마
세일러
초신
창이
##리누스
두려워했
##조이
금발
##미가
##l
귀한
수출품
단번에
폭정
폭설
용감한
치우
디디
훈련장
정승
페넌트
의령
내해
스루가
화족
풀려
Year
플레이스
비욘세
나인뮤지스
동인지
곡률
몸담
뽑아내
쏟아지
##젯
##아우
버금가
삼국사기
토사
물려
쓰였으며
패드
코스닥
릴리즈
플롯
바바
유사시
동질
1603
거지
##꾸
펌웨어
대마도
물방울
대장균
조선조
재조명
##On
사보
##de
흔치
독이
데카
괴로워
페스
휴지
노트르담
블랙번
1519
##라바
파스타
##岐
봉신
청송
고야
##El
당상관
지린
##눌
AA
바니
카자크
##배수체
옥개석
대수학
##어이
불러들여
##자라
##캐릭터
스피너
연비
산책로
빗
융성
정선
##이소
광명시
BSD
문맹
초인
순회공연
##協會
오른팔
날조
##1863
##살리
##보스토크
퀘
##US
이공
코나미
141
주신
401
공민
식별자
닉네임
##위스
유명하
위스콘신주
잠금
##건륭
##사례
고트
야유
##벨벳
##결핍
말미
이괄
관음보살
##영화상
##레알
송강
퍼킨스
팬아메리칸
평점
리타
##쾌속
##화합물
만능
영락제
지친
소국
남북한
물길
##인수
142
##윤의
닫혀
East
라그랑주
남긴다
무도
##신사
위문
##나요
제작소
까다로운
식욕
유도체
성전환
리보
##던지
아우디
##United
시어
미나토
##진리
##주교
##燮
미즈노
폴란드어
재경기
##斯
심어
재량
스노
초음속
Fire
##유아
1785
1759
뚫려
요크셔
얼어붙
벌어진다
넌
겸한
##존재
은총
##帶
상주시
우거진
수납
사하
평창군
##庄
△
##가요제
조경
Education
블랑
Again
체로키
안세이
신랄
청취자
##坊
##코노
커지
##이승만
운전석
고위직
옹기
##쉐
부기
149
본따
조어
상무위원
어마어마
떨어져서
상형
##짧
효고
에디슨
중남미
인버터
형세
NAD
해마
기본법
아델
엥겔스
##하천
자꾸
##케르
준다고
##삼국지연의
JYP
모셔져
튀어나온
영락
칙서
##칼라
##緣
‘’
##阮
우메다
##통과
페퍼
문하시중
불계승
신춘문예
팁
젤리
##지미
타사
##군데
절도
##III
##190
지온
수산화
해로운
컴포넌트
##자주
##장단
대작
##邦
##진입
##국령
수완
재외
##kr
##교양
사업비
스모
쓰루
노스웨스트
항변
부와
핀란드어
디시
다득점
스몰
이동성
타국
막사
유상
##성격
##그대
시구르드
옵
성안
CT
외조부
파블로
my
덱
시바타
김포시
전봉준
##지선
낭트
##알라
Dark
미츠
##극회
엄정화
##바이올린
생명력
##마르크
호황
판도
치사
구면
푸리에
540
단락
Korean
공양왕
##사찰
슈퍼마켓
##지질
##강변
건재
식수
브룩
560
주치의
혈중
제자리
일찌감치
액세서리
##127
장덕수
할복
##We
인부
치욕
찾아보기
##회의소
##아름다운
담양군
꺼리
##국악
1650
##분지
최첨단
구로구
##연주
사암
솅겐
신안
디아스
사샤
##클라
트빌리시
##튀르
친목
##入
오븐
내버려
반달
##지속
청화
출전권
콜드
was
져
갈라타
우마
배수량
콜로니
주박
드래그
필살기
입건
고른
##民國
'-
마이너스
##동자
SI
연면적
확장팩
예카테리나
그려진다
아즈
배재
##What
불발
##메트로
임했
##철학자
외양
##210
##문화방송
공범
이복형
경비대
##팀장
##노이드
아세틸
일류
##육상
레인보우
파도바
아코
##태자
##패키지
올레
잃어버렸
망토
원수가
찍혀
간극
##후군
종친
##누의
##淨
자주포
##교차로
의성군
네빌
롬멜
##St
Christmas
황도대
루도
##銅
##獨
선풍
NH
파울리
URL
##부수
일으켰으나
텅스텐
피격
소양
예이
가이드라인
##會社
##이적
##기소
케네스
비축
크리스찬
중원소
187
##페이스
곰팡이
출하
##수명
수개월
폴더
장시성
무수히
##한화
##베르그
##구경
##주소
길렀
작업장
아우크스부르크
피델
되돌
보로
클론
##--
##혹
거북이
괴롭혔
파이퍼
의정
작별
부코바
딸기
동복
명주
##로즈
##가르
##芳
238
##콜로
##만석
##兪
##말레이시아
버스터
교점
태후
사부
##한자
##토마스
일격
빌린
##설과
걸어가
520
##민간
##측근
아르키메데스
##예비
휴즈
고아원
##시정
누비
https
오사무
칭다오
##뻘
나아갈
몬티
퓨처스
뉴펀들랜드
건기
집무실
살림
##리시
썰
드레스덴
소홀
##면부
비토리오
완치
##舍
구르
뽑혀
하코다
##시랑
##현역
##덩
오카야마현
Mk
정여립
피레
트리케라톱스
초선
##1864
##봉사자
##紫
페르미온
##리타
왕망
##소총
백혈병
중학
모사
끓는점
크랭크
##IP
자본금
태사
##마땅
갖은
광양
미워하
차려
유황
토레스
##に
##支
마린스
유제품
영일
##레르
우에
##1891
브루
##엣
발원지
##126
어진
콤플렉스
티베리우스
정복자
##단부
라벤나
코모
##시집
루브르
##慕容
경당
듀이
마르텔
양각
음각
문무
##총관
이재명
##교도소
아래층
##진하
상냥
검교
트랩
네바다
보비
로버스
테베스
회절
소문자
##사망
힘써
영의
킬로그램
##이성
##진압
기득
##근육
철의
마더
##벨리
인터럽트
방과
폭발력
쫓겨
순례자
개회
묶인
George
##천문학
아라카와
159
양원
단가
##재생
역관
나눔
##장전
부로
한지
##보국
택
막내아들
##봐
게코
맞은편
특산물
수잔
##테리
경악
초승달
달마티아
영재
진천
##진구
서산시
스틱
서초
남문
##二
##護軍
San
초도
로스트
Super
캄파니아주
##덱
LGBT
수페르리가
##울프
연금술
세라믹
쿠르트
##표가
자유자재
##내렸
살아온
##원제
일대기
##1893
##정식
##킥
실형
프로리그
##씬
##키나
##아프가니스탄
똑똑
2025
벌였으나
말뚝
부어
공덕
퇴원
지치
리보솜
화순
##수장
##크래프트
##침해
완도군
철십자
징조
스탭
드릴
외딴
줄지
빗물
넬
최신형
완주군
##吾
##누이
##세스
별거
##게르
고부
##마타
한수
걸림돌
자락
증여
전각
최단
##허브
이브라힘
##始
코인
받침대
##웨스턴
유한회사
##re
통가
HBO
도쿠시마
에레디비시
경전차
전업
사족
변위
호우
일레븐
##마틴
채워져
마실
장학
품위
공대
Want
라빈
고조부
블루투스
오마르
종별
의약
SP
묻히
매크로
불림
Football
낙후
##어를
회개
##성공회
천식
얼라이언스
스탠다드
프란시스
##하느님
##그랜드
외아들
저승
Green
##마로
주범
##소프
1624
운전사
폐번치현
마스터스
로프
아이러니
##블로
힐튼
인천광역시
조제
초계
태화
의관
조너선
##고스
##핑크
티셔츠
##原從
통행료
##淸州
##회색
마술사
SL
데미지
단숨에
실감
친위
로그인
±
판문점
SR
##하와
안과
171
열흘
##신문사
사외
##동아일보
관측소
원가
##Red
상술
로이스
기억력
유권
지나간
##구름
오키나와현
##온천
못지않
수난
시행령
부룬디
##첫째
##1869
클레
169
공예품
##128
정순
막대기
휴식기
서른
##列
행할
니콜로
흉년
모리타니
데릭
소사
부르군트
해남군
LNG
모리셔스
##시라카와
섭외
아론
녹스
굴착
##해발
Band
헤이케
칭화
상행선
옐
주니어스
##공식전
리처즈
언행
##端
기업체
컬트
##천체
##web
공문서
##角
펴냈
넘어간
상승세
트랜잭션
멘델
형과
##極
##보사
몰라
##예배
RS
철교
쓰리
##대법원
침례교
주둔군
분주
##퓨
##조류
치부
##슈타
위크
로테르담
만두
##서기관
올라프
##산화
##천황
Over
지주회사
서얼
유주
##한서
섭입
홍타이지
다치바나
마츠모토
좌참찬
##襄
##青
로코
클랜시
페미
##소단
수용액
초전도체
##1865
청소년기
##보좌관
##돼야
추징금
신년
##Korea
이기붕
크라이
거듭제곱
석패
##손실
교민
##일까
들어맞
##지리학
##國民
노키아
##워크
##온라인
##호에
설상가상
귀결
##등부
1413
1590
김성
##루비
브리즈번
##秘
##프로이센
메소드
함양군
1782
##국판
노숙
##니어
223
산화제
##퀼
편대
##피리
요시마사
근위대
##실라
##티니
뉘
개점
봉지
나가토
##부지
##公園
맞췄
유타주
켈러
##파이널
##행법
고트하르트
##메탈
Never
시프트
전편
마쓰야마
오웰
공공연
##장에
둔화
잠식
닐스
정읍
냉
천둥
1618
1760
도로망
한옥
페르디난드
##슬로
강해졌
균주
임상시험
목축
##好
##살라
##탐사
와일드카드
빼어난
좇
보성군
성산
##제회
갖췄
방수
무스
보필
##症
람보르기니
해내
유관
##에어
살아간다
김천시
##侍
폭풍우
분동
언더우드
캐머런
##고가
여래
##타이틀
승문원
스쿼드
다이렉트
블러
낙마
되돌아갔
고졸
농협
대각
봉천
남대문
가할
체형
##y
연경
##누가
정신병
아칸소주
설날
자라났
숙의
LTE
##건담
말려
##항이
##泳
어우러져
워렌
그리워
상아
3500
길가
국지
전도사
Type
출루
##세리
특검
CS
베넷
마나
제네시스
이안
##탄생
##혈증
도바
1757
김제
제갈
케리
에버
편도
모하마드
##핏
##집단군
보닌
크리에이터
토비
三層石塔
만과
반출
한발
후쿠
우선시
##동력
보일러
##경성
아타
##이기
의정서
자랄
다이어그램
##만부
학점
풍토
찾아온다
밝혀진다
돌려받
강인한
##求
습작
Will
##137
##협동조합
리우
사르트르
대주주
혈전
의료진
##럴
##스퀘어
영해
##투라
금과
1605
위트레흐트
에반
라디오헤드
양태
금세
##사스
인문주의
레이어
06
레슨
##양군
불태웠
후생
커스텀
외측
어려워졌
노르딕
##象
##사르
##兵馬
##中央
받쳐
절연
##본선
코크
지방도
##홋카이도
비틀
##두더지
##管理
클러치
해적단
##사회당
##도전
차녀
철광석
대성공
불능
곱하
성토
##우와
##천안
끌어올리
부교수
완고
방역
##장갑
주모자
##원에
밝혔으나
스미
##期
넥슨
신촌
군체
물량
열린집합
구어
동구권
##왔으나
내심
사이키델릭
청량
불빛
씹
간쑤성
##San
막말
금지령
세포벽
컬
과부
반역죄
프리덤
군축
위층
##구제
미노루
치타
목초지
몽고
##으신
장시
루도비코
##수분
##우도
##故
전산망
카카
Charles
각막
리에주
식년
시우바
##발사체
##배틀
##해석학
##하우젠
학제
진보신
건너간
사라질
순국
생식기
녹는점
급성장
##원회
기울어져
##리버
위독
00
가인
##게다가
본뜬
페이퍼
카보베르데
불신임
감독관
##으라는
포탈
##堅
오시마
유복
##동료
혈장
리카르도
드라이
험프리
Pro
부검
지상군
람다
내연
사라센
끊겼
음란
라이플
##HIV
##스텐
##宰
##輝
##向
하마마쓰
요시카
##문화사
춘추관
라싸
좌찬성
공로자
##드럼
평영
나무껍질
벨리즈
트레일
살라딘
##바오
Let
키보디스트
포르쉐
선댄스
도가
기일
도라
##여섯
거동
풀기
IL
단죄
##식량
##jpg
다녔으며
##태양의
마신
교유
마리나
q
교편
능히
아쿠아
##민사
##매년
시럽
능률
##De
##BBC
갈라졌
충절
##포리
고흐
##바드
생육
##街
형편없
옌
도망갔
더미
보여진다
##조장
손톱
양녀
진주성
##지주
랠리
##昇
음양
영암군
주공
##앱
##다양체
나흘
원죄
축삭
스팅
테레지아
Ltd
Days
셀틱
시크릿
##왓
듀란
##광학
정부인
##단체장
##저작
화형
소신
분신
긋
계산기
병설
다뤄
가라
##명과
자가용
##550
##순간
##기상
##280
##단어
폐포
실내악
테오도시우스
1772
영도
성급
끓이
한랭
산동
귀납
인산염
사들였
초라
End
펫
내력
양안
##차르
부군
검지
사스
공포증
1080
프리즘
울리히
기거
안무가
##조제
고마
지토
안다
실외
##하르트
##브레이커
프리스타일
드로
클립
Mr
KO
##평론
간담회
각의
##법정
뻔한
주원장
1644
##렀으며
토큰
흘러드
에뮬레이터
기제
Public
##해외
신간회
열반
##비로
꺼려
즉위식
영접
번번이
##분할
미소녀
조건부
노린
기계어
총연장
협궤
범어사
mRNA
대동맥
##스타트
적인
지요다
##버니
스키피오
##1500
동자
##袁
##파이어
공동묘지
안무
##정복
##兒
##나비
현령
수유
##마군
##chem
이변
##錦
평양직할시
정상부
##夷
1609
호국
텐트
시전
브라운슈바이크
옹정제
다우
마일스
에노모토
다카사키
헤이시
##슬램
##트리오스
##왕전
##인형
바야돌리드
역간
다승
##오페라
후미
960
춥
군내
##종족
미팅
난항
내고
핍박
Bad
##誌
관음
수행자
도굴
신사참배
##大邱
향유
복숭아
##旗
##원시
메이플
Town
숙
CR
과열
카나
시해
우발
빙그레
민병
앨라배마
##레이크
##나노
마가렛
미네랄
웜
관작
da
찍힌
우에다
배차
콕
펀자브
아르테
동역학
##라야
보수주의자
SU
218
다녀오
##기치
바이스
계엄
비스트
축전
지나갔
자연환경
패스트
기계식
깨졌
부주석
##스틸
##규격
공공연히
반자동
##왼쪽
모하
##브릿지
참판
##비자
NFL
철군
불순물
토후국
이홍장
아리마
194
싸운다
특공대
백군
암세포
외할머니
황태
코네티컷주
윤석열
소현
호몰로지
만력
##전투기
##홀딩스
야마가타현
헤비급
PSV
쿠루
UFC
음수
선산
분석가
##확정
남침
##수준의
따돌림
325
찬미
##마니
강동구
일으켰으며
##아랍
WWF
웰
사업체
조광
##왕자
강직
끼칠
사용법
1536
투과
석의
자칫
설파
어셈블리
386
거스
##메타
속칭
##다마
##호인
문화부
##발리
평가전
헤로도토스
Avenue
좌익수
키움
섬인
매겼
편수
##곶
폐선
##kt
김종
변속
득실
##용사
비밀결사
병참
##변이
병장
밋밋
##일인
화엄
히바
##플랫
리베라
##承旨
장경
지어
행선
퀴즈
##리호
표시기
어음
예장
배교
보소
로니
NXT
리얼리즘
197
요시오
두루마리
건지
판시
##교섭
심해졌
오랑캐
선호도
저격수
교세
간선도로
연해
노년
더빙
라부아지에
극좌
트랙터
철원군
이끌려
맡아보
배급사
다케
노런
수세
##厚
양아버지
익힌
서양인
인의
##미스터
##솔로
아프리카인
카디프
브리타니아
##인터
바쳐
데스크
Digital
##입대
홍주
4500
프레이
방랑
##여대
모란
신디
토라
사성
도네
179
2024
##城府
고쿠라
혜종
##존상
181
##순환고
##읍성
염전
권신
수영복
사철
RT
원담
##주머니쥐
체급
卷
블룸
확연히
##금리
남겼으며
아사노
정밀도
##럽
석회
구파
동반성
인현
980
구라
##트루
외세
씌워
##球
통곡
업고
양주시
##줘
비장
##蔵
조업
##펄
알린다
##1872
호르헤
바르바로사
혼슈
MiG
##샹
올빼미
팽팽
일러스트레이터
##주문
엇갈린
임대료
스텔라
##방침
삭
냈으며
##麗
수기
삼성그룹
갈고리
하시바
간에이
##상실
하리마
사라고사
육식성
오레
핸들
루빈
Woman
위너스
볼프스부르크
유리수
그건
참혹
달해
##1892
바일
Awards
마트
##則
공수부대
##군청
접점
월간지
베이루트
사미
##김일성
##지각
##-"
##방영
코라
여행객
진하
버팔로
##서에
출신자
광기
약재
캐슬
수고
##타케
단테
"-
##nd
1506
1521
##방문
##주변
##직접
유인원
all
게릴라전
##스튜디오
##潤
목도
마르티노
압수수색
##토이
##Ⅱ
##악마
아미르
알프
173
가고시마
##衣
엘람
구레
802
사우론
샵
사진가
귀위크
남우
전기철도
마도카
##自由
견주
대륙성
감격
검은색
최저임금
조계종
꼭두각시
각계
수서
캐럴
##國際
191
인제
태반
앤젤
##진에
마지못해
배움
귀도
##자임
되살리
기호가
##잠수함
웹스터
단맛
폐해
##드웨이
기무라
마자
통달
사용량
야산
##클레
##동해
육조
Law
##経
잡아내
버몬트
귀부
반장
풋
##아내
##문종
232
역전사
대화재
##＞(
1637
원호
##世子
##坡
##찾
##사과
중서
객사
충숙왕
윤선도
부동소수점
난부
이와타
앗딘
##스테이지
쉐보레
케로로
##귀국
하토야마
짜리
펼친다
산업용
엠마
##북위
메테인
##社會
포항제철
##해안
대서
그랬던
여전
환멸
조리법
μ
##전보국
##청춘
##1876
##쿠바
중등교육
박물학
옷자락
이데아
과당
##프랑스어
대항전
353
약해졌
##주식
홍성군
Op
징벌
숭상
선분
갖춰
리에
태위
요아힘
프라이버시
한산
##마리오
##無明
노다
삽입곡
앰프
레니
코스타
토우
야마시타
키미
민코프스키
무르
다쳤
슈뢰딩거
노령
장력
사색
변칙
평화주의
난류
제헌
양적
선보여
가창
레그
##1886
##조선일보
발흥
불가침
굶주림
형량
메타데이터
이루어져야
아파르트헤이트
##이즈
자유민
하수
찾아다니
연체동물
방목
1580
오리엔트
흄
##숭배
힌덴부르크
목수
신혼
명만
##트리스
고배
자폐
##SBS
전리
지명도
부대원
이국
##管
##제목
##譜
##합전
후주
AK
##개통
중턱
핼리팩스
별시
02
유가증권
옹주
루지
시리얼
승무
초이스
머라이어
Death
왜건
흑기군
##質
acid
위기감
##수용
풍선
Book
웨일즈
##보관
슐레스비히
##1887
##사변
철새
##교과서
갑오개혁
##전면
맞춰서
UC
##염색체
온게임넷
##일곱
헤이세이
530
##수수
뜻대로
지기
심상정
리미
스프린트
수출입
최고령
아데노신
##繼
##계몽
199
정평
슈만
##템
퀸즐랜드
참나무
포커
법률가
유랑
##스미스
1526
##카리
##올림
콘월
##마이어
티투스
1762
벗겨
적진
코르시카
막시무스
스티어링
##압력
위드
##올라
##母
##寅
투팍
##원작
대유행
레이첼
##博
항속
카렌
코디
##鄕校
사이토카인
##立像
연성
##모바일
과천
사저
심경
수정안
라미
태동
1607
아시모프
##제곱
##1888
265
아리랑
음악회
##안과
뻔했
미크로네시아
굳히
충만
지정학
발명품
돌아섰
##民主
227
최면
흉터
스팸
에릭슨
오타쿠
맞춘다
미야코
1614
아카드
##毅
피날레
꼬리지느러미
동물학자
장부
세계인
접선
파벨
크렘린
##교포
##메이커
스킨
##흘
아람어
VS
##무르
클라우디우스
##230
##마스크
응모
진무
부교
셋쓰
##마쓰다이라
계림
##험
힘줄
MT
##리사
대축일
리노
단말
##혀
토마
달릴
와이오밍
##보살상
레이더스
##미팅
lb
신중도
##심소
작자
##방학
유사점
휩싸였
뚜렷이
##戰
분립
이시영
##메트
다른데
햄버거
약수
Design
##Fi
색출
##비어
Dead
##전파
강습
문부
##신분
표식
통감
이와쿠라
신앙심
자랐으며
힐스
신입생
##할아버지
행진곡
배트
유니콘
당근
주치
오트
베드로
##정형
만토바
##투르
육로
겐신
##모치
##작위
페레
토요
봉했
나라현
##융합
##단인
##督
지석묘
##서북
제미니
총격전
히메지
Museum
시흥군
Women
유방암
유표
##御史
파머
호드
후이족
##링스
MLS
뱅
##요코하마
##站
##사라이
총열
군국주의
아방가르드
##친위대
Language
처자
##지표
응집
포즈
##허의
서라벌
수적
##강제
##라스트
현상금
달라진
수식어
쓸모
스물
##냐며
지쳐
청도
동급생
명실상부
조선임
입항
초상화가
타이포그래피
단당류
슬라브족
470
크리스털
만리장성
##진법
##클린
끓여
산청군
오언
꾸민
방편
송광사
##요크
##유니
티르
##진실
세율
LIVE
목과
부서지
볼리바르
##보스턴
##스틱
셔
##뜰
성터
TNT
##･
오클라호마주
랩퍼
Summer
위니
라지
스나이퍼
접영
애플렉
물음
1627
이어졌으며
##폭격
##118
##공위
연평도
거쳤으며
세실
하남시
##벨기에
삼척
김종서
##관인
##돈녕
히로유키
##비행장
토속
상관없
익스트림
메탈리카
될지
##피크
##정보국
팟캐스트
입이
프레이저
문호
##양력
입소
##현령
##啓
분류법
##지출
안수
성역
신심
군단장
##타석
신경망
교포
흘렸
스루
수라
##太平
##意
216
커크
##린이
##雪
이복동생
시어머니
##스파
새마을호
캐넌
럭키
##엄마
칼초
##Bad
AN
마사키
##콘티넨털
에가와
217
나치스
가진다고
촉탁
##담배
##敎育
##문헌
편광
할애
##항일
수공업
신랑
역경
##유치원
금연
대월
외동딸
##Km
발레리
##장수
역부족
마리아나
##뚜
##라타
레고
참봉
##뮤지컬
호숫가
메인보드
연원
가요제
플로리
##루크
##거리의
1683
트인
축산
야곱
허약
북중미
##경비대
격인
박스오피스
##미션
미비
경비원
극본
##Louis
EF
접착제
노역
대공포
실증주의
##토머스
##EC
##연대장
거문고
##레트로바이러스
스에
##都監
행선지
왓
예매
동궁
금산군
##曰
나가오카
##표지
특진
대프랑스
##이센
##퀘
추크
##인트
베네벤토
코너킥
##術
다비트
에디터
악재
시마네현
수십억
도쿠
두드러진다
##체스
Media
##주파
도이치
태백
##가게
도일
305
달라서
##소인
##러서
SG
부러지
조선어
##성군
##공세
박힌
뒤따르
애니메이터
넥
##650
비우
저마다
디저트
##예보
##정자
1492
방탕
권능
인쇄물
땅볼
##회화
##European
##제군
불태워
루블
틀린
Commission
##시어
카다피
##리다
##翁
원류
##예종
##역인
마테오
히로히토
Saint
신령
면역계
##접촉
##토끼
##납
##루시
선량
마그나
부평구
태안
뒷발
체스터
느티나무
브레스트
교미
츄
허균
미니애폴리스
##호그
데크
##울리
##이끼
무한대
##수반
복당
챙기
침략자
##중력
일단락
##헤르
서태후
##陶
유량
북태평양
도봉구
콜레
약했
##염기
##Henry
##음모
링고
##˚
얽매이
##홍보
가극단
새만금
피아
미덕
극소수
다이어트
##트인
수륙
표피
##라데
##백인
##데일리
1765
##劇
##우산
비변사
1701
세바스티안
##카리브
혁명군
김제시
##戒
##빔
통한다
##웬
넘쳐
275
헬싱키
219
##드프랑스
살아갈
##폐
함안군
식초
##裵
기내
줄리
덴분
영덕
요시히사
산신
##우왕
팀장
요시키
##무관
일개미
공손찬
동지중추부사
넘어지
##청자
카고
Two
아바타
협찬
트랜스포머
김보름
풀려난
##아인슈타인
승강기
원성
##독립운동
##122
가중치
주동
Force
온실가스
매니아
중립국
원자재
한자음
맛과
홍대
##배열
변태
신해철
##동아
##GDP
##주요
경쟁사
외장
##1848
봉투
기시
##버려
쿼리
RD
플랜테이션
답사
##리츠
벼농사
##다드
대용
법무관
빌레
캣
말라야
수해
##사무관
##공학부
목관
플라잉
포에니
안토니누스
지파
반목
체르노빌
오너
로페즈
기요모리
EXO
절실
##무형문화재
문화재청
연개소문
금정구
##聯
카시니
늘어날
오스본
모듈러
##병마절도사
응원가
폐쇄성
##黎
루니
VVVF
##執
##폴드
##1861
과언
##수첩
매리
속속
서강대
예절
오줌
바이너리
붙일
체이스
이상재
남해고속도로
커튼
키운
중무장
##소식
멋대로
재거
획책
##폭포
본보기
광활
South
##안녕
넘겨졌
##勢
劉
개작
칼레
하퍼
가늠
검술
##의존
가져온다
아일랜드인
예편
##롤의
디아
넉넉
신시
##모사
시발
##129
군부대
음서
##en
STX
피침형
현무
야마자키
벌집
베로나
##騎
기즈
##쿼
조운
민자
마고
신이치
서포트
트레이
행크
##게르만
이정표
저소득층
지킨
글의
무녀
의화단
국책
##농도
##으니까
##신용
에드거
추축
##마하
작아지
둥
장내
##자회
칩거
참관
비누
태어난다
##124
다카오
##육성
심실
멀린
##세도
쥔
보령시
##死
글라스
디오니소스
1520
우동
부딪혔
안티오코스
반역자
##습지
마티아스
North
##미라
사보이
조선왕조실록
불기소
##고정
낙랑
##休
｢
고메스
아카시
양말
김성근
진도군
코먼웰스
에메랄드
알레만
케리건
프레슬
볼드모트
웨버
물리량
전교조
1450
##부채
##관제
무스타파
일어
윈난
형제자매
통일부
피터슨
##151
오히라
출옥
인준
광해
##추세
메디컬
강연회
자연석
이교
험한
##다와
솥
플러그
##리나
미네르바
평단
##쿠사
트란실바니아
Joseph
##신세계
글리
페리클레스
기혼
기선
에콜
CAF
안료
##조선왕조실록
개소
베스트팔렌
##甘
보르네오섬
수마트라
뉴기니섬
하진
##县
최익현
##구력
##密陽
##도루
##리마
##합체
미도리
묀헨글라트바흐
미야모토
불그스레
붓다
매뉴얼
책임감
현대그룹
전경
##나온
타결
성금
날아다니
가환환
후량
253
##기념사업
##인에
한국사
Water
완구
빨랐
1728
일신
로열티
속어
내년
신동
작정
윤웅렬
##치는
이재민
영속
##클리
구루
##스팅
토네이도
얼리
Machine
##팍
##健
##森
미케네
거듭나
570
엘베
##기름
1764
##부흥
신분증
직급
##포병
록과
PSP
1779
1570
##기념물
공작령
튀코
##340
##루쿠
##亂
서귀포
토모
##헌종
##｣
##다라
##종착
정읍시
재밌
매점
테라스
수꽃
Hotel
##휴게소
봅슬레이
백국
03
오른발
콜트
오다큐
메가데스
융프라우
음계
##러서야
공보
Computer
주사위
남북국
장구
탈북자
마포
##고무
전국구
가칭
질산
이를테면
튀김
급팽창
의미론
이심률
저우언라이
변증
##실력
228
##군정
##계단
##태그
이더넷
튜닝
##진다는
일개
정은
궁내부
펀
김좌진
중편
##포프
샌드
##코바
호치민
##금성
오디세우스
텅
버릇
돗
오세훈
##전당
##格
580
one
세베루스
황조
깬
한림
령
##工
명군
활동전위
케르
1640
닐슨
삼별초
##학급
##아베
삼존
##광산
진양
페드루
##반과
자청
모식
Earth
##타코
페르디난도
##터치
##앨
##밀스
판매자
유위법
##등기
반그림자
부분집합
##비서실
피의
이인
##近
##점유
##소대
피선
##리눅스
응징
##아리랑
정진
구청
##렀을
##싸움
프로파일
하루히
시킨다
맞출
ADHD
돌려보냈
상복
가까우며
웨어
틀렸
##旅
군수품
앨버타
태양신
술라
루르
##저장
클린
##골드
##264
##레티
전용선
1612
1615
Bank
실학자
##경연
속여
##職
전용도로
감도
##幸
사로
미쓰나리
북면
거창군
스키장
시위자
종성
해달
을과
둘렀
아오키
괴산군
리버럴
##아리아
##pop
아루바
보험료
호그와트
VR
##再
국가주의
중력장
원한다
##光州
기록물
벌였으며
밤새
법명
음파
백금
적대감
감속
수포
##원전
개화
##270
뉴딜
부팅
번들
잠겨
그로텐디크
매끄럽
테오도르
늘어놓
모독
태어났으나
Global
소명
차선
두드리
진산
이주자
실례
신고전주의
##박물
약초
범한
1608
바라볼
아프로디테
##음료
직감
보살핌
번트
##가가
버디
대명
##羊
완강
스트롱
스타덤
자연법
임지
##래스
##廣州
##배경
##크리스
에마누엘레
차륜
배다른
히젠
반구
성욕
도로시
FDA
매춘부
##쉬르
##상부
실축
##父
스티
##카베
##스도
다행
테마파크
제호
##栗
##품질
##기이
##줌
서녀
타진
메시아
##힐스
야마우치
전광판
벅스
바이닐
나침반
세바스토폴
대검찰청
서울역
##續
1530
십진법
##맵
Information
##아지
##호랑이
돌파구
순환선
헨더슨
장신
허가서
허파
알릴
##이해
커맨드
워프
##인해
헤모글로빈
금주
##晩
면회
##1862
##Good
하얗
독립선언
외신
##상원
인품
장학생
##260
암트랙
##하지만
컨설턴트
입혀
##바니
##십시오
배와
아킬레우스
붐비
라우팅
구술
떴
본의
프리스
선법
애슐리
##촌은
##일찍이
##노보
시들
##합성
##편찬
베르겐
1649
##與
##發
777
##IOC
부녀자
공제
##추정
##라테
황소자리
##株式
예부
##캐스터
번식기
이즈모
##IC
사누키
Royal
병마절도사
이요
포트폴리오
##NHK
멱
MGM
트레이시
괴인
원초
##프리드리히
만만
사과문
꾸리
따라갔
코멘트
##확률
실세
예산안
창제
앙카라
Free
쌍극자
강우
남이
Committee
마우
##기어
사회단체
더군다나
발성
토륨
야만
다케오
##宝
각급
서화
창녕군
##학관
원예
##궈
##²)
MBA
헤즈
색슨
멸치
두드러졌
팬텀
##진도
옐로
바르트
벨파스트
##쿼터
카트린
공작원
행각
터키인
Open
Jean
출고
##토미
마가
##청원
무득점
위업
미쓰히데
아르슬란
충격파
##驪
성수
##해병
##아시안
밀크
##동인
##제약
##억제
##아강
공대공
스페인령
강진군
카미
##펑크
VfL
교행
발차
셀타
##사키
에스메랄다
Δ
득세
실바
##유한
옮긴다
도함수
##로워
##노와
바바라
밀어
##야말로
약국
애비
쑤저우
엽
얼룩
보디
딛
곡도
흑점
뭉치
산개
##素
해면
##도라
예쁜
##經濟
증권거래소
배운다
##재외
##혈
베니젤로스
##해왔으며
차이콥스키
워치
##팽
우선권
건널
##선정
##何
레미
가느다란
센스
책략
##고보
고군분투
남원시
510
채우기
세네
프롬
사칭
주춧돌
서천
아자이
##헛
니조
북원
메디아
##메시
##農
##밀양
##広
체사레
##추적
디스커버리
팰리스
수아레스
이자겸
##알프
아다치
니코
신데렐라
고해상도
난립
1768
미술사
엇갈리
베릴륨
급부상
다로
자유민주주의
##136
도처
##舜
화평
신파
소대장
##선박
##京都
원은
인스턴트
재빠르
어순
1572
Know
벅
제각기
큰아버지
들어설
##孔
허술
노려
##1873
절강
하지메
time
밤중
##경색
칠곡군
AAA
휩싸이
패터슨
##오에
푸가
공허
셀룰로스
포클랜드
##중단
##라로
EA
찬송가
”
##인생
알려짐
대소
##해운
오존
##文科
이순
투표율
체인점
##1830
환수
오피스텔
##교인
사울
##스틴
데려갔
포티
##­
콜라보
##공예
탈린
빨치산
운문
비춰
실의
숨겼
##급행
##祚
영묘
##織
##o
대간
마커
이황의
수성구
킹스턴
시제품
난바
푸트
음성군
##정랑
욕계
디아블로
##기사단
Hits
OK
우주인
하치노헤
라스트
Away
쿠프
발길
고윳값
닫히
피아트
##쏘
##u
후금
##개장
혹시
해준
어려우
의구심
억양
OEM
통일성
학내
벌기
##산기
##숨
그레그
당권
반한
##수령
##부락
가평
급변
인류학자
상충
종신형
안드레스
손질
##관방
군의관
##명단
해직
저절로
##私
##콥
1630
제럴드
값싼
순진
말린스
바인
224
몰디브
더러운
리코
도리아
우편물
##옴
##근거
이분법
##오로
값비싼
특별상
코르넬리우스
달려들
돛
##호로
빠질
아스투리아스
삼국유사
##;)
소제
OF
매상
석영
##개구리
##쿠시
도치기
영생
영동군
##도정
허적
출루율
##어선
주유소
시크
물병자리
팔각
사라왁
유공
리암
푸앵카레
필치
##결제
PHP
가진다는
아톰
##1878
초전도
각서
멜리
970
회선
코흐
화질
1653
##자매
마흐무드
지중추부사
일소
시르
CG
교육청
시나트라
##늘
예술품
##주역
바랬
생동감
제플린
사로잡혔
##볼라
가슴지느러미
끌기
##뛰
##심이
213
괴링
뮤즈
베르크
방망이
##골프
카리
데려와
##지침
##개입
##들러
고흥군
준말
##BC
중군
##다비
##에스파냐
##누구
##각이
한시
##스티븐
유자
대덕
도미니코
소노
누르하치
미코
분고
당상
##통신사
조에쓰
##각류
Sea
단바
##총감
정희
##沢
케이시
미아
수문장
마애불
네브래스카
##鎮
##惟
##배수량
팬터그래프
조만식
부딪치
##스투
애국자
배설물
촘촘
유례
##米
##850
##곧
##로웠
끝자락
와카야마현
살균
쇠락
아스트
##이진
알마
음극
해온
##했으니
##픽셀
중성자별
딱정벌레
엘라
잘린
생겨서
##막부
1740
##관리국
##갈등
샌안토니오
데려다
아노
번화가
##짝
홀랜드
상록수
베트남어
파비아
##막이
아인
라파예트
이름난
기독교도
쳐들
카마
뉴타운
##This
##서류
들어올리
양고기
##착
크누트
1602
공여
지대공
미쓰이
폐사
##민속
에픽하이
##기대
사나다
##자카
감바
난형
##衆
메인주
공급자
##단종
유루
영남대
IUCN
광릉
팡
차고
##드레
El
##린스
##싯
커플링
##글러
##心所
뇌샤텔
증산
##노무현
편집인
갖춰져
서울특별시장
유럽연합
밀폐
전능
공화제
##격차
##종시
소화기
기염
##배구
구약성경
개울
부르키나파소
##체이
합해
##토바
스카웃
##취의
##White
신격화
##px
1527
칙
##증이
##SK
왈
난소
아리스
육신
전화기
##시행
재연
갈라파고스
상속자
##마법
멘셰비키
기강
Film
메르켈
행실
1643
물줄기
브레인
##타다
데려
쫓아냈
페데리코
##모던
##국경
갇혔
880
Mind
헨리크
로이터
##약물
쾌
고바야
맥길
시구
##이프
부원
##알리
밀림
##밀리미터
월스트리트
##易
코브라
우안
##규슈
유속
마사토
산리쿠
MG
##오지오
메타크리틱
카간
통일민주당
function
호남선
##紅
##430
무형문화재
##넓
가짐
쏠
##와카
벤젠
##구축
##鼎
점령군
히파르코스
##국보
##쓰가
##이노
정력
낙서
화차
재검토
##경쟁력
자급자족
소홀히
생산품
독트린
##어려서
훈련소
군주국
##버트
리오넬
볼링
참파
##192
중앙집권
사들여
##고르
미끼
##대상자
Field
수작
만하임
최전선
다당제
살라
동태
엔리코
수호이
##원군
##미우스
기관포
격식
##238
브란
Paris
##尼
낭인
토호
대하드라마
알레포
##친왕
##菴
명승
무하마드
채찍
콩팥
##郡守
모닝
##판정
##라자
로타링기아
갤러거
나이츠
테스토스테론
금은
나치즘
밝힐
덕수궁
양해
알선
비로
아시아나항공
비관
높인
입점
##소위
당뇨
우주망원경
MB
##간접
1670
이거
코발트
초급
체신
##세기말
항법
주택가
나카가와
##実
대구시
감면
스콜라
##썬
알아채
경시청
255
샤이
##條
에르난데스
##MP
##잔디
대기근
퀘벡주
누에바
##사료
키르케고르
셜록
From
##베토벤
##233
볼레
나팔
순행
특무
Theory
용융
청어
1613
레가
##기력
Peace
##터로
관복
창극
안시
##치만
##金海
홈런왕
1591
파평
선무
동부승지
로터리
##判官
##코끼리
솔리드
##코인
콜럼
엠파이어
Money
##제프
Blues
##~》
##리라는
퀘이커
##전역
##정치가
##전반
마우리
슌
##시점
가드너
젊음
냉대
못지
GPL
##문장
피토
1755
##항목
접착
지켜본
610
순결
연약
##듣
무난
명복
1494
가르친다
마르코프
홍차
예보
실추
##실내
##뿌리
염기쌍
대궐
##문양
식민지화
1513
에번스
파슨스
도내
작곡자
단형
과립
소비량
노팅엄
미나
##모이
엘렌
노하우
##둘째
알트
##위생
끓인
KAIST
흥덕구
우치
##1881
게르마니아
프린
다이나믹
우생학
커진
##世宗
천민
실비아
##단총
##굽
성좌
무용수
##커피
##혁명군
마쓰다
##熊
##하치
홍천
##게이초
함안
노토
투수진
다무라
안락
북문
효행
흡혈귀
폐역
나방
펜더
히고
##캇
##승강장
SLBM
협시
##청문회
##느냐는
##이명박
정중
통수
##を
힌트
##〉("
##파동
##통신망
##′
##진다고
호구
멈출
소학
방북
##조국
##티베트
Engineering
딜러
제스처
나세르
양복
##덧붙여
숙부인
##사직
##귀의
##中國
집행부
가극
밀렸
침강
##열전
##주지
스플릿
관료제
##后
##契
글리코젠
##폭격기
토종
중핵
근년
옮겨진
##해요
쉬웠
튀링겐
휘장
판노니아
명당
리나
부정확
참신
##소방
슈타인
위암
충원
극의
헬레나
##董
##문관
로체스터
뒤엎
1617
가리발디
사이온지
##灣
팔츠
향로
##大師
쳐들어오
##丞
##華嚴
샨
세터
##倫
성혼
축음기
선내
바얀
정과
##왕상
암꽃
어금니
족제비
건조림
아즈텍
너바나
애너하임
라라
PCI
오이타현
랑선
##世界
동북아
##누나
넘나들
입맛
이니셔티브
##막스
빼놓
라인하르트
개혁파
##변환
##체크
당적
지부티
브라이트
퍼뜨리
아난
의용
model
Systems
소독
일어서
신군
##취급
##착륙
##자로
##GHz
녹차
제비
자자
부안군
Peter
입방
천궁
빠
##평방
##케어
##베른
시험관
떠났으며
기로
동선
##앞면
##무가
덧붙여서
관악기
딜레마
자모
차이나
부전
왕정복고
##기리
필리포
기요마사
산모
제제
##望
##碩
수전
1560
고즈케
1002
인천시
미란다
헤이스
##江陵
평산
서무
##성제
##삼거리
주유
에닉스
##왕립
##務
김태원
DDR
##성우
섀시
후지타
민속문화재
##NE
아닙니다
##국민학교
##걸음
수문
뒷산
무의미
##요청
생소
##葛
##대체
##이젠
line
종인
CN
323
맞춤법
유명무실
해탈
띄워
통제력
천정
##유격대
삼도
다친
프리뷰
헤럴드
은하수
소행성대
특례
부안
##123
##물고기
##스타드
관전
마제
잠기
##思想
바하마
왔었
##131
##장판
##버릴
디오클레티아누스
사투
격문
제이콥
샴
사구
전법
1621
원추
이종
680
##화랑
##우체국
1745
##노포
##레이저
됩니다
악천후
##오노
화포
##NBA
##골든
##거북
##스트리
##펌프
##트랜스
1651
부교리
가가와현
무루
이천
비와
입석
비스듬히
벨벳
##생쥐
스톡
##반승
##힝
베냉
요시노리
졸리
레이트
리버티
제닝스
엔젤
임사
워리어스
닛타
DeNA
브록
믹스테이프
##실수
히라
##연설
연다
보른
로자
비화
##교가
윌리스
상거래
건수
##마가
알버트
1635
##내전
당직
할례
내사
가졌으나
우성
엽록체
##곤란
##비행단
사와
그램
복개
##거울
##리노
출원
정돈
들여온
단명
Sky
난동
소유스
인양
##공관
##國師
물리친
알란
빈혈
꿰
##133
건축학
##륭
왼편
##登
##贊
세입
척하
다이아
아드리안
삭과
꾸란
1550
##코너
축구장
갑상선
##충렬왕
이름자
##輪
##슬러
공중전
오니
역내
청풍
##아키텍처
울스턴크래프트
웨식스
선전관
블록체인
기념장
##述
토막
읽히
켤레
풍의
##설화
라운지
들렸
북주
581
1616
여백
패러
네이트
##문화원
랜스
##개성
브릿지
하야토
##셈
##1850
수산물
거실
##수많
1619
어학
아일
합리주의
흩어졌
##수용체
초현실주의
##삭
북해
아세안
꿰뚫
인증서
의령군
226
에덴
낙원
일전
면했
##감옥
캐리어
불가르
임산부
항공우주국
은행가
동고트
##리아노
경서
o
슐츠
충선왕
##學士
국학
##모습
##201
아오야마
살인죄
오바
백작령
부수찬
IQ
##거용
##贊成
러시아워
##하목
살레
##피츠
멕
팩터
캐피
챕터
브라만
미네
##벌레
##리틀
제라드
동남동
##가면라이더
장준
따름
이뤄지고
##노가
##遊
중입자
축이
뒤따랐
##  
##지우
아몬드
니시노미야
##남인
멈춰
##가마
나눗셈
##입시
확장자
진공관
Sciences
1707
혼란기
악취
##간섭
CSS
묶음
Edition
국문학
익혀
영천시
남안
새크라멘토
보관소
병리학
다당류
셰이크
이타
수트
##要
욘
진천군
Mark
코카서스
현세
금의
안락사
사대
앙헬
교수진
코시모
무정부
편집국장
Only
NP
골망
##員
시그널
슐레지엔
워크숍
막상
베네
##사다
몬태나
##徽
##액션
##※
철로
커넥터
##疏
앨리슨
청구인
휘그당
##CoV
이륜자동차
덤블
반미
##석학
음정
자유민주연합
가위
그림책
##봉쇄
비꼬
문학부
##132
경의선
월등히
##테이
지질학자
근일점
롤러
실마리
멈췄
논박
여행기
##念
##ISO
양부
의학부
일직선
SN
창자
공명당
##김해
닷넷
벤더
머스크
##그래
통풍
예이츠
대위법
본떠
##Die
회심
##요가
보건부
엄숙
놀랄
스테인
로마네스크
론도
연천
함재기
히치콕
##패드
##","
말다툼
##摩
밸
닌
기동력
1720
군자
정해진다
월동
산란기
##흙
황국
##선행
적립
엿
##대금
차등
##자바
##'-
임오군란
##위가
쏴
고니시
마누
증서
무서워
##강희
##불능
당진
임진강
영주시
콥트
포경
##닥
희종
##윌
에이로쿠
당간지주
초구
##사사
알탄
덤
##백스
자폭
스토크
리한나
##힐드
디럭스
##아즈마
##AFC
로버트슨
디지몬
해치백
콜론타이
##연산
서정시
할레
##저자
비운
오스카르
group
핼리
남명
##창단
##率
우주비행사
그레고리력
피폭
막이
배신자
여순
##피에르
고단샤
930
나빴
##루지
시나가와
장모
총면적
1629
당했으며
속인
유영
이견
세레스
1606
존립
대종
630
송구
##모니
농산
정답
참지
##니트
동봉
##용군
후처
치닫
텔아비브
발루아
France
이면
##太祖
European
프루
혼전
소인
##포도
깨끗이
성악가
산장
외도
유형문화재
##新羅
다산
1565
호지
##룹
"《
##翊
기모노
찰나
하청
##무네
##尚
##다호
감무
버트
미쿠
##로지
렉싱턴
##프레임
저고리
##장르
맹목
세뇌
##대지진
##문예
en
케네
정교수
을사조약
한국은행
##삼국
살펴
##고속버스
육각형
앨프리드
중시조
진부
##무선
불포화
브래드퍼드
아흐마드
샤론
회관
모치
생강
비주류
진안
##스마트
##이족
##히로시마
1582
일진
숭고
##튀르크
명랑
철자법
크리올
개창
허베이
집중력
##逸
##봉기
##엘리
중이
선천성
쿠마
튜더
육수
훔친
존엄성
우타
##注
고쿠
##도쿠가와
별자
초거성
이시이
이산해
봉수
네브래스카주
세자빈
톡
화분
##도마뱀
핸콕
스피
스프링필드
니시무라
Arena
달렉
난관
골고루
착상
##조달
##기회
원기둥
장과
사업장
##유가
냉장고
수만
머지않
##예술가
냉소
##環
239
##복수
헌병대
##괘
기행
English
##서이
##악곡
##惡
모르고스
에딘
##1875
맹주
998
1769
시스템즈
오호
1528
힘차
##복음주의
소방서
희소
재처리
##레온
향해서
##rpm
석고
숯
순정
지의
이착륙
Martin
##둠
콩트
감실
천주교인
본가
향료
붕당
싯켄
##카바
##實錄
성소
경순왕
##慶尙
##지냈
1645
나섰으나
##체육회
##채무
정철
군신
##蕭
노즐
##형법
여호와
발바닥
해곡
그루브
##라지
##洲
##요미우리
베니테스
헬무트
산탄데르
##비디아
##ll
호쿠
방형
후쿠치야마
현급시
코우
놀도르
Songs
##轉
심부름
분모
##측면
성신
Data
창조적
##병기
초속
##관계자
가네다
##당파
Board
퀴리
펄프
영상물
##우당
##점령
에워싸
매카시
인트
##드라이브
##재즈
도감
1675
##坪
환국
낙농
##지터
트러스트
괴한
##는커녕
브렛
측선
서늘
##미티
숱한
시운전
##리어스
⟪
전서
병석
##총재
움
##트레이
바그
징용
의술
스커트
1525
지기스문트
통나무
성제
알래스카주
##대대장
##제대
분비물
##둔다
##太守
양광
칠리
톨레도
1583
히데타
선덕여왕
주경
1694
오로
그런지
##감찰
단층대
##로리
디나르
레인지
##던스
##빙판
##몬스터
##㎝
메이스
스테파니
유라
오데사
남길
##돼서
진력
유행어
##도중
왼손잡이
##다를
훔볼트
##냉전
애국가
주향
들으며
##대학생
##절대
트릭
메인스트림
돈다
##모래
예과
##妙
부총장
##총무
흘렀
도체
제멋대로
마사요시
허무
건드리
##천주교
##심장
쑨
캐롤라이나
##이아
##쥔
급등
##進士
핵과
##수에
살아나
우계
롬바르드
##아테네
##옵
경례
보스니아인
##감염증
의왕시
아르고스
파열음
절로
##이이
약혼자
유려
행한다
반쪽
##紹
##서방
##수량
이족
장제
매몰
니코틴
##자드
프라이부르크
건안
아케치
창궐
##東國
##몬트
▲
##social
잡식성
##비단
키라
어우러진
##십자
Head
호자
##카마
나카지마
맥라렌
아토스
망주석
녹여
살의
투데이
##리라고
표의
##Edward
##우라늄
유카
성비
식인
똥
엑셀
##參
레이먼드
자헌대부
전갈
리스크
비례대표제
애들레이드
##매일신보
합쳐졌
1730
##가상
도화선
不
##요정
##우에
##스탄
실직
올림포스
##레와
던질
큰곰자리
##巴
맹인
##인텔
몸매
시적
개역
트레블
완장
논픽션
해학
위신
노장
##출전
지휘부
말갈
구보
질렀
##키아
이베이
중경
1455
카페인
##乱
주희
##실로
뉴햄프셔
##화력
바꿔서
진종
계율
##기일
관절염
요네자와
##스테드
##了
##대승
Beatles
레흐
일광
##지평
수족
##어시스트
##이글스
유스케
니코니코
비신
##편하
열과
형평
##앴
몸짓
##　
안겼
갖출
캐치
개이
##Karl
##무엇
##미스트
보금자리
신채호
##㎡
④
성장기
자격정지
Nations
##작곡가
기발
Louis
렘
##유년
##그럼에도
리쿠
사정거리
갈대
##신민
원대
will
움푹
활약상
신제
정우회
쉬워
##탈리아
##자녀
스완
내막
##체조
인조잔디
490
빙하기
##말리
##琴
여공
피츠
##阿彌陀
헤매
나오미
GP
루카셴코
##로이
정육면체
고양군
##크림
덴무
##서브
화단
분만
자부
##雅
니시노
##리니
처소
##파나
수액
라피
##세월
노바스코샤
수도자
카자흐
황주
유격대
법체계
하카
파이크
##코카
슈비츠
샐리
국민주의
케이티
조승희
Side
기요하라
코스프레
지드래곤
연역
봉착
후원금
자유시
광우병
##310
권좌
##量
##무렵
빈부
##도트
후렴
고이치
新
왕도
미생
초창
내과
소인수
후쿠자와
샌디에이고
오사
들인
##올린
소중히
상대편
혈당
##링거
##수역
페소
##지름
Land
심장병
##태도
요란
늘린
##어깨
##모터
연접
자연재해
##광복군
##骨
##스탈린
북극성
가교
Heaven
1721
김정희
데인
전가
타라
인신
배선
하달
##豆
##罪
##성현
비비
라테라노
우이
##과학부
도살
사공
##해방전선
금당
##래쉬
##리조트
베어
다르크
여제
스타스
농어촌
##간지
택배
외우
후스
##시바
##싸
열성
모을
신해혁명
##교과
황교안
PP
##POP
야코프
코언
##내장
쇼토쿠
백부
윤봉길
퇴폐
mi
인터프리터
콜리
##1840
##타격
##흑인
빨
자른
청도군
늘어난다
커질
##212
주형
아이오딘
질러
색다른
절기
##인격
##Les
##비늘
우시
패션쇼
꿀벌
스노우
van
번번히
왈라키아
##1789
탐페레
##振
아우렐리우스
분봉
라시드
##유령
##호조
부추겼
더위
1601
죄악
펼칠
회령
고위급
일문
##略
제논
조가
##杉
창설자
##쿠지
##타지
Al
버틸
임직원
콧구멍
로주
매립지
노보
권속
##牧
광진구
##禧
##경상
마쓰마에
데와
##忍
장흥군
##飛
원어
츠빙글리
##사막
등애
##숀
옵티머스
Championship
슈나이더
##캐롤라이나
##가우
스트리
자유지상주의
##링겐
##척탄병
##煩惱
진화론
알아낼
탈영
##사부
폄하
##코시
##柴
단연
우분투
약해진
개리
그분
도깨비
단양군
제청
한국일보
##호쿠
##금지법
##미즈
플로피
카펜터
마칠
Henry
출두
테디
변덕
키울
하반신
노련
Got
생원시
태양풍
띄우
##자장
##신보
갑작스레
##사회단체
당위
이바라키
떠돌이
헬리
##꼬마
##q
팰컨
져서
뉴먼
놓여져
Sports
##붐
다수당
##사역
자이
##211
##특전
공소시효
내서
##더불
##소와
헤어졌
##難
1712
수병
남강
인화
고릴라
흘러들
중층
냥
##+,
자치현
##끄
요시모토
##닭
아라이
퀄리티
나이토
삭스
업소
##대결
만민
집게
증득
##술부
##교육학
위턱
##돌고래
손견
조난
RAW
매너
작용소
배기량
메이드
네우스
##우먼
김택용
발견자
택한
백범
단편집
이뤄지는
수보
승승장구
한라산
경공업
##교와
줄리안
##버거
Rose
본적
옴니버스
그토록
자필
1674
티토
청진
독촉
##일지라도
##디언
##楽
프리마
서예가
민란
매일신보
개헌안
주종
베네딕트
##Little
##관할
반세기
알렉
그렉
인두
부력
재흡수
##King
무시무시
오이디푸스
##202
Social
가파르
순도
##리투아니아
##렸
##유고슬라비아
##신과
상도
중학부
집터
남양주
양치식물
인심
긁
##베이시
칼럼니스트
알랭
##照
##濟州
발아
살인자
##芝
사가현
##돈의
남동구
##피드
콘스탄스
카르텔
##Saint
키치너
영암
##동서
비숍
통조림
음주운전
##昌原
더그
##드래곤
상산
브레시아
##존슨
허니
버추얼
BGM
마사카
##비즈니스
네온
##쾌감
##국기
##삼각형
##름
제소
원폭
집정
여길
볼테르
나눴
플리니우스
파괴력
에이전시
##변국
시진핑
표고
##총동원
수거
##제거
이슬
플립
냄비
미타
##청년단
##외국
Press
Office
##한국인
궤적
교호
더러
주격
봉건제
Army
1540
실론
##찐
캔버스
엿보
스몰렌스크
내비게이션
프레젠테이션
##열린
##젼
##테마
금기시
영제
##翰林
스퍼
##비에
결백
학풍
##연군
사노
허수아비
##蒙
홍백가
##Best
중수소
베어링
간식
망명자
##오키
##접종
사타케
##다우
##篇
타수
##공은
도야마현
##부근
전입
##번주
청백리
기흥구
데비
더럼
전패
스테인리스
FX
백병전
##린다
##츠와
클로버
##타나
##이언
벤조
자오
북키프로스
관방
Wall
##에이스
에인트호번
IF
미하라
세레소
헤르타
##NHL
장애자
불거지
건너와
위인
정연
국세청
창간호
연구회
올려져
##양성자
##부총리
램지
self
연방제
##덤
He
세탁
##구호
http
##빈도
카를루스
파스퇴르
우드로
탄식
서대
오라클
1634
코지
##히틀러
오프사이드
홍역
스토아
양감
코린
신청서
##조기
##詞
##薛
##겹
접사
고음
드로잉
유언장
자코모
톱니바퀴
툴루이
##聲
챈들러
일리리아
Rain
##외곽
퇴행
흉
즐긴다
##衍
레기
파티마
좌상
코뿔소
사액
수운
잔잔
장공
업자
##인기
남인도
돌기둥
등교
동두천
##〉)
수마트라섬
스크롤
루가노
##參判
롯
승차권
필터링
쇄골
타카
미즈키
레딩
지급시
로리타
조훈현
해양성
모양새
##조직법
##해산
RF
파송
티아라
오드
생태계
페놀
동호회
교조
로웰
급진파
병들
자상
Champions
Queen
웁살라
클수록
이치조
처사
##관리법
장성군
##총력
다닌
사도행전
Program
소조
레오폴
사마시
관상용
빈라덴
##호흡
채워진
##비료
기다려야
라다
성시
##154
##코미디
페니실린
요로
##般
##락스
태원
스포일러
##흐트
천상
음질
##대략
포가
##사령
샤를로트
진보주의
가금
도량
입조
마그
경복
##수군
특산품
##하리
##레이더
해냈
드와이트
##PS
정선군
##콜레
덕흥대원군
고등관
‘-
호시노
덩굴
##재고
풍산
##산역
누계
##슐
##카니
##비나
오구리
올가
신천지
단다이
##구사론
##롯데
##거로
도수
로보
관영
치프
직할시
##國家
공권력
양민
##실리
보름달
상보
##중국어
직영
구국
퀄컴
JTWC
나일론
한국식
##고향
어로
을미사변
##감리
코드네임
Jones
1628
물러날
야마나시현
##헥타르
돋
재규어
마테
##퍼스트
캔버라
##거스
직장인
금수
프로메테우스
1471
##스티스
중정
이화여대
##로스트
홍성
테무
과보
##밤중
샌더스
크라이슬러
이대로
요시무네
##134
계측
치명상
##쟁
##滿
탁발
후쿠야마
사마소
운전대
##폐지
오야마
신토
TBN
##시내버스
##모아
##問
아파
##洋
롯데월드
Old
장계
김덕령
행장
프레스턴
##High
##베츠
제레미
##터빈
늘어져
##텍사스
화사
##발레
세로토닌
스플리트
##역정
다코타
시게오
정명훈
김연아
##구마
##무를
갈루아
부치
##여당
##인데다
역수
##마구
마그누스
게슈타포
우고
끈질기
가맹국
##역전
이학
가업
##상회
기화
걸러
메인프레임
스테이크
##신학자
천공
탑승자
모니카
마르티
문리
##군단장
도시바
대용량
방화벽
do
광구
위르겐
##속국
자야
수익금
게이힌
괴벨스
부호화
영구히
웅덩이
크루스
오지
##라오스
##재무
##로렌스
##지급
##Great
##푸드
##셔서
터득
금서
라며
진성
의열단
##도프
1756
치장
1611
##綠
1632
카노
밀리언
담가
도민
계면
Run
1589
당나귀
리카
범종
파푸아
카브레라
##520
처녀자리
올리비에
케라
샤흐
유향
##마정
##체전
학군
두건
피플
카디
말라카
디지
##밋
##摠
봉사자
차일드
돌핀스
레이커
유코
EOS
##광배
미적
##엑
넘어오
##1874
돌아서
비엔날레
포부
장유
축사
##키치
##타임즈
블라
Software
인내
시황제
##195
편승
인천항
경험치
선반
##행과
군사용
Review
##반트
바라본
##벗
워즈
인피니티
던진다
감화
##트라이
에러
1415
가평군
##페스트
플란
군현
##마르틴
NK
지협
카누
오두막
불러들이
가톨릭교도
종지부
활로
전분
붕
멋
렙
##인공
왈츠
음표
##고추
##생인
식구
##부령
##忠州
##무명
구례군
##라나
##결핍증
##혐오
송이
Conference
격투기
##mph
신드롬
주이
도립
양천구
베텔게우스
303
유곽
##남녀
##평화통일
재실
립
조형물
트윗
##목포
성호
무종
##빗
##자루
웬
##해피
석벽
카라코룸
##유키
ZARD
니나
##슬라우
치타스
스트레이트
##앞서
##조사의
칭한
##묘사
원자량
소수성
지지가
재계
##농촌
'(
불완전
##보증
##다기
라비
가르칠
아리안
현대사
승하차
245
##거점
파인만
Centre
에어리어
우애
우도
##우파
파타
국방위원회
풍족
251
노하
##잃어버린
포르투갈인
울진
밀약
인선
##酒
장타율
##소집
점원
가해진
히카리
역인
##구성원
##키트
구매력
덕택
스탈린주의
마음껏
##도독
##USD
트롤
탱고
몸싸움
적국
컬리지
공변
포토맥
벌금형
노여움
굵기
즉사
진형
청해
##권기
오라
엘레나
이걸
지날수록
전투원
데일
텍스처
피부색
##화음
1515
헤스
##정통
인센티브
##복실
다카우
유두
1773
##胤
퉁
1585
데려온
번만
침탈
##내일
군영
##동산
##功
양공
노반
고액
가노
하세가와
##지간
노심
##펑
262
메이크업
최영
봉군
티라노사우루스
##르투
##후안
##반지
Studio
사우스캐롤라이나주
세르지오
VfB
muscle
##아미타여래
양인
지지부진
금상
해프닝
돈의
##須
##스턴트
진자
그렇지만
장마
불렀으나
##660
##부속
분자량
##슬리
노무
스톨
기공식
오시
##잭슨
선다
겁니다
부산항
도시락
##느냐며
언쟁
체감
내한
어두워
레빈
일렬
국기가
##―)
본류
성탄절
퀵
항구의
체벌
아이비
형태소
##스텝
계양
교목
관현
풍년
620
요르요스
조산
교수법
루즈
바이에른주
##크로아티아
태산
대충
선주
힌디어
##대국
하저
일탈
현실주의
관상
발암
조안
마마
There
체재
건장
##중기
유탄
##하얀
해군기지
##Grand
지배권
수필가
편파
LPG
전면전
1469
##궁도
##壇
마르크스주의자
실학
후크
배위
반찬
##國立
라인란트
##;"
산적
건넜
##매카트니
반다
라나
해미
파섹
량
앞발
읍성
희빈
이석기
990
로버
헤어진
레자
스폰지
##防
과달카날
SLR
내측
第
##아키
##이타
Master
이효리
##아비달마
얼티밋
오르티스
가오루
##")"
해밀
##Pierre
##건국
원더걸스
##175
리디아
스파크
##정화
하모니카
온양
파티션
공집합
##유닛
DNS
아칸소
지배인
양키
따라다니
융자
예고편
홍천군
명문가
##일합
충무공
앉혔
회의장
슬프
##독수리
실루엣
##145
식탁
먀
희생양
동해선
##공중
여대
##검색
##여객철도
NADH
##르바
##아식
소시
본루
소프트볼
분묘
피카소
Key
##일러
농심
##스턴
아우슈비츠
Grand
쫓아가
이소룡
가즈
가해졌
싸워야
직분
##想
예테보리
주교회의
##주권
##방교
1524
셰프
폐질환
사육신
볼드윈
롤러코스터
카푸
##儒
##건대
##시보
교만
##승지
##국무
삼척시
##제독
##로스터
파키
침입자
혼례
##감자
장승
정묘호란
정방
하타케야마
히로사키
썰매
1555
색계
공구
##보그
스프링스틴
볼스터
스파이더
##노리오
##힙합
##근본번뇌
아카이
결석
정동영
들어야
불거졌
석판
영이
충적
약체
무역항
카야
행상
기네스북
통감부
퓰리처상
요일
망각
1741
컴팩트
##방출
리무진
영변
클락
##국동
##정세
비서실
물망
##논쟁
##혼란
##테이프
테레
용례
##애니
사다리꼴
내렸으며
앙심
장손
성주군
##수성
##震
베링
금욕
전계
##전해
##동일본
세이지
범고래
내셔널스
##만장이
챙겨
재구
텃밭
공감대
남겨둔
설교자
군제
##帖
##유명
간수
신명
복병
1595
샤르
길잡이
고쇼
##장터
LOVE
급식
고트족
선지자
##조시
미추홀
313
##불가
1588
서핑
히데아키
아이유
##관용
잉글랜드인
ㄱ
##伏
헤로데
감비아
##둑
메트
##390
채광
보안관
유병
밀스
펠로우
라이드
아키나
Magic
애버딘
극락전
love
대피선
##프렌즈
##가디언
##게리온
현대캐피탈
가즈히로
벨리댄스
제곱근
##경선
짜임새
휴학
크나큰
##138
불면증
심오
##유일
##주주
up
2100
##아산
로동
주해
안내서
##백작
싸이월드
공비
쾨
syndrome
##창한
질식
조부모
둘러보
맹렬히
최악
표가
##으라
찬란
가정과
사피어
열대성
주춤
##보유
물감
Kim
##저녁
마커스
##펭귄
삼인산
뱉
심방
670
트라키
##420
입장료
##오족
민트
트리톤
##아홉
크라수스
매칭
##패션
지냈으나
##1801
##탈리아나
##아미노
##노회
##당나라
사쿠라이
게을리
##銘
상대역
벼슬길
##座
데어
가메야마
1559
무라
현손
도입부
##Sir
##仁川
목제
다카다
광산구
##투입
신나
##皮
윤증
##군부인
##카시
가와고에
##환승
Lady
콜먼
##스피드
양사
열연
브루어스
홍건
룰라
Say
패튼
Bridge
이누야샤
##게임즈
롱스트리트
Season
파라디
찾아보
Richard
히카루
##상대론
##상고
확실시
##ml
##141
##1812
##용지
##보행
##Johann
소책자
최규하
##비문
##1623
##聯合
술어
프레데릭
Model
##오랜
마지
천주교도
##덴마크
##재직
##散
넘나드
퍼스널
##커버
##항성
웬만
##곤충
##補
순열
호두
##193
##1859
탁지부
요점
1646
차마
복통
##믈
##어미
제철소
동군연합
이누이트
보호국
기대감
소액
누군가의
##현존
드레퓌스
어구
공역
리턴
##元帥
어조
돌릴
DSM
##경찰의
첩자
구급차
엄하
##오빠
바나흐
1655
876
제노
동프로이센
##남편
1596
프리드먼
##비니
단신
##센서
산길
Here
남발
체외
1567
류성룡
##簿
##미코토
울진군
##레이다
미야자키현
유격
##段
##가이다
변두리
##Be
번스타인
천인
##기술원
##마케팅
암울
희극인
아머
아비스
##공천
Tu
##닌텐도
##포켓몬
##칭하
##五
디어
카세르타
##쥐아과
소부
웡
##아무
탈세
오오
실생활
##논리학
중간자
막심
신문인
##General
최순
휴전선
내려간다
오카모토
히데오
패티
끌어올렸
선택지
페아노
앞세운
유즈
어빙
《》,
딕슨
##공이
봄의
열한
##레닌
##滅
남포
##고와
분교
헌금
사로잡힌
##으리라고
버뮤다
이바르
##스크린
노블
격멸
##램
##Super
##메일
##料
##전압
Code
겨울잠
직간접
최남선
스텐
##웨이트
오대호
이케부쿠로
##체인지
능했
##장조
테이트
##어류
남획
억누르
공격기
1688
##바인
웨일스어
내려서
##위로
미끄러지
명암
손흥민
테스
중략
##시온
차오
##할까
주무
예천군
포퓰리즘
깨뜨리
맥베스
도넛
블라디보스토크
바칠
##나간
##적색
##策
##대령
돌과
운율
##백자
##強
파니
복제품
진중
##히코
##至
훈구파
풍수
이창호
강북구
아키코
조선귀족
##증서
건조물
민수
송곳니
녹조류
##관절
아마고
코미
##관음보살
고택
호군
히딩크
리베리
##미드
Series
사우샘프턴
##존자
캄포바소
숭녕
불러서
##문재인
정토
##政治
나날이
##지오
양원제
##文書
γ
버거
수혜
1714
워크래프트
유색
기노
##프레스
알렉시
나빠졌
폐결핵
##아사히
##부자
##民族
적개심
##직장
격변
무라타
퀘이사
##교대
##부제
기술인
코돈
##선도
남만
인칭
ESPN
##인다
뉴사우스웨일스
##Royal
1713
스쿼시
##깅
페르세우스
플루타르코스
근면
1512
기울어진
##장자
거만
##ə
최고위
바실리카
남다른
1642
1665
##어릴
헥
페테르
##우로
흘러내리
머지
파헤치
당쟁
구한말
##신전
##報
대륙회의
오무라
편액
은상
##精
요충
순치
비각
수박
##신증동국여지승람
##호리
##공로자
##쓰리
Collection
우레탄
병주
레이드
황동
포커스
##스프링
시사회
승수
##취리히
츠나
아커만
머스테인
빈곤층
##문집
돈바스
서두
탈수
##전단
판결문
직종
##139
형체
오갔
대남
군장
북한산
1761
쓰쿠바
정각
프린트
유토피아
부끄럽
##중학
##IV
방조
기념사업
세계사
수용성
피콜로
왼
하와이주
나오토
참회
한림원
두텁
##법령
Medical
##실적
우주국
선점
전용기
멘델스존
합주
울려
살충제
##폐쇄
비범
니콜라우스
##읽
##레테
##4000
문학가
도면
##이르
이경
생활상
바우어
비토리아
라카
1771
##기분
법리
연속극
1703
##盟
두족류
오른편
하늘색
버클
##충주
마네
안상
##얼마
##단기
플로렌스
##에요
마사노리
스토리보드
##都督
도르곤
옹정
장화
보급선
요구르트
암행어사
##편지
Years
침례
경유지
흑태자
##이징
남색
##몸길이
프시
식세포
##어웨이
##神道
##안성
##티어
유압
##명나라
데프
##보수주의
체크인
VHS
브릿
완행
Come
브룬
사티
검진
과대
병자
##중반
한적
##북로
기슈
피곤
ME
우량
##상도의
러너
최용건
모란봉
끼친다
뭄바이
정무직
양곤
제각각
##鴻
##사립
##소비자
UCLA
##소설가
##225
##연전
라덴
셉
점액
##수비
잉글리시
천연자원
게일어
주중
관의
아르테미스
##여왕
ITV
##앤드
구세주
외경
2200
펠트
1685
264
##갈리아
호민관
면한
원효
글귀
##더글러스
##소나
##로이드
따와
효령대군
##아르메니아
##산인
##南京
Am
콘돔
##르네
디펜
##假
패트리어트
##深
이사금
경마장
산세
플래닛
소경
##우마
송치
사직서
아오이
버드나무
브로커
##분당
프렌즈
도쿠시마현
번데기
##나시
고흥
스켈레톤
스벤
철권
모험가
미림
##점프
체크카드
##포대
누르스름
탱화
HPV
##라든지
짜증
##김구
##영토
##연예
##上海
디렉
유급
양전자
##우치
로마노
북제
두세
독립선언서
의결권
##원화
##144
Special
중앙역
##남아프리카
샤프트
##방언
팔과
##기술자
송가
아포
마르스
스타인
가상현실
강둑
브레이
뮌스터
열대
숙제
##오사
치지
회의실
피험자
배아줄기세포
##세균
노고
##슌
견학
문왕
인종주의
##타이어
삽화가
##피시
남유럽
안트베르펜
241
##입구
코마
초목
브리티시컬럼비아주
273
전통문화
극작
##렸으나
치러진다
소프
에로
this
##문답
운남
朴
환공
##256
로직
가급적
##원대
실러
붙잡히
폭언
상비군
1626
크리스토
985
대모
##루마니아
석비
##투아
항산
##오래
뱀의
현상학
완파
##결선
오피
화보
312
북로
##쿠마
조피
##이게
태안군
##라토
아랫면
기아나
연변
##손해
##논어
아메바
김장생
##1636
기묘사화
친아버지
논밭
엽서
해령
1573
토번
##횟수
튀어나와
이르쿠츠크
##열매
청대
브이
말레이
##난쟁이
자파
About
툴롱
파라미터
납입
역전패
전차로
포크스
스타킹
USL
주코프
료마
지하도
츠카사
김재규
##도둑
철판
작전과
쏟아졌
##시한
##응용
봇
화살표
초동
닳
교향악
창업주
모뎀
##세나
퓨처
트렉
준용
##불화
사회봉사
민주국민당
모략
자아내
나일강
백조자리
블레
##아나
따져
일본공산당
음운론
광양시
##이민
##손자
경산시
편중
문벌
하츠
##윅
은어
1457
탄자
##아문
##칠레
##치웠
벌칙
후술
함유량
신봉자
1715
##고야
China
##共
1510
##〉,〈
피임
푸이
살아왔
급료
##입장
후커
러쉬
위트
DF
##벨라
사냥감
##묘역
##경사각
구교
카트라이더
##테이크
밀로셰비치
수몰
민담
투표자
##자재
AIDS
냉담
233
##歸
무속
1711
하인츠
관등
신승훈
##깃
지갑
##武帝
##용대
시온
기괴
본존불
PV
##나이다
1722
##개동
안젤로
##日記
##나니
##范
경장
괴수
히포
##행이
손해배상
##리즈
이감
콜론
삼프도리아
아킬레스
코칭
##미우
ISU
하루카
##전시관
##未
채울
급상승
인파
백악
지탄
##と
##문항
광고주
가야
##대출
식도
스며들
와그너
사재
##중요
뉴델리
영동고속도로
##How
넋
군사분계선
##통칭
##간이
규산염
EV
슈테
최상급
스톱
##148
여산
##검증
관선
책무
##마르크스
옮겨서
쌍이
아라비
부르크
대장장이
바누아투
정회원
274
안식
##내셔널
수놓
수산업
Security
로지
##재해
##曆
##신도
무브먼트
열렬히
##是
저변
맬
##알렉산더
죽는다
##투리
역참
##르니
##자니
하북
섬서
심기
없앨
##선국
##부원
리처드슨
똑바로
##갱
팔다리
의안
플루오린화
##宿
##계로
##전라북도
##전권
##더리
쇼가쿠칸
##倭
##辰
##參議
파종
공로상
예천
##레우
유조
무인기
##공회
화전
##역량
카슨
보은군
오위도총부
##도감
숏
헬로
환불
##지훈련
목공
1656
##로디
##臺座
마야어
이시애
##정면
##204
플린트
##기오
티거
AF
Eyes
노리쇠
병결
##STER
미적분학
음높이
소추
##142
##電
커밍아웃
커리큘럼
알갱이
전세가
YTN
##더라
유프라테스
폐막
손발
스푸트니크
오도
##업소
합참
외자
원외
##네이버
사나
##1854
##191
##베이징
##자유당
우노
##구청장
이원론
행동주의
##색인
일러
손병희
840
##베가
유원지
그리움
폼페이
첨예
##시브
##First
라바
##오스트
##산악
헨델
느껴진다
파인애플
##始祖
클리프
조카딸
##1858
황금종려상
시한
헥토르
광범
영릉
##나인
칵테일
1599
##판단
##1597
Right
암술
234
뚱뚱
##복판
촌장
촉한
예송
방광
##유치
이목구비
##호분
지쿠젠
1718
아카디아
스노보드
##賓
룽
##시야
넓적
메로빙거
경공
고레
##챔피언
소토
베키
시리아군
에버렛
##다이스
나이키
노리치
Train
클린스만
노라
성배
DSP
Blood
불변량
연금술사
1661
PDF
##나트륨
산학
우방
control
체코어
캐스
파운데이션
아담스
천성
##르비
사계절
호헌
시가전
##일상
주행성
인본주의
복리
##720
##공학자
러닝메이트
1752
핸드폰
잇따랐
##환상
친부
사경
심양
황해도
이동휘
##선출
하락세
코헨
1767
##Get
항성풍
##자치구
헤엄치
양양군
##미리
##슬라브
##ER
크림슨
조종석
흉부
##속편
##스퍼
샤크
데빌
##갈라
생업
휴스
##각각
군악대
정병
매스컴
광둥어
le
바구니
거야
##쇼크
잠적
화답
소사이어티
퍼싱
##長安
쓸모없
Williams
도미티아누스
지으
리비우
##세르비아
은은
대전차포
소공
##투사
뉴클레오사이드
모성
##1392
존칭
##결절
출연자
##결승전
##提調
색칠
##彭
전연
놓친
시라크
##까진
##구매
##빅토리아
##산림
##182
229
##나쁜
##케이프
##음악상
##와시
##https
고명
구게
조슈아
싸인
##染
자물쇠
진앙
##니티
가증
California
상반신
##대좌
1659
Gold
크레이머
마조
##미노
##코보
빈스
##메오
당무
넥타이
PDA
##계좌
낙방
##중앙지
불씨
과거사
##고객
##가군
샤워
가까워졌
너구리
KC
중급
288
과천시
강팀
##NASA
##복귀
##370
조처
조간
하우스도르프
세이코
가히
##목성
개연
##갤럭시
무도회
##궁전
##조부
판자
실권자
애썼
##＞,
##컬러
##185
봉합
지명타자
404
부르짖
먹여
하이드록시기
레시피
PCR
병원균
한국독립당
유시
신천
속기
침체기
상습
단상
##천군
##哈
에히메
깊숙
근동
김부식
오카
##방패
극단주의
##句
상한선
오더
색감
뉴포트
쟁탈
한단
레이나
##이미지
부녀
##최순
달서
캐롤라인
도이체
초엽
##封
##국원
치적
##수영
방진
창춘
##무진
알프레도
##사양
합헌
거위
롤리
##블라디미르
든든
관인
##협과
철분
성병
향사
소심
화구
라모스
수입원
1587
야훼
가즈사
상장군
기념품
##언덕
영광군
##지소
##흡
김안로
##진사
##교서
철퇴
칠드런
996
Play
크라스
##중랑장
교상
증시
로빈스
퀸시
##right
메구미
##자이언트
1662
장준하
야인
도태
##국토
고차
##무효
단세포
항등원
자전축
섭리
타이난
##中華
청원군
##賞
카사
찾아낸
검찰청
##480
천왕성
곧잘
##초프
혁파
넥서스
의존도
IPv
오성
가쓰야
##상장
꼴찌
오토마타
##중심주의
감염증
##소비에트
축전기
브리티시컬럼비아
주머니쥐
1542
내구
근력
관습법
모모
244
##신다
메콩강
249
##오크
마담
리트
쉘
스파이스
1654
Roll
999
##DJ
##코비
벨러
non
강림
풀랑크
##개신교
##1857
장방형
요람
클라우디오
##제사
##스포글리
##리에
1517
국서
소호
TOUR
스미토모
##칙
##庭
나체
1516
편모
나오키
진골
최충헌
##내리
##江華
##扶餘
진이
Maria
퇴로
비센테
1725
##지산
마라타
##峯
세손
##河東
##鎌倉
##돌방
용수철
회갈색
##병증
##타원
특공
##카제
영안
스티비
마코
외주
##식판
마왕
자책골
리모컨
##밴
##정려
세르히오
조승
여우원숭이
쇼헤이
로키츠
신센구미
확률론
##선거관리위원회
아틸라
아스팔트
##인척
##검정
##쿠리
##삶
뇌터
##생성
외침
게르하르트
die
대륙붕
우암
AH
경전선
##1400
방관
살인범
##증거
전문직
암기
##솜
아키히토
##김대중
마중
탄원서
미개
##紙
##토비
##정전
##복제
##서명
##초창기
##품종
파지
도용
여학교
수입국
##충격
##이른
##정촌
완도
##형무소
셜리
알자
관계없
라고도
##약품
번호판
찼
해군력
Three
다스린
##155
##켈리
앵무새
지프
계류
##야가
진안군
태백시
휴고
퇴근
##제르
쳐들어와
붙잡힌
##늄
DOHC
히든
원광
Final
지양
조각품
오귀스트
##비키
스트로
##회도
아세트산
한명회
에이벡스
##인정
248
405
무섭
##権
마르키
라티
옥천군
줄리아노
1522
##1593
1568
무학
팔찌
보내왔
##217
##륵
##실시
몽둥이
윤상
##복식
##이오
본원
모라비아
백기
1545
티베트족
##대도
##원부
##지연
##샬
쿠어
리보니아
##로비치
MHz
##더빙
가스펠
##솔라
파크스
롤스터
을로
IDOLM
##사절
몬테비데오
달빛
내려간
##澄
벌어질
건설업
##봉과
내려다보
##007
나이프
타밀어
끊어졌
넘어갈
##코딩
담겼
##CO
행성상
하네다
대마
##정국
##喆
팔의
오쿠마
애드
##콩고
시부
가부키
카시
연혁
싸웠으며
파수
##메시지
들끓
여력
Name
고함
고문관
양배추
각본상
##239
랠프
연장자
논설위원
탈주
디트리히
##落
페렌츠
##네츠
사선
황희
1594
##제단
구찌
대홍수
구치소
원핵생물
##사체
##1839
결절
사해
##페트
##항원
##앙리
##平安
##208
다스릴
##다케
##兵部
문루
##太宗
총대장
##미트
Edward
타슈켄트
##부담
##潘
문공
##리브
히다카
봄바디어
매겨
방주
수비진
##성산
##학대
##이야
모항
사세보
찰스턴
누아르
모레노
쌍계사
스카이워커
##贈
네모
therapy
237
##한데다
선지
부도덕
펀딩
홑
##사각
##노동부
##천장
##간격
장형
슈퍼컴퓨터
타이머
남파
##영과
무역로
묵시
줄리언
##라메
험난
밀사
##Windows
학술원
870
양준혁
초중
군정청
대리청정
##권총
세일
소득세
##바지
##Daniel
등뼈
로젠
유피테르
##바이에른
##162
##됐었
##鐘
##종전
플리
답장
알렉시오스
브루투스
##나투스
뜻밖
1529
##피해자
고타
##블라
양동
무형
모토나리
##연애
노회찬
세슘
패널로
벗기
주석서
##平壤
삼키
솔트레이크
1563
유키나가
휜
##錢
순무
Federation
우스터
뉴사우스웨일스주
지치부
##발톱
소장본
##의자
##開城
이고르
베이즈
아처
##산전
AESA
##약국
로사
토바고
##글루
##지바
공작위
로건
채프먼
결가부좌
폴라리스
꽃차례
##멘탈
##천왕
크리스티아누
Beautiful
쿄코
##は
##쇼어
##스톰
##대례
##모하
LCK
양전하
전자쌍
##드니
저의
number
##해낼
헤게모니
잇따른
단교
흑표
단파
지괴
배기가스
평행선
칼로리
음료수
스칼
루디
전우
월성
덕수
주례
답답
##640
번졌
##Mark
홀로그램
##극장판
##손가락
전문점
##浪
##급인
수초
맹자
감영
Valley
무정부주의
낮춰
이정
시시
둔갑
##판인
##동작
알바니아인
1535
##Time
하양
자급
##족인
코르크
##메이저
##파이터
에리스
##든가
##랄리
냉혹
서포
Les
살육
구부러진
##顔
##정교회
##마녀
Just
엄연히
##郷
소과
내무성
낮출
봉행
##조조
##映
유유
311
##루나
무적
옷차림
화공
##이슈
##통이
아쉬운
교령
##우인
에치
배꼽
입궐
##마드리드
체직
인드라
##위탁
##찰소
##奥
중도우파
문턱
고변
슈가
##総
삭발
휘트먼
##점인
웨딩
Report
르망
밀렵
포피
오수
로미오
인어
285
대시
아브루초
고치현
소꿉친구
퀴어
장론
ATC
가타리나
가마터
##반명
수론
##鑑
##정수
고초
##현직
흉상
##Marie
##스핀
286
다방
Magazine
##권역
몰라도
무전기
농림부
연합회
##유신
단골
type
284
나아지
생겨난다
호기
뚫린
##클리프
통통
속령
오손
첫해
유태
PAOK
항해사
카르티에
1456
캐피털
다재다능
뒤이
준거
해초
넘어온
마르타
##후인
소고기
드림캐스트
불매
고자
영월군
##編
##스탈
받아들여져
연합함대
우구
나눠서
##序
##효로
후보지
##1598
부추기
주디
##하이드로
병리
1667
군포시
라이징
##쑤
북북
고려사
센트랄
##인제
시모쓰케
##205
##엄과
대광
상소문
금천구
서천군
##북면
눕
Central
##변인
##諸葛
##영사
##실질
##왈라비
참새목
타밀
주정
산호세
##校尉
크레이지
증편
매긴
##승점
사가미하라
##≪
마르그리트
머릿돌
오케
##엔젤
런닝
아뢰야식
##모식
##癡
반비례
응답자
그라스
##저런
APEC
디바
##적도
##1877
브리스톨
측천무후
##人民
##강령
강북
폐막식
1690
231
##147
자의식
304
튀니스
장성택
정강
1668
대저
부쳐
##196
##암호
고생대
##르네상스
##北京
##고법
코스모스
WBC
글라이더
아사쿠사
자네
##작물
항생
##유도탄
nm
통고
##호부
경리
열지
##부패
최고재판소
##유동
수정주의
헝가리어
수확량
##249
오심
##1856
이상일
잠자
##대립
위서
##개시
칸타타
귀엽
이드
Mac
나경원
그러니까
고열
핀란드인
무더기
마주쳤
프록시마
썸머
폐하
비음
동주
##프랑
카로
세나
장터
션
종명
1658
성관
림프구
##경국대전
##維
투약
##비토
1561
1584
베르톨트
몬태나주
##사신
403
##원구
쿤밍
어제
##구청
에어쇼
소식통
왕중
1575
결산
하딩
쇼텐
고다
윤종신
칸나
한서
루퍼트
머스탱
##붙이
불스
##중지
##기니
##지분
##거성
네이선
게릭
결승선
평성
법황
브리크
##PM
툇마루
티미
##범주
##計
초토
포르테
동서남북
철사
기상학
청계
##客
##독자
CC
다다랐
##Hans
펼쳤으나
처럼
예도
환도
1735
##리전
주체사상
한양대
Asia
Hospital
##time
사파리
1625
프놈펜
##무력
뻔하
화물차
Apple
이용은
##경계
##Al
아라키
레이지
##취소
총생산
형부
KDE
서측
##질병
넘어간다
퍼붓
결정지
북두
공모자
젖산
지리지
##1776
파고들
흔드
##여졌
##티크
수각
##계인
항공모
참소
NX
기지국
지독
별동대
악사
천의
1547
##해상
##Christian
노섬브리아
상속권
메뚜기
케인스
장중
뒀
##전향
인신매매
effect
탐라
##양시
##승과
조르
1466
왜국
멀리뛰기
칼케돈
공납
##渡
현전
306
1681
콜렉션
성삼문
순창
1664
가례
영흥
악셀
지역민
태프트
혼간지
no
##소자
##우사
열혈
북청
Future
젬
##센스
##리스토
곽사
항우울제
국산화
##재난
방심
비욘
범유
헤타페
카카오톡
어택
오사수나
호시
##국회의원
정의역
##보였
판단력
##진수
##편집
학병
절대다수
##학도
교습
Our
1531
도나
분광학
##클래식
화두
##陀
process
아데닌
##駿
속초
코코아
공산군
피드
벌채
##소매
벌어들였
##메모리
틀리
본교
정릉
710
매독
루시엔
노멀
멍
##엘리자베스
공사비
에머슨
동베를린
알렉상드르
프루스트
에지
##조군
휘종
창가
시아버지
구인
접두어
계양구
per
극화
선거관리위원회
파고
1754
톨스토이
가성
포옹
애원
##신자
히토시
뒤덮여
아이히만
##j
참작
소성
페트
전근
315
바닐라
##본사
금천
생활사
라가
이정희
1633
##장령
석이
막차
백호
성현
##도로공사
로슈
벤츠
##포니
##菊
쿠니
Real
Zone
##단군
##卓
##시탄
업무상
##배출
저감
##휴의
감쇠
##좌도
오공
매화
옥새
##交
##동국
##주관
##선교회
경사진
은빛
##강한
오페
오티스
DX
샬롯
민다나오
밀라
##샌프란시스코
레반테
롬바르디
##라이즈
BJ
##출구
석가여래
Place
##어드벤처
카즈야
청약
##結
수일
덧붙이
##개량
팽배
##브룩
##라임
정보국
떨어뜨렸
충무
중도좌파
Railway
씌우
古
논점
반수
폴링
대어
리히터
올림푸스
공저
1669
양친
슈테판
##맥주
##FA
##서당
돌아다녔
혈소판
통역관
져야
##춘천
카본
상공업
##장로교
행정학
순직
1748
##스팟
네안데르탈인
##165
좌지우지
Lord
분수령
쿼
불행히
소와
광주광역시
키바
유일무이
##벤트
1743
쿠르스크
##부진
도지
방의
##지야
미용
액자
막내딸
##레브
##수력
##계속
악령
에우제니오
##명부
등정
높인다
역류
푸아티에
추진제
가용성
망고
아깝
민주진보당
##성주
풀러
페라
담아내
포도밭
발랄
##황자
##戶
##耶
로디지아
덴노지
##政事
1398
##대첩
1622
##公州
##냔
강소
프티
구조대
내레이션
##㈜
치바
읍내
쿠시
##셰프
조음
##시게
사생
중종반정
중전
##치과
석굴
##페니
허리띠
초식성
##디즈
##경종
카사바
홈스
##스마
사이코
니시오
에이트
##니키
디스트릭트
##레노
셀린
혼계영
GSL
반의
##포천
들러
애호
파의
우군
유작
뷔르템베르크
##택시
384
##저서
나자
흐릿
돌린
들여왔
##장력
보태
친해
거듭났
##고타
시너지
실존주의
세포내
본과
뤼순
비법
##분산
##삼각
회칙
메기
##냄
발칸반도
1534
연휴
쉼터
함몰
하데스
뛰어났으며
##152
##207
Studies
##추구
##산부
연결선
야만인
채식
##세비
코즈
다가올
속아
이동의
뿔뿔이
폴리머
척박
퇴적암
칭해
무기고
415
크세르크세스
열병식
다이라
기스
##크라
##저리
##사물
##223
명대
302
외손
명왕성
1504
##링가
병마
카타니아
##자음
지번
재목
크리크
도매
퀸즐랜드주
고래자리
##리부
농약
청양
문도
돗토리현
##濬
##토구
Fall
경희
##출장
단막극
두툼
1652
발코니
##어사
##183
플레잉
주의력
오군
마츠
1004
##카우
이코마
##증명서
모리뉴
이스트우드
아길레라
견도
##불계승
##Crocidura
미해결
정전기
마친다
##non
##MC
교집합
총의
##Martin
##蜀
적장자
VIP
고령화
##명회
##상가
미야자와
낙찰
##조상
표수
##시스템즈
나뉠
##광물
사계
급파
테러리즘
##댁
진작
조로아스터교
호킨스
오르트
팽대
물들
헴
##문대
Organization
청송군
이뤄냈
자유국
##시라
##바주
##자국
##판무관
247
타자기
가져다주
멋지
아르카
사형수
##트랩
##⟫
대당
공터
맥북
에뮬레이션
Video
##Korean
흐리
KS
##화산
미남
아티
방책
1638
웃도
1533
포박
1543
극명
##야르
##킴
야요이
##좁
장보고
##사바
고유종
분추
주현
드골
##사이클
베르베르
##혈의
MMORPG
설욕
##부전
##養
김용
챙겼
믈라카
비니
박영
윤허
중심인물
액면
LS
##吏部
##코스트
##솝
혜제
부시장
##나무과
판디아
##민속문화재
##라미
Hard
가맹점
노르트
인목대비
어뢰정
표도르
오라녜
District
##후유
타카시
홋스퍼
가넷
피니
필러
Route
예술인
우크라이나어
구소련
원세훈
##이날
황당
후원회
##버섯
광속
##쿠타
양성애자
재력
CW
소소
발표회
인원수
고유어
가까울
그만둔
윈체스터
헤엄
차용어
##작성
애쓰
푸딩
##크리스마스
##파시즘
##총동맹
김책
구주
시책
응수
기준점
world
##Pop
Forever
덮쳐
요리법
동관
덴진
new
동리
스오
중요시
창작물
지중해성
자만
레오폴드
자동차도
