##The
사용
##This
##합니다
##습니다
##If
데이터
시스템
MQ
##”
WebSphere
정보
“
제공
서비스
##’
##You
설정
기능
관리
처리
##In
##For
서버
수행
파일
구성
##시스템
##정보
지원
선택
발생
인터페이스
업무
필요
EAI
정의
가능
전송
메시지
##입니다
##To
생성
##됩니다
입력
실행
수신
요청
추가
##When
연계
환경
통합
구축
적용
기술
포함
등록
##It
사용자
##관리
##ﬁ
##여야
합니다
작업
parameter
‘
attribute
이름
broker
이용
프로세스
내용
오류
전문
클릭
모니터링
시간
표준
분석
상태
계약
보안
연결
directory
저장
specify
조회
click
표시
방법
응답
작성
##“
##="
송신
성능
##Note
장애
프로젝트
##서버
프로그램
대상
##IBM
사항
호출
Adapter
화면
항목
ﬁ
기본
##EAI
테스트
##Use
##기관
유지
거래
방식
##서비스
테이블
로그
##어야
관리자
다양
리포트
솔루션
##An
시작
*/
애플리케이션
필드
기반
##십시오
버튼
소프트웨어
유형
수정
그룹
##데이터
제품
##코드
사업
삭제
자동
참조
##See
attributes
##번호
아래
활용
완료
##또한
Broker
commands
##처리
하나
구현
##These
클라이언트
암호
Queue
목록
속성
##전문
설명
##WebSphere
##업무
동일
##However
queues
JMS
코드
종료
MicroStrategy
구조
아니
트랜잭션
메뉴
특정
##파일
고객
단위
##On
진행
전달
문제
통한
구분
##려면
단계
##보수
네트워크
기업
채널
install
권한
검증
–
옵션
정상
위하
버전
페이지
여부
##사업
됩니다
insert
##사항
위치
출력
변환
백업
검색
일반
접근
데이터베이스
존재
##There
명령
speci
##는지
password
##Cause
인증
요구
##고자
어댑터
모듈
header
자료
접속
buffer
영역
identifier
##으로써
노드
통신
##수신
기록
통하
기관
개인
##Select
메트
함수
ESB
배치
##다음
모델
##All
부분
연동
Client
내부
반영
효율
위해서
교육
##통합
##개발
##Action
##사용자
SSL
이벤트
방안
어플리케이션
bytes
때문
에러
Configuration
##As
##Each
제시
공유
평가
MTE
크기
CICS
기존
비즈니스
##Click
설계
의미
##토리
상황
requests
##송신
실시간
query
컴포넌트
배포
결정
nodes
고려
configure
대하
경로
##지원
정책
##운영
##사용
기간
조건
안정
협의
외부
##기술
만들
servers
대해서
확장
subscription
객체
담당자
범위
변수
dynaTrace
repository
형태
##We
품질
##해당
LOB
성공
제한
trigger
adapter
절차
확보
specifies
증가
그림
폴더
connector
##Oracle
요소
##연계
button
##기능
제어
delete
영향
##MTE
##거래
authentication
Transaction
##기간
제출
thread
수립
folder
##환경
fails
##결과
##서의
##—
디렉
##After
상세
##기본
수집
소스
definitions
목적
세션
##따라서
클래스
transactions
도입
시장
응용
##사업자
syntax
승인
logical
동작
실제
reply
매핑
요건
ESQL
##일의
개선
과정
##구분
configured
WMQ
실시
계획
클라우드
타입
##보안
MQPUT
##Explanation
비용
추출
중요
헤더
##이러
복구
체계
현황
##반의
##Using
온라인
일정
검토
대응
트래픽
##그림
##‘
NULL
패턴
##표준
##sharing
자원
##센터
##대상
에이전트
규정
주기
##메시지
##계약
계정
##페이지
사전
사이트
##가능
##Check
SOAP
##현재
##based
플랫
반드시
##Specify
##click
요구사항
이미지
보장
##자료
플로우
리턴
dialog
processed
##By
통계
역할
##등록
시험
호스트
계산
공통
descriptor
##Any
listener
##요청
조직
제안
도구
체크
상호
오른쪽
액세스
##Create
구동
프로토콜
지속
MQGET
commit
##문서
##Specifies
최소
##--
모드
전자
##인터페이스
이행
점검
로그인
->
제거
modify
##만약
부여
할당
제외
신규
자체
장비
메모리
##일반
’
##수행
##어서
비밀
##프로그램
restart
##업자
##트리
##계획
execute
deploy
##테스트
보호
금융
##설명
##아래
주소
MQSC
이동
##화면
패킷
측정
해결
Connector
##내용
인력
runtime
조치
Developer
##모듈
활성
추진
integer
##시키
##모든
편집
분야
가상
##단계
개별
번호
세부
보유
##public
책임
JDBC
##그룹
별도
실패
messaging
##상태
최종
##설정
##기업
Dynatrace
향상
문자
##전송
MQI
##뷰트
마우스
메소드
지급
LDAP
동시
수준
##Message
검사
##NAME
특성
규칙
interfaces
기동
##++
바랍니다
##level
enables
위험
##다면
IMS
##시험
이러
rows
업데이트
파악
cursor
인프라
형식
수급
##업체
##정의
포트
MQMD
참여
전환
##으므로
##항목
관계
correctly
##분석
비교
##통신
##버튼
모바일
wizard
차세대
팝업
개발자
시점
스마트
경험
FTP
분산
링크
##프로젝트
##Data
간의
준수
##String
##작업
##업의
specifying
생산
필터
##그러나
길이
##안사
##는가
아키텍처
##",
##인지
송수신
##defined
##Figure
##User
리스트
##No
문자열
하위
효과
##평가
##회사
변화
deleted
##Some
분류
SOA
##HTTP
조정
담당
내역
보여
##Because
##부서
기록물
건수
##보호
식별
##체계
##Open
##From
BusinessWare
개체
##입력
클러스터
정지
##기존
명시
컬럼
##Set
##여부
레코드
쿼리
##특히
초과
##변경
blank
##응답
prompt
Script
인터넷
선정
##Description
##With
즉시
순서
selector
EJB
원인
국내
invalid
applies
##금액
디스크
pane
필수
업체
icon
encoding
Create
HUB
레벨
parser
영상
판단
##클라이언트
##Before
해제
Node
모니터
##조회
리소스
##설치
##모코
추적
##장애
##스턴스
Length
향후
단일
산업
##At
분리
허용
invoked
XA
Request
신속
확대
산정
일치
verify
인수
반환
시도
##Enter
회사
##단위
통해서
활동
공급
디자인
스크립트
ebSpher
batch
updates
다운로드
##채널
Error
평균
bean
##Ensure
목표
functionality
엔진
복사
동기
##은행
이내
##They
##ESB
보관
##테이블
감지
인식
MQSeries
##카드
사이
이해
logs
가이드
Log
##Once
##MQ
##플랫
##다만
##엠시
ignored
부하
sender
그래프
JEUS
subscriber
로컬
##방식
retrieve
종류
로드
사유
방지
핵심
물리
대기
태그
WAS
threads
##시작
##관리자
WSDL
DBMS
##각의
AIX
아이콘
업로드
통제
매니저
##요소
##기준
파라미터
예상
##Do
##인증
공개
포맷
##특정
원칙
Add
##헤더
pointer
template
##mqm
##제공
유닛
오브젝트
##방안
이용한
SET
적절
##담당자
나타내
##API
정확
##One
SYSTEM
##>.
##->
##유형
상품
##LENGTH
인한
##방법
namespace
##외부
invoke
우선
공간
##조건
##고객
전략
강화
라이브러리
ofthe
##Therefore
EIS
참고
나타나
##UX
이관
##MicroStrategy
##개인
##발생
##품의
##배치
##관련
##장비
##인력
원사
해야
manually
##Table
투입
exits
privileges
##Response
container
specification
##객의
##^[
COBOL
대비
##삭제
바탕
표현
산출물
통보
##구성
##Also
##소프트웨어
##subscribe
##확인
흐름
입니다
##XML
각종
장치
중복
##현황
개수
checks
서면
대외
metrics
##오류
자세
numeric
예정
##항의
속도
Connect
지연
Specify
금액
공공
원격
##영역
접수
투자
보내
##HOME
##수정
##전자
##유지
##letter
전사
initiator
대화
##Windows
패키지
센터
임계
적합
언어
소요
QM
embedded
keyword
은행
SELECT
용량
비즈
조사
날짜
##장소
영업
installing
##전체
##다양
GUI
신청
예외
Console
대표
##위의
오픈
##Queue
##으로부터
##내역
나타납니다
MQOPEN
##자세
##What
##Only
차트
라우팅
##출력
##프로세스
##정상
준비
##관의
trademarks
logging
##에러
directories
##이름
addresses
##고서
##금융
persistent
metadata
블록
ALTER
반복
##으로서
명령어
##그리고
카드
압축
UI
brokers
도출
브라우저
GET
중지
authorization
Customer
LOBs
##Add
##Now
의하
##How
login
initialization
중단
##File
메시
##etc
explicitly
##리포트
가용성
inthe
수동
예제
##Dynatrace
##도시
입찰
유사
작동
detected
##플로우
scripts
##여기
##Your
중인
텍스트
관점
##네트워크
##존의
성장
미리
Repository
##일자
Socket
##모드
로직
내의
트리
##Integration
##Application
FROM
##또는
##교육
permissions
##구축
부서
보증
공동
##저장
하드웨어
CCTV
##specific
##byte
CREATE
횟수
##value
tablespace
유연
아이디
중앙
##Returns
retry
체결
지식
##’,
누르
숫자
컴퓨터
취소
--
개념
##암호
Sync
##Make
손해
당사
mqm
—
범주
##Here
탐색기
##온라인
대체
Deployment
동적
보완
##제품
##성능
수요
##WMQ
JVM
매개변수
기재
packages
컨트롤
콘텐츠
법률
##주요
별로
##제안
dump
identifies
경보
##완료
복제
Managed
도메인
mediation
timeout
determines
##연결
startup
정부
행정
규모
headers
집합
##Refer
계층
예측
LU
시행
##추가
validation
##개월
incoming
##필드
##인터넷
##태의
##아야
protocols
업그레이드
proxy
##Java
구매
generates
##보증
Tmax
MQRC
마련
##어댑터
Toolkit
Config
PowerPack
JNDI
communicate
특이
##상황
Query
##였을
subscriptions
##256
##기타
SDK
##이하
의무
rollback
workload
##이때
원활
프롬프트
##로그
중심
Insert
알고리즘
사람
gateway
Default
queries
routing
##Business
browse
글로벌
##Then
의사
Header
==
##While
##기반
##…
##Start
##클라우드
도움
스토리지
마스터
매출
##블의
queuing
copied
##시티
##트랜잭션
handles
Load
Batch
MRM
차단
profiles
##검색
유효
JSP
##Please
##보험
Exception
clusters
nested
##Web
통지
직원
matching
##That
##Server
RTT
수익
협업
##이전
OCI
조합
##Although
referenced
##server
##과제
##조직
##Other
PCF
최근
Component
##AMQ
##DATE
##줍니다
최신
이력
##’)
plug
시나리오
인하
##기록
현장
Example
집중
terminated
첨부
transactional
##투자
MQGMO
##So
발전
##메뉴
Everyplace
판매
Options
checking
나타냅니다
일자
부담
컨설팅
동의
신뢰
정합성
ISM
##실행
WS
blanks
단순
구문
용역
Workbench
라이센스
workbench
이유
지침
사례
##구조
##자리
##점검
측면
납품
새로
subsystem
invocation
발견
##usr
신용
##Type
SCA
##더라도
##시장
인증서
Cluster
최초
고유
디퍼
컨텍스트
clicking
padding
setup
migrate
MQRFH
integrity
발주
용이
UPDATE
##only
TABLE
일괄
##Alternatively
##Client
##MQLONG
##조치
##정책
정하
##모델
Rational
defaults
##산업
BPM
권리
token
##
AWS
CSQ
이슈
사용량
##수급
보고서
충족
Runtime
offset
전용
템플
##정부
queuemanager
correlation
##적용
논리
throws
가정
##범위
빠른
assign
##목록
지시
콘솔
##모니터링
##필요
다르
갱신
##외의
##info
##_*
##Otherwise
운용
지체
Input
과업
비동기
certificates
당사자
아이템
issuing
##종료
제니퍼
prefix
##선택
##Since
복잡
창이
##시킬
매개
필터링
datatype
ERP
##적의
편의
자바
메일
APIs
Controller
OneAgent
감사
checked
방향
IDs
따르
##승인
테이
selecting
우리
RDBMS
상용
##EXEC
무상
##".
##내부
##변수
상위
PurePath
##노드
##
이루어지
encryption
##솔루션
warehouse
Activity
identi
정렬
##증권
##TCP
dynamically
##',
##뱅킹
합의
유출
##Messages
##공유
reset
##City
독립
사실
bucket
대시보드
확정
##자원
##상대자
복원
##Right
결재
기초
감소
##Change
Mapping
##Security
정리
마시
##이타

분할
수용
하도급
##하나
##ERROR
과제
Installation
사업자
##량의
플랫폼
손실
청구
만족
notification
privilege
정한
terminates
인덱스
산출
##스마트
##연구
##ISM
paths
##바이트
용어
URI
##비용
overview
##료의
최적
간주
##')
부문
보존
##Optional
##과정
박스
확산
executing
특수
##다른
소유
경고
##절차
Administrator
MQINQ
##결정
협력
호환
Compute
##우의
삽입
##경우
상표
시에
컨테이너
바닥글
java
Commit
implementations
미들웨어
##001
발행
적극
graphical
어떻
thefollowing
달성
##user
Storage
defining
##성과
stack
공격
##06
##려는
권장
##공통
매뉴얼
따른다
연관
logged
상대
차이
전문의
##*)
##주기
##없이
INSERT
accessing
destinations
##Most
Import
성과
redo
NEO
##분야
##행정
locator
Settings
CCSID
##Service
HA
##MSG
##During
드라이브
##매니저
##규정
##시켜
문제점
근거
열람
##Chapter
##Name
해지
##Example
고도
DataPower
ODBC
긴급
asynchronous
WHERE
##데이터베이스
##신규
Pattern
버퍼
##Both
항상
tothe
##AMD
##Creating
중간
##Instead
##인가
##체제
엔터
위반
가격
##상자
constraint
빠르
##작성자
const
이루
최적화
subscribers
형상
높이
Publish
TUXEDO
xml
DISPLAY
호의
특별
##03
Filter
##영상
##비트
BEA
registry
어떠
##설계
패스워드
##Direct
BI
멀티
##SAP
indexes
##만큼
절감
##요구
##이상
##Is
취약점
Module
한글
제약
실적
##DATA
executable
바이트
lets
configuring
교체
NOT
##’.
Collector
implements
##생성
그리드
##백업
##NONE
부터
비율
계좌
##connection
변동
scenarios
caller
김성수
completes
##함수
Tivoli
parsing
INTO
검수
Output
워크
##공개
인정
flags
전산
compiler
섹션
지표
안전
BLOB
credentials
트리거
##Error
PUT
단말
구체
가져오
##쥴
*)
##But
Schema
##Test
executes
##manager
##디스크
Click
차원
##마이
IPv
##변환
mapped
결합
##폴더
서명
endpoint
topology
발급
가치
장소
decimal
눌러
종합
##root
##복구
controller
코어
포인트
조작
진단
엑셀
##UNIX
우측
규격
리포
공급자
스키마
please
다중
선언
저작
MQCONN
협조
explicit
Workflow
보이
##분의
compatibility
SYS
##05
##원사
##대외
##관제
tracing
##규모
##면의
MQCONNX
constraints
disable
APM
발송
예방
의견
제반
전망
계약서
알림
대용량
##Define
이메일
용도
##사이트
미치
##소스
##참고
##속성
TRUE
##XA
vendor
refresh
##활용
macro
부족
Installer
잘못
servlet
㈜
##계정
##공급자
QMGR
##한국
##통제
집계
analyze
Setup
정기
##로써
패치
Byte
USER
MQe
##이벤트
reproduced
전반
##라면
##ㅇ
##활동
invokes
username
ensures
REST
증명
depend
syncpoint
불가
Trace
Servers
##조제
##2009
Attribute
간단
##목표
connectors
Trigger
##내의
##SSL
Tuxedo
##시킵니다
나열
Tool
asterisk
BSDS
##목적
편리
##요건
##First
Warehouse
##응용
##route
취득
##그러
상자
##MGR
socket
경영
##07
uninstall
##Run
workflow
##가상
##국가
Analytics
##방향
##Thus
##ROM
기기
임시
##문의
Layer
buffers
inbound
이하
제안서
##규칙
행위
전문가
결함
##Setting
##TYPE
connectivity
광고
Delete
법인
FILE
##지정
##guration
DLQ
partitions
illustrates
드롭
##건수
##신청
##재산
노력
Compuware
나누
메타
BW
주민
자격
callback
혁신
##시설
##=""
filename
palette
토큰
##더부
##자동
##예측
folders
BFILE
##SELECT
##Many
경제
미래
재난
bindings
fix
프레임
컨텐츠
propagated
restarted
##호스트
Parameter
일관
스레드
##조사
DELETE
TYPE
VARCHAR
##이용
Function
tags
##JEUS
##등급
자율
방문
##Verify
##Depending
수가
toolbar
##심의
대량
##국내
constants
극대
##Broker
능력
##계좌
고급
threshold
##안전
양식
##ﬂ
extract
디바이스
##Applications
##시킨다
Thread
##MB
##JMS
##Copyright
버킷
지능
Proxy
##부분
런타임
##비즈니스
hexadecimal
##length
##모바일
##End
customize
##일정
workspace
logger
##검증
override
발표
##이행
##지역
이중화
##호의
##플로
파트너
##전략
요약
시각화
DATA
terminate
엔드
##BIP
메인
사고
장점
##Active
##Log
##이렇
lookup
Intelligent
이외
전화
formatting
주관
subscribe
##아서
demonstrates
위의
##점수
outbound
일련
물품
initiation
##**
##Where
최대한
initialized
quotation
##여러
dashboard
##>,
POS
##Source
##가격
합계
##128
materialized
##배포
Encoding
${
##Follow
##SET
물론
##동기
HTTPS
overhead
##담당
##alone
beans
분기
전부
주문
migrated
현상
##전문의
routed
##void
자산
일체
keywords
유용
##관계
단추
throughput
##분류
Creating
##실시간
##장치
##System
반출
##Subscribe
교환
repositories
고정
명명
AGENT
탐색
mount
##사고
##Such
손상
의거
취약
사회
수준의
프레임워크
##oriented
##비밀
Postcard
왼쪽
회원
##고의
##기동
간격
##기록물
##which
MQCC
allocate
##권한
##Connect
##Notice
금지
특징
occurrence
핸들러
RTI
##최대
##Reason
Dashboard
여기
locate
##전하
표기
##BusinessWare
##최종
##Configuring
순차
WebDB
Container
##CPU
감시
##Be
##return
administrators
packet
##www
incorrect
CLI
##포인트
snapshot
우수
##차세대
compile
##단말
보여준다
양방향
복호화
mappings
노출
##등의
전원
routines
##SW
detect
스케줄
discarded
assumes
공정
waits
인쇄
triggers
##버전
라이선스
##Event
제조
JCL
##Midas
##의의
##사유
일시
경쟁
workstation
TOE
Added
##MCI
##용의
##xml
##애플리케이션
thequeue
rolled
persistence
coordinator
Null
메타데이터
##였으며
daemon
상기
POST
##Configure
disks
나오
##Process
이용자
리모트
##우리
명확
임의
CRM
ﬂ
컴퓨팅
인지
boolean
마이
##상품
SQLJ
##Linux
가공
거부
vendors
구성원
가동
drill
##Users
체제
interact
의해서
filters
김세종
수량
등급
Context
방화벽
기대
유지관리
##개선
##옵션
prompts
완전
##USER
개요
회선
##Either
##계획서
자동화
inventory
까지
EMP
Desktop
신고
triggered
##위험
##실제
omitted
inserted
shutdown
폐기
CLOB
상의
…
나타난다
##Information
관찰
##시기
##db
세트
유무
저하
subset
##능력
차지
implicitly
증대
themessage
distribute
##창이
retrieves
NAME
유저
줍니다
##진행
Apply
aggregation
parsed
Authentication
##Another
PurePaths
predefined
Messaging
namelist
firewall
##Plus
optionally
만드
RACF
WMB
도달
migrating
배정
##트리거
재처리
hash
Instance
##SHA
##디렉
##Stop
Async
소개
validate
##발주
CompCode
##통계
보정
##business
##Additionally
문의
Tools
커넥션
initialize
onthe
상대방
Password
##printf
##개발자
##웍
비활성
##Agent
BME
##성공
implicit
confirm
selectors
##개별
declare
전개
##동일
내장
##Switch
modeling
desktop
서류
개방
##Course
deploying
dashlet
불구
기회
보낸
패널
색상
##세션
해외
드릴
대가
External
쿠키
적정
##당사
연산
모델링
##소의
##ALL
Infrastructure
경쟁력
무시
mandatory
##Let
__
##Save
자신
시설
대금
마법사
참가
##Typically
##opt
monitored
enabling
##전한
Architect
flexibility
주식
##라도
##Object
##Every
드래그
증권
##Default
##Enterprise
##create
툴바
triggering
만큼
Ctrl
DBA
Sensor
unexpected
##ARIA
duplicate
onpage
##EXIT
백분율
##도구
-->
##390
대처
RUM
indicator
reuse
examine
지점
##길이
##And
arrow
Informix
guidelines
##이란
Subscription
##이것
##향후
컴파일
##">
config
##Remove
Copy
##</
expect
##지시
침해
JMSException
milliseconds
홈페이지
Buffer
##클릭
##행의
병렬
##write
##Whether
##할지
편집기
##Finally
Messages
##시의
매체
PATH
Cache
충분
##준다
exported
##Similarly
유통
##서명
##최근
미디어
법령
identifiers
##명령
##Programmer
##New
##SEED
완성
RESET
관심
소켓
parse
토대
##Under
DEFINE
##ERR
전송이
formatted
replies
강제
JDK
MIME
예산
##%)
적재
audit
END
digits
JAR
##Choose
당해
##형태
Specifies
persists
##VERSION
navigate
replication
Backup
##공급
##신고
##Install
Ensure
repeating
##related
도착
##Not
인원
ADT
CHANNEL
printer
생략
다운
##Examples
##message
##로컬
VMS
##Consider
그래픽
##Next
payload
alert
##초기
##디퍼
Sequence
##비율
생각
##Syntax
현금
##스트림
adapters
authenticate
backout
디폴트
##책임자
조인
##어플리케이션
##분기
##08
##연동
##문자
##검토
##에이전트
Naming
grep
실제로
START
configurable
획득
완벽
termination
위성
passwords
##Parameters
##string
##상세
실현
listeners
##PATH
packets
SSO
TEST
##포함
coded
transfers
Finish
누락
보수
Programs
청약
Provides
손쉽
##09
##체크
##심사
##단일
implementing
ALL
방법론
나머지
omit
##URL
##크기
##}"
##clause
##위치
whenever
MQPMO
##Request
Modeler
widget
Adaptor
abnormally
요인
##문제
encrypted
debug
무엇
##Value
LIC
debugging
##깅
trusted
##CREATE
##Target
##MCA
Preferences
##FILE
##경로
##지식
심사
wildcard
##GROUP
조성
지난
준다
##Database
스타일
제고
##이제
기입
예시
배열
최소한
메커니즘
##speci
출시
configurations
마케팅
장기
BPEL
##웨어
dataset
##HUB
IO
볼륨
##새로운
##동시
##세계
사물
LOG
##뎁
체크아웃
##Total
##시스
##한다면
=>
발주자
##연합회
주체
Secure
##엔드
##Channel
CHARACTER
가진다
배상
Spoke
##신용
##프라이즈
교통
강력
quotes
OUT
만료
기밀
시행령
들어오
##생명
시각
##어의
해석
##접수
단축
generating
##매체
integrate
failures
filesystem
평문
웨어
##체결
##Exceptions
걸리
CLUSTER
맞추
상이
##품질
disconnect
위탁
SNA
##비즈
##":
##포트
##그렇
Fail
verification
Setting
##INSERT
EDI
NUMBER
지적
대역폭
플러그인
##협의
terminals
서식
포탈
##인수
##MQSeries
"${
어려움
올바르
converts
##공공
##접속
샘플
##Batch
케이블
##일시
hostname
evaluate
##공간
FALSE
##Its
##Within
이익
UTF
##queue
역량
회의
지자체
Unable
discusses
Execution
##박스
유일
##이런
깊이
CNS
symbolic
캐시
맞춤
Users
그러
occurrences
복합
##Displays
selects
기법
Reply
##Transaction
스위치
##기기
##법인
considerations
Provider
iSeries
##보고서
달러
precision
현행
유효성
##려고
Detail
##Two
##Copy
네트
ignore
relational
Admin
서브
제목
Display
##Project
##you
##자산
EXEC
programmatic
Jabber
##Microsoft
##size
IDL
##순위
관제
제대로
##통보
RPC
메시징
##WAS
ACL
admin
##취소
##제어
##효율
구매자
##안정
detects
##WMB
##수준
##참조
truncated
##agent
자리
무결성
##시킨
inactive
transmitted
##상기
synchronization
전역
사이즈
시정
automated
##일부
restrict
customized
illustrate
Remove
NFS
##행사
ERROR
typing
##원격
Install
탐지
forthe
특허
##");
||
Midas
통과
##500
##싞
수신자
desc
Statements
프로시저
국민
##POS
그것
##조정
removes
timestamp
인코딩
arrays
##정지
언급
JAVA
MQQSGD
가용
##Update
스택
trademark
specifications
datatypes
proceed
Destination
윈도우
Attributes
카메라
##Connection
작용
##elds
locked
납부
##다운
##persistent
Agents
유틸리티
필요시
SILK
##구매자
##doubt
rename
상단
##지급
Routing
analytics
Integer
emp
사양
submit
상장
민간
VPN
##작성
Brokers
기호
##Provides
살펴보
manipulate
##저의
##결재
##step
리스
##질의
yourself
ACK
##Installing
신한
##party
순위
보험
delimiter
Write
중소기업
##INFO
Servlet
buttons
##사회
##Even
##책임
확장자
TLS
unavailable
정해진
##DBMS
출입
##용역
규제
##이력
evaluated
##한다는
##검사
##주관
하단
##Length
propagation
드라이버
정당
##생산
##Delete
총괄
##입찰
커넥터
##차원
마찬가지
icons
RFH
##Number
backups
##방지
창출
만듭니다
##중앙
eai
##치의
##NOT
##SILK
##Sets
##주소
##대금
파싱
thesame
##이후
##마지막
preferences
Item
계열
단말기
administer
constructor
##Collect
Recovery
##해도
구입
Browse
MQOO
##매핑
인자
아직
##ORA
Appendix
JSON
##Correct
빌드
##managed
AQ
공사
##하우스
DTD
나타낸다
안내서
잠금
MQOD
##성시
##보증금
난수
DW
uppercase
키워드
리스크
##청구
Configure
monitors
종속
##View
포털
deleting
정정
pointers
partitioned
CAST
상당
##포맷
##속도
guarantee
substitution
##config
계획서
DN
##통신망
##일명
Narrowcast
ODA
OPEN
가져올
resolves
유관
##Adapter
##횟수
MQIA
scan
ILink
인공지능
##LG
Option
deletes
##워크
##추진
ActiveX
동향
##'.
점유
라인
분쟁
##Additional
DML
ANSI
IDoc
##한지
inquiries
문장
브로커
주석
Tomcat
코딩
##Builder
##TEST
IoT
##지침
정비
##private
줄이
소비
##Non
의료
##Out
allocation
결제
자유
appliance
##좌측
Package
##전화
##")
periodically
탑재
Sample
##동의
Timeout
축적
##실적
KHUB
##Page
##Return
중계
피해
##function
unchanged
##영업
##대부분
semantics
Choreographer
##단체
templates
##Amazon
##CCTV
standby
프로파일
##메트
##리스트
##련의
##TIME
##Changes
Fixed
recommend
intervals
upload
requester
##계의
효력
점포
SYN
위협
이르
레이아웃
##마스터
suppliers
##종합
##의견
AMQ
locks
한계
##어도
nonpersistent
wolfSSL
##시점
시민
증설
Dashlet
##대응
쓰레드
##Detail
corresponds
누설
interMedia
visibility
##흐름
##NEO
프로그래밍
userid
주제
##보존
공지
CMP
”
멤버
더블클릭
바꾸
##BW
##default
알려
handlers
synchronous
##아도
##ImqBoolean
summarizes
수치
조기
visualization
##CTR
Topic
##개요
파티션
Procedure
##2008
heap
##Port
##null
##driven
재무
##드라이브
타임아웃
pending
Fetch
##주행
##벤치
##"/>
Values
##효과
차량
소비자
##Parameter
학습
exceed
##모니터
음성
LONG
추후
##재의
XSL
##콘솔
##YES
가입
RBA
추세
업계
ICT
정산
##Reply
너무
시키
영구
##receiver
액션
##키를
failover
진다
공단
trailing
composite
theapplication
##메모리
fromthe
##접근
보낼
##파트너
##Output
##Software
Tibero
VALUES
OLAP
accepts
##그레
##코어
MQLONG
invoking
undo
민원
비롯
coding
차별
Configuring
##More
##conversion
uniquely
Retry
##결제
이용해
##Over
본인
경과
##록의
##토록
기다리
Tutorial
##대용량
로딩
##타입
##println
터미널
개정
##경제
satisfied
##다운로드
협상
exceeded
CURRENT
##FTP
##Remember
##CBC
허가
##Command
##Insert
##Access
RMAN
##건의
##your
Solution
오라클
##Time
##참가
##가용성
MQCLOSE
구별
##구간
Deploy
RAC
updating
##Step
비상
##define
OTP
권고
재전송
CORBA
##Interface
declarations
포괄
##로드
입출력
Hadoop
##Forexample
##레벨
취급
갖추
매일
##공동
##Tmax
withthe
Copyright

multicast
대책
명칭
##Gets
##가치
더블
aliases
##그런
비중
##Unix
grouped
Plugin
##대기
질의
인가
게이트웨이
##파워
Polling
##링크
restriction
수단
##제도
Upgrade
##Important
##Indicates
##insert
Installing
##증서
##Control
##명세서
스마트폰
##SOAP
INTEGER
페이
padded
utilities
##구현
과거
Integrator
Vitria
##QM
advantages
retrieval
##";
단어
명세
##cn
Tagged
##합의
입증
##송수신
comma
encoded
공모
##Press
##%,
자세히
ORB
메세지
##0000
##service
유의
##Configuration
보급
##수집
시설물
전담
변형
GROUP
TSF
##시각
##대책
선행
introduces
##IMS
##자체
플로
연장
##instance
비슷
매니
컨설턴트
searches
enclosed
##훈련
##직접
imply
##Read
##공단
progrm
RAID
MQTT
관계없이
Parameters
caching
##MQCHAR
clauses
##역의
##29
다이얼로그
##Multiple
MQCD
모습
tuning
Failed
##인자
affects
##장관
##메일
창의
Device
¯
##팝업
##공사
##표시
##Get
##제니퍼
##xx
thedatabase
consistency
##Double
##신탁
##스크립트
조절
오프라인
##위원
SERVER
##LDAP
##로그인
내보내
예약
ADS
##Metricof
##부문
lifecycle
IDT
diagrams
DDL
QSGDISP
customization
sync
SaaS
시기
ORACLE
Stored
SMTP
##일련
외의
EBCDIC
displaying
##SOA
가중치
암호문
CALL
수록
##then
storing
##산의
##최초
WAN
##금의
착수
TDS
Subversion
기여
meaningful
inquire
coordinated
##Local
재생
invocations
validated
choosing
표현식
한정
##FLAG
##경험
##추적
MCI
##미국
VMware
CHAR
identifying
internally
추정
##회계
##위한
특화
cr
현업
prevents
TMAX
##Required
satisfy
Send
##세요
##select
checkpoint
##GET
##SYSTEM
미만
##Network
prefixed
결번
accesses
##object
TRANSFER
표출
implied
##Thread
requesting
reliability
홍보
설비
stopping
##2005
##Migrating
STRING
balancing
##컴포넌트
##엔진
##제안서
dependencies
exceeds
fetch
##Modify
##character
##송의
모코
compliance
##다시
가질
logically
EAR
왕복
##여서는
##Go
##method
##평균
인사
MQCIH
choices
##요청서
combinations
scalability
열기
즉각
커뮤니케이션
의존
설계서
##client
##Sample
DROP
##JDBC
appendix
임직원
##Socket
XPath
optimize
##소프트
##Can
Advantage
##Failed
##경비
##서류
##KB
coupling
##점포
SDO
##Wait
차이점
MQDISC
어렵
##정기
Navigator
SNMP
##Exception
Listener
##클러스터
##주체
허브
소유자
Completion
converting
NLS
programmer
msg
##인원
##시나리오
##Version
##COBOL
filtering
##교통
##Support
Tasks
##Expand
##대표
타임
병행
preference
융합
##eai
Types
사후
DCE
Metric
optimizer
완료시
##RFC
쉘
주도
분석기
세팅
경유
restarts
activate
lowercase
취하
Initial
herein
unauthorized
자주
작성자
##Processing
언제
##UPDATE
Handler
deferred
##인식
copying
archived
##보장
##true
##Servers
##List
##LOB
양도
CorrelId
grouping
채택
##이번
해서
##STATUS
swap
행동
##dev
기획
##긴급
##계약서
pools
Inquire
initiate
commits
품목
##Display
##연속
##권의
##트림
비트
Location
downloaded
inconsistent
modifying
##통부
##이익
##class
##ALTER
##COPY
anywhere
커서
가져온다
다를
jar
COPY
##Repeat
FDC
미칠
제기
전기
##Yes
delivers
루트
INDEX
회수
목적지
##Review
##NULL
아키
대내
SEED
authenticated
입금
붙여
andthe
##방의
##Program
##-[
##Issue
##역량
책임자
FEP
interpret
VAS
본다
##복호화
precedence
##Field
##Possible
tx
##error
Biz
센서
유휴
##Apply
Schedule
optimization
schemas
reduces
노하우
바이러스
따로
cancel
협약
Vantage
##주식
recoverable
에너지
##통지
속한
##전사
느린
손실률
부합
##확장
Choose
##호출
##Look
expiry
troubleshooting
보상
##용량
##참여
loads
##패턴
튜닝
본부
browsers
threaded
##running
강조
행사
ftp
##commit
촉진
발휘
scalar
cached
##진단
결과물
MySQL
convenient
##시도
##Input
포인터
##Node
bythe
registers
##신한
매출액
##컴퓨팅
복호
제도
어디
색인
관하
deletion
유실
##재난
##제한
Outline
DATE
##Manager
공백
근무
KPI
constructs
##본부
오래
파기
MQInput
넘겨
tablespaces
부정
GIS
##경영
##Key
MsgId
우려
##}/
##일괄
에디터
AMI
Boolean
##999
subordinate
##WARNING
##home
##DNS
##브라우저
Folder
시범
고장
디렉터리
subflow
##Class
대형
헬스
URLs
##후의
Scenario
##도입
##2004
closes
SPSS
데몬
체험
##Host
QoS
##감사
벤더
overrides
다루
##합계
MQDLH
nofetch
concurrently
MQFMT
##DEFAULT
Builder
시퀀스
viewing
##세부
바에
vCenter
MQAI
##만일
##Adding
matched
##output
##요구사항
RTSP
##2020
아닙니다
##물리
공인
##수익
Binary
intend
##MAX
Failure
##전산
VoIP
플래그
Shared
체크인
##오픈
##디지털
준용
본문
Actions
##adapter
가변
MQSET
wrapper
스캔
스트리밍
subdirectory
cumulative
취합
##Or
MQQueue
canbe
##path
MQQueueManager
Forms
hint
다수
어려운
게시
##현행
##반출
thecommand
##NOTE
Environments
##SEQ
고용
이것
oracle
##CASSCM
회보
##중요
##정형
Prepare
Components
locking
zip
원천
expired
authorizations
Verify
calculate
##Perform
DSN
##청시
성격
대로
Handling
설명서
##해제
자동차
middleware
limitations
Automation
uncommitted
##update
세금
MQSUB
clustering
answers
manipulation
Validation
##유출
디버깅
convenience
상관없이
recommends
##객체
충분히
기술력
##바이더
args
##node
Define
##memory
도중
메모
PostScript
importing
programmers
##Indicatesthe
applying
인도
Deferred
##Group
##농협
##수립
##Installation
RRS
##각종
succeeds
typed
queued
simplify
designing
##CONTEXT
DECLARE
Tables
inserts
심각
고시
바뀌
Raid
훼손
##Are
dashboards
부장
##본인
Bytes
operand
##준의
상시
##FAILED
##sensitive
standalone
evaluates
##that
MQMessage
##KTF
warnings
Login
##Attribute
KEY
성명
자기
dependency
##Used
descriptors
Acrobat
##대장
보조
본사
REFRESH
##Edit
##database
알리
후속
patents
RMI
WAP
tabs
uninstallation
DBCS
자금
좌측
Invalid
최상위
FISS
##서에
##먼저
Template
차장
##div
감리
##사례
##1000
proprietary
##Following
잠재
정한다
Alert
회계
지도
이면
assigns
적체
##레코드
##계산
##출처
cipher
전파
##Deployment
MESSAGE
moreinformation
JRE
attach
##Options
ETL
연락
discard
연도
##실패
eXtreme
선도
##process
##Master
과장
##>)
정형
##보고
Diagram
##약서
WebSphereMQ
youcan
conditional
지향
##읍니다
들어가
##37
연산자
ensuring
##자격
형성
Adapters
##설비
UML
##Determine
Enable
IIS
partitioning
감안
router
Confidential
##가의
투명
##Work
##다중
무선
##확보
STOP
##><
##cd
##한가
정규식
BAPI
structured
CONNAME
ordering
대출
##Last
Tab
acceptable
##제출
leverage
Instances
MAP
QMgrName
상주
##PL
다이어그램
##2015
Usage
##with
adjust
##패키지
##number
##Deploy
##Valid
##Our
shipped
##가장
##현장
JMX
데스크
##2003
##Starting
추이
핸들
식별자
##text
##자치
paragraph
##Put
##Report
##Attributes
algorithms
##주민
FTE
caches
Correct
수수료
##상용
해소
정수
올바른
Sybase
##Tip
IDE
##단순
SID
##Remote
Decision
##Loader
##Restart
직관
카테고리
##conf
진출
quote
##구매
awk
##청의
Siebel
검출
##회선
민감
##Import
directive
alignment
implies
Formats
##요원
##SEND
모양
##HTML
##skeleton
##Sales
##든지
##백만
높일
##Consult
Distributed
parentheses
ESX
건설
정확히
##false
backend
incomplete
##글로벌
##수급인
##젼
offline
##우선
cryptographic
##플랫폼
Clustering
RETURN
notify
보입니다
##Common
발굴
incorrectly
##Online
##투자자
##쿼리
##clicking
Optional
guaranteed
감염
ASM
IAM
DLL
TTA
notifications
유도
BPC
diagnose
REF
심의
불법
##운용
줄일
##Red
##112
clustered
MSTR
XSLT
VLDB
packaged
networking
BIP
indexed
equir
##gure
##종류
prerequisites
Transmission
Telemetry
##미리
##투입
##param
##원장
대리
READ
MQXR
pressing
anonymous
국토
##재분류
##직원
시킬
Utility
한다면
expiration
실질
Specification
가속
##스페이스
CONNECT
##개시
##명과
##이미지
##003
##공시
Launchpad
##송한
명확히
범죄
##
optimized
##하도급
separator
macros
confirmation
사본
##msg
Sets
재해
##필터
NIS
하드
##Furthermore
##LOG
##Does
##EMP
##예산
COMMIT
incremental
##협력
풍부
rely
Microsystems
##Usage
수출
SVI
Listing
Viewer
유선
유기
redeploy
아웃
##STRUC
Distiller
귀속
절대
dif
switches
진입
Parser
입장
보낸다
스펙
바란다
##BLOB
##보유
##Of
##when
거치
시킨다
##Normally
##Memory
WPS
##Tibero
##왼쪽
Finder
determining
연간
##2007
outgoing
##Character
편차
##YN
##=<
##공수
plugin
thlqual
해시
##Replace
assembler
DATABASE
##발주자
##이사
수작업
##Which
paste
Inbound
##Current
##시켜야
##일치
##태그
shortcut
Registry
##QUEUE
NAM
##threaded
##숫자
##password
builds
Changed
제정
##고는
##대비
##산출물
갖춘
##규격
##Internet
##Dynamic
conversions
##공무원
간편
Logging
Middleware
disconnected
##environment
MQMDE
elapsed
바이너리
충돌
##='
replaces
인계
XID
XMLNSC
##OUT
##과학
##형식
aggregated
사이버
로부터
CODE
##연금
MOM
simplest
##듯이
단원
arbitrary
amessage
unsigned
TimeOut
평균값
배경
TSO
serialized
helpful
populate
##하드웨어
##>/
OSI
##DELETE
##ERP
##install
##CICS
##징수
##Custom
timing
##법의
기계
수협
##errors
##Creates
##전환
##Compuware
tpcall
##compliant
abend
containers
남기
##2006
##new
automation
##Async
##Advanced
##Find
##Unlike
##청약
JCo
동사
##인프라
##enabled
##의무
##구동
forwarded
##수량
화재
점수
##실시
재정
##텐트
enclose
무관
arise
전제
##베이스
Exposed
##격의
##SIZE
객관
warranties
Patch
파생
##Like
MQCMD
##REC
##Part
Rollback
>>
##어질
집행
hierarchical
browsing
Binding
##WEB
수의
HOST
overridden
ITSO
bandwidth
idle
Descriptor
highlighted
dispatcher
##Complete
reasonable
##Without
관할
##협회
로봇
이렇
ADK
##MQMD
기록관
타사
##Changing
fixes
enhance
namespaces
##handle
베이스
Integrity
prerequisite
QUEUE
qm
##반영
##count
deprecated
asynchronously
Menu
3270
##Examine
##클래스
건강
##문자열
케이스
##원인
막대
##ESQL
retrieving
무결
##산정
Delimited
지불
##지방
##열의
UCS
CTR
Clients
Temporary
extracted
접근성
transitions
파트
##Link
##폐기
신속히
##Drag
정적
##HTTPS
FML
Tracker
동영상
##분산
##고용
##Take
remotely
##EJB
##Sometimes
##블록
바인딩
##업로드
##비동기
prefer
instrumentation
cube
마포구
##변화
##워킹
UUID
철저
##Directory
확약
Modeling
##Several
##해결
##BASE
MQCMIT
루틴
##측정
reusable
##initial
상속
##컬럼
isnot
만약
대문자
expects
##한편
##local
릴리스
underscore
칼럼
성실히
relates
판별
Variable
누른다
svn
Tracking
APPC
##src
Managing
##Running
tokens
근본
##새로
상관
##가액
##Documents
##법령
경계
suffix
debugger
##STRING
시공
apps
reused
Balancing
사용법
informational
##퍼티
앞서
unpredictable
##흥원
서술
##Tuxedo
Packages
##반복
blocking
Layout
##ODBC
이중
##예외
누적
불량
##Specifying
##VMS
##NIC
##셔야
##편집
##Properties
##Selecting
##Upon
MQSO
##감시
Expression
벤처
##RPC
대개
##Returned
ping
부품
Statement
##2012
##Core
##대량
주차
MQCA
부록
Drag
##중단
##동작
##Disk
predicate
LIST
scripting
conn
##디자인
DEFAULT
계측
incremented
primitives
ineach
의사소통
##SMS
alerts
individually
나타낼
utilization
일관된
시뮬레이션
MVS
##기치
SunOS
##Main
지지
##지능
프로세서
echo
brackets
ObjectName
송신자
segmentation
CEI
##''
##WHERE
그렇
##SAS
float
widgets
감액
ROLLBACK
predictive
dateTime
Programmatic
##과거
##He
VLAN
##㈜
CodedCharSetId
snippet
수식
##송시
##전부
parsers
stamp
LocalEnvironment
Classes
CCSIDs
##세트
귀책
RQ
##002
orchestration
Sockets
QMG
중점
현실
##FISS
enterprises
##Migration
이루어진
MQRO
appended
Steps
portable
CRL
수명
licenses
##=”
regression
##Back
##전의
src
소셜
##인증서
MODE
SHA
colon
ROWID
##시민
안내
##당사자
##Call
distributing
뷰어
유발
iterator
젂
##Ÿ
분배
수에
VALUE
subquery
Patterns
##Global
differs
여유
##사전
등장
##Suppose
UDDI
duplication
부가
영문
##경보
robust
시킵니다
##ORACLE
공격자
``
sequential
##xed
##조달
출자
##수동
##공고
##출동
IIP
이의
자사
ibm
upgrading
##지표
##host
문화
Grid
addressing
##OneAgent
한다는
##PUT
##transaction
##label
##매출
##향상
유상
견적
교부
disclosure
산업의
lesson
Wholesaler
localhost
##선정
Generate
auditing
Selector
도로
##중계
##2017
refreshed
##Resource
전국
Variables
representations
이루어진다
Coordinator
pathname
Hconn
oup
insufficient
careful
##Export
##Performance
##RCV
##domain
##dynaTrace
ip
분포
##이동
Feedback
##DEFINE
Gentran
PfmNumber
thesystem
##날짜
##Task
##2019
상승
##상금
##집니다
scroll
TAG
##계산서
##윈도우
KTF
Failover
##CODE
DRM
액티브
##이관
rendering
archiving
BEGIN
##아키텍처
Receive
##열람
##Again
TRIGGER
GID
숙지
다릅니다
minimize
##컴퓨터
신호
##아이디
##Rational
cursors
##스퀘어
목적물
공시
##텍스트
installs
##계층
SMF
unused
resolving
##CNT
합리
더불
##특성
##예정
##지도
나타났
riser
요율
Concepts
CLUSSDR
FETCH
##QMGR
ActiveGate
규약
##BE
##++,
##Optionally
resume
searching
##원칙
##Gbps
UEM
##Cluster
여전히
propagate
outputs
ANY
##IEC
반면
비전
##한다고
Websphere
Column
##Diagnostics
합병
Indicateswhether
forexample
encrypt
바람직
주어진
##포털
##Monitoring
##FUNCTION
##>]
##').
compute
##포탈
부하분산
conforming
keystore
integers
##Managed
consume
insight
##Shared
축소
##고도
응하
주지
생활
##Integer
##}.
processors
NIC
rc
NEWYORK
##어떤
##Enable
##profile
##메시
Execute
##Free
임베디드
busy
##EXTRACT
수많
backward
garbage
##수요
Id
게시판
INT
##WAIT
##Real
##MQSC
조항
##초의
후처리
##Info
efficiently
##도메인
inquiry
MQCNO
WBE
##시행
WebLogic
추구
##DEF
msiexec
HMAC
위임
##언어
단순히
##차량
concatenation
##정비
쉬운
BAR
SEND
thenumber
##만의
##형상
합산
##Customer
##Why
runmqsc
Documentation
업종
##Content
처럼
capturing
##Simple
해킹
병합
polling
##Based
##위탁
##차단
Agentless
Authorization
KPIs
전통
encounters
##급체
##매개변수
##Load
##tmp
불가피
VIEW
##Attention
리더
Required
주고받
zDC
##ORDER
생명
Clusterware
패밀리
MQPMR
약속
에게
##여도
##response
##DISPLAY
logon
모음
</
##회복
##CALL
##Controls
canvas
##BPEL
##하위
##Level
브랜드
##집중
##보호법
##Leave
endpoints
automate
helper
JTA
소송
이상인
##검수
통찰력
##메인
다소
##atrb
onepass
telnet
현지
##Write
##Unable
##라인
appropriately
CipherSpec
theserver
tmax
calculates
##online
##으려면
WITH
DbmsTaskServiceImpl
개설
##민간
InfoSphere
##/*
##organized
Jolt
latency
사내
##Sub
syslog
##Purpose
##다운스
##ADAPTERDETAIL
precompiler
대소문자
주변
VSAM
##가이드
##보드
한도
Debug
loader
suf
OO
Email
단가
##전달
consumed
수령
##콘텐츠
##Include
INTERVAL
Notification
DPOD
##유닛
진화
##멀티
월별
신원
##순서
ESM
##Publish
synchronized
installable
##>;
Separation
공제
Diagnostics
Hobj
JCA
usingthe
##MSTR
##mocomsys
Daemon
##Further
MTS
##Usually
analyzing
위함
heterogeneous
SPACE
##Just
##압축
부당
이제
##서울
Delivery
##Move
##행위
스트림
##그래프
디테일
##BILL
Displays
globally
훨씬
##연구소
조립
yes
유비쿼터스
Mapper
modeled
SESSION
ax
Locator
vSphere
APP
##베드
raises
##reference
outline
bundle
encapsulates
DSL
##:=
재산
##Monitor
##물품
버그
##기회
##Try
ORDER
##에서부터
법원
##표의
시켜
드립니다
##프롬프트
고품
##record
히트
XAResource
analysts
##HDD
Incident
초래
사진
##separated
##Contact
마이크
##TLS
Connectivity
##Download
interoperability
접미어
XATMI
##바탕
Contains
postcard
Contents
Embedded
diagnostics
##2018
진척
JOB
##레터
상세히
##command
initiates
Interval
##AVAILABLE
enhancements
##Provide
##작용
Identifier
unwanted
##2016
##RUM
MSCS
➤
##우측
##39
sophisticated
STATUS
채용
compressed
##Failure
codepage
프록시
Decimal
ConfigFile
##Init
indows
직무
레퍼런스
듀얼
ease
compliant
Measures
처분
대상자
accumulated
밀리
SSH
광범위
##통해
ACTION
##지연
상당히
suppose
Standby
descriptive
splitting
Connections
QLOCAL
stylesheet
화살표
Contract
DTP
emitter
extents
개최
과학
지금
hierarchies
unnecessary
커뮤니티
반려
알아보
##FAIL
##메터
##장기
SAN
scalable
##Product
##Keep
##리모트
##데이
nice
##language
##VAS
worksheet
적절히
integrating
확립
consuming
##description
behaves
tutorial
SCM
tobe
INPUT
차후
##기한
오퍼레이션
##definition
##DIR
재고
mqrc
bitmap
##COM
들어온
##의료
carefully
##의사
saves
##Unless
searched
Router
Mpower
transmit
highlight
##status
restarting
매년
##국민
반입
##시킴
NetBIOS
dumps
이체
consult
##this
##일수
##SND
Receiver
##cmd
##케이스
만을
나가
##Commit
CVS
가입자
CFSTRUCT
##*/
##제거
transmitter
XQuery
Manufacturer
RFID
subdirectories
##ADDRESS
##민원
##약자
Unisys
소멸
새롭
부과
checkbox
Available
Result
##SUB
레이블
Indicatesthe
별첨
생성자
compares
cleanup
COMP
초점
캐쉬
originating
가이드라인
expires
##>:
##물건
소통
의뢰
##배상
##위성
##논리
##현대
beused
differently
지장
Measure
일어나
맞춰
농협
##셀러
##방화벽
Cancel
##해외
JNI
thecurrent
Entity
BIND
백본
contexts
##Services
유입
##SaaS
##;}
improves
assuming
##static
##Having
multipart
WAIT
종단
##에라
BFILEs
subscribed
corrupted
##Maximum
원장
accomplish
##요인
##제목
##CHANNEL
습득
캡쳐
##Status
Transformer
서가
Indicator
정제
호에
##Password
##FEP
##Generally
ignores
##Close
BPO
도모
originator
실무
Subscriber
##필수
아카이브
이사
SCSI
##Logical
레이어
selections
MQOutput
##상위
증거
##확정
추천
ISP
글꼴
할인
Adding
Outbound
##sql
##Corrective
##인건비
마감
##External
arithmetic
##Text
통화
##지속
인터뷰
##62
tooling
구독
publishes
redirect
##admin
##Currently
delivering
데이
SIZE
##젂
##NonXA
calculations
##JAVA
##화의
baseline
##HOST
라운드
##ESA
transformations
subsystems
##저작
상담
Queuing
##Format
Msg
TMS
아무런
Domains
##SHARED
정규
##KT
navigator
##스위치
comparing
Analyzer
CGI
부모
##TABLE
##오른쪽
Programmable
만들어진
subtype
mqExecute
analyzed
##미래
SPOKE
classpath
offerings
봅니다
리눅스
##러닝
SNS
기억
forget
인젝션
eate
##납품
수리
##Details
##Fixed
롤백
HDD
초안
Offset
reissue
telemetry
서블릿
responds
파라
##정도
제품군
Metrics
요원
하자
제조사
Occurs
##High
납기
digit
누구
육성
##복제
배제
Partition
##전원
##정보원
거버넌스
rebuild
##OBJECT
##PDF
##자금
tpreturn
PIC
inputs
CLX
도면
SYSDATE
Enabler
##사실
##control
##기술자
HW
##AIX
엘리먼트
verifies
트랜
CSV
QMQM
MQBACK
징수
aligned
JavaCompute
enforce
CWF
나중
subclass
##channel
##NET
##분리
인텔
질문
##TAB
##소켓
menus
Encoded
VCL
##따라
##서식
retains
thedata
레지스트리
국내외
Alias
##대상자
VO
OTT
##디렉션
IOs
백신
##습니까
인수인계
데드
sql
##Trigger
디자이너
양성
translate
##지금
append
inline
##logs
Graph
누릅니다
##SRC
##진흥
##상대
진흥
용이성
물류
##Identify
##반면
EXECUTE
publishers
대행
의도
javax
INFO
##HMAC
datasets
##ISO
##ARRAY
Cursor
eachprogrammatic
allocates
##로서의
이루어져
Persistence
##혁신
##대출
##유통
undefined
##result
Scheduler
Array
struct
이용하
##Standby
establishes
gather
delimited
Presentation
Generator
DPL
OAuth
##script
Profit
OpenVMS
##그레이
##경찰청
distributions
modem
TPS
##기획
삼성전자
incurring
tcp
##Trace
침입
##Point
##위해
전년
미러
##OPEN
handshake
##복합
subtree
전력
전혀
##거의
단체
혼합
집니다
Replication
인건비
이기종
순수
##execute
accordingly
OBJECT
##공모
bitstream
sorted
##font
##CONVERT
Coupling
BufferLength
삼성
FIRST
doesnot
RECOVER
이루어집니다
'/
verified
Workstation
thetransaction
ORA
PROCESS
Reporting
##query
OFF
##LOGICAL
##Query
메신저
체감
##스토리지
productivity
사무실
생태
##dependent
##마우스
qmgr
Formatting
MaxMsgLength
counters
Compaq
payroll
##컨설팅
안전성
##발송
##BROWSE
##MQPUT
##GIS
##약의
relies
##트레이스
##Line
reboot
##고급
일방
경력
복수
nulls
##원본
잔액
JMSInput
##Job
해커
사정
##FIRST
##Bi
##MQRC
##정확
##written
theuser
##RFH
Qmgr
##consumer
DMI
##식별
증빙
얼마나
##중임
Operating
합성
Intercommunication
기성
inheritance
Started
attr
##Filter
SECURITY
답변
경찰청
##ACK
##gured
##언스
loops
overwrite
##무상
##Record
##input
엔트로피
커스텀
Profiles
WID
recipients
freed
NAS
##연도
%)
licensing
뱅킹
##Given
Managers
DMZ
##generated
##supplied
literals
아님
정량
Sysem
unning
COUNT
MDM
alphanumeric
unlimited
##하드
signatures
간략
비디오
signi
##제시
간접
연구소
##Whenever
SHARED
##EVENT
##런타임
EZis
점차
instrumented
transferring
논의
##시설물
assigning
##예비
SLA
##판단
receipt
Manage
첨단
스스로
Depth
`
retention
##ADMIN
##처음
전자서명
경찰
임치
약정
##최소
simpler
##부여
##Mpower
장착
독자
CSQINP
##request
inherit
Multicast
listens
jeus
Oriented
Projects
출금
exclude
IOException
##DESC
FUSE
notified
newer
구글
기한
오피스
Foundry
shadow
##보통
##된다는
##My
CLUSRCVR
Skip
limitation
Verification
미흡
servlets
아닐
##티티
##계속
중대
Removing
##target
##KHUB
##개체
Provide
Gatherer
일별
목차
##집계
##Sync
근간
preceded
slash
referencing
캡처
REPLACE
RHEL
firmware
sendmail
무료
portability
Requirements
Cloudscape
##Accept
substituted
hasbeen
RSA
스페이스
##HANDLE
FORMAT
##파트
SAF
##address
##Often
##Search
Subject
chooses
##예제
##MD
thename
##exit
Asset
##Session
제조업
가져온
##Activity
heuristic
spec
스팸
ECS
##공기
##통신부
타당
불편
##오프라인
##Full
##할당
학교
여신
##양식
##attribute
##++)
inhibited
deciding
자문
##예상
transforms
##Generate
datetime
패스
Testing
filenames
##WSDL
##지수
##편의
Authorized
associates
##101
##Send
##이유
##rfh
##INSTALLATION
##76
행하
백만
##플라이
##파라미터
대안
ECM
##Appendix
skeleton
BGP
treats
##TMAX
촬영
수시로
MSG
프리
증액
누른
##property
자식
고침
thevalue
##JVM
##역할
Plug
Capture
scheduling
##리전
mailbox
직업
WebT
##INPUT
scaling
TABLESPACE
maybe
##계수
극복
가시성
Average
##General
##Single
Drill
##공여
당일
##SYN
synchronize
CASE
##중지
공수
##실제로
communicating
Freeform
통일
##문화
자가
MUST
ConnectionFactory
담보
JavaBeans
ROW
BAPIs
Illustrator
mqbrkrs
##54
severity
합법
##상표
##과업
##Values
Employee
Speci
bags
##digit
##mode
이자
IE
##56
##자재
단독
conversations
수급인
연체
##IDT
equals
MQCFH
조달
라우터
##단가
상수
Passport
##Video
벗어나
##Listing
usethe
subscribing
##PMQLONG
MDB
##Schedule
##Transfer
graphs
귀사
##활성
출장
imports
PROCEDURE
##주문
indexing
locators
복잡도
원문
##중소기업
extracts
반납
##담당관
OAM
블록체인
##협업
##cursor
snapshots
건물
YES
Fault
##2014
ILinkPut
MQIIH
##Restriction
segmented
usable
##이미
quiescing
Cognos
주목
##signed
interacts
exchanged
Endpoint
##LAST
captures
치환
##감독
##예방
##증가
reconnect
Interfaces
SAML
별칭
사무
##보건
소재
##건설
Requests
verifying
inform
Cleared
##DD
생기
##에스
**
packed
LONDON
서약
오버
통신망
##현금
##index
엔지니어
affecting
Views
##rollback
지나
##영향
##설계서
unsupported
rewrite
ACLs
##grained
Nodes
내지
팀원
altering
단점
나와
pause
tpacall
##Removing
차례
##Date
Parsing
사원
그룹웨어
훈련
exercises
##Context
##대체
전시
##Apache
SERVICE
##such
Indicates
##대내
printers
analyst
IGQ
outlined
회복
원할
Unique
##패스워드
##한글
##전용
##Describes
##국어
combines
약자
단지
Cockpit
Functions
##달러
REQUEST
recreate
분실
원시
##Execute
아이디어
##119
##Code
큐브
NonStop
수주
##소문자
대통령령
##촉진
##원가
우회
Migrating
indirectly
적시
readable
JAX
ICMP
##BIND
exports
csect
fielded
DEBUG
지출
pooling
##교통부
##단말기
저널
compiling
CLOSE
투자자
dragging
마다
##복사
하여금
정할
선진
##Upgrade
OLE
##물론
##800
레거시
PKCS
##부하
부처
##부처
procedural
STR
transient
Fedora
0000024
##application
중재
##설의
aqueue
alphabetic
##because
communicates
MQException
##MultiBlockTextProcess
##FinalBlockTextProcess
나뉘
소모
##localhost
credential
embed
##라우팅
operands
appliances
destined
##스케줄
##DCRUM
undelivered
##리포
##솔리
redbook
Supplied
querying
##설명서
##서약서
업무상
crtmqm
thedefault
##Mapping
backslash
##그런데
양의
UOW
indicators
##미들웨어
Implementation
특별히
##AGENT
functionally
Dump
##국토
마운트
packs
Workload
익숙
공용
safely
visualizations
Mediation
##Reads
부재
##MQGMO
compilers
checksum
CSQUTIL
##추출
범용
명세서
##Preparing
##Allows
##Defining
##Clients
##backup
##그래서
설문
##shared
Sum
팔레트
ReplyToQ
악성
coordinates
##Locate
##Different
delimiters
##잔액
점진
ifthe
cfg
##GUI
##Byte
접목
대표자
조건부
유동
##솔창
세그먼트
##batch
REMON
FORCE
Kernel
하루
메서
무단
uninstalling
USING
##발생기
queried
부팅
구성도
Modify
프로시
escalation
iSCSI
##형의
##갱신
##Map
endmqm
##하지만
##유무
youwant
혜택
마트
##협상
autocommit
Refresh
##element
SGA
expr
SQLCA
##Flow
##START
##Up
##삼성
##정렬
매칭
##Working
##지점
##Cannot
mqsicreatebroker
heartbeat
denotes
##회원
##Legacy
알람
##머신
##Header
proxies
executions
rectangle
##bw
##MOCOCO
일금
##ILink
##비의
##축의
IDC
##Managing
##IoT
analytic
CHLTYPE
Operational
##변동
약간
우편
환자
Either
세분
##Method
4690
##대리인
##공인
##혹은
silently
연평균
ADP
도와
배울
youmust
간소
완수
Azure
filtered
화일
Probe
initializes
subpartition
positioned
##Names
Segment
##수단
요금
MIN
##LU
retries
##Standard
##AWS
##SID
##매개
##_*)
퇴직
Conversion
계약자
##independent
카탈로그
##Informix
##Gateway
OTS
inetd
##nitions
##Rule
##Writing
Merge
##주로
FUNCTION
##역서
민첩
HTTPRequest
digest
##Connecting
switching
##VALUE
##아이
versioning
##></
##BAT
원활히
##감지
##Storage
enclosing
채무
##복지
iteration
FIFO
DESC
##INQUIRE
WSRR
SEQUENCE
##Function
##Module
&&
##REQUEST
##코딩
나타냄
Processes
##고유
##경고
NameValueString
통상
##라이브
##Defines
직전
##성장
금번
가져옵니다
Collaboration
MQXQH
##Investigate
가져야
forwarding
위젯
가급적
Persistent
permits
DataSource
##AI
시뮬레이터
##Invalid
XAP
스크롤
##00942
inquired
applet
datagram
과실
단절
Logical
프린터
Scope
##근로복지공단
disclaimer
FFST
##상황실
실수
+)
Availability
KSC
##서로
문법
광디스크
##GSG
certi
overwritten
가리키
PTF
strmqm
queuemanagers
incompatible
완화
instantiated
##5601
##SERVICE
GRANT
RMs
PaaS
MIB
##Mbps
제휴
KT
##defining
##from
breakpoint
##인사
##Built
##COUNT
operatingsystem
##허용
##600
##BI
propagates
sibling
##button
공동수
캠페인
SCOTT
schedules
##Objects
위장
suggestions
##개발비
수와
centralized
CLASSPATH
##아이콘
분담
resubmit
ImqString
IPC
접점
시의
덤프
##Cloud
보증금
##는다면
##중국
디버그
##CHAR
##004
Kerberos
Join
달라질
##탐색기
##방침
위원
위주
##BPM
directives
##Clicking
사업비
*.
easiest
##Rather
offload
Devices
VSE
##None
Asynchronous
부착
기술자
ABAP
##창조
##근무
제재
토폴로지
##인데
corrupt
isthe
dequeue
##Arial
contr
##%.
##구역
별표
곱한
WAR
##installation
Alerting
##Property
##Navigate
일상
##px
screenshot
##법원
창업
##취약점
replicated
typographical
주력
보임
##중복
##check
enforced
##망의
timestamps
drilling
classi
##불가
##Customizing
##Title
Items
patches
intf
MQBEGIN
##';
##화재
##손실
핀테크
MFT
양자
##REQ
##Design
##timeout
##throw
##Encoding
##column
spreadsheet
nonblank
rerun
AUTO
##천만
개발비
##최신
##Fail
##방법론
건의
configures
수입
labeled
GSKit
지리
outlines
<=
변하
buffering
federated
##경찰
자손
하락
##발급
##대시보드
administering
##Multi
##expression
디스플레이
##Compile
LISTENER
MQTM
RECEIVE
DESCRIBE
ther
shar
YTN
##DW
summarized
여러분
##발전
MQParms
validity
serialization
##홈페이지
THROW
conversational
##Obtain
##ﬀ
tperrno
TxRPC
부득이
복지
##including
상암동
workstations
##절감
FLOAT
##Protocol
architectures
obtains
PMS
yyyy
WML
##증명서
##Location
wsadmin
주택
compress
##Connector
문서함
##connect
purge
##트래픽
빈도
보증서
##유연
##Those
forwards
IFS
##CSQ
commas
오직
##Vantage
DBIO
##Selector
SDS
hints
Render
##Three
각기
구하
WebService
타인
뛰어난
Appliance
노트북
Heap
organizational
mutually
XMLNS
데스크톱
corrected
TID
rowid
999999
별지
};
Invoke
##Address
Firewall
명이
HTTPInput
주주
잔여
MQRMH
Cubes
로열티
##Post
Fix
##특별
##Build
##자본
NONE
##task
##용어
보호프로파일
##Errors
BINARY
sorting
suspend
##Fields
DBCA
##취득
따라야
##사양
##JSP
Replace
연락처
##Config
호스팅
##입금
##monitor
ClearCase
##Through
수직
##Always
눌러서
시연
FORM
CCI
CSQM
CKTI
BDE
##원정
##재정
##공정
PKI
##이외
##Desktop
vtadmin
##Management
보류
##MEM
KMS
guarantees
ZIP
nonzero
##PORT
meanings
##Buffer
subprogram
collects
##리턴
##무의
##protected
오전
##명세
모집
SVRCONN
##특수
##%\
pixels
##인덱스
abstraction
concurrency
드림
##산업의
난이도
배분
##fetch
stanzas
스케줄링
##300
##DRBG
##call
##CAS
maximize
시그널
원가
##MOCOMSYS
##Nextro
본격
comply
KIC
##경쟁
##계약자
##그리드
컴파일러
절의
부속
assignments
verbs
revoked
##CLOB
ARCHIVE
경비
참석
##init
##Runtime
##Tivoli
satisfies
비고
CPUs
Spatial
foreach
고의
##정산
##급여
##강화
easyTravel
수십
informationabout
납입
##번의
##INIT
revoke
##FROM
intranet
Cannot
DASD
##alert
informs
##건강
안전망
inherits
Redbooks
auxiliary
##INF
걸린
SVC
VERSION
##Mobile
##상장
마스크
subtransaction
eated
##SSO
##services
##Enabling
방어
##금번
반응
ADD
##AUTH
##결과물
recognizes
이동하
##수신자
gateways
##고려
Determine
Encryption
MQCCSI
##={
granularity
##Their
CHECK
Permission
##국제
##개방
##연구원
DEPT
##Later
thatthe
##Supported
외환
저작물
HDFS
##specified
thatyou
##Existing
Errors
초당
귀하
##VPN
atthe
##Authentication
동등
이나
마이닝
persist
render
##TR
Composite
##첨부
catalogs
CI
TRANSACTION
MQIACF
##OTP
##결번
numberof
denote
##지구
##출입
근로
##직의
하이브리드
Demand
가집니다
Restricted
clone
datasource
##수납
##Basic
Separator
"%
replay
##Adobe
##TIP
##Unfortunately
happening
##타임
reinstall
##IPv
##format
Existing
GSA
Snapshot
redundancy
abnormal
##WITH
Modules
Upload
##메타
##Secure
##OLAP
bootstrap
sysdate
##MQGET
manuals
Token
PUBLIC
truncation
##이체
##Distributed
##Events
##TARGET
enqueue
DataLength
##했으므로
자본
##판매
##핵심
능동
제어판
카운트
IIOP
RECORD
mnemonic
SUB
배지
##SELFTEST
ectory
신뢰도
##지자체
firewalls
exploit
customizing
##″.
IPS
validates
##Programs
변조
고품질
선불
EMPTY
##hosts
fetched
binds
inode
sequentially
##61
PORT
면제
SupportPac
커널
theinstallation
XCF
##Statistics
##*,
##proc
exporting
tpalloc
contention
asingle
빼내
##수와
##Automatic
##qmgrs
TFIM
##앞서
##event
asset
##–
##Namespace
##509
##Certain
대국민
##유효
DHCP
UDB
foreground
xsd
보드
빌더
MIString
##INDEX
DESCRIPTION
##SERVER
deployments
mainframe
frameworks
##개소
정립
wildcards
대쉬
VAT
##임시
접근권
글자
QSG
endorsement
##NATIVE
ofthis
절약
WebtoB
근로자
##센서
##KEY
Hardware
OMG
DEFPSIST
Pad
accurately
mustbe
서브시스템
##Document
##정리
수요자
달라지
utilizing
terminology
floppy
##특징
아웃소싱
ofa
Preparing
##double
##include
##는다는
Infra
##parameters
MQENC
##interface
##로직
잔존
False
##Getting
BO
repeats
이어서
##Max
JOLT
TCPGW
##Decide
가져와
##경력
##Projects
늘어나
빈번
##엑셀
hlq
##++.
interprets
tagged
priorities
POSIX
상암
Bind
강구
선별
##객사
취할
Gartner
##메세지
furnishing
behave
지칭
adapt
후행
##Browse
##},
Templates
##부서장
Accelerator
##Consequently
##모의
##92
채워
quiesce
TNS
##관계자
UserIdentifier
##trace
##AUTHORITY
Columns
##PFM
##0600
inserting
서울시
##MQHA
방해
LINK
####
ESBs
##상단
terminating
Torvalds
##행과
##CHECK
지분
원복
수평
라이프사이클
Topology
arrows
##context
출처
pointing
attachment
realtime
##PROCESS
pdfmark
parallelism
부호
기술료
실습
shutting
inaccuracies
##Script
BIT
##Contains
##상담
##수령자
SQLSTATE
collation
Licensee
Codes
JPEG
Repeat
MQOR
adequate
itis
BACKUP
##export
외주
ASync
Grouping
##SK
completeness
obsolete
##신시
Kubernetes
작업자
##유저
ELEMENT
##variable
INVENTQ
WHENEVER
매입
##본의
포틀
Success
infringe
버스
bash
출원
##학습
##프로토콜
##Formatting
augment
multithreaded
Loader
ACI
interrupt
##Mac
##lename
scanning
##수탁자
여백
BMT
announcements
불가항력
cryptography
실증
##Show
연기
Crypto
cookie
BASE
##bind
MocoCrypto
Refer
이상일
속해
명기
##365
##Internal
##critical
UAC
배출
simplicity
경향
만일
##전파
##양방향
synchronously
선호
slower
sheets
Lookup
##출금
buckets
MQC
Timer
##®,
initializing
WBI
피드백
identities
straightforward
Administering
skipped
Citrix
##동적
##Receive
중첩
##과학부
cari
##sec
##buffer
가져다
커맨드
##Allow
##’(
회신
##데스크
FileNet
매치
dossiers
##철의
Legato
되돌려
공무원
사업장
TTL
부적합
##영구
곤란
후의
##Questions
##확대
정착
보강
theconnection
SQLCODE
##job
벡터
Nextro
FilePut
Selectors
wallet
gsk
##err
##WW
SignalSet
scans
유리
선임
Restart
감수
상황실
symmetric
WLM
expire
##Hence
##입니까
Incentive
아주
approximate
wired
TRACE
Logs
##대신
##브로커
##금지
해결책
일원
indirect
##Exit
성립
thresholds
##Continue
MQSERVER
코로나
##DECLARE
Transform
##임계
err
SSD
##empty
##ASE
troff
AggregateReply
headings
bserv
privacy
##App
mismatch
sockets
확충
보여줌
supplier
##개념
나타날
##DBA
duplicated
PARIS
thr
initiating
중요도
이래
##보수가
ISPF
상충
##로운
##유관
신설
##Validation
발신
##리원
과금
Alignment
##white
KOSTA
Nextree
##별도
수렴
물량
##이용자
자재
폰트
##Passport
적격
##ActiveX
점점
##ASCII
WMS
uninstalled
##DESCR
##특별시
tnsnames
upgrades
##Revenue
dropping
simulate
##미디어
적어도
CMDSCOPE
##DataCenter
delays
##그래픽
##복잡
Customizing
상반기
paradigm
##품목
급증
interactively
합격
##standard
drops
declares
##차이점
datafile
##사건
계상
##사후
criterion
possibilities
##탐색
alphabetical
해상도
packaging
callbacks
reject
resets
Submit
defects
##passwd
Debian
트레이닝
트래킹
곱하
##Accessing
Packet
##CLUSTER
semicolon
traced
약점
##존재
instructs
##Sterling
##Vitria
상환
tips
##자동차
Priority
##protocol
##background
##Sequence
ename
SDPS
##SYS
줄여
휴지통
mq
고지
Processor
##프레임
cardinality
Correlation
실명
thedestination
##버퍼
personalized
OLTP
##확실
fits
MQXCNVC
선형
##username
BFH
##䤎
##오라클
##제조
theclient
precede
##Mail
수없
##_”
FULL
!=
combining
##상도
##SYNCPOINT
로그아웃
superuser
협정
##").
stateful
##주택
controllers
##transactional
카운터
thechannel
##Rollback
dynatrace
고가
채권
JSSE
assured
나눌
MBean
자연
envelope
##Building
warranty
THEN
##properties
##Rename
translates
이어질
##재전송
Tablespace
##배정
JMSOutput
##pInputText
준하
전문기
##해의
##결함
##Index
ROI
##메소드
건축
##FOR
##대화
##STR
WESB
violations
IMR
inthis
##회수
##키로
위탁자
Term
##패치
이루어져야
Xeon
고속
GW
주식회사
##줘야
concatenated
##>\
기상
##자바
##Don
##access
preview
##TGT
ocess
Tuning
suited
##보관
공장
신청서
4096
컨소시엄
decrypt
##이슈
##금리
##Transmission
tocreate
##기록관
##2021
hh
고정길
damages
NAT
JSPs
daemons
transformer
마십시오
이번
법규
##교체
##안내
SPX
##Reference
##Administration
키보드
SUM
##트랜스미션
팩토리
##built
bracket
utilize
달라집니다
LEG
##ControllerException
##가입
Validate
나아가
##Due
매주
##저해
revert
방범
유해
간단히
##PASS
전일
canceled
##Intelligence
encodings
##+[
Reseller
ClientVantage
JPR
theappropriate
reload
수탁자
##침해
##prepare
POC
올리
##여자
##Intel
##이상의
isused
장관
##ACTION
##기일
##Drop
interrupted
Maven
괄호
선처리
##cnt
##__
subpartitions
"**
마치
컨트롤러
측정값
명은
손쉬운
##하로
야기
##수수료
##분할
highlights
Coherence
예비
arises
textual
##entry
##Place
##우대
CURSOR
IMM
##Picture
ClipsAndTacks
##Order
임무
##착수
##이내
##directory
휴대폰
SKT
##메모
##구성원
나타난
downloading
Plugins
가맹점
stateless
##Pharos
SQLstatement
준공
유니코드
correlate
CHINIT
interacting
pixel
Maintenance
disables
##Component
##Customers
IVT
##CURSOR
지니
##담기
매월
excluded
thoroughly
sizeof
약어
##Lotus
##OPTIONS
##UTF
바인
FIELD
##NODE
##즉시
receivers
지터
manyreport
##errorMsg
##오브젝트
대의
##기본법
##Besides
Beginnings
jms
항시
decryption
inspect
browsed
트렌드
##OUTPUT
DT
고위험
연방
IIB
Bag
##"><
##개정
팀장
수시
##created
##reply
standardized
양쪽
##후처리
overloaded
##Auto
sys
Exercise
Redo
##RAID
##Second
USAGE
GIF
xid
DESCRIPTOR
##Courier
backs
##HEADER
##dynatrace
##SNMP
##고장
authorize
##황의
남긴다
Avg
중의
##감리
임금
##Embedded
dashlets
FAX
##Persistent
##담보
abort
해독
braces
국한
filesystems
##게끔
deactivated
sampling
특권
breakpoints
CSQJU
MQCHT
LIKE
##OFF
AES
bottlenecks
조달청
cp
UID
##실의
Whether
미달
carriage
##Column
stakeholders
committing
##한도
Administrators
Enabled
##응방
##알고리즘
태블릿
invoice
##Compare
##users
빨간색
Connectors
##LIST
##개수
##공의
##신청서
임원
##헬스
HOME
주간
subfield
##Compute
semantic
##SMP
분명
recompile
FT
인간
공고
낭비
##Regular
##Except
##Visual
stubs
모호
##라이선스
responding
##resource
##취약
Frame
##배경
##Documentation
##enable
##Writes
IMAP
##oracle
##Operation
##순번
##전문가
신탁
##Testing
comparisons
functioning
##81
##EXCEPTION
SVR
CHICAGO
##deploy
##스트리밍
출동
산입
freely
dotted
avoids
TIMESTAMP
##채권
##RTT
QMgr
corrective
명령문
ItemIndex
종별
##Procedurev
timed
집단
ldap
##서울시
##Today
##플러그인
SSLPEER
##NEW
프로토타입
AJAX
위험관리
##Warning
BYTE
XSD
##Restrictions
hyphen
##120
OPTION
보안관
기안
XDS
onment
##Requests
touse
##FULL
만이
##임의
anapplication
tracked
##cys
##CONN
",
격리
##십시요
granting
##broker
전면
##재해
일환
##병렬
##프레임워크
##SALES
##수록
theproblem
##아이템
인재
중임
##http
##보완
무조건
##에너지
interpreter
##Option
##role
병목
Spec
##과세
##기안
integrates
chunk
받아들이
강점
프로파일링
SoapUI
befor
코스닥
Handle
JCO
OTMA
공표
사이클
unified
##주간
##Ignore
##카메라
##네트
##Assume
INTERFACE
conforms
externally
SFTP
대용
주십시오
##mteadmin
baseref
realize
##견적
외장
##Spoke
##Routing
##가공
##드립니다
증진
##premise
##지난
thatare
##Public
toolkit
isolate
조금
##상거래
lightweight
##Biz
##동사
confidentiality
MQZ
BANT
공모주
MQWIH
MQRCCF
HANA
##Overview
LQ
##인쇄
suchas
sensors
##창업
##USE
따릅니다
##MQI
omissions
연다
##Exposed
기종
asthe
##','
redundant
##Learn
Examine
##Confirm
PeopleSoft
OUTPUT
##시퀀스
##dbnode
##SAMP
OracleJSP
**";
##디폴트
##업데이트
동법
##BO
CAPRI
supplying
##Count
애플
대내외
##창의
##delete
downstream
##말의
##header
##붙임
##저축
##서가
MQZAO
복사본
##free
##Recovery
최저
HH
##파악
최선
##서드
<->
##BROKER
단기
종종
개편
redirection
열의
parses
COMPLETE
로드맵
##Queues
ctx
##Register
##께서
LIBRARY
##handler
AWDS
##요약
이어지
##조사의
메인프레임
schemes
본건
Supported
##자명
simplifies
virtualization
##별첨
<<
confidential
PID
addr
envir
##parameter
교차
##취급자
관여
월간
대구
넘어서
긴밀
LAST
낙찰자
Docker
분석가
Terms
MSI
##Typical
##첫째
modifies
discards
securely
scheduler
XMITQ
##발행
##close
##inst
paging
##TOPIC
epository
multiplied
MON
##교환
중은
##생활
registering
치료
##테일
precisely
PROPAGATE
satisfaction
Customization
##드릴
OpenSSL
컬렉션
##주가
revisions
SAX
Precompiler
대폭
##총괄
증상
##priority
troubleshoot
whenthe
PDSE
##Destination
wizards
여건
##광고
privileged
크로스
noaction
접두사
할지
정확도
##산출
라이프
DIMM
##마크
pricing
##소속
폴링
##성명
로고
bypass
Reset
연습
탈퇴
Generic
Retrieve
newline
다운스
CMS
##JavaScript
clicks
프로듀서
##준비
##Platform
##업계
wrap
##우편
새로이
##Router
##APM
Aggregation
VAN
영위
##Problem
Initialize
##MODE
##청주시
재직
##75
송수
##중식
##전력
##이중화
독점
##관점
eliminates
##Below
MQPS
##사이버
수반
Throw
전후
CTRL
##월드
MCAUSER
denoted
##청주
prede
엔트리
CPI
##007
종사
##비게
Bserv
##Subscription
##오니
병원
##Have
##DES
expecting
persisted
submission
##Admin
##width
SIEM
가시
Throughput
##된다면
##endmqm
MCAs
Worker
UNIQUE
##총액
##Short
Predictive
##crossing
esour
소관
##분쟁
##준수
열거
##차트
완벽히
##samp
Dashboards
##규제
WRITE
##컨텐츠
##container
##반드시
##APP
##상환
적당
##CompCode
##마찬가지
##CRM
##USB
Confguration
##components
wsdl
RESLEVEL
TLOG
Bucket
##자율
개입
issuer
##Deferred
pertaining
Confirm
##프로
##채권자
Syntax
##dimensional
비어
##serif
꾸준
##수리
안의
deployer
해도
##출시
##동향
##예약
##Topic
wherever
Checking
MQM
savings
screens
BMP
EJBs
theobject
tightly
savepoint
Justify
needing
##력사
##져야
##변조
irrespective
##MQCONN
Samples
SEQ
Optimization
MQGet
미비
방문자
ILOG
PFM
multibyte
##핚
##Tahoma
incorporate
##법률
##특허
##TTA
굿모닝
##Clear
오랜
tiles
##DT
##촬영
어음
수납
##시행령
Loading
ND
##wbi
finishes
portlet
##Pass
##때문
versa
##토큰
Collectors
Salesforce
CipherSpecs

synonyms
ROSE
examining
##주일
위원회
param
##전국
CFLEVEL
열리
ifyou
youhave
##Item
hex
이동한
cubes
PMO
##identi
##천시
geometric
ConnectionConsumer
\'%
Interaction
semaphore
##지향
아시아
##알림
RESTful
CSD
수천
Static
##Site
##해양
##부와
JSF
오퍼
insights
defect
aparticular
##Introduction
##밀리
##Qmgr
CORE
고민
순환
멀티미디어
##중의
federate
injected
##본문
Push
##Certificate
thatis
subscribes
위기
폭넓
umask
Beans
마스킹
프로필
##Identifier
subtask
종목
LOAD
QALIAS
CIP
recursive
##Subsequent
PGM
WBS
##performance
##Implementing
##비교
##마감
##순차
차질
thecorresponding
하도
viewer
##동화
비대
predict
tmadmin
##block
##AND
SLM
Transactional
QmgrName
##DateTime
##NUMBER
canuse
Parent
##temp
##자나
신한은행
##Likewise
청주시
##확산
jdbc
scanned
##사이
파워
##2001
enumeration
보편
##하단
##Consumer
##Workbench
todetermine
Relationship
PIN
배부
##emp
dispatchers
MQRR
empno
cartridge
workloads
SCN
성실
##둘째
##근거
QA
##LINE
##sbin
신의
연대
truststore
##컴파일
MOVE
MDX
##Intelligent
부칙
##파일로
##비상
9999
악용
OID
##ELEMENT
HCONN
레벨로
##깅을
##삼성전자
##Specifically
XHR
Topics
proceeding
computation
구두
##혁명
노후
개월
##Turn
evaluating
proc
미팅
##Logging
bw
Programmer
oduct
facilitates
avoided
##url
이어야
주입
거래량
경쟁사
아이
##array
submitting
##LIBRARY
CRLs
serviceability
##확인서
Commands
transactionality
##단어
datastore
##설계자
##’,’
StrucLength
##COMMIT
##Recall
CPF
Allocate
MQAX
MPGW
파견
TCO
##반입
##으니
속하
##Give
panes
simultaneous
Convert
만족도
##component
표시줄
Providers
##COMMAND
##Reports
##CTX
##전문기
markup
##item
bookmark
MQCFSL
끝점
##Indicateswhether
##FORMAT
게재
재개
##기구
##Long
##Migrate
##CF
somewhere
##납부
##Excel
##`
Telnet
항공
LOCAL
dummy
##Path
##*.
invoker
##Manage
intuitive
##screen
Lombardi
##keyword
FLOW
걸친
히스토리
##측면
Intellectual
쇼핑
##통신사
활발
Creates
구비
worry
##Determines
##넥스
##사물
assurance
##대외연
LDIF
CUBRID
관세
기다린다
##ANSI
#/
손해배상
##명령어
프로세싱
Hash
##전송이
올해
##바이러스
##정적
##State
Monitors
##래공
외국인
혼란
##같이
소문자
allocating
Condition
행의
SALES
##rw
##logging
##PHP
##Model
theinformation
내리
매장
##Initialize
##Domain
disconnects
flavors
##품명
QName
##boolean
AMS
MQTMC
##Cache
computed
증감
##물질
##라이브러리
deselect
differing
##RLY
Initiation
similarity
EXCEPTION
##SESSION
##remove
앞단
microprocessor
##DAY
폐지
트랜스미션
##안함
exam
expectations
##Virtual
일수
##Deleting
encapsulated
##조합
constrained
##마케팅
실정
##Peer
GPKI
##Should
reopen
lob
대치
##Instance
##영어
##고시
##신뢰
##합성
##팀장
가로
##TRUNCATED
쓰이
익일
불리
##TMS
##VM
encapsulate
shard
QREMOTE
Subclause
##Thefollowing
async
##세금
보냅니다
배점
##=“
clicked
##만족
Connecting
##자문
관장
궁극
HTTPReply
owning
redirected
transmissions
SCHEMA
ONLY
##security
##1024
messageflow
열려
plugins
##매니
timeframe
##MQBYTE
##Rules
##History
negotiated
XSQL
ogram
##VCL
ocedur
##Asynchronous
구역
지사
##신속
철저히
##Related
mqsichangeproperties
validating
오후
##Policy
##러블
진료
와일드카드
마켓
##desc
##컨설턴트
불과
##detail
expands
##POST
##NOTI
LEN
##지토리
대시
MQCXP
로우
SBCS
oker
##mqsi
엄격
##오염
게스트
드론
불이행
떨어지
탄력
##빌딩
##1999
나온다
시간대
##disable
만기
##DBPut
MQSCO
티어
GroupId
Ports
##LOCAL
사안
전행
##전담
상실
##import
##Sending
로그인한
노동
##010
지침서
##Trust
continuation
##절과
##공지
피하
desirable
##부팅
클립보드
USE
Reserved
##Assuming
##정규식
##손실률
occupies
DMB
dept
##SALARY
Callback
copybook
장이
소방
우위
##차년
timely
##SKT
##%(
readme
와의
disconnecting
manipulated
attacker
>=
Extensions
##Pro
##축소
tile
##Safe
thetable
extensible
sorts
buf
vectors
##SOURCE
오늘
TimeoutNotification
markers
##국내외
##JOB
##래스
##수원시
입찰자
##Universal
##경쟁력
Conditions
응급
##INSTALL
Compare
##저하
Hive
Specifying
Invoice
##Stored
##일별
Lightweight
customizations
##마이크
포트폴리오
##시켰
##게임
loosely
attachments
##partitioned
timeouts
restoring
##About
##일단
Dashlets
##Prepare
희망
##자간
##유사
##협의회
indefinitely
##합병
언제나
##세대
DECIMAL
disadvantage
인센티브
##Solaris
orthe
arenot
##Sender
Assign
crypto
ssh
##SUCCESS
ess
##Temp
실태
일어날
파이
##필요시
##종목
##Sun
##BME
##간격
##term
내재
저렴
pc
##xxx
##대별
theWebSphere
##요양
대여
realm
yields
mqsistop
unexpectedly
##Stopping
ciphers
절체
Metadata
##retry
##경기
##시오
지우
ebXML
ADO
JUnit
##tpalloc
curr
##CLASS
ormore
계열사
##재정부
##별지
스토리
테이프
##Binary
전문과
Accept
##display
정밀
안드로이드
반송
재무제표
열립니다
transmitterChannel
namelists
##Programmable
CTX
##STOP
SUSE
uploaded
##복원
갑자기
##엔지니어링
chained
bIsEncrypt
##0000001
##Various
DISK
그리
AnyLink
##Drill
시동
##Checking
##profiles
##만들
소규모
Rename
subroutine
매크로
##Health
faults
##processing
##유럽
arising
transparency
##라이드
##액세스
비지니스
Owner
##아니
##리기
##툴바
equates
##TRANS
##98
도래
반대
routers
세로
##Repository
호출자
##케어
hover
##융합
warehouses
오버헤드
순간
VCAEUE
##바이
Continue
Analytical
Motif
##황과
장의
전산실
모형
##추후
##격자
요망
booted
whitespace
""
##Putting
내려
##DETAIL
protects
##Retrieve
##Schema
resize
연한
##Reissue
TRPTYPE
BUFFER
differentiate
latch
rolls
##Unit
인적
##second
##유상
##192
##5000
##취급
##Whichever
##123
Javadoc
추상
##부품
##어느
willbe
##Messaging
##바운드
상업
녹색
acknowledgment
##TRACE
##MQe
BFILES
AmazonS
notices
거절
요하
##편성
overlap
consolidation
IDS
##qualified
CDN
##Channels
날인
leak
##Identity
한층
##컨트롤
swapping
INOUT
WHEN
Layers
Argument
SFP
##SCA
Simulation
##lived
continually
subclasses
##호기
##Completion
##MVS
obj
##SELECTOR
MQTopic
bottleneck
".
WTX
Certification
disparate
##options
##Commands
한다고
아래쪽
허락
양호
##END
가져와서
##Programming
##과목
##병원
frst
##Files
##Print
##일임
DIRECTORY
annotation
##느라
CSQJ
NameValueData
##LGCNS
methodology
한눈
##DEBUG
##WBS
대두
##템플
##centric
##Development
##Customize
QMNAME
GPP
securing
topologies
stdout
##durable
보건
배송
##Functions
conceptual
등등
##Attachment
##Store
unset
thesource
##bytes
Interchange
##잘못
COMPLETION
restores
포기
정보주
대리인
##매뉴얼
관계자
급여
테두리
tagging
꾸준히
입찰서
요일
Vendor
관광
툴킷
Exerciser
Exceptions
abends
어려울
##독립
##Result
##INTEGER
LENGTH
POOL
다섯
##볼륨
queueName
layered
resemble
##Backup
##DMI
*),
STDL
OCIErrorGet
UUCP
가까운
##
##공학
investments
갖출
특장
##패킷
##Administrators
결산
Stack
종이
##Authorization
하부
녹화
artifact
cron
직후
알리아스
##인지의
약관
발령
Sending
backlog
##Methods
slice
overflow
assess
익명
판정
Sendmail
강도
MQJMS
주장
대칭
##VMware
##APPL
Roles
terminator
workaround
handy
##fail
unstructured
펀드
##condition
##20000
Mgmt
패딩
##FONT
##ISP
선두
##project
##Tag
MQCB
##업과
발달
균형
##Enables
dispatch
##KR
##전기
오랫동안
##버리
##Scroll
EXTERNAL
PARSE
##LEN
associating
Optim
선제
HEAD
주가
Rows
preprocessor
decremented
FAILED
ObjectQMgrName
##DOS
##Parallel
##메타데이터
##기술료
유닉스
##Verifying
executables
빨리
PRIMARY
결의
아무
##Digital
RPA
GUID
##Communication
징후
Duplicate
Envelope
assumptions
JVMs
##제외
##thread
constitute
eliminating
##캐스트
##Phase
##rcv
##MQHBAG
diagnosing
##사이즈
휴대
니즈
##Gartner
##작동
경영진
##업종
delegate
##Assign
##PGM
whichever
##통의
학생
온도
shortcuts
시킨
국방
드리
verbose
Numeric
##Simply
##virtual
CCDT
##CRYPTO
wasexecuted
강대형
##ITEM
manipulating
##Smart
가져
##정규
##Month
##부담
OEM
negotiation
유량
##도움
MsgDesc
포장
usr
##지체
대민
한국어
인터
theprocess
highlighting
##단지
상응
##플리트
*,
synthetic
##Effective
visually
##echo
##적절
밴드
##Environment
varray
submits
unaffected
acknowledgement
subtasks
MQDH
MQCTL
Approval
dvoid
##관한
소수점
악의
느리
##CONNECT
##IDC
##runmqsc
정함
##INTERVAL
숨기
2048
unattended
Subscriptions
Defining
SCADA
##110
거리
ExceptionList
tailored
##=’
##SVR
##확장자
recommendation
##References
Invocation
thebroker
##Alter
##FIXED
##Reduce
##Usher
##ANY
CipherSuite
##Agentless
##Distiller
avalue
외국
##허가
제로
윈도
bugs
골든
URIs
##케이블
Expiry
얼마
CIO
##예시
##Developer
##PurePath
##Naming
welcome
WMQI
나온
##으면서
거친
움직임
Include
##여신
assemble
Signed
anew
infinite
KIS
employ
##HEAD
WORK
받아들일
##lled
##퇴직
경감
##배열
MMS
##″,
##샘플
##enterprise
나라
##Retry
periodic
adhere
미세먼지
##창구
##copy
uuid
checksums
caret
traffc
integrations
LinkGet
associatedwith
retrying
summation
sizing
positional
transforming
##기업체
##엔터
##납니다
SPIRIT
corr
##맂
adifferent
CACHE
recovering
##라이센스
NORMAL
##뷰어
문구
##가변
Duration
##ENABLED
##보상
암시
Msiexec
임대
fork
##literal
unusable
##자용
placeholder
modular
Compression
ExitResponse
커야
소집
##add
transparently
Synchronization
getter
thevalues
NEXT
페이로드
Customers
##RESUME
바꿀
##DEST
➪
MOJIN
TransactionListener
MQMON
##Doing
##72
conf
##경의
지수
워터
##Must
deeper
##-->
붙임
뜬다
##중심
저작권법
theerror
##LANG
EVENT
##시각화
이탈
wrapping
populates
Declare
##Element
mounting
##Metadata
생체
증분
주차장
vulnerabilities
##Ability
달력
##sample
##wait
##Similar
##Alias
##바이저
##VCAEUE
submap
파스칼
vMA
slots
Intermediate
보호법
견인
##IIB
CAM
##Increase
broader
TEXT
##Hardware
JServer
Troubleshooting
##기억
##eSQUARE
##오피스
pCompCode
RCS
PVU
##};
subtotals
WOLFSSL
##\'
저해
##0001
##셀로
##함의
##허브
##나머지
##현상
##Large
도식
adjusted
SupportPacs
##상호
이론
내외
whichthe
##이중
운송
스크린
##Avoid
##명회
Prompt
긍정
##MASTER
##BYTE
malloc
Alerts
끊기
SubName
드릴링
youare
AggregateControl
subprograms
##Moreover
leverages
inwhich
##Transactions
##BACKUP
##거부
##Off
정해
Username
unlock
##PCF
상거래
##키가
STEPLIB
##Developing
재생성
모색
종사자
붙인다
increment
embedding
좌우
##SDS
##부기
##영문
중일
Hashtable
booting
ResultSet
##Case
IBK
99999
ILE
rfh
notifiable
##cache
##ARCHIVE
이해관계
광역
##제작
POSCO
COLUMN
##exits
newsgroups
급격
##Summary
마크
부산
bitwise
FIX
retried
##Physical
##내장
##terminated
과도
inhibit
##aware
solving
'%
##env
Defines
ESXi
##endian
Spreadsheet
amqsput
addev
토지
Fabric
##separator
quiesced
##TRST
매번
진정
자회사
foo
buffered
반기
##title
Perform
SystemOut
대중
인프라스트럭처
##Handle
##Lists
##부채
timers
##');
##나눈
Namespace
적응
##의가
##무선
산업별
▶
시군
resultant
##인구
Enabling
합니까
##급대
##Validate
번역
정교
encode
SVG
needto
##URI
##formed
획기
몇몇
나타남
##Primary
감독원
##DBGet
APAR
TXSeries
##위협
ATMI
##Alive
ADAPTERDETAIL
canonical
##TDS
pragma
##GID
caution
accelerate
##협조
##형사
MANAGER
공문
되게
isdisplayed
##구체
consumes
DOMAIN
##Initial
##색상
행정자치부
Markup
쌓여
mysql
##문은
NEW
##방재
sothat
리전
네임
##Addressing
Clause
##ALLOWED
##Block
OCSP
ManagedConnection
##JMSException
ADSDL
derive
PARALLEL
##TIMEOUT
normalized
##RMAN
환산
##MQOPEN
##Modifying
networked
기술인
##scale
##SVC
확실
##Procedure
##Conversion
허위
배당
##samples
makefile
MQMT
DPM
duplicates
MQEVO
DataCenter
##터미널
subprocess
##혼용
##CARRAY
JPublisher
##Pointer
##SHB
##nbsp
epositories
위변
산재
##소요
책정
보험료
##보험료
##모델링
외산
collaborative
auser
abbreviations
##행이
ADAPTER
disabling
##연락
##88
POWER
설계자
직면
##snd
Packs
Uninstall
seamless
나올
##텔레콤
JTS
프로비저닝
##´
##반환
stdv
##OUTFILENAME
##약점
Workspace
passwd
EISs
PARTITION
확인서
도난
각호
##월별
##NFS
##MRM
할인율
##반려
일단
wantto
mqsichangebroker
sysplex
##Null
dest
퇴사
##CLI
purged
##Answer
##700
Sensors
receiverChannel
##Implement
##Developers
##Numeric
DES
PSID
TASK
QuickTime
##TEL
pInputText
##마이크로초
##ROSE
constructing
minimizes
일부분
Stopping
Postfix
##Cognos
져야
datafiles
accepting
##REM
##Understanding
theconfiguration
looping
##Features
jsp
##기법
##Ex
##리스크
fte
spool
분당
havebeen
Minimum
Procedures
Constraint
fprintf
Tru
provisioning
portlets
##Freeform
##DFT
트랩
감지기
rowids
wholesaler
##MONTH
소프트
거듭
기사
총액
Forrester
COMMAND
이끌
##replace
authenticates
Assembler
##서브
exposes
examines
##시청
##SYNC
추측
##Who
##depth
Connected
acknowledge
Identify
패러다임
##MESSAGE
insertion
filling
##compatible
RAR
thesaurus
##Special
##DRM
##CURRENT
왔으며
complementary
##Resolve
##Good
선급금
##대문자
##Describe
##Feel
개인별
Activation
##Subject
발간
반도체
액티비티
국산
JavaServer
보여집니다
Forecast
##선행
##게이트웨이
correlated
##management
##Tools
visualize
##html
configur
타임스탬프
CRUD
위쪽
##Synchronous
##NORMAL
BAM
clarity
##Cross
summarize
LD
mqs
##NEXT
견적서
##KIC
~]$
MTECC
ReplyToQMgr
##Submit
neighbor
dictates
##된다고
##발신
SVN
##매매
대략
##포의
##SVI
수학
마커
Comments
GetFormError
푸시
thefile
악화
늘린
DateTime
##span
이어집니다
방침
눌렀
내부망
바코드
effectiveness
##ProFrame
filesets
CEP
OI
입회
##ICT
심층
사라지
suppress
##느냐
TTAS
스타트업
##왜냐하면
##known
##SPACE
userName
instantiate
merging
ILinkGet
mqcc
mirroring
Snapshots
##RDBMS
declarative
RGB
##APPC
브릿지
InputTextSize
Listsall
##Lob
cumulativecollection
DISABLED
이루어짐
##점유
비례
급변
###,
##Grant
MEMORY
존속
플러그
PASSWORD
nonexclusive
혼재
심화
##STREAM
##ibm
subsidiaries
##도와
##업그레이드
##Day
높여
instruct
##EDI
mediations
들어갈
##인공지능
##스마트폰
불만
chanserv
badge
stays
ruleset
##주선인
##progress
MQSD
TCB
##DISABLED
##WPS
##Accounting
Maximo
customizer
##상암동
##사람
##Timeout
##처의
가중
DISTINCT
chmod
recursively
##Execution
##Regardless
RouteToLabel
kilobytes
discretion
##고속
##홍보
치명
##Space
##사내
##TEMP
##계약법
##Caution
witha
exchanging
malicious
adatabase
anyway
##사법
##PART
##<<
toperform
aborted
##blocking
만한
잘라
##부대설비
SWIFT
Analyst
##Develop
toanother
inyour
batches
거쳐야
둔화
##슈퍼마켓
Extract
backwards
syntactic
##OCI
선금
##exe
편철
UNION
purchasing
EULA
##REST
appending
unrelated
##Resources
fetches
##IMPORTANT
OUI
엑세스
MQOP
GNOME
##ctx
’&
billing
##한의
##기초
##예규
JOIN
##Has
Sharing
휴대용
##Normal
팩스
##debug
늘리
##Formore
fulfill
##Successful
살펴
##격지
Audit
BIE
운전
##YYYYMMDD
NTP
##자수
매매
##safe
transacted
enqueued
README
exhausted
매출채권
theservice
byusing
instantiation
##반청
Controls
##swap
CSQC
ECB
Warp
##VALID
##SUI
##==-
##Library
analytical
##PRIORITY
익스
##CAPRI
preferable
dramatically
##cluster
##탐지
가산
개인정보
##분배
numerical
TPCALL
성장세
송신용
scratch
##처하
##완전
MODULE
prefixes
PostgreSQL
Describes
manageprofiles
ascending
##CAUTION
건전
Supplier
##Help
공익
##Patterns
HashMap
avoiding
##blank
##CONNECTION
##IIOP
범례
CommBuff
##RESPONSE
##SQLJ
Locking
차등
세미나
##중간
정합
##dc
##Links
deadlock
수탁
블로그
양이
Delimiter
##Size
##Eclipse
fractional
##integer
##95
광교
중소
##나요
ASN
줄어들
##매우
일자리
수원시
##storage
##Choosing
NON
BServ
##Re
SQLstatements
MQAIR
##UDP
requesters
referential
notvalid
evolve
##고딕
Gbps
##CLIENT
이진
##모두
차감
조의
##Uses
역사
hook
contiguous
EVAL
beside
##입찰서
expense
##INTF
꺼내
##Neither
enablement
MQFB
MQCSP
theother
찾아보기
codeset
Xml
bookmarks
Trusted
MQINQMP
ImqObject
calendars
INITL
SECTION
##store
Digitide
thecluster
QMB
##amz
##BLOCK
##READ
##타임아웃
##시범
노임
##간접
##요령
##지리
##Prior
낙찰
찾아내
핸드폰
##마트
완성도
공조
##Specific
##면서도
돌려준다
##제약
Nested
##파티
##Pre
BIOS
검색어
constructors
replicate
Garbage
##Hadoop
##Scenario
펌웨어
##IDENTITY
##TASK
##Inbound
##중등학교
Netezza
JEE
Tpipe
iptables
##DataOffset
compCode
SYSDBA
##원시
과다
##전자서명
과부하
Certificates
CHSTATUS
##견이
엣지
Qmanager
##용도
oneof
##이메일
##빠른
mqsistart
Restore
USERID
생성기
방대
liability
##XXX
##configuration
##마법사
##Zero
##동영상
##MAP
solved
ObjectType
designate
Subcategory
비트맵
##Force
##월말
emitted
unconverted
NonXA
##-®
algebraic
랩퍼
이곳
알려야
##온다
##Runner
##목적물
##요금
시작점
Synthetic
affinity
##지급액
아카이
deny
##volume
downloads
취한다
subroutines
##Outbound
주사
##선불
실사
타일
##DataPower
모으
analyzes
preconfigured
##Transport
##Until
##모집
##MQRFH
MQCFST
arg
andthen
THREAD
##63
공휴일
창구
interoperate
JBoss
##Adaptor
NODE
Bindings
DBLink
applets
serialize
Comparison
behaviors
rm
가져가
999999999
상담원
##공장
##BEA
thedirectory
##Availability
splits
workflows
TORONTO
##Notes
##MocoCrypto
MQEnvironment
##위탁자
##Bind
오염
천재지변
세분화
처벌
##회하
Netscape
모르
basics
ENVFILE
INCLUDE
polls
##부로
##리소스
영향력
폐쇄
부각
JBI
allof
인덱싱
OPTIONS
##DQ
frees
builder
##아직
##샵
##소개
##TERM
##Displaying
donot
ENABLE
assertion
##WAN
##최상위
REASON
ADSD
MQMF
IDOC
WMLScript
Toys
Gradle
indextype
##Purges
##forward
##교육청
빌딩
문서화
##손해
포트로
Visits
revocation
##창출
Ack
접촉
mqsisetdbparms
##Handling
유료
##Power
##LQ
##광교
appends
XSS
Append
성장률
##Down
##PAR
제일
부채
##BFH
CIDR
pthread
##아울러
##TRUE
conformance
ddname
MINU
로거
성질
평판
##폐기물
등재
##월간
advisable
exceptional
##JNDI
##물류
participates
subnet
unrecoverable
##workspace
다룬다
##570
##열기
별개
##협약
##84
##SMTP
독립성
##인계
Defined
redirects
##left
##위기
areport
##}:
Preview
피싱
FOUND
CVU
updatable
tRFC
##CIDR
returnCode
##검출
##셋째
##실무
실체
의심
##기준일
CLIENT
헬프
zSeries
loopback
fictitious
ODS
부상
##CORBA
사의
##qmgr
##엘지
사기
라이브
##연산
인기
KST
resumes
Specified
##Calling
##Generic
##급사
확률
printf
ptr
LEDs
##NAMELIST
IDocs
WebGUI
AMSD
microseconds
elease
originate
기다린
실천
비치
Injection
refreshes
##Plan
MQBYTE
CONTROL
##모코코
Channels
interconnected
##시켜서
");
농업
##PW
##도면
Synchronous
##Will
##network
##console
Lifecycle
Signature
toaccess
##Throughout
RemoteQMgrName
iKeyman
AVG
overriding
slider
notifies
wher
placeholders
PCs
##아웃
eth
##버킷
##ROLLBACK
DataBase
Quadrant
##Complex
initiators
ADDRESS
##문서함
불합격
##소통
##TTL
핸들링
하반기
나뉜다
##${
##month
augmented
무한
전적
cookies
조율
##YYYY
##Workflow
하신
##Conversely
shouldn
zoom
argv
QR
행이
MQCBO
루프
##buf
PAYROLL
REPOS
JavaBean
MyBatis
preserves
덮어쓰
지진
##요율
##Invoke
PI
restricts
ccsid
내릴
dialogs
##Increasing
##Publications
##Static
의한다
##RFID
하이퍼
##TIMESTAMP
svc
##정수
programmatically
##stderr
##일본
UTP
Tracing
##According
##generic
##AREA
datagrams
_).
##COMPLETE
##유비쿼터스
Transfers
DRBG
ements
##68
##잠금
STORAGE
부가세
##각서
각자
배양
usedto
imposes
##map
중개
##집합
자릿수
Rank
crashes
ILinkServer
시트
웜
##401
##CIA
절반
Copies
FILENAME
##account
##TYS
SASL
thecumulative
##content
##차별
최우선
##현업
깨지
fastpath
utilized
descending
특약
##BIN
누리
##채무
MQSI
ServiceUserID
##Servlet
##SLA
##케이
입수
지구
전의
##Child
##XX
정식
##called
##박물
하우스
Undo
Palette
금일
MsgFlags
AppScan
trunk
TimeoutControl
##䋸
adpater
AirPort
##MINUTE
##WebService
##근로
##진수
accessibility
bundles
Valid
부도
콤마
##ILinkGet
##Private
##Disconnect
##LEVEL
predicates
이동은
TCPIP
incrementally
##Device
BATCH
이니셔티브
##Region
demarcation
##certified
HEADER
##ssl
##seq
##Dashboard
##complete
dc
##Tags
##sub
TODO
##앙의
평일
CertStore
CAE
##sharinggroup
##Applicable
^)
ecovery
coordinating
##보증서
##굿모닝
downtime
##>>
##확약
##재생
toggle
##Root
혼용
재발
##policy
소매
##Deploying
HACMP
detecting
##리눅스
SDKs
chunks
불러오
##시공사
보일
Provisioning
alteration
References
QMODEL
Placement
extracting
폴란드
책갈피
##지오
##LOGP
paragraphs
지상파
##ActiveGate
operty
##Waiting
캡슐
##기밀
##Framework
##Shift
체크섬
남길
##hostname
부동산
##interval
ALPHA
LANGUAGE
zeros
##어다
라벨
타이틀
##송기준
Amount
Pharos
totals
bidirectional
스니
##partition
Dataset
##template
diff
Rentals
degradation
explaining
접속자
넘기
##리자
엔지니어링
Filtering
##대행
IPL
별명
##DR
##1300
면적
쌓이
Databases
##TAG
##archive
xxx
##스키마
##Components
올린
##008
플랜
LinkPut
DEF
ssl
##고침
CKQC
##Subsystem
부천
##097
MQMFT
IBMsupport
##간행물
Formatter
##용시
##recent
##Win
##해질
공기
철회
readability
##Extended
##Diagnostic
인용
##매수
profiling
binaries
커밋
separates
##availability
##대형
limiting
PMI
순번
TIBCO
underneath
themaximum
##바랍니다
symptom
deregistered
pressed
"$
##Pattern
crontab
파티
SEGMENT
##엇다
일보
PREPARE
Executable
NCHAR
loadjava
dirty
가짐
달라진다
##보정
실험
##150
labelled
httpd
Concurrent
Apps
##2141
붙여서
onyour
구축함
##Updates
Attach
Permissions
생길
후보
df
##generation
Definitions
##발표
##스토어
돌아가
subsets
RETRY
withinthe
OSGi
Expert
PAGE
##BM
Esc
MsgFlow
##STATS
알맞
##부족
차주
##Subversion
ofthese
##Finish
cart
linkage
ActionUPDATE
##참가자
해양
프로그래머
터널
Allow
컴플라이언스
optimizing
validator
##사무
theremote
collectively
퍼블릭
금리
##ROOT
mistake
##지부
출력물
XC
수기
DSS
블로킹
pushes
cope
deregister
SOURCE
##현의
Received
theyare
PLAN
Quickstart
Insufficient
PUBLISH
HPUX
thelocal
단서
##침의
InterfaceID
SSLCIPH
##집행
당신
승낙
보전
megabytes
Federated
포커스
##어떻
프로모션
manipulates
skips
당기
##readable
setter
##광디스크
##speed
dropdown
##관광
##filename
##TRANSACTION
##offset
Extender
##Subscriptions
mailing
Emacs
warehousing
TGT
selectivity
uctur
costly
UnitFlow
##권리
##여건
CRAB
thathave
LIBPATH
환급
항의
Blueprint
exec
##Allocate
##기상
소지
ELSE
##조항
seamlessly
##+)
체인
bundled
##Receiver
Materialized
##십니까
RESPONSE
editable
renaming
whenyou
inherent
ofwork
FTPS
MQMO
MQIND
##black
##갂
NCLOB
Speedy
operties
distributes
자의
##복호
모여
##공제
##과장
backbone
##을까
tailor
JEUSMain
치열
OutputRoot
spans
agility
수원
##Capture
##IIP
##Google
##Tab
Queues
##MQJMS
##ETL
reviewing
ComponentData
##Top
hides
theoperation
Jeus
##CORE
RecsPresent
MQSTAT
##relational
##Mon
##종별
VARRAY
##there
##공식
비주얼
##노트북
tray
##Refresh
##DTTM
Delay
uid
##DOMAIN
allowable
decreases
locating
힘들
CONNECTION
##ATTR
##위해서
##실태
BETA
##BATCH
MSSQL
채우
Networking
대역
Receiving
theinterval
스토어
즐겨찾기
selectively
##MQAXC
LRU
thefirst
Filters
thereport
##addr
RCVR
personalization
##Android
randomly
##디테일
##FIELD
EMPNO
##Obviously
WINNT
블럭
##부가세
미완료
##전개
운영비
RDB
##Initially
outage
##PCB
트레이스
누출
authenticating
wrapped
가스
스키
스타
##Variables
opaque
##JDK
주어지
##103
주파수
##*”
영문자
logins
offsets
##EXPLANATION
##심각
##증명
##statement
선택기
SRMERP
Unified
개인용
JDKs
MQSession
shards
##DFD
지휘
HSM
파손
##VITRIA
##Big
launchpad
signer
redefine
착오
##가동
##리문
theoriginal
##Moving
Subscribe
##Extract
##alias
매도
##Actions
##구글
##봅니다
##Portal
FAR
##characters
Communicator
##Importing
##Transactional
##BEFORE
signifies
WARN
Compiler
Onepass
callable
##DOC
??
환원
unsolicited
SYNONYM
##ONL
Spark
Copied
##음의
IPV
억불
$(
##복수
Itanium
파서
##사상
요청서
##Average
본체
출발
DBPut
DevOps
##원회
shuts
들여
##Analysis
counting
##BEGIN
ATTACH
##Troubleshooting
##부정
stuck
comfortable
discrete
##오버
부로
##9999
Privileges
ATTR
##화식
##Priority
Ptr
##CLX
##intensive
Popup
밀접
##보수비
초급
연구비
좌표
##노인
##SDO
consulting
Inspection
##QIBM
TPM
무효
##tcp
##they
무제한
forinformation
##총회
알려준다
##생의
##미스
WHILE
subtypes
inherently
BLOBs
##67
##CCSID
##매출액
##공동수
refine
##refresh
사설
65535
renegotiated
MQXCC
ConnectionName
thenext
truncate
PACKAGE
BSDSs
Pricing
너비
CLOBs
ior
ActivityCoordinator
WebtConnection
##지터
evious
yourapplication
수락
한쪽
세상
##2002
##사용량
안심
coexistence
recreated
##parent
##Launch
Blocking
##끼리
기업체
##자동화
##진출
##Triggering
##청자
백그라운드
##Solution
##재무
##처분
##Operating
붙이
수백
DQMS
leveraging
allthe
**)
suppressed
SDL
##JSON
##필터링
##화생
문은
decomposition
cords
Registration
advertised
##LETTER
ChannelType
deptno
plaintext
##NAM
##sexecution
SSP
##rhel
따름
##커스텀
##전시
PDA
##지적
Installed
##컨테이너
recv
##Side
형사
Developing
cloned
##>"
##flag
인사이트
##메시징
subfields
epoch
substring
##한증
EMS
##TEXT
IOP
타이밍
OUTFILENAME
aggregates
##QUIESCE
businessobject
스캐닝
MQCHARV
##queuing
ProFrame
TEMPORARY
timezone
Capacity
PSM
rental
fect
computes
onwhich
##피해
사무소
ENABLED
SYNC
종결
HBA
누수
시너지
inconsistencies
impacted
##권장
##Gomez
네이버
##올바른
##오늘날
경량
VisualAge
notbe
수퍼
관해
없애
declaring
환수
##WESB
##대역
인정받
##cfg
overlapping
시청
##INFILENAME
흔히
POD
##Shows
인근
Leak
manageable
##Structure
getConnection
##배당
collaborate
##붙여
##스팅
그런
##TPM
##negative
stylesheets
therequest
##3232
emote
##REMOTE
##Applying
Aggregate
청주
회피
##TX
##Operations
##PQSG
나라장터
##QUERY
스코어
Functional
금전
sFTP
감독관
WebAdmin
reconfigure
공정거래위
##개인별
##범죄
ENTER
##Detailed
augmenting
##Profile
##Fix
##Opening
##<->
##전반
Constraints
Pointer
edits
todisplay
instanceof
Fill
improper
##으십시오
DUT
00000404
pCipherText
토픽
Ferror
##−−
##근로자
##UUID
##계열
BRMS
infrastructures
unacceptable
메세
##Previous
##ACCEPT
모범
theenvironment
dislike
지위
##Contents
##8787
걸려
##관례
시계열
UNKNOWN
assumption
violate
##당업자
Analyze
Bandwidth
{@
테스
쿠폰
##facility
##Cisco
##Native
##저작물
##cates
##타워
##CLUSRCVR
##=/
cURL
Assurance
arrange
##Exec
SAPGUI
MFA
intermediary
##CSQO
##dp
grayscale
##Found
IDENTIFIED
RESTRICT
##remote
똑똑
Logger
##deferred
weighting
##=＂
##Persistence
##Proxy
responsive
산술
Renewal
##해지
교류
##Quality
통신사
flowed
Partial
pid
##login
##보조
toconnect
##join
unresolved
정해져
##sw
PROTOCOL
거래처
Prefix
##svc
proactively
##Self
##읶
##Adds
##Calls
rewritten
Webstart
violated
##Console
leaks
##Connections
사업단
Discovering
##decimal
affinities
##BACKOUT
##DEPTH
bend
ENAME
scott
"+
SMDS
'**
다름
##법규
##례의
##LIB
layouts
params
##대우
플레이어
runmqlsr
persistently
##classes
##option
정품
조속
inconsistency
reliably
cpu
##해왔으며
##Among
##Providing
dial
##음성
##existing
youshould
Selecting
Caching
precedes
##Temporary
##People
취업
ALE
SCCS
geometries
##장시
##ACL
접속기
##Gentran
TmaxSoft
Transparency
관련자
##UCS
IFM
##기호
##물량
##prefix
ambiguous
기일
isrunning
staging
##Everything
Desk
actionable
YOUR
##Account
microflow
##Unicode
cmd
말씀
##신호
##IBK
##ILinkPut
Sheet
##Listener
uniqueness
##Perhaps
##Distribution
ODL
InterChange
nameof
Packed
alters
##드리
접지
RESOLVE
basically
sendlen
TUXCONFIG
polygon
ExitContext
VMFS
checkpoints
dbm
##관할
##수준의
연구원
EMC
인트라넷
manifest
리더십
EQ
abbreviated
LINUX
##건축
enforces
nesting
FileInput
##사원
SPI
ROLE
##공격
지나치
여지
##Bit
살펴볼
##drop
##조건부
Visualization
등도
##개설
"(
impacts
##Lab
타스
Utilities
anerror
programmable
AccountingToken
confusing
indoubt
IPaddress
##spool
DECODE
##통관
##자신
MASTER
AppMon
TPRETURN
##텁
ectories
morethan
거래일
쇼핑몰
##여야만
##AnyLink
##연관
만나
nil
##values
Putting
##Nothing
asterisks
octets
뒷받침
##도서관
선진국
나갈
선점
##프로세서
중입니다
##Login
##Metric
isrequired
##Administering
##UOW
realistic
##Min
obviously
clears
가독성
##information
strlen
##Align
COMMAREA
EXPLAIN
Closing
WCF
Choreography
Retailer
theevent
##정당
필히
부서장
iWay
LPAR
##Initialization
##게시판
##투명
##본사
대외비
compromise
separating
##해킹
입지
##사기
급격히
강의
##numeric
##Fetch
##Processes
##IFRS
Locate
superclass
##원활
##Tier
렌더링
가구
Allows
IOR
##Looking
##FORCE
apache
##MQPMO
힌트
eaiap
소수
CSQP
##SYSP
##벡터
##odg
theOperational
contributors
calculating
yoursystem
용지
##순환
##조달청
automates
아마존
장시간
주소지
##messages
익월
Paste
##Stream
thetarget
##페이스
iterate
rounding
YEAR
Notify
##Ctrl
COA
drilled
##명시
##disk
##외환
현존
##페이
##’:
SMB
varchar
stderr
MQOT
Continuous
prepares
DISABLE
anobject
##대주주
공통평가기준
punctuation
coarse
리얼
##Viewing
IMMEDIATE
위로
##DMB
dequeued
DEPTNO
신임
OpenConnect
cataloged
나옵니다
##해줍니다
대장
탁월
##WebLogic
anymore
utilizes
##DEPT
##Push
equivalents
remedy
면책
intercept
OMVS
##SCM
프라이버시
파일럿
##출물
##example
Assist
reproduce
협회
증권사
Updates
##소유
MVC
##소방
FLAG
purely
ofyour
octal
destructively
##program
워드
##Forms
##FIPS
0600
Snippet
mqGetBag
##BUFFER
HOBJ
##Citrix
notnull
##testdata
##MQHOBJ
GatewayScript
##LOCK
##files
##=>
##대리
##지사
##74
##FATAL
주어
실비
Relationships
##schema
나이스
무응답
UMS
건당
##Dead
충실히
glance
##Provided
##ROMs
디맨드
##).
유로
##고지
##수요자
##수출
purchases
##의미
deactivate
##Comments
##동생
공학
##Oriented
##일지
##의뢰
realization
##패스
##개방형
formore
##AQ
readily
Criteria
##팁
Webserver
##Notification
react
##REPLY
##purpose
generalization
##파생
##Acrobat
##액티브
리뷰
가리킨
##신단
OC
##Parsing
charset
requeue
##Narrowcast
CLH
##OHOME
##$_
INTYPE
ORDVideo
GLOBAL
수취
무방
현저히
도서
positioning
VB
LOCLADDR
iLink
##image
##손익
유치
침체
canalso
MODIFY
defaulted
logos
파괴
무역
사태
지문
##RETURN
##선처리
zipped
installver
Calls
STOPPED
저축
차입금
##납입
##깁니다
##404
##코리아
##뱅크
Migrate
atransaction
PCFs
##provided
##HIGH
anexception
Shutdown
시세
encapsulation
##May
scopes
##티스
overwriting
낮추
SUSPEND
LINE
머리글
MsgSeqNumber
Policies
mistakes
COD
INI
0200
USENET
multiply
shortage
forthis
forecast
출석
'{
창조
환율
##vtadmin
피해자
##platform
##Well
로케
##flight
stacks
갈음
진도
##Uninstalling
remarketer
아니요
ancestor
Displaying
##Shut
deployable
pertinent
응대
freeing
기준일
mea
WBIMB
오디오
allocations
SQLException
LOCK
##Graph
##작업자
approve
MQCFIL
##==
##ClientVantage
rpc
##WebT
ebSphere
##%),
덧붙여
##행정자치부
##도서
EAL
##Nevertheless
Timing
##Release
여권
Banking
동종
옮겨
##Ask
neighbors
##Fill
##벤더
##강제
##77
Mastery
consolidated
##Technical
레포트
##demand
REMOTE
conflicting
##ADD
##대해
##OF
##sys
MES
닫히
##문명
selective
##>).
satisfying
Badge
irrelevant
Blank
MQWDR
##Though
배선
Sold
drawer
통관
##Decision
CONN
BWMAGENT
StringLength
encrypting
##reco
DataOffset
##TOE
TraceRoute
ITSOElectronics
ectly
##ciently
##BAPI
##입시
##AUTO
둔다
종업원
느려
Apdex
##육성
쌍방
교재
주전산기
tpstart
##PASSWORD
submenu
지배
##유해
Viewing
decrypted
servicing
slight
##Administrator
##DEAD
취지
도급
versioned
##512
명과
phones
problematic
directs
UX
##인당
Sort
##Think
grids
RUNNING
Reverse
##우수
frontend
##스레드
##Clustering
관해서
instr
defobj
##Aug
월보
##TRIGGER
Stylesheet
thestatement
paged
dba
mcd
##튺을
##Lock
##GHz
##220
affiliates
LOOP
BUS
##EBCDIC
##부천
unlocked
MERP
구제
##방범
##Planning
01962
Electronically
##Feedback
sequencing
clones
포착
##보안관
화물
관세청
##디바이스
도전
##결국
tolerance
##success
##ONLINE
netstat
##production
cleaned
신용카드
##ADS
##청구서
hello
##250
centrally
##공백
breach
##Bound
JWS
##SVRCONN
##Definitions
##Collector
goto
argc
원상
Expressions
cooperating
##completion
##Delimited
VERIFY
AUTHINFO
배수
STANDARD
##DPOD
gcc
##지원금
ub
bucketName
theperformance
##Retrieves
experiencing
##Making
themost
러너
##PARAMETER
##소비
##책의
backplane
heartbeats
amq
STEP
##에선
##DVD
부적절
SCADAInput
coincidental
소득
연차
##내외
##대회
exchanges
##전문과
Webservice
마일리지
##해짐
국유재산
ING
가계
회의실
##peer
대입
마침
##Checks
##operation
##Establishing
재현
Splunk
Represents
##구문
##FIX
MPP
interrupts
disadvantages
scaled
##SSD
perfectly
IPTV
##CORREL
BLOCK
##Mediation
CMDSERV
MQEPH
setjmsenv
fo
rlogin
Adopter
BPOs
KBs
isavailable
thenetwork
장단점
국회
된다는
건별
##국정원
enhancement
리서치
##Instructions
breakdown
##단점
PDS
##개국
수질
##노동부
"/
##최고
theoperating
##타가
++
Startup
￦
JAAS
무리
##액션
##유의
##배출
launching
##Array
EIMS
snippets
discussing
##화학
##연의
DBGet
번의
PCIe
조건문
Enables
thesubscription
##Exercise
WaitInterval
대다수
intothe
youneed
avg
##doc
Wrapper
스탠바이
프런트
##tmax
주최자
##OZMQML
##0610
harder
##ENDMQM
라우트
OBJ
CONTEXT
QL
##배부
##TSF
ensur
nothave
노란색
넓히
##HW
##커머스
"]");
natively
시킴
##Organizations
느림
BXML
만료일
책임지
##configured
##
theprogram
##816151
quicker
직위
##createconfigurableservice
##태풍
expressly
TIMEOUT
미처리
Multiplatforms
##cdrom
undone
##순이익
marketplace
warrant
##획득
##FTE
사우디
##255
QueueManager
resynchronization
Unexpected
##DBIO
FixPack
pipeline
SMO
##="/
env
dots
stereotype
slices
장운영
ITS
registrations
Linear
Macro
serializable
##token
##SEGMENTATION
##COMMON
##Jul
Derived
tmboot
판교
BFILENAME
구한
격차
##sales
##Logic
##접속기
##프린터
인수자
##Label
theproduct
isinstalled
##depending
기인
importer
##UEM
##상주
##방문
##예보
휴일
##환자
##무역
##유동
충전
deploys
ConnectionManager
BOOLEAN
concatenate
##Human
##range
smit
absolutely
Buses
전시회
##통상
나타낸
##WID
VMWare
전수
MapReduce
##Reset
##Defined
##Perl
##송신자
procurement
Hint
DDname
##encoded
printable
tapes
compiles
DEPTH
estor
thenew
YYYYMMDD
##자유
##other
##location
slowest
CLUSQMGR
DQM
##def
지득
동양
Smartscape
trivial
optimizes
sufficiently
Secured
ejb
구상
내년
##주제
##프레
locates
##consuming
##Audit
##파지
Credentials
##references
##색의
FileGet
텔레
Telelogic
thiscase
Accounting
JDeveloper
Hosts
##Disable
paired
bydefault
##MSGS
abbreviation
ATTRIBUTE
##first
USSD
baffle
EXIT
MQCFIN
늘려
##STATE
##spec
authoring
characterset
0000000
##Section
##Receives
CASCADE
pPlainText
##POL
POA
ecor
##Analyze
erase
recovers
##외주
##따른
##데몬
지양
친숙
이윤
부응
##Shell
communicated
Bigdata
##Loading
agile
orderly
beneficial
runmqtrm
##Automatically
명단
상계
##Websphere
APF
Deleting
converter
Disconnect
##다이나
본질
여타
네이티브
##블록체인
Offline
일어난
##LISTENER
정체
##탈퇴
##will
volatile
##휴지통
CSP
##VALUES
##Initiation
##connected
##MIN
assertions
pipes
Tagging
bounds
Regression
uploading
약화
##자식
guess
##exibility
ServerGuide
##release
세대
EDW
##Controlling
##WAP
qsg
DoS
##Prompt
##CALC
##begin
DllMain
wmqfte
##squeue
statistic
tomake
thisinformation
##BRX
하천
의결
##쟁의
##재단
##기계
원리
근로복지공단
wmq
launches
##Identifies
##Hconn
tick
##engine
##역과
##초과
균등
##철수
##라우
멸실
##모형
바이오
##관심
##연수
Structured
캐릭터
##Individual
opt
타켓
##조체
##리더
confguration
LTE
RFCs
TextMessage
ADSI
AlternateUserId
INVALID
만기일
##테이
analogous
theagent
inquires
##Left
운행
graphically
##FILENAME
UDPs
##tpreturn
조명
##RESET
spacing
ALLOCATE
통장
GMCONV
incarnation
##Removal
myqueue
ORDImage
typeof
진술
##73
서약서
##임금
Retail
TOPIC
시급
passphrase
"<
LEVEL
userID
##관간
실물
비록
##전역
인천
##항공
펼치
shouldbe
FLD
##contained
##관찰
공중
customizable
fulfilled
부진
ONL
##txt
RELEASE
##=:
##가스
Dependency
##Form
데모
##without
##SECURITY
thecorrect
statically
Exec
회전
##Subscribers
MessageType
EarthWeb
interoperable
Struts
##
vulnerability
AUDIT
ImqBoolean
wml
##Ther
ofmessages
preferably
띄우
##Office
개략
##영리
##비와
electronically
Modifying
snap
전액
Dummy
##민의
##향의
구애
confirms
alternatively
Cipher
Compile
##Role
##jeus
##Third
CLNTCONN
federation
##행실
내보낼
Backend
##Reverse
BWMAgent
MQStart
-)
PHAROS
##Nov
Guided
ack
##Encrypt
출현
##Records
##Elements
##Nested
##525
PutTime
Schemas
##마당
##"),
##salary
LRSN
##MEMBER
COMM
BWF
MDENC
##2102
bounding
appli
BYTES
##bucket
RTCP
averages
##Begin
기명날인
총원
##성함
##보전
징구
##machine
ext
##MQTT
Attachment
##거리
베스트
갑의
위배
WBRK
clearing
Licensed
부인
##퍼센트
##MOS
XMLElement
##Profiles
##Alt
송금
subcategory
Listening
##소수점
전표
세미콜론
인포
##LABS
usefulness
##AFTER
Percentage
stripped
contextual
Which
aconnection
rectangles
##Category
MappingNode
##Analyzing
##Serial
formatter
##025
##UNDEFINED
잠시
STERLING
mesh
요르단
brush
INSTEAD
##getProperties
##ImqString
RESETLOGS
MANUAL
##재무제표
교정
응해야
##RM
Paths
##Ideally
Friendly
##Window
금품
오름차순
##nulldata
Mbps
의지
towhich
disconnection
mortgage
loadable
##대통령
산하
journaling
##Year
PMR
tpmC
강남구
둡니다
회색
specifc
알파벳
##립니
##나타납니다
WebDAV
된다면
additionally
inaccessible
##seconds
lineand
themessages
Selenium
슬라이드
##화폐
##Unisys
CONVERT
##Binding
unquali
##주석
hypervisor
##GERP
##%"
##CSQC
##SDR
substitutions
##공람
uploads
MQDistributionListItem
##TCPGW
##—>
ORDAudio
Residency
appr
결론
Threshold
PTZ
기산
##전통
##플러스
encrypts
##’-
##개인정보
##ITA
사상
subtract
occupy
Mainframe
남겨
##jsp
##은지
그린
공략
도형
릴리즈
육안
##FileGet
##JTA
CES
##대전
##realtime
##79
reachable
DOWN
##Much
##벤처
##드라이버
##행문
##_[
##throws
TopicConnectionFactory
Stateless
Raised
혐의
SATA
DEC
TPNOTRAN
##Partition
Indexes
discarding
##rcvbuf
##lsService
##RESULT
CCWARN
chroot
올바로
##ENTER
PDU
localqueue
BookingServiceProxy
**';
PATS
본래
XQ
##거래법
호스트명
##커넥터
##Very
##시뮬레이션
Revocation
Authorities
ONLINE
##채택
아이피
##웍스
위상
##uninstall
rejects
##통화
WARNING
##침입
급속
##체험
투자가
##오의
계기
##소재
##위하
##Convert
ResetContentDescriptor
singleton
informing
navigating
##차이
##Too
파급
에이
RADIUS
단속
##해졌
##스타일
technically
##87
##허락
Accessing
##Forinformation
theproperty
understands
##용자
Updating
##PHAROS
##Despite
Applet
theresponse
dashed
RedHat
shapes
##식수
##거래소
PER
요양
DTDs
##PaaS
INFILENAME
struc
MACHINES
PMML
##Fortunately
SKIP
전공
Tester
gigabytes
pivot
LT
##0300
downgrade
reasoncode
##Wrote
에디트
Almanac
ough
thetime
thisparameter
##hour
balanced
##추정
테스트로
productive
mirrored
말일
도서관
isdefined
Threads
Deploying
##농업
중급
##CHARACTER
이기
NIST
manipulations
##원천
입체
##록과
확신
염두
repeatable
satis
fragmentation
##과금
constrain
##Offset
뺀
보였
annotations
##면적
취한
일으키
MQSUBRQ
##UNKNOWN
##AUTHORIZED
##CMS
ESTAE
##Highway
tpinit
modifier
##Inquire
##836
##FILES
RFMs
##CheckCallResult
transmitting
requestor
사용인
##외국인
likelihood
고려가
감축
불문
simulated
가트너
세관
##진의
##명명
청구서
텔넷
##Row
ISMP
TERM
##Available
Expand
##천억
##용성
손익
##Gb
##일과
##111
RollBack
MQZEP
MQACH
##dynamic
ICF
iterative
visualized
##Especially
Mappings
peripheral
Signals
##help
전시자
ZETA
##Negative
Retrieval
tms
forcibly
inappropriate
CSQX
##inetd
RFM
MQeInput
OSE
##CONSUMER
CMID
eMQ
asdescribed
##Fast
serially
UserData
보관함
재료
##등록증
윤리
롯데카드
##증필
##IPS
LANG
superseded
Arguments
flagged
redefined
##Topics
NEWLOG
PEM
setmqaut
Adaptive
##Receiving
forever
decode
eclipse
부르
##사진
casts
##REPLACE
<>
LOGGING
ADMIN
##Per
freeware
##Bus
##-)
assembling
Tandem
##바로
##단기
Gigabit
##360
수배
Destinations
cannotbe
aboutthe
executives
Cases
##전이
RESUME
ARP
Matching
TEMP
##NPS
##procedure
Locators
pollable
kernelthread
eceiver
##Never
HIGH
##채용
입각
##그룹웨어
Superdome
Accounts
당초
싱크
laptop
억제
##xls
유가증권
##EXECUTE
computational
IPCS
지하
워크스테이션
대상물
##delimited
##CASE
##World
DAY
SOCKET
lookups
delimit
OWNER
비하
subtotal
fetching
플래시
##마련
컨퍼런스
thatcan
세밀
KR
Smarter
##jdbc
Converting
##interactive
responder
##Entity
accompanies
Realtime
duringthe
주당
##Inside
RosettaNet
전술
##8441
CSQU
##CodedCharSetId
replicas
LGWR
##SEC
dissemination
응답자
DataStage
##사이드
MapMessage
REFs
ReasonCode
디스패처
efer
tends
##자치단
##시공
##실습
##테크
##직무
끊어진
Baseline
picks
##topic
##WML
##Hub
##Home
맞출
##EXT
##hoc
##Partial
Typical
iscreated
enhances
Importing
##마켓
##환의
##APPLICATION
##할인
스캐너
OSS
##대수
조각
loses
bypassed
erroneous
MONTH
##예금
##Recovering
보도
##Understand
질병
footprint
DBApply
바이
##최적화
##nm
##runtime
Hyper
toprovide
부와
hiding
##","
architected
SUD
CLR
compensate
Sysplex
therequired
Rendering
abc
invalidate
Determination
##MTS
EventBody
##RCVR
##Central
##글자
##문과
Inputs
##NXACOMMON
##XPath
##applid
MDMID
XAER
HFS
fteCreateTransfer
INITIAL
##workflow
SecurityPEP
cvpb
법정
##연장
입사
부대
yyyyMMdd
tidy
IETF
OU
##한화
기명
옮기
##®.
##Brokers
##1234
FileOutput
##160
unspecified
수강
##소득
공항
##중화
##개년
계절
저희
adjusting
##’;
##Items
##그래
desktops
DTC
##무엇
javascript
##수입
피드
##증거금
지에
##브이
##절의
##Entry
acommand
Helper
##REFRESH
ExitReason
SIB
durations
stamps
##make
burden
tuned
isreturned
포설
##560
##대개
##build
multiplicity
청크
##UDDI
##0102
fulfillment
##타의
##소비자
metatopics
INVENTORY
SAA
Specialist
imagine
CSQN
##EIS
##기년
0000001
##2058
UBBCONFIG
모서리
AppleScript
increments
##고정
제주
사외
##Sybase
##current
partof
##타사
##결론
DIS
Automatically
orphaned
##windows
desk
##Statement
dash
exceeding
##auth
배달
바뀔
배터리
iterations
subflows
표지
categorized
##REPORT
##STAT
충실
외부망
##하우징
모아
포스트
##했으나
##090
무인
Readme
callout
pooled
aremote
reservation
PUTAUT
##MQOO
dumped
##CLUSSDR
신청자
willnot
MessageConsumer
theprimary
##req
##용인
##750
whichis
Debugging
behavioral
캔버스
##합니까
##불법
##Dec
dispatching
##COL
##BINDING
##EMC
DataBlade
GOTO
KAT
##NAMES
철근
jeusadmin
VLANs
uS
percentages
##License
##소송
Switching
inefficient
importantly
autorun
##AppServer
##취합
연령
##전산망
UNS
##연기
unchecked
발효
식품
usedfor
subscript
myProc
exponential
능률
견고
##후속
Orchestration
afford
##year
emacs
reusing
##실사
DAO
##컨텍스트
Sell
지닌
페일
##카테고리
오늘날
얼굴
##로봇
andpassword
unsubscribe
seethe
들어올
sleeping
그냥
cics
stacked
notsupported
##Columns
종류별
포럼
배관
불능
##Steps
Vector
Initiator
Workplace
WLI
BMS
Predictor
pushing
국정
터치
##MQCIH
XmitQName
##Competitive
MQPower
Containing
타발
offending
sudo
##NORM
fsck
pOutputText
MATERIALIZED
##kB
##BSO
##rights
CMYK
ConnectorRep
RFP
강사
쓰레기
lengthy
컬러
generalized
단의
";
##징이
UPS
하중
##안랩
##탁의
##첨단
맞춘
asfollows
모코코
reordering
instructed
##SDK
NOTICE
ITERATE
##주식회사
Translator
proactive
##Includes
ANT
담긴
##Draft
CMN
재배치
거점
predictions
##wsdl
##약관
##NMS
정해집니다
Lite
##guring
anyother
pathnames
setto
Directives
youto
##율의
##신한은행
MQXEP
MQAT
ㅇ
##rule
##ignore
ACCESS
##Represents
##attributes
##Workload
경합
ASYNC
##QTAT
HAVING
##HY
HASH
LAB
##BServName
##ISFileSize
##①)
ANALYZE
eason
optimum
transmits
정치
적법
##Wizard
간결
PoC
증명서
lacks
##proxy
dspmq
eAI
바라
바라보
CSR
##DDL
##연체
##약정
##조작
사무관
exposing
ids
exponent
qualifiers
##Correlation
##연간
규명
mobility
랜덤
피할
시큐어
thecontents
RemoteException
##MQPTR
Governance
##을수록
침투
inject
aswell
blend
Exercises
##수원
적립
extensibility
##types
##Feb
aliasing
##이과
enrichment
불입
ODVER
Icecast
SHOW
hadoop
##iRetCode
REQUIRED
HelloWorld
##ADDR
remotequeue
##recover
디비
IaaS
##UML
##장점
Stateful
answered
coexist
IVP
nonexistent
초반
##을시
프랙티스
##위반
thespecified
SOAPInput
##항상
편리성
관측
##조성
엄청난
##Problems
SECOND
BETWEEN
PPP
##GW
Debugger
##friendly
##크로스
밝혔
VDI
정밀도
##MARK
takeover
Entries
##valued
toensure
##Arguments
cleanly
##CorrelId
translating
Diagnosis
unload
Instructions
MBeans
walkthrough
##expr
sup
applica
2147483647
##Variable
##파티션
##STORAGE
##HCONN
##bits
##Basically
reconnection
nroff
Datatype
##Decrypt
TPFAIL
##pbszUserKey
messagedescriptor
##¯
globaltransaction
Yantra
kernelthreads
##Media
개통
위원장
분해
합한
부수
PARM
##Exits
##Maintenance
minimizing
##RISC
unix
##맞춤
##Controller
##Setup
ensurethat
unpack
\)
Purpose
체납
강한
ofan
##POOL
##분석기
##ISC
게시물
MPower
combo
폭발
해야함
SIP
Timestamp
시켜야
##밖에
주무관
butthe
##Apart
thedynaTrace
csh
theend
Configurations
##원래
##채의
Float
Coded
핸드
##formatted
##선도
단락
letting
bootable
TAB
MONITOR
passticket
##internal
ISSUE
시그
야간
immutable
abroker
PropertyGroup
Tripwire
QMA
CRS
oups
eady
intends
##lenames
##지불
싱가포르
##최소한
##국회
##올리
기구
인접
##였음을
Share
reasonably
##Email
##UserData
Customize
detach
##UNIQUE
##CONFIG
스냅샷
Syslog
insensitive
##Tasks
##cert
##수사
toan
파란색
XOR
##알리아스
##매입
Determines
##설문
##적정
##간단
##ASP
Caller
##Could
##coupled
토요일
DCOM
##INSTANCE
superset
Suspension
checkout
신주
##매일
thestructure
##이럴
localFileName
correctness
clips
##2394
##Upsert
ServeRAID
retaining
chl
ActivationSpec
classloader
##Ad
SNAP
##8859
##SEGMENT
MQIMPO
boots
abcDEF
DESCR
대외연
MythTV
xterm
##Sycros
##INHIBITED
Telepath
metricis
jobswere
ead
##XOM
ograms
dividing
invalidated
overwrites
FATAL
NETWORK
Scripting
Driven
thereof
CFRM
TARGET
##inc
##도난
##결산
##초당
dictionaries
META
MQADMIN
유망
최소화
항공기
##1998
##달의
가족
수사
첫째
invoices
##Groups
##True
##WHEN
CTG
##INT
fixing
Mandatory
Payment
Initialization
이동식
##BIE
##정해진
##삽입
##입출력
##FilePut
DCRUM
##commerce
ERR
thisdocument
##CM
runmqdlq
theexecution
##Classes
##Reading
impacting
thelength
##device
ENV
구할
##89
Controlling
##RAC
##IAM
##MySQL
HAS
##9011
##분합
##TPSTART
##Ⓡ
##calc
errno
##FAILURE
##CMN
spooled
structs
TryCatch
MULTI
grantee
oe
Photoshop
STATCHL
실용
##집단
기하
시방서
##bserv
##CSV
sourcing
자리매김
Disable
대규
##해상도
queueing
responsefile
containsthe
물가
usernames
derivative
물건
##표출
부실
생존
Tape
##국외
아예
##Validating
DataInsert
propagating
##노동
매수
uninstaller
Ignore
##IRUGO
발췌
기재사항
##대표자
##Amount
페이스북
REPORT
streamline
총계
##RECORD
JWE
basedon
gathers
emulation
coordinators
feasible
MQXF
##그것
상향
nolonger
theprevious
complies
##ready
disappear
##Architect
##차후
다년간
##호환
MEA
##Scheduler
##Relationship
unrecognized
##해집니다
##Stateless
simulations
Deregister
Candidate
##JAX
##SELECTORS
##버네
##branch
##outbound
Headers
따옴표
Characters
groupchat
##퀘스트
포드
LIB
Recv
PCTFREE
CoS
TPEV
PCT
eceive
additionalinformation
thanthe
concentrate
상관없
UNIT
홍수
명백
정관
##아의
적인
Deployer
restrictive
copybooks
##스캐닝
##share
취해야
##Stopped
별다른
어려워
##건과
인지도
Postcards
legitimate
cleaning
아닌지
forall
TPNOREPLY
출하
Relational
subfolder
##롯데카드
##Merge
고안
KVM
##자기
unencrypted
##DISCARD
Keeping
toyour
tochange
stale
scrolling
labs
##명칭
masks
##JCA
Anylink
##Declare
연합
MQXCLWLN
CNT
##layout
##0200
ProcessName
Sametime
Threaded
FREE
Leveling
StrucId
ARCHIVELOG
areavailable
predictable
resynchronize
##Deletes
##주어진
##여서
##동이
스프레드시트
가하
벤치마크
누가
##product
##Lets
레이
##RESOURCE
##Born
거주
OpenShift
##인도
##selection
##timeInput
##Others
separators
##특례
과목
인벤토리
##생태
##협정
isset
explanations
##Invoking
RETURNS
개로
##Welcome
##저명
##부담금
오히려
원할히
##타부
##캐쉬
##Cube
올려
##경과
queueManagerName
wiring
##FG
##House
Segmentation
organizing
thatcontains
tospecify
unnecessarily
측정치
APPLICID
inadvertently
##주당
deviation
usability
##Image
Scheduled
merges
##주주
evolving
키움증권
havethe
accounted
바닥
지워
##=‘
CLUSNL
Appl
MQSETMP
MDFMT
senders
vim
##CONTROL
phrases
##2130
##CHANGE
OPS
##진료
BPD
keepalive
Xandros
aN
##global
pwd
##WARN
##Coding
##6600
##동양
##JEONSONG
##부장
##LF
암호화
warn
##Determining
##=[
Unitflow
Checks
밀착
##스럽
optimizations
numbering
##NM
폐기물
##코로나
shrink
upstream
VAR
"-
##Cell
faulty
번이
표면
예금
##Signed
##Employee
relevance
setuid
valueof
thesecond
##cult
##Tool
##이해
XAResourceManager
contacted
quotas
MQAXP
##주서
logfile
Throwable
##Engine
confirming
equivalence
Uses
##기말
##컨소시엄
theproject
##시세
imple
AFTER
회귀
##Subscriber
Redbook
애플릿
콜렉션
prompting
00000000
wraps
##argv
##limit
nonnull
wasused
shipment
##BAD
콜백
##ImqMessage
setProperties
afterthe
##수도
##브랜드
##하량
##희망
SSE
##강력
혼동
Latency
Compatibility
strmqbrk
##MQCD
##Minimum
##당신
##_”)
##누출
commandline
tostart
Fully
##Lines
##반시
본점
의류
rack
##주사
Coordination
indices
ASBITSTREAM
REPEAT
##John
의존도
enum
숨겨진
##재등록
##빈도
##편의점
##;)
수석
##포시
analyzer
##경직
법무
Acquisition
##227
activates
violates
stdin
##switch
typedef
DISCONNECT
##setup
upthe
##filter
PDE
anexisting
구인
##WBI
Explanation
##readfile
곧바로
qualities
Parse
##백신
##ASYNC
##지우기
횡적
Borland
##QSG
CommandScope
executeDailyBatch
##IND
NSK
SNAplus
Novell
serviced
테넌트
XMLAttribute
Datatypes
CHLAUTH
gradient
##mqft
##LIVE
MQBag
##MQCA
GIOP
WebSnap
rmid
XMLElementAttrVal
Privacy
##별표
인상
##CVS
느끼
에도
##Small
semaphores
CHL
##공업
빠지
##석의
##Tests
배타
sensitivity
##수치
##만료
지능화
##Prerequisites
단기간
##KMS
MQP
Created
distinguishes
##개편
수법
다각
Scalability
##들인
PASSTHRU
subtle
recall
##Append
트랙
##EXTENSION
##제기
##작의
Supports
픽셀
AMQERR
deactivation
Streaming
Frontend
emails
PLT
##Maps
VMs
##Browser
##ITS
thebusiness
thetransfer
##부내
hierar
dateTimes
contacting
SiteMinder
##Lower
##Kubernetes
HBINT
##':
JMSAdmin
발생량
ApplId
##2059
BZFlag
##sync
groupName
bankapp
REVOKE
##COLUMN
##inbound
Aws
SRT
flush
Insights
##노력
##관리법
##강사
##MHz
근접
anticipate
##해석
##Mode
##인과
다이나믹
##법무부
throughthe
##Package
##하이브리드
##한데
친환경
##Patch
조언
PU
커머스
##제반
##신파
##Administrative
NICE
unitflow
노인
인스
##Cost
##catch
간섭
확실히
계측기
스포츠
WBM
INIT
##gurations
runmqckm
##matching
MsgType
##Subsequently
##QMgrName
##qm
APT
##change
##Thisis
##Sensor
atable
delegates
##MQCNO
prebuilt
삼각형
Cerner
상점
renewal
LIL
uname
##리부
classify
DIMMs
##Completing
##지드
reconnects
##ICMP
definitely
##Coupling
감독자
+=
Partitions
##NLS
SAL
##DestBuf
##JCo
##MQIA
NULLLiteralFill
TAIL
WholesalerA
estart
##ACTIVITY
becausethe
##Archive
##rpm
##conn
odbc
##silent
올릴
롯데
##Together
채운다
ecosystem
##lpp
##의식
##선형
##113
##Filters
IPSec
대사
충북
##보증인
##화살표
도표
##˃
##MSI
##ACF
intervening
##MON
Inherit
Identifies
ampersand
##수직
저감
국립
##2022
미연
HostGroup
iterates
Notepad
##Supports
현저
clipboard
##Transform
HttpSession
PW
다큐
##캐시
브라우징
YYYY
##support
granular
기호가
##DESCRIPTION
ellipsis
지우기
confuse
*#
nobody
미미
##GPP
Char
foryour
pauses
unmanaged
##501
req
##Spring
라면
curly
localized
##Implementation
defaultvalue
##Parse
CONTENT
##URM
로써
##153
batching
Jupyter
sink
거래자
advertise
##Netezza
##She
32767
##SIGNAL
unreliable
DUP
pseudocolumn
OSD
##KIS
##Nameproperty
XMLElementAttrIDVal
##4052
bya
##EAM
임명
특급
##정시
leveraged
CORS
##소셜
##Uninstall
##Sign
softcopy
INDXTYPE
##유지관리
그때
##DLL
##’),
##Occasionally
##입장
직급
Credential
선물
안건
주말
##쿠키
지자
상대편
찾기
##Container
thecomponent
##PCI
InputRoot
ITEM
unaware
divisor
prioritize
excludes
compromised
##Language
음수
인공
신경
##경분
ARS
##EZis
##주차
transmissionqueue
MessageProducer
DEFTYPE
Trailing
##Generates
##BY
##CONV
##증자
employs
followingexample
atleast
ZDC
##코스닥
##가입자
##달성
peers
##LET
##852
dbnode
datawarehouse
##Jun
##NAS
##0101
##Delivery
##DROP
MQCO
emulator
modelling
apt
Acceleration
errormessage
DataSet
Appliances
##Alert
##스크립터
sNotice
PowerPoint
##METHOD
Qt
APDU
##Loaded
associative
SCNotifiable
##erent
Licenser
#</
elvis
oxy
##수취
뜹니다
척도
##svn
runmq
##SCSQPROC
##Join
##Manually
##보험증
바디
##databases
기밀유지
##실명
##ADAPTER
alerting
소분
##+,
##등등
unbounded
##Systems
DataFlowEngine
##비지니스
cust
##bean
잠재력
주행
toconfigure
행과
scratchpad
DOCTYPE
##Boolean
KOA
##140
SNDR
Graphical
##Forrester
돌발
groupings
checker
##Augmenting
##Style
재검사
나타
##MES
중반
행렬
힘든
IPR
disclosed
ofall
anon
Wallet
ignoring
interpreting
##시스템즈
iPaaS
##adm
facets
accessor
##pane
##unique
Implementing
##Color
##MAC
자산관리
파산
thenode
##6000
deallocated
italic
prematurely
##통장
##primary
tbESQL
emit
##RESOLVE
##FOUND
0320
idx
##PAYROLL
##불량
##BWMAgent
Heterogeneous
##CMDSCOPE
알아본다
##➪
WMQFTE
SHOWING
졲재
SPFILE
##clauses
WebtField
##cantly
##however
Designing
알아볼
##이기종
총합
##기사
성향
Eligible
글씨
부탁
##78
dll
##Knowing
##건물
논문
cancels
isspecified
##넷째
mqsi
##Restore
국적
사업체
##멀티미디어
##화일
##BPR
##도출
PLC
2059
##재고
##125
백서
멈추
slides
slashes
##Granting
webserver
Javascript
##이지스
##쉘
##Authority
REAL
BDC
##MST
공연
##동력
##그럼에도
숨길
프리미엄
simpli
isalso
areused
##’).
GERP
repetitive
##model
iKeycmd
connectedto
##OPTS
##encoding
reasonCode
specifics
들어간다
afile
##compress
vocabulary
Compensation
exiting
ATOMIC
##Apple
##_*_
thefunction
##Enabled
SHORT
DAD
올바른지
##QMgr
XHTML
##forget
내비게이션
SCOPY
##issue
destructive
QUERY
stopwatch
magnifying
Investigate
##마을
curses
##sndbuf
MQPutMessageOptions
##tran
##DSYM
##intg
CoClass
##++):
eld
OTSPolicy
esponse
##Tuning
timings
##시정
##결합
예규
##도중
##트럭
이식
마무리
##식품
##spoke
##Split
편의점
##니즘
amqi
Verifying
CSQSNAP
##VAT
Seq
tocommunicate
##QMNAME
만전
##Substitute
##Separate
설계도
everywhere
##4096
신중
##370
건축물
광주
##격차
바람
##청장
아울러
##빌드
acknowledges
##Results
radians
맥락
프라이빗
bwadmin
신품
EAIBK
##ONLY
##Phone
##Concurrent
채무불이행
끼친
자본금
##러시
##Explain
Transmitter
##projects
##ｏ
떠야
실패율
TFT
기금
생년월일
출판
번들
2085
다년
##드롭
달라
Requester
##soap
fd
##인터뷰
##WBE
automating
Gateways
histogram
##Hybrid
footer
noticed
바꿔
내포
installdir
매개체
##팩토리
iscalled
NAMES
##Auth
MAY
listings
benchmark
무한정
dictate
##||
슬롯
##BAG
APPLICATION
timetable
TRDUP
##SAF
GMVER
attackers
MQSERIES
##PostScript
MoviX
##Jabber
'-
##REF
theSYSTEM
STATISTICS
WNDS
RNDS
CompletionCode
##Reseller
##단원
cracker
##BDE
oblem
millisecond
걸릴
움직이
부가가치세
##증표
consolidate
##Market
recompiled
##384
##93
##RQ
태풍
이행함
pops
##권자
시제품
STATE
xsi
logout
국고
민원인
이용이
##ATM
시티
자정
##통한
corrections
outermost
LEAVE
##MOD
번거
##역시
매트릭스
glossary
##Silent
##Copies
unmodified
안함
느슨
BPR
Linking
##FLOW
##공용
##건명
##최적
CloudWatch
##Azure
##매월
##광역
최다
Detection
송부
asystem
SYSPRINT
dispatched
prioritized
aggregations
HTS
froma
Appearance
underlined
##Architecture
##117
노재현
rjaehyun
법무부
부스
##CFS
UEFI
##supply
thecharacter
##sysc
##행동
프로덕션
##872
atomically
inquiring
’).
ROWNUM
dispositions
ImqQueue
대피
Outcome
dp
##저희
##total
##사업장
Distinctions
Mailbox
##휴직
vSwitch
##editor
##렦
iRetCode
MEPIS
PEAR
wholesalers
XSU
alr
CANCEL
인티
##한국어
국외
통로
미칩니다
모임
##스캔
창고
표기법
컨셉
##Unique
테크놀로지
유명
QSYS
##의서
##업명
##서면
가할
##쓰레드
PDFs
toinstall
##modify
prototypes
명목
##specify
Defaults
mqsicreatemsgdefs
##Synthetic
##\<
##module
예보
편익
##보급
NMS
DAT
##마의
나뉠
rid
exited
TRIM
##Transformation
Consulting
tutorials
Synchronize
disallowed
cooling
##BMT
파트너십
이더넷
##주차장
##RFP
subfolders
Scripts
andselect
payloads
exploited
suitably
##COA
##LAB
NoSQL
Scan
##apache
mounts
SSLv
종가
계수
##130
##objects
닫힌
Uniform
Optimizer
##exception
writable
쉼표
##Relational
##False
seq
##───
메지
DataObject
##Thanks
offloaded
ifone
##Thedefault
##원오
##vitria
Anonymous
salaries
##Theapplication
ksh
nondurable
FILERECEIVE
FOUNDATIONS
CONNECTORS
EventOrigin
expenses
##Attempting
장부
##MANAGER
##관이
##분장
사용료
##수당
##380
portals
frustrated
##글꼴
생긴
##NSCP
##라우터
이뤄진
간략히
##checking
탈피
##_.
incur
##BRK
##-<
unqualified
자발
##접근성
지형
직장
##BT
##Converting
##Manipulating
넘어가
presentations
convey
duplicating
##cloud
의약품
##VR
줘야
quantities
##PVU
운반
howto
##exible
threading
##Debugging
HBase
unhealthy
finer
eventName
##분당
주권
harness
##Compiling
흡수
Validator
사각형
턱시도
monochrome
##Publication
SVCTIME
sake
##MATCH
재가동
BOSH
BOM
SDWA
ImqQueueManager
##멤버
인보
viruses
masking
followingtable
MSGDSC
##Disposition
Alphablox
##FALSE
syslogd
DSPMQRTE
비워
##Pr
##INTERNAL
collisions
Emp
JDF
ManufacturerB
ocessing
FASHION
##Manual
불안
SHARE
기준선
##수지
보충
##입찰자
webMethods
##조원
##CTC
QMQMADM
CUSTOMER
Takeover
##으시
##공원
Bluemix
clarify
##기대
철수
notbeen
##자면
##WRITE
plenty
##연락망
과세
지방청
코스
청소년
FFDC
면한다
##MDM
##Implicit
##ENTITY
REFERENCE
해설
바뀝니다
Extensible
##대내외
decoding
##MQM
##일생
##Tracing
정성
##증빙
채팅
중시
##성후
##단속
relying
Directive
specially
isonly
Hostname
activating
Feed
thedocument
Partitioning
interfere
##021
drilldown
##Platforms
bulletin
##Automated
##아규
보통주
##IFM
KRX
reversed
indications
Bulk
RETAIN
##EAIHOME
##Updating
anytime
SoapListen
Requestor
##BD
homogeneous
##GPKI
CSQH
##ACTIVE
ACE
adocument
##Position
##ftp
TUXDIR
##XQuery
subqueries
##InfoSphere
##tx
ORACA
VTAM
GTK
##precision
cancreate
##얼마
equest
topicName
SQLLIB
StatementHandle
JNSServer
havedied
eply
##minute
녹음
역동
##상승
##조기
각서
대리점
등록번호
##library
##단시간
specialists
##CEP
테마
Uninstalling
대분류
증서
migrates
saturn
thereare
hackers
##CERT
clrmqbrk
부트
##deployment
신체
##Major
총칭
자치
##drive
anumber
##FLOAT
##이곳
##fstab
fax
##Performing
##package
##타이핑
##라벨
##PERSISTENT
도킹
mte
끼치
카카오
SITE
양수
##대처
liable
##Upload
##receive
##mq
##Units
##Nonpersistent
Prepared
Hotspot
##must
refined
##commands
Coding
자로
##leading
MITime
##그리
horizontally
테스터
##Atlantic
BUSINESS
팝업창
##게스트
MQCHAR
resend
asubscription
위탁인
WSP
타행
XD
##밀의
SELF
Makefile
##REFERENCES
NOLOGGING
RNPS
WF
##웎
Knoppix
roductPrefix
##WebtBufferException
맀스터에
wildcar
thanone
##Instances
FAST
리뉴
관행
간행물
국세청
##감독원
buying
responsiveness
##except
##Hint
BEFORE
ARLs
##바인딩
마스터플랜
tocomplete
##19991
mqsireadlog
##Copying
##report
##mapping
PAM
##경기도
전처리
MOS
주거
LESS
##yyyy
Generated
stats
##모음
addNode
consoles
##Integrated
##>”
##servlet
besides
##Highlight
제경
##PROC
외화
선적
introductory
##Best
##호우
장벽
theOracle
Limits
thegroup
입주
##동부
역방향
heuristically
PING
##EGIS
번만
##부록
JRules
##Lastly
Opens
EGP
renders
targeting
##Preferences
##functional
호출기
thecolumn
##보내기
AnalysisServer
simulator
##107
*).
##WBIMB
HttpServletRequest
DEAD
미들
프리젠테이션
##알리
하한
분량
##FIU
DefPriority
##INHERIT
Veritas
‘{
미정
VRA
ENNAT
##Specified
IPX
+[
##Vulnerable
##XMIT
TRANSPORT
CARRAY
featur
FILLER
theresult
##CRAB
종전
##사업비
##정량
##관리비
국정원
활발히
##stack
##색인
##Pick
##메트리
##PMS
행복
##프로그래밍
##Added
보험금
방재
##행시
##체감
인명
thisoption
complements
입힌
NAMESPACE
##DATABASE
금요일
cert
##descriptor
##constraint
발생기
##Removes
미충
##’);
surround
소정
유보
틀린
전용선
##부모
##Almost
evenly
invalidates
##colon
##Hash
unzip
일간
originates
##ILinkHome
플레이
##남양주
##함께
필름
현안
내린다
Everyone
MessageBroker
thesession
##Low
##귀하
##Agents
bytecode
balancer
youmight
##Automation
theimplementation
##Sends
##재배정
ContentType
Postaction
##1997
한가
##amount
topological
insuf
##121
##Integrity
OpenAPI
weights
##Positive
LSI
ZONEZERO
EH
BWMSERVICE
##CONNAME
fuzzy
##PROD
##게다가
##Terminal
##identifier
InitialContext
Payload
PMVER
SAMPLE
APPDIR
sysctl
JPA
xs
##&&
Rewrite
pOutputTextSize
##저율
##HOMEDIR
WNPS
qualifies
SEBI
errhp
PREVIOUS
OnePhaseJTAResource
Justification
ocesses
solves
##trip
미수
원한다면
##정정
##인정
QManager
##어떠
svnserve
##축적
Considerations
SHARECNV
집약
ObjDesc
로서
##0002
시사점
XYZ
##감소
중견
##SNS
KICS
acluster
##Proceed
Propagation
ceases
##Entries
CHANGE
##인간
##술의
##210
제언
거두
Flows
isbeing
##PKI
EXISTS
FIN
thank
manageability
pertain
##징후
이해도
직렬
마친
##수표
서고
##013
##Technology
프레
##암호문
theattributes
##either
tosupport
setof
##LONG
IntAttrs
##Turning
SYSIN
restricting
##Metrics
rightmost
Severity
Sampling
TMs
##부산
대체로
할당량
주금
##당분
##Relationships
Floating
##관서
애널리
infor
func
shorthand
resuming
##segment
{}
프레젠테이션
STD
##defines
Cards
adjustments
cord
Loss
LOW
″+″
MQWQR
Locale
##INST
Queries
INDOUBT
##recovery
ApplType
ITCAM
PO
setthe
advantageous
syncpointing
레파
EPS
Chapters
##IPV
EMPLOYEE
##REMON
##Everyplace
theoutput
0210
##기열
nonnumeric
HocIndicator
theLOB
iterators
##Fortify
EMACS
uctions
##커넥션
##XQ
기자재
##학술
동부
"/"
##오늘
OE
'.
##안전망
뉴딜
보여진다
##요구서
##Font
torun
;)
##94
clouds
##임직원
가져옴
트랜스
Fulfillment
Vertical
Specific
synchronizing
BPI
DataDelete
##RPM
##레이아웃
%%
supplemental
##restricted
instantiates
modeler
guideline
마음
##effective
면허
##DMZ
##apply
##HBA
실무자
##택시
##져서
동료
GoInto
tb
가량
##Provider
##KOREA
italics
theselected
##Searching
divides
survives
Practices
posting
screenshots
summed
timeline
##Avg
becreated
##현지
thetype
에코
##Onepass
SORT
JWT
##LED
##백본
##CSS
Interoperability
##RSA
낮출
##비활성
registries
##RAW
logistics
rcvbuf
Answer
classifier
WMC
HL
##정보용
##;<
minOccurs
newsgroup
##fd
CHAP
STEW
MONCHL
buildserver
COTS
wc
sprintf
OPMODE
ExPlex
CipherSuites
REFERENCES
랭귀지
##fastcall
andyou
DATAFILE
##Tables
시책
벌금
##표현식
##인터
침수
문헌
##목차
뚜렷
대조
양은
성숙도
송출
Disks
##DIS
Stores
##Reasons
개척
##mqs
DTT
붙입니다
thorough
추상화
검찰
isprovided
인포메이션
##Applies
popup
월요일
ITSM
##부동산
복귀
친화
betweenthe
묶음
disappears
Automated
##SKIP
##Would
##CLASSPATH
tabbed
##SYSDATE
##Imagine
전장
##국방
인입
##Endpoint
fnd
##네이버
IOT
프로토
pkgadd
##Restricted
accessto
##repudiation
meansthat
##Backing
##Resolving
##Four
#)
##Requires
##CONTINUE
##Filtering
resolutions
TraceTag
##pdf
인터럽트
##MQOD
내수
##columns
theinput
‘-’
oc
debit
GBM
##종속
Consult
##ENVFILE
anylink
##╂
CSQE
##PSID
nonbrowse
##sendbuf
다룹니다
##0620
##=""/>
##선언
flavor
LTSP
ifconfig
thetransmission
생겼
describedin
##도금액
XIDs
TPNOBLOCK
Flashback
thefields
Manufacturers
##WebtServiceException
##="#
##CACHE
과태료
##Round
##주도
테일러
케이
지어
weighted
hotspots
Upgrading
PTFs
outages
ibmwebspheremq
##제어판
##TPS
중도
SOW
쟁점
Temp
DSNs
BROKER
ENCODING
Finished
만든다
thesize
Businessware
CTS
HYBRID
##than
##uuid
tpforward
smoothly
##Companies
developerWorks
resembles
unhandled
##notification
##Scope
##당일
시가
거대
가상현실
##셔서
##127
##009
가전
redeploying
themethod
##180
RQMNAME
##SPX
identically
##dump
charting
##rows
##Actually
pinpoint
formulas
refreshing
misspelled
흑자
환매
ordinal
##범주
postaction
##His
Boundary
여야
RCV
##short
위축
정전
durability
SubIdentity
##listener
##노출
##Near
Backout
hConn
Eligibility
##Success
MREC
diskless
##php
##Wed
##SDL
##목적지
##편철
SLF
PART
linker
ChannelMonitoring
##errorq
##WOLFSSL
##Translate
##dvoid
##">:&
#"
ovided
Reordering
##Procedures
omitting
명백히
##내보내
목표치
고전
##충당
Restrictions
##CUSTOMER
가져왔
##IDS
emulate
##168
DDoS
##윈도
편하
##what
mqsicreateconfigmgr
Resolving
SPARC
##creating
##Multicast
workspaces
UserName
ASF
##상대방
##수행자
thenthe
##스러운
숨긴다
negotiate
##MOM
논현동
질적
##Tomcat
소형
##102
##바코드
##검진
##BP
OCR
통행
##보이
##Fri
##Constructs
EOF
accumulate
##부스
##DISK
shifts
tedious
intentionally
revise
Forbidden
bubble
Overwrite
##Korea
ACTIVE
행은
##142
DUMP
uninitialized
VPC
하둡
##비행
월말
##REGION
telecommunications
내림차순
RNAME
NetFlow
compensating
STGCLASS
##float
##TOKEN
EnvData
Blocks
☞
##PROGRAM
orchestrations
##November
ClearQuest
##QA
##=(
audited
’+’
변환기
##AUDIT
SUBSCRIBE
SAVEPOINT
LocalTransaction
##CWYAP
Abelian
TuxedoServer
geocoding
altogether
demonstrating
contributes
폭주
차기
##migration
##당해
##Tree
##SAN
aspecific
##Fault
##언제
SMIT
##Resubmit
##Settings
청년
##추세
##pattern
Vuser
answering
##사별
##Snapshot
NTFS
reinstalling
조직도
iv
digitally
debugged
INFORMATION
염려
##을지
##ejb
##Man
수출입
재검토
DataUpdate
Airline
leftmost
overloading
roadmap
##ONE
##미완료
잔금
물질
소리
채움
Swap
EOS
실내
NetworkVantage
PPG
##Factor
Delegate
OMB
##visible
##Roll
##failure
SDR
##비트리
##Flags
listof
##//<
##td
youuse
##Implementations
playback
bespecified
interceptor
usedby
##Thrown
healthcare
MQDXP
##FIS
##adlex
preaction
##writefile
PRODUCT
##MAIL
ISA
운전자
substitutes
##router
Fortify
CHLDISP
MQBO
MQIACH
intrinsic
##Front
##verbose
Oracledatabase
acquires
MBCS
교육청
##SORT
##짂
##TNS
populating
Greenplum
##LANGUAGE
communicator
Facade
beforeCompletion
WebtConnectionGroup
##도연
##CLTCN
TSPITR
##DIALOGUE
opriate
갈수록
##}\
잠금장치
학술
##수시
##custom
dd
##운행
##Polling
##자주
##4119
담겨
경찰서
분의
##어린이
##480
Folders
##유가
##Eventually
tunneling
##와서
##일방
압류
워크숍
zeroes
##existent
daylight
stocks
‘/’
rotate
하수급인
unmount
체크포인트
##도착
가결
interactivity
##지분
##차장
##임원
분명히
유포
##cost
##Supply
##005
표의
수정과
inan
##Bold
##납기
Syncpoint
Hconfig
##ADT
Compliance
실효
documenting
ect
shorten
##IIS
##006
webpage
GoSpace
usedin
underscores
defective
##Along
수표
연말
한계점
##ACCESS
##영국
접미사
##Converts
parenthesis
ancestors
##struct
chaining
Pixel
andclick
##STATISTICS
##근본
predetermined
upward
prod
##문제점
ZoneZero
TmaxData
0610
##Modeler
subsections
inactivity
ASC
OpenFlow
hashtable
##Adapters
BOX
##SFG
Wed
LNQN
##아카이브
Flume
##linux
xdm
##기번
Teradata
가비지
CRTMQMQ
NOCOPY
##ename
CipherTextBlock
##lters
AmMessage
Xid
signaling
vNetwork
OCIInitialize
eBook
##ciency
UCP
##020
합작
##소유자
##속의
Scheduling
##드가
Tibco
commitments
##Activate
userids
##Upgrading
##Hcon
##재시
##던지
마을
Developers
##문장
subtrees
##Stops
농도
흥미
Treat
miscellaneous
BID
##VAN
EDIFACT
들어왔
ideally
##Yet
##표지
interruption
parameterized
SUN
Dossier
##자사
한꺼번에
슈퍼마켓
gaps
##세액
노트
타깃
evaluations
thisis
Deletes
##headers
상황판
decoupled
groupname
##Guide
##CLOSE
판촉
Sizing
enrich
RACROUTE
reflection
browses
paused
musthave
악취
##MQENC
고치
##postaction
Diagnostic
##시큐어
retailer
jumper
##OMS
##024
CLASS
airweb
Height
##완화
occured
##Bank
CSQQTRMN
exp
##MIME
ZONE
회차
##2162
Intercommunications
dim
modems
PutApplType
ARRAY
DOP
pic
PlainTextBlock
AggregateRequest
supportcenter
APs
dthome
completioncode
TMF
thedead
##노테이션
ence
efor
requisition
ACCTQ
CustomDatum
toidentify
##nished
thespeci
##으려는
##결의
반올림
MIS
##식성
##발견
copyrighted
##-,
##미달
WebRTC
constitutes
CSQINPX
##수용
##Enabler
##binary
##기술력
CTC
전형
동력
##MSCS
andto
SOAPAsyncRequest
mapper
unsuitable
##REQUIRED
##Cancel
JACC
성별
##installed
CARDINALITY
tangent
##절대
##tbl
##jre
##Executing
grayed
supervisor
보행자
반경
##register
thumbnail
##워터
##Route
지킬
mstr
##자정
Purchase
##DBApply
비인
##대여
Composer
##우트
##Optim
##디버그
##Received
MIL
pertains
ldapmodify
youmay
##4000
##Routines
CharAttrs
##​
DTAX
##Synchronize
Breakdown
thestandard
##CPWR
localization
##structured
##QUIESCING
##Foreign
loyalty
##Hellman
hypertext
##Indeed
deliveries
##Activities
청렴
ld
##ahead
강좌
TOPICSTR
advertises
##office
##느린
##xFF
dev
네이밍
finder
EDT
##ROWS
Usable
익스플로러
EIB
RESETPAGE
MQCBD
MQPD
Stopped
##초생
maxOccurs
##=%
##NVD
displayable
##yyyyMMddHH
##cbl
UNICODE
##comm
gc
##Body
##STANDARD
MQeOutput
##FORTRAN
##Enumerating
pinned
##CHAINED
mailer
removeval
Notifiable
##SAXException
inodes
runmqakm
eceiving
LOGFILE
CONTROLFILE
신분
전이
영수증
##비중
##사본
Visit
##Partner
##Throughput
AMQTCERT
신상
##는데도
추첨
인감
##보험의
##Tracking
REQ
대행자
인해서
theprocedure
##restart
##휴가
##독점
##어음
##™.
denies
exploring
##abc
##DECIMAL
수탁인
##배상금
장표
에스
##수협
##96
ism
FlowOrder
suffixed
##Types
##edge
##insensitive
##우위
BOR
유즈
Rack
##카탈로그
비해서
theassociated
MTU
##Requirements
##캐피털
##Decoding
##양자
audits
deallocate
##Firewall
##PK
KeepAlive
ApplIdentityData
SYNCPOINT
resized
##ExitParms
재판매
성숙
BEP
deliverable
churn
fordetails
ALM
##required
##당기
##바꿈
되돌린다
defer
##window
Notebook
retailers
disruption
##quote
ITSOMart
Specifications
AUTH
##3270
BUFFPOOL
##재처리
CCFAIL
##CANCEL
FreeBSD
Increase
mv
cartridges
##VARCHAR
OTHER
##LIMIT
##padded
Substring
##sap
##Unhandled
ORDSYS
securityfilter
UserTransaction
integratedwith
WBIPostUpgrade
##䍄
chy
MIAS
latches
##정보처
##과시
장기간
JSR
arethe
##스톨
##Duplicate
promotes
줄임
##EDW
virtualized
aclient
##정계
##음에도
##보험법
##attr
mqsireportproperties
##configure
##Observe
##의해
기후
##190
양상
##올해
strengths
MINUTE
##Computer
이거
##230
##plugin
##Menu
##quotes
##relative
##Explorer
tabular
오프셋
##const
##shell
가득
##대해서
##Daemon
회로
##Identifying
##무료
##although
indicateswhether
inaddition
MessageListener
Glossary
reinstated
##\\
INQUIRE
Reduce
Caches
Notifications
consequently
mountpoint
##Selected
##destination
##UNIT
correction
띄워
transactionally
beperformed
##Populate
내놓
BRKR
SUBSTRING
''
##TOP
variance
##transfer
##Stand
스피드
##Trusted
친구
##연합
PDM
##REG
linux
어린이
##FORM
SFG
##0320
brace
CMPCOD
MDCID
이지만
리모
hostvariables
대상지
##PRIVATE
FMT
resourcemanager
UNUSABLE
DOs
AMH
IBMIntegration
SVRNAME
ojspc
OTN
failur
ersion
장과
##TOT
상하
교수
##조절
포스코
##편리
Needs
booking
heartbeating
lightly
nominate
##INI
##대쉬
OpenMCM
아파치
##일지라도
encompasses
가로등
소재지
##악의
aserver
##Explains
tilde
mqsichangeflowstats
EXT
명심
##인명
적발
참가자
tothis
##JMX
##인재
##inch
##mount
breadth
InstallShield
shortest
WPRCSDB
submitter
NTLINAKOR
##recv
이용기
Balanced
##OLTP
클립
플레이스
##Baseline
##795
##hash
ScriptTest
inability
aseparate
blob
onMessage
##종류별
##THREAD
EntityName
에디션
##Token
thelast
summaries
thecall
##Exporting
trimmed
##returns
##factor
reorder
스트리
재질
##우량
##EventBody
오프
사설망
fol
aids
RESULT
##각각
##전시자
VGA
aprogram
##운송
베트남
##Wildcard
MQMI
NVL
##Fact
LBS
ACID
##빌더
feeds
##Middleware
RUP
GTF
SAVE
MQSTS
borrower
##9080
Symantec
##acct
##는다고
VTCAM
Attempted
MDCSI
TriggerMsgPriority
##yyyyMMddHHmm
##청사
cur
KAC
##FDS
FDS
vt
precompile
두께
TPN
##zwSAC
fixpack
##체크인
FOREIGN
##LocalEnvironment
토양
MQQA
##SEGMENTS
tpconnect
KEEPALIVE
removeref
##empSET
willrepresent
##GEOMETRY
##GEOM
PlaceOrderProcess
correlates
congestion
destroys
이동후
판결
ERD
fiss
vtparams
수거
##supported
ALIAS
##unix
##누적
##0800
##axis
##건전
##프린트
##불가항력
둘러싼
발명
관습법
hardcopy
datafrom
modal
ORANGE
Computers
SQLServer
##ARM
##증설
##관세
평소
##secure
진보
MbElement
##Created
SLAs
##mnt
##Overrides
##Predefined
##메인프레임
벤치마킹
hyperlink
##fixed
REP
높임
다운타임
리딩
##FAULT
유스
나이
XE
Disclosing
BYOD
concise
##these
##105
수신기
##INQ
termed
tpsvrinit
이동성
##POLICY
suspicious
tooltip
traps
##document
##activity
RDP
##FW
보여질
##설립
빈번히
고정비
##엔지니어
Generating
##대상지
##structure
ofeach
theentire
messageis
cooperate
standpoint
##MDX
enhancing
##금고
AML
##205
##클립보드
rfc
##SATA
##접근권
##연방
##원화
##Football
NXACOMMON
##LIKE
##SQLException
##SFR
행자부
##CAT
옮겨야
EZisV
Suspend
##STRMQM
##DOCTYPE
##화물
##strcpy
XCube
antenna
##분류표
ciphertext
pads
##Inherit
TriggerType
##Resets
SNI
HEAI
swapped
##관급
##ptr
filetransfer
##Speci
##Syncpoint
AUTHTYPE
##>>~
##jeusadmin
RETURNING
Trash
##거래자
InputParseException
##AmazonS
oblems
##Os
Activate
페이징
##RULE
##CITY
아무것
존중
##다수
동반자
아젠다
EXPORT
##108
##용품
##Timer
demanding
##Range
DMS
##Quick
THIS
##Attempts
ExitUserArea
deliberately
##OLD
curl
##MQCONNX
응한다
aWebSphere
asshown
canspecify
Pooling
mqsilist
인계인수
##지주
##원문
##XSS
스트링
Cartridge
빠져
NULLs
##데드
EVERY
##Infrastructure
##번지
취합니다
WebServer
delegated
시일
Elapsed
접하
기울이
법제
##졲
시나리
다량
##Themessage
inorder
sqlnet
Copying
DefinitionType
ApplName
나눔
틀리
parm
toexecute
Shortcut
##encryption
##Conditions
PreparedStatement
methodologies
Auth
##커맨드
인출
theindex
LET
wires
alarm
##quali
##Machine
##Triggers
adjustment
부산은행
Margin
컬렉터
구조물
##당시
attrs
bx
##외기
평상시
##가져오
##000000
APPEND
DFSMS
RemoteQName
##WORK
eg
선불카드
Unica
덕분
Applicable
Shareplex
LUWID
PROFILE
MDBs
##FILTER
POSPIA
XMLType
FORTRAN
Allowed
##oneagent
##ESXi
messageflows
##dbfile
선취
startDate
endDate
ules
##rofileCredentialsProvider
Mailer
esult
incurred
exploits
thischapter
원만
신청인
MEM
acquisitions
연금
##현존
APIM
##관함
rebooted
exhaustive
##UNLIMITED
ACF
exe
##하루
##Audio
aspart
##수퍼
##coordinated
pasted
mqsiformatlog
언론
##ARS
##하인
##출원
항만
몰리
redeployed
endian
nth
##CELL
categorize
##execution
hangs
##송금
한해서
##조차
##제휴
##책정
##유즈
##차입금
##표현
인다
Adds
구사
##socket
아이폰
청취
전기차
##전망
불명확
##Notify
클레임
welcomes
theattribute
notsupport
anattribute
hasthe
커질
programmed
IGNORE
meantime
##2289
참석자
Locations
suffer
deliverables
thelocation
isexecuted
Nessus
thiscommand
##Strings
frustrating
simplifying
##>-
wherethe
##Establish
pulls
scoped
##믹스
Securities
##환매
MQCFT
예고
##셰이크
기다립니다
WOC
##preaction
useless
notations
inother
thecontrol
##Seq
theMicroStrategy
##HH
Rental
##DML
Upsert
Stub
Padding
LVM
UNC
일요일
##next
조제
SoapCall
##Still
##Hard
##디의
이퀄라이저
ObjectString
RetService
##Views
리터럴
TBR
apostrophes
##*),
mqPutBag
MQCFBS
Returned
ofinformation
##SYM
채울
burn
큽니다
IPsec
MsgDeliverySequence
##동기식
GCC
MONQ
운동
tmconfig
UDL
sar
nonpartitioned
##IDL
##exceptions
OSF
STRMQMDLQ
atomicity
REC
##DEAL
##DONE
스탬프
thelistener
##retryCount
MQDistributionList
FLW
##BFILE
Pollable
##ﬃ
##tgt
eqn
emove
chive
Miniloan
attaches
adjusts
##Restoring
ODM
##8601
달라야
##가령
KDB
##치료
##사인
선박
EUC
우리투자증권
EMB
##프록시
##THE
##제조사
김동욱
squares
##registry
감면
##MSSQL
세종
산불
##cause
accelerator
초월
fingerprint
##owner
##optional
##1414
##Limits
LRECL
##Portions
##범용
학사
요령
생태계
되돌
기조
Imports
beconfigured
##일관
DETACH
##Capturing
##POSITION
밑줄
##Company
##1415
##GAAP
strmqtrc
상회
##ENV
##Presentation
##Clearly
대중교통
##공부
구독자
##Wire
지키
##실증
신분증
토탈
##raw
StreamMessage
isstored
##용지
resynchronized
awaiting
IPPROCS
이노
##Measures
whichyou
CSA
thismessage
aresult
MongoDB
specifythe
##APIs
Weblogic
##Hover
hypothetical
##Pages
Git
csv
##거시
Operators
환불
##Interval
셀프
끊임없이
AgentlessMonitoring
##유일
##relation
emphasize
computations
TextInput
##Parser
##Capacity
##해시
Buffering
##후행
PROGRAM
선발
striping
##TOO
통칭
Slides
##Publishing
##gateway
스케일
ManagedConnectionFactory
받아들인다
##대국민
MQIT
BODY
Transparent
Width
Pane
셧다운
##certificate
##Combinations
100000
OTA
Instant
##SOCKET
##presentation
SCO
Otherwise
NVARCHAR
ow
tpgetrply
LUN
##HTYPE
downsampled
##DBFILE
dbExpress
Clip
LoggingFacility
geom
##Prohibit
ParmBuffer
eam
##BIZ
##주변
조사표
FACT
##대구
##빠르
##국유재산
ESC
##+"
UPPER
등기
|-
detached
트레이
##UnitFlow
entirety
##Databases
##>,<
reinstate
BIPGEN
STDOUT
permissible
reloaded
##였으므로
##subject
알아내
재무회계
##Raw
무작위
##2023
##Tagged
multiplication
truncates
COS
+,
##Cast
견해
ROOT
##Connectivity
″″
exclusion
##maintenance
표로
자격증
된다고
##바이너리
Expiration
##체재
군사
anticipated
##Template
necessity
margins
오토
##예술
혼잡
##768
미납
OutBound
##REPL
Completed
decompilation
##White
thesecurity
usesthe
##jms
##BServ
intercommunication
ResolvedQMgrName
Ordering
##유효성
##PurePaths
##collector
isenabled
notavailable
bechanged
annotated
thumb
Servlets
roundtrips
unloaded
##인천
##드래그
##제원
backslashes
objectdefinition
MQCACF
극히
##공항
##Cursor
##Replication
PARENT
Applying
minimized
IDP
협의회
협동
##네이션
##티지
ubbconfig
ZLIB
통합체
##TBL
stuff
CSQI
xxxx
Facilities
MQXWAIT
##Unknown
Interactions
지하수
##사설
SNC
CONFIG
##Dir
##MAINT
LUs
Versions
drawbacks
##IDE
tlisten
WSL
CLEAR
사료
Namelist
INDICATOR
schar
부울
##timeOptimizedFlow
ACORD
VARYING
##INTO
XAException
reportmessage
codeMQRC
STRUCT
SHUTDOWN
JML
wasa
emoved
##Befor
##SYSSTAT
checkpointing
##grep
##MIB
##마킹
##PROPERTIES
##자전거
워크플로
masked
VD
pageset
tolerate
담합
경찰관
youwill
bitmaps
##MQADMIN
떄문에
쌓인
##trusted
Assume
mqsicreateusernameserver
Consider
DYNAMIC
mkdir
Hide
adopting
concatenating
sooner
##생략
havea
##비고
indentation
NameValue
CONSTANT
wrappers
wholesale
##장벽
Auditing
nodeagent
##약어
공부
##mentation
예비품
다이얼
화상
##커뮤니티
##신고자
DETAIL
선량
잠정
##불능
##MQMessage
disassembly
Regulations
thereis
theunderlying
octet
safer
aname
##Risk
클린
FASTPATH
syncpoints
CentOS
##Being
grace
theparameter
ith
somehow
Linked
aredescribed
Constants
권역
소화
##싱하
##연수원
smarter
##declaration
바꿈
RTM
semicolons
curves
presses
internationalization
##unsigned
##지나
##연산자
##PROCEDURE
anetwork
greaterthan
Decryption
##™,
##심볼
##교류
Soap
##RMI
forz
Requested
‘??
QueueConnectionFactory
##DYNAMIC
콘크리트
##XSL
subscriptionsthat
##웁
MDREP
##2136
areincluded
hasn
Identi
##핛
TCS
##②)
theresource
polled
##AWDS
##SPIRIT
UTL
MQGetMessageOptions
MQCBC
##TmaxSoft
ImqMessage
tprecv
##Rem
manifold
맀스터
PropagationContext
ogramming
beavailable
‘.
##휴사
##KPI
##Debug
##wrapper
산업재
커스트
차세
##Grouping
##편집기
##테크놀로지
PutMsgOpts
기업인
##LINUX
##캐피탈
Coordinated
##KOA
출범
날씨
Triggering
##Verification
##더불
SOAPRequest
regenerate
Subsystem
MAIN
Preference
##Generating
##Relative
조화
기상청
##정보망
미션
##가시
##핑이
##패드
itcan
isno
MSGID
##Namespaces
substantially
Clone
yours
필한
단편
##Extend
##2048
##Descriptions
hostName
prototyping
연중
Pair
##낙찰자
##제고
##충분
공존
법제도
제안자
시건장치
발행일
##선물
모빌리티
##Social
남김
결여
산업용
logLevel
thefull
##INVALID
##규약
##아키
SSPI
repaired
regards
LSN
해싱
Analyzing
purging
##accept
Fonts
##Segment
peek
thecause
Converter
개혁
wasted
reviewers
##먼지
##성향
상법
##단과
##FETCH
##보고회
ratherthan
theexisting
##selected
alphabetically
Streams
Tx
##슬래시
##그러므로
conceptually
RIGHT
##Definition
Enqueue
##syslog
##SUBSCRIPTION
##Book
보냈
tmp
rcp
Failback
')
Subtotals
위안
##EMS
##────
Scanner
authoritative
ECI
##WMLScript
FACILITY
accommodated
IndexType
##PARTITION
퍼센트
##stdout
println
MDVER
replying
Scaling
connectionless
GRUB
direc
##TUXDIR
MERGE
inet
단축키
mqsicompcif
Retain
Nonce
##ushed
qName
누르기
Noti
##METADATA
Paradox
##scmp
INN
elemetry
iDisk
##SERVERS
adversely
정인영
##133
한한다
징계
SHELL
##준기
창작
경상
##4100
대우
##현실
평점
Overhead
readiness
##established
##Alternative
해줌
##MMS
##Mixed
##스케줄링
##ALREADY
##CONNECTED
동원
⑥
일대
##수료
baselines
시안
공원
##USR
URM
##준공
youcannot
##Previously
##Hot
##윤리
Repositories
hourly
##Starts
온다
##특약
욕구
##특화
안전사고
수년
##Aggregation
EXTRACT
뺍니다
Breakpoints
instantly
##Kernel
tm
ojdbc
Manually
Toolbar
동반
##외부망
##usage
가져간다
위급
불공정
<-
##위수
AVI
##LINKtoLINK
##135
##namespace
theitem
notifying
##Clusters
Encina
##Taking
##National
libmqm
SelectorCount
Keyword
​
때로
isconnected
SharePoint
andthat
##Synchronization
modifiers
##Hold
midnight
Idle
overthe
##Sep
거쳐서
의결권
Moves
##UserMonitoring
PROG
##USERS
Preaction
FILESEND
endof
##Anything
syntactically
designates
ofdata
surrogate
돌아갑니다
NRT
##Segmentation
Actual
##processor
##Atomic
증가세
converse
##Symptom
##WebDB
##PARAM
INSTALL
mediated
mediate
pluggable
##적재
은평구
PRIORITY
DDnames
##UNDER
tremendous
FDL
##yyyyMMdd
##nhis
Trailer
##Matches
Arrays
##MQINQ
##TITLE
##TUXEDO
WSH
TLI
원부
Resolve
신고자
befound
##Elevate
표시기
##DevOps
VTPARAMS
##;,
##Conversation
comm
##ifo
unitof
ServerSession
##releases
TPNOTIME
tpsend
##Liststhe
MCNotifiable
deploymentenvironment
contactyour
TreeDirection
GLACIER
ITSOPModule
위약금
##수주
오용
맞춰야
끊어졌
IMPORT
경미
##해져
판독
##로그아웃
##증기관
reassembled
##Toolkit
##Personal
docker
##질서
Editing
##프리
##ABC
크롬
##MFT
추경
toremove
변제
warns
##배상액
자연어
##매년
##펀드
##포메이션
##Assured
merchantability
##Finding
contentsof
##CLNTCONN
##SQLCODE
##판의
##EU
##Adjust
Drivers
##tomcat
##~)
licensors
##진척
##정성
사적
##문구
##Government
Licenses
##3650
##050
스튜디오
##미터
##147
채무자
whereby
##CREATION
넘어갈
thesample
##before
thepackage
toset
##Delimiter
##chanserv
ECC
reflecting
##ExitContext
파이프
‘_’
충격
##external
evolves
cheap
changethe
##REALTIME
APK
ts
thisexample
JS
eases
##keys
Exports
versatile
rewriting
##secret
##Installer
입법
##SNDR
repetition
MQRP
vertically
매달
thepower
PXE
recycle
투자액
선호도
##이론
##라이프
교육장
##MpowerEZis
##tables
CATALOG
##Publishers
multilevel
##Blank
NAMELIST
디테
replied
처리율
##240
##BRIDGE
##COD
MQCRTMH
엑시트
Targets
GMLOGO
SHOULD
##Subtype
DCM
##capture
arbitrarily
tmloadcf
공람
##checkbox
##스팸
byteArray
CosTransactions
##Signaling
SubscriptionsMetricof
deliveredcontent
afterCompletion
SOLARIS
Owned
OOA
activequeue
soapUI
+\
##orgs
esults
ratios
##icts
typesof
걸쳐서
##AAA
##8967
bluspac
내려가
아동
방치
만의
창립
디렉터
##SHARE
##designed
##xsd
##군데
outliers
사이징
##Durable
Inline
##edited
##Member
authenticity
##Linear
OCX
Zip
##남용
트랜드
승계
##choice
부주의
누릴
노후화
##MQParms
##간인
##인계인수
johan
##명만
##지침서
식물
세무
이질
승훈
shownin
JPD
correcting
quantified
subtraction
Addresses
subtracting
##PROG
##대칭
Transition
##대사
##=!
##19116
의문
navigational
##Passing
ambiguity
##억불
연구실
화학
미세
MDS
##키워드
##가용
왜곡
뒷부분
비밀문서
##iOS
합동
신흥
##제조업
##에이
SAFE
misuse
##세탁
inspecting
DIT
~/
selectthe
nameand
redirecting
심지어
##구독
visualizes
enumerated
andother
##Sum
##Hello
##202
##지일
##KISA
uniformly
afterward
invariant
##Analytics
##DSN
Previous
##Catch
revenues
removable
모의
광고주
불허
dltmqbrk
CONMANAGER
abetis
decoupling
poison
MNOs
nonshared
CharAttrLength
##SUSPEND
보행
신상품
##안의
##가버
메인타이틀
##메인타이틀
##나중
##본제
oi
##디언
NCRs
판매자
approver
##FASTPATH
SQLCHECK
nodename
CVAM
##*-
작전
##PRE
##Asia
memo
**/
CMAPPER
##ISMP
##ALTERATION
downsampling
##SECURING
acquiring
thebuffer
##디맨드
파스
##합리
RUNNER
##DTD
##출자
advise
##Immediately
uninstalls
##0100
DER
queueManager
##891
녹취
##json
##행상
올라온
본조
Bypass
쓰레
##실내
작년
JREs
isignored
##체로
##지와
Notices
confident
3600
##xxxx
쓴다
##건당
##기상청
윈도우즈
택시
아우르
수업
mitigate
tohave
##Scale
MOD
##BIT
##별로
standardize
Relay
##VLDB
##xr
상생
관계없
ellipses
Toolbox
CloudScape
##Templates
##Knowledge
CBO
거친다
toolbars
hyperlinks
##수송
##섹션
##Measure
docu
##EVNT
##구시
딜리버리
Hibernate
##못하
toprocess
위해선
부른다
Attached
서드
오퍼레이터
BytesMessage
##elements
Manger
##Instrumentation
achieves
notions
Licensing
##ENABLE
Splitting
Hotspots
Percentile
##201
Favorites
standardization
quarterly
##가로
##161
##시큐리티
##터리
toimplement
##Samples
##Callback
NOCACHE
##조인
##미션
archival
##118
suspends
unordered
##DataSource
##Redeploy
Performer
오른
',
##demo
subtab
PUSH
##선거
##Bindings
##>_
ABETKT
bxets
BXETS
##공격자
산돌
##Sharing
Ilink
RANGE
COPYPAGE
mqBagToBuffer
##TPINIT
##실질
SERVERS
ResolvedQName
EST
RPMs
compressing
##심의회
Verified
산단
THAN
##PENDING
Precompilers
마샬
RFHUtil
##ADO
##TRANSFER
Privilege
부동
remoteFileName
"\
SYSTEMiER
OpenOptions
##;/*
TPSIGRSTRT
타이머
metacharacters
vsftpd
##CWYEB
downgrading
datadictionary
tosend
spawn
##스택
위조
수월
suspending
DBRMs
ENDRBA
TARGQ
MQCHLLIB
##안문
##GLOBAL
##명확
공란
일일이
##나가
코그
##030
OpenStack
##포럼
열쇠
##벤트
재량
TPNAME
applicationprograms
##Communications
TAM
adequately
unambiguously
Pending
Disabled
##1996
UserNameServer
##groups
##permission
##전형
시행착오
편이
unnamed
##00000
적색
##Thin
휴가
##focused
startServer
bpe
연혁
##section
코팅
##저널
##WAL
##물보
##Meta
##양호
mayhave
교통사고
##양성
##layer
##Dashboards
FailOver
##미만
모아서
##데스크톱
Triggers
##Thevalue
ObjectMessage
thenames
##할수록
스틸
##points
##Queries
nnn
색깔
msgtype
##신후
CLOPT
splittings
DLLs
##Permissions
aresponse
##Bottom
##Aggregate
onload
unreachable
Launcher
##Packages
plugged
complexities
branching
##\)
##로고
우대
피크
thedefinition
errormessages
IPPR
건너
##Uniform
aset
broadband
##Named
##롤백
##막대
##좌표
배율
##RPA
##라서
CTI
spam
##203
cancellation
mightbe
toindicate
##BR
Outputs
##해진다
##전선
REMOVE
##NameValueString
MiddleWare
MQWCR
##인치
##훼손
abvan
ABVAN
rebuilding
mqBufferToBag
BackoutCount
ConnectionConsumers
AO
BFS
##":"
##LINK
더미
##모습
mgr
ECHO
resubmitted
Able
아규
##Supplied
##Causes
이동형
MTEEN
CONTINUE
##'><
불입액
Webservices
ImqBinary
Printer
SAPCall
##Manufacturer
ManufacturerC
hostAddr
artboard
xscmd
ofOCIEnvCreate
Fetchmail
oot
disconnectable
waited
##Telnet
납세
무선랜
원재료
##프라스
##Composite
선보이
##Origin
벗어난
##화시
##노스
산업단지
출입증
두지
##행방
Snap
logfiles
thepassword
출입국
Fiber
##파견
##Username
##Anyone
CAs
##Securing
##GRP
##­
명예
에듀
Robust
fractions
navigates
##식별자
##변형
##스크롤
##premises
departmental
reinstallation
approvals
병목현상
##connector
SFA
##Interactive
##RECV
##선진
##550
decreasing
IntelligenceServer
##PMO
일목요연
##의도
##COST
##영시
##native
습도
여행
##행보
emphasized
영리
##sessions
valueis
accessthe
jobsthat
Exits
thestring
##스크린
분포도
##'),
##Matching
##Need
Portlet
##_<
negatively
##middle
togenerate
##Did
toother
##Flash
Timeline
theresults
Http
Cookie
##Via
##산업단지
##OFFSET
##"></
possess
toolbox
Filename
구직
APPL
thedocumentation
줄어듭니다
개소
coherent
##cess
Percent
depths
DOC
시스
Diffie
학계
##Changed
##ROUTE
##Indoubt
원화
##2035
##Studio
삼성전기
어려웠
##"[
##STARTSEQ
Storing
##출하
##CMD
enabler
regenerated
Resolved
##CSQJ
reopening
##Combining
머지
lsService
achannel
synchronizations
##loading
##restore
마법
구함
WTLS
interfaceId
그릴
pseudoconversation
ApplicationVantage
##ModelAttribute
NoticeVO
아티
eMoviX
TIFF
Bookmarks
sshd
tpbegin
코스콤
##기록원
multiuser
##overwrite
PlainTextSize
InitialVector
##ITSO
EDU
ifid
theMQGMO
MsgToken
MCM
##지휘
helpers
PEAI
JNSLocal
pins
NOARCHIVELOG
##warning
##132
##번하
합계액
매각
##Live
NCR
##수작업
LEFT
##106
themigration
##타행
benchmarks
##visual
##ProdData
ISC
##Firefox
OLD
미터
##AES
말소
알린다
##shows
Tips
portnumber
taskbar
##unless
##Considering
respects
##Characters
##save
undeploy
##한법
##관세청
임상
##키보드
Backbone
##Folder
##ROW
navigated
##Assigning
##Comparing
cockpit
##손상
##Images
##license
민형사
spends
##ZETA
##Including
##달력
##DV
잘림
##Same
##사업단
##LAN
##오토
##프랑스
나의
##쇼핑
북미
##지출
감정
##RMS
탄소
서적
모를
주시
전산망
dbms
Bootstrap
storedin
##VIP
우량
bookings
Guidelines
Hints
dltmqm
remembers
##DLQ
##pw
##신일
##TimeOut
##resolution
createa
aging
exclamation
theexception
youspecify
isgenerated
contributor
Indicators
thatwere
##504
##Monitors
weaknesses
conveniently
flaw
anexternal
dictated
브로드
##StrucLength
ebMS
##tems
nevertheless
substates
compo
oper
substituting
cre
냉각
##CWF
##머리
Algorithm
##주최자
앞선
json
wouldn
recompiling
SHM
##Pressing
##전년
특별법
SSI
’)
SecurityExit
degrade
Salary
##internet
escalationReceiver
Appointment
##UMS
IntAttrCount
Resume
거나
##MEMORY
CPS
##esb
심의회
Triggered
##XCube
##>),
##Mapper
BSC
##empno
nonthreaded
신문
반복부
##재분
Tablespaces
##0008
##kdb
##datalen
##inittab
MQMNAME
##SCHEMA
JMSMQTransform
0800
dblink
filespace
adeployment
##BFGCL
narrower
rolledback
IWA
##표상
IUT
##기계실
##PROPERTY
resourcemanagers
DSECT
selectorwith
clearingthe
ently
STATQ
IUnknown
Finit
Keyref
aud
DLM
##high
##종이
##큐브
프린트
동급
EDA
##시정지
##Coexistence
##❷
HWP
Emitter
비상시
칭함
넘긴
##MEA
그치
일과
지켜야
unsure
asymmetric
intercepted
SDSF
KEEP
내로
##collection
##증기
##타당
LastName
scalars
##live
계리
recreating
시운전
향응
예정일
##<=
##recommends
##unknown
8080
furnished
CATALINA
##지령
들이
##메신저
##습의
스위칭
적격성
##Deep
##비대
##Commerce
취향
비행
DAS
##FAX
전항
##예정일
##Ethernet
일으킬
##카운트
VALIDATE
##가망
##="{
RDN
acl
bethe
##가중치
##MQZ
##Listeners
unprocessed
pReason
lasts
##Paste
usethis
Incidents
parallelized
thecontext
wascreated
recursion
##Encryption
Picker
##Collection
samename
##Inserts
notexist
anappropriate
adheres
sentences
Footer
공법
##광주
Concurrency
Proframe
Exists
휴지
##㎡
isdescribed
ellipse
modularity
proportional
DataTracker
Qualification
##Potential
소음
##HOS
드롭박스
expander
beable
미디
콜론
##INTERFACE
수출액
##CUST
PSMODE
##Expiry
QType
##Occurs
QMID
InhibitPut
REGION
##De
##이즈
Directly
facilitating
ResourceException
DefXmitQName
##RemoteQMgrName
##따옴표
조흥
##items
holidays
thispublication
Approve
SERVICES
mailboxes
SELS
CCOK
ODON
Billing
INCLUDING
Tcl
##메리
##ProcessFinish
천이
transportable
##Separation
RPCs
JAXB
Unavailable
IOS
WebtBuffer
TPCOMMIT
precompilation
Params
Precision
thesesystems
adjuster
##cBfh
스켈레톤
dpt
##"..
##LOBs
Inclusive
##===
Swatches
strmqikm
stoplist
equests
Explor
waittime
마진
##체크아웃
구한다
외국어
##Know
시방
재기
preserving
wellas
CSQBRSTB
5724
MIGRATE
##3215
COMPUTER
거짓
##Associate
anomalies
##DCE
thelist
##contrast
USERNAME
theformat
ofthose
genuine
##Attach
Depending
##Optimizing
##stage
##Parent
mqsichangetrace
##Issuing
##Licensees
##드론
##"(
ArrayList
##노후
경진
원의
##학생
anexample
encompass
##parser
STORE
HOUR
##Whereas
##NXA
tps
Trader
차액
##HR
geographies
##232
Recovering
들어간
messageId
##외국
Browsing
Navigate
##Editor
##managers
##특이
##CNF
##CLP
##주정차
##초안
아날로그
MacOS
BigData
삼성카드
##해진
비추
SEI
##비전
nowait
RTYTURNCNT
##SSH
이클립스
주최
DOD
##Dynamically
TopicConnection
##Floating
thisproperty
dormant
Recognition
스킬
마쳤
ISV
TPSVCINFO
독특
invest
Queued
##PID
Timers
theprocessing
percentile
tester
##Whenyou
Possible
##Transferring
VNC
##HOMEDRIVE
esb
##실에
슈퍼
인원수
스마트카드
preface
Isolation
보냄
봅시다
stereotypes
##Lookup
swimlane
theright
onlythe
INTF
infrequently
##외견
##하이퍼
##DOWN
거래제
옮긴다
counterpart
TKSERP
##HELCHS
들인
COMMITTED
장려
밝혀
##Autonomous
NBP
*)&
##Grid
##NetBackup
##USA
##Tells
rearrange
choreography
##Reilly
##Essentially
##ROWID
##Pay
Equal
comp
quoting
PRIOR
MQCFGR
MQCTLO
keystrokes
축약
partnering
##WebtoB
##April
문과
GMO
압력
md
COMPATIBLE
Mandrake
##development
lp
##HTTPThreadGroup
LMID
##일자리
##미결제
##proframe
##내부망
gid
Clipboard
hostvariable
MQeFields
Guardium
##decision
myfile
설계사
forprocessing
sndbuf
##POP
##="[
XEUS
GATE
강동현
Lob
SQLData
StatusInfo
SignalSets
inalphabetic
DMPMQLOG
ITSOGood
clipping
processorsonline
keywor
wizar
SUBSTORE
reopened
inone
##제주
##1330
##기능사
철거
청소
CMMI
도용
prefixing
면담
functionalities
QMGRNAME
cleans
##PLAN
NSCP
MODBC
##피그
##수에
가처분
##단축
MQclient
##SupportPacs
##ECM
WKSTN
unconnected
Excluded
##Frame
##물자
##International
학위
##Ant
theshared
##폐사
notarget
##Whatever
EXP
##%/
##컴파일러
##성격
shaded
해산
##EIMS
챠트
##Selection
##적합
힘입
Analysts
상정
##Threshold
##115
##Screen
##SCC
confgured
adaptive
##시군
##완료시
방금
혁명
추론
알릴
suppliedwith
외래
철강
Terminate
satisfactory
MQZID
##EAIBK
insignificant
thedeployment
##Bytes
##Entering
fileName
versionof
##Internally
##Warehouse
##capable
deadlocks
alocal
PDUs
##Logger
continuity
Describe
용인
귀중
theintegration
modelled
whetherthe
##신청인
##Care
DLP
casual
##Abstract
rational
##Keywords
transmitters
consolidations
uncheck
##휴대용
##PoC
테이터
logistic
scatter
downward
cage
preset
봉함
부작용
대응력
Adpater
임치물
CLWLUSEQ
DefPersistence
##핸들러
ConnectorException
##PB
##ResultSet
##Traditionally
##TEMPLATE
CSQCAPX
MaxQDepth
PutMsgRecFields
##DAS
##포크
맞춰서
datastores
##TABLES
QMQMSAMP
fileset
##netstat
##IVP
elegant
##수년
Coverage
##DUT
##000002
precompiled
##CRNGT
##arguments
##SCHEM
NCLOBs
Dimensions
##"\
##johan
VMkernel
##욲
##Listsall
##튺
flowto
Orientation
##마명
##hostPort
’-’
Codexa
theamount
Backups
##남부
##대하
##032
##전수
##정액
소모품
##다이어그램
holistic
prone
##integrated
thecustomer
suppresses
SRRBACK
STARTRBA
##ConnectionFactory
amend
배포판
따를
##자일
QMName
연계성
##SUN
##적격
늘어날
폭동
##천재지변
Cobol
##USERNAME
tprelay
authentic
decrypting
##Deciding
##COMP
네덜란드
결코
##여성
도약
자연재해
2023
찾아볼
Hypervisor
TSM
일마
##인상
COMPUTE
modifiable
XMI
uncommon
##THIN
counterparts
XXXXX
##Tutorial
##Goal
성분
spare
근무자
##금일
##RELEASE
불용
##법인세
##유닉스
##제재
##가자
숙련
Requires
##로우
세제
사소
##시뮬레이터
FAIL
##상시
holders
##유량
itto
asan
oneor
alist
##cf
##문화재
트위터
CLWL
RETRYINT
MQS
reboots
spreadsheets
으로부터
OnLine
appreciate
##contact
isrecommended
##104
thereason
arequest
untrusted
multidimensional
inbox
badges
##Keeping
multitude
##주선
##450
PRM
mutex
악영향
##baseref
tricky
mutable
supersedes
collaborations
inception
elaboration
##답변
##MACHINE
##수배
##즐겨찾기
##도표
미결제
##FIFO
##수렴
대답
##기업인
서지
##수정과
VITRIA
##Match
airgwsvr
Simulator
##CCI
MatchOptions
MQIASY
##플레인
##REPOSITORY
VUE
dealer
Emptoris
ROUTING
리허설
XMS
##LOAD
msgID
##daemon
##Divide
##Handles
Conditional
##Mid
CSECT
headline
paradigms
##orders
Approved
RG
TPACALL
PCB
열릴
LANs
INITRANS
RESOURCE
ANGCOL
MCAUserIdentifier
취해
##돋보기
DDS
##Jan
ORG
OCCURS
lengthof
tbl
MessageId
##ImqQueue
##Fails
ROWIDs
BaggageServiceProxy
executionswaiting
Hmsg
##ALLOBJ
##Cr
LRS
EtherNet
HTH
CloudTrail
oratext
''{
interconnect
##driver
찬성
게을리
InBound
엄격히
##연구비
##부대
abusiness
돌려주
orphan
##증대
##5782
##검색어
##https
##exec
ROLAP
thetwo
##Thismeans
##Postcard
thisqueue
ispossible
##인수인계
##당업
tampering
interrogate
닷넷
##actions
Proof
PASS
##ODS
##패널
WARRANTIES
##Minor
이율
##개혁
SCAN
##토의
Basics
SALE
전자파
역순
##Cut
GUIs
##nodes
newest
엘지
##CCC
통용
##Beyond
##SVN
##shutdown
이종
최첨단
forwhich
##인해
느낌
음원
걸림돌
지방세
##디스플레이
떨어질
LS
Redwood
Directories
theform
beforethe
##rmation
onthis
Dispatcher
Xpath
##ORB
##endpoint
forgotten
##tools
narrowing
##EXPIRATION
MQZAS
소폭
중동
##Stack
##NIX
alsobe
INITPARM
##USERID
##Alternately
agiven
skeletons
callers
##CLR
조세
Choosing
generically
canaccess
##ALIAS
주류
discrepancies
Categories
##browse
Seconds
##DUMP
##hours
디스
BPMS
IdP
##ALM
##NON
OUTER
이수
stepping
jumps
##386
##상공
99999999
블레이드
ABGWSVR
연결선
engagements
##Executes
ⓒ
Manipulation
전월
##DBCS
ResponseRecOffset
##sequence
##파라
Restoring
cumbersome
##파싱
unprotected
##COLUMNS
mandated
액셀러레이터
##레거시
SSM
##Hey
애드온
##udp
scrollable
##프로파일
조작자
##PRIVILEGES
bool
subclassing
Iterator
TMM
인스턴트
##COMM
Dequeue
##남양주시
##Leveling
Incoming
thetablespace
##typedef
CharacterSet
underwriting
varrays
##dept
IOD
TPBLOCK
**)&
##Callbacks
##UPDATED
wasissued
thetechniques
IBMMQ
##HDS
##ImqItem
PDFMaker
incr
ovide
5274
noticeable
##Redo
thenormal
무효화
위촉
징역
##MY
##기준서
저조
##참석자
visitor
outputq
전염병
blueprint
##Notethat
venus
##캡쳐
점선
##여의
Optimizing
Listeners
##>_<
##alive
##때로
들인다
당하
성적
WITHOUT
##대분류
배너
##의약품
##2024
specifiedin
Starts
theversion
감동
inexpensive
universally
##국민은행
‘[
비대칭
optimally
##Traditional
maturity
할지라도
##®)
##NICE
##청자와
##안보
##after
viewable
Successful
##VAR
##Xmx
##청기
채로
모바
SANTA
개개
##비실
##ISSUE
##전표
##Modern
pursuant
##안심
##트시
왓슨
fles
frequencies
##핀테크
자제
원에
양수인
합치
##수명
##가정
양자암호
띄어쓰기
Organized
Keyboard
anindividual
aproblem
##전행
##MQAI
##7472
Participant
MQAXC
토글
applicationserver
##Themaximum
gzip
##HDFS
scanner
synchronizes
obey
erased
inspected
thecontent
##Question
toread
yourown
아파트
##131
PUB
순이익
##으실
장중
티켓
안보
Performs
ODK
anarray
##Storing
datastructure
XMLdocument
useto
imperative
MQCACH
소중
오버로드
##SAMPLE
표적
##PREPARE
##SUM
ink
stacking
##Collaboration
meaningless
convex
AUTHORIZATION
leap
RIP
##*(
##mod
Recommendation
##캠페인
tuxedo
스텝
DID
속보
DUAL
##inhibited
QSTATUS
##Called
##국정
올라가
##사용법
FW
##QMQM
IRC
ResponseRecPtr
양행
똑같
xsl
##858
Branches
##Mount
Collab
BFA
지로
##EXPRESSION
회복세
Attempt
BatchAgent
skipping
별송
subordinates
Mins
suffice
##learning
replacements
areusing
presumed
##cv
fn
windowing
##-*
SCADAOutput
부등호
pruning
Sycros
##Members
##TMAXOUTADT
OpenKit
##ARG
Booking
PMON
Bookings
##ESX
JMSBytesMessage
qmanagername
MYFORMAT
##WebAdmin
SPACES
##FD
IntegrationServerMain
BipSampPluginParser
OnClick
##WebSnap
internetwork
박상호
sqlj
swatch
nawk
keyName
ChannelStatistics
Stunnel
ovides
eturned
INST
INSTANCE
##failed
50000
조례
##ㆍ삭제
건너뛰
##사무소
임차
##accessible
Firmware
dependant
reo
##정보주
##userset
트윈
일지
##로드맵
##Designing
DBADM
CDE
##MQInput
Instrumentation
##로딩
##귀사
##역사
수위
관건
##보내
전자책
##충족
CLNTWGHT
##Price
Notation
에만
fragmented
##have
Starter
packagename
##효로
respondents
##Probe
##방카
나눠
##264
##040
##Jenkins
##소인
##mstr
##적극
##031
Redis
##기인
##을까요
계산서
##행자부
##청건
주위
##위험관리
PLM
QueueReceiver
acall
insure
thequery
thisvalue
theproperties
##foo
##상황판
클리어
QUIESCE
##SUPPRESS
attaching
ZZ
wanting
JMeter
collectors
isautomatically
##>:<
isperformed
##Production
todefine
##Roles
applicationthat
Colors
foruse
##Placing
독창
##릭스
PurchaseOrder
##MULTIPLE
mqCreateBag
인라인
cli
constrains
##Privileges
HANDLER
IDG
동의서
##CIF
총합계
jumpers
MOU
전과
달려
위함입니다
개론
##보험금
##trans
FiSS
명부
축소판
##Interoperability
ourselves
##HOSTNAME
전량
##IEEE
##CSQU
AVAILABLE
FRR
##BIG
##LOGIN
Buffers
isselected
youcreate
Equipment
근처
##검찰
##reject
Replacing
##PV
##NRM
##entity
##wps
##swesbpa
##customer
MDOFF
AMQSAMP
##upgrade
##위임
wasnot
슬래시
PDP
COLUMNS
##sprintf
보낼지
JavaEE
AmReceiver
MQProcess
hostnames
##brmq
CHUNK
##WebtTXException
송민섭
김상기
##Illustrator
testfile
eleases
oduction
##스피어
내려받기
의장
##신용정보
따라가
##ILinkServer
ILinkQManager
Ahead
##POC
한자
노무
##계표
##DL
##SAM
##수산
construed
##Overall
BizTalk
##부득이
slip
##Coherence
##효력
Altibase
항온
LABEL
행태
Standalone
##administrative
돌려
##홍수
accidental
##>/<
ASE
mqsideploy
##MQSI
chars
도메
##영의
##1001
고부
##정밀
처방
애자일
GMTTIMESTAMP
##English
warned
ported
열린다
##runner
##Commercial
ECMAScript
Saved
SuSE
oci
explanatory
##Printing
vpd
요함
##포괄
correlationId
##sdk
##pages
그동안
##인감
DRAM
##복잡도
PREACTION
부칠
동그라미
파이프라인
관심사
##204
excel
후반
Advisor
QueueConnection
governs
##Caching
되돌아오
변상
##Permanent
##Alternate
intermittent
##Operator
EntityType
##Layer
현물
iSendLen
provisioned
감당
##Continuous
##processed
canhave
##Resume
informative
##Incident
##applications
unfamiliar
##거전
##Maybe
굴착
##ㆍ매출하는
의식
문단
##Transactionality
SERIALIZABLE
CASS
Tags
되돌리
##교차
대수
##tiger
옵티마
reusability
aborts
##Compensation
pasting
본청
##보여
##FML
끼칠
실행력
##산업은행
bezel
DSA
LWST
##TOTAL
##NetBIOS
##매치
해체
##WWW
재분
##OLE
##RATE
##published
cylinders
MQQT
MTDI
overly
FrameWork
삼성증권
##Workstation
##neutral
##argument
InteractionSpec
Claim
reassemble
trptype
MQCCSID
##OWNER
##튜닝
thebeginning
##Bserv
##useparams
##괄로
Sever
Populate
##낭비
indent
##ECB
##Structures
perl
조상
insecure
원자재
RESOURCES
##거래일
saprfc
VAM
DECnet
##Makes
DATETIME
3980
##TABLESPACE
Foo
tty
SEM
wid
channeldefinition
##OTS
scorecard
tns
##maximum
PCTUSED
##deptno
theW
BATCHSZ
JMSCorrelationID
fc
##IEAI
TrueType
무력
idiom
OCFS
dBASE
##뭅니다
##IllegalArgumentException
##MyBatis
FSD
JSL
fected
Recipe
adata
theorder
도청
##하천
심볼
##129
부의
##MDB
##소별
호주
preselected
##부설
##resolve
simulates
tens
피보험자
IFRS
##일상
aresupported
ofWebSphere
servername
amqsputc
replicates
##Indicate
employing
##Ping
##민감
##음대
##외장
ITA
##기자재
##관측
기본법
##법제
산림
보조금
훈령
역추적
사각지대
tweak
jars
##일마
##MODULE
##Contrast
pervasive
##Ultimately
uncomment
##mails
TAR
forums
해약
##나타냅니다
팁
##스톱
##RAM
##방망
##유선
amqmdain
POSTACTION
##890
##중분
thissection
suits
##진화
당연히
##555
PIM
액셀
기술보증기금
##testMgr
##exclusive
##Incorrect
##DOUBLE
##성실
PURGE
##privileged
incorporating
dumping
##안내서
샘플링
강하
오케스트레이션
충성
ZDTP
joblog
Cryptographic
thatcontain
##Allocation
couldnot
##initiated
dT
PNG
Mobility
##아시아
##obj
##녹색
##503
##사명
##STEP
광학
슬레이브
##다스
훌륭
##robin
##Modeling
applicability
corners
deposit
repetitions
useof
haveto
TRANS
##Compared
진행시
investigating
forecasted
filler
##비정형
브라질
##216
##샌드
clob
##Publisher
clashes
##채움
MultiSource
해답
correlator
##QoS
taskid
LPA
##Profit
##드릴링
##변의
notspecified
probabilities
WE
nohup
XS
##내기
빨간
enforcing
##syntax
##식이
##catcher
PMLOGO
decrement
IPF
##너와
##sNotice
ModelMap
traceability
##3000
PPPoE
gtk
TFTP
##ASM
##PUBLIC
##Indexes
LoadLibrary
DIAGNOSTICS
VantageView
forWebSphere
byspecifying
부화
##수평
ACME
vuser
thisfield
setmqenv
fg
subtransactions
##DIST
##앆
justification
$_
내화
##szbuf
##CWYFT
##_*(
CRMs
##홍석
##trd
CERTLABL
##SVRCN
##MQQSGD
eates
##uence
signify
##송수
BANCS
ILinkCon
##정합성
재료비
산식
##유니
parity
conformant
differentiation
##Optimized
relink
MMC
##Operational
QueueManagerName
양사
개찰
##수탁
Capabilities
폭우
예치
##Notices
##folder
IBMproduct
##통사
##가트너
반품
unreadable
converters
살펴본
오차
TAC
빨라
팬데
대대
##Saving
LF
FolderBitStream
=)
ILINK
breaches
Visibility
prospect
\\
##Opens
"".
deletions
시현
##fiss
##바이오
competitor
##LTE
##차주
##에게서
교통량
accelerated
##MERGE
regex
아마
##소형
##워치
##Listening
##280
Healthcare
onlyone
Assigned
##msgflow
detailing
AAAA
SSLKEYR
##triggered
Selective
이뤄
찾아보
##idx
themachine
YaST
##OverviewdynaTrace
##merge
##Connected
##Whenthe
##Comparison
toupdate
toany
##kernel
touched
thememory
tw
hierarchically
IntegrationManager
geographically
##보도
ClientConnPtr
GetMsgOpts
##레이어
##매주
usinga
systemadministrator
Ticket
substate
##lowing
##Derived
indicatesthat
datasources
subcategories
doubled
##Expected
Allocation
##전처
달기
##IFS
Datafile
##예컨대
실장
Recover
EAIHUB
Preserve
##Rotate
hashing
##쓰레기
대응책
델타
정상일
MQCI
##Businesses
illustrative
KAINT
##안기
##sysdate
denormalized
Flexible
안티
##requeue
resetting
MAXDEPTH
MQCFSF
ParameterCount
##성일
##DUP
##Bring
##ibesi
telephony
##drivers
##SIMPLE
BUFLEN
AID
##delivery
##LAGCluster
##테넌트
##Thu
netmask
##100812
keyring
지난해
TMQUEUE
##더욱이
심평
그레
##아동
theschema
itwas
forthat
Synonym
stty
aprevious
thehost
##PowerUpSelfTest
eDiscovery
##''.
javac
##WANT
KCB
SVRGROUP
##=#
##OO
##svchp
##EVT
##studentnn
##pragma
눌려
capacityavailable
##홖
##aliasing
TComponent
##SECTION
김동준
엯결
VoteCommit
collectiontime
plusWebSphere
eTapestry
isfailing
eceives
ocessed
##Calculate
DBWR
adverse
##Rows
##Maintaining
SYSOPER
##Initiate
yourapplications
payable
rw
권유
총무
장래
##Traffic
##시일
##닷컴
Graphic
##integration
찾아가
실용화
도우미
##Dummy
##Leading
센싱
##both
##KVM
PROVIDERVERSION
##보낸
deviations
##320
판매량
##결정자
중부
미결
진행상
dialing
userinterface
postcards
ofany
##EAIHUB
옮길
elapses
mqsicreatedb
##YY
FB
##단순히
통계청
##알선
##형성
##Future
직결
drawback
##수상
reconnected
##CAST
>,
<,
##SQLSTATE
##조립
expectation
##conntype
reverses
##Resolution
부류
##LCD
퇴근
부사장
Helps
##체인
##경량
##추천
##간편
밝히
##binding
아무리
세워
적혀
Rebuild
화이트
supplementary
##Closing
PTP
##Thisinformation
##balancing
pseudocode
PROC
Fee
##RTSP
장애물
aggregating
##Inter
##Splitting
theuse
nicely
permitting
impractical
aprocess
Shut
Labels
reclaim
##Integrating
##metadata
smartphone
dozens
##스킵
##침체
##실현
재원
랜섬
CMD
##구직
##downlist
MQCUOWC
Filed
typeface
facet
reminder
##editing
thereferenced
initialvalue
recompilation
TIMES
##7017
##나갈
##폰트
##RW
측은
##IDX
SND
pencil
바뀐
Filler
##Credit
토론
인텔리전트
SubLevel
##Fruit
ACCOUNT
Consistency
depict
reestablish
redelivered
UsernameToken
transid
UR
mqAddInquiry
TransportType
기업어음
##킨다
말풍선
##세관
ordocument
##FIRM
SCC
##커서
##technet
20000
theroot
vmstat
Frameworks
swinstall
##audio
wonder
원오
##terminal
carray
userlog
##가단
MAPPING
완공
##407
CIF
Productivity
##일까
IllegalStateException
##국제회계기준
specifier
##522096
##|/|
TRUNCATE
##Telemetry
##Jolt
fle
JMSType
LUW
##SELFTESTING
MQManaged
implementors
adistribution
##42000
CIH
##OpenShift
":"
MQDestination
MQConnectionFactory
HDR
TPNOFLAGS
spiking
Preface
PHPCompute
PeopleTools
##DAEBU
securitytoken
강대현
##병근
ded
jade
svnadmin
iTools
eviously
##찰시
지명
##등록대장
TRLOG
##ext
HLR
geography
##Explore
##면세점
unmatched
##FDC
##Logs
##저작권법
개개인
갈등
##공휴일
양해
커버리지
MQfor
조심
authenticator
")
HostName
##Authorizations
회의록
##몇몇
=(
##버그
모방
##BOTH
법인세
##강도
일평균
해양수산부
##소관
향하
둘째
##109
ruleId
버리
##;.
##therefore
##Id
Tue
수행자
방카슈랑스
##facing
메가
##유니코드
interruptible
MASKED
UserId
~/.
TOOL
##들일
##Navigation
##대안
##생체
급성장
재활
유추
자립
##Improve
각도
전방
##꿉니다
슬립
##인포
FrontLine
##350
엑스
ETRI
앞부분
Crontab
재등록
##Demand
consequential
DEV
표창
theMQSeries
isassociated
erroroccurs
ofcontrol
##ltering
##Propagation
accumulation
dialogbox
ableto
objectclass
aninstance
새벽
Logon
mqmtop
##available
suffixes
OMS
calc
##력구
Includes
##011
subnets
Erase
Runs
##Duration
measurable
maximumnumber
thedevelopment
##Known
OpenSSH
internals
##301
PACS
탄생
광섬유
인수인
소계
서비스업
Quote
youroperating
Purge
##오프
##누락
이스케이프
사서함
##scott
정지로
로더
subsection
##aws
submachine
repre
aspeci
##shelf
RAD
GATEWAY
##tracking
rsh
사망
##여권
##가족
Imported
##Passwords
##니퍼
TOT
##Multicasting
##Siebel
그만큼
코덱
##컨트롤러
##Drilling
##direct
##BWMAGENT
CALLER
RUNMQLSR
DEMO
CLWLPRTY
##EMPLOYEE
multilingual
hardened
##Inspect
##Mb
##reason
CEMT
TPSTATUS
##221
닫힐
Trim
##비록
##CUD
##[%
##ACC
NFV
대만
##Earlier
Endpoints
NTLM
BKJ
nslookup
reassembly
##Plug
##"<
Levels
##시트
MDMFL
INTEGRATION
##Structured
##Programmers
tpenqueue
##ABAP
##tool
일중
##QMG
CRTMQMCHL
수신일
##shadow
##Closes
getopts
##플렛
Guaranteed
STRUCTURE
renames
authorisation
therecovery
savepoints
##resume
##HALF
docs
##611
echoserver
##ACCEPTED
untyped
MQGETcall
##strlen
COMMINFO
덮개
serviceDeploy
디스패치
##ROWTYPE
##SCRAP
fullword
LOV
LILO
BusLogic
DSYPATH
IAppServer
irreducible
bfile
##hostAddr
니어
TSFI
MQversion
noncurrent
ompt
UDCP
everyactive
Closed
##계열사
##표기
패널로
##UCP
##보호기
정액
##등본
##bwadmin
달라서
##=`
봐야
##국립
적기
##ATB
requisite
##₩
##철회
도심
Loadbalance
토의
##IPTV
##철저
##Prerequisite
adefault
therepository
##146
##멸실
##Fully
##Collecting
PPT
##Assistant
##Globally
Artificial
##repository
UNI
치수
##창고
늘릴
바를
열정
Initializing
tomanage
##Invoice
DestinationData
##절체
DataDirect
##0003
##원별
크리티컬
##무결성
XXXX
심장
##Callee
##주소록
Catchpoint
##일인
surveys
요금제
##VoIP
##Premise
차수
technological
전선
##이용료
심리
RESTART
##SKBM
##플랜
샌드박스
TAP
MILog
수생
Sections
94065
thesection
##quoted
‘-
whilethe
##clients
intercepts
eServices
매력
testers
aligns
thenecessary
messagesfrom
COMMENT
##easyTravel
##serverconfig
cascading
datato
chronological
Truncated
"-"
availablefor
axes
##Reporting
otherthan
Explore
##directional
wishing
talked
TCAM
##안자
##진입
tiling
toString
mqAddString
Intra
MIMessage
대괄호
##EUC
##혼합
##Mar
generators
##offs
compartment
itsown
Governing
Assignment
흐르
##티어
BWM
가져와야
##회의록
##Performs
##Predictive
rework
##Dropping
GROUPS
##*+
Capability
##기록부
부점

denial
illustrating
##270
##Docker
##식기
심도
FTA
캘린더
워커
advisory
9999999
월수
싱크홀
##FTPGet
MIDate
adirectory
BACK
GMCMPM
PSB
MDRQ
spooling
##mysql
uucp
##mands
##TERMINATED
domainname
dequeuing
##였으면
컨버전스
HOSTNAME
Quickr
변동비
##CHARSET
WILL
equivalencing
FLUSH
bufferpool
##4690
thetrigger
Marking
qname
MQSEL
##피싱
ResourceAdapter
##EXCLUSIVE
calculator
##ImqQueueManager
MBeanServer
Fulfilment
MSS
projectName
sparse
Indicatesan
manytimesan
##norm
QMC
gradients
AIRLINE
##vip
##Returnsthe
GBL
examplebucket
JRLY
opagated
DBWn
DFS
seldom
##데이콤
##색시
##위원장
헌법
##⑥
생산자
##사정
Separate
##에디터
ascii
##BWM
characterize
Functionality
##Yantra
XMLHttpRequest
Encrypt
##텔레
했으나
##스캐너
STP
OpenEdition
Organizational
고칠
##인하
오동작
시한
리빙
##공문
##536
Destroy
스피커
##qn
모름
##수령
##delivered
##Authorize
collectives
##Between
##Lowercase
Endian
MORE
##지진
넘어온
캐비닛
걸렸
생물
유가
##Learning
혼선
우선시
범인
##FUSE
##국민카드
외형
approximation
_)
쌍방향
##시간대
RENAME
##WISE
OSPF
constituents
지면
##공고문
일종
##DTM
##Ramp
대학원
봉인
accomplishes
##Specifications
##Comment
##독일
##잠재
완제품
IVR
##다섯째
패션
##비디오
북부
##163
##수별
##노란색
##설서
##반도체
수백만
들여쓰기
hereby
promptly
##OpenAPI
Disconnecting
auth
JMSReplyTo
isimportant
connectto
orother
MQPER
##Continuation
gracefully
RQSTR
##자당
calloc
redundantly
trending
obscure
anchors
ulimit
ABEND
thecertificate
##Suspension
toretrieve
withan
slows
##Argument
andtheir
Downtime
Counters
atime
sameas
Init
baggage
ensured
##그동안
파일등
대손
consultants
##Connectors
이지스
##샘플링
유니
##Wesley
forany
expressing
misleading
overlay
agroup
##Compression
Dependencies
##pwd
##1111
rebooting
##Kerberos
##WMQI
##BPO
TPETIME
할애
Responder
notebook
박사
##일수록
하향
##접지
##Interaction
LNX
heuristics
MTD
VDMgr
##──
boost
##Balancing
OSPFv
hiredate
골드윙
##116
##mqrc
##766
offloading
CLIST
Recoverable
reestablished
##Registers
MQDLTMH
지킨다
##면허
##가구
decoded
Db
비우
===
pkgrm
난독
##Introducing
공통부분
PfnNumber
##이각
MDGID
RFNVS
##관련자
BREAK
Lambda
##Rect
inany
avail
XFree
출연금
AMDs
구성비
BatchGW
소비량
Conversation
Serializable
STRMQM
OBJTYPE
CloudFront
##Prepared
##VAL
##③)
MEMBER
##DESCRIBE
getty
LK
1160539200
concludes
##NEPTUNE
MQSCcommand
##LOW
ARCn
SUBSTR
thegateway
리얼타임
##Clears
Loadrunner
PutDate
MTOM
dogets
logicalmessage
순서도
Exadata
##김남규
##odata
##Xid
BPLM
##nCount
##20020215192343
##아바
obk
##scrap
##intot
##intraot
##obk
TAL
##CGI
tk
Passthrough
1064
hashit
Liststhe
##SubscriptionsMetricof
repositorystoring
##Includestime
wasad
opacity
MQOptimizedFlow
SCPollable
MCPollable
SourceRequestDescriptor
NotifiableSourceConnector
##goal
##MQCFH
##OBJ
TPSVCDEF
ITSOESB
hostPort
MessageSetIdentity
##XMLParseException
##>#:
fileInputStream
mydb
VMPS
Incremental
##Person
돌아오
사생활
##대통령령
Toggle
##unitinvoker
##수일
##Symantec
Passive
##classpath
##settings
##Configurable
##듀얼
housekeeping
##휴맥스
##Chrome
SIEBEL
##email
mteagent
##통하
여정
가져갈
갑과
Ezis
##oNline
소상
NOTE
##은데
##주전
notneed
나뉩니다
예의
distinguishing
DatabaseInstanceMgr
당월
##\”
##유휴
이원화
##기금
수송
국무
입출
##토지
##흥국
canchange
열과
##Refers
##NUM
##}]
##Partitioning
예전
complain
watchdog
##Beginning
escalations
entitlement
##INFORMIX
##ADMU
BPEDB
specs
##Watch
className
KISA
multitasking
인시
##151
Sat
bounce
##전합니다
직속
KRW
##675
FAQs
##플레이스
##145
POJO
##잔고
##Requester
##TRAN
"]
소방본부
regressions
ofOracle
TopicSubscriber
isspeci
amulti
disjoint
Commits
##안건
EDMS
##BACKED
##Failover
##AccountingToken
##로움
##별명
instrumenting
##monitoring
##Nodes
##Background
dothis
blacklist
Passing
subgroup
thedescription
##502
finalize
issent
##Lifecycle
virtualmachine
##PI
undergo
hooks
compelling
관로
##170
##보수성
bea
Abort
accelerating
shortened
터키
헤드
Fundamentals
에이징
ABCD
##MTECC
Adapting
Structures
##tomer
tailoring
intrusion
traversal
programminglanguages
##139
##history
##Improved
Ownership
##2111
##single
##legged
Indigo
Lib
##MAIN
‘*’
목요일
EB
additive
##Actual
theadapter
duplex
건지
규율
##AMT
##날인
##더욱
##141
##캔버스
일차
##comp
절대값
STRMQMLSR
CSQXLIB
고속도로
MGR
원치
##Bar
PDAs
##Servlets
grab
##std
tbSQL
PARAMETER
##Bridge
rebuilds
PRINT
LTERM
PutMsgRecOffset
SelectionString
##8560
##Soruce
"-//
booked
##since
SIBus
##extended
handheld
Protocols
Acme
Redundant
##평문
##equals
##SUSE
##Combine
representthe
suffers
tcsh
capacitor
Virtualization
##VC
노선
Verb
KiB
흐리
##Datatype
setValue
acharacter
MQReply
MQJMSTransform
##Directbridge
##BufferLength
CONSTRAINTS
aglobal
##UNUSABLE
JNLP
MQHC
libmqmxa
ClientIdentifier
CEDF
qmail
documentjob
tempfile
HOLD
andproperties
ApplicationProgramming
QMQMJOBD
AppleTalk
##ImqObject
OIDC
CWSIS
nvi
SCBK
8218
theinstance
개봉
비고란
##통계법
급속히
##유발
뛰어나
국민은행
검지
##ALIGN
독거
자전거
##스가
착신
##시안
ISAPI
##VIEW
reenter
중소기업청
지식경영
MQHCONN
##StrucId
LoadRunner
수검
##터로
##WINDOWS
중이
##시한
##합의서
다발
표식
overheads
XAOpenString
##Multiply
##610
FtpServer
jndi
당연
##Permission
##cardinality
+"
망의
BASIS
치유
호우
항공사
##지문
실감
instantiating
Denial
##Conditional
##tpacall
넘긴다
##부호
″-″
##also
##packages
InfoCenter
##GigaSpaces
##구인
##행정부
##MPowerP
##Bin
##paste
tomcat
##Transmitter
나노
블루투스
특허법
##Word
Threat
##장표
주소록
PF
warranted
##종덕
##모빌리티
예술
진동
bpc
##한계
발신자
조견표
##에버
##EMPTY
##러너
##Lowest
Releases
withother
topmost
anyof
Descriptionname
전점
초석
discounts
MUSR
##Limit
FileName
관람
PartnerWorld
##혜택
FD
Deactivate
사양서
쿼드
thetop
##Hosts
toallow
##starting
##processes
outdated
PLTPI
interfacing
##httpd
Utilization
href
##agents
Writes
##스탠바이
eCommerce
매설
##MQCLOSE
##182
이사의
Retrieving
##MONITOR
ofits
helpyou
Entire
Diagrams
indented
decomposed
eachother
cleaner
##155
DEL
##META
##SZ
투망
낸다
proliferation
##Regional
objecttype
인스톨러
어긋나
##CUBRID
##소화기
neural
Optimal
grease
intoa
우편물
Reliable
이스라엘
원거
Slice
##WriteLine
##출입국
##REMOVE
CORRELID
##CATEGORY
Freight
portType
##backout
UNDO
MaxPriority
OriginalLength
ImqCache
##온도
Implement
Compiling
ITM
viable
##601
Manages
##Switching
##시그널
##호출자
MDFB
##2242
CurrentQDepth
##capicmd
okay
fundamentally
Delphi
subcommands
##EAR
aws
##BZFL
브로드밴드
트럭
##dll
Worklight
##ALERT
TIP
##Coordinator
##Width
thecursor
SharingConversations
reviewer
꺼짐
andencoding
LTPA
##Week
FileTransfer
##Thisparameter
##은평구
##XID
##ExitResponse
##ALTERNATE
Attempts
홀로그램
##PRAGMA
##SKB
buildclient
FORALL
envhp
BookingServiceWSProxy
ParameterType
##MQFMT
##2193
##CVB
JANUARY
##dbExpress
TClientDataSet
elds
APPLTYPE
Altura
topicObject
softwar
SAMP
zEDC
##DLM
일천
양산
변호사
##물가
##자연
##용례
SX
##하이닉스
'\
##ILSI
JUICE
JD
##verify
##Appliance
##앤드
Backing
##850
##Ending
##Rebind
##TSO
##Certificates
##Missing
remedies
##CommonBaseEvent
LogFileSize
Attr
##Financial
##HIMS
acomplete
##Final
##Renaming
hops
5655
상한
퍼포먼스
##시에
인허가
##기후
바이어
교사
Shutting
reliance
##릴리스
Cartesian
adopts
hyperbolic
##tpcall
VOD
##computer
##publib
##above
nodeName
##Catalog
##실체
##￦
reg
주변기기
지령
인테리어
공감대
##Tandem
소방서
무기
##VDI
assessing
습관
##GPS
##과도
##136
##세로
##배의
##소매
제작자
완결
시계
##175
SOFTWARE
contractor
녹아들
##Thiscommand
theavailable
##Blocking
문화재
##executor
##블로그
##자승
##naming
##Installable
ServiceComponent
##OAM
##Committing
##Probably
##949
hyphens
##830
하이퍼링크
##CSI
지남
##SPOKE
CodeLink
##transactions
##Discovery
recycling
subcommand
Diagnose
@.
spawned
Servant
##minutes
thepage
theexample
toselect
Trending
tosee
##Defaults
##Conceptually
afunction
versionnumber
reloading
globals
flushed
##$(
oversight
COMMUN
##164
영등포구
##Empty
가감
##BatchAgent
##스니
devel
specialization
unmarked
everybody
##Composition
Shortcuts
##Prefix
STANDBY
택하
##트랜
##연습
기가
니다
##Http
돌리
avalid
smoothing
##df
##Slide
##operator
##614
진전
대면
CommonBaseEvent
Wrapping
##RACF
MQWXP
##산원
리파
dive
##XSLT
Tolerance
##Driven
##SPSS
위저드
##INHIBIT
##MANAGED
NeBios
rcrmqmobj
CHS
##토양
연합회
##Editing
identifed
##{}
구해
##STRNCPY
판매액
교차점
CUBE
크롤링
batched
justified
##RPG
RCNONE
정시
Widget
##ILINKHCONN
##updates
Suppress
완만
BBL
multiplexing
Maintaining
전결
STATEMENT
트레일러
porting
PROD
##Overtype
NEOCrypto
TargetConnector
Rijndael
unforeseen
동기식
하이픈
HISTORY
thesequence
ofcharacters
redhat
##BUILD
##ifdef
##다이얼로그
원형
앰
##JOLT
OMEGAMON
ISVs
##specification
##traceq
Tridion
decompression
##Aliases
##portable
ActiveGates
##subpartition
##ROUND
toconsider
##rps
notcompleted
ImqItem
PROPCTL
##KMACS
TPTYPE
tpdeq
각주
NEXTVAL
CosActivity
##SQLSMALLINT
##맥스
NVR
getXAResource
SecurID
TPOK
CMCTL
WBIPreUpgrade
Ÿ
19790
SORES
eceived
Workgroups
lowers
tomodify
Agile
##ABSOLUTE
수신지
작업요
##서상
만점
캐나다
관광객
##Focus
##Marketing
buyers
##Stateful
##정망
ExceptionListener
TCPNAME
transporting
strmqcsv
##GlobalSign
##❹
##Heap
##시켰으며
##선급금
##TFT
##청소년
##상도의
##Thequeue
sametime
Saving
##Derby
mqsiprofile
##NUMERIC
##Mandatory
mqsimigratecomponents
##PREFIX
Inactive
##Topology
hyper
##intf
판명
CONDITIONS
개국
##Spatial
##Volume
연구자
##Electronic
HOMEDIR
configurationfile
aservice
tracker
Pull
##predicate
IDENTITY
##Constants
finalized
cater
cosine
MOCOMSYS
ubiquitous
prioritization
부속품
라인업
SCOPE
변모
이월
원정
##MQGet
방카
##BOX
부정확
QRadar
써드
commencing
디스카운트
ESOS
##경찰서
##996
##HASH
InfoSphereTM
rcon
홖경
거기
Nexpia
##난수
##휴대폰
##CDO
anadministrator
thetopic
isin
##ACI
serializes
watches
##Critical

##7232
unrestricted
##PMQCHAR
##총계
타이핑
이력서
소외
IDEs
Timeframe
fromyour
setenv
COR
##func
tolerating
followingvalues
toenable
##balanced
theindividual
malformed
##qmgrname
##Sessions
tablet
theinterface
atransmission
tocheck
applicationName
Immediate
displaythe
##미세먼지
##scripts
REM
스킵
배정은
##122
tableName
acct
BusinessObject
ithas
semantically
##OBJECTS
MQEVR
BROWSE
##될지
##나야
builders
denoting
##Center
succeeding
clearer
composable
##TextInput
##DAYS
XMLTransformation
사인
waitTime
##ICF
##악성
걱정
##Guidelines
##Independent
workgroup
##접촉
##취업
국방부
##샷
2035
바우처
##㎜
##시방서
잠근
➔
자르
##CLOPT
##cust
%>
WSS
##FACT
##루트
9001
##Imports
redirector
rigorous
가압류
uninterrupted
towork
DSNAME
reformat
CSQQDEFV
PutMsgRecPtr
##SUPPORTED
##명사
##수질
thepublication
tothese
areprovided
SBR
SDN
Exporting
##CHASU
LIFE
LSB
##flags
wpsadmin
##Esc
SELinux
swremove
##교대
mimic
##sysconfig
##Debian
##photo
알려준
smitty
파로스
HADR
##패의
TOS
Wn
DOUBLE
##Zone
##인덱싱
SQLDA
subshell
ifthere
##icon
##Portability
idl
##이렇게
cloning
managerand
blending
##RECEIVE
10240
Heroku
##비주얼
acommunication
REBUILD
UNLIMITED
JAXP
wolfssl
projectgroup
amt
aninput
##EPCW
cicsmkcobol
messagedata
##Ilink
emulated
TPTIME
##cdecl
sticky
fieldis
##adsd
Submap
targetdatabase
ors
bastion
SunSolaris
SQLT
ITSOESBBus
##envhp
옮겨진
lexer
WholesalerB
esh
epar
doVerbFor
multiplier
subcomponents
##gures
주축
PERSISTENT
학력
재사용
과반수
##SX
BPMN
##우상
한국은행
javadoc
convergence
entails
##added
매시
SSLCipherSpec
##BAM
##견적서
해경
상각
##SOC
스크립팅
쾌적
arecreated
iswritten
andhow
keytool
JDBCProvider
%(
apostrophe
##Override
##nodename
##ROLE
##Slave
KIND
최저임금
중추
##핸드폰
표본
##스와
방역
간과
테크
TANDEM
Packaging
auditor
Identifying
isthat
=,
달의
interprocess
dmgr
validations
disrupt
충당
##ilink
통합성
conditionally
##flush
후방
원도
##각도
##프로토타입
##-(
묵시
정점
##완벽
##안드로이드
##렙
##최저
##영화
기울여야
커버
WISE
담겨져
단시간
competent
Obtain
국무총리
##황원철
위비
WindowsNT
therange
##member
memberships
##RSS
댓글
dspmqver
MQUS
bridging
MsgID
Continuation
pExitContext
##PPMQLONG
##allocated
Enumeration
DATAARRAY
yearly
경영자
positives
MSDN
##embedded
uncompressed
beprocessed
Executor
##Flat
callee
throwable
anadditional
Packets
BUFFERING
##Old
이해관계인
##피스
##172
소액
informationon
itmust
theparameters
##Extending
Dependent
##ILOG
Adopt
Modes
Pause
##fact
spe
ofwhich
##signal
deterministic
governors
aproject
##HQ
messageNumber
Contacting
##Way
채우기
##Original
질서
INTERNATIONAL
BIM
ascertain
grasp
Partitioned
##직업
subprocesses
석사
##신원
번지
정보통
오작동
##WORKLOAD
좁히
##Sort
가까이
급박
Pivotal
encapsulating
9080
##데오
JENNIFER
CSQT
SETSSI
TPIPE
##Scan
##REGISTER
고쳐졌
##Exercises
rcvlen
Detach
reportexecution
RED
lend
Datasets
checkIgnore
configurator
disclose
ATFMS
짂행
’(
MQINT
PMSETA
##Packed
15000
##MESCluster
xinetd
useradd
john
MQPUTs
controllable
DBBL
paramName
ITBOX
testbed
Employees
##PROFILE
CDS
TPR
SQLERROR
cvs
slept
##OA
##Cumulative
##ASN
Decrypt
##Substitution
##RTI
PRECISION
Demarcation
PIP
passivation
PoolManager
transactionbranch
transactionmanager
MQPOINTER
AMQSERV
ObjectRecOffset
##Precompiled
sslCipherSuite
makeQuery
piecewise
Connectorsand
##relief
SOAPAsyncResponse
informationprovided
ofp
##595
##dbs
NAMESCTL
VARRAW
Entrust
6100
keystroke
MQSYSP
forwar
ecover
PCM
thebackup
beissued
##생성자
##셔도
-,
판권
##분실
##SHELL
##종업원
부설
##신청자
##월일
rx
##테이프
inverted
##ldap
##vendor
BizMaster
##Dedicated
##GbE
##OWASP
AMQA
SUBSCOPE
##temporary
##골드윙
DFDL
##습기
##Middle
##디버깅
원동력
RO
tablets
임하
referto
fromwhich
##상사
##Lightweight
sandbox
bipimain
##Larger
Revert
messageSet
다이나
직제
stacktrace
##일까요
BOTH
어려우
##보조금
##업인
맞이
월평균
POM
robustness
비닐
CASTs
GMTTIME
##LEFT
unary
capitalization
##Processor
##업무상
Breakpoint
띄울
##소리
##좌의
##Packaging
##Extra
신뢰성
##Supporting
##Xms
머물러
음향
밝혀질
##Caller
##세무
TPC
##="${
remind
MessageFlow
ql
##소규모
각국
##폐쇄
유인
RTYLONG
##나타내
negligence
##1970
thejob
ombaq
determinethe
ejbCreate
##Decomposition
##crtmqm
folded
alterations
##Returning
나눠서
##Secret
themetadata
##wp
theaddress
##Restarting
##started
IHS
JES
compresses
thepercentage
##Numbers
fallback
EasyTravel
thathas
##Offline
##Sent
##Functional
Deployed
inprogress
untilthe
unresponsive
isalready
가속기
##%~
##전일
신규상
##124
금융업
##ISMS
##아닌
##기재
##086
##864
datahandler
acronym
objectdefinitions
Recipient
familiarize
##checked
canthen
isrepresented
SPAN
##software
깨끗
metamodel
andso
##sign
notthe
##words
thelanguage
##Thename
triplet
actionis
감점
Invoking
Pipe
5601
##0020
TPCall
Obsolete
##00001
##840
fopen
thisexception
RStudio
rentals
##연구실
##->[
##신공
##대민
##영수증
##PIPE
주황색
XACOMMON
XACHKCON
HEADLEN
##Hive
acceleration
analogy
모니
마크업
PRIVATE
CSQQ
##822
RETRIEVE
RBAs
##Respond
PERFMEV
MAXUMSGS
##EMBEDDED
ImqDistributionList
##0330
specifiesthe
datain
##REP
##LIC
##Domino
SYSZ
SRC
##KSC
##Shutdown
##캐스팅
BOS
demos
##TRY
NW
BizHub
replicating
enterthe
MQUINT
##MQMDE
##2241
어떻게
##쉬프
JBOSS
##images
Keywords
유니크
Damn
messagethat
ISDN
화산동
andserver
getValue
ULOG
MSSQ
tpcommit
paramValue
##장장
cascade
Redirect
##판교
GF
##XMLNSC
TMax
DBAs
mirrors
##creation
kernels
##COS
##워드
##prod
##WTX
##COMPAT
##한자
NullPointerException
##제스트
jobexecution
StoA
##iBuf
트윗
AMRC
reasonname
##SEBI
gtrid
Bloggs
##PROGRESS
##represent
##Selects
scanline
tcpdump
Shipped
##Classic
##PRESENT
dvPort
scriptlet
##stmt
ruleflow
##CAPIS
thelocator
OCILobRead
PCTVERSION
##WebtServiceFailException
##3272
##ImqBinary
##">#:
shareware
GAMMA
ule
puppy
econnection
##철근
##Sherlock
toavoid
inef
parallelize
yourdatabase
##게이
##ASync
GUIDE
##BAR
##총무
기점
##불가피
##333
외환은행
없음
##롯데
NetWare
##제일기획
리셋
endorse
##Standards
##iLink
MQCHLTAB
교육부
MODEL
ScheduleRule
띄운다
블루
##AJAX
##879
##Compact
Mocomsys
량의
며칠
##약본
mqsilistaclentry
##simple
canceling
##사만
개괄
##multi
방위
뛰어넘
Connecter
##403
loggers
iterating
RootBitStream
##’’
negates
##Everyone
##Robin
##runmqtrm
이용률
OPTIONAL
##포장
handshaking
Escalation
##Disabling
##트윈
NDMS
##문헌
동의어
Perimeter
재작성
enumerations
틀릴
##출연
##경색
##Fi
CVE
silos
##940
##standby
제작사
Milestone
끊김
광장동
기하급수
##수인
##노트
증강현실
광고비
구조도
각광
합쳐
진위
지켜
피해야
이뤄지는
Bundle
Effective
Successfully
checkboxes
##electronic
beexecuted
bullet
lessthan
canonly
messagesthat
##Seethe
reentrant
##failover
##수위
시선
함부로
preemptive
fuller
##ObjectName
ProfileName
##충돌
무슨
하이
버퍼링
##Plugins
catching
caption
sourcecode
Adjust
databaseadministrator
Annotations
thatdoes
##category
sentto
##Threads
##Country
##Accordingly
wayto
Reads
todelete
exponentially
emulators
laptops
##총수
##예수
발행주
##약시
이경우
개작
AgentProperty
anindex
isdetermined
##Intra
카피
##@”
yesterday
TMP
인의
##ects
abstractions
thinks
##Keyword
cease
##Interfaces
indirection
abstracted
##ProjectName
##016
##Decimal
##Retrying
##ABORT
공적
Logistic
##SUPPORT
##}'`
forecasting
brevity
유익
##UID
CIS
##마이닝
##논문
##컴퍼니
RISC
업적
분양
natures
administratively
##REASON
ClusterWorkloadExit
CHAINSTORE
POLO
변할
##텔넷
##Peak
##레이
일컫
종래
##invoke
##Coordination
dispatches
##featured
보내기
Securing
##extend
CSQY
retrievable
mqAddInteger
MQSRO
psc
CFLevel
amqharmx
amqzdmaa
##owned
bypassing
절단
discovering
banding
##Wireless
##중견
##find
연구개
##참석
##DBG
MIElement
Indexing
OFA
##호가
GMATM
와이브로
##GERPswesbpa
라이
##choose
crackers
##printable
isone
##associated
BRIDGE
rollbacks
##JPEG
##Davis
기다릴
##VAM
서비
##폴란드
##pv
##USAGE
Pgm
ERRORS
##Navigator
DataHandler
SQS
##립후
strokes
therow
0810
중저가
##specifies
##onepass
##변동비
currentuser
grantor
materializedview
theview
MAXEXTENTS
개구부
핚다
강우
bc
AmSender
Variant
theremay
COMPAT
##xsl
TELNET
wsimport
KMACS
TPSTART
swatches
TPNOCHANGE
onstat
##핚다
OCIHandleAlloc
##슬라이드
##2217
typeset
inputmessage
SAPRequest
invariants
##1400
READS
##TERRITORY
CONTAINS
##typeof
##+="
subcollection
WED
SecID
ACTive
5129
Archiving
##Secondary
끊겼
##변호사
무분별
감경
##소방서
이럴
소각
이하일
##구입
##사용료
중앙관
%,
텔레콤
교보
##Passive
Cleansing
toestablish
##Highest
partnerships
steady
differentiated
##PERMISSION
Vusers
내규
##농촌
##양도
##BizFlow
셀프서비스
Prerequisites
furtherinformation
anonymously
serializing
retransmission
SOAPReply
##keystore
classname
VPNs
합당
15288
##본청
지상
##수출입
##Packet
##IONA
CXF
Multipart
##TIMEZONE
##누리
##무시
##완성
막론
##ascii
##연령
##SHOW
##\*.
##Included
interdependencies
##setting
CLOUDSCAPE
Avoid
##균형
Recorder
##Reviewing
READY
##Customization
##질환
##요의
##위주
##especially
##던트
HIPAA
##COMPLEX
저항
##="-
datacenter
##코스콤
엄중
##SFTP
ofapplications
수금
##fclty
##312
##휴대
##작품
집합체
SKBM
게이트
decouple
##OPERATION
##SEOUL
Stamp
warrants
','
DNs
tocontrol
##OPTION
clientapplication
##destructive
stmt
dequeues
toinclude
##침수
PutApplName
reuses
##strmqm
DEST
AuthorityBuffer
##신량
##마음
스피어
adherence
##Allocating
preprocessing
"*"
Controlled
Thresholds
beset
animplementation
replymessage
hardening
rooted
isconfigured
datathat
Tap
broadly
소식
인장
관인
##정주식
신주인수권
##930
##소계
##연차
internationalized
##dialog
MQACT
##MQTMC
CATCH
recycled
##Early
oftime
orthogonal
viewpoint
picking
arestored
##137
##regardless
undesirable
onlywhen
##181
##disabled
LOGIN
theproblems
##012
##응급
##플래그
Chassis
##Condition
쌍이
주정차
충전기
택배
##portal
Deffered
coefficient
variability
consequent
flashing
duringinstallation
##duplex
액터
'||
Balancer
중분
HPE
##정신
##InterfaceID
VariableUserId
mrm
Typically
cheaper
PLS
쪽지
Hierarchies
Inquiry
OFFLINE
QDepthHighLimit
MQGI
mqCountItems
ChannelName
roleback
재처
##높이
천만
여개
이송
##preprocess
##Widget
마일
EXCLUSIVE
iRMC
transceiver
ServerView
Proprietary
determinedby
echoes
yourcomputer
thisproblem
IPs
joe
isstarted
hubs
ordatabase
##RESTART
TMQFORWARD
enqueuing
syncType
stripe
ADM
inspections
##신보
##보류
TRX
RfcDispatch
밸류
Tpipes
MQGETs
CustomTrace
theelement
##부대장
##씁니다
##tibero
ROWS
storesthe
##우선호
terminfo
ToS
getObject
회사채
arerequired
##Anylink
ATL
서울은행
##Transfers
추징
+.
VRM
PerSecond
thematerialized
MAXVALUE
parallelexecution
##XCWCIS
JDOM
##HMSG
##Parses
subdomains
##letterqueue
theMQOO
pmo
yourinstallation
productCategory
##sendmail
##Cfrm
##지하수
AMIapplication
##dpi
BPE
QueueMonitoring
InternetExpress
moderator
SignOn
detïned
PAGENT
SQLERRD
rhcs
##ImqError
홗성
##Awk
WholesalerD
acr
misses
itdoes
##FAST
잔고
aaa
jvm
##만기일
##음악
##무비
가설
##수기
ProLiant
화두
##heap
xxxxCHIN
staying
downgraded
##Ensuring
renegotiation
GKMC
##MQCO
##\.
대등
##보상금
##음원
Certified
농촌
thisprocedure
environmentvariable
applyto
기준서
지급액
sweep
authorizes
##tm
##XMITQ
Minimal
degraded
MAXMSGL
##새롭
##principal
##주전산기
##활의
##원부
초동
UCC
##건축물
##POWER
COALESCE
SELECTs
##Operators
NEXTSIBLING
statuses
CPC
##스타
흰색
##==>
workings
##지한
launcher
setups
federating
##wizard
##DataDirect
Assigning
##mobile
소급
##요각
건강보험공단
##HANA
분류함
거처
disposal
Inbox
thumbnails
##Expiration
##grant
##정제
##251
김준영
##다이나믹
##등기
상승세
Important
ofthem
##rtm
CORPORATION
##159
키트
milano
##NIS
##훈령
냉장고
질권
JPG
##스포츠
##분포
자국어
DBPLLAY
##+"]
pSeries
needsto
notallowed
bedisplayed
usersto
byan
toeach
##극복
##추이
foregoing
##궁극
centralize
NETBIOS
Characteristics
endmqtrc
EntryPoint
strcmp
installers
Reservations
dtagent
notcontain
openssl
##coordination
##Mark
##Usethe
richer
Requirement
Benefits
Monitored
dataand
enormous
Potential
##Regression
##hidden
thisfunction
alleviate
##악취
invested
fold
##가들의
##SDP
##싸이
##640
##매도
##출한
상무
MCD
Verbs
thegenerated
primarykey
##Construct
mqSetString
##MQPS
신중히
거래소
BSM
itemName
##행안
##Frequently
indifferent
derivation
synch
##Expressions
theinitialization
prescribed
##automatic
boththe
이득
hardcoded
##wired
##Incoming
##루프
세일즈
BNK
##routing
Ecosystem
공유자
##933
##directories
##습니
분장
discount
##']
firmly
followingsteps
##건지
###)
유로존
박람회
##포스
줄어드
맞물려
기다려야
전압
고찰
##싱이
WYSIWYG
″#″
VSLength
##깅은
##NVL
##그럼
##Qualification
##옵니다
##제천
책자
흔적
##FAQ
recomposition
양측
INTERNAL
##shift
##VSPtr
압축률
‘&
김효은
##분담
떨어진
myself
찾아갈
informationobject
notinclude
Deliver
##아파치
모뎀
Switches
WRT
##BMN
##서블릿
anaverage
defned
##백분율
##WTA
LH
toresolve
##employee
errant
##OTMA
##ikm
FireWire
##provides
##Limitations
makesure
Configurator
microphone
OpenOffice
##changing
##조직도
RACDCERT
thereply
WTC
##EX
xlsx
출입문
##Useful
##너무
SDE
등록증
벌크
##CR
##HANDLER
##Trailer
CONSTRAINT
##가마
##BROKEN
MSB
capitalized
##BF
CipherTextSize
유한
dialogues
streamlining
##stored
POSITION
HAProxy