##The
사용
##This
시스템
##습니다
##”
##합니다
시작
##’
데이터
때문
##If
“
정보
이름
제공
MQ
사람
구성
포함
WebSphere
서비스
하나
기록
위치
기능
가능
발생
‘
관리
지원
필요
아니
수행
설정
처리
##You
활동
사이
만들
파일
서버
선택
기술
##In
##For
정의
시간
존재
이용
상태
추가
##정보
문제
##시스템
업무
일반
다양
정부
이러
연결
적용
내용
##였으며
인터페이스
방법
진행
환경
주장
통합
작업
프로그램
발견
자신
요청
생성
##시키
의미
메시지
전송
EAI
##입니다
대표
유지
참여
실행
영향
구조
작품
결정
##어서
계약
부분
방식
발표
사회
중요
등록
입력
대상
구축
그룹
## 
역사
성공
분석
전문
##To
공격
교육
기본
과정
아래
관계
##됩니다
##관리
표준
연계
음반
생각
수신
기반
사실
##여야
사용자
형태
계획
##아의
이것
중심
##When
역할
사망
전투
설명
정치
조직
##어야
##It
##으로써
프로젝트
따르
표시
경제
##기관
##으로서
합니다
사업
고려
상황
평가
개인
요구
##ﬁ
차지
저장
작성
parameter
생산
##서의
오류
위하
보안
프로세스
##으로부터
기업
모델
참가
특정
기간
attribute
broker
출연
목적
독립
동시
##본의
출신
장애
데뷔
동일
문화
클릭
이루
등장
소프트웨어
제품
상대
모니터링
증가
##는지
정책
대해서
성능
유형
자리
보이
표현
##")
변화
버전
크기
##시의
활용
모습
회사
구분
위해서
응답
그것
##“
의하
수정
directory
사항
선거
도입
인간
조회
##고자
출전
후보
거래
제외
이르
화면
specify
중앙
공개
유명
실시
발전
click
형성
임명
##="
언어
승리
시기
테스트
단계
시장
그녀
우리
운동
자동
불리
행정
명령
종료
전달
접근
송신
배치
##시켰
##또한
내부
##》(
항목
여기
기관
자유
자료
호출
목록
영역
##서버
##Note
확장
비롯
군사
조사
건설
분류
##서비스
보여
설계
##초의
코드
대하
건물
비교
진출
##IBM
완료
공간
##대표
정상
분야
테이블
실패
지금
제한
국민
애플리케이션
관리자
단위
인도
필드
Adapter
이론
최초
효과
선정
네트워크
지속
통하
##번호
ﬁ
반대
##EAI
조건
로그
생활
버튼
제국
##Use
자체
구현
나라
활약
통한
솔루션
규정
요소
보내
보호
길이
특징
개최
참조
삭제
인정
리포트
학교
산업
제시
채널
담당
##An
권한
결혼
기존
안정
학생
비판
##데이터
*/
암호
##십시오
제안
밴드
소련
##코드
비슷
최종
##사업
##했으나
규모
공동
개념
국내
마을
시절
출시
함수
스페인
##경기
그림
시도
형식
남쪽
전통
체계
##전문
##처리
성장
높이
자연
자기
추정
북쪽
분리
의원
명칭
운행
지구
전자
교수
인물
경험
##려면
종류
속성
그러
지지
방향
고객
실제
외부
유일
이동
노선
부족
나타나
평균
여부
컴퓨터
클라이언트
아이
군대
통신
제도
세력
상호
##See
연방
거리
목표
attributes
이유
##가능
행동
이끌
판매
일정
##업무
원인
##기술
엔진
과학
예정
부여
##개월
차이
##개발
역임
Broker
나오
commands
디자인
##다면
도움
공유
황제
동쪽
변환
공연
다르
반영
능력
유사
이해
전국
대응
부르
추진
인기
확보
서쪽
종교
속도
##These
출력
–
Queue
##",
##정의
메뉴
효율
태어났
해결
최근
강화
언급
##려고
##반의
##파일
승인
불구
##계의
##WebSphere
교회
개선
인증
수립
획득
문자
위험
일어나
인식
시험
##재의
주도
JMS
검색
##However
범위
queues
지배
##인지
페이지
제거
##한다는
선출
##현재
##다음
검증
트랜잭션
측정
시민
준비
조정
##으므로
##려는
MicroStrategy
수준
선언
##On
열차
교황
멤버
면적
##고의
바탕
인터넷
특성
관심
##보수
대체
비용
우주
간의
가족
결합
옵션
과거
노력
##시켜
클럽
단체
사랑
데이터베이스
##센터
보유
반응
##일의
나타내
전기
사상
##사항
용어
들어가
계산
경로
정당
나이
차량
제출
이미지
에너지
밝혔
접속
통과
책임
특별
수록
마음
작가
민족
의사
주변
확대
점령
나머지
모듈
중단
전환
피해
사고
방문
자원
남부
달러
아직
차트
모양
판단
##동의
주민
##지역
연기
그렇
이벤트
##지원
가문
##인민공화국
백업
승강장
동물
install
##통합
거부
검사
제어
온라인
부문
만나
가치
노드
기독교
수집
감소
응용
소유
##정부
현상
친구
장치
허용
##그러나
오늘날
실제로
됩니다
주기
이적
정확
발달
소설
반면
지나
기여
부산
##기간
거두
행위
부상
오래
##각의
보장
insert
사이트
향상
마찬가지
오른쪽
법률
도착
기초
주연
##인데
장비
방안
입장
절차
북부
##어의
잉글랜드
##녀의
행사
최소
##로써
레코드
##운동
선발
배포
영상
도로
작전
변수
시행
파리
체결
체제
경찰
반드시
스스로
##There
##존의
이곳
공급
폴란드
인한
인수
뉴욕
어댑터
##후의
소스
연합
전략
비즈니스
연동
조치
자주
파괴
사전
의회
##결과
동작
조약
센터
유래
시설
speci
password
번호
##Cause
실험
세포
더불
달성
정규
바뀌
공화국
가정
혁명
강력
스위스
영토
지냈
권리
header
육군
머리
성적
각종
##관의
##이란
##》,
비밀
##All
금융
buffer
장소
identifier
지휘
임시
중간
활성
플랫
네덜란드
##그룹
정리
해석
##사회
통제
##위원
##한다고
##수신
연주
회의
대중
헌법
측면
##도시
협의
패배
##가의
##자료
도구
묘사
실시간
##위의
메트
예상
시점
폐지
지적
거주
구단
바꾸
발행
캐나다
##교육
##Select
북한
##당의
올랐
나중
마련
금지
수많
작용
정신
ESB
근거
총리
##태의
정권
핵심
아시아
검토
##토리
입단
사진
Client
주제
##사용
경계
정식
##환경
지명
집중
##',
런던
왕국
출판
##운영
규칙
교체
물질
집단
부대
##아서
이듬해
##일반
아프리카
품질
단일
의견
##관계
베트남
중화
##이러
자동차
모드
왕조
지상
차례
협력
개혁
치료
지도
##기능
##대회
국립
완성
원칙
투자
통계
해군
##계약
후반
##회사
##대상
지식
서부
성격
##기업
클래스
결성
객체
통치
간주
수가
에러
지난
경쟁
쓰이
##사용자
파악
보존
새로
장관
복귀
SSL
만드
공통
어플리케이션
단어
분포
##Action
남성
##해당
민주
이렇
파견
물론
적극
##As
통해서
bytes
##량의
Configuration
##단계
나누
##이후
복구
은퇴
카드
##Each
일종
떠나
편집
##는가
공사
표기
##계획
패턴
타입
권력
##시즌
##‘
무대
MTE
관측
세션
비디오
CICS
인하
녹음
전사
여전히
제조
메모리
##전의
체포
몇몇
##Click
버스
지급
소개
##분의
특수
상당
##상태
태양
항상
대기
제기
투입
대비
컴포넌트
##"(
다루
근무
일치
완전
통일
스웨덴
##세계
강조
##민주주의
항공
방영
물리
단순
문학
##한국
##송신
죽음
캐릭터
조성
##지방
requests
사례
지도자
상세
가격
query
충돌
기회
담당자
반복
철학
지위
빠르
##규모
스포츠
예술
종합
순서
직후
기사
우선
국왕
개체
##질의
##과정
정치인
##소의
개별
##의원
부정
##활동
nodes
은행
반란
집합
configure
어떻
강한
수용
여름
평화
##업의
논란
개봉
약간
상징
##거래
동부
보도
언론
해외
이래
제목
가까운
교통
관점
미래
장군
##기본
주목
하위
합의
지진
복잡
관할
거대
알려
바다
동생
이루어지
지시
합류
인사
위협
추출
타이틀
회장
이용한
보였
보관
수학
##시킬
servers
##We
떨어진
##특별시
배경
연장
세부
계기
승격
근처
투수
훈련
subscription
공부
박사
너무
촬영
##시킨
행성
아내
득점
##시장
인천
##마의
가입
주소
경영
나무
공항
인근
노동
정지
도중
부인
서식
개통
##따라서
직원
귀족
dynaTrace
증명
요건
갖추
방어
repository
클라우드
국회의원
대구
##조사
이행
즉시
##문화
지점
세웠
점차
신라
일어난
제정
LOB
소리
##국가
다리
별도
##통신
회원
폴더
##만의
채택
종종
건축
##시험
부른다
식민지
확정
##산의
잘못
번역
숫자
##과학
구역
고등학교
가상
본선
투표
##업체
비율
trigger
국경
adapter
상품
##더라도
공공
##라도
기계
##—
보냈
할당
자세
필수
계정
강제
그리
환자
##단체
성립
하계
##연계
##형의
만들어진
상업
의무
식물
의해서
##등록
무렵
이외
부하
프로토콜
동기
specifies
전개
오픈
##으면서
업체
병력
##Oracle
connector
소재
공작
디렉
##사업자
뮤직
button
delete
##아야
당선
##성과
예측
무기
계열
##자리
나가
동의
보수
방지
연관
자격
##표준
##의의
내의
만화
아일랜드
성과
##트리
총선
authentication
Transaction
그곳
##After
##보안
분산
##MTE
thread
모바일
적절
folder
fails
관찰
구동
이번
##연구
매핑
결승전
##미국
건강
구체
대화
스튜디오
의식
마이크
포트
기대
헤더
기념
미치
학자
입학
빠른
해안
양식
부모
흐름
##그림
동료
나온
이집트
본래
광고
인력
definitions
전반
##치의
##모든
신규
병사
형제
그래서
해야
##정책
##일본
종목
일제
transactions
계승
무역
동맹
현황
도달
##인민
국회
발사
경기장
명시
syntax
현실
세상
##2009
플레이
##체계
조지
한다는
디스크
에이전트
업데이트
##은행
학문
예선
logical
##면의
재직
##조선
오스트리아
그해
##페이지
##다른
##구분
reply
공장
##아래
트래픽
##장애
탑재
이루어져
정착
화학
멕시코
##에게서
위기
붕괴
적합
엔터
조각
##족의
취소
군인
전역
훨씬
지하
로드
갖춘
부근
여행
주인공
##문의
즉위
진화
ESQL
개정
##로서의
개발자
불과
증거
호스트
한다고
참고
##당하
##조직
영업
configured
스타
불교
오후
심각
운용
표면
요리
만큼
##문서
혐의
WMQ
##라면
##외의
밀도
##협회
나왔
회복
##해의
안전
살해
이내
이루어진
왼쪽
만약
경력
##당했
감염
##프로그램
##품의
외교
침공
지내
중심지
MQPUT
매년
경향
##Explanation
독자
홍콩
작동
중인
오르
고유
##2008
##작용
하루
해체
추적
조합
마치
합병
##경제
불린다
##구역
##전쟁
윈도우
고정
대륙
##의회
전혀
위의
범죄
가졌
원정
##특히
현장
온도
몽골
지하철
대형
##메시지
요구사항
사회주의
##역의
##라며
순위
임무
##Using
영향력
##학년
장면
궤도
유리
만족
NULL
##법의
액세스
월드
##평가
구별
출발
일원
##산업
논문
이끄
##만약
브라질
광주
##법원
시각
어떠
##sharing
학위
##》()
##권의
신청
유로
##대전
얼굴
##내용
농업
가톨릭
해제
양자
얼마
공화
뛰어난
##based
사후
위성
점검
세우
나뉘
수입
전력
전용
##한편
장기
##분석
##에선
##구조
##장관
병원
참석
그런
리턴
SOAP
재정
링크
체크
귀국
취득
##'(
대립
위원회
##Check
일어났
레벨
기원
명명
바이러스
협상
##업자
저항
다섯
플로우
##보호
논리
신문
##click
##Specify
어렵
##작업
조금
기후
본격
불렀
무엇
##시킨다
장착
앞서
기동
기억
떨어져
신뢰
분할
##By
##시설
출생
음식
무장
성인
사유
특이
##고등학교
제임스
##요청
dialog
내각
processed
이스라엘
##수행
수단
반환
식별
##방식
수사
##만큼
왕위
패킷
질량
돌아가
청나라
당하
편입
잠시
토지
준수
리스트
확산
##제도
이어지
##--
##언스
미디어
태어난
대사
논의
descriptor
홈런
연맹
신호
##다의
장식
강하
##였을
단백질
개편
초반
중반
지키
스마트
인프라
신설
태어나
거절
이익
##Any
초과
마우스
위반
##카드
’
인터뷰
차원
그린
##2012
listener
원소
지대
##2014
잡지
##우의
유도
로그인
미사일
상위
취급
##파의
남편
의존
##화면
누르
전시
핀란드
고전
분자
중의
##세대
우수
정하
인정받
재판
일으키
##고는
오히려
터키
비난
##나가
감지
아주
##왕의
##쟁의
향후
상당히
추측
노동자
취하
##또는
##Create
해서
미리
commit
남북
협회
MQGET
##밖에
##교회
이사
##문제
오스트레일리아
브랜드
보급
##Specifies
스타일
마드리드
제대로
신경
복사
강의
##++
##500
약속
##테스트
겨울
계층
항복
고용
주관
##인터페이스
조작
수익
그래프
덴마크
전차
전부
##2015
##공원
갈등
필터
전문가
재산
했으나
출마
선의
다운로드
이용해
수출
##’,
서명
##2007
##민족
천황
##거의
나타난다
시위
##2016
민간
##번의
범주
흔히
선고
수요
##용의
태평양
후기
오랜
->
연대
라인
다수
중지
modify
바람
감정
소요
구성원
교사
예외
신학
신화
근대
공군
노예
알려졌
러시
지연
창설
보낸
포기
경상남도
해방
##설명
##인가
폭발
요인
전화
후손
##단위
교환
##설정
기구
가사
유닛
투어
전라남도
위원
아키텍처
차세대
은하
생기
##기록
##고서
직전
방출
이슬람
주위
복원
##방법
수급
restart
포지션
정복
맞추
우크라
조절
열리
트리
의료
수여
포맷
부담
execute
보고서
deploy
분쟁
신속
##구성
##사단
진입
의도
필리핀
##모듈
미군
요새
##우리
##공사
알리
들어갔
고구려
기획
앞두
##그리고
MQSC
호수
알고리즘
구매
##차원
##2006
슈퍼
소장
##%)
##체제
장악
명이
고도
##개국
차단
개수
모스크바
Connector
유효
메이저
콘텐츠
오사카
메소드
올리
코치
연극
고향
손상
이제
견해
소식
Developer
오전
runtime
산맥
민주당
##합의
자금
무시
비행
불렸
시인
integer
##심의
우려
계급
##소프트
문자열
윌리엄
암살
노출
##사이트
지니
종이
##public
절대
##탈리
##전송
충분
##해졌
올렸
##뷰트
선거구
변형
JDBC
흡수
가리키
시의
금메달
외국
저작
유엔
집안
일시
##프로젝트
탄생
열렸
##요소
항성
등급
messaging
편지
손실
풍부
혼란
블록
대략
Dynatrace
저서
##호의
차별
##공화
삼성
정기
##없이
바랍니다
##2017
##정상
##버튼
아르헨티나
##면서도
카메라
속하
본인
##행위
##항목
MQI
죽이
세운
LDAP
실현
##토의
##기원전
##level
##채널
##Message
자치
##선수
충청남도
클러스터
##기준
별로
##로운
##당시
거기
##NAME
interfaces
옮겨
##조건
철수
IMS
접하
멸망
매니저
대항
강원도
역대
토론
enables
비록
공기
반발
보여준다
글로벌
간단
##항의
다니
중화민국
rows
상승
##전자
날짜
단지
유전자
정체
##스럽
##생활
모니터
cursor
베를린
루이
채용
유학
스코틀랜드
부서
나타났
내렸
전파
성경
##여부
압축
감사
##No
금액
먹이
금속
누구
대외
실질
전해
하드웨어
추구
MQMD
전후
공원
라이브러리
무리
점점
정비
내리
학습
플레이어
호텔
한때
편의
팝업
챔피
##비트
소비
준다
##문화재
용량
마리아
어려움
판결
##사건
##변경
라이브
##해도
꼬리
##다만
##행정
correctly
##일자
청년
한글
논쟁
트랙
##부대
##2005
베이징
예산
진단
인민
##부서
법원
철도역
진압
일으켰
##기존
경고
건립
텍스트
FTP
##여기
본부
생명
##스러운
극장
##련의
손해
탈출
내역
나와
흐르
인지
wizard
본관
##연대
결승
##Data
여겨
새롭
##임의
한계
건조
대량
독특
중부
동원
주전
움직임
##지대
##모의
경주
사단
직업
송수신
기록물
전원
##안사
주교
##〉,
변호사
불법
터미널
영입
하늘
명단
##했었
떠났
##String
##2018
중세
벨기에
컬럼
도메인
기재
##에서부터
건수
##하나
##어도
양성
압력
성질
솔로
속한
아메리카
깊이
포인트
복제
포르투갈
공산당
##배치
specifying
##이상
통보
어린이
##라운드
승진
신체
태풍
그런데
맞이
군주
외국인
##금액
음력
쿼리
장르
피아노
생물
명확
연간
대개
인종
감시
증상
##Open
처형
##중앙
##Some
가스
헝가리
작곡가
박물관
##User
향하
어려운
##금융
모르
유전
##Figure
##defined
중복
전공
공포
현지
##From
명예
##–
##입력
문장
##HTTP
탈락
홍보
##내의
해산
형상
울산
스크립트
##시티
카운티
포위
SOA
##연합
추산
출장
전설
deleted
허가
악화
##Because
에도
동계
패키지
##2020
프로듀서
출간
느끼
마침내
부임
마시
기법
입자
##객의
소년
이관
유연
나타낸다
##방의
구하
##유지
창립
브라우저
임금
##응답
아이콘
흑인
개방
예수
산정
지닌
업로드
인상
가이드
제자
코미디
발언
##법인
##능력
회전
##개인
발굴
육상
수치
구입
활발
접수
##부분
##전체
##관련
자살
가진다
교류
BusinessWare
나아가
속한다
소수
기기
확립
##Set
의지
청소년
싸우
배출
히트
생존
리소스
##설치
단독
어디
항구
##스턴스
연구소
떨어지
청구
지낸
별명
용도
향해
시에
워싱턴
연재
벗어나
목소리
##서울
보완
##다며
충족
##With
이하
개입
명령어
##포의
태그
상륙
따로
보조
의심
망명
자녀
##영역
포로
##선거
로컬
명성
의장
방해
아침
본사
합성
사태
나치
고급
blank
##장비
##스타
기지
줄이
선생
상하
Script
명나라
분열
메인
플레이오프
prompt
##판서
##료의
오스만
수준의
이승만
교토
##한다면
##Description
##중의
공정
폭력
합격
한반도
EJB
오랫동안
원격
인접
##장소
원리
selector
추천
질병
사임
방면
항공기
미술
싸움
##연구소
둘째
수비
##2019
횟수
문화재
invalid
##특정
##주년
연안
혁신
장점
##여자
##2004
applies
##악의
비례
유나이티
예방
신성
encoding
pane
밝히
기호
공주
소비에트
함락
##이름
##조회
고문
일대
##정치
헨리
가공
##듯이
액션
들어오
##국제
광범위
피하
복합
프리
장교
시티
icon
콘서트
함대
한정
##변의
토대
좌우
전선
##영화
원작
등판
HUB
Create
평양
##클라이언트
완공
전면
수술
대가
마리
##본부
##보험
규제
자라
제주
협정
다소
인쇄
관직
삽입
아이디
##Before
##동시
Node
parser
##민주당
초등
여객철도
##분야
구속
치렀
확실
##나의
움직이
그때
##발생
##모코
절반
훗날
화재
이중
로버트
##At
문헌
인권
인류
부부
타격
주식
수동
관여
서면
태도
신앙
터널
##확인
접촉
농민
부진
집행
미국인
##인증
백작
등지
Length
실수
법칙
창단
순수
검찰
부활
Request
아카데미
##시작
가을
그래픽
아무
에피소드
침입
발발
사령관
양쪽
##플랫
소녀
호환
##관리자
XA
해상
##는다는
창조
유용
심지어
##유형
주문
invoked
원년
번의
메시
순간
초점
간격
전형
보컬
##…
천체
##중국
연합군
요한
남겼
오브젝트
기둥
현역
희망
##현의
빌보드
유대
##적의
verify
해도
제약
사장
자극
통상
매일
개조
원자
##이전
서양
완벽
##제공
무게
##Enter
##방안
출범
##장치
마스터
카를
도출
처벌
무덤
충분히
용이
##테이블
선조
챔피언
밝혀졌
복무
충격
Error
##등급
업그레이드
시나리오
승객
##One
##화의
##행의
##정도
점수
##제품
batch
ebSpher
##They
##인력
유통
bean
updates
불만
분위기
세종
여겨진다
##Ensure
로스앤젤레스
병합
##2002
오직
functionality
버리
목사
유출
전라북도
긍정
엄청난
상원
##기구
##ESB
##편의
##등의
문제점
재료
관료
구원
매출
진정
도전
가까이
##자원
로봇
이어졌
시내
최신
모여
영지
MQSeries
한국어
아시안
##달러
##결정
##Once
수원
주둔
Log
파라미터
마무리
연료
##음악
만주
쓰인다
자바
캘리포니아
전망
##외부
여론
신분
##스키
logs
말기
##다양
##MQ
일상
탈퇴
성당
##병원
당사자
##엠시
과제
ignored
올라가
고종
모아
참전
태어났으며
##그러
마이클
의학
베이스
sender
속해
DBMS
subscriber
고통
##Do
당했
JEUS
공헌
오페라
손자
배열
질문
신고
개설
수소
계곡
아파트
거치
지불
막대
기도
플랫폼
retrieve
매체
심사
자식
뿌리
글자
보증
##미터
##색의
##성능
통산
나폴레옹
유적
주택
진보
운전
WAS
##다시
공산주의
고리
threads
WSDL
사운드
최다
##%,
신자
AIX
뉴질랜드
계통
조별
받아들이
아이템
주인
석유
폐쇄
전신
유행
남기
가담
사형
##상황
원사
촉진
도와
코로나
로켓
##석의
변하
임대
##출력
서구
임계
벌이
##백만
위로
이슈
본다
백성
단순히
멀리
침략
컨트롤
##세포
편찬
정렬
##모델
공동체
본질
##대한민국
##공의
##소프트웨어
선전
보병
##방향
연출
##고도
줄어들
수리
분노
가설
##고객
소송
양의
##’(
소멸
##수정
상의
##담당자
##위원장
##투자
근본
##처의
##2003
대대
지향
정확히
##졌으며
관광
마크
저술
주력
시리아
맞서
##헤더
사양
##설의
Add
##이하
돌아왔
지은
공업
##순위
지표
pointer
크로아티아
모형
세트
영구
임기
인원
template
코어
보상
##API
##거리
##천만
동적
한자
##필드
이라크
##안정
시청
##강의
옮겼
발음
리더
연산
SET
##조치
고양이
막부
갑자기
호의
세금
무료
##mqm
소비자
발휘
갈색
태국
과학자
벌였
세대
기체
유대인
유발
건축물
가게
##모드
수도원
SYSTEM
생긴
긴급
상실
만났
대수
건국
신용
파트너
##비용
드라이브
총독
의혹
##>.
공무원
넓이
##->
이기
법인
##교통
경보
찰스
멀티
허락
성분
사냥
만한
타이완
지붕
##격의
대체로
제일
느낌
집권
갱신
##LENGTH
namespace
혼합
통화
바닥
재학
세워
간행
호주
후원
데이비드
##UX
invoke
프로이센
위원장
화물
노르웨이
재건
만든다
이주
##마리
음성
빠져
단편
색상
##편성
사원
##삭제
개칭
##사우루스
##현황
학살
개신교
EIS
힘들
대선
확률
ofthe
장남
분해
설득
##Therefore
변동
##기타
##네트워크
민주주의
어깨
##지구
충청북도
박정희
이룬다
##규칙
##동물
타이
광장
이혼
##비의
##MicroStrategy
신인
GUI
입니다
준우승
본명
프로그래밍
테러
산출물
서술
축소
물체
##오의
나온다
##전이
##목적
연락
도서관
약화
##우주
중대
##이때
입찰
전철
##Table
##자세
산하
인도네시아
게다가
재생
##인터넷
왕자
선호
##오류
container
specification
manually
레이
추방
privileges
exits
##Response
블랙
하원
발탁
수의
비중
COBOL
축제
걸리
번주
##Windows
##XML
협업
##^[
이른다
##게임
화가
선임
후계자
##연맹
결론
기소
##개혁
탄소
원형
독일군
하여금
편리
박스
##Also
후속
건너
승려
##subscribe
인용
##사람
사무실
##What
UI
경성
수송
##이론
협조
진격
당사
##황의
챔피언십
일체
약물
##작의
항의
복수
주석
내놓
세인트
분명
상용
지침
설치류
효소
##조차
입증
선포
##기반
암컷
checks
행하
혼인
투쟁
##속도
구글
권장
매장
가리킨다
라틴어
정원
당나라
유기
심리
살인
매개
악기
라우팅
시카고
지역구
metrics
주최
프리드리히
물건
잭슨
아랍
업적
보물
비즈
당초
아테네
콘솔
Connect
이른바
원활
사무
타자
numeric
불러
아동
올려
##내역
주체
##블의
지리
##프랑스
화석
히틀러
재개
레알
걸친
일컫
##시에
##유럽
수십
##공간
특별히
정한
##필요
Specify
격파
##시기
블루
##버리
에드워드
QM
##역사
심장
##소설
저녁
자산
도덕
원주민
유물
서식지
예전
나뉜다
수석
거듭
##생산
일관
##HOME
매개변수
억제
##례의
위상
뮤지컬
칭호
비트
균형
루이스
##대학원
##~)
SELECT
내장
##letter
교리
무상
내지
화려
전투기
가깝
모임
가리
날개
돌아오
initiator
CCTV
보편
영웅
의거
발간
사정
##예술
문신
##2001
당해
후인
진학
벌어진
시호
keyword
embedded
재배
창당
급제
위대
##프로
##미의
권고
##아이
특허
브라
중력
##공개
##시리즈
바이에른
##대신
산출
마감
왕의
##향의
궁전
자율
파크
탄압
최소한
##마을
installing
여섯
##사고
사법
상인
권위
Console
안쪽
공중
##29
##Only
가슴
##How
##이사
애플
아티스트
메이지
구멍
##박물관
##프로세스
집계
조카
프리미어
홈페이지
연고
나타납니다
롯데
지형
이어서
아름다운
지칭
배정
남아프리카
시조
침해
프랑스어
노벨
대다수
멸종
내전
시정
선박
증언
실력
영화제
극복
가질
이웃
##Queue
MQOPEN
소집
가용성
전제
습격
흰색
중학교
커버
—
성향
규격
고등
징역
군단
가량
관하
미니
영감
덕분
공로
##구축
유입
전직
최대한
##사이
상자
##저장
로직
사퇴
상표
대로
직무
결함
만다
강요
가져오
예제
##자동차
해양
##에러
착수
종사
개명
싱가포르
##이닝
인디언
정차
##효소
경유
예비
아무런
logging
##Now
trademarks
드물
스토리
일본인
directories
취약
따른다
addresses
흔적
접한다
자본
우측
한국인
##검사
이온
##영국
돌아와
재즈
불안
persistent
수컷
초래
이력
출입
##인과
일환
##제국
라틴
수업
파생
사제
ALTER
##공학
metadata
페르시아
코파
대처
##차례
언덕
##인조
조선총독부
GET
도모
속의
##온라인
##주기
적어도
##비디오
법령
폭탄
일으켜
산소
가난
brokers
Customer
##절차
분기
##Your
##Add
파워
통지
백제
내셔널
방송국
##아도
식품
임진왜란
붙여
##연결
사업자
authorization
##된다는
선로
주지
LOBs
##전하
혼자
추기경
각지
포스트
##06
일본군
음악가
프레임
태조
받아들여
강등
##플로우
라이선스
홋카이도
##etc
감각
마케팅
연설
녹색
##File
개량
##리포트
벡터
나열
웨스트
생겼
login
##')
농구
와서
initialization
다중
##청의
치르
타율
베스트
발급
엄격
##누스
##조정
##문학
최적
뮌헨
##추가
조기
불상
##안전
explicitly
레이블
주식회사
석방
##암호
재무
백인
##교수
일괄
비행기
대학원
나갔
##로스
은메달
##범위
inthe
군의
피해자
살아남
왕비
거점
detected
scripts
##함수
##건의
라이센스
##Dynatrace
##는다고
전술
바위
##주요
탄핵
##세력
소위
서기
후임
작위
가속
Repository
합계
##통의
바르셀로나
스마트폰
지능
기다리
피부
국방
압도
구문
FROM
Socket
일자
##specific
의문
루마니아
##Application
빠지
해발
##종합
독점
메일
##과제
##Integration
그리스어
동메달
저자
더블
부친
시신
##value
자본주의
동서
밝혀
지구의
학술
착용
태양의
스토리지
permissions
##300
##으니
##독일
##박쥐
언제
고속도로
철거
캠퍼스
방언
탐색기
아이디어
타임
커다란
##byte
조조
첨부
화제
##술의
하나님
석사
보험
##의식
##Here
##;(
자랑
판사
쿠데타
##선택
조상
CREATE
증대
골든
주어진
--
##송의
늘어나
##민의
무력
실적
그러므로
적도
##위한
세리
최우수
서브
tablespace
아이돌
저지
##Returns
납품
당국
북서쪽
목숨
##경의
##특별
비상
결심
##물질
리드
##Make
##제안
부탁
이루어진다
##부문
융합
부장
실천
배제
retry
왕실
##1990
점유
##나와
훌륭
약탈
폐기
원시
##고등
##초기
마이
일단
국적
##클라우드
체험
형사
액체
##보증
상주
종전
커뮤니티
넘겨
##학회
새끼
찬성
북미
처분
국토
Sync
도쿠가와
##완료
부품
화산
여왕
컨테이너
드러나
##느냐
진영
리처드
선수단
##민주
물리학
mqm
##;,
지체
##’)
포괄
수백
오른
가끔
사라지
법안
할아버지
소규모
컨설팅
패션
##금의
나섰
프랑스군
뚜렷
강도
관계자
##타의
대만
JVM
Deployment
##연의
고안
미드필더
##시스
옮기
출현
합리
이민
##박스
##설계
절감
##절의
적응
##256
케이블
초청
##〉(
저하
얼마나
남동쪽
시키
##생의
가동
##국민
##약의
꾸준히
선물
라이트
##WMQ
법정
동해
김일성
##마저
연습
결의
때로
생물학
프로세서
##자치
##판의
하우스
packages
제사
용역
현금
드래프트
부지
물고기
민중
대책
후퇴
##증권
수직
상관
인생
천주교
올스타
##베르크
북동쪽
국제공항
세워졌
이념
현존
각본
##사상
고속
돌파
축적
집필
올라
##1999
파키스탄
SDK
##중학교
법학
그럼에도
기리
##Java
식량
##소스
##해진
서방
레드
힙합
구상
배웠
동영상
##검색
템플
근육
##로그
dump
하드
수반
선교사
행복
물품
세월
##시민
과업
입대
Managed
조항
장수
탐색
극대
##지금
세르비아
##05
##투표
발주
identifies
라운드
##한의
mediation
가구
혈액
개장
##강전
심판
나타난
사과
timeout
determines
곧바로
LU
건의
동방
##학원
##07
희생
관객
쓰였
##노드
##무의
신부
##재산
startup
등도
무릎
스미스
중점
돌아갔
성직자
상처
임신
##변수
정면
headers
소문
##2021
진주
정교회
##Refer
개성
validation
밀접
##03
##실의
태종
호소
추대
incoming
사기
재임
메커니즘
##감독
##통제
유저
protocols
총괄
제니퍼
첫째
##하우스
바깥
나들목
proxy
효력
##규정
잠재
##어댑터
클래식
Toolkit
##형태
generates
정교
상대방
입사
펼쳤
##전략
Tmax
거친
요약
주류
밀라노
MQRC
소득
##영상
무관
극단
사막
임의
Config
교역
##목록
JNDI
##Please
모음
내려
창작
향토
학사
시사
##일부
인공
PowerPack
보스턴
맨체스터
프롬프트
외의
대안
발명
유력
분화
증권
Query
열매
##학위
쿠바
훼손
주니어
오스트리
바르
communicate
메타
##That
지자체
선두
##한지
감옥
무선
##Business
사물
쇠퇴
화이트
지휘관
스탈린
##든지
오토
다이묘
생애
문명
순환
subscriptions
디자이너
부속
운항
칠레
전주
재능
빨리
리가
되찾
승강
##효과
주간
가하
##사령부
남서쪽
가르치
소화
철학자
탐지
##전한
##대부분
##내부
개국
완화
##혁명
rollback
표본
가시
##투스
국방부
##공식
workload
수천
남아메리카
흥미
보건
공산
직위
##활용
영주
매각
##부장
인증서
겨우
유배
협약
전당
믿음
==
##While
Insert
##예의
##Start
총재
아프가니스탄
고시
gateway
정수
Default
##지도
샤를
##준다
routing
##된다고
queries
생태
browse
Header
비하
진술
농촌
JSP
##Then
##병의
중계
Load
이용자
Batch
드러내
가로
빼앗
봉기
##성당
운송
사망자
사용량
##트랜잭션
##So
새벽
##Web
##승인
##실행
신장
평생
copied
queuing
대결
양도
체코
야당
브라운
단선
handles
세워진
설비
일어난다
MRM
줄기
아메리칸
자손
##주의자
데리
profiles
##학교의
강점기
화성
조화
공세
총장
공학
조지아
Exception
심하
##server
clusters
이메일
리눅스
일찍
##전화
인자
섹션
판정
진실
창이
대법원
OCI
##점검
##바이러스
동굴
김대중
##표의
병행
스크린
실내
미만
nested
빌딩
matching
면역
트레이드
##기동
간접
##사랑
닥터
전해진다
일으킨
##플로
RTT
사찰
##Server
##인간
국정
상속
살펴보
아마
정조
##줍니다
티베트
유고슬라비아
차이점
화합물
전동차
테이
스타디움
##이것
##Other
해지
위탁
선형
수명
모리
부과
테마
요코하마
##Although
PCF
기용
referenced
##마이
기부
단층
색깔
##메뉴
바이트
야기
그려져
청주
머물
불가
골키퍼
##1980
Component
반도
모집
중시
과도
유튜브
구름
##공유
돌아온
##님의
##현대
중동
오늘
항공사
동등
생략
후의
##09
항해
벼슬
추세
##최근
당신
올린
압박
부위
##종이
경제학
투구
나폴리
행렬
베네치아
최적화
재난
숙종
대조
##AMQ
##상자
선보였
하느님
WS
질환
불가리아
산화
단축
마틴
plug
소형
적색
닌텐도
김성수
정합성
드라이버
하이
규슈
##적용
즉각
자가
Example
텍사스
##Type
##문자
진나라
##바이트
펼치
예시
##다운
##훈련
취리히
수영
필터링
자이언츠
나타냅니다
##1998
##국장
복지
transactional
캘리포니아주
##재위
육성
서류
인가
재위
terminated
컨텍스트
놓여
대리
고기
##포인트
MQGMO
##공항
메달
납치
##작전
맞춰
부유
##수급
기병
회로
분배
Everyplace
이날
의정부
회담
방정식
ISM
Options
박쥐
##08
와중
checking
일곱
공인
들어간
평소
때때로
##자면
가득
사촌
농장
전적
성명
통로
blanks
사자
##경우
사립
이탈
베토벤
부터
##동맹
정해진
변신
Workbench
알렸
##책임
상장
Cluster
자회사
##버렸
벌어졌
열람
부착
대우
칼리지
메리
쉬운
측은
workbench
패널
어워드
스위치
호흡
##종료
한쪽
취약점
계좌
서적
철저
평등
##usr
창출
몸길이
상단
디퍼
##지정
무슬림
곤충
지지자
subsystem
대칭
##번지
SCA
군수
인덱스
기온
만료
된다는
댄스
해소
##DATE
워크
invocation
심한
##연구원
##행사
종속
TABLE
고위
판매량
마쳤
만난
하사
사신
대장
여객
게재
##속의
BPM
기타리스트
일기
문법
##터미널
호조
권유
산지
소유자
오염
##공업
신의
집회
동사
입법
integrity
구장
교전
setup
clicking
거슬러
간섭
##철의
##군단
요미우리
padding
##고려
신임
존슨
본토
##라인
입지
##only
주어졌
migrate
싱어
사격
셋째
운반
버퍼
MQRFH
환승
피터
전향
내내
아마추어
UPDATE
공룡
오리지널
전문의
허브
합동
정통
AWS
토너먼트
비동기
사도
##Client
몸무게
토마스
유산
그리스도
##800
없애
Rational
##Alternatively
##이타
##MQLONG
왕립
기점
해임
##명령
타원
거인
token
불편
라이벌
defaults
바둑
##나이
벌어지
##가장
일행
동양
##
영혼
투명
##formula
##안타
##가격
offset
##작가
부동산
늑대
##솔루션
Runtime
##스마트
루트비히
호평
##인치
CSQ
용인
토벌
샘플
별칭
순차
양국
##차량
걸려
correlation
약칭
머물렀
오케스트라
식민
##기기
##버전
##에너지
##앙의
평면
결재
컨텐츠
##끼리
##주로
회색
찾아가
유한
그리드
단점
자치구
여신
존스
아마도
##대사
##모니터링
상기
준공
대공
중립
##범의
오디션
뛰어나
스프링
주재
원조
유치
queuemanager
눌러
##때문
##후보
퇴각
연구자
##경찰
##대책
인터
간부
회수
질서
패치
throws
##여러
##info
##연합회
assign
##루수
시계
경쟁력
부처
마주
리듬
영조
백신
센서
스펙트럼
둘러싸
웨일스
KBO
Input
##City
##공무원
책임자
아르
##37
신하
옹호
컴퓨팅
전산
관광객
##환의
##국내
ERP
물러나
대시보드
캠페인
##정권
##분류
##_*
각기
섬유
##야구
##아메리카
탐사
요원
버렸
다녔
##신청
매뉴얼
아트
##Otherwise
타워
주어
##생명
캐시
민간인
연령
모험
##Since
역량
certificates
발효
##일식
prefix
Controller
수상자
발족
시상식
잠수함
파라
기관차
수장
##600
프레임워크
##초등
다운
노인
issuing
고지
객관
매주
모시
업계
붙이
고립
무산
예루살렘
성벽
정계
##유의
표지
곡선
배급
##레이
원수
datatype
까지
##디스크
##아니
원자력
RDBMS
##한데
동전
전의
대한제국
서서히
##기압
##1997
지중해
##할지
구사
##언어
APIs
##진의
##요구
사료
곳곳
지나치
농도
자매
##학부
발송
부패
샌프란시스코
얼음
입구
윤리
OneAgent
checked
참가자
제의
스승
친척
우익
##차별
추락
향한
사라졌
서독
쇼군
그동안
자문
IDs
들어서
여동생
공략
##열차
해협
##천의
설이
##가치
selecting
관장
거둔
디즈니
##발전
떠난
수감
##TCP
지목
엘리자베스
당대
랭킹
특유
##EXEC
귀환
프랑크
수비수
마법
##뱅킹
##001
고개
적의
##".
Activity
##협력
자국
어두운
encryption
모으
그쳤
성의
장편
교차로
경상
##소속
동반
##공통
당일
약한
PurePath
##사실
민감
이동하
일어날
매력
개척
엑스
화폐
연루
##
모순
##Right
##영의
필름
##자마자
독립운동
메탈
##앨범
마친
마케도니아
제반
##건설
디스플레이
훈장
##협의
warehouse
제주도
겸임
채로
##온의
##1995
하도급
~)
조종
최상위
동일본
##군사
identi
저택
##정당
비틀즈
##군수
##Change
황금
dynamically
목격
##공동
##복지
##원래
총회
몰락
##1996
망원경
시집
서인
등재
##목표
지분
##자고
##선이
포유
상이
상수
루트
여인
##Messages
교차
창간
##원사
십자군
##Security
##담당
문재인
reset
bucket
당한
의석
입문
Mapping
##상대자
독재
무늬
미들웨어
##축구
비평가
##쿠스
##위치
##길이
부통령
신전
자세히
등장인물
공전
##선과
##대대
유해
제휴
알파
황후
##화학
계약서
##자금
##께서
##어질
크로스
폭격
URI
요금
역의
남녀
포르투
대령
시체
의뢰
누적
##홈런

##여서
충성
서울시
##수준
연주자
기념물
가져왔
조류
포항
##ERROR
왕족
발현
##폴리스
나서
유역
##1970
멈추
##의학
Installation
##광역
동인
##저의
전남
득표
정벌
왕복
떨어졌
반격
세기
다룬
세균
##보병
상대식
경남
국기
##신경
기상청
notification
측근
상영
privilege
##상품
휴대
terminates
북동부
남긴
##처음
내륙
쓴다
반사
전북
착공
paths
##참고
##이런
##ISM
밀려
나고야
##리스트
overview
##자유
안드로이드
재단
정점
주가
단말
중재
개막
심리학
초연
##분기
정서
##시절
##카이
아울러
##새로운
##Optional
국무
급격히
실업
옛날
주자
상소
회원국
심의
보정
이어져
##인구
##여성
오버
다큐멘터리
동화
좌파
소통
들어온
엔드
지각
분지
하단
진지
가르침
언제나
스릴러
Administrator
executing
##동기
바라
스레드
대답
Storage
차체
java
책봉
##록의
##생성
배상
캠프
파티
조명
격렬
사우스
##user
아웃
##행동
##스카
##1992
##신라
Compute
세로
호칭
##러시아
후쿠오카
빅토리아
경과
며칠
달의
어릴
프라
조언
미쳤
##1991
MQINQ
알림
사적
당원
넘어가
섭취
박근혜
불화
던지
무한
끝내
회계
㈜
암시
좌익
감안
지수
##*)
##회장
##이용
##보장
탑승
출산
##이렇
##데이터베이스
##열의
게이
바닥글
Commit
관계없이
implementations
나타낼
##공장
##전선
트럭
시범
##공단
단종
graphical
인공지능
용기
촉구
죽였
합법
##스테이션
경전
##역학
식사
히로시마
진군
##변환
stack
급격
종족
##매니저
##Service
유무
부당
둘러싼
이은
과일
즐기
스티븐
북아메리카
thefollowing
베타
당의
고민
관제
예술가
수학자
승무원
방위
하천
##요건
무려
수량
일자리
defining
주립
자유주의
지사
중구
원천
NEO
산악
##스와
##AMD
수령
##전기
합쳐
##Most
##스리
야생
퍼져
된다고
강릉
프랑스와
여겼
인디
제작자
로스
원나라
INSERT
자발
전류
HA
##자연
문과
##장군
과장
페이
종의
시켜
마법사
##보이
그랜드
국군
중의원
존중
logged
공급자
상임
##www
##개선
유비
##자동
##39
존경
치열
무거운
드롭
##주일
태자
##매체
IPv
##철학
해리
국민당
착륙
사면
##로마
판타지
나선
Import
지름
무사
##지식
엑셀
##풍의
안의
직책
##같이
선행
##관제
##도와
하버드
##효율
##1994
##학의
광복
토머스
accessing
파트
거짓
Settings
destinations
김구
도서
한동안
교향곡
##MSG
##신규
싸웠
전장
운명
센트럴
##도서관
달려
따뜻
공격수
redo
##집단
조인
##Chapter
팽창
관중
##디의
위임
대사관
CCSID
locator
##재판소
스키
직면
공국
##로드
##조약
조선인
아르메니아
WHERE
ODBC
##1960
##주식회사
경비
전승
소설가
건너가
##During
걱정
노무현
목성
##Name
오스트
반경
##ROM
에어
노란색
이어받
민족주의
묘소
##New
트리거
##변화
바라보
하락
골드
기름
정치가
##구간
하와이
지나가
페루
##Example
Pattern
##점수
사본
밀리
추격
천문학
탈환
빌헬름
음모
원자로
검수
하부
##짜리
##음력
##조제
##대장
DataPower
공모
asynchronous
매입
패스워드
건담
봉해졌
중기
명문
소니
스케줄
##모양
##1945
##Both
Module
주축
좌측
내려가
지휘자
##부사
##경영
##항공
대용량
기습
조달
공백
const
스톤
constraint
양산
##작성자
##작품
주파수
tothe
##하위
현행
##심사
홀로
일방
##오늘날
출판사
파운드
##왕후
##Creating
##Direct
확신
소실
우연히
항일
달린
거느리
BI
##Instead
컴파일
주지사
발전소
##포트
이른
인텔
##협정
외곽
##아들
계단
##1993
학부
적정
##독립
진동
표명
성균관
##아일랜드
##선조
비극
장의
느린
##복구
##"("
역이
역과
Filter
##이제
청와대
안내
##스가
도심
##타이
모델링
이틀
NOT
관습
공적
여덟
xml
BEA
Publish
##청구
subscribers
리투아니아
방침
타인
##준의
##최대
##인도
써서
건축가
##엔진
DISPLAY
알렉산더
TUXEDO
남극
##함의
자전거
보낼
스키마
수평
##연속
소셜
다를
##Is
보전
스트리트
근접
글씨
손가락
이민자
증기
대폭
시드니
모래
단원
간다
직선
디젤
개업
##700
차남
포털
경선
##SAP
각자
오디오
registry
오가
이의
문의
고조
##서양
크림
커뮤니케이션
광산
연도
축구단
위장
indexes
디바이스
##1989
마르크스
부호
강수량
정적
렌즈
노르
피트
천문학자
바이올린
##의사
구리
주행
Collector
관해서
흥행
단절
##레일리
크리스
…
##DATA
런타임
리스
궁정
이조
##백업
얘기
한나라당
게시
보충
병렬
로고
도왔
모방
차기
상관없이
아우
르네상스
##추진
executable
삼각형
선교
##영어
별다른
성서
##쥴
##당과
주어지
후일
lets
토큰
implements
configuring
부재
##가상
각국
북서부
파동
로즈
##’.
석탄
성씨
##사유
하인리히
중심부
##언의
보일
치세
베이스볼
##전사
사령부
##connection
쓰인
일찍이
답변
배터리
위쪽
난민
코스
커피
안타
##NONE
##역과
천연
흘러
앨런
취지
부른
콩고
##First
기업인
극히
결코
전념
##됐으며
학파
##MB
##응용
평론가
##가들의
##노동
고장
듯한
##포스
놀이
보잉
관통
좌석
빌리
이명박
블루스
scenarios
Output
리포
##참판
종결
미터
INTO
검출
데이
담배
물러났
중소기업
기종
경북
윌슨
섭정
격퇴
##비밀
궁극
산업의
트럼프
연호
caller
아예
폐위
##신학
특급
##직의
##협의회
completes
##일정
Tivoli
직장
사명
##경기장
카이사르
결제
박탈
##세트
일련
parsing
동년
##계급
커서
적대
##계정
대출
주말
필라델피아
##바르
고베
친정
선도
행정부
##평등
역학
영문
소재지
바이
진리
중순
유니폼
유신
##폴더
compiler
힘입
연평균
##위험
##기독교
flags
양상
다스리
##대외
강사
약자
##무역
유인
장인
피렌체
##속성
##위기
##보통학교
비잔티움
PUT
BLOB
정밀
바가
대주교
##Test
##부인
인재
서일본
credentials
야간
##Error
##1988
##갈의
본문
##프라이즈
*)
겸하
대의
##민국
Click
##But
신사
##root
패스
단추
납부
우위
인코딩
동아시아
빠졌
의병
삼국
팔레스타인
##보건
국장
스테이지
여겨졌
양방향
남겨
반박
Schema
이어진다
비활성
##미디어
##도구
##마지막
분명히
동로
특화
##manager
혜성
가르쳤
##권한
##학생
서열
##부르크
음원
페스티벌
물의
테일러
executes
구제
뒷받침
##친구
깨닫
이에야스
포켓몬
##그렇
기상
왜냐하면
고발
controller
혜택
##고종
방법론
##모바일
대행
우세
mapped
번식
올바른
topology
관해
사무소
카페
기하학
외계
유소년
시가
endpoint
전담
담긴
통칭
제네바
decimal
드럼
##누리
손쉽
##원장
##이벤트
중독
둥근
페리
예약
철회
출입구
리버풀
기밀
창의
##단지
##여단
##주간
아서
##최종
근로자
환원
송나라
##공급
##송라이터
주권
평범
별의
바치
부합
나눌
원했
##UNIX
APM
##회담
전임
##128
KT
신칸센
##통계
##공격
주거
환영
코너
생명체
##투쟁
합작
타당
해설
##극장
##자산
##소리
나의
please
계절
에이스
안동
캄보디아
두려워
##형식
##실점
시뮬레이션
들어왔
자민
explicit
문인
소금
위주
이긴
포드
무죄
##비즈니스
번영
##보통
사이버
생일
캐스팅
우주선
《》
대금
늘리
승부
##주택
앞면
##ㅇ
##재단
##계좌
상부
##베리
MQCONN
침몰
오다
Workflow
보낸다
반출
##양식
동점
수용체
추증
파기
##예측
추상
침투
거론
전례
견제
##축의
SYS
내린
장려
최저
현의
compatibility
좌절
똑같
테이프
##신고
##으려
tracing
스트레스
빨간색
목조
실체
점포
고체
제안서
동경
거행
이사장
굉장히
소환
##의료
##주가
신념
##검증
##치료
constraints
동독
명확히
술탄
개찰구
##Run
태생
부흥
자동화
제재
억압
지냈으며
disable
##중심
트위터
스페인어
탈당
연인
곡이
에스파냐
MQCONNX
명목
포격
해역
폭넓
TRUE
저명
함유
연구원
##Define
##과거
급진
그냥
성숙
##이익
후지
##비율
마약
긴장
고원
##실제
##XA
베이
임상
힘든
전진
동지
사당
재현
인조
차종
입당
강과
##종류
소프트
refresh
일요일
##주한
동남아시아
독립운동가
지출
##공급자
대지
##루스
공과
vendor
REST
##메이
여파
##1950
낙선
이빨
콘크리트
버킷
바에
결과물
macro
진짜
출구
엘리베이터
숭배
Installer
##풍속
##hPa
새겨져
소켓
기단
역설
내보내
원장
일화
만일
시청자
##마스터
존속
누락
##감사
servlet
##수단
찾아볼
유네스코
포수
해전
후방
노리
##정신
번뇌
Setup
적재
Tool
Layer
##바이
시내버스
물려받
연고지
##좌상
##지사
##확실
식당
USER
추후
유죄
들어와
성종
했었
비서
##서원
곤란
조립
칭하
리메이크
실용
##이행
analyze
QMGR
##토록
사이드
##척의
기독
##기사
Byte
경사
컬러
탐구
컬럼비아
미사
스페셜
회화
MQe
그만두
##시킵니다
reproduced
##스포츠
암석
##가리
가톨릭교회
##리우스
##타점
##현상
Trace
돌리
간단히
확실히
생전
케이스
첨가
에스토니아
username
도호쿠
홍수
키보드
친일
depend
invokes
Servers
역전
##단과
ensures
시공
##성공
빠진
##올림픽
유동
syncpoint
##요원
##Let
##시청
Trigger
줄여서
##전투
지류
여지
칭찬
아나운서
##SSL
Analytics
Attribute
주사
폴리
수면
##건수
##54
투옥
##우루스
시각화
치명
봉쇄
일족
제고
봉사
스콧
루터
개요
##호스트
connectors
오빠
의사소통
미칠
Warehouse
낱말
사이즈
##진행
열정
Tuxedo
##route
육체
유틸리티
파업
asterisk
BSDS
발레
체육
##망의
레이다
##공공
대원
네트
##식품
그날
자치체
교구
휴전
승점
##기획
총선거
스파르타
베네수엘라
그려
뒤쪽
도주
##방지
상당수
맥락
시초
카자흐스탄
부수
상류
들어간다
공습
##운의
결혼식
##이번
socket
동향
메타데이터
스트리밍
##지시
리뷰
##MGR
풋볼
빌드
의상
workflow
uninstall
쿠키
무조건
입원
흔한
자랐
받아들였
명사
디비전
날씨
공직
포크
##정지
##공주
##Thus
왜곡
인연
시골
우루과이
##보고서
##인사
크리스마스
안장
##TYPE
inbound
아기
포도주
buffers
표출
커널
맞춤
비평
미얀마
흔하
천문
호남
볼륨
출토
아래쪽
평야
BW
Delete
##Be
폭동
묘지
연상
##인식
나올
교섭
connectivity
기인
##발의
남서부
FILE
응우옌
##Setting
한강
학원
그렸
말씀
특권
전성기
세조
나쁜
문구
행해
김영삼
사헌부
만의
보인
전했
기갑
partitions
부천
잔류
부리
##guration
POS
드러났
통틀
피에르
##시가
DLQ
엔지니어
illustrates
##컴퓨터
대두
오해
급행
이산화
전두환
정정
##배포
들어갈
##크기
열기
파이
Compuware
수렴
Function
제조업
앙리
실전
성별
##음의
천안
##연상
##모리
비전
포장
callback
뜨거운
패밀리
십자가
제압
휘하
별자리
준결승전
##Many
filename
윈도
스택
느꼈
껍질
TYPE
##꼬리
개종
palette
이어진
소지
비로소
영광
부자
국내외
##=""
##시킴
스핀
구출
##더부
느리
folders
전함
신학자
통증
BFILE
물리치
무승부
두산
표적
내려오
회선
서원
상담
사슬
근원
주한
전작
fix
##책임자
##동일
적자
설탕
공천
올바르
고교
게르만
저렴
남동부
병조
##SELECT
bindings
점프
쌓았
목적지
propagated
정자
스피드
##자책점
##준비
늘어났
레이스
##헌법
전년
혼동
한다면
restarted
연세대
사거리
##테스
장거리
##머리
초창기
연애
바깥쪽
새로이
##부로
한층
몰래
##가구
갤럭시
##라스
눈물
##Where
삼성전자
교외
보좌
버지니아
혈통
화살
라트비아
DELETE
Parameter
일으킬
##문화유산
동위
유교
편집기
##이온
목재
고가
##은데
항공모함
세계관
품종
신원
tags
##활의
VARCHAR
정류장
구조물
진도
기금
전인
진급
여유
##정비
붙였
공산주의자
##End
입체
후자
##매치
지폐
풍경
보스니아
창건
성공회
##제어
월간
방화벽
##JEUS
개관
전압
단장
 
여당
드릴
다룬다
가져온
이스트
적당
해명
축출
테니스
##CPU
입각
constants
강연
엄마
마이너
##케이드
피신
##월드
끊임없이
면제
threshold
toolbar
무인
사직
##Verify
##Depending
루프
중장
폭스
##검토
##코어
##Active
말레이시아
축하
기술자
명백
실려
환상
##원인
대거
알코올
시칠리아
외교관
패전
HTTPS
휴스턴
##Broker
누가
승계
핸들러
가짜
##청년
생겨났
##나무
##극의
슬로바키아
히데요시
이중화
##는다면
플러그인
##캠퍼스
메트로
학명
##수사
사상자
레이저
윌리엄스
제독
단말기
extract
인격
여단
##length
##건물
프랭크
##System
드래그
##62
증진
두개골
계수
##경로
##비치
부가
Proxy
##토스
할리우드
##엔드
##뱅크
띤다
##ﬂ
Thread
단기
바꿔
성모
정립
연이
협박
재선
##Applications
##단일
키우
귀속
##어요
##가족
수용소
##Copyright
동성애
재처리
상무
몬트리올
둥지
이자
##**
logger
##"),
살아가
##JMS
hexadecimal
양키스
DATA
익숙
customize
workspace
##1987
래퍼
블랙홀
##전문학교
##전문의
걸린
낸다
통치자
Intelligent
저널
모토
퍼시픽
고백
override
아랍어
감행
게스트
평행
데이비스
##종교
넘기
위함
##보존
마찰
##기록물
누군가
가죽
행적
박해
용병
아키
듀얼
그치
##Log
원고
미술관
노동당
첼시
국무총리
언론인
갈수록
통행
가마쿠라
##타운
대위
미쓰
terminate
시선
키프로스
시위대
한족
옹립
데모
중국인
베른
##BIP
범인
고수
##아과
붙인
lookup
공채
##실시간
임용
##반응
전하
가벼운
할머니
##Source
subscribe
파장
따위
formatting
장사
추모
선비
복장
메이
케네디
희곡
##Follow
문양
병역
베르
비문
담겨
initiation
어휘
타운
##데이
outbound
선원
마리오
demonstrates
주주
중위
비유
동구
차장
관념
##어떤
수습
우편
##의장
부채
##도쿄
밀집
키스
황태자
##코스
##수지
quotation
학업
우라늄
득표율
노비
##해져
네이버
initialized
연산자
해고
공의회
블로그
보강
스쿨
가져올
줄일
dashboard
신탁
##>,
대치
알아보
충실
플로리다
##SET
##해진다
Encoding
덮여
${
종래
materialized
##인자
##욕의
패한
overhead
화해
광역
개막전
닛폰
##void
타점
숙청
##oriented
##버그
가요
신한
##옵션
##alone
스튜어트
beans
성취
##웨어
레닌
우호
복호화
발령
상점
공조
일반인
끼쳤
migrated
Creating
휴식
한신
책의
소닉
예언
실무
##티스
명은
routed
##아웃
앞쪽
throughput
##여도
부시
너비
keywords
아제르바이잔
mount
커넥션
##경찰서
##배의
퍼지
##SW
승부차기
##전국
원주
자택
##수학
제수
##LG
정해
##표시
상하이
부작용
내주
자유당
브라이언
총칭
##탄소
슬로베니아
평원
소총
##Subscribe
염색체
평일
일컬
생산량
반도체
대패
벌금
CLI
##Such
repositories
단단
따온
군부
작센
##시켜야
##창이
머무르
기입
구축함
심화
그다지
지주
모른다
토양
올라간다
선종
AGENT
에릭
##차세대
창업
선사
##지점
바람직
귀중
이성
낮추
뒷면
승자
스티브
고고학
석조
##390
일조
성사
##불교
실종
허리
후안
##사령관
강점
##태평양
어원
남인
드림
공표
감수
Postcard
노스
모서리
##which
##미래
과목
워너
##으려고
광학
조종사
왕가
분비
##Connect
창고
근로
드문
파란색
하워드
희생자
MQCC
창원
평정
설도
징수
단행
allocate
정제
##75
채권
##가스
##Reason
수축
입성
링컨
소모
서유럽
콜롬비아
우회
유의
##케이
##Notice
미스
탐험
지혜
당주
욕구
미루
가나
포획
드러머
첨단
RTI
영양
가신
도루
##기계
다이아몬드
와인
학교의
치러진
황실
키워드
일부분
occurrence
체류
##동당
리모트
플라스틱
스타크래프트
포도
원로원
##大夫
##계획서
##자격
##단말
JCL
재해
물리학자
대역폭
자기장
세례
##참여
##애플리케이션
##return
교단
Dashboard
구할
해병대
전이
##승의
영원
가해
소나타
##Another
locate
보스
##주인
##고대
##킬로미터
##BusinessWare
걸렸
파산
모았
돼지
##페르
오피스
지식인
##연패
##Configuring
상상
화자
추론
만남
노트
육지
Container
충전
WebDB
행진
촉매
루스
초상화
이겼
백색
어렸
##서명
##Linux
packet
compile
인민군
##당사
시행령
##타입
administrators
레오
오프닝
incorrect
토요일
유지관리
이식
오프라인
##사전
물자
구절
snapshot
##개별
##타가
초안
적혀
##마일
기질
해변
알프스
##체크
##박사
나이트
제치
신비
##루타
##디자인
##회전
분량
핵무기
우승자
##Event
포스
쌍둥이
체코슬로바키아
mappings
##인수
##인상
##더니
조국
누이
선진
routines
##키를
##부산
##』(
##니스
##일명
##차트
성남
폭행
산다
치즈
덧붙여
구매자
detect
허위
생체
승차
##체육관
당연히
EMP
법무부
운하
CRM
Null
assumes
##웍
discarded
투자자
##밴드
중도
가축
빌려
##전차
제후
##개발자
##1986
언니
##였으므로
TOE
##Process
Added
미분
일명
필립
회피
POST
실망
기아
waits
매치
거처
triggers
빈도
##디지털
외모
두께
##회견
##xml
##대기
##MCI
스페이스
정전
누리
양호
구호
##Midas
##신용
workstation
무슨
안보
포탈
동력
목포
표방
먼지
대포
몰아내
멜로디
이토
마쓰다이라
SNS
알루미늄
대변인
장갑
둔다
자사
서울대
daemon
##과장
중일
persistence
##차이
기수
한화
아이슬란드
##Information
coordinator
thequeue
한양
무너지
대표작
사위
질의
달라지
rolled
배후
코무네
라마
재혼
진다
boolean
Desktop
두루
숙주
disks
##%),
웨어
수년
미세
악마
신도
##》("
##Configure
##세요
장벽
##복의
메모
입국
까닭
그랑프리
##어가
마르
##한테
##품질
뇌물
세속
ﬂ
계열사
##연금
대피
벌인
줄무늬
##동과
쇼와
외무
지장
##최초
Context
##그녀
펑크
합스부르크
양측
##깅
SQLJ
주고받
내정
정말
청약
김세종
폭로
##56
입수
고치
##미술
##해제
더욱이
##인원
사인
코트
허리케인
따왔
##세션
vendors
##거지
경상도
##는데도
옮겨졌
##Users
줄여
drill
기고
지켜
비밀리에
바티칸
대왕
염증
##향후
예능
코믹스
interact
서신
만성
방패
##유적
토니
##서기
서자
서머
##USER
##링크
강풍
레전드
북방
응하
filters
현저
경신
페이스
거뒀
유언
분광
벽돌
냉전
통근
기슭
중추원
돌려
아스
##db
사이클
칼럼
포착
지질
성리학
##기한
종로구
##1985
보석
러브
prompts
inventory
공익
밝기
##1984
모자
아시카가
##Stop
공지
줍니다
돌입
##완전
인형
##나갔
##Either
블라디미르
##1000
왔으며
증설
추종
코리아
후궁
유선
입출력
채우
아인슈타인
omitted
나타날
맞붙
고무
우유
독일인
비오
##Plus
shutdown
triggered
초월
##자체
군중
꼭짓점
inserted
라이프
##클릭
치안
CLOB
복음
화장실
징계
따랐
출석
##자본
대학생
거울
확진
배신
subset
단식
프톨레마이오스
##스크립트
불가피
##And
##스트림
##시켰으며
부도
Authentication
헌신
##기지
나이지리아
사회학
공자
##디렉
##주체
##아프리카
품고
광물
총대주교
기각
격차
##혹은
코딩
사우디아라비아
참모
##정기
##포함
강원
aggregation
약하
둘러싸여
북위
모로코
##평균
##John
사사
##일치
##트리거
탁월
##business
implicitly
급증
횡단
라이
장례
레논
NAME
주차
Messaging
아카데미상
일생
영의정
distribute
##발주
품목
themessage
hash
연봉
기생
예배
돌연변이
프로게이머
아홉
선배
retrieves
Apply
탱크
대군
레이아웃
##세종
산림
분당
푸른
가볍
후대
장례식
기하
parsed
연쇄
밝힌
마스크
킬로미터
바른
영국인
재상
상응
##파워
##Every
습득
젊은이
##강점기
##베르
BME
PurePaths
firewall
predefined
취재
유니
아무것
선이
##SHA
최후
##계층
##예산
부각
##협상
namelist
기적
프랑수아
예조
Tools
동아
러시아어
트윈스
##현장
비치
WMB
##숙종
RACF
optionally
그려진
##헝가리
진흥
##ALL
보드
호랑이
컴백
출처
##낸다
모친
##1948
번성
꼭대기
여우
##타마
한인
홈구장
##시각
누설
migrating
글꼴
이주하
사살
##플레이
나란히
뉴턴
시베리아
총독부
##원칙
##Agent
버그
충남
성도
바오로
새겨진
에게
순회
##1940
전한
유로파
Instance
##무기
##연동
규범
동명
등극
##동이
modeling
피난
Async
validate
둥글
자들
##평화
Password
implicit
백분율
거주지
탐사선
##판사
차관
함선
반지름
이슬람교
베어스
디비시온
##고속도로
파손
##설비
이용하
CompCode
##라우
##Switch
##로맨스
##에이전트
플로
##경험
##성시
initialize
Infrastructure
바꿀
느낀
말의
종점
현종
onthe
모색
특색
##비행
가열
##제작
##Save
##게끔
##교사
PATH
##클럽
내기
나가사키
##마력
전송이
고의
##지인
##Object
말레
##Additionally
해의
confirm
declare
기증
##Course
스카이
중성
찬사
desktop
selectors
툴바
이닝
빈번
중추
냉각
희귀
##폭풍
프랑크푸르트
부드러운
수호
풍자
##전달
##printf
##지수
찾아내
절단
형조
##비즈
##드리
알바니아
견인
교부
경찰관
에티오피아
주입
##주소
External
발병
만세
deploying
dashlet
직관
연한
##황제
성전
##득점
##레벨
풍속
천장
상공
콜로
##서로
밀란
##Under
##공연
##Not
선보이
바퀴
베드
취항
보복
직결
뮤지션
잠금
명분
동북
슈팅
위키백과
구릉
중종
오리콘
격리
__
놀라
수에
##영리
민원
채소
비단
즐겨
남동생
바이킹
중앙아시아
페이스북
MIME
등용
활발히
척추
##시인
빈곤
복용
그릇
##그리스
개인전
트리플
임관
##체결
##진흥
mandatory
게이트
Sensor
퇴역
Ctrl
Architect
##ARIA
동참
##데스
연합국
판본
매카트니
진전
시드
##Enterprise
냄새
리비아
출자
상해
필리프
enabling
##을까
양이
팔리
거쳤
케냐
어류
##사이다
##opt
flexibility
모호
나눠
##사이드
기르
발렌시아
##Typically
##대응
monitored
요르단
##노선
도요토미
##노스
시가지
제트
구해
명제
기차
당수
연소
카라
DBA
##취소
##61
질소
호응
##1982
불린
##물리학
##경비
퇴직
택시
아님
점진
누나
청원
어업
들여
##주민
온대
소방
악의
내외
국한
국영
어려웠
봉건
깃발
정형
게시판
벤처
##코프
한성부
indicator
무효
##create
곡물
서북
황족
##영업
ALL
설문
고소
달한다
##EXIT
유관
##Default
##":
##식물
경찰의
헤드
붙여진
파벌
무용
triggering
RUM
민법
생겨나
직경
원반
##배상
##의견
해결책
##워크
##지급
Copy
고양
요크
바르샤바
협주곡
duplicate
디폴트
unexpected
윤치호
봉안
확장자
##기인
##파크
##려던
##남의
게이지
##비뉴
##write
임원
##Microsoft
onpage
동행
주역
방사성
파병
##이시아
시트
워드
인질
자선
END
-->
##판매
reuse
##그레
관행
사내
##제한
Informix
arrow
오로지
가족의
##당원
examine
##사인
유닉스
잘라
매매
레스토랑
극동
상경
호세
Subscription
##Next
##경찰청
이룩
리더십
##Finally
변이
평문
퇴임
퇴장
짐작
성주
##아버지
##오스
막내
케임브리지
##사무소
JAR
guidelines
제국주의
커넥터
공수
config
색채
헬륨
어른
장안
expect
##Remove
퍼포먼스
방대
##">
마블
자아
ACL
##마크
##</
JDK
동상
지지율
친일파
패하
##지방선
장기간
Buffer
포인터
##98
##회원
##범죄
전시회
##엔터
관세
경연
다양체
milliseconds
시설물
시달리
극심한
##1920
##피의
운동가
콘스탄티노
평판
대변
JMSException
취업
##맹의
##오픈
##로컬
##코치
수색
##공신
후한
아돌프
완수
##대통령
##SEED
##자기
프로덕션
발각
오른손
##함대
가용
Messages
에디션
페르시
##related
Cache
##위성
##접속
UTF
##Whether
정산
카를로스
오키나와
수신자
##일시
모이
끼치
RESET
##해방
##대금
ADT
트랜스
기분
exported
이북
학계
##통일
포병
치른
텍사스주
##Similarly
identifiers
순조
아미노산
플래티넘
연금
침체
replication
##재판
##디스
적다
##1981
사관
##친의
수락
아닐
타일
타이거즈
용서
##목사
##총회
가계
##Programmer
##상세
VMS
parse
##터널
##message
분기점
아베
아사히
##트라
##주행
채무
약점
##string
플래시
가변
모인
##디아
##테르
투항
둘레
상트페테르부르크
대표자
케이
audit
간략
##위해
##Choose
##작성
DEFINE
관광지
##ERR
반군
formatted
replies
사가
##버린
##디퍼
수시로
##계열
원내
후속작
저기압
동성
##금지
grep
##체육
수료
조선일보
삼각
Backup
digits
##구동
지부
깨달
Sequence
##통신망
##의무
CHANNEL
두려움
맹세
결선
##로프
자칭
##"()
START
공단
Specifies
부회장
산란
##패의
양주
향년
헌정
##지리
printer
##을지
persists
##요리
아름답
##VERSION
navigate
숨기
##집의
감동
repeating
넘어갔
Ensure
응시
##빌딩
프란츠
리스크
인계
##상기
##스페이스
산타
도장
이성계
##1979
##타임
오렌지
##메트
##아시아
온갖
문하
##Consider
똑같이
노조
##지침
상연
수중
부피
돌보
잡아먹
구도
##Install
##통보
인체
payload
전날
##Examples
alert
##PATH
coded
교과서
꼽힌다
강남
마오쩌둥
##삼진
##왕조
SSO
##주관
##하로
옥스퍼드
신선
##비전
##라서
쇼핑
##Syntax
체력
##리어
친왕
자전
##실장
고등교육
알제리
컴퍼니
지역인
지켰
##어플리케이션
##마루
체중
컨트리
##1983
라오스
##인민군
##남부
adapters
authenticate
backout
노부나가
아틀레
##회계
통용
이수
##훈장
안내서
Naming
##대손
가늘
##Project
교정
Programs
프로파일
##국립
해독
##인당
##요의
독성
중성자
termination
접근성
거짓말
외국어
listeners
친분
불량
제조사
##95
배틀
스리랑카
TEST
철저히
configurable
청사
##공산당
중령
대승
##URL
##Total
##Request
##clause
포스터
감자
사회민주당
남작
packets
유실
##Value
##Two
passwords
##Parameters
던져
##퍼센트
수분
앤드
이탈리아어
구형
발해
어쩔
뉴욕주
##소련
매니
Finish
열린다
유아
##베이스
transfers
##그런
동유럽
독창
감싸
쓰여진
Provides
올랐으며
국어
대단
증후군
##Target
메시징
인명
의의
심해
오이
홍문관
체크아웃
##MCA
##접수
쓰여
고르
연예인
사로잡
맥주
어항
평민
##살의
implementing
히가시
공신
##티코
##수집
컨셉
##}"
프레
##將軍
##Channel
IO
##혁신
배양
omit
합당
살리
##뉴욕
해인
##웨이
평평
소령
##선생
##운동가
붙여졌
##물리
##용량
##아가
백만
##횟수
##달의
컬렉션
양반
볼셰비키
whenever
Modeler
주조
치러
신흥
##에다
근교
카이
제대
함부르크
##교황
디렉터리
##용역
Adaptor
debug
encrypted
소매
widget
왼손
##관찰사
MQPMO
에스
신중
티켓
듯하
감금
##확장
abnormally
수법
피할
LIC
몰수
흥선대원군
debugging
”
##시점
프로시저
Display
##CREATE
관람
원전
##FILE
##참조
Secure
브로커
Preferences
당연
해상도
결번
배려
##궁의
##윈도우
만을
trusted
노동조합
##연방
분출
어려서
아리스토텔레스
치환
법무
##1973
##1972
군함
##뎁
물가
입양
##76
wildcard
##GROUP
##개소
발의
방치
창시자
방글라데시
성체
##Database
OUT
발주자
긴밀
해시
전염병
유료
실정
##밀도
엔트리
미소
##1946
##우선
무신
창원시
여권
데스크톱
면허
동조
플래그
##신탁
입주
아종
이상인
그저
과실
##실적
BPEL
configurations
##질서
남한
##대왕
##speci
마포구
무결성
dataset
놀라운
##선언
뒤집
사무총장
태양계
유효성
##직원
##1930
창문
설립자
북경
무실점
표기법
청주시
##우드
발원
권총
##연소
제프
SNA
외관
궁궐
##클래스
##HUB
학대
합친
향했
반입
##해석
##광고
사라
열심히
예명
LOG
해킹
선과
산의
연대기
##악장
천사
프로레슬링
미션
원료
흉노
간신히
보헤미아
=>
##건강
할인
급속
광대
##아스
배구
교원
경질
호위
CHARACTER
의결
자의
담보
##드라이브
##창의
##정적
인터내셔널
##스페인
살려
토크
지녔
간토
드러냈
사업가
##복합
모티브
##해양
휴가
룩셈부르크
Spoke
##전부
옥수수
##라이트
토착
총사령관
수수료
CNS
도래
##조지
경성부
칙령
상시
혈관
괴물
##결제
의류
강남구
뾰족
안방
온천
세워져
은거
quotes
##인먼
##다르
모은
하트
generating
filesystem
삼촌
부설
##질환
후반기
쿠빌라이
준결승
integrate
failures
엘리트
##도어
설교
송시열
사안
경찰서
섬세
사육
에콰도르
이글스
##부와
나타낸
달걀
정찰
농부
##원격
Fail
##Exceptions
대역
디트로이트
폭격기
파이널
CLUSTER
##지와
주차장
파티션
EDI
수심
##수익
보류
폭풍
가미
##장과
교량
생계
내무부
의약품
강렬
전도
##전통
disconnect
장이
##결합
##");
스카
골프
초빙
아레나
Setting
##농업
RPC
신생
##조각
엔딩
이복
verification
NUMBER
슈트
신축
정착지
헬스
마비
에르
브라더스
공시
##시오
##상과
도카이
필요시
대상자
부드럽
##나미
실린
자유형
나타냈
카테고리
terminals
생긴다
노면
프랑
외야수
페르
일가
히로시
금성
##에스
학과
##상업
실권
로마인
##여서는
전방
음료
비석
경제학자
말리
다툼
##MQSeries
난수
강간
힌두교
갑옷
##직접
##Batch
##Within
"${
공감
선구자
축조
##INSERT
##보드
##그런데
##말의
우정
##이탈리아
조리
당내
말년
강경
##》(,
##은하
converts
##고지
마침
##면적
검열
그레고리오
##결국
동성애자
전복
물류
좌표
IDL
##1968
역사가
교황청
##you
Execution
노동력
##queue
hostname
집결
진공
공용어
노론
##63
evaluate
천재
접어들
취미
바뀐
##시도
##청장
동네
지미
라이온즈
다케다
아스널
FALSE
##Its
symbolic
생식
가져
파문
아이스하키
스케이팅
발라드
Provider
오라클
기술력
염려
##제조
연립
피아니스트
구경
출동
Users
대단히
가혹
씨앗
다투
트로피
속주
VPN
Unable
알파벳
##92
파일럿
아날로그
편집자
러시아인
러셀
discusses
하이브리드
비해서
실험실
본국
고쳐
배분
##소득
precision
깨끗
##size
Reply
예고
##모르
마산
회상
##중계
색인
##진단
연수
occurrences
##기자
에이
배속
연못
지도부
명종
안토니오
selects
투여
컨설턴트
##창조
공존
세분
##중대
한스
대리인
적절히
##메모리
##집행
##Displays
미상
##2022
농사
예컨대
마닐라
##Transaction
##agent
대규
가져다
음향
대중교통
감리
##수도
취할
##흐름
iSeries
##1949
벽화
##원소
악장
이상한
플라
세자
즈음
걸쳐서
`
considerations
##Copy
##도움
##비시
어둠
##가수
종말
세이부
##법률
스캔
마운트
relational
넘치
##미사일
##나오
##형제
해밀턴
무함마드
Detail
열려
체인
방송사
능선
부르고뉴
TLS
스트림
난다
서문
분파
팔렸
불타
방사선
체스
지바
##수립
기성
별개
매수
EXEC
말미암
조부
역명
난이도
##지진
Admin
개원
미키
저주
##당해
ignore
각도
바꿨
정작
하차
초원
우파
Jabber
##연료
##1974
히로
연장전
##72
매출액
##입찰
##생물학
빛나
느껴
장성
유격수
달라진다
가중치
##상대
##건축
의자
수확
왕권
##곡이
녹화
ANSI
동형
안테나
프랑스인
##포맷
##강화
나갈
국소
programmatic
토르
복권
전지
진상
보위
해리슨
이순신
세가
##WAS
##전환
유치원
##스위스
변호
피겨
##Time
바란다
admin
##무대
치아
항소
인테르
리치
JSON
의과
내려졌
사범
컨트롤러
##시켜서
미생물
경의
transmitted
##어느
어미
증인
NFS
detects
원의
너무나
기념비
##WMB
높일
##레코드
truncated
등등
처지
맨해튼
스타리그
synchronization
||
취했
전염
야구장
유권자
노태우
다저스
##증서
모터
릴리스
탤런트
죽인
보살
inactive
그래도
화력
중퇴
광해군
니시
##장기
시야
크루
발트
탄도
원숭이
##추적
요정
##자신
애틀랜타
충청도
##도르
##으려는
Install
typing
automated
재고
버클리
##국군
가로지르
카르
쓰레기
즐길
ACK
##피트
출가
국외
##POS
illustrate
restrict
사의
시켰
대합실
트레이닝
악보
청동
우크라이나
성문
격추
##소송
ERROR
customized
Remove
##습니까
프로그래머
##검찰청
컴파일러
채취
Midas
Destination
잠정
활주로
하노이
##Non
##조합
desc
##라기
레슬링
SEED
넷째
양보
야마토
조반니
기관총
JAVA
##정보원
##참가
경관
오리
##1971
법의
모범
시퀀스
어긋나
익스프레스
루돌프
전래
forthe
IoT
##결재
##이력
arrays
반전
꼽히
맡기
예하
##스에
전위
추첨
##Out
수식
꺼내
Statements
##어스
##싞
##1969
##1962
알맞
Routing
##반면
##step
Attributes
아라비아
##영화제
##대구
removes
연말
배우자
북구
접한
삿포로
##접근
##persistent
채워
timestamp
이송
제곱
호르몬
세르비
형인
자결
Write
간편
파싱
trademark
관례
라이언
##1919
타이거스
무단
##Update
Agents
올라갔
MQQSGD
인문
포도당
거란
비리
발칸
##구매자
specifications
공용
드디어
클린턴
차출
스트라이크
친선
##저기압
서재필
계획서
##Connection
자제
datatypes
Integer
공약
모금
영남
일식
proceed
몰리
아이폰
개항
로저
Recovery
locked
투르크
군사력
##elds
결별
마녀
성운
##파트너
월요일
내세우
소행
비추
천천히
##통치
SILK
시애틀
대의원
rename
사설
이득
터치
리틀
케플러
반란군
##DBMS
아마존
yourself
진료
떠오르
카스티야
일으킨다
##부작
왕가의
##Even
##베이
##구현
##doubt
##광의
타임스
가옥
몸통
대대로
크리스토퍼
달아났
##메일
ICT
##부여
emp
로딩
##party
analytics
##가로
마르크스주의
근간
submit
##졌으나
##명칭
붙잡
보이스
정무
순천
개미
##연승
일파
Brokers
##Number
추이
종식
브레이크
마디
자유민주당
초당
##최고
영예
연예
후작
##Get
##먼저
DTD
안양
사라진
줄거리
자크
중엽
##서류
급속히
##Provides
manipulate
편차
학회
취한
응원
신이
자란
##음에도
방어선
외치
센다이
게이트웨이
##";
그림자
느낄
염기
다나카
알렉산드르
기병대
##회복
만듭니다
##1939
청동기
OPEN
##소장
##보고
##120
히어로즈
윗부분
##1944
프랭클린
##도입
##분과
##1963
챌린지
대서양
이이
듀오
소나무
구실
찰리
비주얼
농림
##Installing
라인업
##된다면
아시
커리어
##요인
##대비
금전
포럼
##태수
Servlet
##Delete
구두
함정
가솔린
비타민
소원
케빈
delimiter
자음
비준
##INFO
##삼성
##주제
##통상
어울리
정세
남미
동정
##NOT
buttons
상세히
정변
파울
공고
##보증금
##88
propagation
델타
조용
편견
##포드
에이즈
카타르
처녀
ActiveX
번창
##1976
타석
보여준
##케이스
무제
롤링
도망
안치
unavailable
##Length
##본래
단행본
명인
공이
수군
임직원
##캐나다
외환
##101
꾀하
중앙부
##뮤직
패러디
묘역
레바논
마다
evaluated
둘러싸인
흩어져
지층
##인권
크다
##았었
초신성
퀘벡
큐브
수성
희극
규명
이뤄졌
번갈
시립
양성자
##1941
미토콘드리아
DW
고사
내걸
키예프
주어진다
##1978
대웅전
##private
잔존
구미
어찌
날카로운
벨라루스
요제프
궁중
급여
icons
제우스
##타워
마일
부상자
마야
화강암
헤르체고비나
##운용
eai
저조
가져온다
놓인
신발
극도
이단
##1964
사절
절약
광저우
해적
가했
##바흐
도피
호족
RFH
스폰서
##문과
제주특별자치도
##다이
다니엘
##Return
##율의
열도
##외교
서민
천문대
리옹
backups
정한다
국정원
##슈퍼
##CCTV
##주식
##기와
유대교
마스
브리튼
쓰시마
##View
능동
드리
ODA
여진
타협
##실험
불분명
Item
백화점
뛰어들
프랑스령
알렉산드로스
##매핑
##국어
경찰청
한미
##발매
지켜보
북서
##아군
##고시
합산
constructor
AQ
신학교
##SILK
이뤄진
지면
##Sets
모의
펼쳐
영화배우
삼림
무성
##촌의
성령
조세
그만큼
적외선
애칭
##모니터
preferences
재발
Appendix
substitution
미친
thesame
지선
바꾼
빌라
성실
administer
##Collect
금요일
표현식
재질
복합체
자란다
##노동당
선진국
Option
##일제
리믹스
헬리콥터
##사관
갈리아
##단순
여타
해저
소음
유혹
석탑
대문자
불행
Browse
재활
##managed
MQOO
청색
전락
생존자
습윤
민속
다스렸
레드삭스
##좌측
##성장
##응의
촉발
비행장
반감
습지
러시아군
국교
##Correct
해커
상금
주화
누렸
항쟁
차르
예수회
꾸준
##어항
사운드트랙
지배자
CAST
내재
##지부
돌출
찬양
원로
제위
규약
##논의
유스
연정
##功臣
Package
합치
협동
잠깐
장학금
수련
이남
##config
##ORA
##균형
##레이스
##마사
선별
DN
데드
MQOD
요동
볼리비아
미나미
##전력
guarantee
##학습
생선
옮긴
발리
후배
##영조
제로
튜닝
uppercase
교육부
다발
반기
항체
절벽
성지
니콜라이
이븐
Configure
##Port
가마
카터
염소
위나라
바쳤
목회
monitors
pointers
프랜차이즈
##1961
오사카부
##Amazon
##법칙
알렉산드리아
위구르
scan
##회가
deleting
명세
##TEST
교대
원산
카를로
##朝鮮
다카
체조
지방산
순교
작물
방사능
##다리
선장
잔인
partitioned
##계산
##Over
인해서
시간대
##보도
매달
충주
견디
쾰른
켈트
세습
도마뱀
##임시
노하우
서약
사우디
기저
기숙사
##1975
폭파
숙부
##벤치
접목
높여
에디터
Narrowcast
##function
폭포
믹스
매사추세츠
겉보기
##Adapter
##77
##별의
생겨
코끼리
고쳤
resolves
##키로
시킬
송출
DML
##순서
##기법
##네스
거세
콘테스트
슬픔
복종
쉘
척도
기한
##경보
달라
MQIA
절정
##Page
달랐
카툰
구의
##쥐속
allocation
ILink
##부족
##논리
##Go
인지도
##81
내성
기어
후예
구마
##68
##KB
##Additional
##글로벌
##광주
##채의
클라크
호모
벤치
동치
deletes
오타
##'.
검거
영원히
##었었
동맹국
제퍼슨
크리스티안
##경쟁
##처분
오바마
청산
막판
##향상
계시
Tomcat
IDoc
설화
모리스
빙하
##공기
inquiries
##흥원
##단장
보트
광년
확충
판별
##1977
시합
마루
파충류
스즈키
스톡홀름
악어
센고쿠
Sample
##사진
바이오
##My
##Builder
들어섰
선제
회귀
자르
##담의
성곽
윤보선
피핀
긴테쓰
##사례
semantics
제작사
겹치
당황
격려
신조
동래
요시
미러
지닌다
레이더
파편
북동
차용
요절
동학
보수당
##워킹
일관된
##회관
생겨난
암흑
관문
appliance
더글러스
다윈
##메라
##공정
Fixed
견고
세팅
##결혼
##염의
춘천
규탄
알아내
무작위
세련
도스
KIA
오클랜드
후지와라노
periodically
포터
흡사
##NEO
평형
웹툰
국보
##메이지
천도
소행성
##분리
온다
놓이
정사
차츰
박헌영
##수산
수위
##한가
김해
지상파
힘썼
태권도
바그너
KHUB
##프리
타임아웃
교양
고양시
##아어
##;/
온화
마사
시중
##정형
두각
피로
##84
돌아다니
##선발
반성
과시
토리노
##와라
플라톤
##혼의
단서
Timeout
따라가
뛰어넘
##세자
광도
학설
받들
브레
##중종
##책의
##Software
반지
드래곤
계몽
데스
##개요
##콘솔
펜싱
##Remember
부류
스토어
##했으므로
앞선
박람회
거리의
수교
unchanged
부적절
##박의
Choreographer
##져서
기량
전전
불참
주선
##1967
고든
현직
병기
내면
##Changes
##고용
##사법
##타스
색이
예선전
혐오
templates
##112
SYN
위키
마르쿠스
칼리
도널드
##곡인
##역량
Values
동남
##1966
##면은
코믹
객차
아폴로
미하일
복음서
standby
##74
##MHz
유체
화상
아무리
두드러지
철폐
흐른다
대본
##자형
서임
암호문
식별자
봉인
몰두
형벌
만주국
오스
##광년
recommend
부록
청소
쓰레드
upload
##측정
획기
##전적
도로는
인플레이션
수복
재전송
intervals
스펙
CMP
##이스트
##북부
고분
소외
##라디오
##안의
상가
칭송
##오르
##null
##패키지
벤더
##driven
상정
requester
후원자
오프
경계선
##궤도
유령
평안북도
##다운로드
##해결
Procedure
넘어서
배운
중량
레일
램프
애정
토성
가나가와현
locks
아닙니다
##서에
##코리아
##파리
자리매김
건전
단속
잡혀
북유럽
wolfSSL
재차
마다가스카르
시직경
##BW
수와
AMQ
suppliers
벗어난
맞춘
##개념
##고속
탈취
구로
코르
##재정
##공수
##default
액티브
##More
항만
""
작성자
##1965
선동
##사회주의
필연
nonpersistent
앤더슨
무어
##大學
시코쿠
카메룬
더블클릭
##생물
##println
핑크
칼슘
Dashlet
##Detail
미스터리
##구와
갤러리
프린스턴
##배우
떠난다
캐서린
지붕돌
heap
수원시
하얀
##예방
##사기
##수상
corresponds
##대화
버린다
##마이크
나름
갈래
##후기
정문
리만
집정관
종군
다이어그램
visibility
생길
##자사
LONG
직통
엔트로피
문예
아벨
밀양
만난다
어뢰
새겨
synchronous
Solution
##Double
내린다
소극
덧붙였
interMedia
우즈베키스탄
##라루스
라이너
Topic
반납
상사
##CTR
##런던
##거래소
더비
화장
종파
대전의
마라톤
장래
userid
어려워
스퀘어
로비
##라가
나트륨
##YES
유니버설
잔여
고집
우드
하노버
본성
조롱
때려
바디
handlers
visualization
##페이
신약
회고
스트라이커
유러피언
단체전
무언가
높였
유능
##잡지
##ImqBoolean
유방
summarizes
구금
XSL
대영
##규명
제명
안티
정화
##1910
중상
##종목
수지
디스
위안
급히
일산
북아프리카
파르
Fetch
##Output
두지
composite
거주자
실재
앨리스
진행자
게릴라
##미군
해리스
pending
휴대폰
coding
##receiver
동요
신민
쾌속
저해
##산업의
##Parameter
비자
밝혀진
욕망
항원
##당한다
세이
극작가
미군정
추존
교도소
데스크
##"/>
exceed
산물
장애물
표정
폐렴
장로
도청
발목
핸들
베리
불꽃
맥스
단백
여러분
관련자
분석기
##Reply
RBA
##CBC
벌여
##예선
우울
로렌스
터지
쿠퍼
##허가
OLAP
중수
모욕
##운동장
바젤
스카우트
남하
베이시스트
비늘
##Red
본체
전세
##인물
기해
빨간
극우
##루이스
##재난
##150
##사원
유고
##타수
힌두
장원
세비야
##개정
테두리
##대행
trailing
OTP
국유
끝냈
총기
##복무
돌기
밀러
적분
묻혔
무술
타락
용액
failover
##감시
##였음을
##대용량
충북
##수요
VALUES
외형
이어질
##광부
벨트
갈라져
theapplication
fromthe
##TIME
##교류
중형
면모
##0000
CORBA
정량
감성
감추
사각형
##버린다
그만
파이터
가이
점거
후쿠시마
막스
왕세자
Tibero
임베디드
실버
수염
시국
서진
수주
체크인
##Command
##FTP
accepts
침묵
범행
어드벤처
##포르
그래미
준주
대성전
##Step
확고
##구로
##conversion
위력
적군
복식
법정동
아담
우르
새긴
정월
undo
##피해
##예정
##가용성
상반기
##Can
MQLONG
invoking
Copyright
기세
사방
형법
도리
두꺼운
##기갑
점성술
##카르
##타인
스틸
거쳐서
##레이트
측이
평안남도
제인
준용
가산
##Access
클리블랜드
말라
속력
##옆면
가입자
가져가
여건
해안가
##xx
단면
##1947
화합
머리카락
민병대
참의원
위촉
RAC
Configuring
이스탄불
행정동
헬기
투르
파라과이
uniquely
Retry
##하루
##지능
염두
종단
고아
자생
##사범
##빌리
사민
달아나
김옥균
##Control
RAID
Tutorial
강철
방콕
칼뱅
##명과
이면
##분자
골격
간혹
시속
##머의
부름
각성
대성
##your
민사
Device
로우
야외
배수
##국은
매거진
##정조
기관지
김규식
펠리페
satisfied
내릴
신속히
해안선
돌격
효종
요격
##중요
원문
##정리
##Unix
##object
##제니퍼
##해군
민정
치유
##이유
섞여
여배우
CURRENT
##Insert
exceeded
미미
아랍에미리트
대지진
관찰사
세군다
##미스
##인칭
마르세유
과반
##청소년
격자
평론
감상
초나라
낭비
배척
우한
재미
민영화
은혜
소생
RMAN
##고급
실증
##구가
열릴
특사
피고인
여사
사회당
선제골
##통지
##그래프
##Interface
종양
포르
아닌가
속편
찐
공민왕
##명세서
Hadoop
자메이카
##학기
심야
##북한
산스크리트
##패턴
MQCLOSE
##사무
정해져
##그리
배울
진로
##스런
##라고도
시상
대법관
마카오
굴복
SaaS
##형사
통찰력
Deploy
##환자
실명
메세지
콤팩트
살짝
대접
민요
독도
주머니
퇴위
노부
테무르
메신저
updating
MySQL
declarations
박테리아
##으려면
##호기
받침
군정
##전시
스파이
전무
서해안
##야시
피드백
##Press
##왼쪽
##블록
그릴
데몬
한도
##Tmax
multicast
진한
움직일
주름
알렉스
##Forexample
##service
만이
제품군
withthe
매진
공격자
종로
중산
종업원

변모
"(
ADS
##999
실존
사상의
이례
함량
대북
##우지
유키
도자기
Upgrade
GROUP
##Gets
방화
고딕
원산지
이치
덩어리
심문
##부원군
대내
aliases
편이
##cn
##네덜란드
쿠웨이트
대한항공
유성
세계유산
되돌려
##결의
뒤늦
관절
닉슨
##73
Plugin
##역할
##지향
입금
내포
접해
레온
황폐
실각
노르망디
소피아
##규격
##만일
##형성
고령
네오
정했
외무부
파나마
토끼
우아
흥분
솔로몬
grouped
가중
##긴급
타사
ORB
지우
대동
##파와
브루스
함경남도
##노미야
##Multiple
restriction
##SOAP
유포
##250
##insert
정치학
관목
정확도
##Local
Polling
과연
##완의
##노조
스캔들
현업
##Important
반려
만날
충당
관심사
팔린
집착
우물
군벌
생모
지옥
##QM
닫힌
스테이션
특집
기차역
스님
범용
##실제로
다이얼로그
디버깅
도약
retrieval
##67
##87
##1942
조수
메디치
Integrator
##Indicates
재편
TSF
Installing
SMTP
다듬
##행성
애니
떠날
장제스
각료
advantages
악성
되게
##농협
##군인
코펜하겐
##미술관
강령
자서전
평안도
##비르
utilities
##유출
자재
##IMS
encoded
하반기
INTEGER
padded
죽임
자행
분수
완만
웨스턴
경전철
후사
##instance
Vitria
comma
EBCDIC
##이동
##컴퓨팅
자릿수
산이
전해졌
가루
퍼졌
##노동자
셰익스피어
##송수신
국제선
프로모션
제이
##지도자
Tagged
장난감
애리조
묘비
카탈루냐
##세손
차후
##회수
시킨다
##시나리오
##Configuration
##정확
##Network
##특수
##가운데
주창
##아트
악단
노트북
##보호법
습관
고생
마르코
##Read
공휴일
공통점
배달
##콘텐츠
신곡
##광장
장미
바흐
##적료
IDT
enclosed
실리
슬라브
서경
천거
트랜
##수와
##유통
##동생
비싼
##파트
나주
##메리
황색
기쁨
너머
환관
밴쿠버
프린터
MQTT
introduces
##태그
태블릿
적발
거칠
소자
##키스
몬스터
프란치스코
바이너리
간소
모코
imply
미드
보너스
발동
레이싱
사간원
##젼
MCI
##78
Failed
유휴
##지나
경쟁자
콜롬비
리조트
모스크
사카이
싸워
백악기
대사헌
##로그인
조의
searches
##96
WAN
##노트
##베트남
화약
##만화
피라미드
공리
전학
연기자
##노르
세르
프란체스코
##순환
##본인
Parameters
##분해
지탱
딜런
##팝업
안개
이뤄
##인천
성남시
사리
서사시
금나라
progrm
##정원
결핍
헤비
프랜시스
caching
##파운드
극찬
소말리아
그레이트
신한은행
##교환
##MQCHAR
##클러스터
##트림
낙동강
clauses
consistency
펜실베이니아
로스쿨
몬테네그로
우에스기
tuning
##일련
판명
신형
다가오
지인
브뤼셀
##라트
개체군
생리학
오크
MQCD
##define
어려울
인과
로얄
필두
동물원
성단
만점
상급
강행
마르틴
왜성
##황후
##계약서
신종
숨겨진
가로질러
간직
갈라지
켈리
참사
이데올로기
##〉()
##삼국사기
affects
##구매
VMware
Send
DDL
¯
마셜
보르
보성
격투
송환
프리미엄
##난의
펌프
풍습
##1959
친일인명사전
가토
베풀
##이미
##점포
극한
철강
부사
##1958
국호
장녀
에우
CALL
##다스
일각
맡겼
유생
##아인
thedatabase
##SOA
##계수
구독
일당
독서
톈진
연달
##LDAP
diagrams
변질
설명서
잡히
몰려
코소보
전격
우울증
히데
SERVER
##집중
##자문
조심
아크
말단
객원
포식자
sync
##투입
구내
lifecycle
##관광
받아들일
##Metricof
전반기
##파가
판소리
가까워
배지
##경제학
알라
간첩
모차르트
러일
customization
Subversion
강력히
편향
##명종
하나다
QSGDISP
##연기
Stored
결여
인위
##발전소
네티즌
##트릭
근거지
극장판
쇼트
접전
##현실
면담
ORACLE
고래
사용법
처한
##유로
대에
추력
항로
도망치
##왕국
##통신부
정관
##class
displaying
애초
##느라
워커
##여행
재단법인
치러졌
storing
##오른쪽
멀티미디어
##character
meaningful
##79
필립스
사이먼
##SYSTEM
DATE
##home
##true
##구체
이나
##일체
개인용
모노
던졌
공명
서남
라이더
효고현
초콜릿
coordinated
choosing
##method
##IEC
TDS
편안
##폴란드
##이라고
##대원
수로
##문학상
##이치현
분단
##제안서
inquire
##냐고
서정
기니
슬하
사마
배역
reliability
##미리
invocations
validated
##각종
##then
종자
근래
커졌
로이
도망쳤
이바지
뉴저지
##1918
##공작
밀가루
identifying
cr
##FLAG
##특성
##select
농산물
CHAR
복호
태우
로맨스
섹스
##1936
유서
학장
internally
##GET
양은
##확보
열쇠
##발사
볼티모어
checkpoint
인적
##이미지
유상
##해질
끝내기
선명
##보유
대차
왕궁
굴절
아빠
왕정
##컴포넌트
##증가
##기치
이용객
무사히
축성
뉴캐슬
루크
prevents
최선
TMAX
##요청서
##Required
satisfy
미친다
거꾸로
제왕
마차
타구
응급
##Thread
수차례
영위
##과목
스텝
포화
족보
남베트남
워터
##현행
##브라우저
올해
compliance
하류
파이프
열악
탄약
시멘트
평지
자비
마누엘
연꽃
balancing
##RFC
간결
##연도
prefixed
용의자
오하
가의
우상
남서
그레이
복선
플로리다주
부다페스트
볼로냐
accesses
구비
자립
나간
튼튼
##분경
##소년
재팬
절망
럭비
##도마뱀붙이
TRANSFER
##수량
##개시
##다중
stopping
implied
나노
저지른
##출신
관청
이겨
##한글
깨지
dependencies
불신
대담
섬기
분류군
앞둔
천연기념물
requesting
진척
과다
##client
취합
##합계
직계
아부
사바
홈즈
##Migrating
coupling
STRING
##경기도
유족
##서부
뛰어났
로마자
무솔리니
열거
##정규
EAR
SDO
##라이
자진
낭만주의
울프
계주
과잉
fetch
##%(
##메인
XPath
과테말라
악명
레인
친족
증오
부총리
최성기
나미
웨인
exceeds
##텔레콤
해준다
겐지
직행
##신한
##Modify
완결
논하
##1900
그나마
자처
##1943
서리
깃털
포탄
동문
##객체
##전원
choices
logically
이용이
부실
이동한
대부
주일
##폴리
게리
야쿠르트
핵융합
재일
왕과
화기
##청사
경위
언어학
##主義
도사
모스
전멸
프로토타입
combinations
##교통부
느슨
MQCIH
암스테르담
##마치
결핵
코스타리카
흘리
필명
보루
##Sample
손잡이
SNMP
픽셀
DROP
빅토르
##1937
바로크
scalability
##Yes
업종
Navigator
전수
##러스
퍼센트
공화정
##Socket
설계서
산재
휴대용
##선형
##실패
조문
##1956
사토
아라
미시시피
파시즘
알래스카
유적지
진사
클레멘스
패해
##Wait
##Version
##JDBC
##글자
피처
강변
조공
##성종
appendix
완료시
##소비
Advantage
중첩
인공위성
조지프
반주
##커스
위조
로빈
##순의
연회
##국당
그랜트
한큐
optimize
DCE
##Failed
승낙
##dev
페어
넘겼
구획
파직
우의정
##스퀘어
수인
##중단
##근무
filtering
교통사고
올라오
패권
##아파트
서포터
가라앉
경작
브르타뉴
##호출
개월
패러다임
가톨릭교
##케라
##110
선율
오노
브루클린
아틀레틱
책정
##Support
##성적
퍼스트
리모
고온
총통
기사단
수녀
공방전
넓히
##특별자치시
NLS
댓글
Completion
달력
매직
미시
##드로
자외선
여학생
명성황후
반죽
국력
탐험가
MQDISC
##지표
##94
##촬영
##혜의
참패
가와사키
끝난다
##출처
Listener
##미치
가리켜
마하
##해준다
삽화
히브
##1957
후진
징집
##學校
converting
위생
자정
##관심
풀이
Types
programmer
파도
##지법
실은
착취
##Exception
msg
익스
##COBOL
preference
탄력
권역
시리
총무
##전산
##시경
Initial
초상
##장교
한문
좌의정
요충지
홈경기
##바둑
안전성
##List
노후
상환
##계통
##라면서
랭크
오락
미네소타
영유권
리프트
##동부
회보
태아
복직
별세
##1938
스칸디나비아
##실시
삭감
Tasks
##Expand
아카이브
마켓
중소
##으면서도
##을수록
쇠고기
조이
채색
브로드웨이
반점
레인저스
다름
크로
라벨
주임
증폭
발포
영장
서해
##시리아
낙양
도카이도
보조금
##안보
Metric
개정안
텔레
optimizer
##1953
복역
한성
##분열
##베드
세미나
승용차
종사자
##옥의
색의
양대
##마시
걸작
##1933
집행유예
보리
시바
시종
##이상의
Handler
##Look
들리
##심리학
추리
몹시
대나무
##민간
환율
restarts
##중화
절의
##Class
양육
몰랐
시외버스
평의회
기원후
요시다
거성
곡인
##Master
##UPDATE
activate
lowercase
##Processing
##투자자
분사
##바다
다이
##고리
편집장
무명
##데르
월터
교도
herein
##Field
폐기물
교육자
##eai
취향
##지지
문단
단정
증세
준장
타이어
일부러
원한
그리스인
육군사관학교
라우터
unauthorized
원유
농지
##수다
##나스
성원
나비
메소포타미아
##쇼와
헤이
짐바브웨
copying
Location
민첩
deferred
##습의
도박
##통부
가정용
죄수
하프
컴필레이션
archived
단가
##화재
##하드
실사
이양
방송인
재앙
퍼즐
유니버스
허드슨
가르
잔해
미셸
약혼
##선정
swap
아우르
VoIP
수백만
##가량
##1955
병과
##세이브
더블린
올릴
##동사
제물
고찰
출입문
문화유산
의례
##Servers
##-[
규율
입히
##진이
와이번스
##세부
오스틴
명과
##세로
IMF
##LOB
##사지
보수주의
성매매
조승우
GIS
운임
팀원
##탈의
##스타일
CorrelId
가명
제동
되풀이
투하
울리
개헌
월트
앤드루
대리석
호에
가져야
grouping
##반사
정황
경매
숙소
##에겐
쿼크
##노프
##수리
변조
처방
##STATUS
##대중
만인
티저
톰슨
니콜라
##펠트
서위
인산
군세
##원정
##법령
jar
##플라이
##Program
modifying
계측
##락의
##날인
##가요
베스트셀러
모로
카리브
몸돌
##국회
수작업
##Display
##활성
경량
통신사
pools
##용어
마이애미
##PL
Inquire
##육군
##폭력
##비록
라우
햇빛
##1952
##구속
트라이
타도
제리
푸에르토리코
initiate
commits
##Review
Schedule
책임지
임하
여수
돌아갈
물결
눈치
기이
##1932
##1954
총격
왜구
##복호화
##표현
사소
서초구
아끼
빅뱅
##어주
토마토
##La
개기
일설
긴키
이주민
##일괄
##전용
inconsistent
optimization
기울이
보직
김포
진흙
가브리엘
행해졌
왕관
주니치
거북
프린스
##베리아
downloaded
각색
별장
##무늬
온건
사이타마현
##夫人
##Repeat
anywhere
KPI
FDC
##회선
##필수
분담
출퇴근
크리
늘려
남용
교통국
접종
구니
각본가
##조달
##따라
##대리
##Key
##ALTER
왓슨
##COPY
명소
이즈
휩쓸
동진
주심
동맹군
##분산
##지난
매번
##가정
소중
##방위
차가운
##나마
지나친
##버러
##집권
김정일
##모스
장로교
요하
##숫자
COPY
##사태
능가
INDEX
세그먼트
##마는
재미있
루스벨트
허블
##error
친환경
침대
복위
순식간
우지
유골
가두
사귀
복음주의
비단털쥐
Biz
학력
##언론
넬슨
부르주아
탑신
##아키텍처
##임금
##DNS
##텐트
막강
외상
실렸
신문사
용암
함경북도
펼쳐져
김정은
##Issue
##모두
##메시
작년
스피커
delivers
발산
유수
두드러진
주부
##덕의
하키
사쓰마
##제출
Choose
슬로건
##89
##나주
흑백
파란
행보
##총장
##무스
소울
팔꿈치
웨스트민스터
트라야누스
간사이
##NULL
묶여
authenticated
어촌
QoS
##시트
씻
취직
열강
해부학
납작
참의
필사
에디
andthe
FEP
##파티
백악관
익스플로러
열세
간선
착각
##다면서
법관
튀르크
싸울
축구팀
물려주
미흡
내세워
tx
취해
로열
염색
파면
육식
##여래
토트넘
달라질
법규
정할
강해
##Possible
여럿
생도
여운형
감리교
##페오
interpret
##93
precedence
##Last
##회로
성행
##파이
VAS
부제
##무장
복속
올드
순양함
##관이
창구
cancel
펼친
변종
교제
##인승
스탠리
카이로
reduces
##제주
##분쟁
##Node
##편집
여주
정성
##하이
한창
교의
등단
합창
##시행
##Apply
##동작
가이드라인
ftp
schemas
Vantage
배의
##세조
손실률
묻혀
보임
징후
외면
놓치
게임기
부의장
교인
탈레반
##node
recoverable
##강과
헌장
증조부
카스
데이브
##기원
삼층석탑
browsers
감축
loads
조율
다크
튀니지
포르투갈어
채굴
우림
위패
정부군
후쿠오카현
##running
조례
리본
SPSS
왕성
##commit
교실
프라이
도발
문화방송
멜버른
##월간
expiry
##부처
troubleshooting
경합
##원리
가닥
드레스
발전기
용산
반항
조각상
맹활약
예의
convenient
##Don
교과
버린
춘추
어시스트
##중세
만년
버마
나카무라
할양
아테
조니
##MAX
Failure
##전문가
##Input
##Group
유가
의복
직속
##필터
광자
threaded
토론토
안산
##축제
활동가
재회
##청시
DLL
AMI
##협약
생화학
스탠드
감당
##화폐
고산
수력
품은
헤라클레스
변광성
##오염
신뢰도
통신망
정신과
판매가
리튬
##국을
흔들
반대파
경건
후세인
##Manager
엔지니어링
##new
IDE
렌더링
나쁘
터보
##백의
당선자
##경주
헤르만
라이프치히
소동
##보살
공제
Builder
##지속
scalar
WAP
상행
정령
원자핵
평했
##왜성
모세
##카스
아나키스트
cached
익명
##』,
과반수
메카
결말
##보스
로타르
팔작지붕
이윤
농협
registers
##합병
직물
Outline
##양성
떨어진다
##리오
음악원
반정부
유학자
deletion
##공과
##㈜
약정
bythe
탈피
##음반
하의
모터스
로빈슨
수수께끼
헌납
##반출
구애
##호대
늪
##불의
##태양
슬램
아이즈
##재료
##드가
토목
constructs
치과
##output
##블랙
위축
중앙은행
침범
번은
기운
애인
길드
회유
썼으며
사쿠라
시달렸
대통령령
손꼽히
개개인
Folder
Boolean
##-)
끼친
쓰일
피셔
경영학
역도
애덤스
산요
무로마치
컵스
##}/
##신호
컨퍼런스
흔들리
운전자
상반
계승자
##기통
##중간
RTSP
##해외
##Or
전자기
초록색
데카르트
피닉스
로부터
복잡도
##memory
적시
MQInput
카탈로그
범죄자
야망
지성
##봉의
유진
랜드
돌렸
##1935
북극
고노
엘런
tablespaces
##복사
요즘
##인프라
레이어
루틴
크롬
##기억
MsgId
안팎
온타리오
회고록
토기
앤디
##투명
잠재력
##국과
연행
잠입
헤이안
여성주의
서사
베네딕토
##변동
##바이더
##천시
Forms
리프
subordinate
대교
방사
##현종
##전대
가군
일본식
부왕
금환
##WARNING
자질
머물러
화장품
도둑
성화
톱니
동국
아치
음절
고속버스
패망
우두머리
##노바
토착종
흐루쇼프
신도비
##개방
##요구사항
##003
일주일
영리
뉴런
겸직
##고문
신세
##미르
평창
격하
도교
조셉
갈리
출격
Shared
Scenario
subflow
간판
트로이
식용
농축
증식
현판
##곤의
아우구스투스
올림피아
Binary
##윤리
URLs
피츠버그
무척
추운
하급
오일
녹색당
폐허
유아기
##1924
로베르
해트
##path
리버
갑작스럽
##폭발
저질렀
야심
지바현
##Common
##당사자
##마비
##Host
closes
해태
친밀
##상국
주나라
받치
##확정
##저작
불릴
진수
세이브
가졌으며
뽑혔
공안
잃어버린
추억
페르디난트
사상가
##어군
##상서
##변호사
overrides
##태풍
가뭄
택하
파나
##평론가
종착역
##거부
구한
##제목
UML
컨소시엄
##약서
MQDLH
nofetch
부양
비어
발라
밝혀져
인산화
목판
카르타고
viewing
##Back
concurrently
zip
금강
MQFMT
##DEFAULT
matched
정박
중용
불경
귀신
연희
바인딩
##Are
##Adding
##Our
vCenter
MQAI
플러스
##도스
신정
##공립
관우
탄자니아
##성서
장자
발가락
##제시
intend
유전체
Tab
합성어
다국적
아군
촛불
##1923
아편
##이브스
장쑤
Actions
간호
항공편
다항식
구약
몰도바
비옥
농성
남방
이주해
##태종
##촉진
##Internet
##adapter
메이커
DSN
Automation
직렬
##text
네임
##인들
오만
우라
wrapper
##기회
일리노이주
Components
바뀐다
##머신
Environments
조장
위헌
##1931
정국
제작진
남매
##우라
테리
##如來
연중
##성인
피우
순항
골짜기
줄곧
트림
출국
##바위
분실
##Take
여정
호스팅
용해
cumulative
희미
##내각
비싸
구와
불러일으켰
##권력
풀려났
친위대
애국
새겼
관현악
##SEQ
이해관계
##공시
고층
열의
지문
##수록
형의
저작물
MQSET
언론사
##청주
접미사
##라이프
앞뒤
단거리
왕래
증손
##코파
##새의
대좌
쇼핑몰
평균값
이진
나간다
들이
강세
조형
요지
압록강
##이듬해
도르트문트
locking
##상용
##false
##만족
MQQueueManager
subdirectory
oracle
혼잡
경영자
요양
##구스
히어로
##1921
절친
입법부
패럴림픽
Handling
MQQueue
와일드
패트릭
호투
canbe
할지
빼내
ETL
##119
퇴사
##NOTE
출판물
파커
장난
아이스
##해냈
##1917
국철
콘스탄티노폴리스
만화가
북군
친선경기
전라도
hint
##update
##process
PostScript
thecommand
판례
군산
찾아오
##섬유
##HTML
교훈
도어
##온도
##혐의
가드
자취
도요
사이토
사슴
반동
##현감
##유닛
역동
방문객
Verify
체내
Tables
##CASSCM
안경
친한
게오르크
신석기
calculate
IIS
Prepare
##sensitive
expired
RMI
온난
창립자
근사
은폐
반대편
치료법
모건
##이베이
##리터
니콜라스
씨족
왕건
포탑
쥐과
##업계
limitations
공연장
manipulation
authorizations
문맥
시연
엄청나
치하
##1914
Validation
##Perform
args
침식
독주
일차
가르쳐
내려와
볼트
양파
요직
시원
편제
놓였
한민
꽃잎
##훗날
유라시아
픽처스
가져와
##공고
clustering
완성도
항생제
배리
목요일
입상
출품
##어파
데뷔작
##쿠니
도하
달린다
태수
##테크
middleware
convenience
차질
Raid
##that
uncommitted
손님
발판
평탄
걸린다
기념일
몸체
##랑의
바닷물
OB
하얀색
버티
##평의회
미학
지난날
류큐
무과
역사학
강구
##위탁
##고전
Define
MQSUB
전액
answers
dependency
처럼
##예비
만기
##발행
십자
사지
##명사
뱅크
부화
첼로
와세다
독살
봉해
recommends
목적물
standalone
##아르
펀드
##남성
합금
릴레이
##남자
구타
내야수
로키
창시
##적한
조나라
##이외
##KTF
##물론
programmers
유화
##렌의
유기체
떠올랐
지질학
갇혀
연주회
맥아더
##’()
실점
applying
KEY
Alert
##Installation
##`
importing
typed
##database
Bytes
##새로
생생
카피
피의자
##Indicatesthe
거룩
신주쿠
선양
##"&
원군
Deferred
##징수
succeeds
operand
괄호
##루이
가해자
증발
프랑코
##쥐과
designing
적체
RRS
DECLARE
##임무
MAP
세밀
강당
시비
웨이
헬싱
##편이
농경
서주
가비
##院君
queued
simplify
커스텀
##CONTEXT
##Advanced
증강
##지명
##다니
##으러
##韓國
켄트
대승불교
발톱
웃음
inserts
비지니스
매월
중개
대명사
한꺼번에
Acrobat
쳐서
장병
수열
급성
칸국
연예계
공의
함경도
선봉
아라곤
에스페란토
소아시아
광복군
승단
도난
dashboards
##Work
##with
경지
개로
##조항
##로봇
##피스
대표단
발기인
오토바이
##1925
비스마르크
페르난도
사생활
##공인
경감
KTF
warnings
Login
##육의
evaluates
##Used
괜찮
자명
계보
만장일치
상고
열렬
기뻐
호소카와
아리
##FAILED
가령
##위하
##Attribute
생리
MQMessage
사라져
민심
난이
##1928
중원
짐승
##cd
##교체
가결
지킬
공석
##div
초의
감마
미나모토노
대관식
침수
매도
Template
descriptors
겹쳐
리얼
능숙
##공동체
기전
중합
##1951
모함
##1907
하인
준하
JRE
유니코드
REFRESH
DBCS
익히
##유리
결의안
과격
화학자
만류
마스코트
서아프리카
##유사
##제거
플랜
부스
단결
대류
여긴
반포
##Global
##어인
patents
cipher
아산
##에다가
무고
강했
협곡
지배했
참전하
보컬리스트
후지와라
Invalid
tabs
uninstallation
##Following
##도메인
승률
타르
평택
사치
온두라스
필사본
상어
모반
따라야
FISS
proprietary
스코어
대여
##Put
쌓여
##Like
따지
##애니메이션
엄밀
고등학생
이윽고
##Edit
##그래서
한데
OSI
겨냥
해치
꽂
여의
##소수자
재벌
##이야기
라스
억울
패자
앞바다
안토니우스
징병
법조인
교황령
메츠
##읍니다
##당국
##워치
내란
고인돌
소박
왕인
##쿼리
##number
conditional
##설립
##130
MESSAGE
eXtreme
전구
꿈꾸
버지니아주
투신
내분
##토시
승상
무결
##기초
Diagram
##플랫폼
화살표
수수
##반복
assigns
##Free
양심
서점
파이어
넷플릭스
위시
동남아
##니까
서한
선구
리즈
핵분열
난징
외척
메트로폴리탄
결장
##송한
attach
discard
##프레
카운트
##Deployment
카카오
정규식
원상
##나갈
내세웠
모피
군림
사서
끌려가
moreinformation
##Options
Confidential
노란
##시내
모빌
항문
모국어
##제임스
율리우스
손녀
임정
셀주크
카프
코뮌
아키텐
##>)
동종
표절
위도
판매고
##소녀
송도
가독
##참모
##1922
특전
오르간
partitioning
환산
STOP
##하드웨어
##지연
WebSphereMQ
youcan
취한다
구슬
##conf
##대상자
독립성
두뇌
반론
##고기
무겁
##능이
도미니카
서산
##노동조합
에른스트
향신료
호크스
Enable
레지스터
성기
콜럼버스
사랑과
##인산
전해져
미토
ensuring
Adapters
보입니다
실효
국제법
통폐합
날려
시니어
딱딱
여진족
대원군
반감기
##스케이팅
종영
##Determine
Usage
수퍼
브리
청각
조연
전대
미합중국
떨쳤
Decision
##노인
완벽히
router
변한다
애착
중생
연산군
붕어
요괴
##비와
ordering
성실히
영동
죽일
##출판
에스컬레이터
혼다
조선공산당
황소
그린란드
acceptable
##Remote
##폐기
충청
MOM
##라이브
##규제
SID
##Report
##통화
Distributed
국산
다녀왔
재판부
유클리드
해병
structured
##><
위배
##Tip
기조
관용
가세
##1934
복소수
정려
시마즈
항우
awk
굳이
카운터
BAPI
후면
##로로
덮개
끔찍
북측
##공황
루카
##텍스트
CONNAME
##차장
스킬
신입
경도
##수석
매킨토시
신시내티
푸틴
남원
##셴
맞대결
정해졌
leverage
약어
Instances
하이퍼
식의
QMgrName
스팸
비스타
계의
기업가
##레이시
당장
##시위
논평
혼합물
경복궁
물러난
유충
아놀드
사절단
카디널스
세울
##Starting
Specification
##개편
##토지
찾아와
특기
세웠으며
작품상
가방
##1926
하행
의논
불가리
실태
부의
##002
##Real
일과
급속도
Sybase
적힌
##ISO
##He
##DOS
##모임
##카타
후세
유년
성품
시몬
명상
오나라
adjust
##자율
paragraph
##카메라
올라온
배타
##Deploy
##Valid
algorithms
##Online
객실
주저
##투어
##식이
남동
온전
일렉트릭
매사추세츠주
##북쪽
로큰롤
##Of
shipped
JMX
메가
표창
Correct
alignment
악당
사수
펠릭스
축일
라이베리아
신상
##Attributes
고품
스윙
##1905
결사
수나라
세네갈
##수동
공상
FTE
양극
균일
즐거움
대제
베일
체육관
야마모토
##귀족
우간다
##"》
##High
##학문
Utility
##플러스
##상담
caches
기울였
형편
대타
헤르
로맨틱
토미
##菩薩
##형상
수질
WPS
EBS
directive
##면역
quote
부인의
입혔
##작과
잉크
##너스
회견
위안부
##Import
모체
XSLT
트렌드
##감정
##skeleton
##산맥
태어날
즐겼
피치
추장
문학상
가르시아
야마가타
처칠
##신앙
##Loader
안심
##Restart
Formats
TTA
Siebel
동일시
##구단
##하늘
후계
박영효
유정
진출권
안건
ESX
##판결
##지상
퇴출
현도
추서
독립군
소론
프리킥
##향교
implies
##수급인
##주사
##러시
도산
##"-
정당인
요리토모
알폰소
친숙
##사후
교재
ASM
##대륙
##어린
재결합
##타르
복부
제창
관현악단
프란시스코
헤겔
##尙書
##Sales
Transmission
##분배
##마음
음의
위계
자판
##폭탄
정경
사주
##포고
Clustering
통역
노골
외계인
쌍성
뉘른베르크
현악
예언자
산티아고
삼진
##매출
##Consult
대등
단수
parentheses
결렬
##제기
##신부
선보인
시그
구전
리우데자네이루
##중량
케이크
사역
모신
칭기즈
incomplete
재화
offline
backend
##오니
경영진
Optional
휴일
디테일
보행자
함부로
스칼라
##차관
샤프
칭했
고갈
##1908
올리버
거병
##아목
코트디부아르
명기
##발주자
networking
확약
RETURN
##보안법
##롤링
즈음에
소관
##Memory
##상금
##전공
비고
notify
계량
cryptographic
IAM
##원단
목표물
##세이
파스칼
유머
갑각류
도면
##='
뷰어
지평
BPC
글러브
진심
##간다
##참의
석회암
시트콤
지리학
##우승
히데요
날아가
승정원
제갈량
시동
incorrectly
BIP
왔으나
##Dynamic
클리어
지남
마당
##단원
키워
이륙
##선거법
##역이
사하라
심리학자
꾸몄
베네치
모나코
##유부
##경력
실습
균등
##clicking
guaranteed
Registry
##주문
다닐
NIS
REF
베스
석권
##현과
인플루엔자
성폭행
우연
남아시아
##나자
##겨울
진언
오하이오주
다이빙
삼각주
##광해군
##기술자
notifications
##성명
Telemetry
변혁
diagnose
그라운드
KTX
춘계
댈러스
##공산
미야자키
동남쪽
쓰촨
##란트
##히라
##Does
##SEND
조건부
##Just
##오프
지극히
모던
##장인
입술
콘라트
##기념
유니언
배향
수협
데이트
##하도급
디렉터
VLAN
clustered
MSTR
##마트
VLDB
##기스
선제후
자동변속기
##멀티
packaged
##EMP
pressing
expiration
사업비
indexed
여의도
프록시
##연극
된다면
##고교
조선소
##오사카
어둡
최진실
일러스트
##진상
equir
에세이
바그다드
##gure
##그래픽
prerequisites
Microsystems
READ
##유도
##이집트
몰타
리어
공판
바지
헌병
온타리오주
##페리
CONNECT
부득이
##복제
총액
검정
##대량
##여의
이질
MQXR
번개
만연
천하
순종
여객기
원만
##http
confirmation
anonymous
##재분류
격화
접두사
전권
전미
##날짜
체감
하중
##보상
separator
Viewer
unsigned
바비
밸브
Finder
##MBC
돌아올
##여름
후회
##1927
서거
북대서양
##동맥
##총독
환승역
##書院
##Part
미수
현저히
Launchpad
TSO
일선
##National
Changed
용맹
막지
조용히
##봉사
엘리
산시
남군
##LOG
##산정
SHA
##
##수입
용산구
함양
트레
백과사전
낚시
무능
기미
##악기
에밀
optimized
##확대
##대출
##포털
##msg
누른다
마트
macros
한중
원심
문체
고로
변했
치른다
의주
파시스트
후반전
화랑
허목
Sets
COMMIT
당기
급수
도형
##퍼티
들어올
청중
동률
맞닿
드러난다
빼앗기
사바나
히스
고을
전속
rely
법과
##Character
번이
##그린
##청약
##압축
공법
반향
군청
곱셈
경이
기장
교관
서안
장대
어웨이
수도사
출정
##포켓몬스터
##Furthermore
대국민
##Usage
내로
기록관
##테일
SVI
상식
광선
##카를
##판과
변해
후임자
경희대
봉우리
재빨리
펼쳐진
날리
야권
퇴진
싸운
##日本
파르티아
로잔
incremental
돌려주
와이드
각광
악용
Listing
색은
##신화
범유행
언더
구강
그대
빌바오
적기
불문
##Running
돌아간다
##Tibero
##질량
##CoA
귀가
불의
물리쳤
저널리스트
열망
기압
텐서
리마
선천
드미트리
개신
가이아
족의
##호른
감액
상설
MVS
##부정
##부르
방문자
##Current
##문명
매기
모멘트
##대교
##1929
논리학
강화도
미망인
트램
후쿠시마현
redeploy
dif
##STRUC
##글의
##콜라
튜브
Distiller
크루즈
시력
토로
던진
가져갔
버터
선대
로렌
다카라즈카
콜린스
##when
CODE
부적합
##레터
##password
##예외
##BLOB
저축
끌어들이
부조
횡령
균열
##오스트리아
##훈의
조지아주
캐리
switches
견적
##반영
Parser
##손실
##호텔
호전
규합
길거리
##집회
프롤레타리아
도적
니콜
배반
함장
##가공
##YN
##Normally
블록체인
절대로
숙련
##로우
##진화
##리라
그럴
주오
갈릴레오
남조
저격
매복
determining
##국제공항
##상호
outgoing
##local
외교부
가든
섞인
원자가
##'()
배아
plugin
배당
레코딩
지하철역
겨루
처치
야마구치
##타현
흡연
망치
작중
우왕
##坐像
##ERP
커져
##Replace
shortcut
##=<
paste
##environment
##단백질
assembler
제너럴
NAM
압수
워낙
##국인
아프
##투수
##수술
볼록
##서진
동시대
##Without
##교육청
걸릴
##산출물
매끄러운
##Which
##바탕
thlqual
##++,
##대수
##학사
Inbound
교란
##날개
우체국
##헌의
커플
##1904
강대국
##농구
DATABASE
세단
##오늘
##방어
동의어
원에
##부스
##연구회
##하임
피쳐
주거지
플라이
##사격
브레멘
도도
넥센
야구부
바이마르
펜실베이니아주
엘비스
유다
대장군
##조연상
숙지
##threaded
쟁점
##QUEUE
일간
##비상
대입
내려갔
ICBM
향기
올라왔
올라와
다행히
저지르
논증
라파엘
##방침
접점
##CICS
##대체
##Custom
builds
미디
돌아와서
중고
황자
hPa
플랑드르
부팅
Middleware
##Find
##농민
프로필
양수
합쳐져
뚜껑
곳도
광합성
마쓰
쫓겨나
생포
명백히
Logging
disconnected
replaces
혼용
양면
치료제
부사장
법제
개척자
불길
목이
출사
잡혔
재판관
알바니
가가
conversions
##OUT
측량
MQMDE
모였
롤플레잉
야드
건네
##정주
슈투트가르트
황위
내몽골
틈타
플루토늄
이리
베르사유
스테판
elapsed
##하지만
해수면
##진출
arbitrary
##판단
자격증
##테러
XID
##공군
XMLNSC
간호사
참수
멋진
흉내
##로니
차명
충칭
피살
점성
##청년회
##미쓰
개경
simplest
aggregated
당당
##가액
Binding
##양자
3270
첩보
데니스
북조선
아키라
교파
사커
공황
도망가
슈고
중건
timing
원가
automation
##대우
##셔야
혼재
행한
충동
amessage
정맥
##국도
##Robert
모자이크
증축
약해
열역학
전열
악곡
유년기
사악
잉카
글로브상
helpful
##DELETE
TimeOut
##Main
##발견
##install
##Core
serialized
##시킨다는
스케치
미라
아름다움
중공업
##당할
자작
철근
남산
형용사
실린더
실책
터너
천도교
핑계
영화상
이노우에
제단
리스본
윤휴
populate
레지스트리
편하
##당신
##>/
미달
과세
containers
송신자
팩토리
##예수
##이루
소의
늘렸
실어
##기하학
요하네스
구스타프
중심핵
오릭스
##통해
##줘야
걸맞
국내선
ADK
##서가
##REC
특별법
##슈타인
충고
프레드
유타
공성전
부르봉
병자호란
##노카
##도리
중공군
##Link
##errors
UCS
##compliant
##매일
변한
##플레이어
권의
##시드
과자
##皇帝
슈트라우스
페로
코퍼레이션
마천
애슬레틱스
##가입
한눈
시제
남지
단자
유익
자신감
부두
이세
일리노이
출병
비긴
귀책
##검수
##Compuware
tpcall
abend
##Creates
타이밍
유전학
데려가
플랑크
이즈미
콘스탄티누스
##Complete
전보
##문자열
##enabled
##Async
##차단
##Unlike
##General
##송시
해운대
영등포구
후보자
JCo
절제
제이슨
합병증
##센티미터
죽여
축복
수레
시문
##WEB
Descriptor
Patch
충실히
forwarded
Exposed
요법
격상
미카엘
베테랑
##토와
와카
키릴
##본국
##컬럼
산술
CTR
enclose
고난
향한다
받아들인
##처장
입헌
거사
샌디
청춘
##SIZE
캡슐
##리기
##포탈
##트럭
##물품
##출동
##RPC
##고개
행해진
후유증
이랜드
대인
상선
이브
퇴적
바리
정실
조슈
##노현
##하이드
형주
arise
##키가
browsing
비대
Variable
##소유
초석
복사본
가맹
##가인
집의
프라하
로이드
브란덴부르크
수다
일렉트로닉
영장류
이사벨
사다
처마
관위
##업로드
용지
Integrity
overridden
##마우스
##놀이
Menu
그레
식스
접합
폼페이우스
뉴잉글랜드
몽고메리
warranties
폰트
##count
##가시
첫날
##소형
MQCMD
칼라
##노래
동거
##근대
패퇴
칼륨
잔혹
빅터
미야기현
bandwidth
reasonable
Rollback
>>
hierarchical
모태
##대형
##로라
##논문
이마
광업
유명세
레닌그라드
고지대
금색
곡식
사탄
바스크
후난
사림
idle
Tracker
##비동기
##계속
##Changing
HOST
거시
##러닝
dispatcher
##삭스
치밀
송파구
ITSO
##레트
실상
월남
포르노
발착
##에르
##天皇
옥사
덴쇼
RQ
##주도
##자재
##BASE
##개년
배송
##려다
highlighted
농담
##handle
싸이
합쳐서
교차점
도성
가려
스킴
##오가
지르
중거리
##쵸
AKB
무패
거버넌스
설계자
습도
##공부
##러서는
폴란드인
##베트
광둥성
저그
경멸
벨라
##총의
##소송법
인건비
##param
fixes
##MQMD
Modeling
enhance
namespaces
##소재
cube
transitions
##캐스트
##멤버
대도
##라니
##외국어
시찰
억제제
다이쇼
성직
야수
혼혈
고토
##Call
레퍼런스
DRM
##Drag
qm
호적
##동화
나왔으며
##밀리
재물
내게
##베스
오일러
##순조
고추
##1906
크메르
다마스쿠스
##노마
사다하루
##나투
무효화
Tracking
중임
prerequisite
QUEUE
instrumentation
##저축
숙박
문건
##HTTPS
시차
불어
MSL
고성
오슬로
마늘
##codice
푸젠
수비대
여포
대전차
모잠비크
##부군
##Examine
##견이
Clients
UUID
아닌지
deprecated
asynchronously
퇴치
범람
##Sometimes
##높이
양분
즉흥
탄두
프리츠
건륭제
##그레이
##SMS
##5000
임치
Temporary
효용
##차이나
##늑대
데일리
호기심
##멕시코
엿볼
호화
선체
자백
통솔
사병
국가원수
함흥
죄인
격침
##나치오
##initial
##리전
##포럼
##ESQL
retrieving
지에
힘쓰
수요일
간사
향수
니켈
조비
알프레드
사령
친히
안톤
##중지
##침의
##메타
##센트
##px
줄기세포
올리브
##그것
Delimited
##홍콩
빠져나가
하강
줄였
미묘
##나리
드러난
돌아간
오아시스
돼지고기
막아내
법전
장갑차
##윌리엄
쓰촨성
헬레니즘
요금소
##학명
##기본법
##Directory
말소
extracted
국문
시킨
##구나
로열티
원점
관찰자
붙잡혀
비참
자치주
항아리
YG
prefer
##EJB
신병
FML
기울
내적
##비서
정거장
타임즈
주먹
##헤드
##집니다
쌓이
remotely
##존재
##원조
Expression
안겨
##히트
JTBC
후드
남송
##高麗
트라
왜군
##백화점
하자
정직
농가
##Several
심근
버진
속보
메모리얼
단과
사라진다
모조리
북아일랜드
후베이
며느리
천국
조봉암
석가모니
##차역
##BE
통영
운동량
당뇨병
float
이뤘
중신
나와서
##선사
아쉽
다람쥐
보좌관
이광수
당한다
서품
이마가와
트로트
##땃쥐
##VMS
APPC
바뀔
reusable
Statement
src
단국
Managing
##병력
짝수
##William
게이밍
천안시
인문학
금강산
##》,《
영적
다윗
유길준
##UEFA
동탁
테크놀로지
MQCMIT
expects
##파괴
svn
출항
##관념
모터쇼
##으론
교명
##가사
천연가스
이회창
잠수
아테나
##여우
isnot
echo
처해
underscore
##부품
뮐러
포섭
손목
자막
아르바이트
보리스
사영
낭만
독수리
매디슨
##src
##채권
##샵
치중
##라이드
지터
우표
내려온
아이오
자각
중후
도제
##석탑
무너졌
몸집
봉헌
대공국
##스와프
##Documents
relates
##주름
발열
장차
##병단
사카
막시밀리안
루이지애나
테르
훈족
##태조
기요
##히메
오퍼레이션
##조절
##NIC
tokens
COVID
SunOS
추계
지령
개개
##주석
점토
서스펜션
개축
폐차
경시
칼빈
blocking
##니즘
화요일
##아이디
##우편
suffix
##Disk
바이어
debugger
predicate
##은지
하이드
##패스
걸치
관개
근방
양력
순교자
에드
뉴올리언스
거머쥐
볼넷
댄서
문종
아츠
ping
Drag
##Tuxedo
매칭
##Why
##160
수산
Balancing
우월
##STRING
보였으나
##차선
선회
유목
구이
엉덩이
전범
수프
문집
율법
##공룡
Layout
apps
Packages
unpredictable
reused
conn
informational
랜덤
regression
스크롤
갑작스런
거품
파푸아뉴기니
경호
르네
북벌
술집
쩐
라울
쫓아내
##광복
연습생
풀백
가면라이더
##표기
##원자력
##ODBC
##SAS
##가이드
거쳐야
신진
##자식
##American
##전과
회차
영사
병원체
아나톨리아
기근
##불상
파라오
전사한
베오그라드
위그
Steps
도표
##KT
클라
결실
##가톨릭
인치
하비
트랜싯
##전철
키웠
도네츠크
##남매
요나라
도끼
북극해
니혼
고고학자
개구리
##계산서
물량
재기
##Specifying
##Upon
강서구
에코
터빈
원치
##Returned
##일기
인디애나
기부금
가까웠
주기도
나리타
##퍼스
황도
##전설
핵탄두
독재자
아이디얼
도망쳐
루체른
사할린
지팡이
레즈
##국토
사변
트윈
##Properties
scripting
도보
아이언
##폐의
모여서
##세운
##핀란드
왕명
집어넣
다채
아리아
수필
닛산
학술지
치루
평의원
쇼트트랙
##축구단
로버츠
케이트
괴멸
##자나
##보전
##학술
##네트
##다시피
##Selecting
LIST
CGI
MQSO
미스터
합창단
커브
잇따라
수은
영정
행군
게이오
##베르타
결투
##1912
##플레이오프
면직
곱하
##도서
##Task
##인증서
##최소
남긴다
##리크
떨어뜨리
##냐는
##수원
국면
피크
단조
##동지
관성
##요법
나눈다
타이탄
코난
다비드
서프랑크
원내대표
안드레아
##COM
##사이버
오른다
##국사
##선전
##타자
##미자
도상
걸프
김일
건너갔
루나
동아프리카
utilization
##침해
##기종
Grid
도식
##물건
여행자
primitives
##티티
segmentation
##수송
##소가
MQCA
##닥터
가치관
국공
가락
##마르
에탄올
##공파
청룡
귀순
스틸러스
##출시
ROLLBACK
##host
스텔스
프론트
마르크
옆면
프레스
와해
쌍대
민물
##山城
연임
업무상
##사정
##domain
##운행
##비교
DEFAULT
##International
바를
incremented
다릅니다
Classes
##103
##체인
음식점
##105
ineach
웅장
구가
군복
개화파
##노예
유식
타일러
왕좌
alerts
individually
##전파
##''
강좌
운수
종신
체인지
##입자
담임
데이빗
##시립
바빌론
##인류
능하
천왕
경종
##WHERE
##져야
단기간
CEI
잡힌
##금속
히타치
##관구
원통
프로그레시브
##Love
##다인
유림
고생물학
본작
##체험
``
세븐
갖가지
중공
##1895
##토르
자책점
시그널
사무국
##NET
##원가
brackets
ObjectName
금리
predictive
국의
##에이
코스닥
착안
강타
전주시
직함
화소
앤서니
##마스
프로방스
##영향
가급적
##보조
신주
위법
widgets
dateTime
애매
브리지
사우
##위안
기획사
관대
노르드
참된
티무르
표트르
결전
##리트
수도회
##라흐
앨버트
권익
시작점
stamp
실물
알려준다
광경
평상시
##브리지
Programmatic
자궁
히브리
산문
알칼리
레이건
세라
안티오키아
이체
Sockets
CRL
##문은
공영
펼쳐지
급습
부분군
쓰여졌
복싱
귀인
상서
코호몰로지
대소문자
RFID
줄임
colon
완비
iterator
CodedCharSetId
Patterns
snippet
##개체
차수
사모
##대인
##이스라엘
낙하
이모
서체
맥스웰
##작인
##레닌주의
구단주
페널티
야마다
승지
주포
##규의
생성자
캐쉬
portable
##불가
입회
MODE
parsers
VALUE
넓혀
불려
LocalEnvironment
##Again
앞부분
CCSIDs
속이
루비
##자유주의
##루가
벌레
가까스로
공은
랴오닝
조각가
알렉산데르
도야마
건널목
##올리
enterprises
orchestration
##Migration
제지
##=”
##바로
분개
##약자
여야
QMG
군비
종묘
시네마
게놈
정의당
좌천
반역
자오선
기와
카롤루스
##FISS
##분할
##코딩
DMZ
해운
육박
MQRO
혼돈
지난해
들어와서
본능
조우
루시
바닷가
니카라과
듀엣
아키타
##컨설팅
##Gbps
appended
##금리
licenses
고취
##KBS
##label
우대
기판
잇달
부에노스아이레스
##어머니
석재
섰다
모교
해왕
유목민
색소
오우치
퇴단
sequential
##열람
distributing
증원
##오버
현명
UDDI
남양주시
TAG
특명
제프리
형질
종별
자수
성폭력
함자
호프
젠더
억류
##호프
출세
라이온스
공경
도키
##우측
불복
최우선
월별
유비쿼터스
##운송
ROWID
##청이
미주
앵글
느낀다
안창호
박사의
일제히
감명
스파
스케이트
천수
##Performance
differs
적법
이루어져야
Concepts
원동력
젂
피오
도안
##Ÿ
달렸
빌미
파격
보유자
두껍
##사거리
서클
항소심
##잉글랜드
새뮤얼
미첼
무너져
자루
##꽃차례
엄격히
용이성
##이관
국고
##Suppose
subquery
##스웨덴
입시
레이크
세미
##네이션
##터키
홀수
경내
희박
양서류
##치카
##해리
헌터
##보관
duplication
##셀러
addressing
지켜야
커맨드
##Resource
추궁
robust
시킵니다
##ORACLE
식이
뺀
미얀
살피
레몬
##;&
버려진
심정
##숙의
빼앗겼
실록
localhost
##상위
조서
##CODE
ip
##웍스
신기
##보내
##transaction
IIP
숨겨
미주리
한정판
컨디션
신봉
사흘
왕당파
공군기지
레이디
집사
##xed
잔액
##예상
##무상
수강
Coordinator
##Single
##살인
니스
##바람
불쾌
이리하여
클레이
굴욕
오토모
사학
질투
압송
##묘의
오이라트
네이션스컵
마천루
##Level
후처리
좌표계
ibm
upgrading
Generate
##Simple
Variables
representations
rendering
끊이
##Rational
의제
##려다가
광택
사탕수수
세운다
소탕
크라운
마이어
도미
불렀으며
초식
애덤
강희제
무쓰
##바라
##OneAgent
Feedback
##PUT
NIC
사각
교통카드
본회의
초록
외과
도리어
##선인
사드
##워스
오리온
진원
퍼텐셜
슈퍼컵
생산자
등기
disclosure
careful
##Export
lesson
Selector
모션
##CNT
조차
기민
레스터
Wholesaler
발터
피스
자본가
##라마
프로이트
##라드
조기어류
철종
셰퍼드
pathname
Column
##어린이
##스위치
auditing
INT
비대칭
결집
##란스
아연
외가
솜씨
너희
##아메리칸
정착민
루키우스
허난성
BEGIN
YTN
##첫째
refreshed
SMF
수납
클로
SSH
##스나
승선
윤곽
암모니아
정말로
##혈압
한참
국부
로크
관원
철기
요율
위젯
##Sub
Hconn
개찰
분의
insufficient
##모형
치수
##나이트
상향
##James
##심리
비방
##게이트
하순
##영장
oup
천주
일삼
관군
가쓰
##Cluster
상충
군데
금고
scroll
샘플링
##DEFINE
##은의
견지
무지
##에라
야전
좀처럼
지경
맞대
신지
루터교
건너편
##자본주의
에바
트럼펫
카스트
##보르
##보컬
향교
예문관
GID
원할
##RCV
##dynaTrace
출원
조합원
Gentran
아이스크림
한국방송공사
PfmNumber
깨달음
양념
불평
버섯
마니
행운
교감
##필리핀
##주군
타선
기권
시이다
셀레우코스
베컴
맞배지붕
요시아키
공식전
thesystem
##Content
TRIGGER
##nm
관내
불명
OO
##본명
탁구
마리가
재판소
시카
감마선
마오
히로부미
관저
오메가
##Based
여백
Failover
Receive
##response
끊임없
붙인다
##천억
외래
종가
부관
새우
래리
악역
아미
여생
화교
개간
단역
archiving
ISP
##부하
송금
##관계자
서가
부엌
대목
##비서관
유독
정사각형
동맥
##리안
해주
##오리
왕자의
잼
플로이드
교구장
미시간주
minimize
부하분산
드립니다
##탁의
##업과
BAR
##리더
##매우
MTS
발상
용의
트랜지스터
부식
중서부
금호
옅
##동쪽
효모
케이프
세르게이
##文化
견훤
##일수
교내
resume
캡처
옥상
떠돌
HMAC
캔자스
사교
빛깔
##이우
##원숭이
노르만
사르데냐
가도
cursors
팀장
##사양
insight
installs
심층
##상표
unused
resolving
FETCH
##리포
풍요
태양광
외벽
애완
분홍색
배워
미인
##時代
경부
개막식
그래미상
오키
결탁
##관한
##reference
미들
riser
재래
조개
혹독
든다
추위
록히드
형광
담론
오스카
##오스트레일리아
베르나
마레
##카미
나카
searching
##Write
##Shared
착오
##위반
드론
ANY
##이중
##Monitoring
납입
##급체
##발표
CLUSSDR
포상
##QMGR
후반부
ActiveGate
가로막
깜짝
##서장
반대쪽
찾아왔
클라이맥스
##나치
필하모닉
민족주의자
전란
고성군
미식축구
compute
곱한
##profile
연체
##담당관
##기호
outputs
정예
##앞서
나인
SEND
##350
DSL
고려대
마라
##들어가
떠올리
스태프
진주시
권세
은신
강성
##Customer
UEM
분석가
##Optionally
propagate
##Diagnostics
##Managed
inquiry
앵커
호흡기
rc
파주
##아동
##방면
예비역
사업장
consume
APP
##Keep
Websphere
garbage
Authorization
##민원
테크
시뮬레이터
Execute
OTT
WITH
국무부
테헤란
회부
Indicateswhether
골절
하우
양위
##스티
##司馬
포대
##ORDER
##증명서
forexample
리서치
encrypt
독려
##Leave
SPACE
integers
##일지
진위
##FUNCTION
시흥
꾸미
##>]
라면
상법
##매개변수
분쇄
스케일
##').
##나중
풀리
수증기
변호인
지도력
##됐으나
반공
먼로
토스카나
안철수
##합리
conforming
붙여서
##Integer
keystore
Id
테라
과감
processors
헤어
직권
견딜
콘퍼런스
초판
마술
##주머니
##주인공
사나이
망루
두르
돌연
로페스
busy
CVS
백본
##공모
ADP
리비
코팅
##프라
매니지먼트
소란
##일수록
##과학부
카지노
화성시
민영
##이치
만주족
당명
열광
아스카
현감
##online
VSAM
##Enable
##}.
##상장
인테리어
기울기
손바닥
NEWYORK
서둘러
설사
자연수
동아리
어리석
베이커
##해인
주계열
군주제
톨킨
아픔
터뜨리
##Info
##용품
VIEW
Documentation
바인
##전형
##Move
##World
##소켓
뭔가
분장
##레드
##1911
센티미터
네덜란드어
영미
탄광
##주연
로널드
르완다
안데스
바나나
미카와
##장로회
##EXTRACT
##연장
##팀장
backward
##행과
##득의
##센서
소문자
주시
##DEF
##로움
SCM
##타트
챌린저
오인
비엔나
언젠가
돋보이
처했
##어판
가온
캠벨
참모총장
어쿠스틱
청하
세키가하라
##WAIT
##메터
Incident
##대리인
기피
메서
WebLogic
##TLS
##프레임
지방관
늘어난
##상인
벽면
국악
마인
##리온
채집
보어
오비
영사관
저스틴
독실
##신학교
포위전
트라이아스기
##태후
블루어
##Load
##재정부
##MQSC
concatenation
##Attention
증액
efficiently
ESM
Required
##몇몇
통계청
##연간
대용
모아서
MQCNO
WBE
보라색
##고려사
Separation
영수
숙고
##터스
재정난
시편
통킹
묘호
##門下
외장
##220
편의점
따를
누른
밀착
계약자
##타리
Delivery
예금
##배경
msiexec
##구미
##유산
그랬
당은
윌리
이완용
유폐
아이젠하워
앙골라
마에다
거제
캡쳐
호가
어음
효능
파급
고분자
##충분
시냅스
골자
##실업
수렵
이건
앤드류
파열
습성
복소
장강
도읍
하이든
주둔지
다이노스
의병장
독립국
클레오파트라
노엘
thenumber
뱅킹
capturing
runmqsc
##자바
게시물
휠체어
일한
키트
##record
polling
##견의
##다운스
##상당
JTA
사이언스
분양
지리산
잔디
헤센
##관직
##라이너
시게루
절도사
달콤
##≫(
##방화벽
폭우
엣지
SCSI
불변
##나우
##세상
##아요
그래픽스
##코르
서바이벌
유엔군
로저스
월북
예배당
천적
만루
스맥다운
##한국어
##진과
##예정자
Agentless
encounters
##language
KPIs
##반대
쪼개
##미니
발광
##아주
##해와
쓰러져
성명서
연유
날렸
반열
##방위군
분류학
후신
유물론
충신
산둥성
##요금
##오프라인
##단어
앞장서
##MD
helper
##라오
국사
루피
항전
표결
아이작
탄수화물
##케도
선거인단
지평선
몽케
요코
예견
장단
##AI
##CALL
##였음에도
미팅
canvas
zDC
##로와
##ESA
라쿠텐
호감
북상
상상력
바보
보라
기생충
고작
알베르트
단군
뉴저지주
알려졌으며
마린
##찬의
쿠페
대머리
##예프
##라프
latency
##BPEL
조교수
##기금
퍼블릭
Clusterware
불명확
환기
유학생
MQPMR
스탠
거액
서태지
##좌파
송진우
순례
리그전
페드로
프레슬리
아약스
##DISPLAY
logon
</
##하인
Embedded
automate
##Controls
현미경
##할수록
##Purpose
들어선
번지
##organized
##곡선
놓쳤
##1909
현생
##삼국유사
근세
궤멸
폴리스
타지키스탄
얼터너티브
telnet
##원본
토론회
장시간
##싱글
엘리먼트
Contents
##command
endpoints
와일드카드
구독자
##구글
##검찰
접미어
강압
겨울철
국방군
에든버러
##광무
바랐
원정대
JOB
appropriately
귀하
JCA
불법행위
##atrb
낭독
##status
onepass
고속도
철자
가정의
돌아온다
##몽골
부인과
군용
감염자
화음
찾아온
발진
승하
윗면
대법원장
##Unable
CSV
CipherSpec
theserver
레거시
tmax
syslog
안산시
calculates
Debug
해일
쿼드
인출
재원
투사
끊기
##히어로
표제
Jolt
마코토
공방
힐베르트
열렸으며
경부선
변장
신익희
##히로
거느렸
오웬
글렌
니키
영천
필리스
##HDD
전단
원활히
##기일
yes
Notification
##감염
노화
미비
loader
##해져서
슬롯
콘셉트
DbmsTaskServiceImpl
빈약
빨강
##특위
마그네슘
볶
참모장
개전
호른
찌르
##요시
꽃받침
InfoSphere
##/*
##Further
##this
##Try
매크로
##법상
##캠프
suf
다가가
다이어
퍼플
##장사
동산
한마디
##1894
윤치영
생성물
간청
피어스
분과
파트너십
bundle
##ADAPTERDETAIL
밸리
기다렸
precompiler
##유물
##쿰
감찰
유태인
의대
갈릴레이
애벌레
워싱턴주
도마
버드
바트
공물
다리우스
##tmp
Email
##단가
##SK
누출
욕설
##조작
DTP
연구실
ax
##중공업
보호자
##David
이별
한자어
새기
##독재
사대부
깁슨
외주
신청서
부응
보였으며
Diagnostics
Measures
Daemon
consumed
HDD
INTERVAL
##교원
내수
악영향
아바
이설
후추
수목
유감
DPOD
##글리
도핑
킹스
권위주의
남북조
헤이그
사죄
석기
다마
##작곡
##바리
##강사
heterogeneous
##Product
##Publish
synchronized
installable
##Include
Array
##>;
팔레트
문은
정주
암스트롱
##위대
##방송국
생장
##성경
##무용
급기야
바투
넓혔
셔츠
베다
가곡
권투
칸트
Hobj
##Contact
##기후
##Point
##매매
##아마
Displays
지날
경기력
##미시
오세
##오브
장전
한국군
서북쪽
세포막
쓰러지
아우구스트
반공주의
성채
괴뢰
버밍엄
알현
엔리케
##기생
로드리게스
스테파노
usingthe
##MSTR
##mocomsys
대국
##Monitor
Contract
지반
##Download
##360
채권자
Locator
디에고
띈다
사무엘
쫓겨났
조병옥
부여군
포위망
모터사이클
##Usually
analyzing
ORDER
Identifier
##할당
##control
합쳐진
##스토리
이명
피사
협의회
##벡터
제천
친절
정오
찢
감탄
직류
계략
구토
소크라테스
로베르토
패주
투니
오고타이
##1592
투기
##식별
##중소기업
SAN
소진
투자가
Mapper
SESSION
##BILL
모를
outline
##마당
vSphere
즐겁
출혈
평방
입적
쐐기
혁명가
전곡
청교도
네덜란드인
마른
압둘
갑작스러운
스타트업
출발점
이동은
Connectivity
떨어질
CI
결론지
서블릿
##화물
실리콘
##부부
올라갈
열풍
##Charles
포유류
언어학자
봉분
동창
용매
교육학
맞섰
불태우
누워
벵골
대사간
계투
globally
##급여
##separated
롤백
modeled
연다
##이곳
점심
##카라
슬라이드
이지스
스톰
인성
고국
사산
진해
다짐
문고
더구나
공화주의
켈빈
북베트남
증빙
경쟁사
공문
raises
##집합
encapsulates
거래소
받아들여졌
릴리
##파라
##:=
##더러
바레인
교지
노스캐롤라이나
##노스케
허정
허버트
올랐으나
기타큐슈
청군
연극배우
이상일
splitting
##리모트
ECM
compressed
##프롬프트
대면
영화관
##웨스트
##처벌
성교
방정
남단
공손
오딘
대파
대제학
발사체
##구성원
무제한
출근
봅니다
##고유
##성분
interoperability
##180
Decimal
본사가
##시노
XAResource
예식
문정
도색
출진
레퍼토리
요셉
투병
중앙아프리카
금산
analysts
총합
짚
온전히
##Failure
diagnostics
알람
상회
##박람회
##Close
##현지
어기
여겨져
XATMI
코일
##군부
병풍
사생아
증직
사이클론
태극
서기관
이오
##慶州
완투
목차
MSG
ACTION
Contains
postcard
##서식
RSA
농작물
사법부
설득력
##로버트
##당초
프라임
남겨진
발부
구시
격전
파주시
음색
도합
배상금
숙명
루머
변론
아나키즘
서기장
화풍
이바라키현
서남쪽
미노
##일본서기
무궁화호
새턴
잎자루
##리자
##감리
STATUS
인수인계
##""
initiates
가한
Interval
##AVAILABLE
MSCS
enhancements
##Provide
descriptive
둘러
인슐린
혈압
천명
산호
음주
퍼진
##자네
야행성
길쭉
갑신정변
율령
인노
나가노
##예수교
피지
하카타
Router
##온다
##Full
unwanted
배포판
연락처
옮길
##현금
##description
##RUM
채무자
➤
계약금
##합동
TMS
리터
##심판
##총리
##Init
보호구역
친하
연하
바늘
##유엔
마을버스
부산광역시
##야스
등산
이성질체
감히
노벨상
끌려
중앙정보부
여주인공
마구
기욤
##세르
대니
벤피카
sophisticated
ease
##definition
Connections
accumulated
nice
##+)
codepage
작업자
ConfigFile
코스트
부결
##천사
매듭
동체
indows
캅카스
역모
트리오
##복선
미주리주
끼워
폭주
##허브
##365
compliant
##static
상한
##입법
##우수
원곡
##111
미약
솔직
##상작
엑스선
파랑
특혜
튜링
호크
알바
구했
한복
외무성
레오폴트
펠로폰네소스
생몰년
조광조
납기
##물자
suppose
외화
Standby
마땅
스테레오
휴게소
드레이크
소용돌이
개표
버라이어티
주둥이
엘리엇
대니얼
고제
##근거
##140
emitter
시판
##그라
QLOCAL
stylesheet
코카
머큐리
루카스
교묘
##산소
행정관
모어
사무라이
불펜
extents
##슈트
오닐
##스토니
##인종
원망
메릴랜드
비올라
해자
unnecessary
IE
Receiver
##발생기
##아직
육안
##FAIL
hierarchies
연장선
철제
Manufacturer
명도
시티즌
농경지
캐논
무서운
포틀랜드
들려
관동
혹평
##니스트
황하
화북
##마디
《"
##마리아
##파에
태평천국
건륭
남한산성
옆구리
INPUT
##허용
scalable
##cmd
##융합
세제
틈새
학기
다름없
##VAS
##스러워
##기장
쇠약
청일
우기
##서쪽
경치
##channel
YES
##Live
integrating
2023
behaves
로만
##부모
tutorial
##유전자
클럭
음역
장택상
테네시주
길버트
보냈으며
##1913
개최지
위스콘신
웨슬리
worksheet
판권
##번역
##*/
##DIR
consuming
입힌
##어업
searched
##해짐
유추
##스토어
채팅
창업자
transmitter
##아라
트랩
테러리스트
방공
##고양이
훅
##군대
근위
코리
개그
총알
달라이
갈라진
델라
##유가행파
tobe
##둘째
##합성
##통신사
NetBIOS
carefully
mqrc
saves
##Unless
##SaaS
Available
인젝션
bitmap
탈바꿈
XQuery
##밀의
변속기
판서
내쫓
가이우스
고분군
현은
이와테현
메르세데스
소대
디비
##정렬
##이슈
transmit
highlight
남양
불러오
##SUB
핸드
##베스트
트루먼
##든다
울음
나르
##르노
부파
계몽주의
쿠데
그리스도인
##토프
봉작
IPC
별첨
Measure
덤프
Mpower
BIND
##Maximum
산불
dumps
살펴볼
##나요
보안관
##울산
Indicator
인장
펌웨어
필적
발작
독단
때리
##스코
베티
파우
정치국
중생대
환초
야구단
restarting
consult
##Line
##125
대열
##출연
##104
Result
##벤처
어도비
##버시
안녕
훔쳐
성대
실로
##타로
클라인
노무라
외삼촌
서예
##파르
매료
동북쪽
반정
시미즈
밑부분
메인프레임
##시안
##ADDRESS
##SND
##의미
##대역
##102
낙타
내각총리대신
##기온
##월드컵
이목
광화문
수류탄
##호골
##Commit
Entity
##래스
CFSTRUCT
COMP
##대칭
추월
뒷부분
빌더
Unisys
숙성
지원자
##사장
관구
몰아넣
연출가
연주가
무자비
미우라
고모
하치
비잔틴
##기병
오우
subdirectories
##DVD
##Text
고품질
PIC
길목
포트폴리오
강국
찾아보기
스탠퍼드
골라
특이점
토요타
능통
마돈나
딸린
뇌졸중
쇼크
슈미트
창씨개명
기교
주제가
그레이엄
시나노
무사시
##조사의
보증금
##Services
##Format
막혀
현안
오산
checkbox
어떻게
##라든가
##1896
##보물
Indicatesthe
변천
다치
매스
퇴적물
인민해방군
꾸짖
개그맨
충렬왕
originating
compares
cleanup
온실
multipart
##청과
WAIT
벗어났
의향
##문인
BPO
##네이트
##사당
시그마
무수
낯선
리사
예비군
발이
##장식
핵폭탄
베이컨
고독
본진
##대장군
##皇后
##가역
땃쥐
HW
expires
상쇄
##그리드
differently
##경과
JNI
앙상블
시공간
엑스포
체격
예리
토리
콜린
##과학자
##大韓
교향악단
와타나베
이교도
중앙아메리카
총애
종실
전철역
신고식
소시에다드
##게이
##권리
별표
가시성
##Logical
##상단
##CHANNEL
금품
아파치
contexts
##dependent
##>:
##수출
##아카데미
##;}
임박
앞세워
버락
결부
퍼스
##리치
명맥
##남북
##에로
비호
페인트
헤라
선방
##갔으며
보르도
맨틀
풀려나
속씨식물
서로마
리얼리티
촐라
우승컵
지휘봉
##Password
##Generally
Subscriber
##Having
세관
유망
beused
sql
##매개
##사도
바꾼다
##울루
지로
통계학
우에노
수영장
깔끔
휘두르
섭씨
아디
해석학
계파
구석기
이범석
녹말
코민테른
성악
시아파
잠비아
시모
태그팀
improves
assuming
Cancel
accomplish
##재해
선상
Transformer
결점
##크로스
번복
생산력
일의
이론가
샌드위치
##kW
직교
##와인
접경
황산
상류층
하얼빈
행방
낙하산
##마제
평신도
빈센트
thecurrent
##PDF
둔화
##연수
가맹점
##리드
비약
##저항
테드
##왔으며
정글
일례
타파
세컨드
피자
리차드
찬탈
뿜
민권
바빌로니아
길러
클로드
감독상
모후
##듀스
왕릉
프리큐어
##인건비
유량
집약
##Fixed
##경쟁력
전극
발행인
##색이
최장
흘러가
교화
민생
대해선
##오카
##서인
BFILEs
목욕
##은퇴
오즈
폐간
드래곤즈
골수
난입
스톤스
정언
지나간다
면접
%)
봐야
subscribed
corrupted
arithmetic
##시설물
메디
##마운트
Analyzer
##창작
프로토
##도장
##브로
명하
스팀
요도
앞장섰
포교
비트겐슈타인
##지회
수감자
독소
무찌르
애기박쥐
제이크
##측면
##FEP
##135
##상수
등록금
##교리
리허설
비기
동대문
궁지
소망
키르기스스탄
##그라드
델리
생제르맹
천마
테오
미요시
데포르티보
에버턴
파스
##External
ignores
고압
Adding
##DD
이동식
##Max
흑자
##점대
다닌다
유세
볼프강
대뇌
바울
광둥
니케아
트란
군량
TPS
##납품
##JAVA
급사
##닷컴
스테이
##배열
originator
##문고
##Status
쌓인
##포스트
forget
흡입
##루프
##브리
비스
불러일으키
##화상
드레
하층
땀
##본관
음운
##하트
낙태
안티고노스
처단
알렉세이
아브라함
암초
접시
주살
##추출
##수당
Partition
selections
MQOutput
총체
##보급
##script
전동
##오토
바이든
##렌즈
주황색
봐서
##1916
물리학상
기념식
최남단
금화
조던
달려가
사멸
표준궤
달리기
사르
사이공
##대항전
에트루리아
점성가
브래들리
측정값
Operating
Programmable
redirect
##생태
Queuing
##부도
Outbound
##브라질
##음성
##전후
새해
기가
전과
##Corrective
가우스
##수스
폐교
강판
맹렬
태극기
구운
출소
##평의
총살
지느러미
##레아
섬겼
하동
명장
개발비
transformations
baseline
##192
원복
컨벤션
##admin
간과
##방과
##TR
SSD
비트코인
활기
SIZE
이스
욕심
##정과
출생지
놀랍
##주부
북조
학창
발기
당파
보주
calculations
##브랜드
tooling
publishes
delivering
##입니까
##경고
##믹스
##디렉션
일간지
##루트
엘살바도르
##젂
##시외버스
들였
듯이
##NonXA
##바스
초대칭
외할아버지
개인주의
쇼팽
하산
다운타운
이기종
Domains
subsystems
##HOST
navigator
##케어
##워터
근거리
잠실
랜드마크
동차
고문서
모여들
##간부
이언
##1868
도마뱀붙이
##토키
##봉승
##Currently
저희
subtype
##포장
콜레스테롤
그늘
Msg
##솔리
맞물려
##이슬람
기틀
중앙일보
우산
막바지
불러왔
목장
증손자
보답
플루트
##헤임
정유재란
오카야마
다카하시
이준용
##중임
##Big
##SHARED
##THE
##취급
누릴
##과업
##사자
매립
comparing
Graph
Offset
광시
국무원
스위프트
##피아
월급
##대강
##징역
남로
##독립당
김정
베버
신과
드루
##삼존
강희
##취득
구한다
판독
##기아
시급
##재생
##안내
digit
##코로나
매트릭스
mqExecute
reissue
struct
연마
서대문구
불안감
내림
나뉜
##석사
미숙
구석
CLX
말린
생물학자
엘리스
제식
커티스
가모
인류학
치마
수메르
동티
미즈
지하역
스포르팅
analyzed
SPOKE
##원시
##380
classpath
offerings
OEM
##Details
나타냄
##123
센타
Generator
##공여
교착
##부위
코로
크리에이티브
밀려나
불황
범하
어딘가
명예훼손
각인
김해시
##토모
eate
교복
차분
##석이
김종필
태워
##시리
김치
##마이클
변증법
필리포스
브루노
뒷다리
현청
##여우원숭이
마력
responds
Metrics
##113
넘긴
시안
수온
VO
서드
##부채
telemetry
시세
원이
OFF
줄어든
엄밀히
##에프
VCL
산책
덧셈
머무
##사토
##고래
자갈
불어넣
곡면
게이츠
##mg
무너뜨리
운석
##》)
국수
타고난
미카사
##집계
##OBJECT
전자서명
고침
출금
POSIX
수표
셀프
Occurs
##미아
무너진
불명예
빼앗긴
##지검
군락
전투력
퍼부
추축국
학비
하시모토
반유대주의
케인
매질
기묘
보이콧
페니
압류
OAuth
##선진
박차
##아라비
프런트
##모어
허물
포토
걸음
어필
본다면
창안
촌락
##부리
비둘기
핵실험
단념
옥타비아누스
격분
카불
폐단
목걸이
노획
히노
호날두
rebuild
SYSDATE
##AIX
수송기
tpreturn
##트레이스
##TAB
FIRST
inputs
킬러
인솔
##사업소
가시광선
투고
플레이트
코미디언
정동
노바
이케다
독신
경덕왕
시암
까마귀
##격투기
척수
##007
##Bi
'/
Enabler
##절감
##실과
Reporting
##query
subclass
서비스업
OpenVMS
양궁
이끌어냈
그간
남의
만찬
##국적
##텔레비전
울타리
##렉스
사표
부풀
콤비
앙드레
사체
자연주의
교우
허베이성
##후사
퀸스
가나자와
NAS
무방
##발송
느려
당할
aligned
verifies
##상사
##target
CWF
유보
sorted
파이프라인
잡음
청렴
##주자
임업
어쨌든
염료
##입상
후견인
잔치
##1915
타우
##발트
떨치
남조선
강가
부활절
##연합군
빈민
중합효소
##군주
오렌지색
닌자
도승지
상암동
QMQM
MQBACK
JavaCompute
enforce
javax
Projects
inline
##Trigger
발신
이르지
Profit
##특급
Skip
미성년자
그루
일어났으며
##SRC
담장
##진주
##이야말로
아이튠즈
##나기
##보리
교토부
셔틀
기치
핸드볼
난자
기린
카리스마
원종
몰살
요시노
가면
아역
보험료
Alias
Workstation
##예제
버려
##모음
질적
menus
몰입
조직원
가파른
줄어드
##이념
뜨겁
Encoded
허들
베이직
거미
동북부
색조
면화
문물
총학생회
호러
민의원
구스타브
시에라
에드먼드
탐정
읊
마그마
##Video
##남용
폴링
##GIS
본점
Presentation
##홍보
Scheduler
다량
##토사
##어라
고관
소주
서귀포시
아랫부분
대청
목화
귀향
취임식
베르너
이오시프
지뢰
##친다
고르바초프
##브라더스
익사
파르마
주세페
retains
thedata
OLE
선불
발췌
##구인
웜
JPEG
DMI
Cursor
정년
빠진다
당부
전환점
공관
박물
##계승
IOs
##증후군
생후
밝혀냈
동포
영문학
해인사
근본주의
임종
조르주
조엘
승마
귀퉁이
##mode
##발급
##스토리지
translate
Persistence
##OPEN
반증
##Code
append
##Job
감기
##input
##단말기
뜰
대문
##일과
부로
전기장
##consumer
헤지
잉여
##운전
##합작
간파
취락
드나들
합법화
재심
클라리넷
괴롭히
준동
닭고기
투르크메니스탄
리퍼
오미
시부야
카이두
##FIRST
플러그
EXECUTE
##Trace
##펀드
스케줄링
undefined
INFO
##logs
##마케팅
##HMAC
누릅니다
선적
위해선
메우
초등학생
전쟁터
랩퍼
##지휘
##트론
영하
##성단
여러해살이풀
피스톤
##기념관
크리스티
##당했으며
루이지
교주
아뢰
##Up
publishers
설계도
오차
비료
datasets
핵산
심혈
##명인
##ARRAY
명중
무기한
##font
전량
과도기
##고속도
카잔
급하
맛보
목격자
eachprogrammatic
내려지
측도
민주공화당
표상
##갈래
품계
무척추동물
부탄
안후이
무예
귀양
누각
아르눌프
allocates
이루어집니다
##출입
##execute
##Identify
##Good
쌍방
gather
부트
다섯째
안성
##레딧
순찰
modem
##묘지
관철
달래
진의
보궐
##토라
습한
집전
아이파크
호리
손책
중요도
손해배상
##점유
포스코
증명서
갖출
프로시
##Standby
보여줌
establishes
subtree
delimited
안면
DPL
ORA
인센티브
주당
매개체
인턴
##시와
방탄소년단
축약
확고히
넘어섰
##후반
##감과
제방
공예
##포로
결단
섬멸
마거릿
대한축구협회
아가
가네
아야
강대
목판본
##Three
심볼
##Mbps
handshake
행태
수배
distributions
되돌리
공학자
##브라
캔자스시티
화학식
##가루
권력자
유민
아랍인
본디
수호자
디나모
리그컵
화신
율리
차가타이
역습
배트맨
에반스
##108
##제일
##106
accordingly
OBJECT
incurring
tcp
기업체
군집
실크
체온
##녹색
##강점
앰
##스러웠
강화군
생김새
여관
말러
친형
여객선
쟁취
군도
펜스
##Query
Replication
동반자
전라
상거래
상계
##핵심
bitstream
##기상
##조성
해양수산부
##Apache
##sql
마커
하리
##용인
실장
##캘리포니아
여름철
과수원
노랑
종용
파인
##설이
리하르트
해류
은둔
세포질
고승
포자
올랭피크
집니다
똑똑
##-,
Asset
교직원
##Record
Started
Manage
##병합
하룻밤
##상공
습기
##영웅
하체
뛸
무라카미
##추의
우즈
크리켓
##샨
청자
평안
브람스
연어
##브레
아름다움을
게이초
##CONVERT
productivity
##Search
verified
Coupling
BufferLength
수급인
##written
Formatting
열중
##터리
##107
불허
##부상
##장면
##지구의
초보
##워즈
##트랙
쓰여져
노던
찬스
랜디
##아계
탐욕
한겨레
강박
남반구
자치령
차림
성자
피렌
뽑히
##太子
예종
페미니스트
doesnot
RECOVER
##런타임
그룹웨어
##특허
제작비
동급
급변
##유효
Managers
##원회
inheritance
네이티브
thetransaction
##페이스
인터랙티브
PROCESS
##004
청문회
##LOGICAL
날카롭
스토
휴양지
단판
르노
반일
레즈비언
서양식
논산
##아령
회군
민가
유이
세토
##公主
포뮬러
보살상
##외국인
Testing
##역서
요일
##와서
qmgr
수기
MaxMsgLength
세세
counters
자로
##ACK
Compaq
##면허
차차
payroll
알레르기
자카르타
여과
거주민
##으라고
##삼의
고속철도
사연
에다
##노총
냉정
이치로
신인왕
전반전
크레타
서아시아
오를레앙
왕후
미에현
테네시
심신
Depth
##BROWSE
##MQPUT
relies
reboot
교통량
청취
벗어날
넘버
이동해
밝혔으며
신작
하구
퇴화
체첸
카이저
낙향
##산면
용사
몽골어
성충
정나라
라자
명세서
##포항
##보완
지났
##index
nulls
##바이오
ICMP
멜론
##750
##졸업
선한
위즈
추진력
의외
##원자
중학생
수하
공무
발명가
자라나
옮겨져
탄성
거센
##이세이
상은
##헤이
서던
요코스카
후쿠다
지병
추밀원
크리스티나
세르비아인
탄환
차량기지
##Operation
일별
수시
##유연
프리랜서
##체로
JMSInput
Oriented
어선
##Session
##제약
집대성
빈번히
##직업
당분간
안타깝
크레
선서
초능력
심포니
구식
양손
전교
##大臣
팔라
해설자
##학파
쥘
##죽음
미트
마피아
##기념장
소드
##GUI
##감지
##Filter
고려가
##무선
Intercommunication
loops
##MQRC
감독관
마땅히
attr
theuser
##RFH
Qmgr
산사태
##릭스
##그라운드
표준어
##얼굴
##위크
##진보
##색은
##우크라
푸드
여긴다
리오
예속
입교
이튿날
방비
##카야
겸손
당도
홉킨스
제노바
비행사
승천
고다이고
산조
##희망
##Given
+)
##generated
SLA
도킹
탄탄
##통로
##Send
양산시
##240
##예전
교배
##시켰으나
선단
순천시
##였었
대법
안중근
도부
호찌민
통합진보당
##법원장
개찰기
MDM
SECURITY
Profiles
##exit
대내외
수생
RHEL
Mnet
##시조
기함
알아냈
대학살
유혈
해산물
윤리학
피에트로
따내
샤를마뉴
요시노부
모리슨
비야
##中樞
##gured
COUNT
##소문자
##509
overwrite
##유무
##계약자
shadow
Verification
##supplied
##result
##협업
한해서
##동적
##사물
액수
##++)
##블루
공기업
효자
소학교
포천
유희
가역
에르빈
북진
계책
시즈오카현
미겔
재보궐선거
로렌초
##니치
모셨
원정군
콩쿠르
freed
알아볼
##목과
##Sync
Foundry
##담보
##Whenever
항시
Multicast
##마켓
토폴로지
눌러서
해수
빨라
literals
안양시
이뤄지지
##EU
##Show
할지라도
펩타이드
##사슬
WID
화의
대시
recipients
입안
##기업인
ECS
야구팀
운동장
학년
##관료
노릇
##Paul
돌진
뉴클레오타이드
마취
##조참
반민
유망주
암수
오징어
삼위일체
요가
마초
코르테스
합한
licensing
alphanumeric
Subject
##품목
##320
##request
기일
##109
BGP
##내장
##선행
Sysem
##TABLE
사고방식
컨셉트
SAF
##천문
국채
브릿지
견습
unning
유품
유우
라스베이거스
장엄
전황
엷
북극점
그리스도교
일렉트로
정규군
연나라
줄리아
본당
retention
FUSE
겸비
instrumented
unlimited
signatures
SHARED
명절
ZIP
스파이크
##우트
광동
서지
분투
기물
상권
수역
##치아
친교
분화구
대진
총상
신겐
원술
관아
리바이
브라이언트
signi
##address
##간접
##창고
공동수
##Standard
릴리즈
##마찬가지
어드밴스
##화이트
##스쿨
원주시
##레인
##이거
질감
비의
미처
피력
##이지의
유가족
전망대
##감각
눈앞
##진영
인민공화국
##1898
거장
##루시아
루이즈
증류
지린성
디비시
##EVENT
EZis
##갱신
##정산
Capture
Requirements
transferring
assigning
simpler
##서열
인스
위급
심취
receipt
##포크
##비판
꽉
이따금
시술
블리자드
던전
면의
플랜트
고이즈미
트랜스젠더
앵글로색슨
캔터베리
##’("
전횡
속국
정종
##원종공신
##王后
##좌랑
##Mpower
공해
##이내
##간격
Fault
Average
##ADMIN
slash
##attribute
뒤지
heuristic
참석자
##박물
FORMAT
출제
모기
수행원
독감
##Black
뛴
직각
##나르
##위상
실드
어린아이
망막
##장직
쫓기
압승
징병제
미신
율곡
산인
국물
네이션스
합체
##JVM
SKT
CSQINP
newer
inherit
listens
jeus
사무관
지자
exclude
##리눅스
IOException
유예
**
##DESC
육류
안주
트레이너
미완성
미혼
그물
##시사
##George
다스
##1897
기공
템포
전사자
조소
##찰스
석상
아과
앞다리
카톨릭
오목
##라카
##수준의
notified
limitation
노후화
##서브
국세
##증진
referencing
디버그
##Activity
##','
CLUSRCVR
Provide
고위험
##다발
신빙
포진
맞먹
성북구
서당
방황
간장
알브레히트
카레
잔당
회중
과선교
도지사
##영구
##Transfer
##음식
servlets
##서부터
REPLACE
##유저
##텍스
firmware
활력
Gatherer
##중부
극심
조현
컬링
무가
##리언
위태
흑색
기념관
놀란
마저
사목
발단
부사관
크리스탈
내려왔
해럴드
요리사
##토가
##학살
보나파르트
현악기
트로츠키
금동
한니발
차등
Plug
##파라미터
Removing
##Accept
substituted
살펴
##강도
두기
시료
스테이트
블레이드
심도
건국대
FT
sendmail
움직여
##우르
마이크로프로세서
강우량
침착
히말라야
몬테
설과
테란
메사
유창
##1871
소시지
##히토
레너드
오리올
##IUCN
portability
preceded
적격
##건과
##역시
늘린
##불안
채운
기꺼이
영산
학부모
산간
##1884
##팔의
아랫
장덕
고바야시
기독교인
항거
최북단
서역
강진
자객
리치먼드
일진회
남극점
광배
CASE
리뉴
##복잡
수월
Cloudscape
##property
hasbeen
##KHUB
skeleton
수신기
inhibited
##HANDLE
##발달
spec
절충
걸로
선언문
명부
유성구
##호가
테슬라
알파인
무마
응력
셔먼
신예
콘스탄티노플
코넬
아타리
피난민
음악인
채플린
화친
이시카와
주둥
##Often
Passport
일일이
chooses
마이닝
조석
thename
##117
언더그라운드
시스
적성
"'
지루
코러스
남짓
##사우
밀어내
##극단
현관
공소
해와
레오나르도
##빌보드
##학년도
남경
불로
퇴학
외쳤
일축
명목상
버나드
바스
울주군
본초
##타카
##러브
maybe
간행물
##서울시
##Working
##WSDL
transforms
아웃소싱
##청자
Drill
##330
부와
##호수
##Le
계란
야채
나카소네
페레스
비아
##병사
##로브
현과
알베르토
갑판
마쓰모토
포리스트
나카모리
서보장
##적자
조교
##동양
##일단
scheduling
귀사
다각
Employee
노사
이노
퓨전
scaling
##digit
##경영자
브로드
##SYN
글래스
치솟
자석
광부
##정류장
경작지
##맥스
손수
풍기
아소
전해진
##시모
사단장
##제이스
색소폰
##티오
탈수소
모용
기후현
deciding
##지자체
중견
##Generate
datetime
Authorized
associates
LTE
승패
인맥
격돌
멤피스
여기저기
##파인
##야드
자존심
비서관
로베르트
돌고래
치킨
##두스
코네티컷
이색
파룬궁
속현
소라
근본번뇌
##설명서
MUST
##Post
filenames
프라이버시
금번
##연령
오퍼
##렙
##행렬
행의
##rfh
원화
조짐
##INSTALLATION
생산지
껍데기
##된지
망하
##스트로
나리
타이거
##파로
주계열성
산둥
광서
헌제
궤간
캔디
Unique
##한화
##Appendix
디오
##상하
##INPUT
treats
##TMAX
원거리
가속기
거둘
써야
등대
번역본
##충의
청탁
마셨
소아
경제력
##―
방한
##탱크
비무장
레비
누명
점령지
##로켓
족장
히로시마현
교회법
로열스
나시오날
##중복
##IDT
결산
mailbox
##independent
##홈페이지
PROCEDURE
하나하나
막론
통찰
지워
##코트
##Jean
깔려
지원군
대표인
자력
퍼레이드
##플라
깼
백두산
캐나다인
위선
시트르산
발화
오자
미트라
볼턴
thevalue
TABLESPACE
##부담
##IoT
##특징
WebT
equals
세무
ROW
##double
##연산
이니셔티브
취입
Freeform
분별
##Battle
활자
그라
정칙
##데이비드
##니카
그려졌
##전인
표어
사키
##委員
추봉
절멸
박격포
말라리아
머피
##머스
라리
변방
덩치
해남
synchronize
Views
가짐
경부고속도로
communicating
속임수
JavaBeans
##상거래
돌풍
##레이터
##Adobe
##화성
##스팅
기다린다
성찰
급감
##틀리
##안동
전임자
도맡
정설
거둔다
케이블카
##政府
픽션
사회주의자
들판
영성
산체스
마카
북인
후학
수요자
severity
송시
기술인
##LAST
##특이
SDS
연례
이사로
단락
투영
광명
시나
##였으니
거물
듀크
단발
민선
심했
회합
##으리라
Illustrator
코페르니쿠스
##토기
무릅쓰
이오니아
후버
##옥시
브루크너
갈라
은화
바쿠
침실
하드리아누스
##상승
IDC
##application
ConnectionFactory
##Values
과금
무색
직사각형
BAPIs
바쁜
정이
식료품
전시관
##피터
남측
근소
방울
##1902
무신론자
##호크
수녀원
모노이드
##바시
강아지
쿠르
어종
강호
경쾌
꿇
승전
쿠르드
바울로
##발라
에미
시영
mqbrkrs
부산물
conversations
OAM
##Different
Functions
팬클럽
Speci
bags
GIF
##산업단지
indexing
##정서
택했
코덱
##토론
속박
##리코
성행위
일면
동이
린다
##나토
아틀라스
홀로코스트
자그레브
동프랑크
미모
스트라스부르
크롬웰
체세포
찔러
아미타
도라에몽
MDB
경미
사외
몰렸
##방법론
graphs
##감소
##Always
##방문
##의약품
체질
##유기
##혈관
##저널
한류
소변
두터운
##여객
MQCFH
브루나이
재가
상동
생태학
찾아갔
##쿠르
조준
등반
궁핍
##도덕
안드레
연해주
인디애나주
##산군
양조
밀워키
비스콘티
퍼거슨
인대
비키니
##총괄
##동향
##Listing
미쳐
##강제
##항공기
##운수
##지하
usethe
SERVICE
subscribing
Interfaces
##PMQLONG
##cursor
전동기
행차
육아
대주
신세계
관람객
##니시
조밀
핵연료
보인다고
메스
판관
##지청
##고구려
허구
주니
엄지
##부의장
포식
콘스탄티노스
의인
처남
돌궐
페널티킥을
주군
##선우
에볼라
에스파뇰
##최신
##과일
##Schedule
extracts
핀테크
##행이
##채무
##signed
imports
##Restriction
##스케줄
STR
자부심
##법안
SAML
##450
퀘스트
자성
더욱더
##가을
locators
외피
음식물
노선도
여태
##야당
달인
문중
밤하늘
토착민
카리브해
##리투
아르메니아인
##라다
터진
경은
상과
광주시
데르
윈터
노브고로드
기주
케니
페미니즘
##조가
##상도
##인용
##준다는
환경부
Endpoint
환수
##잔액
출하
Implementation
구명
공모전
원제
보행
융기
인더스
벌써
그걸
눈길
##사우스
##고조
갇힌
역행
배럴
##제이
갔으며
만화책
헥타르
재주
제향
명왕
##親王
snapshots
##패스워드
소각
##국시
ILinkPut
접할
interacts
소유주
교두보
병목
MQIIH
공평
팬덤
segmented
웅진
##노비
마샬
택지
가릴
극성
억지로
전체주의
코시
히사
겸했
합세
사학자
리키
합장
연기력
항저우
체르
아오모리현
작사가
affecting
usable
quiescing
Cognos
reconnect
exchanged
처우
##라우팅
푸른색
Cockpit
유의미
초고
##대내
captures
수차
터뜨렸
##121
packed
뺏
차라리
##사회학
문어
##스톤
헬렌
환생
##학당
라오
성추행
드러낸
##데뷔
동족
헤이룽장
알론소
머리장식
토스카
키드
##rollback
증감
초급
pause
Cleared
##Date
##Mobile
##상환
##해왔으며
##리프트
청정
가전
##free
##복원
DMB
변할
여명
규장각
경마
뺨
아사
옥고
좌완
##만세
성찬
주스
리바운드
근심
황갈색
코코넛
요시쓰네
캡틴
##서약서
Requests
##Context
verifying
남길
inform
명료
##파스
##Multi
##235
##grained
##월경
Sum
불능
제타
스타트
##석유
영세
익산
LONDON
정시
##달리
##화로
디스코
미화
여수시
그립
반년
해구
강탈
세례명
##색한
장조
스코트
청조
야마
가와
신비주의
때마침
##타시
회랑
살롱
외젠
고요
##구균
무안타
##설계서
altering
rewrite
ACLs
##만들
지침서
하도
##절과
JAX
##shared
시일
부칙
##구도
Fedora
나날
관서
픽업
훔치
약제
대적
##원주
내려진
칼날
결속
하르
생가
토드
친동생
메릴랜드주
미카
도나우
##세인트
페스트
카우
신궁
보츠
##완장
Kernel
##대조
##헬스
exercises
unsupported
##육성
##Cloud
실황
능률
##such
병용
집합체
##Hz
##batch
SGA
##전술
##스토
지하수
뿌려
신관
관광업
##우시
차리
##베타
##²,
난간
팻
크리스틴
크릭
##運動
추앙
사실주의
미르
##복음
격노
주청
혈청
음경
상파
Nodes
TTL
##Long
WAR
##Upgrade
가처분
아카이
아닐까
##탐색
tpacall
##Removing
combines
교신
##예보
##함께
##넥스
analyst
외출
위아래
트레일러
집현전
법조
밈
숭실
로펌
무공
상온
##비평
##≫,
행했
향리
##타이완
단련
버크
##全州
정몽주
##코사
Parsing
##localhost
Indicates
##명회
##드릴
##전반
대쉬
printers
CLOSE
망라
IGQ
내일
명명법
수능
약학
##University
##노이
돌려보내
유린
피했
평온
##결성
춘천시
스티븐스
##푸르
괴테
시어터
빅토리
진핵생물
소피
난쟁이
##FIFA
##티아
숨졌
##노부
선우
##저압부
outlined
광역시
##Describes
친화
##because
##분포
##BIND
REQUEST
##element
Probe
사옥
노이즈
##케스
##대사관
'-
포켓
남구
나스
지단
##마인
장정
##푸른
약사
벚꽃
사조
쑨원
황해
지배층
하디
파멸
웸블리
처해졌
프라이스
##공민왕
##安東
익주
영지주의
recreate
소수점
##상황실
readable
##실천
##보로
간염
##분화
##국방
dragging
NonStop
밝혀내
압둘라
기형
재조합
##도선
균류
##교도
현무암
성간
##大王
덴버
맥도날드
제사장
사로잡혀
베르나르
연방군
##본기
데려오
쥐라기
절터
DEBUG
PaaS
##황과
##시정
소량
##Map
Migrating
indirectly
procedural
##미들웨어
탈옥
##카운트
exports
표류
##바이저
iSCSI
러닝
csect
##해졌으며
fielded
학급
도자
비시
즐거운
##ｍ
잠들
##약칭
음소
브리트니
만국
움직인다
재야
우화
일리
귀의
쓰러졌
##구르
웰링턴
동군
##토피
상감
요시타카
미네소타주
받침돌
따름
##BAT
##표로
pooling
회신
PKCS
switching
##형질
넥스트
##호주
올라간
자본금
transient
compiling
##스레
그쳐
##거대
계획안
레저
호스
코르도바
후천
승소
##드라
로런스
초고층
여운
공급원
페라리
핀다
국명
산기슭
다녀온
글래스고
망원
발트해
라치오
카일
척추뼈
선발전
FORCE
##복수
##Execute
Operational
유가증권
##Mapping
##제인
indicators
##아이콘
후행
##과세
##양면
전일
델라웨어
##크로
친필
##더블
0000024
흠
##십의
보육
울트라
세브
단호
스코
용품
##페스
동결
후각
간디
##중화민국
파월
강물
분가
남해군
황궁
##슈테
반칙
기악
감형
산투스
무분별
##케이블
aqueue
checksum
##Design
alphabetic
credential
내년
도큐
UOW
operands
communicates
화일
무비
MQException
##성향
하이웨이
굴곡
##공무
모질
##원수
##MultiBlockTextProcess
##FinalBlockTextProcess
중앙선
호송
괴롭힘
무지개
포워드
수양
주상
혈액형
춤추
완패
애호가
##1903
이탈리아인
위엄
보호령
카롤링거
의금부
아케메네스
사법연수원
##AGENT
functionally
crtmqm
져야
coordinates
backslash
개정판
##Legacy
embed
appliances
destined
##AWS
##DCRUM
닫히
undelivered
Mediation
redbook
받아들인다
##리프
소치
자연히
Supplied
##볼트
금방
트렁크
##지터
페인
매장량
##레일
꼬마
##피아노
담화
북마
헤일로
헬라
코코
브리티시
하스
심복
요시히로
마인츠
군마현
querying
##개발비
##인쇄
적인
Dump
핸드폰
packs
thedefault
Workload
수선
safely
##CAS
정밀도
inetd
##충돌
##경남
힌트
지오
##지휘자
##느냐고
몰려들
##대만
복도
구덩이
비명
시성
종주
쓰러진
##제자
##대군
##사면
아카
##구치
소수자
페르미
위안스카이
##민중
린네
준위
관동군
농민군
함포
한탄
고후
코베인
##타우
링네임
##의가
##Byte
동법
##손해
##플리
##BPM
Azure
##backup
##210
KSC
Collaboration
##Rule
DT
##Method
visualizations
##와도
면치
리브
휘발
포브스
VSE
천만
##농장
##Reads
##페더레이션
##다크
끝낸
##돌기
비핵화
양양
가석방
아즈치
##시르
##1901
묵살
##신성
포고
윈스턴
##라이스
##남쪽
바실리
봉황
##노리
가오슝
##히데
버펄로스
구성도
##Managing
##창업
##MQGMO
##고장
compilers
##Defining
즉석
모계
대세
##소방
공병
##수인
##애플
스위트
머니
##정거장
살린
CSQUTIL
이전인
봐도
##노사
도저히
겉모습
켄터키
행방불명
익혔
나포
##한반도
원통형
파탄
온몸
##방정식
조제프
국민회의
##랏
종교인
계엄령
##미야
##사단장
범퍼
시라쿠사
우쓰노미야
서장
강유
##Flow
상암
##Preparing
##Allows
##Clients
##수업
끌어내
제어판
##LU
##부호
##Gateway
##127
카네기
Refresh
홀딩스
##bw
##평면
여가
다지
책상
용접
부등식
##만장
다항
참배
액정
묵인
연일
커리
엘리자
마타
상나라
무궁화
오클라호마
자연사
##오구
등지느러미
게오르기
바덴
미움
설법
만네
방계
차드
오미야
시마
근연종
파이터스
원더러스
MIB
analytic
ReplyToQ
##던지
heartbeat
delimiters
##솔창
##임계
##동력
ifthe
배부
카타
##초대
실격
김천
##카페
##흠
카세트
더더욱
게임즈
아픈
키즈
영종
##쿠라
파샤
우랄
내통
쾌락
타타르
랭스
충주시
트래킹
cfg
알린
##자주
IPS
불가항력
변제
USING
escalation
FIFO
플레이스
변함
부딪히
##소수
REMON
##다거나
회자
##구장
인척
##녹음
사간
충성심
포터블
국경선
##모노
칼데라
잔기
##눔
홀리
마운틴
기쁘
메르
##START
##Function
##신뢰
Conversion
Modify
uninstalling
ADD
가할
##예약
##이체
queried
프로펠러
크로스오버
SQLCA
그래
게임스
4690
효성
움직였
이권
##티나
터키어
도기
소작농
레바
다이스케
주앙
버틀러
유약
오보에
영연방
에테르
가우
궁녀
슈바벤
에인절스
##본이
##취약점
정액
안전망
##BI
##task
Processes
##from
##양산
광디스크
슈퍼마켓
##column
##Writing
rectangle
인터럽트
고용주
##축산
책자
##지오
expr
쏟아져
순응
게이머
남아공
스피어스
##하마
##바퀴
마주치
북반구
서훈
##냈으며
상체
해왕성
교서
건국훈장
창덕궁
스펜서
윈난성
소나
옐친
##메드
##효종
조시
득점자
에이미
##리턴
일금
##sec
endmqm
##Cannot
현대식
youwant
납득
filtered
##Locate
##데스크
"-
소급
autocommit
##리원
##SID
##115
##아이템
정규직
##다섯
그려지
호로
공생
##페어
펼쳐진다
##테라
##법과
되돌아가
연사
##경관
트라우마
해피
루즈벨트
은사
연선
로런츠
다카시
가환
울창
모면
##구락부
뉴기니
엠블럼
키루스
마리우스
문관
사보이아
합천군
서킷
석가
노나라
주교좌
##GHz
Logical
Segment
mqsicreatebroker
denotes
##동경
##190
MIN
반송
약관
##Header
##오피스
##효의
proxies
executions
Devices
쿼터
본드
##MOCOCO
##컴퍼니
은평구
부스터
탄화수소
##만을
저널리즘
산발
함의
무한히
##보가
직역
진동수
##정청
##헨리
박수
적시타
공사관
모티프
연승
이봉
##라크
집단군
##ILink
silently
CHLTYPE
Availability
Either
##call
음수
##유전
OTS
Merge
경제성장
##엑스
학식
흔들림
폐업
늦추
##우가
종일
내려놓
냉방
은밀
도의
위세
채웠
횡포
휘발유
가야금
##튜버
기복
보두앵
와트
팔려
부락
윔블던
핵미사일
헝가리인
신앙고백
창녕
그람
매튜
##고정
##우상
##Module
##추정
MSI
손잡
iteration
이동성
##170
하향
평이
밀턴
##';
아이패드
탄산
의리
##식과
##사마
용납
상대론
고귀
교섭단체
##상학
가선대부
사중주
프로테스탄트
보이즈
노스캐롤라이나주
광종
치소
리간드
멕시코시티
킵차크
##궁주
youmust
##입시
##객사
positioned
FUNCTION
날인
문란
##확산
저작권법
digest
##취약
사업체
속출
##러블
##재무
오버헤드
##흔히
initializes
##실에
##비리
면도
헤딩
subpartition
풍미
##단식
##역명
##종과
소마
청장
성상
담수
밝힌다
아브
수화
세간
##국민회의
엡실론
덩샤오핑
말엽
인삼
##제학
시에라리온
##교단
나카노
총파업
코니
앙코르
도고
##갈색
종착
##COUNT
계상
##결함
##Names
낙찰
요망
맞출
툴킷
##연락
포커스
재생성
미세먼지
retries
전조
기호가
##환원
##_*)
##드림
##이라크
방어력
만물
수훈
##동포
프라이드
베가
기침
벌어져
클라라
금관
윤치
신대륙
내밀
교동
프레드릭
문교부
형이상학
정약용
스웨덴어
얼스터
##황금
우크라이나인
징발
##나트
##사슴
칼리파
외직
타로
상관없
수없
신변
##드립니다
##Storage
늘릴
##VALUE
##Informix
저항성
##포가
적당히
##nitions
versioning
##Korea
##게다가
##워드
실종자
잡스
##USS
플랑크톤
예민
보이저
무신론
마우리아
수소폭탄
##대전의
##티노
농노
존의
이각
엘프
심법
##관할
별지
AES
평점
##근로복지공단
enclosing
팩스
HTTPRequest
##Connecting
permits
##액션
##전역
수조
##5601
breakpoint
DESC
가져옵니다
검색어
##Second
국제기구
푸시
##></
감염병
전폭
돌아보
파드
기동성
에런
소포
협연
절개
응고
소감
시간표
진폭
영유
얽힌
어스
피타고라스
낙인
보손
반대자
해발고도
질책
더운
갈망
수모
세워졌으며
금메달리스트
원더
패의
손쉬운
PTF
##신시
토의
##지형
곧장
지원금
##},
##INQUIRE
WSRR
applet
버림
예거
##후왕
목동
##이렇게
소방관
굉장
##백제
##1870
조그만
카바
시리우스
총명
조계
불사
콘스탄틴
건너온
맛있
상석
예멘
기절
조반
전소
탈라
SEQUENCE
##탐색기
보증서
&&
Scope
##REQUEST
보여진다
validity
되돌
##정수
##입금
등각
##Built
##성전
나빠
NameValueString
주파
끌어들였
##재건
##쟁이
##니즈
##GSG
생산물
리저브
TBC
##1899
낙엽
모자라
##선거구
클레어
수험
판의
안기부
##레프
홍익
##메이트
은하단
소선거구제
볼프
태클
주루
가부장
##節度使
가봉
##철종
##양현
개혁주의
##파악
##트래픽
forwarding
##지체
기울여
DHCP
##Defines
Persistent
##관측
##button
##Invalid
XAP
##쇼핑
방호
나눔
##총액
MQXQH
그린다
부적
##Investigate
datagram
긴장감
환호
공격력
양평군
각오
##오모리
열전
독학
SUV
참가국
올렸으며
드니
어니스트
북송
##게스
##》《
변명
시모노세키
흑사병
알레산드로
광무
슬퍼하
그레고리
아폴론
뱅크스
식읍
아프간
##상대식
에페
밑면
##도청
갑과
##VPN
일수
상황실
DataSource
##Digital
##전지
조망
##인덱스
dequeue
##출판사
##00942
inquired
참으로
낙관
##엘라
펄스
마이니치
##토니
연좌
##춘추
아저씨
##리히
##하나님
중견수
블레어
조예
명륜당
회색빛
접근권
##비게
##군데
disclaimer
FFST
##Property
재량
##check
incompatible
##Basic
##defining
sibling
웨이브
GRANT
총수
페이로드
배선
밸런스
끌어들여
대학원생
##필름
회생
##도인
함축
##Mac
검사장
조언자
큼직
에이지
##카쿠
체구
지낸다
주성
상투
모국
빽빽
대대장
박지원
갈비뼈
마운드
플뢰레
##히가시
##위너스
훌린
certi
overwritten
##critical
영양분
strmqm
거제시
queuemanagers
와의
제보
##저하
##알고리즘
instantiated
##Rather
다방면
##자수
PMS
##경상북도
##테이
휴지
##Objects
조제
##소니
##자키
올림
준다는
거창
RMs
##정체
내보냈
레프
뒤편
##한다며
##소닉
툴루즈
유기물
아비뇽
아가씨
군역
세타
시라카와
오스트로네시아
심왕
##린턴
보호법
ABAP
성장세
centralized
인구수
##Title
##expression
##Protocol
##수소
기안
SCOTT
schedules
##114
Join
##서적
##전주
해답
FTA
##밸리
콜라보레이션
##가드
접했
회기
상층
카트리지
폭발물
##라즈
애틀랜틱
베른하르트
##디온
단양
뉴멕시코
에리크
레프트
사카모토
사이고
포메이션
순사
육사
계모
수양대군
원균
아미타불
##라시
연꽃무늬
suggestions
operatingsystem
##폐기물
##한도
##진수
##Through
##Automatic
##010
propagates
CLASSPATH
##Encoding
보건복지부
Kerberos
##왕복
삼가
초음파
고운
한두
##Arial
카트
샐러드
수세기
아핀
##총생산
브룩스
중류
경향신문
평화상
프레더릭
##주이
무당
총탄
문하생
블레이크
사비
유구
아소카
쌍방울
여류
##연산군
경사면
장부
##인터
##Fail
지어
##지요
쾌적
##기적
테스
resubmit
##무리
##난다
궁금
로테이션
교각
##Michael
꾸려
ImqString
터져
기류
##영원
자켓
##동방
응축
화원
글리제
주필
##대혁명
인도주의
병세
고창
##오이
월리스
##티오피
페트로
구워
제르
##이카
레버쿠젠
##콘스
BMT
directives
##State
easiest
##CHAR
##이랑
전출
RGB
##샷
##116
##데일
도금
맡겨
공직자
##소원
##아기
##교토
의성
##1890
부차
퍼져나갔
재판장
아명
펭귄
대교구
루키
앙주
은색
흰개미
쇼난
##None
##보수가
##삼성전자
##IPv
Fix
Alerting
##Clicking
와이
*.
눈금
휘말리
offload
존재감
##행진
커진다
##저우
도요타
##조례
##후지
##보인다
본받
제니
붙잡혔
흐른
그란
로리
장본인
성가
중앙유럽
으뜸
귀족원
포츠머스
허나
깨어나
슬픈
뜯
보급품
카슈미르
##속곡
토고
마애
Asynchronous
서브시스템
##installation
##명세
울릉도
##SERVICE
##성격
corrupt
drilling
지멘스
근절
광원
##품명
발상지
isthe
##표본
##강원도
##3000
뼈대
우뚝
선거인
청두
##홀드
무왕
contr
##베를린
덮인
염화
내슈빌
당과
어부
##리카
편평
복건
눈썹
유장
논산시
소프라노
존호
폴리네시아
아유
알레
세레
승부조작
베티스
##%.
##방해
##DW
MFT
##Those
##대시보드
##Navigate
비상사태
나타났으며
Items
labeled
멘토
클립
screenshot
독보
개폐
관공서
하이델
지배력
입선
평시
##white
한방
두부
간헐
다각형
수없이
엉뚱
난폭
우여곡절
짠
일약
횃불
라이프니츠
김나지움
선거법
《》(
이슬람교도
이집트인
시련
명망
반혁명
나뭇잎
##라리
초순
가나안
라치오주
나선다
##侍中
오와리
##단층
AUTO
PKI
PDA
replicated
typographical
연필
##Build
enforced
직급
##지주
염분
비닐
timestamps
연화
문서함
금이
워킹
줄어든다
해법
classi
비정규직
개와
나우
##라틴
부딪혀
끝점
애용
섹시
##도상
##Thomas
##댄스
경호원
부정부패
##착의
##브리튼
##동구
신안군
혈연
쌍용
기의
은밀히
냉동
노름
원뿔
##촌인
허셜
최강
가쓰라
곁들여
군기
성조
##녜
라몬
알렉산드라
아드
##개수
수탁자
##Management
KIC
하이라이트
##Customizing
모회사
##*,
##throw
buffering
patches
BMP
최첨단
학생과
거느린
intf
MQBEGIN
엑스트라
전군
##벤츠
인도인
WML
##랭킹
##아침
매표소
레스
이영호
유니온
생쥐
##무로
제후국
##만과
타악기
죄목
천지
게르
##메스
베르디
헤르베르트
벌인다
출몰
베라
다이라노
에린
칩셋
##Secure
Firewall
##REQ
compress
##timeout
##재배
수자원
배합
architectures
sorting
선점
##부기
spreadsheet
nonblank
##사라
##Compile
CCI
도울
rerun
##리얼
중산층
백지
아산시
나아갔
폈
웰스
##정의당
마사무네
내려다
고조선
##카인
노먼
##언어학
게양
아우구스티누스
승화
펴낸
파피루스
체액
유배지
##연구관
##메틸
##하천
##사이즈
##Address
##Location
당면
configures
제법
기본법
##event
팁
##하단
FORM
##","
##지기
##전남
만회
분이
##머니
##결번
고스트
##중독
나뭇가지
펀치
화물선
##옛날
예우
##정변
shar
시역
라이스
주술
루소
서곡
잉태
페르난데스
페니키아
두른
마키
##Their
##로직
띄우
IFS
GSKit
",
outlines
Demand
##INF
<=
수출입
PUBLIC
##그래
틀린
federated
conversational
##;)
##수명
매트
##Fields
중증
와이파이
트루
스프
슈퍼주니어
클랜
##한때
##기둥
##동원
세이버
쇄도
##인회
되돌아왔
##버지니아
유계
하이젠베르크
하야
적혈구
제패
아르타
엄호
카파
악한
밀려났
절지동물
부제학
##노시
##이용자
##협조
Heap
불이행
administering
행정자치부
표시줄
##Vantage
교통수단
글쓰기
Render
##반경
##배정
##231
LISTENER
MQTM
RECEIVE
999999
DESCRIBE
헬멧
##등장
##블리
동대문구
망상
대관
미야기
디랙
ther
벨리
케이지
누드
땅콩
##1866
각운동량
몰아냈
작화
오카자키
야마구치현
미켈란젤로
고증
수사학
발사대
바우
갈라진다
수니파
서군
단사
커트
박중양
##선군
마르티네스
후륜
summarized
시군
##결과물
MQParms
KMS
organizational
serialization
THROW
##표면
엄중
번들
이더넷
##Obtain
##connect
햇볕
##WHO
##ﬀ
고착
##기단
##퍼시픽
tperrno
TxRPC
추석
특질
특징지
베이비
기약
극소
경구
야스
난방
더글라스
##스코틀랜드
집합론
뒤셀도르프
##유학
사투리
##아크
쇼펜하우어
코린토스
의용군
무굴
의탁
파르티잔
공양
파올로
기마
나혜석
루손
##시카
피질
암벽
##개미
##fetch
##including
##수용
workstations
##매년
##프로토콜
FLOAT
obtains
##Selector
##출장소
걸림돌
골반
purge
창사
##버퍼
##monitor
yyyy
##법학
은유
##나간다
남코
##국왕
##유수
강서
##전도
본대
리히텐슈타인
베니스
부계
에센
전문학교
다카마쓰
탄원
오카다
미일
전령
게일
안달
##실록
분구
테너
황태후
짝사랑
베일리
언약
##신청서
Appliance
forwards
wsadmin
mutually
감사원
마인드
로드맵
##Connector
##이해
##사냥
스털링
##진입
적립
포용
강인
난해
부평
타개
##버드
나기
##역대
성동구
찾아냈
##정맥
외야
##강릉
탈선
##우림
##文學
화염
은신처
모더니즘
프레디
잘츠부르크
##현은
해머
간통
산마리노
##硏究
궁예
마틸다
판의금부사
##스트로스
만슈
##받침돌
##JSP
##근로
잔재
Invoke
##CSQ
방범
commas
##산국
배심원
##인지의
DBIO
##교실
TID
hints
##성동
나설
전년도
##로크
틀림없
##닉스
분위
각별
임팩트
##1600
관리인
번역가
트리니티
유미
셀러
정역
혼수
씨름
광석
여호
북단
##섬네일
조그마
죄책감
슬럼프
##교향곡
모셔
도운
필로
록의
라디에이터
ISIL
석불
켄터키주
트리니다드
##基壇
가시마
WebService
##기밀
##리비
수당
##Desktop
};
정함
산입
고부
XMLNS
##어다
##230
##여신
corrected
##적절
교통부
필기
스티커
전산망
rowid
Cubes
마모
Encryption
더미
식단
방전
크레이그
라디
장서
관중석
경직
##이크
##한스
종반
로망스
후쿠이
불멸
##메르
AEK
변주
레지스탕스
히스파니아
##세인
시라
##나카
풀럼
드래건스
사브르
캡콤
히스토리
##셋째
##주변
##중식
휴지통
##init
시제품
HTTPInput
##context
기만
VERSION
##표지
##무엇
##리스크
##위협
MQRMH
RX
만하다
BDE
표시기
##코마
군소
호프만
##서구
신정부
서커스
곤도
와카야마
변성
##박정희
##망원경
흩어지
주택지
취역
미시마
하녀
마라도나
슈타
공훈
##太后
윤원형
가자
이와키
##볼넷
도파민
유미르
##엑셀
##format
다이나믹
NONE
대각선
보호프로파일
BINARY
##수신자
전용선
##550
suspend
굴착
풍화
Spatial
##워싱턴
에너지원
정반대
DBCA
퍼시
유난히
##차인
양평
아호
수혈
옥중
천자
콜라
처참
묻힌
엘튼
히메
안드로메다
간사장
알렌
앙골
콜레라
카르타
##참모총장
블러드
서계
혼마루
사극
##질레
러너
시외
Replace
시너지
##protected
##Config
##MEM
일절
병상
SVC
##Errors
Composite
##첨부
희석
##우대
고비
선호도
시발점
##De
ClearCase
사별
##본과
펼쳐졌
찬반
모른다고
##주임
##보훈
##동굴
다진
어근
눈동자
코레
꾀했
의석수
터졌
크라
##평양
##東京
중진
철원
세인트루이스
라인강
입궁
이스턴
시즈오카
##줄기
최치원
의종
##수수료
뜬다
GSA
##격차
guarantees
verbs
pixels
성장률
내용물
회의실
abstraction
##Buffer
##KEY
넘어선
PID
Hardware
HDFS
##신장
CSQM
CKTI
##지하철
접대
플레
하버
subprogram
##행복
태세
나사
##평야
저술가
YMCA
다케시
실력자
대혁명
##高等
##레크
레슬리
피에로
새의
건반
침팬지
안드레이
보그
##베크
무안
역전승
사모아
지장보살
구스
현내
스와
클랩튼
concurrency
foreach
##나머지
vtadmin
프로세싱
##추세
뉴딜
##Who
##%\
nonzero
##DRBG
##PORT
##커뮤니케이션
양립
털어놓
산업용
다운스
meanings
##FROM
##OTP
파이어폭스
##일본어
고인
약품
재건축
피고
##받침
##국민회
세차
징역형
전집
중국식
하동군
방학
관립
외로움
치렀으며
통도사
시주
롬바르디아
문묘
##진지
모리오카
collects
##Runtime
##Tivoli
clone
SVRCONN
##바운드
강자
zoom
##순수
##variable
##부인의
재귀
접견
신구
해수욕장
닉스
요트
밀양시
##원반
##토크
생물체
폭스바겐
옷감
덥
##비츠
도전자
##스러움
샬럿
하와
만행
##1885
알베르
수탈
##보트
착한
잡종
쓰러뜨리
매슈
시녀
첨탑
칼리프
포레스트
에스터
레반트
소장품
봉토
에치젠
에리
와다
쇼니
ARCHIVE
##별도
##브로커
Errors
각서
##services
##유관
##기대
##Later
stanzas
Token
##standard
##수납
##소시
##proc
##Distributed
치매
라임
캔버스
따라잡
##바닥
##={
##성체
용법
##일까
슬라이더
##종위
그게
레티
##유공자
굴뚝
도플러
워런
##타임스
영월
뒤쫓
랭커스터
매달려
익산시
자위대
홍준표
고려인
플라스마
정찰기
백자
히타이트
히데키
쫓겨난
##세라
오마
##기관차
호놀룰루
지원병
총영사관
태정
남중국해
박자
리의
무용가
폐암
옥천
maximize
##MOCOMSYS
##Nextro
##SSO
##지내
comply
##규범
auxiliary
올린다
assignments
revoked
CPUs
지청
##모집
##CLOB
Cannot
엘레
##검의
양지
##alert
―
밀수
##kHz
어쩌면
점막
이삭
지하실
노미
지브롤터
마사코
어리
유임
외손자
수뇌부
##융희
##우루
끌려갔
##신이
불륜
스포르차
피리
다다요시
창법
덤불
informs
GW
##메가
##본사
알린다
##준다고
satisfies
예보
호우
가져와서
지중
##즉시
블루투스
##용기
attachment
OMG
버블
DASD
인스트
오름
주간지
시흥시
inode
##한자
통째
포켓몬스터
##여진
##트레이드
분분
글로브
유키오
기쿠치
##다이쇼
대양
윈드
강경파
세웠으나
참호
페론
빌럼
호위함
##선교
스튜
변주곡
스키타이
꾸며
프레데리크
명창
교육감
##후쿠오카
##예비치
줄리엣
배드
아키타현
##력사
처한다
##여건
거래량
easyTravel
##Enabling
##금번
Existing
##Statistics
실감
informationabout
persist
까다로운
##INIT
revoke
intranet
남해안
##알리
##트레
##문법
대전광역시
단언
##보단
##TIP
##직과
고심
땐
강수
TTC
폭도
경무
번진
중년
스타드
도망친
바친
조나단
오자와
밧줄
##공산주의
보우
백혈구
##소서
##홍의
유모
기장군
진흥왕
##각본
아사쿠라
아와
지크
CHECK
Permission
##법규
포틀
##서드
##AUTH
inherits
Redbooks
recognizes
##대부
Determine
직사각
페달
##중립
오대
##경전
친근
리버스
subtransaction
##브루
굽히
메탄
말투
관사
eated
##페르시아
진왕
김원봉
내뿜
말레이어
애스턴
향이
##모스크바
##刺史
보니파시오
이스마일
##判書
콕스
##패치
흘려
##Authentication
##Public
##Supported
##UTF
gateways
선량
##WITH
##피오
Modules
통학
##경북
##specified
##싱가포르
MQCCSI
##Peter
##하가
Pad
감지기
작업장
그럼
질타
클라우스
그로스
##존스
##무사
성왕
휘말려
수에즈
풍조
중대장
윤회
헤르메스
테베
도르
안드로
로시
슬로
천구
술탄국
산성
##덴쇼
사가미
보병대
제시카
런던탑
granularity
##rpm
VAT
##SYS
고루
##민법
DEPT
##OLAP
thatthe
가집니다
##사상의
우선시
테크노
##돼지
급성장
asset
replay
##축소
휴먼
RECORD
##TARGET
##280
abnormal
TRANSACTION
풍력
분전
장신구
외전
제트기
산화물
악몽
평택시
##득실
##지붕
공교
##사리
분리주의
##항쟁
##그루
시어도어
자유주의자
도에이
도이
밀정
생원
우르바노
헌종
군관
##조어
용모
포니
석호
콘클라베
간언
총신
즉위년
죽인다
보카
페라라
프릴
에드워즈
##루브
고케닌
thatyou
bootstrap
##노동부
트레이
atthe
공정거래위
Restricted
Snapshot
##도면
IIOP
"%
render
##식사
집적
catalogs
MQIACF
에어컨
##이즈
##interface
걸어서
완충
차내
아쉬움
재래식
들어온다
파이썬
##정은
다뤘
병영
출연진
재킷
공고히
초회
도와준다
한학
중앙당
보수파
직선제
##도사
황금기
지카
사탕
배웠으며
오가사와라
고전주의
하마
키케로
바티스타
군자금
목욕탕
역병
숙적
군산시
필리
인조반정
니제르
말버러
린치
numberof
denote
##변조
happening
##메모
Processor
##Getting
datasource
자이언트
truncation
Separator
##job
##Events
눈부신
##영문
enqueue
이항
##118
##수법
끼칠
여장
##직이
노원구
야후
퇴계
교육청
가리킬
브로
생사
보상금
선례
레버
버펄로
##자살
박혀
포천시
남진
맬컴
은행나무
심슨
연대장
진봉
발문
타블로
아이누
에미상
수족관
장크트갈렌
##Unfortunately
은닉
수계
HH
지양
바코드
reinstall
UAC
manuals
XCF
##산지
redundancy
##프로세서
명동
국권
##hosts
BASE
신분증
Upload
##USB
##부서장
마십시오
##미션
SUB
##증명
##클로
원판
Accelerator
경색
타계
##도우
가출
뱀파이어
정열
나일
주동자
호종
그리핀
찬가
헤어지
위클리
속명
밀교
시노
무안군
##미나미
니콘
무인역
##Intel
sysdate
##MQGET
False
의한다
성희롱
수행자
##단기
블로킹
DataLength
와이어
티어
샷
수사관
쾌거
가디언
브리핑
권위자
맞춰서
부산시
피폐
##박근혜
크레인
주방
재적
##버스터
##칼의
다졌
##실베
협동조합
외래어
목포시
스포츠카
브란트
##코로
드러낸다
테일
척의
프린세스
도호
사사키
군마
스테로이드
알카에다
##만주
안토니
들어올렸
미그
마한
사림파
##교구
선데이
##푹
##로바
워터스
contention
##Existing
##징시
Gartner
##본문
exploit
##Programs
재검토
대일
이뤄져
암묵
마이너스
상승세
##지출
fetched
binds
##출금
mnemonic
##미사
##0600
관악구
도우
빌리지
##SELFTEST
##트레인
##Blue
고어
염원
김영
선인
정유
##호르몬
수집가
##창원
대정
삼중
ectory
열등
멧돼지
##라르
납북
달라붙
##모모야마
##데리
베니
굶
중선거구
노히트
청혼
중남부
창세기
##식민지
니체
##응우옌
적과
악마의
자작곡
사천왕
어룡
스파이더맨
##도중
검지
Success
firewalls
##Certain
customizing
##″.
validates
증서
##Give
##유동
##배출
방역
상대편
EMPTY
골대
##Google
효시
##채권자
##드레스
본존
##부시
세심
숨겨져
##증상
섹터
이완
##중형
##인방
##구이
돌출부
주법
##함인
올라섰
고구마
교직
사망률
덕양구
잎겨드랑이
에리히
정파
형태학
요안
##로동
호메로스
플리머스
몸소
이로쿼이
금광
아드리아
연패
내시
요한네스
##아리
가와치
##釜山
그라나다
sequentially
##Order
Bind
위탁자
레벨로
PORT
LINK
##Document
##세스
4096
SupportPac
##ASCII
theinstallation
##빠른
BO
exporting
##빈도
Infra
##일인
서재
##그럼에도
클린
##Namespace
최단
##주장
tpalloc
##표가
##통과
하모니
##더라면
##송이
재외
섞이
중합체
울림
##장성
주미
오리건주
위그노
진구
공성
숨진
##까마귀
##부윤
마산시
브래드
네모난
로라
기뢰
오리온스
scanning
asingle
##Internal
##지적
##고딕
Packet
##갑의
로그아웃
##qmgrs
##요양
라이프사이클
TFIM
foreground
묶인
##137
##증과
실업자
##소비자
##1800
##지배
외적
달라졌
이게
몰린
빗대
초본
청계천
연명
아민
옹진군
##병과
##판관
##칼리
에이브러햄
##당은
##포르투갈
바이런
간택
##오름
##수탁자
BIT
##+,
##문장
UDB
만족도
##타이틀
중급
xsd
TNS
주십시오
Codes
##parameters
MIString
##INDEX
꽃가루
다롄
DESCRIPTION
법대
마사유키
##사적
##물리학자
나가사키현
##차림
변의
재촉
유력자
블라디
의사당
아오
크로노스
제복
##나폴레옹
문경
마티
이시다
레게
측실
주자학
##석과
통근열차
짝짓기
좡족
##警察
##SERVER
##세금
끊겼
##관리법
##소요
니즈
deployments
mainframe
frameworks
##username
bash
terminology
Topology
##색상
묶음
##병렬
wildcards
광교
##네오
필라멘트
pointing
캐스트
쇄신
건지
법무법인
판매자
##하원
식생
##Richard
숨지
##좌석
##정사
##보냈
혈류
합격자
막히
네바다주
관악
정장
##수호
투척
##스님
병약
맥도널드
퇴거
삼남
위스키
##에드워드
에렌
##가슴
포세이돈
소르
걸스
볼가
수동변속기
##地方
에밀리
이끼
종과
비겼
##대사헌
역무원
화승
accurately
과부하
##Exit
QSG
endorsement
##NATIVE
ofthis
WebtoB
이거
프로파일링
##trace
##Place
개소
##스테이트
##PFM
IBK
DEFPSIST
줄인
그야말로
##오후
답습
누리꾼
명품
복고
신조어
##이리
CHF
비행선
녀석
고고
경영난
데이먼
메이어
기네스
뽑힌
마쓰이
검소
물고
하코
연작
어귀
유스티니아누스
졸라
또래
전리품
크리스천
인기가요
##히사
##平章
설리번
일본국유철도
브로스
에미넴
mustbe
##export
##전담
##간행물
##Script
utilizing
##내륙
##자명
floppy
순전히
##상주
고스란히
ofa
##570
repeats
NAT
Preparing
ACI
##제정
MQENC
##잘못
최우
##선도
타지
내비게이션
생활비
완승
##산이
확증
지세
훈민정음
스탠더드
##꼽힌다
속옷
회동
판화
아워
다면체
왼발
남태평양
나돌
고뇌
서대문
레지옹
활화산
물색
교학
평양성
##나크
갈아탈
문인석
굿모닝
completeness
mismatch
##각서
늘어날
##메소드
사다리
##양방향
영화사
대사성
CMS
interrupt
Repeat
동식물
##엥
회송
JOLT
##바디
##고사
알콜
##영양
TCPGW
유괴
마이크로파
제철
영공
논설
잠자리
팔레
다뉴브
법학자
진보당
울루
사춘기
카메오
갇히
기려
테레사
익룡
도조
최고봉
상징물
모음곡
차갑
알제
요시미쓰
사마의
통영시
왜적
선수상
다이오드
parallelism
##Decide
##여야만
##유니
##Projects
##메세지
obsolete
hlq
##buffer
behave
##++.
워크숍
갯벌
interprets
tagged
##재고
adapt
priorities
##소인
##정식
##부수
realtime
sheets
RCS
##주주
Templates
ELEMENT
사령탑
로트
패드
##카가
##나선
##매니아
##이래
호이
보로
고상
작용기
##아와
풍성
명지
서간
다키
번사
##민회
정치범
진사시
형무소
사담
프리메이슨
##피질
메이슨
초명
몸값
방이
##스카이
전륜구동
존스턴
##府使
직구
石造
furnishing
##컨텐츠
일류
##Browse
##White
커지
##AUTHORITY
Columns
악취
띄워
##인인
명령문
IIB
##공포
##영주
연합체
##만이
구미시
성년
비웃
뭉쳐
무정
벌리
판다
벌일
테트라
귀여운
양모
경인
##스루
힉스
힘러
##훙
놀랐
낙점
패미컴
플레밍
자위
##론가
괴로움
용감
수찬
경원
쓰가
포병대
말라위
##유르
선덜랜드
기술료
##Index
##Consequently
Torvalds
CEP
조달청
##창출
감면
불합격
##CHECK
##관점
##수령자
cryptography
quiesce
청의
##United
저온
UserIdentifier
##empty
여느
##벨트
인의
##회색
스트립
해골
##신인
반다이
모퉁이
##구멍
네이션
##총국
동면
상파울루
장흥
암반
##장론
표현주의
권했
##사학자
프렌치
도치기현
##승리
암살자
##니르
양제
펠레
후백제
녹훈
에타
##카나
좌안
세미놀
inserting
adequate
##MQHA
소홀
####
ESBs
terminating
##물류
arrows
최저임금
##매수
cookie
##줄기세포
##사운드
보냈으나
구속력
##protocol
꼽혔
##PROCESS
조력
pdfmark
원자재
구릉지
buckets
구로구
비축
##성운
세스
의전
##산현
셔터
##사학
이승훈
옥타브
영등포
포구
아가미
그리피스
금기
타이베이
김홍집
단량체
대식세포
##라사
드리블
안드레아스
재통일
코다
##니코스
펜티엄
폴로
##大君
낸시
매춘
주고쿠
##교구장
무네
다이요
은언군
BACKUP
Timer
shutting
inaccuracies
##NEW
##Contains
##유가
##기록관
용수
##126
SQLSTATE
collation
Citrix
Transform
Licensee
##bind
##주목
##지위
밑바닥
MQOR
자유도
##돼야
##관장
보인다는
##1883
비정
해충
풀타임
##리티
대권
성층
잠복
##소학교
마르셀
힐러리
##보위
굴드
체리
호쿠리쿠
조선족
##이토
이듬
히스패닉
칼뱅주의
호박
주걱
마젤란
체임벌린
피난처
로스터
아일랜드어
아이치
선왕
##하르
맘루크
광무제
석등
우참찬
이사벨라
총감독
곤살레스
##縣監
완봉
itis
##129
ASync
##조기
연구비
Grouping
paradigm
privacy
ISPF
##니어
Kubernetes
표식
identities
##­
국지
수출국
##Sterling
Crypto
##오라클
##알파
##Best
Loader
##수분
##엔지니어링
INVENTQ
응답자
WHENEVER
공언
버릴
후송
##신체
##태국
패소
##박자
##노르웨이
살포
수구
좌초
##바트
록펠러
안재홍
##기독
지난다
부역
모하메드
흑연
구로다
대마초
메틸
비버
유니버시아드
허정숙
중창
석물
항공대
번안
##벤투
차베스
폐비
TRACE
국세청
달라서
##®,
infringe
announcements
토사
##Validation
##반드시
augment
multithreaded
##사나
##플래닛
알릴
##__
Lookup
할애
올라서
##질수록
자유로이
‘’
표지판
##인도네시아
##엄의
표준시
##붕괴
공백기
##시킨다고
##웨이브
옥스포드
사유지
불운
##기체
##콘서트
중등학교
표범
간척
##유전학
##국민당
역법
합중국
천주교회
벤저민
##노라
이황
가창력
마사히로
방어전
병부
쿠릴
이규완
##副使
루이지애나주
미시시피주
성범죄
##마키
##lename
##App
##Visual
UID
산호초
##Allow
##순간
임대료
simplicity
##이기
##Formatting
##마법사
##access
##단부
표의
오디
프레젠테이션
옮긴다
비우
도선
중남미
##서리
MocoCrypto
##그때
완주
딱히
이쪽
단단히
말살
##형과
##서야
##삼국지
사돈
부마
무례
##인민지원군
연천군
가타
봉급
##악단
##겸의
카이퍼
##뉴클레오타이드
오쿠보
알자스
도독
헨드릭스
##임진왜란
문무왕
파파
크로스컨트리
미륵
군무
크리슈나
씨방
로베스피에르
캔자스주
하드코어
이제동
Refer
##Mail
##요약
전문기
##명령어
Term
프로페셔널
닫혀
##순차
symmetric
생성기
##copy
##절대
synchronously
##스케이프
나타남
##Pro
##인대
##264
##인해
뷰티
##이성
##entry
##err
slower
##background
##유아
##챠
자퇴
얽혀
##하우
간간히
##시계
MQC
##전작
볼거리
폭락
각하
신생아
집요
슈퍼스타
페터
에히메현
주제곡
제이미
벤자민
말초
달성군
##서경
피루브산
##1860
상층부
적위
##건안
양군
##同知
조식
##다람쥐
장과
##Count
initializing
WBI
straightforward
Administering
envelope
skipped
##자용
피드
낙후
초도
##Receive
2024
wallet
##방재
다자
Alignment
판교
분말
실링
실화
알아차리
##여론
상속인
굳혔
경산
##구리
cari
식물원
##이마
가만히
##식스
배드민턴
아미노
유타카
마요르카
옹호자
맞선
스투
유파
문학사
불우
미술품
뒷날
대륙군
불러들였
김유신
민회
랄프
부쿠레슈티
바하
에리트레아
##아노
상피
김종직
닛코
후시미
월경
##입단
##라라
##아키라
##NGC
페루자
팔코
인터라켄
##근로자
눌렀
criterion
##Questions
##실내
##응방
WLM
drops
공문서
FileNet
##Power
##후처리
SQLCODE
dossiers
##Fi
Incentive
##401
알토
wired
수고
PARIS
##순천
주신
##생식
##개조
만지
Legato
##번가
고기압
빗물
##여고
고창군
라이터
##스트리트
미로
##1882
새천년민주당
##事件
민주자유당
조소앙
고환
소가
방위군
명작
재림
즙
로도스
##리오스
서베를린
앙투아네트
아나톨리
수송선
죽이기
가니메데
수도원장
##무덤
하비에르
##提學
##호아
올슨
##정반
##133
FULL
Restart
운영비
##협동조합
indirect
##Passport
코인
theconnection
한진
Nextro
동질
FilePut
인포
Selectors
gsk
approximate
번만
명만
##시퀀스
##접촉
고질
발돋움
##ASE
성형
##항이
Debian
##WW
렉스
인스턴트
깊숙이
1018
최고점
SignalSet
병의
수호신
방벽
원안
##연두
경화
예산군
싸여
신의주
음모론
애국심
라플라스
안구
견과
밀레니엄
살상
알려졌으나
오로라
##경상남도
미녀
증기선
항모
조모
지그문트
포의
윈저
미스코리아
협공
승탑
scans
Logs
##오브젝트
##가동
##자간
WMS
협소
##Building
##컨트롤
##Auto
##독일어
expire
##Hence
##AIDS
##DBA
##카트
##불능
부기
##천안
돼서
##내면
중문
##인터내셔널
##선고
troff
센트
정에
전자기파
터전
##자극
헌트
헌법재판
별과
모노레일
석축
온건파
데려왔
강동
개신교도
하타
우익수
황무지
산시성
페름기
##껍질
썬더
근신
배영
##교위
수번뇌
sockets
thresholds
##Continue
MQSERVER
supplier
##입장
##수면
워크스테이션
##패드
Correlation
##DECLARE
##문헌
##Revenue
##151
duplicated
##클라
err
##122
비트맵
그친
macOS
Bag
레지
##자라
AggregateReply
##캐릭터
드라
카오스
##당인
로랑
괴팅
국화
바이올리니스트
두만강
근해
반탁
슈베르트
스티븐슨
기관사
합방
이방인
계비
아바스
불가사의
신약성경
모유
적갈색
법원장
재치
림프
가고시마현
방어율
initiating
headings
##채용
bserv
ROI
싱크
##ActiveX
##Virtual
##라이선스
의존도
##셔서
##수이
reject
레아
sampling
##대주주
의약
생겼으며
##불법
물려
유사시
행세
##헬기
##차이점
가속도
급한
중사
부유층
동작구
지나갈
관측자
배기
KOSTA
머레이
배격
캐롤
바사
thr
주성분
##히스
세도
백두
장령
한성부판윤
유쾌
우니
안보리
베니토
카토
민스크
앨라배마주
아헨
##아드
헤일
궁수자리
신호장
박원순
##파베
하행선
순절
회남
비야레알
SNK
木造
OLTP
##청주시
송수
어색
##격자
##수수
##Space
##properties
Exercise
신용카드
dropping
simulate
인프라스트럭처
##201
defects
스트리
##대개
##스튜디오
##270
##사제
##Rock
화산재
올랜도
유리창
영아
Nextree
##위키
##대수학
가르친
재키
##카로
보름
애도
##1889
##반란
자존
백조
앙투안
다이애나
협력자
노아
이심
신시사이저
허벅지
환각
벌목
##이코스
산수
##국문학
버려졌
지망
성부
하남
##메네스
##中書
테이크
##준수
Customizing
param
uninstalled
BFH
##누가
##퍼드
##DESCR
조속
tnsnames
upgrades
EOS
잠식
뽑아내
간극
발자국
가독성
스리
일주
##임기
양당
재조명
에뮬레이터
CMDSCOPE
##passwd
##모습
##DataCenter
##Picture
크라쿠프
분대
##벅스
몸담
NGO
골목
미안
##섹스
해부
원작자
##났으며
##건조
핀치
간도
가택
##1880
##베르트
##1867
중흥
갔으나
퍼펙트
쿠알라룸푸르
노동자당
네로
서고트
팔레르모
아래턱
##비노
##영의정
셀틱스
버니
조커
##塔身
delays
##Special
신안
통행료
##진압
##일지라도
interactively
갖춰진
흩어진
packaging
declares
##FOR
tips
마스킹
분주
에어백
Priority
##분당
##124
개작
##Sequence
무수히
동자
ename
행할
스탠포드
##얼마
datafile
수려
##계곡
일반직
두려워한
뒤덮
영양소
역적
악수
입헌군주제
##청나라
##혁명당
프레스코
뵈
아퀴나스
송준길
재방송
봉수대
사라예보
##아이돌
카를로만
##OFF
!=
possibilities
##Transmission
##Reference
##Lotus
traced
alphabetical
##PASS
모사
callbacks
커질
resets
Submit
PIN
##Intelligence
무한대
##일대
쏟아지
모른
친다
곤경
이공
레인보우
##수용소
공론
침전
전해질
밤낮
##정공
우등
한다며
푸코
태평
##春秋
##전서
석좌
##군관
매리너스
생부
적십자
에피
올렸으나
가와카미
노이
국민정부
장막
##지아
공녀
포츠담
아비
스피릿
강론
##마쓰
##선승
##절도사
##선원
코카인
토이
LIKE
이어야
##착수
Xeon
수거
##Today
##Accessing
면책
##CLUSTER
assured
semicolon
instructs
##Vitria
떨어져서
말미
광명시
수개월
##Short
##전면
리전
이니셜
리포터
매혹
SDPS
앉히
영내
나토
##가닥
됐으며
봉화
나바라
푸르
##반도
소품
규소
환대
대동강
오에
소질
미하엘
매운
노렸
배쪽
경련
##先生
##옹주
손오공
캐스터
생년
##레인저
##132
이루어짐
##Embedded
FAX
익일
mq
##Universal
차감
Maintenance
##370
cardinality
THEN
stateful
##고가
##브이
통설
thedestination
폭설
-)
달라집니다
##인데도
곡률
##560
personalized
##마스크
콜렉션
버즈
##입학
각의
조경
##스코프
##회의소
##말레이시아
##국악
IMR
##사망
액세서리
버금가
질주
에픽
지적도
##천과
##국공
두목
절연
고이
##제트
거둬
##그리스어
테크닉
벙커
울라
##Joseph
##》·《
계명
식물학
상륙작전
테살로니키
모라
전봉
남학생
멸시
##생성물
워털루
험준
미술가
판각
##로스앤젤레스
호나우두
악행
파이리
탄창
블럭
친목
##스트리밍
##저해
fits
MQXCNVC
##수령
superuser
##Turn
##시행령
나아갈
Frame
translates
##䤎
이종
##STR
얼라이언스
증여
theclient
NEW
##transactional
precede
transformer
사라질
밀레
우디
지낼
어셈블리
민자
카나리아
##뉴질랜드
골프장
단번에
##봉사자
##인사이드
##스프
콜드
휴양
조앤
특파원
학생회
플레어
트레인
레이놀즈
통정대부
삼국지
여흥
뉴멕시코주
에이커
작풍
배설
상록
여고생
어간
보령
랑고바르드
신숙주
사네
속죄
##전라남도
성내
##파키스탄
구마모토현
레인저
##츠카
에나쓰
Tuning
##_”
##산출
combining
##SYNCPOINT
HOME
SPX
##Administration
MBean
##육상
warranty
hh
한지
damages
##").
##제회
controllers
##131
구인
만능
사토시
IMM
IPTV
IMAP
시크릿
연면적
아람
클레
thechannel
채워져
부조리
지표면
페스
순방
##고로
부츠
달팽이
가꾸
섭동
신식
캘빈
해금
##춘의
##레오
##아르헨티나
난사
티탄
랍비
가오
명곡
왕녀
데메
겐로쿠
무주
##侍郞
##Rollback
##젯
##구제
트랜스미션
dynatrace
붙임
##Drop
중은
JSSE
##더불
##컴파일
선처리
고정길
##Rename
##등기
##136
흔치
##재전송
##아우
Tablespace
소양
플롯
##신단
우편물
심어
물방울
파스타
JMSOutput
##pInputText
##스틸
연비
카니발
대함
##시카고
리라
닉네임
크리스토프
닥치
노이만
##충청남도
비견
들려주
##노아
##랜더
플라자
##중주
앞섰
몽골족
민진
담양
집시
트라키아
변경백
##비크
오랜만
##유대
알렉산드리
제례
성녀
라디칼
이세민
마르코스
연골
골문
메이든
스타즈
##테무르
아센
##귀박
##Unit
##directory
Push
pixel
양해
##role
concatenated
생태계
SUM
철의
##군청
아바타
##650
WESB
violations
서초
채우기
패러데이
신경망
방수
다이렉트
##대법원
자연환경
제자리
##+[
호황
##페스티벌
아우디
##시타
심상
어마어마
헐리우드
##리시
##교차로
꺼리
태운
반원
푹
수출품
샤먼
휘트니
법당
비르
이방원
스무
코프
기숙
강착
외무대신
무라야마
카스트로
탐험대
##화석
무위
하타모토
중심가
##민스
##포체
시에나
inthis
suited
PGM
##Off
##Due
##색인
닷넷
##>\
저감
양적
##플리트
시운전
##NODE
##built
bracket
##프레임워크
##십니까
##Bad
preview
인쇄물
식수
거지
##TGT
##신사
불러들여
강우
의정
갈아타
치우
미국식
임해
따돌리
서하
ocess
부총재
어울려
셰필드
파이브
지극
이나바
##가문
##상어
피어슨
로어
로제
남오세티야
##바우
로트링겐
커비
아르민
##자치단
POC
##850
낙찰자
interacting
decrypt
위험관리
tocreate
##면부
FIELD
##트랜스미션
JSPs
##기안
가상현실
##인공지능
OpenSSL
##RAID
음란
##404
utilize
daemons
##History
encodings
##리부
갖춰
LEG
절도
스피너
판도
##칼라
사보
##El
대마도
훈련장
준다고
풀려
##조이
##살리
귀한
브롱크스
오비탈
패닉
##생물학자
국회의사당
러더퍼드
밀고
차례차례
에드윈
싸웠으나
무찔렀
##자이다
레몽
사쿠
화순군
##아속
시왕
라싱
Coherence
interrupted
##Component
어려우
##국판
Maven
##Human
functioning
IVT
재무제표
고른
##경색
SFTP
지주회사
##레티
지기
canceled
##202
행이
영속
LNG
형세
자유자재
정선
인버터
Reseller
##jpg
##디언
소비량
타국
지나간
제작소
독이
##어이
##메트로
산책로
##블로
페퍼
##ControllerException
청송
그려진다
날조
젤리
합천
##오스만
##직할시
##리처드
불출마
세일러
초신
##리누스
두려워했
금발
##미가
폭정
용감한
디디
정승
페넌트
의령
내해
스루가
화족
비욘세
나인뮤지스
Validate
누수
##Regular
LAST
highlights
revert
##ACTION
##마감
##터로
##수에
온실가스
##소통
##관찰
풀기
유즈
##block
##네이버
변위
##㎡
##하와
과부
향유
생명력
##연주
##관인
ClientVantage
JPR
광양
초인
해로운
얼어붙
##화합물
##아름다운
주치의
문맹
자꾸
미츠
벌어진다
"**
상주시
이괄
리타
트레일
유명하
동인지
삼국사기
쓰였으며
바바
대장균
조선조
데카
괴로워
노트르담
블랙번
##라바
봉신
고야
당상관
지린
바니
카자크
##배수체
옥개석
theappropriate
reload
##prepare
isused
시킴
세분화
소명
##DT
##cnt
청취자
##340
우발
##동료
##4000
맞췄
신청자
SVR
##반환
##지선
CURSOR
관측소
쓰루
겸한
##진하
JYP
오븐
subpartitions
외양
영락
우에
일찌감치
김포시
유도체
에디슨
폴란드어
디시
평창군
지친
지온
대수학
융성
##이소
순회공연
##協會
오른팔
##1863
##보스토크
코나미
공민
##위스
위스콘신주
##건륭
고트
야유
##벨벳
##결핍
관음보살
##영화상
##레알
송강
퍼킨스
팬아메리칸
##쾌속
##인정
##업데이트
DIMM
excluded
Beginnings
cp
arises
textual
##부팅
stateless
##시스템즈
##소단
##142
##153
들인
수완
대작
맞춘다
하수
##보사
건재
스모
잃어버렸
##사찰
##부지
클론
성안
ClipsAndTacks
효고
##지질
##진구
##메탈
##교양
운전석
영락제
소국
남북한
물길
##윤의
라그랑주
무도
위문
식욕
성전환
리보
시어
미나토
##진리
##주교
미즈노
재경기
스노
초음속
뚫려
요크셔
은총
우거진
사하
##가요제
블랑
체로키
안세이
##법정
##담기
##실무
correlate
##소셜
##플러그인
##reply
명실상부
XSD
##SMP
시리얼
downloading
sys
Plugins
##Pharos
상술
자칫
초승달
전각
완주군
##동자
배차
##POP
##도전
##구경
##장단
##설과
내버려
치욕
배재
어진
입건
신랄
##코노
##이승만
고위직
옹기
본따
조어
상무위원
상형
NAD
해마
아델
엥겔스
##케르
##삼국지연의
모셔져
튀어나온
칙서
우메다
문하시중
불계승
신춘문예
SQLstatement
##뷰어
##용시
##현존
CHINIT
sizeof
정합
##으신
AJAX
disables
자연재해
거듭나
semantic
스탭
##Customers
부정확
수십억
출고
##VM
receivers
##아키
##OUTPUT
##Alive
##유일
불림
귀결
##미팅
##CURSOR
일보
개회
유한회사
위크
##Courier
갖은
교점
치사
세라믹
올레
서산시
옮겨진
빌린
##지미
수산화
##국령
노스웨스트
항변
핀란드어
다득점
스몰
막사
##그대
시구르드
외조부
파블로
시바타
전봉준
낭트
##알라
##극회
엄정화
##누구
끊어진
thoroughly
##탐지
##GDP
##SNMP
decryption
##OPTIONS
의료진
화질
##260
##용지
##St
##콜로
##LIST
##교과서
대주주
단숨에
선풍
자주포
보일러
manyreport
줄지
찍혀
임했
아세틸
치부
##errorMsg
##신문사
스틱
##로즈
공범
확장팩
##바이올린
##마르크
구면
푸리에
공양왕
##강변
브룩
혈중
장덕수
할복
인부
담양군
##분지
사암
솅겐
디아스
사샤
트빌리시
##튀르
반달
청화
출전권
갈라타
우마
배수량
콜로니
주박
필살기
##HEADER
##Besides
##CF
jms
본건
책임감
##Have
inspect
browsed
##Day
##진도
##창구
나뉠
##Column
##외국
방과
회절
##호에
##안과
##탄생
장학
##보국
낮출
섭외
받침대
퇴원
계산기
유권
품위
##압력
걸어가
##"><
징조
##원제
발원지
검교
동복
케네스
##民國
예카테리나
아즈
불발
##철학자
##문화방송
이복형
경비대
##노이드
파도바
아코
##태자
망토
원수가
##후군
종친
##누의
의성군
네빌
롬멜
황도대
루도
backs
##연관
##Persistent
##created
##480
authorize
standardized
##어떻
수탁
스캐너
시계열
##상실
##농도
한발
overloaded
절체
Redo
Avg
영동군
크리에이터
##CIA
##소개
USAGE
QR
가늠
xid
##우와
##천문학
장시
##원화
넥슨
DESCRIPTOR
진천
누비
살림
공덕
콤플렉스
##토마스
음각
양각
어려워졌
통가
스탠다드
영일
퓨처스
파울리
일으켰으나
텅스텐
피격
예이
##會社
##이적
##기소
크리스찬
중원소
곰팡이
장시성
##베르그
길렀
아우크스부르크
피델
거북이
괴롭혔
파이퍼
작별
부코바
딸기
명주
##가르
##만석
버스터
태후
##여대
특장
##dynatrace
##Warning
##resource
##KR
천식
##공지
carriage
Spec
##나노
절실
오너
##소프
##San
기득
##행법
##브릿지
운전사
쫓겨
##울프
힘써
못지않
##키나
몰라
특산물
여래
네바다
##벨리
마더
수잔
##내렸
문무
중학
사부
일격
##측근
아르키메데스
휴즈
고아원
오사무
칭다오
##뻘
몬티
뉴펀들랜드
건기
집무실
드레스덴
비토리오
완치
구르
뽑혀
하코다
##시랑
##현역
오카야마현
정여립
피레
트리케라톱스
초선
##스테이지
dashlets
##수원시
##납부
특약
##Option
abort
##조류
braces
##users
filesystems
임상시험
간담회
순번
deactivated
##그랜드
##Re
##enable
들어맞
통일성
끌어올리
각급
JCO
breakpoints
CSQJU
말뚝
갖췄
##장전
안과
##온천
주범
노키아
##해발
MQCHT
스티어링
##1869
영의
##1864
페르미온
##리타
왕망
##소총
백혈병
끓는점
크랭크
태사
##마땅
미워하
차려
유황
토레스
마린스
유제품
##레르
##1891
브루
티베리우스
정복자
라벤나
코모
##시집
루브르
##慕容
경당
듀이
마르텔
##총관
이재명
##교도소
아래층
상냥
보비
로버스
테베스
##시범
##비로
##SBS
bottlenecks
LD
Administrators
중이
##예시
Whether
comparisons
stakeholders
##붙임
##Problem
committing
HANA
##각각
넘어간
##핏
실외
학점
커플링
로프
거듭제곱
어우러져
경전차
##크래프트
외딴
응집
공공연
마실
해내
##마틴
한수
대각
##수장
마술사
##피리
화순
킬로그램
##근육
폭발력
순례자
아라카와
양원
역관
막내아들
게코
맞은편
##테리
경악
달마티아
영재
남문
##護軍
로스트
캄파니아주
수페르리가
##민사
배점
Enabled
Terms
##십시요
언행
##선박
invoice
subfield
##Compute
##Compare
##header
##설계자
##255
##EXCEPTION
Connectors
##확률
##범주
##여섯
##백신
붙일
채울
CPI
프란시스
과천
##서기관
##탐사
노린
데미지
수난
시프트
형과
##마로
칭화
아이러니
판시
티셔츠
공대
연금술
쿠르트
살아온
일대기
##1893
실형
프로리그
##아프가니스탄
벌였으나
부어
지치
리보솜
완도군
철십자
최신형
##누이
별거
##게르
##마타
자락
이브라힘
##웨스턴
도쿠시마
에레디비시
##oracle
##순번
##노력
##
##셀로
##깅을
##deploy
천재지변
##delete
responding
##Testing
BYTE
핸들링
안다
##exe
##택시
소방서
##Documentation
##에어
recompile
유사점
환불
Handle
에버
기계식
올라프
CHICAGO
블러
ACE
##-"
개점
도로망
다뤄
##드럼
상행선
돌려받
##산화
기억력
전업
사족
일레븐
라빈
고조부
오마르
묻히
회개
##성공회
##하느님
외아들
저승
폐번치현
마스터스
힐튼
인천광역시
초계
태화
의관
조너선
##고스
##핑크
##原從
##淸州
##디폴트
##Sun
한국은행
##라이브러리
##Except
stubs
##업종
관습법
interpreter
##Biz
OPTION
##지분
##판정
##Learn
##Writes
금주
학제
##European
카카
드라이
##단체장
페이퍼
전편
패스트
수해
람다
남대문
##비자
마츠모토
##보좌관
친위
판문점
열흘
##동아일보
로이스
##구름
오키나와현
부룬디
공예품
정순
막대기
휴식기
서른
니콜로
흉년
모리타니
데릭
소사
부르군트
해남군
모리셔스
##시라카와
아론
녹스
헤이케
주니어스
##공식전
리처즈
##Recovery
##Platform
pricing
##LINE
##premise
##작동
따릅니다
Reset
##1024
축산
열과
내보낼
팟캐스트
좇
##왔으나
##광학
##close
의결권
##RTT
corrective
강인한
제네시스
노숙
김천시
##가마
거동
익힌
##본선
크라이
신촌
마나
컬트
##천체
펴냈
멘델
##예배
철교
쓰리
침례교
주둔군
##슈타
로테르담
만두
##천황
서얼
유주
##한서
섭입
홍타이지
다치바나
좌참찬
로코
클랜시
페미
##견적
시책
unified
tracked
##cys
##신속
##알림
freely
isolate
##broker
dotted
##Restrictions
##무가
avoids
TIMESTAMP
COMPLETE
ND
##width
될지
##스크린
##XX
##JavaScript
대유행
QMgr
##트루
조업
과열
OTMA
ItemIndex
후생
아쿠아
XDS
작아지
##조장
##스텐
생육
폭풍우
##Procedurev
살아간다
이안
인산염
균주
상아
천둥
빼어난
수용액
초전도체
##1865
청소년기
추징금
신년
이기붕
석패
교민
##지리학
##國民
설상가상
##등부
김성
##루비
브리즈번
##프로이센
함양군
산화제
##퀼
편대
요시마사
근위대
##실라
##티니
봉지
나가토
##公園
유타주
켈러
##파이널
고트하르트
마쓰야마
timed
MON
##FULL
##array
ldap
##term
SSLPEER
악천후
재연
hyphen
##제외
##501
##리버
찍힌
달라진
확연히
노르딕
지방도
징벌
내고
머지
베넷
##불량
##으라는
출루
짜리
난항
내연
설날
##만부
수식어
##경성
##레이크
길가
풍토
찾아온다
##두더지
onment
연경
##세리
오웰
닐스
정읍
한옥
페르디난드
##슬로
강해졌
목축
##살라
보성군
성산
무스
보필
람보르기니
분동
언더우드
캐머런
승문원
스쿼드
##Requests
touse
##Routing
그램
부교수
##BO
anapplication
##Ignore
##CONN
granting
toolkit
##부동산
satisfaction
integrates
chunk
##SALES
theproblem
커야
정중
배관
스미
##배틀
##식량
득실
금세
##파이어
SAX
##자임
##바오
샵
능히
##발사체
몽고
자가용
혈전
자랄
기계어
##사스
불빛
비틀
받쳐
낙마
되돌아갔
고졸
봉천
체형
정신병
아칸소주
자라났
숙의
##건담
말려
워렌
그리워
전도사
특검
##혈증
도바
김제
제갈
케리
편도
모하마드
##집단군
보닌
토비
三層石塔
##parameter
기다린
##Spoke
##총무
schemes
##priority
방재
##Destination
downstream
백서
##APP
##Exposed
냉장고
##홀딩스
혹시
##용자
redundant
SoapUI
##dimensional
befor
공모주
기제
지정학
메인보드
##CRM
##액세스
시럽
##205
광고주
##미라
빠질
동반성
검은색
주원장
##1500
반자동
##해석학
위층
색출
드로
초라
##우도
밝혔으나
치타
철광석
만과
후쿠
아타
의정서
밝혀진다
습작
리우
사르트르
영해
##투라
금과
위트레흐트
에반
라디오헤드
양태
인문주의
레슨
##양군
불태웠
외측
##사르
##兵馬
##中央
코크
##홋카이도
##管理
클러치
해적단
SCN
realize
게을리
노무
프린트
키움
##Assume
##APM
INTERFACE
conforms
externally
##Pass
뒤따르
confidentiality
‘-
우량
##mteadmin
baseref
##기업체
달해
##포리
##소식
##ANSI
고마
##개통
##진법
마자
##스타트
Bucket
##라야
퀴즈
꺼려
마리나
수유
라이플
가인
##하우젠
##사회당
차녀
대성공
성토
완고
##장갑
주모자
군체
열린집합
구어
동구권
내심
사이키델릭
청량
씹
간쑤성
막말
금지령
세포벽
반역죄
프리덤
군축
미노루
목초지
루도비코
각막
리에주
식년
시우바
##취급자
Interaction
Intellectual
##종시
##단인
thatare
lightweight
virtualization
##090
MQZ
BANT
##html
Worker
저소득층
MQWIH
MQRCCF
##피크
사스
##실수
##handler
약국
소독
바이스
양안
##렀으며
스킨
쓸모
##Km
형편없
프리즘
스켈레톤
소신
##인형
후미
도가
주공
진보신
건너간
순국
생식기
녹는점
기울어져
위독
본뜬
카보베르데
불신임
오시마
유복
혈장
리카르도
험프리
부검
지상군
사라센
##HIV
하마마쓰
요시카
##문화사
춘추관
라싸
좌찬성
공로자
평영
나무껍질
벨리즈
살라딘
키보디스트
포르쉐
선댄스
LQ
CAPRI
supplying
suchas
sensors
##USE
##MQI
Supported
omissions
##해운
##입대
불순물
CTRL
asthe
##227
Examine
##Confirm
##430
PeopleSoft
OUTPUT
##dbnode
LIBRARY
끌기
CIP
##교섭
가라
##재외
이재민
전광판
##SAMP
프리스타일
OracleJSP
성급
끓이
편광
뻔한
**";
축전
##솔로
##브레이커
도라
단죄
다녔으며
##태양의
마신
교유
교편
##BBC
갈라졌
충절
고흐
##바드
도망갔
손톱
양녀
진주성
랠리
음양
영암군
##다양체
나흘
원죄
축삭
스팅
테레지아
셀틱
듀란
##performance
##second
wrap
환급
##대별
Static
과언
참관
Throw
VAN
Optimization
Generic
##Intelligent
##트리스
위드
스프린트
##토큰
##Register
MQZAO
틀리
##inst
콜론
정평
통장
##정자
워치
샌드
접착제
##리호
역간
미네랄
투과
공동묘지
이변
##정복
정부인
화형
분신
병설
폐포
실내악
테오도시우스
영도
한랭
산동
귀납
사들였
내력
##차르
부군
공포증
울리히
기거
안무가
지토
##하르트
##Overview
끊어졌
##시공
##퇴직
##Model
<->
##BROKER
대민
bypass
충원
##container
redirection
parses
##터치
감도
SLM
9999
confidential
넘어갈
##Queues
ctx
춥
택배
속속
예매
##crossing
국책
전화기
글의
여행객
바일
##의존
##아랍
AWDS
세율
메이플
##serif
변칙
카나
선분
동역학
중서
##평론
흘러드
신간회
열반
즉위식
영접
번번이
미소녀
총연장
협궤
범어사
대동맥
지요다
##버니
스키피오
안무
##나비
현령
##마군
평양직할시
정상부
호국
텐트
시전
브라운슈바이크
옹정제
다우
마일스
에노모토
다카사키
헤이시
##슬램
##트리오스
##왕전
바야돌리드
다승
폐해
한시
pc
양사
Docker
##Typical
simplifies
precisely
관계없
scheduler
##별첨
Customization
<<
##수표
손익
##SDS
이뤄지는
privileged
##아울러
##신분
트랜스포머
접지
##아내
잠겨
addr
##신보
설파
진하
##비어
##사과
깨졌
배급사
응모
##변이
##용사
황태
잡아내
간선도로
보소
변속
envir
레그
공공연히
##오페라
군내
##종족
핍박
관음
도굴
신사참배
##大邱
복숭아
시해
빙그레
민병
앨라배마
마가렛
관작
우에다
펀자브
아르테
WBS
주소지
소홀히
인사이트
modifies
discards
Aggregation
securely
##DES
##매니
XMITQ
노령
쿠폰
##사무관
뚜렷이
##스마트폰
더빙
Syntax
찾아보
paging
ADO
한계점
역부족
방편
##TOPIC
새만금
라스트
선보여
통한다
챙기
아프리카인
##산기
##미스터
##조선일보
##호인
노년
epository
강동구
씌워
삼성그룹
냈으며
웨일즈
거스
보수주의자
다녀오
계엄
비스트
지나갔
부주석
모하
참판
철군
토후국
이홍장
아리마
싸운다
특공대
백군
암세포
외할머니
코네티컷주
윤석열
소현
호몰로지
만력
##전투기
야마가타현
헤비급
쿠루
multiplied
##장시
##템플
##samp
registering
PROPAGATE
JSF
연혁
##컨설턴트
##Consumer
##Top
revisions
심해졌
문부
##She
##지각
##310
리에
감속
홍주
바라볼
우선권
Precompiler
##폴드
인제
구청
모듈러
타이머
사철
장력
##1872
이끌려
한산
여전
양주시
수영복
카디프
수세
트랙터
선산
남침
따돌림
찬미
##마니
일으켰으며
조광
##왕자
강직
석의
속칭
##다마
문화부
##발리
평가전
헤로도토스
좌익수
섬인
매겼
편수
폐선
김종
비밀결사
병참
병장
밋밋
화엄
히바
리베라
##承旨
장경
행선
예장
배교
로니
##증이
##국내외
##롯데
메세
##부천
troubleshoot
whenthe
PDSE
##Below
위기감
wizards
재배치
##145
##147
newline
Initialize
clicks
noaction
CORE
Predictive
유니콘
태동
##올림
##라데
견주
격인
약수
수서
조리법
엇갈린
비장
원호
오레
배움
갈고리
리얼리즘
요시오
두루마리
오랑캐
저격수
교세
연해
라부아지에
극좌
철원군
맡아보
다케
노런
양아버지
서양인
브리타니아
바쳐
프레이
방랑
모란
신디
토라
사성
도네
##城府
고쿠라
혜종
##존상
##순환고
##읍성
염전
권신
원담
##주머니쥐
체급
실비
##Router
eliminates
hex
##예금
특례
Retrieve
##니트
예산안
집중력
##Introduction
##6000
PFM
마칠
##데일리
급부상
코디
부동소수점
찾아다니
수정안
포커
택한
##실질
##트인
돌아섰
굳히
얽매이
그랬던
고배
##진실
##올린
의미론
각계
##해안
입항
통달
캐슬
##방영
압수수색
목도
되살리
반장
블룸
남겼으며
아사노
석회
구파
인현
구라
외세
통곡
업고
호르헤
바르바로사
혼슈
올빼미
팽팽
일러스트레이터
스텔라
하시바
간에이
하리마
사라고사
육식성
루빈
위너스
볼프스부르크
##보험료
##이중화
##TTA
##강력
전문과
산업별
단의
##https
##내외
##인에
고해상도
submission
물음
매끄럽
알선
##175
defect
##MODE
UNIQUE
Salesforce
알아낼
##쿠바
SATA
기다려야
##무관
스루
풍선
일어
트러스트
##잠수함
청도
트윗
연성
##진에
스에
ROSE
태반
##1876
##서북
코스타
##사변
신혼
##클레
단맛
야산
자유민
마지못해
##동해
유리수
그건
참혹
##1892
공수부대
월간지
베이루트
사미
##김일성
코라
버팔로
출신자
광기
약재
##타케
단테
유인원
게릴라전
마르티노
##토이
##악마
아미르
알프
가고시마
엘람
구레
사우론
사진가
귀위크
남우
전기철도
마도카
##전개
도용
##Subscription
##Clear
취해야
##메이커
폐쇄성
##휴가
MQPS
##Site
##수많
스트링
증권사
클립보드
공감대
Throughput
##204
MCAUSER
denoted
##싱하
prede
geometric
봉투
이정표
##141
##게스트
가진다고
##233
패딩
##라스트
포항제철
##벨기에
극소수
##픽셀
지의
##수반
##클린
스톡
##보스턴
중등교육
아리랑
##비서실
앰프
왜건
불가침
벗겨
##합전
##프랑스어
##自由
대륙성
감격
조계종
꼭두각시
캐럴
##國際
앤젤
귀도
웹스터
##드웨이
기무라
육조
버몬트
귀부
##문종
역전사
대화재
##＞(
##世子
객사
충숙왕
윤선도
난부
이와타
앗딘
쉐보레
케로로
##About
수취
##사본
Bserv
로서
##168
CIO
RESTful
당근
개인별
##정계
미연
MOVE
##탈퇴
expecting
persisted
##Admin
SIEM
##볼륨
달릴
가창
서포트
##endmqm
MCAs
오리엔트
Relationship
##´
클수록
NEXT
바꿈
##팩토리
##인트
wsdl
##티어
##자드
목과
##˚
Justify
방목
esour
슐레스비히
지명도
목수
##귀국
하토야마
펼친다
엠마
##북위
메테인
##社會
대서
환멸
##전보국
##청춘
박물학
옷자락
이데아
과당
대항전
약해졌
홍성군
숭상
태위
요아힘
##마리오
##無明
노다
삽입곡
레니
토우
야마시타
포트로
딜러
QA
##Certificate
issuer
Dashboards
##농촌
##수치
Checking
WRITE
##security
##항상
Beans
##체이
유방암
남양주
##유치원
##CompCode
##트레이
Confguration
##components
##올라
부분집합
카렌
답사
RESLEVEL
TLOG
접선
##상부
메디컬
##스틱
##폭포
##안녕
트인
에릭슨
##요코하마
##일곱
햄버거
다른데
항속
철새
##계몽
##원작
키미
민코프스키
무르
다쳤
슈뢰딩거
사색
평화주의
난류
제헌
##1886
발흥
굶주림
형량
아파르트헤이트
연체동물
흄
##숭배
힌덴부르크
자폐
전리
부대원
이국
후주
중턱
핼리팩스
별시
옹주
루지
승무
초이스
머라이어
흑기군
needing
리노
장단점
##PHP
경비원
##테이프
입찰자
##일상
##벤트
CSD
##Deferred
##Topic
MQM
개이
##512
savings
Loading
umask
pertaining
Confirm
##Peer
높인
총계
EJBs
Collectors
##139
대소
강습
수라
토요
데크
세계인
맞춤법
저마다
##심소
원한다
성역
전경
충만
부서지
플로리
뻔했
##제곱
##1887
갑오개혁
##염색체
온게임넷
헤이세이
뜻대로
심상정
리미
최고령
아데노신
슈만
퀸즐랜드
참나무
법률가
유랑
##스미스
##카리
콘월
##마이어
티투스
적진
코르시카
막시무스
투팍
레이첼
##鄕校
사이토카인
##立像
deployer
##게시판
##Born
wherever
Samples
##인텔
screens
PMO
##인격
##로스트
하신
ILOG
theobject
tightly
소액
LOAD
##폐지
금연
가칭
타결
완구
트릭
실례
배트
차선
synonyms
원은
부평구
savepoint
만만
호드
##뜰
##주파
##우산
총격전
신입생
통감
##Tahoma
##비행장
##허의
스물
사저
심경
라미
아시모프
##1888
음악회
미크로네시아
발명품
##民主
최면
흉터
오타쿠
미야코
아카드
피날레
꼬리지느러미
동물학자
파벨
크렘린
##교포
아람어
##무르
클라우디우스
진무
부교
셋쓰
##마쓰다이라
계림
힘줄
##리사
대축일
토마
와이오밍
##보살상
레이더스
신중도
incorporate
##가변
##반입
##안함
CAM
Hash
irrespective
##MQCONN
tiles
##ICT
부치
문화재청
행한다
인덱싱
##Item
SEQ
MQGet
cubes
insights
전기차
이뤄지고
##명단
##오로
보관소
코멘트
multibyte
##교대
##핚
##마법
디저트
도이치
익스트림
##장수
포즈
##역인
행선지
수적
거쳤으며
분류법
타이포그래피
작자
##방학
휩싸였
분립
이시영
이와쿠라
신앙심
자랐으며
힐스
##할아버지
행진곡
주치
오트
베드로
만토바
##투르
육로
겐신
##모치
##작위
페레
봉했
나라현
지석묘
제미니
히메지
시흥군
유표
##御史
파머
후이족
##링스
##사라이
총열
recursive
Parent
##url
FLOW
##앤드
하청
보험금
2048
##wbi
finishes
##include
portlet
##Help
제스처
무의미
versa
##Identifier
Condition
소인
##골든
CUBRID
##item
군부대
CipherSpecs
고액
원예

아티
기내
OPS
협찬
부러지
##유한
넉넉
역경
##정보국
문호
본보기
교포
토속
##스파
군국주의
아방가르드
##친위대
처자
서라벌
현상금
##냐며
지쳐
동급생
조선임
초상화가
단당류
슬라브족
크리스털
만리장성
끓여
산청군
오언
꾸민
송광사
##요크
티르
볼리바르
성터
오클라호마주
위니
라지
스나이퍼
접영
애플렉
##NUMBER
examining
TCO
CFLEVEL
semaphore
##유상
##으시
시한
##시한
##상도의
ifyou
youhave
OSS
서귀포
##명명
##동아
##050
##211
##Self
##부속
##뮤지컬
##모사
##identi
##주당
얼리
##203
##수첩
팩터
마포
AMS
ConnectionConsumer
광활
읽히
콜레
축이
넘어지
촉탁
박스오피스
사칭
매니아
레고
\'%
##라타
##리어스
악재
두드러진다
##가게
##회화
##체스
허약
이어졌으며
##폭격
##공위
연평도
세실
하남시
삼척
김종서
##돈녕
히로유키
메탈리카
입이
프레이저
##양력
입소
##현령
안수
신심
군단장
##타석
흘렸
##太平
커크
##린이
이복동생
시어머니
새마을호
캐넌
럭키
##엄마
칼초
마사키
##콘티넨털
에가와
##DAY
##rw
대리점
##Cross
injected
체크섬
##sbin
##Domain
viewer
ONLY
##염기
태안
지킨
##component
##효로
##대표자
퇴근
##폐쇄
aparticular
동선
##호환
##구문
##Qmgr
네이트
Transactional
두드러졌
##비디아
DES
##우에
cartridge
헬싱키
폐사
쉬워
다이어트
##우체국
부동
##들러
##공학부
밀어
##러서
속여
도봉구
북태평양
안료
승강기
##토끼
영덕
루블
닐슨
체스터
##루시
##청원
마그나
일단락
박힌
##시어
나치스
##담배
##敎育
##항일
수공업
신랑
대월
외동딸
발레리
마리아나
참봉
호숫가
연원
가요제
##루크
##거리의
야곱
북중미
##경비대
극본
##Louis
노역
대공포
실증주의
##토머스
##연대장
거문고
##레트로바이러스
##都監
동궁
금산군
나가오카
특진
대프랑스
##이센
추크
베네벤토
코너킥
##Subsequent
당진
알려야
##자전거
federate
IDS
##패킷
##참가자
##테마
thatis
subscribes
정품
편익
predict
##Health
##Path
enumeration
다큐
##획득
제호
##중력
subtask
장중
##193
QALIAS
값비싼
Ports
넘쳐
멈출
##virtual
소화기
명당
##으니까
##이진
천이
시발
틀렸
##클리
홍대
##DateTime
추축
##자회
링고
주동
다비트
시마네현
도쿠
태백
도일
조선어
##성군
##공세
애니메이터
방탕
권능
땅볼
##제군
불태워
카다피
##리다
원류
##예종
마테오
히로히토
신령
면역계
뒷발
느티나무
브레스트
교미
허균
미니애폴리스
##호그
##울리
##이끼
##temp
보냅니다
##직무
##Implementing
computation
간략히
##용도
thecorresponding
jdbc
도급
##데드
tmadmin
##변형
proc
동태
MDX
##록과
##파일로
생년월일
##선물
디스커버리
앞단
##182
인원수
##전문기
기대감
채워진
##간섭
엑세스
QmgrName
##경상
##212
마우
##음료
STX
사로
부딪혔
##버려
##진다는
##억제
금정구
커튼
체이스
원성
맛과
글라스
통일부
##반과
가환환
기시
복당
침략자
##헤르
서태후
약했
##Henry
##음모
가극단
피아
미덕
수륙
표피
##백인
비변사
세바스티안
##카리브
혁명군
김제시
##드프랑스
살아갈
함안군
식초
##裵
줄리
덴분
요시히사
산신
##우왕
요시키
일개미
공손찬
동지중추부사
카고
김보름
canuse
##형법
##매뉴얼
PI
XHR
Topics
##Likewise
##확인서
##Trust
scanned
##습지
Providers
마일리지
밝힐
일신
##Workbench
todetermine
서강대
해면
markup
피싱
##emp
연결선
##keyword
Programmer
dispatchers
MQRR
술어
empno
알려짐
구술
을과
주유소
경유지
성수
예절
물리량
##아시안
기즈
남해고속도로
벌집
멋대로
##롤의
마고
풀려난
##아인슈타인
##독립운동
중립국
한자음
변태
신해철
##1848
플랜테이션
##리츠
벼농사
##다드
법무관
빌레
말라야
목관
플라잉
포에니
안토니누스
지파
반목
체르노빌
로페즈
기요모리
EXO
##무형문화재
연개소문
카시니
오스본
##병마절도사
응원가
루니
VVVF
workloads
패널로
##고무
SSE
truststore
##사료
딛
Extensions
##Reports
##remove
아시아나항공
LS
OID
##screen
##COMMIT
##525
장내
갖춰져
##로워
##154
테마파크
##이노
Lombardi
해준
##덧붙여
HCONN
공여
##238
##지원금
플로피
##신세계
통제력
##공관
다로
##세도
불기소
진도군
##골드
조선왕조실록
에메랄드
우동
##다와
##1861
매리
오줌
이상재
키운
중무장
재거
획책
넘겨졌
칼레
하퍼
검술
아일랜드인
예편
디아
신시
음서
피침형
현무
야마자키
베로나
조운
신이치
행크
facilitates
avoided
##부령
전행
문서화
##import
##Specifically
submitting
proceeding
##Excel
##Feel
simultaneous
##바인
겁니다
evaluating
LOCAL
worry
돌발
##’,’
##직장
생소
##Logging
assurance
##지토리
##520
##155
bw
돌파구
##비료
굵기
오존
##리마
##지우
##했으니
외신
##루쿠
월등히
해온
##도라
타진
##동인
##렀을
공보
대검찰청
허가서
oduct
토네이도
매점
벅스
수전
기선
험한
솥
##부흥
재밌
##러서야
강연회
##게르만
무녀
의화단
에드거
##마하
칩거
비누
태어난다
다카오
심실
멀린
쥔
보령시
디오니소스
안티오코스
반역자
마티아스
사보이
낙랑
고메스
아카시
양말
김성근
코먼웰스
알레만
케리건
프레슬
볼드모트
당직
동호회
##보정
##LIBRARY
somewhere
CRLs
serviceability
##SKT
exam
흥덕구
Commands
transactionality
Creates
similarity
챕터
Convert
바꿔서
초동
요령
datastore
##장벽
당뇨
##래공
##008
체재
StrucLength
##Recall
쌍이
microprocessor
bookmark
CPF
Allocate
수문
모뎀
무난
MQAX
잘린
정읍시
텅
##나온
빨랐
MPGW
##갈등
스티
탈북자
가진다는
유공
##계단
군수품
스키장
해달
##기념사업
##가가
수꽃
질산
##광산
한국사
신동
웨버
전교조
무스타파
윈난
형제자매
피터슨
오히라
출옥
인준
광해
자연석
이교
##리나
미네르바
평단
##쿠사
트란실바니아
글리
페리클레스
기혼
에콜
##조선왕조실록
베스트팔렌
보르네오섬
수마트라
뉴기니섬
하진
최익현
##구력
##密陽
##도루
##합체
미도리
묀헨글라트바흐
미야모토
불그스레
computed
##logging
##추후
##Little
CDN
##조원
기산
산업단지
출입국
panes
넘어온
Telnet
dummy
##232
##COMMAND
학내
유럽연합
##CTX
##Rules
프롬
정답
ADHD
입혀
MQCFSL
##097
주사위
FreeBSD
실추
가까우며
##인생
##쿼터
동봉
실세
##Indicateswhether
미아
##IOC
장구
##전당
##군정
##개입
괴산군
버릇
급팽창
정은
오세훈
붓다
현대그룹
성금
날아다니
후량
속어
작정
윤웅렬
구루
미케네
엘베
##기름
##포병
록과
##기념물
공작령
튀코
토모
##헌종
##다라
##종착
테라스
##휴게소
봅슬레이
백국
오른발
콜트
오다큐
메가데스
융프라우
async
##FORMAT
##ISP
##Migrate
##xxx
##전송이
##샘플
Initiation
##유해
##리소스
##레이저
##Determines
봉착
##*.
콜라보
invoker
intuitive
##boolean
SALES
사과문
차이나
##코인
##드레
앙카라
##관방
정진
##원전
제각기
난립
두드리
##캐스터
홀로그램
다행
엇갈리
수포
##아리랑
대명
부녀자
모독
음계
남북국
전국구
이를테면
튀김
이심률
저우언라이
변증
##실력
일개
궁내부
김좌진
중편
##포프
##코바
호치민
##금성
오디세우스
세베루스
황조
깬
한림
명군
활동전위
케르
삼별초
##아베
삼존
진양
페드루
자청
모식
##타코
페르디난도
##밀스
유위법
반그림자
##Cache
멱
##모델링
##IIB
##초과
##Man
연차
로보
형태소
##TMS
##사내
##Physical
##대략
Simulation
##Down
##동영상
##Manage
##ELEMENT
관인
##161
통관
##대외연
LDIF
##중등학교
나침반
하한
분모
##호로
##진다고
버디
##걸음
#/
업소
##기어
##스도
##일찍이
의구심
이주자
늘어놓
##커피
성욕
워프
본의
##1862
피아트
허술
범한
번트
직감
충격파
##기이
보살핌
##촌은
스트롱
밤새
피의
이인
##소대
피선
응징
##싸움
하루히
돌려보냈
상복
앨버타
태양신
술라
루르
실학자
##경연
전용도로
미쓰나리
북면
거창군
시위자
종성
둘렀
아오키
리버럴
##아리아
아루바
호그와트
##LOCAL
##CLASS
##Never
##공제
expectations
##철수
##Initialize
##Related
##Policy
SVG
##정밀
고군분투
번거
##일별
Monitors
사와
묵시
##인공
타깃
입점
##detail
되돌아오
##성실
allocating
##Should
현대캐피탈
주최자
##학관
##전압
##어선
##편찬
연합회
##라자
##단종
밀크
##골프
##아산
떴
##'-
대덕
붐비
##NHK
천정
##1400
원초
장학생
수성구
이요
국가주의
중력장
##光州
벌였으며
법명
음파
백금
적대감
개화
그로텐디크
테오도르
태어났으나
진산
신고전주의
약초
아프로디테
완강
스타덤
자연법
임지
##廣州
##크리스
에마누엘레
차륜
배다른
히젠
반구
도로시
매춘부
##쉬르
실축
##카베
서녀
메시아
##힐스
야마우치
바이닐
원한다면
##Smart
얼룩
##Binary
##Development
theinformation
differing
##프로그래밍
로그인한
disconnects
flavors
##scale
호출자
이견
EXCEPTION
##의도
꾸리
타스
QName
##Phase
##구호
원대
쑤저우
##국경
MQTMC
체인점
값싼
정해진다
유례
명암
##글러
비춰
남이
뉴타운
오피스텔
주춧돌
##야말로
야만
더군다나
팬텀
세바스토폴
서울역
십진법
##아지
##호랑이
순환선
헨더슨
장신
허파
헤모글로빈
면회
하얗
독립선언
##상원
인품
암트랙
##바니
배와
아킬레우스
프리스
선법
애슐리
##노보
시들
베르겐
##라테
황소자리
##株式
예부
번식기
이즈모
사누키
병마절도사
트레이시
괴인
##감독원
deselect
Connecting
##RLY
창조적
Hive
##원부
##타당
##대안
펼칠
이분법
##POST
책략
##134
shard
저절로
커진
미술사
##어미
로이터
인터프리터
소대장
증산
도처
##소위
서천
##급행
갈라파고스
투표율
노려
운문
일진
센스
증권거래소
##프리드리히
따라갔
창제
쌍극자
사회단체
발성
토륨
다케오
서화
창녕군
##궈
##²)
헤즈
색슨
멸치
옐로
바르트
벨파스트
카트린
공작원
행각
터키인
##토미
마가
무득점
위업
미쓰히데
아르슬란
##해병
##아강
공대공
스페인령
강진군
카미
##펑크
교행
발차
셀타
##사키
에스메랄다
##0001
전산실
##중국어
##차년
clicked
##Home
##Deleting
encapsulated
##실태
constrained
Metadata
##매입
##Primary
##AND
스토리보드
세입
##소매
KAIST
가평
GPKI
특별상
나눠서
##팁
reopen
남겨둔
lob
섀시
칠곡군
##래쉬
##인기
제제
의안
승하차
##둔다
관전
토종
##취의
실의
휩싸이
침입자
공허
##VCL
##각류
기강
생겨서
시크
숨겼
벌기
##1873
##공예
자유민주주의
살균
득세
실바
도함수
##노와
바바라
애비
보디
곡도
흑점
뭉치
산개
예쁜
##經濟
배운다
베니젤로스
차이콥스키
건널
레미
가느다란
##고보
남원시
세네
아자이
##헛
니조
북원
메디아
##밀양
체사레
팰리스
수아레스
이자겸
##알프
아다치
니코
신데렐라
##Asynchronous
##Instance
##Parallel
클락
##요령
##별지
##TRUNCATED
비상시
##Identity
redirected
##위해서
##할인
저변
수산물
GUID
##SESSION
Lightweight
솔리드
##파지
증분
난관
열립니다
##위생
항법
CTX
AVG
JUnit
누계
encapsulate
Interchange
##손실률
Analytical
미쓰이
vectors
##관용
잠기
QREMOTE
어학
실루엣
수혜
필치
흐리
일소
비워
Subclause
후크
밀폐
준말
##기력
부딪치
발길
쉬웠
##도정
번화가
##심이
##개구리
억양
촘촘
석영
해직
리코
순진
베릴륨
화평
신파
##京都
재빠르
어순
큰아버지
들어설
절강
하지메
밤중
패터슨
##오에
푸가
셀룰로스
포클랜드
##라로
찬송가
##文科
이순
##1830
##교인
사울
##스틴
데려갔
포티
탈린
빨치산
영묘
대간
이황의
킹스턴
난바
푸트
음성군
##정랑
욕계
디아블로
##기사단
우주인
하치노헤
쿠프
##Thefollowing
##Various
서무
##등록증
##BME
##=“
##Sending
##오래
로케
Certification
불완전
추상화
##146
HTTPReply
SCADA
owning
transmissions
SCHEMA
넘어오
messageflow
##장터
plugins
##캐시
timeframe
##Zero
##포시
용융
초전도
tile
##Safe
expands
##MQBYTE
LEN
##Mark
##640
성장기
##붙여
##정화
##열린
아세안
negotiated
##완화
존립
연약
##밀리미터
BSC
Callback
비관
수작
카리
빼놓
XSQL
덧붙여서
프리뷰
##주지
미끼
역내
##민속
##주역
멈춰
##관리국
인천시
ogram
생동감
주택가
예술품
배설물
##치만
채찍
상록수
바랬
ocedur
##총감
고윳값
후금
##개장
그레그
당권
반한
##부락
인류학자
종신형
안드레스
손질
군의관
제럴드
말린스
몰디브
더러운
도리아
코르넬리우스
달려들
돛
아스투리아스
삼국유사
소제
매상
##쿠시
도치기
영생
허적
출루율
물병자리
팔각
사라왁
리암
markers
위변
국민은행
##JOB
Conditions
##social
##행시
mqsichangeproperties
realm
validating
##수직
fork
끝자락
##disable
USE
##660
##NOTI
##Programmable
##STOP
깨끗이
MQCXP
##교차
스캐닝
##전처
ssh
드로잉
합해
정돈
SBCS
##소와
후처
참신
밀림
입맛
Motif
못지
이천
에픽하이
브레인
시구
갇혔
프린
자급자족
난소
유속
도내
로터리
##막이
##약물
기염
차고
음극
oker
푸앵카레
아톰
##1878
멜리
코흐
##자매
마흐무드
지중추부사
시르
시나트라
제플린
사로잡혔
##볼라
가슴지느러미
괴링
뮤즈
베르크
방망이
데려와
고흥군
중군
##다비
##에스파냐
##각이
##스티븐
유자
도미니코
소노
누르하치
미코
분고
당상
조에쓰
단바
정희
케이시
수문장
마애불
네브래스카
##배수량
팬터그래프
restoring
##mqsi
##스캔
##비에
영수증
MMS
###,
오더
할인율
일지
합니까
##이징
##display
##증기
동북아
desirable
##이프
##DBPut
##해요
##곤란
##대해
Reserved
##Assuming
풍수
MQSCO
##달성
##162
##sub
스파크
##지드
##USD
롤러
GroupId
##221
##승강장
모닝
세탁
무하마드
##NBA
생산품
도체
메르켈
청구인
명승
##펌프
최전선
화차
대구시
##1300
접착
상속자
##모던
토막
지켜본
##토바
세터
월스트리트
조만식
##스투
애국자
##로웠
와카야마현
쇠락
아스트
알마
중성자별
딱정벌레
엘라
##막부
샌안토니오
데려다
아노
홀랜드
베트남어
파비아
아인
라파예트
이름난
기독교도
쳐들
카마
들어올리
양고기
크누트
지대공
사나다
##자카
감바
난형
메인주
유루
영남대
광릉
##린스
##心所
뇌샤텔
##Large
readme
Compare
continuation
실마리
##처하
##Programming
##processing
광진구
직간접
퀄컴
##이이
##Simply
##정규식
##20000
##고와
printf
occupies
##느냐는
dept
##MVS
##SALARY
딜레마
농어촌
copybook
##증거
통풍
왔었
집행부
주유
##잔디
curr
##이젠
독트린
패러
부안군
##뿌리
##쓰가
##국보
##리라는
리오넬
##노무현
편집인
서울특별시장
전능
공화제
##배구
구약성경
개울
부르키나파소
스카웃
신격화
아리스
육신
멘셰비키
행실
물줄기
##타다
데려
쫓아냈
페데리코
헨리크
고바야
맥길
부원
코브라
우안
##규슈
마사토
산리쿠
##오지오
메타크리틱
자격정지
##필요시
사용료
복리
화두
##Drill
##″,
timely
Accept
부주의
##물량
disconnecting
manipulated
attacker
절로
>=
##산림
##Communication
##슬러
BIOS
거실
##Solaris
Continue
thetable
extensible
범례
##138
##사직
sorts
buf
나눗셈
##195
편중
chained
##SOURCE
##partitioned
##모아
호구
##거용
퍼뜨리
디지
##십자
##로지
##버릴
##코카
##정통
##AFC
막상
라운지
체신
수트
TimeoutNotification
##왕립
##문관
코발트
우치
알아채
가드너
##하치
카간
통일민주당
호남선
무형문화재
쏠
##와카
벤젠
점령군
히파르코스
정력
낙서
##어려서
훈련소
군주국
##버트
볼링
참파
중앙집권
사들여
##고르
만하임
다당제
살라
엔리코
수호이
##원군
##미우스
기관포
격식
브란
낭인
토호
대하드라마
알레포
##친왕
콩팥
##郡守
로타링기아
갤러거
나이츠
테스토스테론
확인서
개략
가교
차주
##project
Stack
##만료
##INSTALL
##침입
##경계
Specifying
Invoice
##Stored
customizations
##desc
Argument
##외환
불공정
모빌리티
##공중
##191
loosely
##Sender
attachments
SUSE
Assign
annotation
##트랜스
##김해
##negative
##SUCCESS
전입
##납니다
##앞면
##술부
##정치가
##대결
##㎝
##봉기
놀랄
ess
도민
통수
북문
##단총
안락
UUCP
산모
유명무실
젊음
진천군
##귀의
금은
나치즘
덕수궁
비로
우주망원경
##세기말
나카가와
스콜라
경시청
샤이
에르난데스
대기근
퀘벡주
누에바
키르케고르
셜록
##베토벤
볼레
나팔
순행
특무
청어
레가
관복
창극
안시
##金海
홈런왕
파평
선무
동부승지
##判官
##코끼리
콜럼
엠파이어
##제프
##~》
timeouts
##Temp
Owner
##굿모닝
##qualified
Dashlets
##Prepare
##IDC
POWER
ciphers
indefinitely
##Repository
인트
DECIMAL
disadvantage
중간자
##Ex
##Pre
##SCA
음질
##주차장
파수
독촉
orthe
arenot
은행가
crypto
한가
##;"
당위
##185
##People
교수진
##컬러
##거점
##연설
##스트리
##中國
리버티
##실로
너바나
일어서
꿰
##파동
##이명박
매몰
골고루
넘나들
##모니
##착륙
퀘이커
마우리
냉대
피토
순결
명복
가르친다
마르코프
홍차
염기쌍
대궐
##문양
식민지화
에번스
파슨스
작곡자
단형
과립
노팅엄
미나
##모이
엘렌
알트
끓인
##1881
게르마니아
우생학
##世宗
천민
실비아
성좌
무용수
##혁명군
마쓰다
홍천
##게이초
함안
노토
투수진
다무라
효행
흡혈귀
폐역
나방
펜더
히고
##캇
SLBM
협시
접속자
##메타데이터
참작
DISK
consolidation
theWebSphere
yields
mqsistop
unexpectedly
##Stopping
영상물
faults
커밋
##retry
돌릴
arising
##165
##720
상담원
카카오톡
유시
##sample
ebXML
##left
##301
##172
transparency
##Central
##386
##420
##금지법
스테인
넘어간다
비화
##할까
##tpalloc
사투
임산부
제이콥
비스듬히
##개성
##삼거리
제비
기로
우성
캐리어
##성우
자모
##평방
부전
입방
##청문회
##〉("
소학
방북
##조국
##티베트
나세르
양복
숙부인
가극
밀렸
침강
##열전
스플릿
관료제
글리코젠
##폭격기
중핵
근년
튀링겐
휘장
판노니아
리나
슈타인
위암
극의
헬레나
로체스터
뒤엎
가리발디
사이온지
팔츠
향로
##大師
쳐들어오
##華嚴
샨
성혼
축음기
선내
바얀
정과
##왕상
암꽃
어금니
족제비
건조림
아즈텍
애너하임
라라
오이타현
랑선
ormore
이럴
##국정원
##Checking
##196
##TRANS
stdout
##208
훈령
cron
*,
##무명
##Will
##계약법
##생체
##개설
##Attachment
융자
전가
##249
업자
숨길
transmitterChannel
##225
namelists
##중기
uploaded
##Schema
##출전
단연
통고
미정
##장판
일직선
가위
익혀
##스피드
머스크
경험치
##다를
bIsEncrypt
##서방
##엘리
엔젤
##문화원
##제대
레이트
부안
척하
건축학
복개
##0000001
왼편
입석
##국민학교
##世界
##누나
##막스
라인하르트
개혁파
당적
지부티
브라이트
아난
의용
신군
녹차
자자
천궁
##베른
시험관
떠났으며
관악기
왕정복고
##기리
필리포
기요마사
고즈케
미란다
헤이스
##江陵
평산
##성제
에닉스
김태원
후지타
민속문화재
##로리
##툴바
다산
AnyLink
##profiles
##Hot
##급대
Rename
전자책
subroutine
##CLI
##Putting
하달
##저자
토탈
##Store
걸러
##주권
산학
##UDP
##181
일전
##태도
##217
##Case
##던스
열지
들여온
##접종
수만
다이아
정회원
##요가
셰이크
급등
엄숙
분만
러시아워
석고
베네
##거울
##비행단
##코너
뒷산
종인
해탈
##유격대
삼도
다친
헤럴드
은하수
소행성대
##물고기
##스타드
마제
##思想
바하마
디오클레티아누스
격문
샴
사구
전법
원추
##화랑
##노포
##오노
화포
##거북
부교리
가가와현
무루
비와
벨벳
##생쥐
##반승
##힝
베냉
요시노리
졸리
제닝스
임사
워리어스
닛타
DeNA
브록
믹스테이프
latch
##라이센스
원재료
따져
POSCO
equates
leak
Vendor
routers
whitespace
PostgreSQL
hover
warehouses
VCAEUE
지급시
##MASTER
HEAD
현물
##add
##Print
##');
자필
기지국
접두어
실생활
신제
농산
연접
BUFFER
구매력
Qt
소중히
체크카드
혼란기
##백스
##루지
이타
들렸
오바
히라
보른
로자
##교가
윌리스
##마가
알버트
##내전
할례
내사
가졌으나
엽록체
##리노
단명
난동
소유스
인양
##國師
물리친
알란
빈혈
아드리안
삭과
꾸란
축구장
갑상선
##충렬왕
이름자
공중전
오니
청풍
울스턴크래프트
웨식스
선전관
기념장
differentiate
methodology
덮어쓰
GPP
booted
##출장
##비슷
존엄성
##레이더
##title
WHEN
##Messaging
Layers
##명시
혈당
소프
후원금
##thread
##DETAIL
acknowledgment
protects
##Retrieve
##Files
측정치
resize
##감염증
##Reissue
찾아낸
DX
TRPTYPE
##적색
에어리어
주무
##자녀
##석학
활로
머지않
지질학자
##포도
각주
버추얼
##리조트
비운
자부
이륜자동차
소인수
살아나
멈췄
##위가
##봉쇄
여행기
켤레
풍의
##설화
북주
랜스
하야토
##1850
아일
합리주의
흩어졌
##수용체
초현실주의
북해
꿰뚫
의령군
에덴
낙원
면했
##감옥
불가르
항공우주국
동고트
##리아노
경서
슐츠
충선왕
##學士
국학
아오야마
살인죄
백작령
부수찬
##贊成
##하목
살레
##피츠
캐피
브라만
미네
##벌레
##리틀
제라드
동남동
##가면라이더
bottleneck
rolls
과태료
벌칙
공구
파서
overlap
콤마
##Whichever
멸실
##PGM
Javadoc
자물쇠
##질병
RPA
액티비티
willbe
swapping
Markup
POOL
##광교
conceptual
SFP
캐치
##예술가
역방향
##TRACE
malloc
시스템즈
프로비저닝
##Hello
##내일
##223
##Korean
##Completion
없앨
원어
##라지
##MQe
obj
##화식
##DMB
비주류
표가
펄프
형평
자른
일광
던질
##페스트
##고속버스
##장르
보건부
연천
진부
임진강
유영
명랑
BFILES
군자
화분
해치백
론도
AmazonS
쏴
##Die
공명당
##사사
장준
##노가
중입자
뒤따랐
##  
아몬드
니시노미야
##남인
진공관
국문학
영천시
남안
새크라멘토
병리학
다당류
코카서스
현세
금의
안락사
사대
앙헬
코시모
무정부
편집국장
골망
슐레지엔
##사다
몬태나
철로
앨리슨
휘그당
##CoV
덤블
notices
정보주
##WBS
##독자
직종
외산
##centric
##Channels
##Grant
##384
도시락
##ABC
##어음
foo
##durable
##아무
찾기
##LEN
INOUT
알리아스
synthetic
피폭
국비
이착륙
부호화
##Environment
##lived
continually
subclasses
##일임
창궐
##condition
##144
##148
##좌표
가리킨
소득세
드릴링
에이전시
SHOW
하락세
이베이
노즐
희소
##진료
##냉전
##SELECTOR
MQTopic
훔친
맹목
총면적
치닫
세뇌
반미
음정
자유민주연합
그림책
비꼬
문학부
경의선
근일점
논박
양부
의학부
창자
예이츠
대위법
본떠
회심
로마네스크
함재기
히치콕
말다툼
기동력
월동
산란기
황국
임오군란
고니시
마누
무서워
##강희
영주시
콥트
포경
희종
에이로쿠
당간지주
초구
알탄
자폭
스토크
리한나
##힐드
디럭스
##아즈마
로버트슨
디지몬
콜론타이
노동부
오용
##DEBUG
".
tagging
WTX
disparate
##options
Exceptions
##Commands
##업그레이드
##해상
artifact
##END
##Functions
##열기
백그라운드
선금
##심장
##152
의왕시
##VMware
frst
단시간
layered
##bytes
##규약
고위급
##패션
##164
미생
DIRECTORY
##Backup
slice
##급사
##연습
실직
모을
##혼용
CSQJ
NameValueData
선천성
##LGCNS
착상
##카바
##병기
건드리
육각형
##체육회
낙농
철자법
##돼서
흘렀
외우
##대지진
돈다
서정시
할레
오스카르
핼리
남명
##창단
우주비행사
그레고리력
막이
배신자
여순
##피에르
고단샤
나빴
시나가와
장모
당했으며
속인
세레스
대종
송구
참지
##용군
텔아비브
발루아
##太祖
프루
혼전
성악가
산장
외도
유형문화재
##新羅
호지
"《
기모노
찰나
##무네
##다호
감무
버트
미쿠
렉싱턴
저고리
Intermediate
##소집
재실
##비단
##Gartner
##Customize
QMNAME
해경
입찰서
Sendmail
##첨단
securing
topologies
##REM
퀵
UX
스노우
##163
##트랩
terminator
unset
thesource
스피어
높인다
##Methods
##배당
무형
##심각
##DMI
##약점
##더리
어우러진
영구히
표고
##Block
##문항
*),
노하
디나르
##스탄
##이언
슬래시
기발
퀄리티
메인스트림
유행어
법체계
COMPLETION
향료
베어
그런지
힘차
공소시효
허무
방형
##문예
케네
정교수
을사조약
##삼국
앨프리드
중시조
불포화
브래드퍼드
아흐마드
샤론
회관
모치
생강
진안
##이족
##히로시마
숭고
##튀르크
크리올
개창
허베이
쿠마
튜더
육수
우타
고쿠
##도쿠가와
별자
초거성
이시이
이산해
봉수
네브래스카주
세자빈
##도마뱀
핸콕
스피
스프링필드
니시무라
달렉
restores
NORMAL
##약품
##실습
리빙
Exerciser
abends
응대
가파르
##INTEGER
LENGTH
##확장자
##echo
assumptions
탑승자
샌드박스
queueName
즐겨찾기
##fail
unstructured
resemble
터득
이사의
타임스탬프
순열
overflow
##막대
주종
늘어난다
WORK
##타나
우시
##스턴트
##몬스터
##어깨
##쥔
STDL
pragma
유급
##앴
##파나
OCIErrorGet
보금자리
숱한
관절염
##는커녕
톨레도
매카시
스커트
심부름
##대학생
원기둥
냉소
헌병대
##괘
기행
##서이
##악곡
모르고스
에딘
##1875
맹주
오호
##복음주의
##레온
향해서
숯
순정
콩트
감실
천주교인
본가
붕당
싯켄
##實錄
성소
경순왕
##慶尙
##지냈
나섰으나
정철
군신
여호와
발바닥
해곡
그루브
##요미우리
베니테스
헬무트
산탄데르
호쿠
후쿠치야마
현급시
코우
놀도르
납세
##물가
##거래법
총량
investments
##Administrators
executables
IETF
갈음
##대문자
빈부
헬프
##Authorization
던진다
혼선
##Result
##재직
실무자
##Answer
##-(
유스케
케이티
Sending
backlog
##증자
##Old
##액티브
##애니
##수역
##지간
Mgmt
##교과
##스팟
수용자
이용은
핵과
선반
지휘부
##타지
니코틴
진력
장제
##모터
제멋대로
##화력
맹인
부총장
애국가
성신
초속
가네다
##당파
퀴리
##우당
##점령
에워싸
##재즈
도감
환국
괴한
브렛
측선
서늘
##미티
⟪
전서
병석
##총재
바그
징용
의술
지기스문트
통나무
성제
알래스카주
##대대장
분비물
##太守
양광
칠리
히데타
선덕여왕
주경
오로
##감찰
단층대
레인지
##빙판
메이스
스테파니
assess
##Doing
##Tag
##Dead
welcome
MQJMS
dispatch
##오랜
##Scroll
EXTERNAL
##SVR
##인계
##비나
Optim
##APPL
장애자
Roles
workaround
solving
##Alter
handy
##업소
##성현
##RDBMS
Rows
##도로공사
지날수록
##유치
자이
##노출
올려져
궤적
노보
##체전
키울
토픽
싸이월드
인화
##보행
초창
내과
구보
##\'
약식
##조직법
카페인
레이먼드
##FONT
##리라고
리쿠
도화선
중경
유라
오데사
왼손잡이
훔볼트
주향
들으며
##모래
예과
마사요시
##천주교
쑨
캐롤라이나
##이아
##進士
우계
롬바르드
##아테네
경례
보스니아인
아르고스
파열음
약혼자
유려
반쪽
이족
프라이부르크
건안
아케치
##東國
##몬트
잡식성
키라
호자
##카마
나카지마
맥라렌
아토스
망주석
책무
벌금형
##스텝
##Must
negotiation
MQCB
##컨테이너
소상
##Enables
##158
PARSE
##literal
##종전
##정전
associating
Envelope
recommendation
고령화
##기술원
##지령
나날이
##이르
Numeric
infinite
eliminating
##Great
구주
##이사의
지갑
preprocessor
decremented
RAR
FAILED
ObjectQMgrName
급식
인신
##권역
바구니
##퍼스트
##피드
##King
'(
##국무
번번히
움푹
##호조
내서
갈대
연역
버틸
제논
##다우
광우병
##도트
샐리
##지름
##편하
##체조
##작곡가
녹여
살의
투데이
##Edward
##우라늄
유카
성비
식인
똥
자헌대부
전갈
비례대표제
애들레이드
##매일신보
합쳐졌
##요정
올림포스
##레와
큰곰자리
몸매
시적
개역
트레블
완장
논픽션
해학
위신
노장
말갈
질렀
##키아
주희
뉴햄프셔
진종
계율
요네자와
##스테드
##대승
레흐
##지평
수족
##어시스트
##이글스
니코니코
비신
##ITEM
##content
##사회단체
##CONNECT
##텔레
##Verifying
부가세
##이메일
PRIMARY
직제
##변국
Duplicate
기하급수
커리큘럼
나타
JVMs
Invocation
constitute
소폭
KIS
##레이어
스니
인라인
노련
에지
##Super
지킨다
내려서
##국기
심장병
##동서
창설자
조가
에디트
축사
직영
조난
##rcv
들어야
모양새
순도
도살
발견자
##신과
헬리
##MQHBAG
요란
패션쇼
##특전
권좌
몸짓
##　
안겼
##Karl
##미스트
신채호
##유년
사정거리
##신민
활약상
정우회
##탈리아
스완
내막
인조잔디
빙하기
##말리
여공
피츠
##阿彌陀
헤매
나오미
루카셴코
##로이
정육면체
고양군
##크림
덴무
화단
니시노
##리니
처소
수액
라피
##세월
노바스코샤
수도자
카자흐
황주
유격대
하카
파이크
슈비츠
국민주의
조승희
기요하라
코스프레
지드래곤
diagnosing
반올림
##기술료
벤치마크
##Month
##스톨
##Developer
##Nothing
delegate
highlighting
##Assign
whichever
##143
##시각화
울진
Include
##Effective
##depth
shortcuts
##구청
modular
verbose
##북로
summation
##Usher
##가우
시진핑
##207
스테인리스
Approval
##다기
CCDT
##CRYPTO
##트라이
재구
남동구
SPIRIT
wasexecuted
색다른
여길
##부진
##유령
플립
가업
강대형
매너
연구회
##간지
콧구멍
인두
슈나이더
도깨비
##타격
##1840
열성
자유시
##무렵
후렴
고이치
왕도
후쿠자와
샌디에이고
오사
##링거
페소
##광복군
##스탈린
북극성
김정희
데인
타라
비비
라테라노
우이
사공
##해방전선
금당
다르크
여제
스타스
##cache
manipulating
파운데이션
로거
##큐브
##인다
채운다
bugs
VB
MsgDesc
##보험의
usr
##반려
theprocess
Defining
##때로
##해킹
tailored
visually
슬립
떠돌이
varray
상습
submits
##Ability
##Reduce
unaffected
민수
acknowledgement
옴니버스
##커버
컴팩트
요점
subtasks
MQDH
MQCTL
북한산
##기분
조형물
견학
서핑
베어링
텃밭
직장인
##유명
승승장구
필러
집게
검진
dvoid
전분
##사부
변덕
반세기
놓여져
##미즈
우분투
약해진
수보
카펜터
##코시
개리
후스
##시바
신해혁명
황교안
야코프
코언
쇼토쿠
백부
윤봉길
퇴폐
콜리
##흑인
청도군
주형
아이오딘
질러
절기
##Les
##비늘
꿀벌
왈라키아
##1789
탐페레
아우렐리우스
분봉
라시드
부추겼
더위
죄악
회령
일문
##쿠지
로주
매립지
권속
마쓰마에
데와
장흥군
츠빙글리
##사막
등애
옵티머스
##캐롤라이나
자유지상주의
##링겐
##척탄병
##煩惱
##DRM
##선거관리위원회
##runmqsc
##DR
##INTERVAL
둘러보
마스터플랜
##Naming
unattended
Subscriptions
EVENT
전자파
ExceptionList
Declare
##=’
assemble
##Hardware
문항
##소자
퇴행
##References
Signed
Compression
근면
다이얼
JTS
##무효
##Low
thebroker
makefile
##주서
##wait
Minimum
##공은
국산화
##199
##222
transforming
에뮬레이션
로더
##최상위
##츠와
##Android
##HEAD
엿보
집합과
##ANY
수발
CipherSuite
금기시
##종별
##Agentless
##Distiller
GNOME
##TEL
억불
에인트호번
카디
부력
스파이더
##삼각형
가맹국
파괴력
##드래곤
장마
네온
##외곽
긁
##Saint
##부근
무시무시
허니
##베이시
접사
한라산
인심
##에이스
그토록
상도
제소
경공업
진화론
탈영
폄하
그분
단양군
제청
한국일보
##호쿠
출두
테디
하반신
생원시
태양풍
##자장
갑작스레
이바라키
##꼬마
팰컨
져서
뉴먼
다수당
##사역
헤어졌
수병
남강
고릴라
흘러들
중층
자치현
요시모토
아라이
나이토
삭스
만민
증득
##교육학
위턱
##돌고래
손견
작용소
배기량
메이드
네우스
##우먼
김택용
avalue
간식
임차
회의장
URIs
##단점
Expiry
##리문
##PurePath
##주전
WMQI
##품종
##Element
checksums
출력물
caret
##키트
숏
##159
피플
##House
anew
미적
positional
transparently
##Similar
ESXi
employ
##싸이
##Alias
바라본
주춤
##black
##체인지
##역전
MOJIN
LPG
##쾌감
화사
##시내버스
허수아비
특산품
덕택
나눴
라다
##한국인
영제
더러
백범
단편집
##교와
줄리안
##버거
본적
티토
청진
프리마
서예가
민란
매일신보
개헌안
베네딕트
알렉
그렉
재흡수
오이디푸스
##리투아니아
##유고슬라비아
중학부
집터
양치식물
칼럼니스트
알랭
##濟州
발아
살인자
사가현
##돈의
콘스탄스
카르텔
키치너
영암
비숍
통조림
음주운전
##昌原
더그
상산
브레시아
##존슨
BGM
마사카
##Waiting
##lled
recovering
부서장
여비
##강령
중요시
JOIN
Duration
deeper
COMMAND
강소
##enterprise
개인정보
##Retry
periodic
adhere
##Initial
##262
wrapping
uuid
placeholder
traffc
##167
스위칭
##제재
integrations
##추천
##점인
LinkGet
associatedwith
retrying
##aware
즐긴다
sizing
getter
외경
##목포
##직전
가정과
##first
군사용
Customers
DEC
##타임즈
##텍사스
유로존
고음
ECB
##세관
##214
##DEST
울진군
##};
하늘색
##속국
도시바
좌상
##총력
##카니
##부총리
##헥타르
처사
아파
corr
등교
##맂
홍역
차일드
크라이슬러
위인
다닌
이학
불거지
유언장
정연
원폭
집정
볼테르
플리니우스
##총동원
이슬
냄비
미타
##청년단
교호
주격
봉건제
실론
##찐
스몰렌스크
##翰林
스퍼
결백
학풍
##연군
사노
홍백가
중수소
망명자
##오키
사타케
타수
도야마현
##번주
청백리
기흥구
데비
더럼
전패
백병전
클로버
벤조
자오
북키프로스
관방
미하라
세레소
헤르타
##NHL
adifferent
CACHE
slots
##어떠
##PCF
##ENABLED
갑의
Msiexec
##통사
##산역
##Private
##검정
마친다
mounting
unusable
embedding
##호흡
소산
피해야
##BYTE
ExitResponse
Synchronization
thevalues
발암
##주선인
역참
##피해자
미해결
직할시
운전대
##RESUME
Clause
웅덩이
PVU
##인척
오지
페니실린
광구
##상회
편승
➪
레이드
마음껏
기화
##183
##방출
##동산
사직서
용례
옮겨서
넘나드
TransactionListener
라며
MQMON
이대로
요로
##관절
천상
도수
신나
##코미디
##인데다
##거로
중정
##콜레
건너와
창간호
##양성자
램지
연방제
카를루스
파스퇴르
우드로
탄식
서대
코지
##히틀러
오프사이드
스토아
양감
코린
자코모
톱니바퀴
툴루이
챈들러
일리리아
레기
파티마
코뿔소
사액
수운
잔잔
장공
남인도
돌기둥
동두천
##〉)
수마트라섬
루가노
##參判
승차권
쇄골
타카
미즈키
레딩
로리타
조훈현
##스피어
conf
Fabric
adjusted
##-->
##NEXT
MEMORY
##보낸
theerror
##Increase
##LANG
슈퍼컴퓨터
농림부
populates
##URI
bitwise
PPP
FIX
##Avoid
##Metadata
##사업단
##저작물
##전류
vulnerabilities
##env
##광배
액면
##157
##우로
##게임즈
##안성
##오전
ILE
##시보
파푸아
일렬
##VCAEUE
승수
##쓰리
대충
챙겨
롯데월드
이화여대
##구청장
submap
구급차
인내
##남녀
색칠
장계
관영
포부
##고향
렙
vMA
천공
금수
재규어
치명상
##실리
공권력
나일론
##역정
해양성
##해산
파송
티아라
오드
페놀
교조
로웰
급진파
병들
자상
웁살라
이치조
장성군
사도행전
소조
레오폴
사마시
관상용
빈라덴
성시
##락스
태원
스포일러
##흐트
포가
##사령
샤를로트
진보주의
가금
도량
입조
마그
경복
##수군
##하리
해냈
드와이트
정선군
덕흥대원군
고등관
호시노
덩굴
풍산
오구리
올가
신천지
단다이
##구사론
##Transactions
##소방서
##KIC
##윈도
##Summary
##격지
앞세운
##234
##187
##Everything
broader
TEXT
increment
Perform
JServer
Troubleshooting
SVN
DSP
##eSQUARE
##게이트웨이
##Handle
pCompCode
Alerts
##연수원
canonical
booting
공집합
무인기
##혼란
덧붙이
##자치구
여력
##스턴
##칭하
subtotals
고려사
##endian
잘리
##의자
WOLFSSL
##묘사
밀리언
두건
종지부
##마이크로초
##라오스
##평화통일
블라
데일
유향
컬리지
수익금
##여당
역수
##해피
##로렌스
가해진
##푸드
루즈
양천구
치프
##國家
양민
보름달
상보
구국
JTWC
한국식
어로
을미사변
코드네임
물러날
야마나시현
마테
캔버라
##거스
프로메테우스
##스티스
홍성
테무
과보
##밤중
샌더스
요시무네
탁발
후쿠야마
사마소
오야마
신토
TBN
김덕령
행장
프레스턴
##베츠
제레미
##터빈
늘어져
##발레
세로토닌
스플리트
다코타
시게오
정명훈
김연아
##구마
##목적물
스프레드시트
Username
unlock
SupportPacs
▶
스트레이트
whichthe
체벌
공역
전계
##왜냐하면
##215
##SPACE
##network
Prompt
이연
APAR
##management
inhibit
Namespace
상수도
오피
##Force
가르칠
셰프
##소나
SubName
99999
쪽지
그렇지만
##플레인
##개동
youare
##WPS
##836
Toys
트롤
금천구
라이드
소책자
퍼스널
AggregateControl
지지부진
이어집니다
웬만
subprograms
신드롬
서두
##환승
##자루
금상
##결핍증
분자량
부산항
가평군
돌아서
성호
##프레스
재계
내측
인선
##반지
##고추
본류
주이
갈루아
##마구
마그누스
게슈타포
우고
끈질기
스테이크
##신학자
모니카
마르티
문리
##군단장
위르겐
자야
게이힌
괴벨스
크루스
금서
진성
의열단
##도프
치장
카노
담가
계면
당나귀
리카
범종
카브레라
처녀자리
올리비에
케라
샤흐
##마정
학군
말라카
봉사자
돌핀스
레이커
유코
##Moreover
##Library
leverages
inwhich
##BACKUP
본원
COLUMN
##Normal
선급금
##원구
Enabling
STEPLIB
##Developing
몰라도
우도
##명부
##건축물
##SVC
##formed
##Too
소수성
줘야
감독원
법리
##공백
##자당
DPM
Hashtable
##정세
##드라이버
수초
ResultSet
##전시관
소시
##컨트롤러
##예고
마지
rfh
불러서
##센스
##보유자
OCSP
돈의
##타이어
##수성
길잡이
##장자
농심
##경찰의
ㄱ
notifiable
우애
##버킷
관현
일탈
산적
##Grand
최악
열연
텍스처
브릿
지지가
피부색
청해
점원
이걸
##잃어버린
##1874
비엔날레
장유
##키치
시황제
인천항
##반트
워즈
인피니티
감화
플란
군현
##마르틴
지협
카누
오두막
불러들이
가톨릭교도
왈츠
음표
##생인
식구
##忠州
구례군
##라나
##혐오
송이
격투기
##mph
도립
베텔게우스
유곽
무종
석벽
카라코룸
##유키
ZARD
니나
##슬라우
치타스
##ARCHIVE
멈춘
##월별
인트라넷
##separator
BAM
##exits
트레이스
##Side
newsgroups
##Moving
buffered
##인재
retried
오프셋
##행정부
Connected
전면전
띄어쓰기
##terminated
'%
로지
timers
Defines
펀딩
깨뜨리
Workspace
##Apple
##협동
##금고
펠로우
관의
식탁
도넛
##신전
끼친다
주중
숙제
찬란
외자
먀
선주
Spreadsheet
##TDS
amqsput
누군가의
검찰청
내한
##조시
남유럽
addev
##일러
조안
금욕
마마
##대국
형체
##논쟁
양인
선다
##1801
어두워
반찬
##하얀
교목
##國立
불렀으나
칭한
원자량
라비
아리안
현대사
파인만
##우파
파타
국방위원회
풍족
포르투갈인
밀약
장타율
히카리
역인
스탈린주의
##도독
탱고
몸싸움
적국
공변
포토맥
노여움
즉사
진형
##권기
오라
엘레나
전투원
##화음
헤스
##복실
다카우
유두
데려온
침탈
군영
양공
노반
가노
하세가와
노심
메이크업
최영
봉군
티라노사우루스
##르투
##후안
사우스캐롤라이나주
세르지오
##아미타여래
##검출
내부망
전용기
상한선
##커머스
caution
quiesced
##TRST
##증대
##서면
##Modifying
BIE
##슈퍼마켓
##Eclipse
##Null
EMS
SystemOut
채무불이행
NTP
##덴마크
빠짐없이
방금
##Lists
순이익
Procedures
##나눈
수일
천인
마커스
##네임
##레이다
QuickTime
수용성
##퀘스트
채광
##PART
파헤치
##원대
스탬프
노블
원더걸스
결석
##전단
망각
삼척시
미추홀
정각
##ROSE
방조
희생양
##저녁
온양
싸워야
##Pierre
따라다니
예고편
쫓아가
슬프
##건대
해프닝
진자
##슬리
스톨
기공식
오시
##잭슨
##느냐며
언쟁
레빈
국기가
##―)
성탄절
항구의
아이비
계양
풍년
요르요스
조산
교수법
바이에른주
##크로아티아
태산
힌디어
하저
현실주의
관상
건장
유탄
해군기지
지배권
수필가
편파
##궁도
마르크스주의자
실학
배위
라인란트
건넜
##매카트니
반다
라나
해미
파섹
앞발
읍성
희빈
이석기
로버
헤어진
레자
스폰지
과달카날
SLR
이효리
##아비달마
얼티밋
오르티스
##GID
각호
공사비
##수일
성숙도
텔레콤
collaborative
EQ
말일
resultant
consumes
##Validate
Assembler
encode
##칠레
남다른
needto
##Conversion
##156
넘길
##발신
##곤충
##공용
##DBGet
비인
##Life
브이
음영
insertion
TXSeries
##개최
매출채권
ATMI
##Calling
광섬유
ADAPTERDETAIL
광산구
한국전력
개연
무역항
##Notes
##DFT
##캐스팅
어제
##부자
확실시
짜임새
제곱근
행상
불거졌
##SHB
도입부
##국회의원
##프렌즈
암울
##국동
입장료
비서실
밀스
가오루
##")"
해밀
##건국
리디아
하모니카
아칸소
지배인
양키
홍천군
명문가
##일합
충무공
앉혔
##독수리
동해선
여대
##여객철도
NADH
##르바
##아식
본루
소프트볼
분묘
피카소
아우슈비츠
이소룡
가즈
가해졌
직분
예테보리
주교회의
##방교
폐질환
사육신
볼드윈
롤러코스터
카푸
교만
##승지
##제독
##로스터
파키
혼례
##감자
장승
정묘호란
정방
하타케야마
히로사키
썰매
색계
##보그
스프링스틴
볼스터
##노리오
##힙합
##근본번뇌
normalized
##상암동
##CURRENT
ext
accelerate
##cluster
SWIFT
MANAGER
isdisplayed
DOMAIN
Activation
networked
##전방
##Understanding
##무시
##선불
##Child
mysql
##안드로이드
##충전
##약관
담겨져
수정과
##종종
##Transport
sothat
##에요
증시
DataCenter
Constraint
든든
수출액
##분위
오작동
##내리
갭
##Addressing
##ALLOWED
고차
##이게
diff
##store
수입원
##Martin
히든
두세
##시온
##텁
오른편
PDP
주해
##으라
##경선
ManagedConnection
##JMSException
ADSDL
과대
번호판
끌어올렸
유압
##nbsp
코칭
##편지
탈세
뱉
크나큰
데어
소부
강북구
류성룡
##1812
##Sir
정동영
석판
영이
충적
약체
카야
기네스북
통감부
퓰리처상
리무진
영변
물망
테레
사다리꼴
내렸으며
앙심
장손
성주군
베링
##전해
##동일본
세이지
범고래
내셔널스
##만장이
설교자
군제
간수
신명
복병
샤르
고쇼
고트족
선지자
히데아키
아이유
잉글랜드인
헤로데
감비아
유병
아키나
애버딘
극락전
대피선
##가디언
##게리온
가즈히로
벨리댄스
derive
PARALLEL
##TIMEOUT
##RMAN
##NFS
Forrester
나이스
##MQOPEN
Postfix
ADAPTER
##TTL
시행착오
급상승
축척
침체기
##니티
대상물
##Procedure
looping
##손상
편철
Forecast
체외
##samples
CES
EULA
NON
MQMT
duplicates
Expert
MQEVO
어구
##WAN
##라든지
사업단
달기
fprintf
passwd
##BM
subprocess
딕슨
##216
우레탄
Tru
##부패
이동의
##중반
##산부
LT
아머
##CARRAY
옥외
스며들
준거
분교
제각각
##사립
찼
JPublisher
##Pointer
워크래프트
##Royal
##믈
판결문
##Johann
스텐
##닌텐도
선택지
##비문
빈곤층
남발
epositories
##상고
휴학
불면증
심오
로동
##백작
공비
쾨
##창한
질식
조부모
맹렬히
사피어
열대성
물감
##펭귄
삼인산
심방
트라키
##오족
민트
트리톤
##아홉
크라수스
지냈으나
##탈리아나
##아미노
##노회
##당나라
사쿠라이
상대역
벼슬길
가메야마
무라
현손
##仁川
목제
다카다
윤증
##군부인
##카시
가와고에
콜먼
브루어스
홍건
룰라
패튼
이누야샤
롱스트리트
파라디
##Synchronous
##020
auser
effectiveness
abbreviations
##Win
##MRM
기명
##올바른
Analyst
disabling
##특례
법인세
liability
소정
##SYNC
##snd
Packs
Uninstall
seamless
휴직
UTP
Identify
초중
##시브
계류
Sensors
##바를
##스레드
기준점
##부제
내려간
stdv
##OUTFILENAME
##Numeric
금일
격변
##문재인
좁히
EISs
최상급
MASTER
##span
##임대
보호관찰
##스포트
##쇼크
USL
천연자원
##웜
나이키
송치
##스프링
PARTITION
나빠졌
ISU
철권
막심
건조물
병자
흘러내리
##으리라고
구한말
##어류
철판
##대령
운율
디펜
이창호
##미드
억누르
유색
내려간다
히카루
##상대론
최규하
##1623
##聯合
프레데릭
천주교도
##항성
호두
##1859
탁지부
차마
복통
제철소
동군연합
이누이트
보호국
드레퓌스
##元帥
어조
첩자
엄하
##오빠
바나흐
제노
동프로이센
##남편
프리드먼
##비니
단신
산길
##미코토
미야자키현
유격
##가이다
변두리
번스타인
희극인
아비스
##공천
##포켓몬
디어
카세르타
##쥐아과
웡
필히
Sharing
매시
견적서
Mbps
wantto
mqsichangebroker
sysplex
neighbor
##Subject
##메이저
건설업
노멀
##integer
dest
##EDI
jsp
purged
UNION
ASN
correlated
acknowledge
##189
면밀히
##강국
MRI
##Tools
receiverChannel
##safe
Comments
##Implement
##Developers
spool
filling
파종
##Until
##반청
##복귀
CRUD
##국정
급박
PSID
TASK
##Freeform
무라타
SECTION
매겨
합참
pInputText
##충격
최고위
##더라
라고도
플래닛
살충제
버클
##이민
##피시
##아사히
두텁
##충주
##포니
은상
##文書
##취리히
##공로자
오오
##논리학
신문인
최순
휴전선
오카모토
히데오
패티
페아노
어빙
《》,
##공이
봄의
열한
##레닌
남포
헌금
사로잡힌
버뮤다
이바르
격멸
겨울잠
최남선
##웨이트
오대호
이케부쿠로
능했
##장조
테이트
남획
공격기
웨일스어
미끄러지
손흥민
중략
차오
예천군
포퓰리즘
맥베스
블라디보스토크
바칠
##나간
돌과
##백자
파니
복제품
진중
##히코
훈구파
아키코
조선귀족
송곳니
녹조류
아마고
코미
##관음보살
고택
호군
히딩크
리베리
사우샘프턴
##존자
캄포바소
숭녕
constructing
minimizes
정무직
글귀
##예규
##식성
##Resolve
OI
Stopping
##Cognos
##Describe
datafiles
accepting
배너
theconfiguration
청구서
##configuration
상생
##Features
리딩
fte
NTT
##188
##storage
Signature
##MAP
스톱
havebeen
##compatible
폐막
뜸
##멕스
러쉬
##약국
블랙리스트
미확인
provisioning
portlets
노고
PCB
피곤
##Jan
##지소
rowids
사회봉사
##선출
##남아프리카
##점프
옥천군
##미트
한적
항산
탈수
##용대
유토피아
울려
##아나
##입구
우주국
생활상
wholesaler
피험자
짜증
정토
##政治
양원제
버거
기노
알렉시
폐결핵
##民族
적개심
퀘이사
코돈
남만
인칭
뉴사우스웨일스
스쿼시
페르세우스
플루타르코스
기울어진
거만
바실리카
##어릴
헥
페테르
당쟁
대륙회의
오무라
편액
요충
순치
비각
수박
##신증동국여지승람
##호리
병주
황동
시사회
츠나
아커만
머스테인
##MONTH
노임
급료
대당
clarity
complementary
Injection
Gbps
고칠
##replace
##회하
authenticates
##관세
exposes
##Size
Extract
DAY
examines
돌려준다
보여집니다
결손
HPV
교집합
창작물
집적회로
##Region
##MESSAGE
##830
##혼합
모성
TCB
##작물
##빨간
##신설
가야
##소설가
LCK
단골
모험가
##부나
thesaurus
##로이드
달서
방진
##수산물
아라비
콘돔
방광
프렌즈
영동고속도로
샤프트
화보
후술
청원군
##여왕
##투아
##문집
돈바스
오갔
대남
군장
쓰쿠바
부끄럽
##중학
기념사업
세계사
피콜로
하와이주
나오토
참회
한림원
멘델스존
합주
비범
니콜라우스
##레테
문학가
이경
바우어
비토리아
라카
연속극
두족류
마네
안상
플로렌스
마사노리
##都督
도르곤
옹정
장화
보급선
요구르트
암행어사
침례
흑태자
남색
##몸길이
프시
식세포
##어웨이
##神道
##명나라
데프
##보수주의
완행
##forward
##blocking
관보
##NORMAL
경리
##ProFrame
##기전
##결산
##파견
Federated
##조명
##지문
##라메
##213
##known
JavaServer
rm
거래처
##SVI
##플레이스
영문자
##blank
visualize
anyway
##complete
configur
Controls
declarative
##예컨대
##리즈
캐피털
##리브
지번
##훼손
마크업
일회용
최대치
##춘천
실러
사파리
##세나
Warp
아메바
살릴
초목
세일
투약
##도둑
##블라
열대
##출구
리모컨
헬로
##上海
폭언
함유량
##239
##중앙지
##김구
은어
에로
트렉
위트
폴라리스
팔과
##영토
스타인
브레이
브룬
사티
기슈
최용건
모란봉
뭄바이
양곤
##연전
라덴
점액
##수비
잉글리시
게일어
아르테미스
구세주
펠트
##갈리아
호민관
면한
원효
##더글러스
따와
효령대군
##아르메니아
##산인
##南京
##르네
패트리어트
이사금
경마장
산세
소경
##우마
아오이
버드나무
도쿠시마현
번데기
##나시
고흥
스벤
미림
##포대
누르스름
탱화
부가가치세
월등
summarize
##언제
chmod
mqs
~]$
##460
MTECC
ReplyToQMgr
##Submit
##volume
##Extended
TTAS
hook
dictates
##순이익
항생
merging
##모으
근력
##실증
solved
GetFormError
thefile
Snapshots
##코더
행은
##파생
DateTime
##강연
백악
내다보
혁파
##APPC
디바
##Accounting
##오렌지
##손자
내구
원외
##환상
오버플로
##전라북도
저의
을로
애드
가증
색감
##학대
군포시
아스팔트
싸인
##자니
##불화
##고야
기념품
가히
##강한
보은군
광양시
맬
공로상
교향악
##연예
양전자
##우치
로마노
북제
독립선언서
중앙역
##방언
송가
아포
마르스
강둑
뮌스터
##오사
치지
배아줄기세포
##세균
문왕
인종주의
삽화가
안트베르펜
코마
브리티시컬럼비아주
전통문화
극작
##렸으나
치러진다
##문답
운남
환공
붙잡히
상비군
크리스토
대모
##루마니아
석비
뱀의
현상학
완파
##결선
북로
##쿠마
조피
태안군
##라토
아랫면
기아나
연변
##논어
김장생
##1636
기묘사화
친아버지
논밭
엽서
해령
토번
튀어나와
이르쿠츠크
##열매
청대
말레이
##난쟁이
자파
툴롱
역전패
전차로
포크스
스타킹
주코프
료마
지하도
츠카사
DISTINCT
filesets
##Plan
과천시
nonexclusive
suppress
subsidiaries
##Diagnostic
APEC
유류
##조립
userName
ascending
벤치마킹
instantiate
칼로리
잘라서
ILinkGet
##ADD
##무한
소비재
malicious
지우기
mqcc
mirroring
badge
성현
구직
##178
##석기
##NASA
칵테일
넥서스
오수
조처
##장력
Maximo
InputTextSize
trunk
일러
유조
플린트
##Pop
##호분
Listsall
목공
##베이징
##도감
촌장
첨예
##신도
##양시
##산악
##시야
행동주의
##Lob
유원지
cumulativecollection
정병
##선국
##통칭
##정면
##내셔널
심기
소추
안식
김재규
작전과
쏟아졌
닳
창업주
퓨처
민주국민당
모략
자아내
나일강
백조자리
블레
일본공산당
음운론
경산시
문벌
하츠
탄자
##아문
##치웠
신봉자
##〉,〈
피임
푸이
살아왔
후커
##벨라
사냥감
##묘역
##경사각
구교
카트라이더
##테이크
밀로셰비치
수몰
민담
투표자
냉담
무속
하인츠
관등
신승훈
##武帝
시온
기괴
본존불
##나이다
안젤로
##日記
##나니
경장
괴수
히포
이감
삼프도리아
아킬레스
##미우
하루카
DISABLED
##Complex
Synthetic
##dc
##실명
##debug
##캐피탈
##될수록
##SNS
PASSWORD
##STREAM
##ibm
discretion
발생기
편한
scratch
behaviors
instruct
##OCI
mediations
##매출액
우열
XC
TFT
##반도체
퍼블리싱
##REST
chanserv
##generic
stays
##IIOP
ruleset
##progress
OUI
##찰소
흉부
MQSD
Trusted
##DISABLED
##440
##엘리베이터
발표회
##챔피언
답장
논점
##초창기
조종석
##오스트
##타원
잇따랐
##나트륨
레시피
전세가
customizer
항등원
소사이어티
##Al
##베가
놓친
단상
##나쁜
합헌
##정촌
오도
##다이스
인파
지탄
식도
와그너
사재
뉴델리
넋
군사분계선
규산염
슈테
여산
관선
##마르크스
부르크
대장장이
바누아투
수놓
수산업
무브먼트
열렬히
##알렉산더
죽는다
##투리
##르니
하북
섬서
##부원
리처드슨
똑바로
팔다리
플루오린화
##계로
##전권
쇼가쿠칸
##參議
예천
##레우
##공회
화전
카슨
오위도총부
##지훈련
##로디
##臺座
마야어
이시애
##기오
티거
노리쇠
병결
##STER
##잠금
##Timeout
##Prior
##라이즈
recursively
TPM
요청서
가로등
##Execution
##Regardless
RouteToLabel
kilobytes
##map
Audit
도매
제언
##Specific
벌어질
backwards
syntactic
##스크롤
##TEMP
숙원
##중도
##간단
##사각
##구시
##제휴
purchasing
##경직
##166
##충남
##Caution
witha
README
exchanging
exhausted
unrelated
##Resources
adatabase
##먼지
##840
괴리
##swap
##쓰레기
맞춰져
"[
잠긴
다가올
방관
##025
낮춰
면세
##배지
iptables
긴축
아쉬운
썸
화물차
##<<
쓸모없
무방비
불러올
##Daniel
##해낼
데빌
##속편
암기
소고기
도태
존칭
심양
##까진
##조군
조간
애썼
출연자
장준하
##투사
체코어
생업
헤엄치
가까워졌
##메오
넥타이
##케이프
##멘탈
상반신
조슈아
##갤럭시
시라크
캐스
##슬라브
미적분학
음높이
커밍아웃
알갱이
유프라테스
손발
스푸트니크
사나
##1854
##자유당
우노
이원론
손병희
그리움
폼페이
라바
헨델
느껴진다
파인애플
##始祖
클리프
조카딸
##1858
황금종려상
헥토르
광범
영릉
##나인
##1597
암술
뚱뚱
##복판
촉한
예송
이목구비
지쿠젠
아카디아
스노보드
넓적
메로빙거
경공
고레
소토
베키
시리아군
에버렛
노리치
클린스만
노라
성배
toperform
aborted
analytical
##타임아웃
##680
##부대설비
##image
##Develop
toanother
inyour
칸막이
Restore
batches
##Successful
##원문
##정립
##연안
KST
##봐야
PMI
제어기
선택과
appending
fetches
##IMPORTANT
##TRUE
##생각
##IDENTITY
NX
뜻밖
네이밍
##960
MQOP
##은가
##협과
초엽
수확량
깊숙
##ctx
CAE
부르짖
##VALID
algebraic
##대도
소호
영안
플리
병원균
##사체
##제단
##조부
’&
과거사
스티비
##제사
##중심주의
##시실
##복식
먹여
봉합
속기
샤워
##진사
##자이언트
소심
##언덕
철퇴
성병
불변량
연금술사
우방
아담스
천성
##르비
사계절
호헌
시가전
주행성
인본주의
##공학자
러닝메이트
친부
사경
황해도
이동휘
코헨
항성풍
양양군
크림슨
##스퍼
샤크
##갈라
휴스
군악대
매스컴
광둥어
거야
잠적
화답
퍼싱
##長安
도미티아누스
지으
리비우
##세르비아
은은
대전차포
소공
뉴클레오사이드
##1392
##결절
##결승전
##提調
전연
##빅토리아
##음악상
##와시
고명
구게
진앙
##대좌
크레이머
마조
##미노
##코보
빈스
billing
Locking
서약서
##전자서명
##Has
##부설
##Formore
##Links
fulfill
##관례
송신용
##발굴
관세청
MODULE
fractional
##YYYYMMDD
##우위
동그라미
##스핀
##Patterns
##BEA
transacted
enqueued
##블로그
Garbage
theservice
byusing
instantiation
자급
##나야
꼴찌
동의서
##이른
가성
##솔라
책갈피
##지산
파지
하양