the
to
of
a
is
and
in
for
##The
that
you
on
are
be
or
can
this
queue
with
an
not
by
message
as
##This
it
from
data
##If
use
MQ
name
WebSphere
your
following
manager
value
set
information
have
if
which
used
application
command
file
must
all
using
##You
has
one
will
user
##s
page
system
any
when
server
object
##In
##A
##For
only
at
messages
example
type
formula
Server
more
other
The
database
number
process
DB
time
also
EAI
service
each
was
IBM
##km
these
##m
code
call
field
see
default
same
new
may
client
specified
##To
channel
error
table
then
create
Oracle
values
node
its
##When
A
but
do
no
##It
been
how
does
into
applications
##gt
should
group
Web
SQL
##lt
ID
list
parameter
files
than
business
about
C
connection
available
need
attribute
broker
access
two
transaction
XML
API
program
select
want
function
such
Manager
Java
objects
Message
string
option
request
within
log
so
they
different
structure
directory
required
specify
contains
click
environment
created
property
up
might
there
cannot
defined
configuration
##OS
run
local
flow
method
I
first
support
character
input
between
we
##Note
X
view
some
length
Windows
Data
##IBM
installation
event
start
before
statement
Adapter
source
output
Application
where
B
##EAI
##Use
element
change
provides
because
valid
report
security
properties
format
cluster
class
exit
z
key
through
their
version
work
case
definition
control
services
##C
##An
names
single
options
both
them
S
running
current
interface
Integration
section
either
File
network
uses
e
systems
types
users
called
project
##t
instance
out
order
V
##See
attributes
without
level
part
being
processing
Broker
parameters
commands
line
task
associated
after
make
problem
remote
model
another
##These
Business
Queue
shows
Service
whether
changes
product
provide
component
##WebSphere
described
HTTP
open
JMS
##However
queues
FC
provided
Process
operation
multiple
characters
returned
get
resource
MicroStrategy
System
end
shown
##On
fields
check
response
topic
sample
performance
reason
those
return
add
state
supported
variable
result
address
Name
target
details
way
include
mode
column
size
Agent
IP
text
document
put
sent
complete
existing
path
resources
appropriate
install
de
displayed
made
specific
managers
during
calls
functions
contain
execution
window
components
most
allows
could
possible
point
context
##cm
space
K
insert
machine
maximum
agent
Version
host
Table
generated
action
processes
non
TV
##mm
elements
based
software
given
TCP
##There
handle
Linux
tables
FIFA
already
speci
##i
password
read
##SQL
programs
##Cause
many
started
installed
##amp
back
OS
form
next
domain
session
##W
header
copy
port
destination
##All
buffer
over
identifier
automatically
##le
events
define
J
display
selected
send
perform
URL
would
exception
UNIX
##DB
##Select
stored
IT
##name
what
written
M
test
ESB
Client
while
Set
memory
##D
connect
##B
full
returns
unit
now
sets
determine
SSL
enter
##S
##Action
This
right
##I
content
##F
##As
bytes
Configuration
profile
procedure
additional
Object
active
steps
##Each
below
channels
box
like
record
MTE
CICS
ensure
reference
location
User
describes
operations
including
##Click
management
String
operating
methods
under
requests
take
D
activity
integration
CD
query
own
trace
means
R
U
F
r
products
##M
results
nodes
shared
configure
UEFA
entry
errors
index
schema
classes
status
tasks
setting
##to
standard
were
last
PC
link
includes
implementation
update
Interface
In
found
particular
well
servers
##We
v
##n
##x
long
storage
i
SAP
subscription
T
correct
Figure
x
##ed
language
dynaTrace
repository
Software
follows
LOB
second
necessary
until
received
module
trigger
issued
adapter
find
tree
item
menu
allow
Guide
E
rules
help
If
specifies
three
Database
variables
##Oracle
connector
disk
##ID
chapter
button
Enterprise
occurs
delete
always
G
listed
internal
authentication
##MTE
Transaction
##After
thread
folder
W
fails
settings
CPU
above
Type
choose
package
named
receive
statements
filter
web
needs
definitions
clause
range
indicates
platform
##in
script
transactions
connected
simple
containing
write
syntax
supplied
match
logical
You
reply
description
added
cases
deployment
previous
requirements
initial
failed
ESQL
even
job
executed
items
enable
null
configured
exist
store
##c
editor
clients
WMQ
step
root
protocol
zero
apply
requires
Center
MQPUT
##Explanation
development
##IP
creating
device
further
km
load
features
groups
sure
platforms
recovery
several
problems
##O
failure
Services
pattern
passed
##Using
NULL
our
tab
interval
every
performed
##sharing
require
sequence
##a
##based
image
row
large
library
SOAP
certificate
completed
Control
enabled
##Check
##GB
supports
transmission
Management
connections
##click
displays
##Specify
date
programming
enterprise
just
completion
array
instances
physical
##By
able
dialog
tool
down
processed
##T
addition
collection
##E
shell
N
expression
panel
global
design
included
site
creates
customer
descriptor
again
external
occurred
successfully
refer
still
An
changed
##G
##Any
identify
##e
columns
listener
KBS
No
directly
monitor
transfer
examples
needed
remove
rule
##Create
commit
documentation
contact
MQGET
common
complex
##Specifies
cause
To
occur
contents
administrator
currently
dynamic
Reference
show
modify
across
issue
behavior
exists
present
H
high
tools
New
look
attempt
stream
member
separate
left
terminal
stop
corresponding
restart
special
execute
deploy
book
L
area
Group
here
MQSC
backup
P
important
Connector
instead
allowed
unique
place
Developer
runtime
integer
true
related
reports
console
top
##public
times
Chapter
policy
less
utility
JDBC
custom
child
build
account
original
messaging
records
handler
conversion
Dynatrace
itself
represents
environments
certain
communication
who
MQI
topics
AMD
LDAP
provider
##level
##bit
##Message
very
done
useful
##NAME
actions
map
interfaces
IMS
search
publish
via
enables
Time
Flow
rows
cache
block
##K
Security
similar
Internet
cursor
PL
mapping
##No
computer
SW
later
MQMD
codes
release
MBC
solution
flows
known
takes
LG
condition
HTML
correctly
scenario
distributed
Monitor
Gateway
n
statistics
main
AS
drop
FTP
ways
monitoring
OK
save
various
least
wizard
effect
against
authority
role
##Data
center
Support
primary
base
HP
Rule
lists
RFC
individual
amount
##time
indicate
##String
built
Network
m
specifying
starts
Check
working
byte
capabilities
per
points
bridge
##Open
conditions
##Some
##User
##Figure
Connection
##defined
Use
##From
##HTTP
Event
##EE
SOA
issues
##the
successful
deleted
appear
Explorer
##Because
browser
versions
alias
II
feature
DNA
defines
once
BusinessWare
longer
distribution
##Set
##ned
int
static
On
##With
Project
writing
##Q
blank
O
starting
databases
Script
prompt
optional
##Description
Source
pages
EJB
limit
selector
administrative
empty
identity
screen
##kg
invalid
parent
applies
off
encoding
pane
depends
metric
##P
tag
entries
Properties
administration
analysis
icon
continue
##L
HUB
Create
generate
Response
AP
Corporation
PDF
##Before
Node
parser
requested
manage
sending
##h
documents
greater
##At
basic
migration
Length
general
wait
Request
##X
##TV
char
XA
know
therefore
invoked
implement
updated
verify
import
license
sections
bit
##d
except
makes
##R
appears
##Enter
taken
Open
usually
numbers
references
Error
##One
devices
try
MI
batch
virtual
registered
ebSpher
##They
bean
updates
Information
seconds
##Ensure
normal
double
MCA
functionality
close
Y
##ESB
instructions
subject
contained
MQSeries
runs
operator
##Once
follow
Log
##and
segment
##r
count
often
Select
assigned
logs
##MQ
##g
ignored
online
sender
##N
DBMS
together
subscriber
##Do
kernel
JEUS
##V
retrieve
argument
##id
since
WAS
structures
side
threads
WSDL
AIX
deployed
Channel
real
Administration
too
entered
much
however
opened
projects
re
##les
retrieved
##or
terms
bag
Monitoring
Editor
entire
scope
Add
c
creation
pointer
Value
recommended
b
##if
strings
For
template
rather
go
##API
Transfer
SET
##mqm
switch
Directory
procedures
describe
usage
Wizard
Model
SYSTEM
publication
Intelligence
total
priority
Inc
typically
##o
activities
consider
having
converted
identified
lines
Record
unless
determined
##LENGTH
namespace
Next
manual
##UX
invoke
libraries
dead
Microsoft
depending
move
diagram
EIS
ofthe
##Therefore
##down
All
Yes
give
selection
##MicroStrategy
GUI
technology
temporary
pass
body
##Table
Access
placed
architecture
pool
drive
container
specification
manually
void
represent
privileges
exits
##Response
id
COBOL
##Windows
##XML
customers
##Also
fixed
##subscribe
Key
Target
##What
UI
removed
permission
archive
con
checks
prior
views
Test
implemented
native
metrics
hardware
Connect
SBS
company
followed
numeric
engine
partition
receiving
applied
Format
Specify
export
Command
routine
receiver
##where
public
QM
##HOME
approach
previously
SELECT
organization
##letter
##PC
initiator
Link
CCTV
SK
modules
detailed
TP
gives
generic
Using
minimum
had
keyword
embedded
located
##v
relevant
FA
entity
fail
actual
links
delivery
edit
##p
infrastructure
installing
##H
Console
http
##Only
best
bar
##How
third
four
opens
whole
managed
pr
##var
detail
published
##Queue
MQOPEN
small
logic
##b
free
expected
sends
DVD
Profile
County
Enter
fact
receives
providing
good
due
resolve
binary
##cation
logging
##Now
trademarks
directories
simply
addresses
whose
persistent
units
##MI
ALTER
metadata
GET
Advanced
Report
brokers
Customer
position
##Your
##Add
driver
authorization
LOBs
Edition
##bin
##etc
##File
immediately
otherwise
become
login
initialization
understand
consists
levels
extension
stopped
explicitly
keep
formats
keys
inthe
models
home
matches
exceptions
##Dynatrace
detected
scripts
Repository
subsequent
Resource
FROM
Socket
##specific
View
Solaris
parts
delivered
Active
##Application
equivalent
perspective
fully
List
Update
##Integration
publications
##int
affect
intended
##value
Field
permissions
##byte
mobile
d
ability
according
##Here
period
CREATE
Framework
Bus
machines
tablespace
secure
earlier
db
##Returns
calling
designed
##Make
multi
retry
bus
Amazon
unable
team
print
layer
Sync
testing
causes
materials
sources
cost
mqm
avoid
ar
members
relationship
flag
##end
JVM
us
obtain
Deployment
pre
purposes
easy
comments
few
short
don
mechanism
##WMQ
packages
turn
modified
production
private
others
hierarchy
arguments
SDK
accessed
Q
##Java
##data
normally
Global
plan
dump
International
patterns
Managed
It
identifies
mediation
timeout
color
determines
final
LU
handling
solutions
Objects
startup
better
headers
making
consumer
standards
Task
maintenance
##Refer
validation
applicable
equal
series
incoming
enough
protocols
proxy
##type
adding
hold
Toolkit
generates
Tmax
easily
MQRC
Config
JNDI
##Please
power
increase
lower
loaded
PowerPack
future
decision
##mail
Query
communicate
##That
Performance
p
##Business
HIV
hosts
roles
limited
languages
human
reserved
subscriptions
situation
indicated
##es
outside
choice
ISO
rollback
purpose
workload
Master
committed
##Start
United
##While
Insert
##U
direct
gateway
Default
routing
queries
did
press
browse
Header
JSP
##Then
inside
Load
Batch
transport
beginning
##So
##Web
Count
binding
note
measures
copied
accept
queuing
When
handles
MRM
profiles
Save
Start
media
performs
Exception
sites
blocks
Development
clusters
##server
catalog
master
OCI
nested
matching
##Server
My
Runner
RTT
share
combination
##Other
CF
Analysis
##Although
PCF
referenced
##re
attempts
Component
begin
developers
sign
loop
constant
Real
World
supply
Get
##AMQ
WS
##DATE
##rst
WWE
plug
Port
likely
Host
Example
##Type
route
##log
actually
Session
transactional
terminated
higher
MQGMO
waiting
underlying
marks
represented
Everyplace
ISM
Options
segments
checking
closed
reported
AFC
stores
controls
blanks
Workbench
cell
etc
IN
Programming
Cluster
Mac
partner
workbench
declared
why
people
discussed
##usr
becomes
convert
subsystem
forms
SCA
experience
region
invocation
never
Class
BPM
review
works
##of
integrity
setup
clicking
MS
upgrade
padding
##only
migrate
MQRFH
false
lock
extended
UPDATE
TABLE
o
Me
AWS
DNS
##Client
upon
style
average
##eld
produced
Rational
##Alternatively
##MQLONG
Page
##u
communications
token
rate
defaults
##formula
parallel
offset
Runtime
##f
Action
CSQ
com
availability
correlation
States
TO
ends
interaction
representation
Number
Sun
queuemanager
reasons
replace
throws
##info
assign
Memory
KBO
Input
NT
##City
my
Z
saved
ERP
allocated
##out
warning
BBC
##Otherwise
##CD
##Since
certificates
prefix
Controller
samples
ready
issuing
larger
considered
JavaScript
datatype
prevent
reduce
Platform
RDBMS
MVP
expand
changing
APIs
quickly
End
OneAgent
copies
checked
phase
though
chain
IDs
rights
MB
selecting
Mobile
bottom
Love
##l
Protocol
##TCP
hard
EP
involved
s
##EXEC
card
Library
Activity
encryption
encountered
day
Portal
PurePath
expressions
disabled
facility
##Right
onto
warehouse
dependent
caused
License
##k
identi
resulting
##Change
dynamically
low
email
developer
attempting
##Messages
TM
##Security
Code
##line
reset
bucket
images
Mapping
old
techniques
##ll
yet
alternative
reading
Environment
Basic
along
URI
##up
countries
indicating
clear
##ERROR
branch
JR
Description
Installation
ASCII
integrated
marked
authorized
lost
##J
gets
transformation
SMS
notification
privilege
terminates
significant
restrictions
paths
One
##ISM
##NO
exercise
overview
criteria
##Optional
word
SF
Administrator
executing
words
Storage
java
sessions
Cloud
Compute
tests
##user
relationships
download
MQINQ
##Y
Mode
referred
grid
descriptions
Commit
implementations
bind
continues
graphical
exactly
stack
##for
framework
##Service
##de
Order
thefollowing
signal
join
suitable
success
Apache
traffic
building
defining
responsible
improve
NEO
##AMD
##Most
Local
affected
states
technical
naming
desired
HA
INSERT
regardless
logged
##www
technologies
IPv
resolved
Import
remaining
obtained
accessing
regular
capability
Settings
destinations
##on
factory
connects
##MSG
Program
redo
days
##Chapter
CCSID
locator
performing
minutes
WHERE
CA
tells
register
ODBC
codice
##During
measure
refers
##Name
##ROM
Engine
##New
maintain
##Example
Pattern
variety
DataPower
asynchronous
mail
jobs
visible
manner
University
##Both
impact
Module
label
develop
presented
Architecture
##Creating
const
constraint
tothe
##Direct
BI
##Instead
owner
automatic
around
adds
Filter
derived
NOT
xml
BEA
Publish
subscribers
##side
DISPLAY
TUXEDO
##Is
##com
offers
##set
##SAP
registry
resolution
locations
Custom
easier
Section
compression
overall
indexes
Status
although
replaced
Collector
question
##DATA
relative
executable
lets
advantage
implements
configuring
DC
IS
going
properly
##connection
progress
Language
puts
Unix
##NONE
##First
summary
##MB
accounting
declaration
happens
characteristics
scenarios
Output
Call
algorithm
INTO
helps
backed
established
caller
situations
spaces
recorded
completes
Tivoli
parsing
term
accessible
connecting
ports
dictionary
alter
compiler
category
flags
PUT
BLOB
thrown
##Test
credentials
##Error
typical
missing
##root
Click
##But
establish
Remote
Schema
chart
Eclipse
plus
entering
##manager
let
RNA
Text
executes
indication
controller
PHP
consistent
mapped
topology
##er
SS
endpoint
Common
decimal
Content
handled
f
basis
symbol
looks
major
##UNIX
Standard
APM
doing
KT
notice
duration
Family
preceding
please
Help
Studio
sub
explicit
t
volume
among
independent
graph
MQCONN
Workflow
Your
SYS
background
compatibility
retained
especially
tracing
areas
u
self
schedule
advanced
Level
constraints
##Run
From
disable
Tag
granted
MQCONNX
USB
TRUE
forward
##Define
##XA
market
assume
refresh
writes
vendor
held
REST
responses
comment
maps
reads
macro
SM
Installer
##hPa
agents
aware
AND
servlet
DJ
Setup
Tool
Layer
##field
organizations
USER
Method
things
developed
cloud
grant
analyze
QMGR
risk
Disk
knowledge
Byte
Do
Files
Base
MQe
reproduced
critical
core
Trace
GDP
trying
username
depend
invokes
Servers
ensures
Address
assumed
probably
syncpoint
##Let
Trigger
##SSL
leave
Analytics
Attribute
focus
developing
##char
facilities
seen
connectors
Warehouse
Systems
exchange
Tuxedo
##route
allowing
y
something
HD
asterisk
BSDS
Export
difference
determination
operators
decide
Date
socket
##MGR
sufficient
meet
remain
workflow
uninstall
remains
Online
##Thus
history
##TYPE
inbound
buffers
companies
##Be
BW
Delete
connectivity
FILE
stand
##Setting
##file
Revenue
US
passes
NBA
partitions
generally
comparison
##guration
POS
guide
produce
DLQ
illustrates
thus
Pro
Overview
transition
Compuware
panels
Function
AI
RM
year
identical
callback
##Many
filename
Element
TYPE
palette
world
course
reporting
latest
folders
holds
BFILE
completely
none
fix
##list
Map
NHK
##SELECT
deliver
bindings
propagated
navigation
restarted
publisher
doesn
##Where
Change
THE
DELETE
Parameter
learn
Visual
##nition
tags
Is
VARCHAR
potential
##End
linked
sharing
##JEUS
layout
Full
Job
Agreement
upper
##CPU
constants
##IT
concepts
threshold
toolbar
##Verify
##Depending
##Active
HTTPS
##Broker
Out
quality
extract
chosen
ABC
##length
Edit
##System
achieve
Proxy
Thread
auto
##Applications
As
assembly
##Copyright
##by
positive
comes
logger
wish
##JMS
getting
hexadecimal
DATA
come
customize
workspace
SC
Intelligent
Hat
override
meaning
Adobe
Rules
begins
History
##Log
III
generation
releases
reached
terminate
##BIP
lookup
##Source
offer
subscribe
##ve
Design
controlled
pair
formatting
portion
locally
LED
##Follow
initiation
outbound
compare
demonstrates
finished
##IS
depth
quotation
initialized
station
restore
dashboard
##SET
sales
Encoding
Reason
materialized
exact
overhead
Release
##void
##oriented
FM
##alone
Document
beans
PM
front
##ne
Part
imported
info
migrated
Of
routed
Creating
throughput
scale
track
keywords
mount
##SW
editing
##LG
raised
##Subscribe
tell
CLI
##Such
repositories
First
boot
tested
AGENT
fr
State
stops
Postcard
##which
zone
fast
##Connect
MQCC
operate
transferred
allocate
##Reason
faster
Back
industry
sort
##Notice
RTI
title
Run
digital
occurrence
leading
JCL
Cube
##lib
https
##return
Dashboard
##Another
locate
##BusinessWare
vary
providers
extensions
places
##Configuring
How
Step
Container
WebDB
##Linux
proper
packet
compile
administrators
incorrect
construct
##date
networks
snapshot
Not
restricted
##q
Return
##Event
mappings
nature
circumstances
signature
extend
routines
Work
recover
detect
EMP
CRM
Null
assumes
##phase
years
collected
discarded
speed
TOE
##Process
k
Added
prompted
Core
POST
CEO
waits
triggers
##xml
policies
##MCI
diagnostic
employee
##Midas
workstation
om
Red
SNS
MO
compatible
recent
daemon
persistence
##Information
coordinator
thequeue
rolled
BY
boolean
Desktop
disks
letter
technique
lab
##Configure
aspects
interactions
ed
cover
##group
##point
Context
presentation
managing
SQLJ
Browser
ended
smaller
bits
IC
moved
treated
children
turned
vendors
association
negative
differences
Window
##Users
drill
altered
kind
percentage
interact
extra
Put
accounts
##USER
person
LAN
Path
filters
belong
concept
Point
##db
##Stop
Excel
bound
prompts
inventory
throughout
##Either
effective
capture
Up
shall
protection
Definition
omitted
##br
##Plus
shutdown
triggered
putting
inserted
Applications
COM
CLOB
opening
subset
split
##And
Authentication
aggregation
##John
##business
Suite
implicitly
NAME
Messaging
distribute
themessage
Day
hash
Dynamic
retrieves
Apply
mm
transform
mark
MC
parsed
disposition
requirement
costs
##Every
BME
PurePaths
firewall
predefined
spent
##SHA
namelist
##ALL
Tools
WMB
installer
regarding
RACF
ones
optionally
##Agent
mean
lot
##TB
representing
mouse
Unicode
party
migrating
City
Technology
tape
Instance
modeling
Async
validate
Password
implicit
questions
agreement
answer
CompCode
##Switch
hand
GB
initialize
Infrastructure
onthe
attached
##Save
Health
PATH
##Object
##Additionally
confirm
declare
##Course
little
desktop
selectors
##printf
RC
##start
Policy
External
locale
deploying
dashlet
operational
##Not
##Under
pairs
Transport
behalf
belongs
sometimes
MIME
looking
mandatory
Sensor
force
Ctrl
See
Architect
##ARIA
AC
attempted
responsibility
##Enterprise
enabling
##opt
flexibility
##Typically
involves
UDP
monitored
loading
limits
coordination
signed
DBA
app
video
IF
strategy
domains
outcome
indicator
##create
revenue
five
##EXIT
##Default
ALL
rest
triggering
RUM
anything
Copy
Universal
listing
duplicate
unexpected
##Microsoft
Processing
##write
onpage
explains
reuse
Informix
recognized
arrow
examine
##Next
mixed
END
Subscription
supporting
##Finally
xa
JAR
XP
guidelines
config
expect
separated
##Remove
else
EU
ACL
JDK
Buffer
permitted
Domain
milliseconds
Product
secondary
processor
JMSException
Also
functional
understanding
General
ON
##SEED
Messages
##related
Cache
UTF
##Whether
RESET
ADT
bin
exported
##Similarly
identifiers
really
hours
replication
kg
accepted
##Programmer
##message
VMS
Co
##string
parse
discussion
OF
audit
throw
##Choose
staff
DEFINE
##ERR
formatted
replies
Technical
##th
grep
Backup
digits
showing
matter
Sequence
CHANNEL
Specifies
prepare
highest
printer
capacity
persists
relating
##VERSION
navigate
repeating
GS
Ensure
##ref
drivers
School
START
respectively
##Consider
##Install
payload
##Examples
alert
##PATH
coded
SSO
##Syntax
Account
Company
Case
adapters
authenticate
backout
Size
High
Naming
##Project
Programs
termination
listeners
drag
Property
##Request
resides
TEST
explanation
configurable
##URL
##Total
##clause
packets
sum
##Value
partners
big
##Two
passwords
##Parameters
compared
Finish
introduced
There
transfers
interest
prepared
deal
Provides
##Target
##PM
registration
Only
##MCA
implementing
collect
What
UN
##sender
##Channel
IO
omit
whenever
Modeler
beyond
Adaptor
debug
encrypted
widget
Multi
MQPMO
Line
abnormally
LIC
goal
debugging
Exit
Display
##CREATE
##FILE
Secure
Preferences
font
trusted
Tree
wildcard
Life
nor
wide
##Database
OUT
##GROUP
ms
concurrent
BPEL
configurations
##speci
complexity
dataset
Non
training
moving
SNA
##HUB
symbols
National
LOG
Show
raw
g
lead
practice
artifacts
vi
far
pop
CHARACTER
RAM
Spoke
printed
life
CNS
subsequently
iOS
tier
alternate
quotes
primitive
generating
filesystem
integrate
failures
decisions
entities
Fail
##Exceptions
Large
themselves
categories
CLUSTER
today
interactive
EDI
Region
Space
VM
disconnect
personal
wants
Setting
benefits
RPC
verification
NUMBER
FIPS
KB
terminals
orders
##INSERT
wrong
##MQSeries
unsuccessful
Sales
##Batch
planning
##Within
happen
MP
converts
Human
IDL
extent
##you
Execution
##code
##queue
hostname
evaluate
##nd
Net
FALSE
##Its
stage
symbolic
Provider
Stop
passing
Users
VPN
Unable
his
discusses
App
precision
describing
##size
Reply
occurrences
selects
##Displays
##Transaction
##agent
iSeries
serve
considerations
##Copy
simulation
qualified
relational
frequently
Detail
tries
Be
stanza
ATP
Unit
TLS
figure
month
##z
Driver
stock
EXEC
Admin
Hub
Certificate
ignore
Live
notes
Physical
Jabber
SAS
ANSI
programmatic
Virtual
Korea
country
Home
Info
cross
##WAS
Character
associate
compiled
##Time
act
admin
sensitive
JSON
transmitted
NFS
consumers
detects
##WMB
unknown
truncated
synchronization
interpreted
inactive
idea
foreign
owned
payment
Install
Foundation
typing
automated
maintained
cycle
ACK
##POS
illustrate
restrict
efficient
str
Parallel
ERROR
customized
Remove
desc
Midas
Destination
##Non
SEED
think
differ
JAVA
forthe
employees
IoT
boxes
Form
arrays
mentioned
sizes
care
##Out
Statements
recording
Routing
##step
Attributes
removes
##persistent
timestamp
Write
trademark
loss
##Update
Agents
MQQSGD
specifications
frame
##y
OR
computers
##Connection
Max
datatypes
Integer
produces
proceed
Recovery
locked
post
##system
Details
##elds
##FM
calendar
SILK
respective
sense
Legacy
increased
rename
##OK
##DBMS
FOR
yourself
##Even
##doubt
protected
ICT
la
emp
##party
respond
analytics
calculated
submit
solve
Brokers
##Number
Events
powerful
literal
##Get
DTD
familiar
##Provides
manipulate
OPEN
##Installing
kept
Servlet
##Delete
boundary
delimiter
##INFO
##NOT
buttons
propagation
ActiveX
BC
l
MTV
unavailable
Public
##Length
owns
GNU
soon
evaluated
mechanisms
Read
combined
completing
launch
DW
extends
he
icons
##private
NASA
RFH
##Return
newly
backups
##CCTV
direction
modes
Machine
material
##View
eai
ODA
effectively
quite
Item
Office
constructor
AQ
pro
particularly
##SILK
##Sets
preferences
Appendix
substitution
thesame
administer
##Collect
silent
Option
##port
Browse
##managed
MQOO
##Correct
Total
Index
CAST
ahead
##ORA
nothing
Power
CJ
Package
DS
distinct
##config
timer
Make
commonly
Zone
flexible
DN
MQOD
addressed
guarantee
uppercase
Configure
##Port
vector
Man
protect
monitors
pointers
slow
Names
##Amazon
scan
fit
deleting
##TEST
increasing
partial
fill
partitioned
##Over
divided
##no
manages
Narrowcast
##function
##Adapter
Party
captured
Statistics
resolves
DML
repeat
Institute
MQIA
##Page
allocation
ILink
##Go
installations
##KB
conjunction
##Additional
deletes
keyboard
Partner
covers
met
Tomcat
IDoc
translation
inquiries
shut
CP
feedback
Sample
IV
##My
##Builder
semantics
We
CAS
Go
durable
AT
appliance
arrive
Fixed
demand
representative
scheduled
KIA
periodically
PD
##NEO
Search
factors
##TIME
KHUB
consist
DD
neither
Timeout
reflect
##Software
mask
##Remember
Records
##key
unchanged
Choreographer
exclusive
##Changes
Single
et
templates
SYN
Values
separately
standby
##MHz
Assistant
skip
delay
recommend
upload
measurements
intervals
Transactions
CMP
##null
##driven
specifically
requester
##use
Procedure
locks
removing
me
goes
wolfSSL
##BW
AMQ
##IN
suppliers
##More
letters
RAW
relate
##default
##w
nonpersistent
##println
almost
Dashlet
##Detail
ask
returning
heap
John
credit
conventions
corresponds
taking
journal
GC
visibility
synchronous
Solution
express
##Double
LONG
interMedia
mind
Topic
##CTR
userid
everything
##YES
handlers
department
visualization
College
##ImqBoolean
summarizes
Sterling
XSL
##AS
Fetch
##Output
composite
central
pending
WEB
goals
coding
##receiver
layers
##Parameter
Music
peer
exceed
Pack
Right
traditional
Last
##Reply
RBA
##CBC
OLAP
increases
fault
##Red
difficult
Main
verb
evaluation
drives
Migration
trailing
OTP
failover
VALUES
theapplication
fromthe
piece
abstract
reside
CORBA
break
revision
Tibero
permanent
##Command
##FTP
windows
accepts
Review
Store
##Step
effects
principal
Can
##conversion
undo
##Can
MQLONG
invoking
bring
Copyright
Reports
effort
##test
##Z
##Access
say
Down
##xx
RAC
Configuring
uniquely
Retry
RT
##Control
RAID
Tutorial
##your
Close
brief
##object
Device
Research
satisfied
Pool
##Unix
##IF
SI
RPG
achieved
CURRENT
##Insert
NO
exceeded
width
Scale
LP
chapters
possibly
RMAN
interested
presence
printing
Shell
##Interface
Hadoop
MQCLOSE
SaaS
Deploy
Site
updating
MySQL
##define
declarations
lowest
origin
books
##Press
##cc
##Tmax
multicast
percent
quick
##Forexample
##service
withthe
GROUP
Best
Worldwide
ADS
dedicated
Upgrade
Top
##Gets
aliases
initiated
##cn
Plugin
carried
Long
grouped
kinds
acts
ORB
##Multiple
restriction
##SOAP
catch
##insert
##Local
Polling
##Important
##QM
colors
retrieval
Operation
Integrator
##Indicates
CBS
TSF
Installing
SMTP
advantages
fan
LA
utilities
##IMS
encoded
INTEGER
padded
##instance
degree
Vitria
comma
EBCDIC
Intel
notation
white
Tagged
##Configuration
##Network
Machines
absolute
##Read
##java
older
OST
IDT
family
enclosed
suspended
MQTT
introduces
initially
imply
capable
benefit
reduced
##TO
MCI
marketing
Failed
searches
WAN
Parameters
necessarily
TX
Bridge
progrm
caching
Tour
recipient
##MQCHAR
middle
clauses
consistency
intermediate
tuning
discuss
modification
contract
MQCD
highly
affects
historical
VMware
Send
DDL
CALL
thedatabase
##SOA
None
des
forth
##LDAP
diagrams
##nes
SERVER
Note
price
sync
lifecycle
Association
##Metricof
radio
##then
week
customization
Subversion
QSGDISP
##character
Stored
dropped
ORACLE
reach
##class
displaying
storing
opportunity
meaningful
##SYSTEM
##home
replacement
coordinated
Lab
choosing
##method
##IEC
CSS
TDS
administered
inquire
reliability
repeated
invocations
validated
covered
great
von
Authority
clean
DOM
identifying
cr
##FLAG
##true
##select
CHAR
internally
##GET
maintains
cm
w
checkpoint
Ethernet
##MS
play
prevents
respect
TMAX
##Required
satisfy
suite
##Thread
By
compliance
balancing
##RFC
prefixed
past
accesses
explain
TRANSFER
stopping
implied
six
Collection
dependencies
Year
conversation
requesting
##AP
##client
stub
ex
##Migrating
coupling
STRING
Automatic
EAR
man
SDO
fetch
XPath
escape
Android
exceeds
##see
##Modify
choices
Lotus
PS
logically
closing
init
dimension
combinations
MQCIH
##Sample
SNMP
##get
DROP
scalability
roll
##Yes
English
Identity
Navigator
##Socket
detection
##Wait
##Version
##JDBC
appendix
##HP
Advantage
Role
optimize
DCE
##Failed
AM
thing
##dev
filtering
teams
early
asked
GPS
##long
##Support
Operations
##table
NLS
Completion
mounted
assets
MQDISC
Groups
And
Computer
##rd
rejected
Listener
Terminal
Safe
converting
Types
programmer
simultaneously
##Exception
msg
##COBOL
preference
activated
Book
Initial
##List
di
Tasks
##Expand
ratio
purchase
commitment
MAC
##eai
Metric
optimizer
sheet
vs
After
Handler
##Look
restarts
pack
Apple
##Class
##Master
reliable
aggregate
##UPDATE
activate
secret
lowercase
##Processing
herein
##Field
fragment
GO
visual
unauthorized
copying
accuracy
Location
publishing
deferred
wire
signals
archived
edition
convention
swap
Solutions
collaboration
VoIP
Night
documented
##org
arrives
##Servers
AG
correspond
IMF
##LOB
GIS
##II
Media
CorrelId
grouping
ARM
Express
##STATUS
jar
##Program
modifying
##FC
##way
audio
##error
##Display
giving
eight
pools
##PL
dossier
Inquire
initiate
commits
computing
##Review
Schedule
##La
##source
Build
dates
combine
##Key
al
##one
inconsistent
optimization
NC
released
##Repeat
downloaded
involve
anywhere
KPI
FDC
recognize
essential
Brand
##NULL
##ALTER
##COPY
regions
MD
COPY
INDEX
explained
Area
participate
Biz
##DNS
Sign
random
##Issue
bad
delivers
entirely
Google
Choose
CM
authenticated
QoS
andthe
FEP
Club
Park
tx
##Possible
red
comprehensive
interpret
precedence
SP
##Last
VAS
reverse
preferred
cancel
reduces
##Node
DATE
##Apply
schemas
Vantage
UTC
##node
##back
law
Label
recoverable
ever
Science
AN
browsers
Internal
loads
##running
SPSS
ftp
##commit
expiry
##Don
troubleshooting
demonstrate
##Input
More
convenient
viewed
##MAX
Failure
##open
##Group
threaded
DLL
AMI
##ins
operates
Additional
##Manager
Industry
factor
IDE
Maximum
Tier
Builder
scalar
WAP
Usher
cached
electronic
round
registers
submitted
Outline
restored
deletion
##new
bythe
theory
constructs
##output
Lock
Folder
Boolean
remember
With
RTSP
Raw
##Or
##memory
MQInput
h
Wire
tablespaces
presents
MsgId
offering
portal
ARIA
independently
Direct
Planning
targets
Forms
subordinate
##cations
##WARNING
Shared
kill
listen
Scenario
subflow
May
##Host
Binary
legal
positions
URLs
##path
improved
##Common
Over
guidance
live
tracking
news
closes
q
twice
overrides
failing
IOC
UML
gain
AD
##dir
MQDLH
nofetch
viewing
##Back
concurrently
zip
offered
merge
fewer
broken
MQFMT
##DEFAULT
matched
##Are
##Adding
##Our
Take
vCenter
MQAI
intend
Facility
branches
possibility
Tab
Actions
usual
carry
##Internet
##text
Logic
##adapter
DSN
Automation
wrapper
Big
listening
Components
compound
Environments
York
practices
##Take
green
EC
cumulative
der
TBS
##SEQ
MQSET
hidden
MAX
locking
MQQueueManager
subdirectory
oracle
plans
Handling
Extended
half
MQQueue
canbe
##WS
Free
##NOTE
kt
hint
##update
##process
Team
##all
PostScript
thecommand
##HTML
Forum
Image
Verify
Plan
Tables
##CASSCM
calculate
IIS
##EA
Prepare
##ea
##sensitive
expired
RMI
Mail
AAA
limitations
manipulation
authorizations
Validation
##false
##Perform
args
legacy
clustering
outstanding
PCI
CONCACAF
minute
health
middleware
community
translated
convenience
Raid
##that
uncommitted
OB
Define
MQSUB
answers
dependency
gr
recommends
exposed
##KTF
hosted
belonging
cable
programmers
applying
KEY
Alert
##Installation
importing
typed
populated
assignment
##database
Bytes
standalone
poll
##Indicatesthe
Deferred
succeeds
identification
operand
designing
Designer
Notes
RRS
NH
Resources
DECLARE
MAP
queued
simplify
##CONTEXT
##Advanced
black
inserts
##j
Acrobat
potentially
dashboards
##Work
accurate
##with
KTF
Good
vertical
Hot
Clusters
warnings
Login
evaluates
##Used
noted
##FAILED
##Attribute
MQMessage
Society
##cd
preserved
##div
relation
TR
Template
descriptors
Wii
JRE
REFRESH
DBCS
##number
scheme
isn
retain
pieces
##Edit
conform
Root
##Global
patents
##US
cipher
June
loan
Invalid
tabs
uninstallation
near
ETL
Other
##Following
##color
FISS
proprietary
##Put
##Like
TIME
assist
OSI
recently
incident
Digital
board
modi
conditional
##Deployment
len
compilation
MESSAGE
eXtreme
head
Diagram
assigns
##Free
##cient
attach
discard
Street
moreinformation
##Options
Confidential
balance
##but
moves
partitioning
STOP
WebSphereMQ
youcan
USS
##conf
Enable
##st
ensuring
##GS
Adapters
filled
##Determine
Usage
Decision
router
##stop
ordering
Welcome
Bank
##tier
acceptable
##Remote
MOM
SID
##Report
Distributed
introduction
structured
approaches
existence
##Tip
fonts
Classic
awk
finds
Category
BAPI
GT
growth
CONNAME
expanded
CIA
leverage
Summary
Black
conflict
Instances
##Online
QMgrName
primarily
##Starting
Specification
##Real
Sybase
##He
##DOS
adjust
paragraph
claim
##Deploy
##Valid
algorithms
##ISO
BSD
##Of
shipped
whereas
JMX
Correct
alignment
preserve
##Attributes
sequences
FTE
blue
##High
Utility
##as
Kit
caches
maintaining
WPS
EBS
directive
quote
##Import
XSLT
##skeleton
##Loader
RPM
##Restart
Formats
TTA
rendered
corner
Siebel
authorities
significantly
qualifier
ESX
implies
Panel
linear
##over
ASM
ent
Simple
measurement
##Sales
claims
Transmission
##SEND
Clustering
##Consult
improvements
parentheses
incomplete
offline
backend
Optional
Commerce
networking
RETURN
##SS
##Memory
notify
cryptographic
IAM
ending
hour
Are
BPC
inter
counter
incorrectly
BIP
immediate
##Dynamic
Switch
remainder
talk
##clicking
guaranteed
Registry
slightly
NIS
REF
##ow
dual
notifications
dealing
Telemetry
diagnose
KTX
##Does
##Just
VLAN
clustered
MSTR
continuous
VLDB
serial
Experience
Series
packaged
##EMP
push
pressing
modifications
expiration
indexed
##tab
equir
reducing
##gure
away
prerequisites
Microsystems
Rights
READ
bulk
streams
##param
MQXR
CONNECT
##http
confirmation
someone
anonymous
Entry
separator
Viewer
unsigned
Finder
##MBC
##Part
Launchpad
TSO
consisting
##National
Changed
##LOG
expansion
SHA
Government
concerned
NBC
optimized
attention
edited
##msg
macros
relatively
Drop
Sets
COMMIT
rely
##Character
DOS
##Furthermore
succeed
whatever
##Usage
meta
SVI
##ro
ordered
incremental
volumes
dir
isolation
Listing
La
NGC
Before
##Running
ASP
##Tibero
##CoA
picture
MVS
Ant
##Current
##ON
NATO
causing
CC
redeploy
blocked
dif
##STRUC
Way
Distiller
##when
CODE
##password
American
##BLOB
Block
switches
Parser
perhaps
##YN
##Normally
Running
Any
determining
ef
outgoing
##local
Girl
reaches
phone
expressed
daily
plugin
##ERP
eligible
##Replace
shortcut
coordinate
paste
##environment
Central
assembler
NAM
consumption
##Without
##Which
thlqual
transformed
Inbound
prints
DATABASE
directed
Quick
designer
Perl
hit
behind
##threaded
##QUEUE
ICBM
##CICS
##Custom
builds
months
constructed
hPa
Award
financial
Middleware
##ms
##Find
calculation
Logging
disconnected
replaces
conversions
##OUT
Corp
minimal
MQMDE
artwork
elapsed
CL
arbitrary
Act
www
XID
XMLNSC
simplest
aggregated
Binding
timing
recovered
automation
##install
net
copyright
serves
USA
amessage
##Robert
helpful
##DELETE
TimeOut
##Main
##Core
visit
serialized
##Net
populate
requiring
containers
lifetime
pick
Pass
Transformation
ADK
##REC
##Complete
##Link
##errors
UCS
##compliant
shorter
##version
tpcall
Smart
specialized
##Compuware
abend
##Creates
##enabled
##Async
##Unlike
##General
Returns
JCo
Descriptor
Patch
floating
forwarded
Exposed
CTR
enclose
##SIZE
##WEB
contrast
##RPC
CBC
arise
improvement
pull
browsing
##ing
Variable
sensor
supplies
Integrity
trading
overridden
Menu
Phase
warranties
##count
MQCMD
bandwidth
reasonable
Rollback
hierarchical
Don
saving
idle
Tracker
##Changing
concerning
HOST
un
##wide
dispatcher
ITSO
RQ
##BASE
Factory
highlighted
##handle
facts
national
won
De
Structure
fixes
##MQMD
Modeling
enhance
namespaces
cube
transitions
AKB
##Call
DRM
##Drag
stated
qm
Tracking
prerequisite
QUEUE
ring
instrumentation
##HTTPS
MSL
##codice
##Examine
Clients
knows
UUID
deprecated
asynchronously
pipe
##Sometimes
counts
Primary
##SMS
challenges
Temporary
##body
##initial
tried
##ESQL
fine
retrieving
Two
LCD
lib
website
##px
Delimited
##Directory
extracted
participating
leaves
YG
Now
prefer
finish
##EJB
FML
remotely
Expression
ticket
JTBC
Multiple
##Several
##BE
frequency
float
##VMS
APPC
measured
IEEE
reusable
Statement
corporate
src
Managing
MIT
du
##William
Rock
##UEFA
Row
MQCMIT
logo
America
expects
accommodate
svn
isnot
echo
underscore
variation
##src
##Documents
relates
##JR
##NIC
tokens
COVID
SunOS
Cup
blocking
driven
styles
suffix
##Disk
Elements
debugger
predicate
amounts
ping
approximately
Drag
##Tuxedo
##Why
Department
inherited
Balancing
##STRING
Color
Layout
apps
SE
Packages
commercial
unpredictable
reused
replacing
Selection
conn
informational
regression
##ODBC
##SAS
cd
##American
Steps
##KT
popular
max
introduce
##Specifying
boundaries
##Upon
##Returned
##Properties
scripting
linking
NET
organized
##Selecting
LIST
CGI
##loc
MQSO
##Base
##Task
##COM
distinguished
keeps
utilization
Archive
Grid
##is
safe
primitives
segmentation
MQCA
At
ROLLBACK
##host
##work
##domain
EE
DEFAULT
trees
Soft
##International
incremented
Classes
ineach
alerts
engines
individually
originally
Like
said
##Love
##WHERE
ownership
CEI
Communications
spatial
##NET
brackets
ObjectName
predictive
Will
leads
parties
attack
superior
widgets
dateTime
obligation
stamp
Programmatic
##MM
Distribution
Sockets
CRL
illustration
##ex
RFID
colon
iterator
CodedCharSetId
Patterns
snippet
paper
portable
MODE
parsers
VALUE
LocalEnvironment
##Again
CCSIDs
ps
enterprises
orchestration
intelligence
##Migration
QMG
FBI
##FISS
driving
DMZ
Auto
MQRO
intra
##Gbps
appended
synonym
enhanced
designated
licenses
##KBS
##label
sequential
url
##case
distributing
UDDI
TAG
Road
temporarily
ROWID
##Performance
differs
Concepts
encounter
joins
instruction
Roll
##Suppose
bank
subquery
Korn
SA
duplication
addressing
##Resource
robust
##ORACLE
cards
##transaction
localhost
##CODE
ip
pointed
IIP
##xed
##SK
Coordinator
##Single
Station
##Level
ibm
upgrading
Generate
##Simple
Variables
representations
Style
rendering
##Rational
##OneAgent
Feedback
##PUT
NIC
expensive
disclosure
careful
##Export
lesson
Selector
##CNT
Wholesaler
partially
pathname
Column
auditing
INT
BEGIN
YTN
TOP
refreshed
SMF
SSH
True
##Sub
Hconn
insufficient
##DC
##James
oup
Bean
##Cluster
assistance
Contact
scroll
RF
##DEFINE
reader
GID
##RCV
##dynaTrace
Community
Gentran
PfmNumber
thesystem
##Content
TRIGGER
##nm
OO
##Based
Failover
Receive
##box
##response
archiving
##jar
skills
ISP
Wait
minimize
Serial
BAR
MTS
KS
Products
resume
HMAC
fer
cursors
insight
installs
unused
resolving
FETCH
Extension
##reference
article
riser
searching
##day
##Write
##Shared
hosting
Credit
objectives
efficiency
##Leave
Complete
ANY
##Monitoring
CLUSSDR
##QMGR
author
ActiveGate
MLB
compute
illustrated
##profile
outputs
distinguish
collector
DSL
Ltd
##Customer
UEM
##Optionally
propagate
##Diagnostics
##Managed
inquiry
rc
consume
APP
##Keep
Websphere
controlling
garbage
Authorization
plain
Execute
OTT
Indicateswhether
##ORDER
forexample
efforts
encrypt
SPACE
integers
##FUNCTION
WITH
Communication
conforming
##Integer
keystore
Id
House
processors
busy
CVS
ADP
cleared
##web
outer
##HD
##online
VSAM
##Enable
These
Native
Flash
feel
NEWYORK
##Info
VIEW
Documentation
##Move
##World
Times
Selected
##EXTRACT
backward
Pre
Each
##DEF
SCM
##WAIT
Incident
WebLogic
Please
Find
##TLS
editors
Song
NHL
##Load
##MQSC
concatenation
##Attention
efficiently
appearance
ESM
Required
SEND
MQCNO
WBE
Separation
incorporated
Delivery
edge
approved
msiexec
residing
League
##tmp
compensation
optimal
thenumber
capturing
runmqsc
covering
tar
##record
polling
JTA
Jr
attacks
GPU
SCSI
DR
Agentless
encounters
##language
KPIs
##MD
composed
helper
That
participants
acting
##AI
##CALL
canvas
##PD
zDC
##ESA
latency
##BPEL
Exchange
Clusterware
MQPMR
##DISPLAY
logon
Hierarchy
Education
Embedded
automate
##Controls
##Purpose
collections
##organized
telnet
expose
Contents
##command
endpoints
dimensions
discovery
##dd
JOB
appropriately
widely
JCA
ls
Some
SD
##atrb
##status
War
onepass
##Unable
her
CSV
CipherSpec
intellectual
theserver
tmax
syslog
grow
calculates
Debug
ret
CS
Jolt
##HDD
lack
explore
yes
Working
Notification
learned
VIP
loader
DbmsTaskServiceImpl
strong
InfoSphere
##Further
##this
flat
##Try
TS
suf
demo
facilitate
SV
Organization
es
Light
bundle
##ADAPTERDETAIL
precompiler
DFB
medium
Email
owners
DTP
ax
##David
Diagnostics
Daemon
consumed
licensed
HDD
INTERVAL
EA
AV
DPOD
WHO
anyone
heterogeneous
##Product
##Publish
synchronized
installable
##Include
minor
Array
alive
Measures
Hobj
##Contact
##Point
bold
Displays
News
am
Heart
usingthe
damaged
##MSTR
##mocomsys
##Monitor
Contract
##Download
j
Locator
##Usually
analyzing
ORDER
Identifier
##control
AU
acquired
TA
SAN
Mapper
##BILL
outline
vSphere
rates
SG
labels
decided
Connectivity
CI
##Charles
globally
alone
enters
##separated
modeled
SESSION
activation
About
Lee
CR
raises
encapsulates
splitting
latter
Route
ECM
compressed
##CH
##ha
Volume
slide
interoperability
Decimal
separation
XAResource
##it
asks
analysts
##Failure
diagnostics
VR
##Close
XATMI
EMI
MSG
ACTION
charts
Contains
postcard
RSA
height
Soul
Current
STATUS
initiates
Interval
##AVAILABLE
MSCS
enhancements
##Provide
Catalog
descriptive
DM
Blue
Router
##Full
##edit
unwanted
##description
##RUM
PK
geometry
TMS
##Init
sophisticated
ease
##definition
Connections
accumulated
nice
office
codepage
Shift
ConfigFile
indows
compliant
##static
Future
FK
Bourne
battery
natural
suppose
Under
Standby
approval
regard
emitter
##ag
QLOCAL
stylesheet
del
extents
violation
feed
raise
placing
unnecessary
IE
##Live
ranges
Risk
Receiver
Month
clock
##FAIL
hierarchies
Manufacturer
INPUT
Con
YES
scalable
##cmd
construction
##VAS
##channel
integrating
behaves
tutorial
worksheet
##view
##DIR
consuming
searched
transmitter
tobe
##ch
NetBIOS
carefully
mqrc
saves
##Unless
patch
##SaaS
Available
bitmap
XQuery
transmit
light
highlight
##SUB
IPC
study
Measure
Mpower
BIND
##Maximum
dumps
accompanying
Indicator
fashion
varies
restarting
consult
##Line
cables
Result
##ADDRESS
Word
##SND
acquire
sound
##ine
##Commit
Entity
CFSTRUCT
##DVD
COMP
Assembly
Unisys
Island
lose
learning
subdirectories
##Text
PIC
AB
##Services
##Format
checkbox
Indicatesthe
prototype
originating
##like
compares
cleanup
accordance
multipart
WAIT
BPO
HW
ad
expires
involving
differently
JNI
mor
Dream
##Logical
##CHANNEL
contexts
##dependent
##ags
got
##tion
##Password
##Generally
Subscriber
##Having
beused
improves
assuming
extremely
Cancel
accomplish
Transformer
formal
##kW
thecurrent
##PDF
comprises
##Status
largest
publicly
editions
BT
##Fixed
##mi
BFILEs
continuing
discover
subscribed
corrupted
arithmetic
cast
Analyzer
##right
salary
Private
##FEP
believes
trust
trade
phrase
UK
##print
##External
tiers
fall
ignores
Adding
GMT
##DD
complicated
accomplished
Pages
##Max
Side
took
TPS
##JAVA
originator
##THE
##sql
forget
Partition
purchased
selections
MQOutput
##script
##core
Church
city
Operating
Programmable
redirect
Queuing
Outbound
Cisco
##Corrective
pH
extensive
transformations
baseline
##admin
##TR
SSD
SIZE
calculations
tooling
publishes
strongly
##TP
delivering
##NonXA
hub
transparent
Domains
APG
subsystems
patent
##HOST
doubt
navigator
dialogue
King
challenge
fee
##Currently
subtype
permit
Msg
##ers
holding
periods
IM
##Big
##SHARED
Smith
comparing
Graph
Offset
continued
Rep
digit
mqExecute
reissue
struct
HMS
CLX
analyzed
SPOKE
SAM
classpath
offerings
OEM
##Details
thousands
Generator
##TABLE
eate
responds
Training
Metrics
routes
Creation
VO
telemetry
OFF
VCL
##mg
hot
##OBJECT
AL
POSIX
Occurs
Quality
governance
cells
OAuth
BP
movement
Manual
research
rebuild
SYSDATE
##AIX
focuses
tpreturn
##TAB
investigate
FIRST
inputs
Boy
##Bi
businesses
Enabler
Used
##target
slot
Reporting
##query
subclass
rank
OpenVMS
NAS
Introduction
aligned
verifies
CWF
horizontal
sorted
##zero
keeping
QMQM
MQBACK
Integrated
JavaCompute
enforce
javax
Projects
inline
eventually
##Trigger
Profit
Skip
##SRC
Alias
growing
##hand
Workstation
menus
OECD
Encoded
rapid
tune
##Video
##GIS
##SE
Presentation
rich
Video
Button
Scheduler
worker
retains
thedata
Engineering
OLE
append
JPEG
DMI
Cursor
IOs
##mode
translate
Persistence
##OPEN
##Code
##Job
Results
##SP
##input
##net
sql
##consumer
##FIRST
stable
clearly
EXECUTE
##Trace
undefined
INFO
##logs
##HMAC
GM
##Up
angle
Starting
publishers
datasets
##ARRAY
Keep
##font
eachprogrammatic
allocates
##UI
##execute
##Identify
##Good
gather
eliminate
White
modem
generator
Wide
##Standby
establishes
subtree
delimited
DPL
Once
peak
##Three
##Mbps
handshake
brought
distributions
accordingly
OBJECT
incurring
Iron
tcp
Cost
inner
ideal
##DS
KDE
##Query
##HA
Replication
joined
Dead
Gomez
bitstream
##Apache
Body
ORA
greatly
backing
Asset
##Record
Started
Manage
guest
obvious
##CONVERT
TB
focused
productivity
##Search
verified
Coupling
BufferLength
Problem
##written
grants
##page
recommendations
doesnot
RECOVER
opportunities
score
MPEG
Managers
inheritance
thetransaction
conflicts
Formatting
PROCESS
##LOGICAL
Vol
Testing
qmgr
CH
MaxMsgLength
##len
counters
##ACK
Compaq
payroll
Depth
##BROWSE
##MQPUT
moment
relies
chose
reboot
Methods
IQ
##Operation
##index
nulls
repeatedly
ICMP
Win
JMSInput
Oriented
##Session
##load
seems
##GUI
##Filter
Intercommunication
loops
##MQRC
attr
theuser
##RFH
Qmgr
##Given
##generated
SLA
UP
social
##Send
Firefox
MDM
AA
consideration
SECURITY
Profiles
##exit
severe
quali
David
RHEL
Story
Mnet
##gured
COUNT
pay
overwrite
shadow
agree
Verification
##supplied
##result
interesting
freed
##Sync
Distinguished
Self
Foundry
##Whenever
Multicast
literals
##EU
##Show
WID
recipients
ECS
##Paul
heading
licensing
alphanumeric
Subject
Kingdom
##request
Box
BGP
graphics
Sysem
SAF
unning
retention
FUSE
instrumented
unlimited
signatures
SHARED
##link
ZIP
graphic
##Black
Baby
signi
en
##address
coming
architectural
Publication
##Standard
##EVENT
EZis
Capture
December
rapidly
Requirements
transferring
assigning
simpler
Rate
pseudo
receipt
she
##Mpower
Fault
Average
Vista
##ADMIN
Axis
slash
##attribute
CO
heuristic
FORMAT
##JVM
SKT
CSQINP
newer
aspect
inherit
listens
jeus
exclude
Plus
IOException
Min
##DESC
##George
und
suggested
notified
limitation
referencing
##Activity
REPLACE
CLUSRCVR
Provide
Sub
##off
##Transfer
caught
align
Star
servlets
finally
October
firmware
Gatherer
Plug
advice
Removing
##Accept
substituted
probe
FT
sendmail
##IUCN
counted
portability
preceded
Force
internet
##style
meets
diagnosis
SDP
People
RCA
Sound
CASE
upgraded
Cloudscape
hide
London
##property
hasbeen
##KHUB
skeleton
inhibited
##HANDLE
So
spec
##ft
##Often
preparing
chooses
ATM
Art
var
Changes
thename
actor
maybe
money
Passport
##Working
##WSDL
transforms
cn
Drill
##Le
scheduling
Employee
scaling
##digit
##SYN
River
deciding
##sh
seem
rpm
##Generate
datetime
Authorized
##active
associates
LTE
union
MUST
##Post
filenames
principles
ROW
titles
##rfh
##INSTALLATION
api
Unique
Market
excluding
##Appendix
Feb
##INPUT
treats
##TMAX
Journal
##IDT
mailbox
##independent
IX
PROCEDURE
vehicle
##Jean
thevalue
wanted
TABLESPACE
##IoT
lengths
individuals
student
WebT
equals
##double
headed
Freeform
##Battle
BMW
synchronize
Views
communicating
JavaBeans
##Adobe
car
strictly
reflects
severity
Reader
mirror
##LAST
SDS
qualifying
Illustrator
IDC
##application
ConnectionFactory
##Values
deep
intervention
Professional
BAPIs
mqbrkrs
cat
conversations
OAM
##Different
Functions
Speci
bags
GIF
indexing
Entertainment
MDB
graphs
##Always
ordinary
varying
mining
MQCFH
forces
toward
##Listing
usethe
subscribing
Interfaces
##PMQLONG
Place
Bad
##cursor
Chart
##Schedule
extracts
##signed
imports
##Restriction
STR
SAML
locators
##ef
strategies
damage
Endpoint
smart
foundation
Implementation
snapshots
org
ILinkPut
Getting
interacts
Register
intent
MQIIH
Flag
North
segmented
affecting
usable
quiescing
ten
Cognos
reconnect
##tree
formed
exchanged
Little
Round
Cockpit
UFO
captures
Game
packed
##rollback
pause
Cleared
##Multi
dot
##Date
##Mobile
##free
DMB
crash
Requests
##Context
switched
verifying
Micro
worked
inform
SERVICE
##grained
Sum
LONDON
altering
rewrite
ACLs
HR
JAX
##shared
Know
##self
Fedora
Kernel
exercises
unsupported
##Cloud
Green
##such
##Hz
referring
##batch
SGA
Front
Korean
Nodes
TTL
##Long
shift
WAR
##Upgrade
tpacall
##Removing
combines
analyst
Parsing
##localhost
elsewhere
Indicates
printers
CLOSE
IGQ
##DNA
##University
##FIFA
outlined
brand
couple
Post
##Describes
Special
##because
##BIND
REQUEST
##element
Probe
Second
weight
East
recreate
closely
readable
span
arriving
dragging
wireless
NonStop
Festival
DEBUG
PaaS
##Map
Migrating
indirectly
procedural
Evaluation
exports
iSCSI
csect
fielded
phases
##BAT
Consumer
pooling
PKCS
switching
Domino
transient
compiling
##Execute
Operational
##Mapping
indicators
Board
FORCE
aqueue
participant
checksum
impossible
##Design
alphabetic
credential
UOW
operands
axis
Production
communicates
MQException
Brown
##MultiBlockTextProcess
##FinalBlockTextProcess
majority
##AGENT
Union
functionally
provisions
crtmqm
CN
personnel
coordinates
backslash
##Legacy
embed
Signal
says
Documents
appliances
destined
##AWS
##DCRUM
undelivered
Mediation
redbook
CT
Supplied
##START
querying
Low
demonstrated
Dump
packs
thedefault
Workload
safely
division
##CAS
inetd
Refresh
##Byte
##BPM
Japan
Azure
##backup
KSC
Collaboration
fundamental
##Rule
DT
##Method
visualizations
VSE
##Reads
trends
##Managing
##MQGMO
compilers
##Defining
SR
substitute
##LU
##Gateway
CSQUTIL
##Flow
Magic
becoming
##Preparing
Focus
##Allows
##Clients
##bw
MIB
analytic
ReplyToQ
heartbeat
delimiters
Double
ifthe
San
cfg
finding
launched
IPS
establishing
USING
escalation
FIFO
noti
CNN
REMON
##Function
Conversion
Modify
uninstalling
ADD
departments
MT
queried
Council
SQLCA
##BI
##task
Processes
##from
##column
Who
##Writing
rectangle
James
Personal
expr
Left
##sec
promote
endmqm
##Cannot
youwant
filtered
##Locate
Inspector
centers
##EC
autocommit
##SID
European
##so
air
PSP
##read
##GHz
Logical
room
Segment
mqsicreatebroker
Gallery
Drive
denotes
MIN
##Header
proxies
Multimedia
executions
Devices
##MOCOCO
West
Hall
##ILink
competitive
traces
silently
CHLTYPE
Availability
valuable
Either
##call
Social
OTS
Japanese
Merge
St
##Module
square
MSI
iteration
Fields
leaving
Airport
tvN
youmust
discovered
proven
positioned
FUNCTION
digest
initializes
ap
subpartition
##COUNT
meant
##Names
precise
minus
July
augmentation
retries
Games
##Storage
variations
##VALUE
##Informix
engineering
placement
##nitions
versioning
##Korea
##card
sal
##USS
AES
##while
enclosing
HTTPRequest
##Connecting
permits
significance
portions
breakpoint
Press
DESC
##Second
Examples
became
retail
PTF
interpretation
Issue
##INQUIRE
WSRR
Building
applet
SEQUENCE
Scope
##REQUEST
Launch
validity
targeted
##Built
NameValueString
##GSG
TBC
forwarding
RS
DHCP
##Defines
secured
Persistent
adjacent
##button
Federation
##Invalid
XAP
vender
designs
Stream
meeting
MQXQH
##Investigate
datagram
SUV
Clear
##VPN
DataSource
Die
##Digital
face
streaming
dequeue
inquired
Young
estimate
serious
disclaimer
FFST
##Property
Mile
##check
incompatible
##Basic
##defining
sibling
GRANT
AH
##Mac
certi
overwritten
Super
##critical
strmqm
queuemanagers
##MP
instantiated
##SERVICE
##Rather
PMS
Paul
##Objects
BS
Great
ft
RMs
##mte
ABAP
centralized
##Title
##expression
##Protocol
Finance
draw
SCOTT
schedules
aid
Join
FTA
suggestions
operatingsystem
Features
##Through
shape
MA
##Automatic
Loop
propagates
CLASSPATH
##Encoding
Kerberos
##Arial
physically
Sender
hence
influence
resubmit
architect
##Michael
ImqString
BMT
##Fail
deals
directives
##State
easiest
##CHAR
Fire
worth
matrix
RGB
##None
thought
##IPv
Lists
Fix
Alerting
Off
##Clicking
suit
Air
offload
Let
Moon
Asynchronous
investment
##installation
Pub
mix
corrupt
##through
drilling
charge
isthe
##BC
##white
Academy
contr
##DW
MFT
##Those
##Navigate
Print
illegal
Items
labeled
thereby
screenshot
concrete
Hello
compact
RMS
forced
writer
AUTO
PKI
merged
replicated
typographical
##Build
importance
enforced
Mr
timestamps
continuously
versus
Play
classi
##Thomas
Cross
PDA
##Management
KIC
##Customizing
su
##throw
buffering
concerns
patches
turns
BMP
intf
MQBEGIN
originated
WML
injection
##Secure
Firewall
##REQ
compress
##timeout
Move
architectures
sorting
spreadsheet
nonblank
##Compile
fourth
Days
CCI
qualification
rerun
kB
disorder
##Address
modern
##Location
configures
Derby
##event
interim
##PS
Again
shar
##Their
practical
IFS
GSKit
outlines
Demand
##INF
PUBLIC
directions
federated
conversational
understood
OVA
##Fields
stages
Chrome
Heap
administering
##Vantage
Render
LISTENER
MQTM
RECEIVE
Thomas
DESCRIBE
ther
summarized
MQParms
KMS
organizational
serialization
THROW
##Obtain
##connect
##WHO
tperrno
TxRPC
##fetch
##including
informed
nickname
workstations
arrival
cut
FLOAT
obtains
##Selector
purge
destroyed
##monitor
yyyy
Appliance
forwards
wsadmin
mutually
##Connector
AR
ou
producer
Dance
##JSP
Invoke
##CSQ
commas
Administrative
DBIO
guides
##IC
TID
hints
ISIL
WebService
##Desktop
ran
XMLNS
sees
corrected
rowid
Cubes
Encryption
AEK
##init
HTTPInput
##context
VERSION
##NH
##ning
MQRMH
Old
RX
Robert
BDE
bene
##format
NONE
##Errors
BINARY
essentially
fragments
South
treat
arrived
suspend
equipment
Spatial
Arts
DBCA
Replace
implications
##protected
##Config
##MEM
SVC
Spring
slave
Mark
Composite
translator
##De
ClearCase
##CA
mod
Where
membership
GSA
guarantees
verbs
pixels
GE
abstraction
##Buffer
##KEY
FORM
PID
Hardware
HDFS
Su
CSQM
CKTI
subprogram
YMCA
concurrency
foreach
vtadmin
demands
certified
unlike
qualify
##Who
nonzero
##DRBG
##PORT
meanings
##FROM
##OTP
collects
Technologies
visits
##Runtime
##Tivoli
clone
SVRCONN
Vehicle
zoom
##variable
UAE
Radio
WTA
ARCHIVE
age
##services
travel
##Later
stanzas
Token
##standard
Sessions
##proc
##Distributed
maximize
numerous
##MOCOMSYS
##Nextro
Errors
##SSO
comply
##app
Protection
producing
auxiliary
Water
Complex
assignments
simplified
##state
revoked
CPUs
opposed
op
##CLOB
##family
Cannot
##alert
##kHz
##lter
informs
GW
tend
satisfies
SMP
improving
seven
attachment
Here
OMG
DASD
KO
inode
probability
heavy
easyTravel
##Enabling
Existing
##Statistics
informationabout
persist
##INIT
revoke
intranet
##TIP
TTC
Dictionary
CHECK
Permission
##AUTH
inherits
Redbooks
recognizes
##base
characteristic
Determine
##WITH
pad
subtransaction
eated
ii
##Authentication
##Public
##Supported
quota
##UTF
gateways
voice
Modules
##specified
Re
MQCCSI
##Peter
Pad
Boys
granularity
##ts
##rpm
VAT
##SYS
broad
DEPT
##OLAP
thatthe
creator
collecting
collective
##include
asset
replay
RECORD
##TARGET
##num
abnormal
TRANSACTION
Match
thatyou
bootstrap
everyone
alternatives
atthe
Restricted
Snapshot
##job
IIOP
buses
render
Knowledge
catalogs
atomic
serving
Alive
MQIACF
##interface
numberof
denote
happening
articles
Processor
##Getting
datasource
truncation
Separator
##Events
enqueue
Michael
Operator
MX
##Unfortunately
HH
reinstall
UAC
oriented
Cast
manuals
XCF
redundancy
##hosts
BASE
Upload
reviews
##USB
SUB
Accelerator
occurring
##Intel
sysdate
##MQGET
False
Activities
star
DataLength
contention
##Existing
strategic
Gartner
exploit
Linus
##Programs
fetched
binds
mnemonic
##SELFTEST
William
##Blue
ectory
telephone
Success
firewalls
##Certain
customizing
validates
##Give
soft
EMPTY
##Google
sequentially
##Order
Bind
PORT
LINK
##Document
huge
SupportPac
##ASCII
theinstallation
BO
exporting
Electronics
##non
Infra
aren
##Namespace
tpalloc
scanning
asingle
##Internal
intelligent
Packet
##qmgrs
TFIM
foreground
story
anchor
VS
arm
##kr
oldest
leaf
BIT
UDB
xsd
##form
TNS
co
Codes
bug
##parameters
MIString
##INDEX
DESCRIPTION
##SERVER
Discovery
deployments
mainframe
frameworks
##username
bash
terminology
Topology
wildcards
brings
pointing
principle
resumed
##Richard
accurately
##order
##Exit
Warning
QSG
renamed
endorsement
##once
##NATIVE
ofthis
WebtoB
ST
adopted
##trace
##Place
##PFM
IBK
DEFPSIST
replica
GPL
Album
CHF
mustbe
##export
##Script
utilizing
floppy
ofa
repeats
NAT
Preparing
CDs
universal
ACI
MQENC
UC
Rev
SU
completeness
Resolution
mismatch
denied
asking
##White
CMS
interrupt
trail
SL
JOLT
Hill
TCPGW
parallelism
##Decide
##Projects
ina
fire
obsolete
hlq
##buffer
behave
interprets
tagged
adapt
priorities
BM
realtime
sheets
RCS
Templates
ELEMENT
Repeat
Sports
recognition
##SI
furnishing
NL
POP
Band
##Browse
##AUTHORITY
Columns
IIB
God
##OH
Meta
##Index
##ip
vision
##Consequently
Torvalds
CEP
##CHECK
cryptography
super
quiesce
##United
DDR
sole
UserIdentifier
##empty
designers
inserting
adequate
##MQHA
ESBs
terminating
arrows
cookie
##protocol
##PROCESS
pdfmark
spread
BACKUP
##site
Timer
shutting
inaccuracies
##NEW
##Contains
SQLSTATE
collation
Rose
Citrix
Sleep
architects
Transform
Wireless
Licensee
##Best
##bind
MQOR
itis
ASync
Grouping
excellent
paradigm
Europe
privacy
ISPF
Kubernetes
identities
shells
##copy
##Sterling
Download
Crypto
Loader
INVENTQ
WHENEVER
TRACE
planned
isolated
infringe
announcements
came
##Formatting
##Validation
Jan
augment
multithreaded
##ver
Lookup
surface
buckets
##lename
##App
##Visual
UID
##Allow
simplicity
factories
Samsung
##access
MocoCrypto
Christian
Refer
quantity
##Mail
Term
##ps
symmetric
##IX
synchronously
Incorporated
##Pro
nearly
##entry
num
##err
slower
##background
##nal
MQC
experienced
DL
emerging
##Count
initializing
WBI
straightforward
Administering
envelope
skipped
regularly
##Receive
wallet
Alignment
cari
##NGC
mostly
criterion
buy
##Passport
##Questions
##run
WLM
drops
FileNet
##Power
SQLCODE
game
merely
dossiers
##Fi
Incentive
Card
Never
wired
November
PARIS
Legato
FIS
FULL
Restart
indirect
happened
DO
theconnection
Nextro
distance
FilePut
Selectors
gsk
approximate
##ASE
Debian
##WW
SignalSet
scans
Logs
whom
trend
certification
WMS
##Building
##Auto
expire
##Hence
##AIDS
##DBA
Another
statistical
##ment
Dock
troff
marker
unlikely
sockets
thresholds
##Continue
MQSERVER
figures
supplier
Correlation
##DECLARE
##Revenue
prohibited
duplicated
err
California
macOS
Bag
AggregateReply
Christmas
initiating
headings
bserv
ROI
##ActiveX
##Virtual
##action
mainly
Country
Kill
reject
sampling
##tions
KOSTA
thr
SNK
OLTP
##Special
Alt
smallest
million
##Space
proposed
##properties
Exercise
dropping
simulate
somewhat
defects
Regional
br
Football
Nextree
TNA
Customizing
organize
uninstalled
towards
BFH
pure
##DESCR
tnsnames
upgrades
EOS
MM
CE
Catch
CMDSCOPE
##passwd
##DataCenter
##Picture
NGO
##Rock
delays
chains
fairly
promoted
straight
interactively
packaging
declares
January
##FOR
tips
Priority
##Sequence
ME
ename
datafile
Stadium
observe
##OFF
curve
possibilities
##TM
##Transmission
##Reference
##Lotus
traced
alphabetical
##PASS
##III
callbacks
resets
Submit
Secret
PIN
##Intelligence
Division
Le
George
solely
LIKE
##put
Xeon
##Today
expertise
RD
##Accessing
looked
##CLUSTER
Stand
assured
semicolon
instructs
##flow
thin
##Vitria
IL
##Short
SDPS
Generation
##Embedded
ranging
FAX
Limited
gathered
mq
##Universal
Maintenance
cardinality
THEN
stateful
Units
thedestination
personalized
IMR
##Joseph
hybrid
fits
MQXCNVC
superuser
##Turn
absence
poor
Frame
translates
##STR
theclient
NEW
##transactional
precede
transformer
whilst
mi
##en
Tuning
combining
##SYNCPOINT
HOME
SPX
##Administration
MBean
warranty
hh
damages
incidents
multimedia
controllers
late
IMM
IPTV
IMAP
thechannel
##Rollback
##max
extending
dynatrace
##Drop
JSSE
##not
longest
SO
SUM
Child
observed
##Rename
Look
Want
Tablespace
ES
NP
JMSOutput
##pInputText
insurance
##Unit
##directory
objective
repair
Push
stands
heavily
pixel
##role
concatenated
Perspective
Davis
Peer
WESB
violations
pos
inthis
suited
PGM
##Off
##Due
stem
considering
Bar
contribute
##NODE
##built
bracket
##Bad
preview
CG
##TGT
Girls
ocess
NCAA
POC
interacting
decrypt
tocreate
FIELD
zones
JSPs
OpenSSL
##RAID
utilize
vice
daemons
##History
encodings
LEG
##El
##SM
Coherence
interrupted
##Component
Maven
Zero
##Human
functioning
IVT
SFTP
canceled
responsibilities
behaviour
LNG
Law
Reseller
##jpg
##ControllerException
Validate
##Regular
resulted
LAST
highlights
revert
##ACTION
saw
##block
inclusive
dis
briefly
Awards
Kim
ClientVantage
JPR
theappropriate
reload
##prepare
isused
##DT
##cnt
SVR
posted
CURSOR
JYP
subpartitions
Dark
decrease
af
DIMM
composition
outcomes
excluded
Beginnings
virtually
cp
##Day
arises
textual
provision
stateless
ClipsAndTacks
##ss
correlate
##reply
XSD
##SMP
downloading
sys
Plugins
wild
inspection
##Pharos
##POP
NAD
advance
SQLstatement
Begin
CHINIT
sizeof
sleep
AJAX
disables
semantic
##Customers
concern
##VM
coupled
receivers
##cate
##OUTPUT
##Alive
##CURSOR
##ism
##Courier
##space
prevented
CAF
thoroughly
##CC
##GDP
##SNMP
mutual
decryption
##OPTIONS
Commission
Town
##St
##LIST
manyreport
##errorMsg
##HEADER
exclusively
##Besides
##CF
jms
##Have
inspect
browsed
Hard
##Column
classification
quoted
HBO
backs
shipping
Asia
experiences
manufacturer
##Persistent
##created
authorize
standardized
gap
risks
##DM
overloaded
Thin
temp
Spec
While
Redo
Avg
##CIA
RSS
USAGE
QR
xid
PP
DESCRIPTOR
excessive
##dynatrace
##Warning
##resource
##KR
carriage
##alter
France
##San
Mk
destroy
##else
Title
dashlets
hundreds
believe
signing
##Option
Centre
Peter
abort
braces
filesystems
##NT
IB
deactivated
##Re
##enable
##AD
JCO
breakpoints
CSQJU
MQCHT
##SBS
bottlenecks
LD
Administrators
Whether
##session
Age
comparisons
stakeholders
##users
##Problem
committing
broadcast
HANA
LGBT
stay
chance
Enabled
Terms
invoice
subfield
##Compute
##Compare
trim
jump
##header
hoc
##EXCEPTION
Connectors
Sites
CPI
##oracle
##deploy
adoption
##delete
responding
##Testing
BYTE
##exe
##Documentation
##close
recompile
Handle
CHICAGO
ACE
Op
Pr
##Sun
##Except
stubs
interpreter
##Biz
##row
acceptance
OPTION
spot
##DE
##Learn
Writing
##Writes
##European
Summer
##CO
##Recovery
##Platform
pricing
international
currency
##LINE
##premise
Player
isa
##yes
Because
Reset
Composition
Person
conventional
Committee
spend
contacts
##RTT
corrective
Avenue
##parameter
Financial
unified
worldwide
tracked
##cys
freely
isolate
##broker
dotted
##Restrictions
avoids
TIMESTAMP
COMPLETE
ND
##width
##XX
##JavaScript
QMgr
OTMA
ItemIndex
Charles
XDS
##Procedurev
timed
confusion
MON
##FULL
##array
ldap
##term
SSLPEER
inclusion
IA
hyphen
integral
RP
accompanied
##ret
onment
tracks
##Requests
touse
Demo
##Routing
##BO
anapplication
##Ignore
##CONN
granting
toolkit
suggest
Workshop
satisfaction
integrates
chunk
##SALES
theproblem
SN
SAX
##Spoke
##world
schemes
##priority
removal
##Destination
downstream
##APP
##Exposed
redundant
SoapUI
##dimensional
befor
Paris
##CRM
acid
SCN
realize
##Assume
##APM
INTERFACE
doc
conforms
externally
##Pass
confidentiality
##mteadmin
baseref
Quarter
##ANSI
Bucket
Interaction
Head
Intellectual
##ld
thatare
lightweight
virtualization
reality
MHz
frames
laws
MQZ
BANT
##html
Worker
drawing
movie
MQWIH
MQRCCF
##handler
##Km
ol
da
##HIV
estimated
LQ
CAPRI
supplying
suchas
sensors
##USE
##MQI
Supported
omissions
CTRL
asthe
Examine
##Confirm
PeopleSoft
OUTPUT
##dbnode
LIBRARY
CIP
##SAMP
OracleJSP
##pop
MLS
##BBC
##cant
Strategy
##performance
##second
Three
wrap
governed
Static
Throw
VAN
Conference
ago
Computing
Optimization
Generic
##Intelligent
##Register
MQZAO
##rc
##inst
heat
profit
##kt
##Overview
##Model
mission
preparation
##BROKER
bypass
##container
redirection
parses
decides
SLM
Publishing
confidential
##Queues
ctx
Flags
Wall
##crossing
AWDS
##serif
NFL
mRNA
##chem
reduction
im
pc
##TS
Docker
##Typical
variant
simplifies
banner
precisely
Hits
scheduler
Customization
##SDS
Range
privileged
addr
envir
WBS
ONE
modifies
discards
Aggregation
securely
##DES
delayed
XMITQ
Syntax
paging
ADO
##TOPIC
Earth
Woman
epository
PSV
UFC
multiplied
Always
Insight
solid
##samp
sh
registering
PROPAGATE
Cell
JSF
Supply
LIVE
##Consumer
Shows
##Top
revisions
##She
Precompiler
lb
WWF
NXT
troubleshoot
whenthe
PDSE
##Below
wizards
newline
##str
Initialize
clicks
ultimately
pushed
noaction
CORE
Predictive
MiG
##Router
arrangement
eliminates
hex
bill
Chinese
obtaining
Retrieve
die
##Introduction
PFM
min
##TTA
##https
submission
defect
##MODE
UNIQUE
Salesforce
SATA
ROSE
##sans
Saint
Opening
##Subscription
##Clear
##at
MQPS
##Site
##house
Major
Throughput
Death
MCAUSER
fills
denoted
prede
geometric
Women
##About
Bserv
portfolio
government
CIO
RESTful
ac
MOVE
Price
expecting
persisted
##Admin
SIEM
trial
##endmqm
MCAs
Relationship
actors
wsdl
AK
Justify
esour
QA
##Certificate
issuer
Dashboards
WRITE
##security
Beans
##CompCode
contribution
trap
Confguration
##components
Stock
tr
RESLEVEL
TLOG
needing
##PHP
CSD
##Deferred
##Topic
Checking
MQM
savings
Loading
umask
pertaining
Confirm
energy
China
##Peer
EJBs
Collectors
NEXT
EF
falls
circular
param
deployer
##Born
wherever
Samples
fora
interchange
screens
FDA
PMO
##an
ILOG
theobject
Final
yellow
tightly
theme
LOAD
synonyms
savepoint
##Tahoma
incorporate
measuring
CAM
Hash
irrespective
##MQCONN
tiles
##ICT
##Item
SEQ
MQGet
cubes
insights
agreed
Martin
multibyte
TNT
Museum
recursive
Parent
##url
FLOW
reviewed
Standards
banking
Edge
##wbi
finishes
portlet
##Help
sec
versa
##Identifier
Condition
ideas
breaks
theorem
CUBRID
##item
CipherSpecs
OPS
frequent
##NUMBER
examining
TCO
CFLEVEL
semaphore
principals
ifyou
youhave
OSS
##MA
Traffic
##Self
##identi
AMS
ConnectionConsumer
Mary
Theory
##DAY
##rw
shares
##Cross
injected
Things
##sbin
Based
##Domain
succeeded
viewer
ONLY
##component
dollar
aparticular
uniform
##Qmgr
Transactional
DES
cartridge
##Louis
##Subsequent
federate
IDS
thatis
subscribes
jdbc
predict
##Health
##Path
enumeration
IR
subtask
science
QALIAS
Ports
##virtual
##DateTime
##temp
Third
##Implementing
computation
thecorresponding
comprise
tmadmin
proc
MDX
##send
weeks
examined
Ubuntu
candidate
QmgrName
##IO
AF
STX
GP
##Henry
canuse
increasingly
PI
XHR
Topics
##Likewise
##Trust
served
scanned
perspectives
Providers
##Workbench
Jean
todetermine
confidence
markup
##emp
##keyword
Programmer
dispatchers
MQRR
empno
EXO
VVVF
workloads
Staff
Fast
estimates
SSE
truststore
Trust
Extensions
Deep
##Reports
##remove
ROM
closer
LS
toa
OID
##screen
##COMMIT
Royal
Lombardi
HCONN
Hotel
facilitates
avoided
##import
perceived
##Specifically
submitting
proceeding
##Excel
##Feel
simultaneous
permanently
Survey
evaluating
monthly
LOCAL
worry
##cl
##Logging
assurance
Canada
ce
Sherlock
Army
bw
Agency
oduct
LC
reflected
goods
##LIBRARY
somewhere
CRLs
serviceability
##SKT
BB
exam
Commands
Changing
transactionality
Creates
similarity
Convert
datastore
StrucLength
circle
##Recall
Richard
microprocessor
NS
bookmark
CPF
Allocate
love
MQAX
MPGW
Joseph
computed
##logging
Networks
##Little
CDN
equally
panes
Telnet
dummy
acquisition
##COMMAND
##CTX
cycles
##Rules
trouble
KC
ADHD
MQCFSL
Away
Audio
FreeBSD
GSM
##Indicateswhether
##IOC
async
##FORMAT
##Never
##ISP
##Migrate
##xxx
strict
Initiation
iPhone
demonstration
##Determines
March
invoker
intuitive
XX
##boolean
SALES
FX
STS
MBA
MGM
##Cache
##IIB
##Man
##TMS
##Physical
Chain
Simulation
##Down
##Manage
Too
##ELEMENT
Have
LDIF
##LOCAL
##CLASS
Branch
expectations
##Initialize
##Related
transit
##Policy
SVG
Monitors
##sort
##detail
Since
Stage
Sea
allocating
##Should
Most
##AC
ED
Sciences
CBE
##NHK
equation
drawn
##Smart
##Binary
##Development
theinformation
advised
differing
adopt
disconnects
flavors
##scale
EXCEPTION
joining
opposite
quit
notion
QName
Mind
##Phase
water
Jones
MQTMC
pen
El
assessment
deselect
Connecting
##RLY
hands
##AA
Hive
##SESSION
grows
border
SFR
##POST
Why
quarter
Money
shard
Just
Berkeley
MG
VfL
archives
Screen
clicked
cancelled
Letter
##Home
##Deleting
encapsulated
Models
constrained
Metadata
##Primary
##AND
students
KAIST
GPKI
autonomous
reopen
lob
Or
##FA
##VCL
##Asynchronous
##Instance
##Parallel
player
threats
##TRUNCATED
##Identity
redirected
GUID
German
Lightweight
CTX
AVG
JUnit
encapsulate
Interchange
Analytical
Energy
vectors
QREMOTE
Subclause
Grand
##Thefollowing
gathering
##Various
##BME
##Sending
Certification
HTTPReply
Mozilla
SCADA
owning
transmissions
SCHEMA
messageflow
experts
plugins
timeframe
##Zero
tile
##Safe
expands
##MQBYTE
LEN
##Mark
EV
negotiated
##SF
BSC
Callback
XSQL
ogram
ocedur
divide
markers
##JOB
##ST
Conditions
##social
mqsichangeproperties
realm
validating
fork
similarly
##disable
USE
##NOTI
##Programmable
##STOP
##many
MQCXP
ssh
SBCS
attributed
Early
Motif
oker
restoring
##mqsi
MMS
Consortium
##master
##display
Fact
semi
desirable
##DBPut
former
Reserved
##Assuming
MQSCO
##sub
##USD
GroupId
##RC
##NBA
Film
IUCN
##Large
XI
apart
readme
Compare
continuation
##Programming
##processing
talking
readers
carries
##Simply
printf
occupies
dept
##MVS
##SALARY
HS
copybook
##NE
curr
ongoing
##ER
##GL
##Drill
timely
Accept
disconnecting
manipulated
attacker
ML
Director
pretty
Rich
##Communication
BIOS
##Solaris
Continue
thetable
extensible
sorts
buf
chained
##SOURCE
##partitioned
Al
Gold
##AFC
Got
TimeoutNotification
safety
##project
considers
Stack
transports
##INSTALL
Specifying
Invoice
##Stored
Federal
customizations
Argument
loosely
successive
##Sender
attachments
SUSE
Assign
survey
annotation
##negative
##SUCCESS
Sky
ess
UUCP
Peace
Blues
timeouts
##Temp
Owner
##qualified
Member
Dashlets
##Prepare
##IDC
PA
POWER
Limit
ciphers
indefinitely
##Repository
DECIMAL
helping
disadvantage
associations
##Ex
##Pre
##SCA
orthe
arenot
Alice
##left
crypto
##People
ee
SLBM
DISK
consolidation
##SC
##Checking
theWebSphere
yields
considerable
mqsistop
unexpectedly
delta
proceeds
##Stopping
##CP
faults
proof
##desc
##retry
arising
##sample
ebXML
transparency
##Central
FF
Washington
##tpalloc
ormore
##TRANS
stdout
cron
##Will
##Attachment
transmitterChannel
namelists
watch
uploaded
##Schema
gray
Nov
bIsEncrypt
Navigation
AnyLink
##profiles
##Hot
Rename
Ajax
narrow
subroutine
##CLI
##Putting
##MASTER
##Store
Problems
##UDP
##Case
DeNA
latch
POSCO
equates
leak
Vendor
routers
##END
whitespace
PostgreSQL
hover
warehouses
VCAEUE
numbered
HEAD
##add
##Print
BUFFER
Qt
differentiate
methodology
shopping
GPP
booted
##title
WHEN
##Messaging
Layers
##thread
##DETAIL
acknowledgment
protects
##Retrieve
##Files
##kill
resize
##Reissue
DX
TRPTYPE
Nations
Songs
bottleneck
rolls
Historical
overlap
art
##Whichever
##PGM
Javadoc
RPA
willbe
swapping
Markup
POOL
conceptual
Years
sentence
Course
SFP
##TRACE
malloc
##Hello
Inventory
##Korean
##Completion
##MQe
obj
##DMB
van
ICC
BFILES
AmazonS
Arena
##Die
##CoV
notices
##WBS
##centric
##Channels
##Grant
##ABC
foo
##durable
Dual
##LEN
INOUT
synthetic
##Environment
PV
##bytes
##lived
continually
subclasses
##condition
SHOW
##SELECTOR
MQTopic
disaster
Robin
##DEBUG
tagging
WTX
disparate
##options
html
arranged
##Commands
artifact
##Functions
supposed
##VMware
frst
layered
Alpha
music
DIRECTORY
##Backup
slice
CSQJ
NameValueData
##IV
school
##LGCNS
Intermediate
##Gartner
innovation
initiatives
diverse
##Customize
QMNAME
Sendmail
funds
securing
Exceptions
topologies
##REM
margin
symptoms
UX
terminator
unset
thesource
##Methods
spelling
##DMI
##Block
Henry
COMPLETION
restores
NORMAL
thinking
Exerciser
extraction
closest
abends
##INTEGER
LENGTH
##are
Need
Medical
##echo
assumptions
queueName
rarely
##fail
unstructured
resemble
authors
overflow
Ver
Voice
WORK
STDL
OCIErrorGet
BL
investments
##Administrators
executables
IETF
paid
##Authorization
##Result
##Answer
Sending
backlog
##Old
Land
Unknown
Mgmt
Louis
assess
##Doing
##Tag
##Dead
##common
welcome
MQJMS
dispatch
##Scroll
EXTERNAL
##SVR
Optim
##APPL
Roles
workaround
solving
##Alter
band
handy
##RDBMS
Rows
Wild
##MC
##FONT
##Month
##CONNECT
##Must
negotiation
MQCB
mixture
##Enables
withdrawal
PARSE
##literal
stability
associating
Envelope
recommendation
ver
Numeric
infinite
constantly
eliminating
##Great
closure
preprocessor
decremented
BK
RAR
FAILED
ObjectQMgrName
##King
Championship
LOVE
##Edward
Beatles
##ITEM
##content
Small
industries
##Verifying
saying
crucial
preventing
PRIMARY
Duplicate
JVMs
Invocation
constitute
KIS
touch
##Super
Oct
##rcv
##MQHBAG
##Karl
diagnosing
##Developer
##Nothing
delegate
highlighting
##Assign
whichever
Include
##Effective
expert
##depth
Feature
Follow
shortcuts
EX
modular
verbose
summation
Fall
##Usher
French
Alliance
Approval
CCDT
##CRYPTO
SPIRIT
wasexecuted
Heaven
##cache
manipulating
bugs
VB
MsgDesc
usr
theprocess
Defining
Mining
tailored
Maps
visually
varray
submits
##Ability
Loan
##Reduce
didn
flight
unaffected
begun
acknowledgement
He
subtasks
MQDH
MQCTL
dvoid
Queen
##Les
Does
##DRM
contracts
flowing
##runmqsc
##DR
##INTERVAL
##Naming
unattended
Subscriptions
EVENT
ExceptionList
Declare
JK
assemble
##Hardware
bars
##References
Signed
Compression
JTS
Short
##Low
eliminated
thebroker
makefile
##FIXED
##wait
Minimum
transforming
##Android
##HEAD
##ANY
CipherSuite
Study
##Agentless
##Distiller
GNOME
##TEL
##Saint
avalue
URIs
cold
Expiry
kit
mathematical
WMQI
additions
##Element
blog
checksums
caret
prime
##House
anew
positional
transparently
##Similar
ESXi
employ
##Alias
XL
##black
MOJIN
LPG
BGM
##Waiting
##lled
recovering
JOIN
Duration
deeper
rolling
COMMAND
##NEXT
##enterprise
##Retry
periodic
adhere
##Initial
wrapping
bigger
uuid
rounded
placeholder
traffc
integrations
LinkGet
Into
associatedwith
tied
retrying
##aware
sizing
Bob
getter
##first
Customers
DEC
ECB
titled
##DEST
corr
##NHL
adifferent
CACHE
slots
##PCF
##ENABLED
Msiexec
##Private
distinction
Choice
mounting
unusable
embedding
District
DE
##BYTE
ExitResponse
Synchronization
thevalues
##RESUME
Clause
PVU
TransactionListener
MQMON
Rain
conf
Fabric
consistently
adjusted
MEMORY
##PurePath
theerror
##Increase
##LANG
##UN
populates
##URI
bitwise
PPP
FIX
truly
yield
Learning
##Avoid
##Metadata
annual
vulnerabilities
mass
lots
##env
Monday
le
Season
ILE
##VCAEUE
Symphony
muscle
submap
DSM
vMA
Champions
##Transactions
suggests
##KIC
##Summary
##Everything
broader
TEXT
increment
Perform
JServer
Troubleshooting
SVN
DSP
##eSQUARE
##Handle
pCompCode
Alerts
culture
canonical
booting
subtotals
##endian
Am
Studies
WOLFSSL
JTWC
TBN
Username
unlock
CAD
SupportPacs
whichthe
wrote
FAQ
accidentally
##SPACE
greatest
##network
Prompt
APAR
##management
inhibit
Namespace
##Force
SubName
Our
Middle
youare
##WPS
Toys
AggregateControl
subprograms
Say
NK
##Moreover
##Library
leverages
inwhich
##BACKUP
COLUMN
GA
##Normal
Enabling
STEPLIB
##Developing
sides
house
##SVC
actively
##formed
virus
##Too
Cycle
Concert
DPM
Counter
Hashtable
col
ResultSet
Economic
DF
rfh
OCSP
notifiable
##Grand
##mph
##ARCHIVE
##separator
depicted
BAM
##exits
variants
##Side
environmental
newsgroups
##Moving
buffered
retried
heart
Connected
mechanical
##terminated
gone
timers
Defines
Workspace
##Apple
Mar
Magazine
Spreadsheet
##TDS
amqsput
Come
addev
##ml
syndrome
ZARD
VfB
expanding
caution
quiesced
##TRST
##Modifying
Pentium
BIE
##Eclipse
##Null
##XXX
EMS
SystemOut
Done
NTP
assembled
instant
Tech
##Lists
eye
Strings
Same
Procedures
budget
Williams
QuickTime
Johnson
##PART
pragma
##ROSE
##Pierre
SLR
##GID
suites
collaborative
EQ
resultant
consumes
##Validate
Mount
CSI
Assembler
encode
needto
##Conversion
CW
Background
##DBGet
##Life
fatal
insertion
TXSeries
equality
ATMI
seeing
##Calling
professional
ADAPTERDETAIL
Publisher
photo
##Notes
##DFT
##SHB
NADH
normalized
conducted
##CURRENT
Try
ext
landing
accelerate
##cluster
SWIFT
MANAGER
isdisplayed
DOMAIN
Activation
networked
brands
MY
##Understanding
ship
Interactive
Wi
##Child
mysql
Facebook
Forward
##Transport
sothat
DataCenter
Constraint
##Addressing
##ALLOWED
diff
##store
##Martin
PDP
ManagedConnection
##JMSException
ADSDL
Tu
##nbsp
##Sir
derive
PARALLEL
##TIMEOUT
##RMAN
##NFS
Forrester
##MQOPEN
Postfix
ADAPTER
##TTL
consecutive
##Procedure
looping
Forecast
TC
revised
##samples
CES
EULA
NON
MQMT
duplicates
Expert
MQEVO
##WAN
Maria
fprintf
passwd
##BM
subprocess
Tru
Children
rating
LT
##CARRAY
JPublisher
##Pointer
##Royal
##Johann
epositories
Lady
##Synchronous
auser
effectiveness
abbreviations
##Win
##MRM
Analyst
disabling
liability
##SYNC
##snd
August
Packs
Uninstall
seamless
UTP
Identify
coverage
Sensors
survive
stdv
##OUTFILENAME
##Numeric
##AT
EISs
##span
USL
Bell
PARTITION
ISU
ESPN
VHS
competitors
Sharing
Mbps
wantto
Links
mqsichangebroker
sysplex
neighbor
##Subject
##integer
dest
##EDI
jsp
purged
governing
UNION
ASN
correlated
acknowledge
MRI
##Tools
receiverChannel
##safe
Comments
##Implement
##Developers
spool
corruption
filling
Regular
##Until
Python
CRUD
PSID
TASK
MASTER
##Freeform
SECTION
pInputText
AIDS
constructing
minimizes
appearing
intact
asa
sell
##Resolve
elevated
OI
Stopping
##mea
##Cognos
##Describe
datafiles
accepting
theconfiguration
##configuration
##Features
fte
NTT
##storage
Signature
##MAP
havebeen
##compatible
clip
provisioning
portlets
LE
PCB
##Jan
rowids
Eyes
wholesaler
rare
##MONTH
markets
clarity
complementary
Injection
Gbps
structural
##replace
authenticates
knowing
exposes
##Size
DAY
examines
deck
HPV
##Region
##MESSAGE
him
Partners
writers
guard
Hospital
TCB
Edward
LCK
thesaurus
ITV
UCLA
##forward
##blocking
##NORMAL
##ProFrame
Federated
Extract
##known
absent
regulations
##red
JavaServer
##used
##TA
perfect
##SVI
nm
win
agrees
##stream
telling
tail
##blank
visualize
mart
anyway
##complete
configur
conduct
Controls
declarative
Valley
Warp
Train
unusual
summarize
strength
mqs
MTECC
ReplyToQMgr
##Submit
##volume
Ring
##Extended
TTAS
hook
dictates
rm
merging
treatment
##able
solved
investigation
GetFormError
thefile
nine
Snapshots
Marketing
DateTime
moderate
##APPC
##Accounting
gains
introducing
DISTINCT
chmod
filesets
##Plan
holder
nonexclusive
beneath
suppress
subsidiaries
##Diagnostic
APEC
Care
userName
ascending
instantiate
ILinkGet
##ADD
malicious
mqcc
mirroring
badge
##NASA
ATC
Maximo
InputTextSize
trunk
##Pop
Listsall
##Lob
cumulativecollection
DISABLED
##Complex
NEC
Synthetic
##dc
##debug
##SNS
losing
PASSWORD
##STREAM
##ibm
discretion
scratch
behaviors
instruct
##OCI
mediations
##cell
XC
PCR
TFT
##REST
chanserv
##generic
stays
##IIOP
ruleset
Than
##progress
OUI
Blood
PR
MQSD
Trusted
##DISABLED
resolver
Translation
customizer
##Al
##STER
##Timeout
##Prior
recursively
TPM
Outlook
Practice
##Execution
##Regardless
RouteToLabel
kilobytes
overcome
##vs
##map
Audit
##Specific
backwards
syntactic
During
indeed
Mission
purchasing
Works
##Caution
witha
README
exchanging
Has
exhausted
unrelated
##Resources
adatabase
began
##GC
translations
##IDENTITY
##swap
Liberty
iptables
##Daniel
toperform
aborted
analytical
##image
##Develop
toanother
inyour
Restore
batches
##Successful
##TEMP
April
GHz
KST
PMI
appending
fetches
##IMPORTANT
##sion
VI
NX
NE
MQOP
##ctx
CAE
##VALID
algebraic
##DJ
billing
Locking
Leader
##Has
competition
ITU
stress
##Formore
##Links
fulfill
##min
MODULE
fractional
##YYYYMMDD
##Patterns
##BEA
transacted
enqueued
Garbage
theservice
byusing
instantiation
Ready
##TRUE
CSQC
PE
Wiley
QS
TT
##SUI
##SQLJ
TOUR
##PRIORITY
##CAPRI
##Shift
apparent
affinity
Certificates
preferable
dramatically
numerical
TPCALL
deadlock
weekly
##PW
prefixes
certainly
Describes
manageprofiles
##CAUTION
XSS
Supplier
##PAR
HashMap
avoiding
orientation
##CONNECTION
Electronic
realized
##word
CommBuff
PGA
TG
arg
calendars
Pop
##RESPONSE
Inter
##Runner
casting
awareness
##PCB
Bay
Comparison
##policy
##scope
Delimiter
contiguous
VAR
beside
expense
##Choosing
BServ
SQLstatements
##Scenario
MQAIR
manufacturing
Registration
Spark
requesters
draft
referential
MMORPG
notvalid
DOHC
IDOLM
##READ
trip
Flat
JBoss
evolve
##CLIENT
##Uses
CTS
EVAL
Nested
##Welcome
##DO
Append
##INTF
instrument
##Neither
##dest
enablement
MQFB
MQCSP
##Availability
##Hadoop
theother
assertion
codeset
Xml
DOC
bookmarks
Movie
Republic
Preview
JEE
MQINQMP
ImqObject
INITL
Digitide
thecluster
Galaxy
QMB
##amz
AESA
therapy
##BLOCK
UPS
deny
##Static
USERID
Pacific
LLC
constructors
replicate
##AM
designate
wall
magic
##TASK
##Inbound
##CS
carrier
Unified
Face
emitted
Netezza
Tpipe
Forever
Emacs
Electric
SASL
##DataOffset
compCode
##Christian
Beautiful
SYSDBA
CHSTATUS
DP
Qmanager
oneof
mqsistart
downloads
participation
##RFID
##Outbound
##DQ
##SMTP
threat
##ments
consequences
hope
ObjectType
##using
Echo
Subcategory
speeds
VGA
RISC
##GM
LINE
XHTML
unconverted
NonXA
KN
Les
formerly
Normal
Netscape
Bindings
zSeries
Sources
serialize
##Root
##CORBA
subroutines
OPTIONS
##DataPower
##ect
symptom
##Displaying
Aug
analyzes
preconfigured
Recording
##Generic
pthread
##MQRFH
population
##information
MQCFST
joint
WBC
##Marie
PAOK
andthen
THREAD
leaders
interoperate
##Bind
##Adaptor
Ack
NODE
TF
instructor
DBLink
applets
weak
Channels
##Handling
Declaration
##Device
NIST
##Green
pressure
favorite
builder
Defined
thedirectory
##cally
##TERM
##seq
fired
CIDR
led
splits
workflows
SDL
rear
Palette
OC
MR
qualifications
TORONTO
##UTC
trans
##MocoCrypto
Joe
Van
MQEnvironment
##ini
Many
Visits
revocation
Blueprint
basics
ENVFILE
INCLUDE
polls
Ship
JBI
allof
##example
frees
passive
sector
KR
Libraries
Placement
donot
ENABLE
Specified
imposed
FOUND
REASON
ADSD
MQMF
##pm
IDOC
WMLScript
Gradle
indextype
##Purges
##Hans
DataBase
Quadrant
res
IPL
exceptional
rebuilt
##JNDI
CONTROL
mqsisetdbparms
subnet
##workspace
xxx
ODS
Synchronous
##LQ
##console
appends
Was
##BFH
walk
CV
conformance
##account
ddname
##relational
AIM
eth
XD
##MW
Cyrus
BJ
smooth
MINU
##Invoke
mid
sold
wider
advisable
Valid
participates
unrecoverable
loopback
Rank
existed
XXX
deemed
Lifecycle
regulatory
unde
redirects
DEF
overriding
slider
##partition
##res
areport
dimensional
Trade
PCs
CVU
updatable
Transfers
Us
tRFC
##CIDR
returnCode
Taylor
JAPAN
Dr
CGV
AirPort
Railway
Lord
GSL
Peak
refreshes
CLIENT
##archive
fictitious
##Third
##month
##qmgr
Built
##generation
cookies
Without
CDC
##AR
Tracing
resumes
##According
fly
OSGi
happy
##May
loose
##SSD
ptr
##template
LEDs
Sport
##NAMELIST
IDocs
WebGUI
AMSD
microseconds
elease
##Crocidura
reveal
originate
veri
##ROLLBACK
emphasis
USD
MQBYTE
##main
##Increasing
##TAG
##Publications
interconnected
England
##SLA
##True
##stderr
medical
##YYYY
CSP
toaccess
##Throughout
RemoteQMgrName
iKeyman
##called
argv
notifies
wher
placeholders
PAGE
##Highway
##Mount
ds
##internal
Il
Filtering
initiators
descending
ADDRESS
##BIN
govern
told
##LEVEL
augmented
Every
##speed
NFC
Daily
PG
##Workflow
##AREA
##Conversely
shouldn
MQCBO
CMOS
##buf
PAYROLL
REPOS
JavaBean
##Mon
WCF
##TE
MyBatis
MK
Medicine
IRA
FIBA
preserves
restricts
ccsid
dialogs
imposes
relay
classified
##TIMESTAMP
svc
binaries
programmatically
MVC
OLED
##peer
Trading
datagrams
Foreign
##DOC
latitude
##COMPLETE
Morning
DRBG
##TYS
GDI
ements
SARS
##Carl
Critical
STORAGE
accessibility
agreements
selling
Apps
##parent
utilized
education
usedto
exec
##Disconnect
##Servlet
PLC
##interval
Factor
evolution
crashes
##Think
ILinkServer
DSS
##Social
relations
##CM
xx
Francisco
Copies
##Dashboard
bidirectional
FILENAME
iPad
Garden
Century
thecumulative
##MINUTE
regional
fastpath
MQSI
Principal
ServiceUserID
##child
##Native
Period
SMB
alteration
demarcation
##certified
##Pattern
##offset
Undo
extracting
##per
MsgFlags
Highway
AppScan
TimeoutControl
Duke
SRT
adpater
Prize
degradation
##there
coordinating
##WebService
EMC
##Framework
bundles
downtime
backbone
##ILinkGet
ACF
##LL
prove
locales
toggle
##handling
predicates
TCPIP
YOUR
profiling
Four
incrementally
mistake
##Capture
##readable
BATCH
Provisioning
Thing
HEADER
##ssl
dc
##Tags
##JSON
##FK
Dataset
PLAN
TODO
crontab
Secondary
##band
CertStore
##sharinggroup
##Applicable
ecovery
Hell
##Office
##TX
capital
Concurrent
SPI
##Deploying
##Components
HACMP
ALPHA
Greatest
vital
audience
df
detecting
SDKs
chunks
##availability
Amount
Networking
References
QMODEL
##GPP
Received
Compiler
##SA
##LOGP
paragraphs
##STATS
##AU
##IMF
VII
Executable
RR
##ActiveGate
Beach
Br
operty
dirty
##Fast
##ACL
Track
httpd
consequence
##recent
##hostname
comparable
Materials
##alias
epoch
LANGUAGE
zeros
DA
evidence
##Receiver
limiting
Pharos
ssl
plays
totals
performer
excess
Esc
MFA
Capacity
Original
##Hey
##South
Rentals
CCD
Papa
WCW
explaining
UNIT
##Subversion
innovative
linkage
signs
achieving
Databases
##flag
##SCM
##Analysis
ABS
setter
Construction
LinkPut
interests
##Portal
TIBCO
ch
Although
pressed
##amt
Font
##CORE
lit
##primary
CKQC
##Subsystem
WTO
PSM
MQMFT
IBMsupport
Formatter
labelled
##SDO
##Finish
Delay
readability
Developing
gallery
##ROOT
##Technical
separates
Definitions
##txt
ETF
subsets
FAR
underneath
themaximum
cope
deregistered
SOURCE
Opera
SEGMENT
Hz
Dec
SAT
glass
Nature
Pricing
PREPARE
##GNU
cc
NCHAR
Speedy
loadjava
RB
cart
Inspection
Comment
Allow
onyour
##Updates
Attach
##Shut
Permissions
tolerance
Northeast
hang
surrounding
ELSE
XOR
Modern
##RPM
##JDK
POD
##Tab
pushes
RETRY
Week
##filename
pie
withinthe
MsgFlow
Lost
VP
##Mr
stroke
ofthese
ActionUPDATE
##Average
##Quality
optimizing
validator
##FTA
theremote
Gen
collectively
##Cisco
HQ
renaming
Communicator
##Four
deregister
theyare
candidates
Extender
Nothing
FTPS
Seoul
mailing
EXIT
Quickstart
##USA
mature
Insufficient
TGT
PUBLISH
HPUX
##ATP
His
Ju
KBL
thelocal
InterfaceID
HSM
##full
##schema
RDB
STEP
SSLCIPH
megabytes
ref
manipulates
Remember
skips
discrete
dropdown
RESPONSE
reviewing
LRU
##AN
##TRANSACTION
##North
inherent
went
Blank
Jeus
##His
el
##Subscriptions
##statement
PT
Culture
warehousing
##Oh
selectivity
SSP
uctur
Orchestra
##mapframe
gecko
costly
suspect
UnitFlow
CRAB
geographic
Relationships
##Operations
thathave
Between
LIBPATH
CSR
checklist
##Allocate
Excellence
regarded
counting
Effect
seamlessly
agility
official
dangerous
##Operating
bundled
Materialized
Receiving
Grant
editable
##ETL
slowly
whenyou
Filters
##names
pm
##part
ofwork
Doctor
ITS
##BSD
MQMO
MQIND
Hand
Fe
HFS
NCLOB
Islands
operties
Lonely
##remote
distributes
##Making
##DFD
tray
wishes
occasionally
tailor
JEUSMain
Boot
OutputRoot
##Year
spans
comfortable
Books
##IIP
prices
Queues
##MQJMS
ComponentData
Assurance
##Min
hides
##addr
invisible
theoperation
decomposition
randomly
FS
Tower
ARP
RecsPresent
MQSTAT
##Obviously
Cat
GCC
Movement
GTK
VARRAY
VIA
Prince
##high
SYNC
Itanium
##Refresh
##DTTM
##Launch
escaped
uid
##DOMAIN
wrapped
allowable
decreases
locating
CONNECTION
##ATTR
BETA
lies
##BATCH
##HR
Today
Calls
MSSQL
largely
##disk
IEC
PCIe
Sheet
##Lab
theinterval
selectively
##MQAXC
thefirst
thereport
RCVR
callable
personalization
##FIELD
speech
EMPNO
IPV
Palm
##NATO
Revolution
WINNT
##intensive
##Push
##Initially
outage
##they
##Release
DevOps
engagement
authenticating
war
Assist
##Variables
opaque
##Fix
##Actions
IOP
logins
##Transactional
offsets
##EXPLANATION
executive
Sunday
Onepass
SRMERP
##Priority
JDKs
Devil
CDMA
MQSession
shards
KF
##Arthur
SAO
Stars
##BAFTA
SIM
##VITRIA
experiment
##do
launchpad
signer
redefine
theoriginal
Subscribe
##Extract
##join
##BEGIN
##Unicode
##CCSID
##ONE
##IFRS
Empty
##refresh
FLAG
##rm
##Importing
##Looking
Pointer
##dynamic
##BEFORE
##pass
signifies
WARN
Privileges
##PER
PACKAGE
sp
Fill
unsolicited
SYNONYM
##ONL
plaintext
Copied
##Found
##NAM
Asian
TGV
Theological
##PRODUCE
pin
runner
HBA
tight
consulting
##tcp
##Hub
DBPut
Behavior
JP
shuts
subtypes
ATTACH
YEAR
##Troubleshooting
##Solution
stuck
refine
Phone
Stone
##characters
Escape
Criteria
##api
suppressed
ATTR
##face
Could
Sold
##TPM
flash
##BR
ISA
agency
##GE
##js
AE
Scott
##PCR
Ptr
Dreams
ThinQ
Born
##Mary
##CLX
##kV
HIGH
Labs
Popup
##UUID
Draft
employed
weighting
##Small
##QIBM
Functional
forinformation
enforcement
##bar
##prefix
##Contents
Blocking
UNKNOWN
WHILE
assumption
inherently
BLOBs
Prefix
mea
night
renegotiated
MQXCC
ConnectionName
APT
thenext
truncate
##Structure
bringing
##program
behavioral
allied
cords
Los
BSDSs
##LETTER
CLOBs
ior
BEST
##West
ActivityCoordinator
##Come
CMYK
##EP
WebtConnection
##Jack
evious
yourapplication
computes
##Well
coexistence
recreated
sequencing
cloned
##option
##Triggering
##Bit
substring
Desk
##drop
promotion
##Bus
##Opening
ING
##cfg
Reverse
ARS
DQMS
##ray
leveraging
subjects
allthe
Mountain
aggregates
##Console
goto
Leak
Friday
plane
LOCK
##LED
Linear
advertised
ChannelType
deptno
ALE
##dp
SCCS
FN
##sexecution
rental
##rhel
FDP
##Friedrich
##LOVE
SBB
Installed
##real
##UCS
recv
Partial
##Ask
neighboring
Tape
complement
subfields
##Profile
cmd
##demand
##TEXT
##DMZ
se
Split
spending
OUTFILENAME
Inside
Innovation
bodies
cURL
Bill
arrange
##Exec
Zoom
##Left
##QUIESCE
businessobject
collaborate
sur
disease
MQCHARV
##queuing
ProFrame
stylesheets
TEMPORARY
timezone
Fan
##Music
BLS
Simon
CRS
WK
fect
onwhich
Aggregate
##pool
ENABLED
manifest
inconsistencies
impacted
##Persistence
##flight
PDS
##Gomez
##Logic
##values
Renewal
VisualAge
notbe
independence
##classes
##top
##login
declaring
violate
##last
##be
##WESB
##post
Bandwidth
##IBK
##svc
dial
overlapping
protecting
##INFILENAME
Constraints
Lite
##Shows
##sys
##HIGH
##dt
manageable
getConnection
##purpose
er
LSI
DoS
improper
bend
COD
gcc
therequest
emote
forcing
##Lock
##Applying
Logger
##other
##Proxy
##PQSG
##QUERY
sFTP
WebAdmin
reconfigure
mention
logos
ENTER
##Detailed
augmenting
##Ctrl
##Tier
##facility
Utilities
##operation
Continuous
violated
edits
todisplay
Calling
Found
instanceof
##Temporary
##TOP
##Still
CNT
##Samsung
##Bill
INI
DUT
pCipherText
Ferror
##Walter
Men
Sweet
##cognitive
##REMOTE
BRMS
EAL
##machine
##deferred
infrastructures
##Very
params
unacceptable
UMS
##Previous
Commercial
##ACCEPT
comprised
theenvironment
dislike
LEVEL
pid
##MOS
Different
##GW
cpu
Analyze
claimed
##Alt
##Among
##sw
Cities
Wave
##AQ
##cates
##CLUSRCVR
##Distribution
Independent
releasing
PNG
ant
SAPGUI
HDMI
Discovering
##Decision
FPS
SEC
##decimal
##CMS
intermediary
##CSQO
##DEPTH
motion
Closing
##DP
grayscale
ICE
IDENTIFIED
RESTRICT
polygon
Alexander
Kiss
##RM
anymore
Transparency
responsive
nil
Banking
flowed
Paste
ambiguous
##Stream
MOS
toconnect
inconsistency
unresolved
triangle
payments
reliably
PROTOCOL
##LCD
proactively
##iOS
rewritten
ICF
Webstart
leaks
Badge
PER
##spool
MPP
precedes
##Connections
CVT
strlen
willing
affinities
Silver
basically
##BACKOUT
ENAME
scott
Jackson
##Asia
SMDS
MIDI
NADPH
##files
dbm
##LIB
layouts
Defense
Hands
runmqlsr
Putting
persistently
UCC
staging
recurring
reserves
players
##Fetch
##Account
##range
Visualization
Locate
##Providing
DRAM
rise
Lake
Jack
hello
##existing
Marie
IOR
##Adds
##Calls
##Listener
Accounting
purely
##FORCE
youshould
DOWN
They
Selecting
Caching
ground
alters
##release
DECODE
ha
album
geometries
Mi
Panda
Friends
CSKA
EFL
##AnyLink
##Gentran
TmaxSoft
BE
LINUX
IFM
Speed
professionals
ancestor
hear
isrunning
VOD
actionable
microflow
php
##Oriented
##Imagine
##ILinkPut
substantial
Court
programmable
uniqueness
##Perhaps
stderr
reaching
Cassandra
Kind
Ping
##MAC
ODL
InterChange
nameof
Packed
alphabet
Jun
##Inside
RESOLVE
sendlen
TUXCONFIG
EM
ExitContext
VMFS
Kids
checkpoints
##Media
XQ
Bit
##Initialization
abbreviated
NTFS
enforces
compromise
##London
octets
nesting
FileInput
optical
ROLE
grammar
##Bob
##production
explorer
OP
impacts
Room
##Login
anerror
##Metric
varchar
AccountingToken
confusing
indoubt
##UOW
ZZ
realistic
IPaddress
apache
##FIPS
generalization
Square
##Align
Vision
EXPLAIN
Wind
HL
AppMon
TPRETURN
KV
Choreography
HDR
Still
Retailer
CERN
ectories
##WWE
morethan
LOOP
##location
LPAR
remedy
asterisks
stating
iterate
Hit
Manufacturing
industrial
nuclear
Allows
isrequired
MES
##Administering
selective
Reading
obviously
clears
pdf
circuit
COMMAREA
Picture
Ways
Gone
British
Brothers
DSLR
contributors
theevent
##how
##Shell
iWay
##platform
positioning
BUS
Timing
##EBCDIC
CHL
Must
separating
Through
##numeric
focusing
despite
##Processes
superclass
realization
##MQPMO
Cut
Tom
eaiap
##Viewing
approve
##spec
CSQP
##SYSP
Policies
PAL
##odg
DDT
##Maria
theOperational
##Frank
Spirit
NTV
GLOBAL
calculating
yoursystem
automates
utilizes
##Planning
##messages
intercept
Startup
thetarget
rounding
##Computer
Notify
leader
##Per
Updates
COA
drilled
##ADS
alpha
##BB
MQOT
prepares
octal
DISABLE
Exec
anobject
punctuation
coarse
##Perl
MOU
Orange
IMMEDIATE
##BUFFER
MF
Macintosh
Battle
##Section
##news
dequeued
DEPTNO
rlogin
PDU
##LA
SSR
OFC
USENET
OpenConnect
Baseball
cataloged
##WebLogic
turning
##DEPT
##IPS
equivalents
##engine
##RO
glance
##Feedback
OMVS
gave
##Major
consent
TRIM
degrees
reproduce
Growth
Car
##RAM
##Bound
##Reverse
##OF
##provided
ofyour
Extra
##Notification
##doc
Which
destructively
react
##Forms
##Aug
##Graph
##Hard
tie
charset
Snippet
##WAP
Then
mqGetBag
HOBJ
GmbH
mistakes
##Citrix
notnull
KAT
##testdata
##TOE
##MQHOBJ
GatewayScript
ECW
##RIAA
multiply
##LOCK
forecast
worst
##FATAL
enhancement
##sales
speaking
fresh
scales
##Provided
Portable
##ROMs
##us
defaulted
##Role
Mastery
purchases
##RETURN
impose
fees
deactivate
totally
##Comments
Sort
Listening
Icon
formore
readily
##rule
Webserver
Vector
exposure
##REPLY
encapsulation
##Elements
##Acrobat
Hour
Macro
##DX
##Parsing
##watch
requeue
##Narrowcast
STANDARD
AMP
##IA
CLH
##OHOME
##xid
KCC
INTYPE
ORDVideo
##mol
tickets
LOCLADDR
Friendly
iLink
canalso
Electronically
MODIFY
neighbors
fastest
##Individual
finite
zipped
installver
grids
STOPPED
WBIMB
hits
breach
##Form
##mand
Migrate
atransaction
PCFs
##Exercise
##reg
reserve
anexception
Shutdown
##Reset
ona
satisfying
responded
env
Expressions
VA
scopes
overwriting
elementary
SUSPEND
camera
##Ad
##token
MsgSeqNumber
##SEC
QL
algebra
ESA
##APG
GRB
shortage
##global
forthis
income
hr
##HW
##vtadmin
stacks
Dummy
Adaptive
##Uninstalling
remarketer
Displaying
##Fill
converter
deployable
##Administrator
pertinent
freeing
Dev
Faces
REMOTE
conflicting
##Deep
MIL
##Clustering
Allen
##CEO
depicts
allocations
REM
Capital
SQLException
##completion
compose
##Though
##Negative
##IE
##BD
Easy
MQCFIL
Walk
fo
Convention
##ClientVantage
rpc
##WebT
stor
##Baby
RTCP
Ladies
ebSphere
Wanna
IATA
Suica
##Begin
##Nevertheless
aim
##PASSWORD
Viewing
transported
##DEAD
Listen
YOU
consolidated
##Silent
RADIUS
JWS
namely
##KS
Unexpected
CLR
trips
JS
collapsed
irrelevant
dots
Tell
MQWDR
fraction
scaled
drawer
CONN
BWMAGENT
BLOCK
Latin
StringLength
encrypting
PO
LH
chroot
##medium
Xbox
dba
##East
Rhapsody
##kB
##reco
DataOffset
TraceRoute
ITSOElectronics
ectly
Fame
##Prince
##ciently
##BAPI
##AUTO
##product
##Instructions
Apdex
unlocked
tpstart
submenu
decrypted
breaking
servicing
slight
versioned
##ONLINE
phones
problematic
##will
Silent
directs
Buses
RUNNING
warrant
Associates
frontend
Tel
##MIN
instr
##Collector
SMO
##cut
##Hybrid
##FIX
defobj
guess
micro
##Category
Attack
Geography
facing
##TRIGGER
##Mediation
Stylesheet
thestatement
paged
Derived
BWF
sudo
##nic
Santa
##Alexander
mcd
Adopter
Feel
MTA
nerve
##HMS
##TBS
##NG
experiencing
affiliates
breakdown
Retail
MERP
BXML
vulnerable
APF
clones
JAAS
ear
##success
##Array
chat
netstat
##Cell
cleaned
##VR
centrally
VMWare
##ner
##SVRCONN
##Definitions
soap
pipeline
ini
##make
argc
Wrapper
Fox
cooperating
##Delimited
perfectly
longitude
edges
journals
BD
IRC
VERIFY
AUTHINFO
BOX
Cool
##DPOD
GOTO
ub
##TSF
Dog
bucketName
##KOF
theperformance
##Retrieves
themost
##PARAMETER
Assessment
##current
backplane
heartbeats
amq
ONLINE
RO
SCADAInput
coincidental
powered
exchanges
Structured
EIMS
Webservice
offices
discussing
##Modern
analyses
WebDAV
Hyper
##Checks
##without
##connected
##Establishing
##interactive
Splunk
Represents
Roman
stereotype
interrupts
disadvantages
arc
##Atlantic
##short
bay
##Stand
##CORREL
harder
BOM
CMDSERV
MQEPH
Western
showed
setjmsenv
AO
OBJ
Truth
Miss
BPOs
Kong
KBs
UV
isavailable
thenetwork
Balance
Progress
##Organizations
Attachment
extreme
##RISC
tick
theoperating
Both
trivial
entitled
launching
##cdrom
ships
snippets
undone
collapse
DBGet
geographical
Enables
thesubscription
APS
preliminary
WaitInterval
intothe
youneed
avg
hundred
Investment
interference
educational
slices
##tmax
Dave
##Serial
##Lower
##OZMQML
##ENDMQM
##php
CONTEXT
ZF
mg
NME
ensur
Fantasy
Hearts
RIAA
##ush
nothave
IaaS
natively
snap
##Window
##configured
theprogram
quicker
##createconfigurableservice
reception
ER
expressly
seed
Offline
concatenate
TIMEOUT
Multiplatforms
absolutely
##Audit
economy
marketplace
SIP
##FTE
QueueManager
##Roll
##Initiation
resynchronization
##DBIO
FixPack
statically
Keys
Images
skill
##Color
registrations
lift
Robot
serializable
##SEGMENTATION
##SDR
##COMMON
But
##encoded
##break
##begin
Bible
mesh
vulnerability
tmboot
CASCADE
##Air
POA
HK
BFILENAME
##Analyze
miss
##Loading
##LF
matters
##def
##normal
Better
##Label
theproduct
isinstalled
##depending
Disconnect
importer
Licensed
##UEM
Golden
deploys
ConnectionManager
##PCI
BOOLEAN
Break
##consuming
smit
PMR
##most
Credentials
volatile
Gets
RELEASE
playing
##Gb
Tests
##WID
vol
Guided
Hosts
pipes
MapReduce
##Defined
bounds
Regression
abbreviation
##PaaS
RTM
Soccer
USSD
##my
##RESET
ces
procurement
LAB
Hint
Journey
DDname
##Jul
printable
Wilson
sounds
tapes
compiles
##MTV
Think
DEPTH
##bucket
##POL
LSD
##Harry
##British
Na
estor
CONMEBOL
Seminary
HTV
Five
thenew
YYYYMMDD
Planet
spectrum
slowest
cities
CLUSQMGR
DQM
IVP
alongside
Gap
Smartscape
optimizes
sufficiently
MAN
Secured
ejb
locates
##year
##contained
##references
KVM
FileGet
Telelogic
thiscase
JDeveloper
Tagging
##Disable
paired
confirmed
bydefault
##MSGS
ATTRIBUTE
pub
Raised
nearest
baffle
Sony
EDW
MQCFIN
##STATE
##salary
authoring
spacing
Matching
##Prompt
characterset
##Receives
##typ
pPlainText
Freedom
##Removal
sed
##LIVE
Fly
ecor
Junction
statistic
typeof
erase
recovers
bat
communicated
Bigdata
agile
orderly
beneficial
runmqtrm
##Automatically
##Websphere
iii
Deleting
odd
siblings
##LISTENER
communities
##boot
opt
Dependency
##VALUES
fragmentation
##AFTER
LIG
NoSQL
assertions
wheel
legend
uploading
mini
##Much
##OP
##exibility
##Binding
Should
ServerGuide
##Controlling
Angeles
interoperable
Struts
qsg
Coast
##CALC
##media
AUDIT
ICAO
DllMain
incarnation
brush
wmqfte
AJ
INSTEAD
##squeue
Almanac
##Queen
LPGA
tomake
thisinformation
##BRX
JD
##inc
wmq
launches
##Identifies
##Hconn
NF
##tag
Cipher
Delta
fifth
ISS
DAO
confguration
RFCs
TextMessage
ADSI
AlternateUserId
INVALID
Governance
analogous
Hi
theagent
##Encrypt
inquires
Random
abc
##Spring
Numbers
##EB
graphically
##Records
##FILENAME
##Machine
UDPs
##help
##tpreturn
BMS
##pre
Specialist
##Bank
ALLOCATE
pivot
Li
Sept
GMCONV
GMO
##Seoul
Yellow
Happy
died
TOKYO
myqueue
ORDImage
Wilhelm
kW
wml
Her
receptor
acknowledged
KDB
Share
Paths
ESC
divisions
likelihood
PTZ
TOPIC
DDoS
##hoc
passphrase
forever
mortgage
Compile
userID
##ITA
Impact
shouldbe
FLD
federation
ANT
customizable
fulfilled
worse
ONL
##Draft
OCR
XE
producers
##model
aimed
##SECURITY
##Nov
thecorrect
tunnel
UD
Minute
Percentage
stripped
##Nested
dog
##Subscribers
MessageType
##Tom
##Radio
EarthWeb
##Partition
Officer
##SR
##zone
bounding
##total
roster
Retrieved
ImqBoolean
##Ther
della
KGC
averages
ofmessages
preferably
##hour
##Round
Switching
electronically
incorporates
Dialog
intention
Modifying
orange
Moving
confirms
alternatively
clearing
##jeus
CLNTCONN
##ent
##jsp
Tandem
Backend
usefulness
Helper
BWMAgent
KM
MQStart
PHAROS
dollars
ack
##Reading
PDE
Cases
discussions
##Unisys
charges
Signals
PutTime
Schemas
##single
##Book
Laboratory
##GERP
Turn
Era
##Young
LRSN
SNAP
##MEMBER
COMM
##NPS
MDENC
##EMC
appli
BYTES
Ann
##procedure
gradient
##JC
Believe
KGB
GHQ
Lives
##Dragon
LM
##UML
Baseline
##MQTT
Mean
Arguments
Authorities
Anti
WBRK
loadable
Purpose
gained
XMLElement
occupy
##Profiles
lie
picked
subcategory
Sell
##ASP
Gigabit
SoC
starter
##LABS
additionally
rotation
##seconds
contextual
##im
aconnection
Uniform
peripheral
rectangles
MappingNode
##Analyzing
manufacturers
CRT
Retrieval
##loaded
formatter
##UNDEFINED
substitutions
STERLING
##bits
Jane
Berlin
OSE
##getProperties
##ImqString
##Eric
Empire
RESETLOGS
vast
MANUAL
##Together
Understanding
##Ideally
Revocation
##nulldata
XYZ
towhich
PSR
computational
disconnection
BCI
##SDK
WARNING
##ATM
journaling
ISMP
nn
tpmC
val
plot
specifc
technically
##GPS
campaign
inaccessible
lineand
anti
themessages
Selenium
door
Ruby
##MTS
CONVERT
inverse
intersection
unquali
##throws
##Variable
Stateless
##SO
hypervisor
SKIP
Made
Indexes
Candidate
##MySQL
##CSQC
Together
RFM
song
uploads
MQDistributionListItem
##ppm
##TCPGW
##lb
ORDAudio
Residency
appr
PCM
RFP
##Wizard
productive
Threshold
PEM
##windows
encrypts
Threads
ora
##BL
subtract
##Convert
Mainframe
##Row
SUN
Challenge
September
##FileGet
##go
##JTA
##NMS
tax
##coupled
##realtime
##coded
corporation
##Secret
##Despite
Applet
reachable
dashed
RedHat
##Joe
TopicConnectionFactory
ZETA
UEFI
operated
EH
Alternate
TPNOTRAN
FPGA
Tester
discarding
##inetd
Own
##rcvbuf
##lsService
SOS
##RESULT
CCWARN
Mouse
Ministry
##ENTER
ISBN
localqueue
BookingServiceProxy
OZ
##Fe
PATS
ough
##MLB
transmitting
balanced
cores
##Market
carrying
MMC
Accounts
sensitivity
##uninstall
##DLL
rejects
ResetContentDescriptor
##CASE
singleton
informing
desire
navigating
TERM
CMN
Premium
Accessing
##Forinformation
theproperty
understands
Updating
##Entity
Australia
##PHAROS
SUD
Origin
adapted
millions
executives
theresponse
shapes
##functional
Determination
DTDs
INFILENAME
annotations
struc
lives
##RF
iTunes
MACHINES
PMML
##Fortunately
SDRAM
##UNKNOWN
gigabytes
##IEEE
modifier
IPX
downgrade
Angel
Universe
##Body
xterm
reasoncode
Brick
Memorial
##Wrote
NPC
KNN
lar
SSG
##GO
##Dr
Sounds
ATI
AMG
UH
VH
thetime
thisparameter
mirrored
##topic
DIS
flagged
OU
##enter
##EXT
simulated
isdefined
Deploying
railroad
dash
eclipse
##BT
SECOND
##CHARACTER
##sized
##Available
NICE
##Understand
manipulations
Expand
PW
missed
Per
repeatable
Destinations
##Entry
satis
##xes
SIB
iterative
constrain
burden
##ready
Rendering
##Offset
Flight
##build
Well
MQSUBRQ
##AUTHORIZED
tms
SAA
inappropriate
ESTAE
tpinit
Identification
SDN
##Inquire
##FILES
fsck
KG
RFMs
##CheckCallResult
##Club
ABA
##ict
requestor
serially
##lang
##License
Superdome
Driven
superseded
Evolution
laptop
##xls
unspecified
##drive
discovers
DTC
##bank
##STAT
##Could
##runtime
RollBack
MQZEP
MQACH
difficulty
XY
Streaming
disc
##change
visualized
##Especially
Realtime
Mappings
##old
Touch
forcibly
##Santa
CSQX
Beginning
TEMP
##EIS
WWW
voting
AOL
##Pacific
MQeInput
##workflow
##CONSUMER
CMID
Ca
##Fort
##Sweet
eMQ
Justice
##Treaty
Glory
WR
asdescribed
UserData
biggest
Natural
##proxy
LANG
##Sign
redefined
##Topics
NEWLOG
setmqaut
##DDL
##Partial
desk
Typical
##Receiving
SPARC
decode
derivative
DAT
casts
LOGGING
ADMIN
Friend
freeware
##making
assembling
mobility
##wsdl
Hybrid
Smarter
Acquisition
Points
cannotbe
DCOM
responder
##BY
deviation
compensate
Sysplex
aboutthe
##Image
##Via
HTS
par
Leave
cord
math
CX
NHN
RESUME
##HY
RA
Shadow
##branch
boots
Words
Reserve
##BAD
KD
Locators
Beat
pollable
kernelthread
eceiver
##Alfred
##Lord
##CSV
road
##WML
##Statement
enhances
confused
##EXECUTE
IPCS
loses
iterations
##delimited
##REPLACE
erroneous
SOCKET
lookups
##Recovering
delimit
##PG
OWNER
Africa
subtotal
fetching
##final
footprint
thatcan
##IM
Converting
##xa
CB
##mon
Instructions
accompanies
est
##filter
duringthe
##attributes
##col
clerk
multiplicity
##named
RosettaNet
##Children
tenant
##XPath
CSQU
##CodedCharSetId
##COL
replicas
territory
##IND
LGWR
dissemination
DataStage
##CHANGE
HelloWorld
Matter
MapMessage
INITIAL
##NAMES
REFs
ReasonCode
Friedrich
efer
AppleScript
Wolf
ATS
optimum
tends
NETWORK
Privacy
##CVS
##SAM
picks
TARGET
orphaned
iscreated
Importing
##APPLICATION
##auth
bypassed
MONTH
Translator
Debugger
websites
emacs
Give
##Style
billion
Winter
##Cube
##Cost
DBApply
Broadcasting
Nation
##region
##jdbc
toprovide
reservation
hiding
##REFRESH
SDR
architected
therequired
invalidate
##Steps
EventBody
##RCVR
Son
Debugging
##two
CDATA
dealt
Workplace
Lines
##UDDI
Predictor
fulfillment
Inputs
##NXACOMMON
##applid
MDMID
XAER
fteCreateTransfer
ACM
Bang
BPD
kHz
##God
SecurityPEP
cis
cvpb
##Juan
Tonight
##Sybase
yyyyMMdd
tidy
generalized
STM
##Controller
characterized
##OECD
Related
##Brokers
FileOutput
Alter
UNS
adjusting
##Items
##ISC
Steve
desktops
proactive
##Correlation
##Language
javascript
Talk
##MARK
takeover
acommand
##wise
sleeping
FAT
ExitReason
durations
csh
stacked
stamps
tuned
isreturned
##device
##req
Coding
Exercises
Initiator
intensive
##NAS
Safety
waste
##tv
##CJ
##Football
metatopics
INVENTORY
dispatching
imagine
CSQN
##issue
RJ
##Competitive
Containing
Eye
UBBCONFIG
##Dark
Ia
##Otto
IAEA
WKBL
increments
presenting
PoC
partof
faces
autorun
Automatically
Food
##LC
META
exceeding
FB
Southern
subflows
##English
exponential
banks
##Star
Orchestration
Watch
categorized
##friendly
##REPORT
combo
Insurance
##BIE
MTU
danger
##lock
Everyone
Readme
##valued
callout
pooled
aremote
PUTAUT
##MQOO
dumped
##CN
##CLUSSDR
Keeping
willnot
Suspension
##Engine
MessageConsumer
theprimary
whichis
##types
linguistic
HAVING
##Dec
UR
RED
##BINDING
##hp
DataBlade
FREE
##BSO
##rights
jeusadmin
VLANs
Daniel
##GT
aN
##Golden
##Samuel
CFA
uS
##AKB
percentages
conclusion
Scripting
inefficient
importantly
##AppServer
ll
reordering
unchecked
usedfor
subscript
myProc
exponent
Tim
afford
reusing
predictions
YouTube
friend
REPORT
Metal
##FG
ITX
##RECORD
andpassword
##al
unsubscribe
seethe
##switch
Germany
##ignore
inject
cics
notsupported
##Hold
##Columns
##menu
Coded
sup
pictures
##ple
##Center
Pixel
##Catch
ASYNC
WLI
pushing
Transit
RE
enrichment
##book
##MQCIH
XmitQName
MQPower
Pilot
offending
RW
Sam
##NORM
SAL
pOutputText
MATERIALIZED
##SD
HTC
oe
Photoshop
RTL
ConnectorRep
PCT
##KBO
Theatre
lengthy
answered
##share
asfollows
instructed
NOTICE
exposing
ITERATE
##edge
Consulting
##Includes
PF
VDI
##guring
anyother
pathnames
setto
Directives
youto
##Tool
MQXEP
MQAT
Char
##external
ACCESS
##Represents
Clean
##encoding
equivalence
##man
blend
##quality
##rate
##Workload
##ber
##CSS
##QTAT
Safari
##Feb
aliasing
TAB
##Greatest
HASH
HAS
##BServName
ISSUE
Anonymous
COTS
##ISFileSize
##ADDR
Arthur
ANALYZE
##li
immutable
##Simon
eason
Ice
MSX
##Anna
SMAP
transmits
lacks
dspmq
nonexistent
##Maintenance
eAI
##Minimum
##CONFIG
Postcards
comprising
Created
PU
ids
##Problems
badly
qualifiers
##INT
##rich
Relational
Mandatory
SSC
Payment
##Beyond
Mixed
##commerce
Miller
thecontents
RemoteException
##MQPTR
translating
Diagnosis
aswell
contributions
Da
Float
##expr
NLB
extensibility
##Relationship
GTP
##nn
India
apt
##JAX
##STORAGE
##GP
ODVER
Icecast
sectors
##Basically
reconnection
hadoop
##iRetCode
Earl
REQUIRED
nroff
remotequeue
Tripwire
personality
PEAR
Steel
##recover
ok
economic
seek
Stateful
##Email
Compatibility
coexist
thespecified
##selection
SOAPInput
rack
BETWEEN
literally
fixing
Military
Entries
Limits
toensure
##Arguments
cleanly
##CorrelId
Baker
##LAB
speak
unload
##setup
cf
MBeans
Configurations
walkthrough
animation
Mike
correctness
applica
predicted
Score
##formatted
##Declare
temperature
weather
Cold
Diego
##HCONN
MythTV
errno
Characters
##NF
Jazz
##EBS
DUP
Datatype
##Decrypt
TPFAIL
##pbszUserKey
messagedescriptor
MULTI
globaltransaction
##CDM
Yantra
kernelthreads
Albert
spanning
##even
concentrate
ODM
compete
thereof
PARM
##Exits
detach
minimizing
unix
##Setup
ensurethat
unpack
##Others
insensitive
##Systems
##NM
ofan
Coordination
##Party
partly
CTG
##POOL
engage
MPower
Initialization
Caller
##catch
Timestamp
ERR
Wallet
butthe
##PK
##matching
##Apart
thedynaTrace
PLT
theend
scrolling
ENV
##Foreign
Frank
tip
##RAC
letting
bootable
acted
##limit
##SEGMENT
Associated
WE
MONITOR
##calc
passticket
##cycle
TIFF
HDTV
haven
##Philip
curses
##CBS
IGN
abroker
PropertyGroup
Harry
QMA
SAR
oups
eady
NLL
ATV
Ball
intends
##lenames
##silent
Notice
reasonably
sourcing
Latency
##UserData
Customize
##UNIQUE
Syslog
##Tasks
##cert
Dimension
toan
invoices
RETURNS
Determines
##Integrated
REAL
Quest
##life
##KOREA
##cult
Directive
##INSTANCE
superset
##each
##Classes
checkout
Breakdown
disappear
##ITS
thestructure
localFileName
Engineer
##fast
clips
Mid
##Upsert
##JCA
ServeRAID
sink
retaining
chl
CIS
##IAM
##ICMP
ActivationSpec
classloader
MQIMPO
establishment
Answer
##layout
##Front
ZONE
abcDEF
DESCR
Novell
OTA
OpenGL
RG
##FAILURE
CoS
##Sycros
IOS
##INHIBITED
Telepath
WF
metricis
jobswere
ead
##XOM
ograms
KFC
Youth
Beast
dividing
invalidated
overwrites
FATAL
bases
Disable
CFRM
restrictive
##ACF
appeared
dictionaries
MQADMIN
ASF
BPI
##Groups
##WHEN
commerce
##Almost
fiber
##section
##Amount
##FilePut
spoke
DCRUM
##support
analyzer
Orders
AVI
thisdocument
emulation
stdin
runmqdlq
typedef
HC
theexecution
CSA
Scheduled
impacting
thelength
firm
##Architect
Uses
labs
MEA
##low
courses
Controlling
unrecognized
##Stateless
##False
##Positive
DH
Toronto
Chicago
##outbound
##TPSTART
plate
XS
DLC
Television
Gun
Mine
promise
##CONTROL
LIB
##CMN
spooled
structs
##RE
TryCatch
grantee
Circle
XM
STATCHL
Boulevard
Knight
##Albert
Copa
##DTD
Pure
##bserv
advertising
##Split
queueing
##binary
CTC
responsefile
##MSI
containsthe
usernames
legitimate
Fully
cleaning
##Lines
##report
##Validating
DataInsert
propagating
upstream
##Boolean
Everything
uninstaller
Ignore
##IRUGO
relevance
Medium
MUSIC
wiring
IPR
streamline
Segmentation
JWE
Detection
organizing
basedon
gathers
nobody
coordinators
feasible
MQXF
Economy
nolonger
##Maps
theprevious
complies
truth
train
GitHub
classic
##Scheduler
##segment
masks
Parts
##Subscriber
February
BNK
##School
Publications
Minor
simulations
Deregister
##SELECTORS
Headers
##sync
vim
groupchat
Recv
PCTFREE
Andrew
TPEV
GIOP
den
eceive
Figur
additionalinformation
ARCHIVELOG
thanthe
pwd
Deployer
copybooks
##Stopped
Checks
##ARM
PAM
forall
TPNOREPLY
shot
ultimate
subfolder
##Merge
##Employee
granular
unencrypted
supplement
##DISCARD
Waiting
toyour
shop
texts
Scan
##middle
APK
tochange
stale
##drag
##factor
TN
Explanation
gaining
##LET
AFTER
##Jun
accounted
Anylink
Dollar
##yn
DID
MQXCLWLN
Appl
initiative
SNC
##NLS
NSK
ProcessName
Living
density
jail
##EX
phrases
Sametime
Threaded
Ocean
Leveling
Ray
StrucId
Xandros
Crew
Castle
areavailable
##Archive
predictable
resynchronize
##Deletes
##Coding
JSR
##Lets
##Mode
elect
##RESOURCE
OpenShift
##timeInput
separators
SH
##subject
NMS
Slave
##can
shrink
isset
explanations
indices
##Invoking
##cloud
visitors
enum
##BP
death
queueManagerName
persons
##Signed
##Technology
fair
setuid
thatcontains
tospecify
unnecessarily
Doc
APPLICID
contacted
quotas
inadvertently
usability
Throwable
EGP
merges
##board
evolving
##leading
##FIS
Ada
havethe
uname
movies
engineers
prompting
CLUSNL
##FS
##Thanks
Borland
##argv
##UR
MQSETMP
##Anti
Comes
MDFMT
senders
EPS
##IDE
ICD
VT
##Happy
CCM
Anderson
Lewis
keepalive
Were
##Union
mph
##Brian
Pepper
##Der
NADP
SKY
##minute
##WARN
##JEONSONG
##Unique
warn
##Determining
##pattern
Unitflow
##Package
##KMS
optimizations
##Separate
numbering
everywhere
##any
Graphical
##Administrative
faulty
##Transform
cooling
YYYY
Industrial
massive
valueof
thesecond
XAResourceManager
commented
##soap
MQAXP
Feed
logfile
##meta
##Browser
confirming
##less
thousand
theproject
scores
imple
Parse
LIL
Redbook
##BS
##Federal
Loss
##Kubernetes
modelling
wraps
Swing
Acceleration
nonnull
STAR
Alone
Perfect
Partitions
wasused
serviced
Ab
shipment
Ware
PART
##precision
##inbound
##Loaded
##ImqMessage
Tokyo
setProperties
MCM
##la
servant
TAIL
##kcal
##Songs
FAD
AAC
IAAF
flush
afterthe
Ground
challenging
CORS
semaphores
strmqbrk
##Join
##MQCD
Meaning
Stores
##VAT
Developers
##Play
commandline
tostart
ASBITSTREAM
REPEAT
##bat
patient
BPR
recall
##Route
BDC
##ML
Hours
activates
violates
DISCONNECT
activating
Matrix
Frontend
HBase
##Sensor
upthe
However
anexisting
##unique
Moves
##WBI
##URM
renewal
##readfile
##Architecture
qualities
Compensation
##ASYNC
EB
FCC
emulator
definitely
##QSG
CommandScope
executeDailyBatch
CCR
##Alert
SNAplus
##PostScript
BZFlag
Der
XMLAttribute
Datatypes
CHLAUTH
Cambridge
##mqft
MQBag
##MQCA
Cry
sea
LL
WebSnap
rmid
XMLElementAttrVal
oxy
CROW
Insights
##EAM
##OR
ecosystem
##Prerequisites
Compact
MQP
distinguishes
##con
Scalability
##Container
DOCTYPE
PASSTHRU
##MOD
subtle
Lane
tap
Bug
##ONLY
##relative
Linking
##Append
Unlike
##BMT
##EXTENSION
##MES
MCU
INIT
seeking
Members
ellipsis
Supports
considerably
AMQERR
ACT
##qm
deactivation
emails
lesser
VMs
colored
differential
##pane
req
bubble
##tenant
Implementing
thebusiness
thetransfer
Floating
prevention
hierar
NAMES
dateTimes
contacting
Position
SiteMinder
##Studio
Cable
HBINT
JMSAdmin
##SIGNAL
Coach
##Terminal
ApplId
Against
groupName
bankapp
Updated
REVOKE
##Andrew
##editor
mio
BRT
Physics
Aws
Studios
AGM
SNCF
Designing
##CDC
##library
evolved
anticipate
##spoke
Needs
##Uninstall
##Tests
IPSec
##Knowing
throughthe
extrapolation
##module
##bean
##Patch
##Supports
##pid
faced
unitflow
clipboard
Javascript
##RNA
##Authority
##Death
dark
workers
Alternative
WBM
##gurations
runmqckm
MsgType
##Subsequently
##QMgrName
FD
iPaaS
atable
unmanaged
played
CRC
delegates
Writer
##MQCNO
curly
##Implementation
prebuilt
CONTENT
Cerner
##Early
DEAD
JWT
Mirror
classify
Cards
DIMMs
##Completing
##Wild
##Delivery
Initiative
reconnects
##Coupling
##SAF
##stat
Chief
wave
##COLUMN
APDU
##DestBuf
##Steve
FR
##JCo
##MQIA
associative
##PO
OSD
##KIS
NULLLiteralFill
WholesalerA
estart
CNG
Kid
cortex
##ACTIVITY
equations
becausethe
##Os
FAST
##conn
odbc
SHARE
EUC
pace
##Pick
Leading
##lpp
##Filters
##RQ
intervening
Inherit
Identifies
ampersand
##Synthetic
Executive
HostGroup
ITEM
iterates
divisor
KOA
beta
studies
Notepad
##Phone
HttpSession
##Azure
stat
##DESCRIPTION
Regulations
throwing
os
ignoring
confuse
Trailing
##Thisis
foryour
pauses
collision
stick
localized
defaultvalue
##Parse
crossing
##age
batching
##CFS
Jupyter
SHORT
advertise
DAD
##Netezza
ACID
involvement
unreliable
themes
idx
Appliances
dp
##Lee
ksh
PBS
PSG
DMC
pseudocolumn
BLACK
##NP
protein
##Nameproperty
XMLElementAttrIDVal
eating
Monster
Marshall
elvis
##Thriller
##Ernst
##Jacques
GLaDOS
exhibit
poorly
##Tuning
bya
##MY
dd
##stack
leveraged
##CTC
##visual
softcopy
INDXTYPE
##Personal
Legend
dll
##Occasionally
xsi
Credential
##deployment
thecomponent
InputRoot
unaware
SNDR
##Forrester
prioritize
groupings
checker
excludes
compromised
##Concurrent
##effective
##MIT
##MST
Trial
##EZis
##Government
##RFP
transmissionqueue
disclosed
MessageProducer
##Anne
relying
DEFTYPE
##Generates
interpreting
##CONV
employs
followingexample
atleast
ZDC
##Flash
##Country
PMC
bi
##objects
peers
Appearance
dbnode
vocabulary
datawarehouse
##pt
##FDA
##DROP
emit
MQCO
Veritas
##market
##forget
##Near
ASC
APC
viruses
errormessage
DataSet
##play
sNotice
##Chris
century
PowerPoint
Heterogeneous
Virginia
##METHOD
OM
##Zone
Congress
##Night
##War
signaling
Mother
SCNotifiable
##erent
PFC
Walker
Licenser
UHF
ECHL
##Manual
##svn
##PMS
Eligible
runmq
##SCSQPROC
##Manually
##databases
##ADAPTER
alerting
##Final
Computers
prototypes
##Substitute
STATE
##CERT
unbounded
resort
DataFlowEngine
cust
##BPR
##logical
toconfigure
scratchpad
visited
glossary
##Augmenting
##ons
webserver
##FLOW
##projects
##hash
##LP
ofall
anon
repetitive
fd
##adm
Practices
facets
##apache
##rest
accessor
thenode
##compress
simulator
deallocated
italic
prematurely
##window
Near
STD
MSC
MAY
##Relational
seq
##AL
tbESQL
WM
##BAG
APPLICATION
##RESOLVE
##FOUND
##Position
##PAYROLL
##November
transportation
magnifying
##loop
##BWMAgent
##CMDSCOPE
##RT
##Alice
##Washington
RV
##Art
WMQFTE
##Western
##fps
Pictures
##Reseller
##OO
EL
SHOWING
GL
SPFILE
eld
##clauses
WebtField
Faith
##Heinrich
Remix
NCT
##cantly
##however
leadership
##CEP
earliest
EMB
Beta
THIS
##TPS
cancels
isspecified
mqsi
##MON
##Restore
##multi
Vertical
magnitude
Automated
institutions
##Transformation
slides
families
slashes
##Granting
##package
##city
Transmitter
##WTC
MacOS
Anne
simpli
isalso
areused
GERP
iKeycmd
ESP
connectedto
##OPTS
agencies
PAC
reasonCode
specifics
noticed
afile
##Kim
Optimizer
season
extensively
facade
exiting
ATOMIC
##Auth
##SATA
electrical
##Light
##transfer
thefunction
##Enabled
Mask
LOW
benchmark
##force
##QMgr
EDT
SCOPY
destructive
QUERY
sa
stopwatch
##bas
LIFE
##RPG
Investigate
##linux
##Jabber
CCC
##REF
VTAM
SCO
##sndbuf
Tomorrow
MQPutMessageOptions
##tran
cracker
##apos
##DSYM
##intg
CoClass
FIA
KOREA
##Stephen
OTSPolicy
Around
JSL
esponse
MBN
CMB
##YMCA
CDU
DESTINY
timings
##Tree
amqi
Verifying
CSQSNAP
Seq
DTT
tocommunicate
##QMNAME
##modify
##specify
##mapping
SNP
acknowledges
corrections
##Implicit
LF
##Results
radians
thank
bwadmin
defense
EAIBK
Hold
photographs
quantities
charged
CloudWatch
assure
Requester
##COA
Prepared
##failure
##WBE
automating
Gateways
histogram
footer
Git
installdir
attractive
##ring
iscalled
descendant
freedom
##FF
##supply
listings
##Journal
##Atomic
dictate
naturally
BOSH
eligibility
Blocks
timetable
Outcome
masking
TRDUP
GMVER
##FE
attackers
MQSERIES
MoviX
reaction
WSL
Motion
OA
Ma
Mailbox
theSYSTEM
Languages
STATISTICS
WNDS
RNDS
CompletionCode
##BDE
African
MEPIS
Manufacturers
##Adam
les
oblem
Hills
ENM
NPB
millisecond
##trip
expenses
##Team
AMR
consolidate
frustrated
##Quick
recompiled
Takeover
##Audio
pops
##checking
iv
logout
Graphics
##PA
outermost
nest
LESS
INF
LEAVE
rounds
decoding
globe
##Copies
unmodified
assistant
illustrations
Slot
Rolling
Jobs
ECC
##Debugging
asystem
SYSPRINT
dispatched
##Something
prioritized
stronger
aggregations
Boston
mounts
##pdf
games
##Automated
froma
KRX
##fields
underlined
ge
##exception
writable
rjaehyun
thecharacter
##sysc
Rainbow
atomically
inquiring
sake
ROWNUM
dispositions
ImqQueue
##sa
CPS
Guardian
##FALSE
##mAh
Julian
au
Mini
sysctl
Shop
DOP
Makefile
##Pr
Distinctions
Hey
Exclusive
Dragon
vSwitch
iRetCode
Storm
Trash
Antonio
wholesalers
XSU
alr
Karl
Fusion
CANCEL
##EM
buying
EDA
portals
Edwards
##Alternative
DMS
QSYS
PDFs
toinstall
Defaults
mqsicreatemsgdefs
clouds
##secure
rid
exited
Extensible
Animation
convey
tutorials
Synchronize
disallowed
##Explain
pg
Guest
##PVU
##cost
subfolders
Scripts
andselect
payloads
##nds
exploited
suitably
##Being
Fine
##must
finer
SSLv
posts
bulletin
scoring
##mation
DIY
Bulk
pound
Boundary
##RSA
species
IME
Joint
##CT
BA
##Publication
homogeneous
##MATCH
DataObject
##ME
offloaded
##float
##recovery
ifone
##Thedefault
##ftp
##ED
WSP
Payload
Goes
motor
##vitria
##Vulnerable
salaries
##Theapplication
SELF
Rewrite
##INTERNAL
si
collisions
nondurable
SETI
FILERECEIVE
FOUNDATIONS
CONNECTORS
EventOrigin
Collins
fis
Justification
Howard
FASHION
Crazy
Mw
AHL
##ATCvet
##Attempting
##MANAGER
Affairs
WebRTC
gradually
##NSCP
##what
Bluemix
##Font
TAM
incur
##WRITE
plenty
##BRK
unqualified
##constraint
##Electronic
##MDM
##Converting
##Manipulating
bear
refused
presentations
duplicating
##RS
##Hash
guideline
##servlet
philosophy
##shell
##DV
##LAN
Named
##Supply
cooperation
howto
##exible
hole
##Searching
Performing
##Guide
threading
##ADT
CentOS
Partitioning
##IIS
unhealthy
observation
Forbidden
##UNIT
eventName
targeting
harness
##Compiling
fun
##HH
Validator
BUSINESS
##val
Monthly
DAC
monochrome
SPD
TI
SVCTIME
##CAT
Locale
##Bridge
halt
##ACTIVE
SDWA
ImqQueueManager
Equipment
WMC
followingtable
MSGDSC
##Disposition
Alphablox
syslogd
##XQuery
JPA
DSPMQRTE
Boss
Emp
JDF
EPL
ManufacturerB
iterators
Glacier
ocessing
Pink
BBK
##Kiss
##Lake
IRBM
webMethods
QMQMADM
OE
CUSTOMER
##IDS
clarify
notbeen
##Future
Flows
Specific
FFDC
##PKI
##ENTITY
REFERENCE
##none
stats
##Lost
##restricted
##fstab
##colon
##Performing
##MQM
Question
##LTE
##Tracing
Twitter
IOT
SITE
aq
##receive
specially
##mq
isonly
Hostname
EOF
bytecode
thedocument
interfere
##Actually
Hotspot
drilldown
Opens
Sampling
Did
##commands
pain
##IFM
OOO
PRODUCT
reversed
##structure
horizontally
indications
##Integrity
RETAIN
Clock
##EAIHOME
##Updating
anytime
SoapListen
weights
Requestor
sit
##FIU
DVI
succession
DMA
##GPKI
CSQH
##DOCTYPE
adocument
##Henri
##identifier
GRUB
bob
Elizabeth
TUXDIR
Demon
subqueries
##InfoSphere
KAC
##tx
FORTRAN
ORACA
sprintf
cancreate
NY
equest
topicName
SQLLIB
StatementHandle
NSA
Knoppix
##Cr
WORLD
JNSServer
havedied
Rail
She
eply
MHC
Holy
WASP
KOF
workshop
specialists
##head
BEFORE
Uninstalling
grown
migrates
saturn
thereare
hackers
marking
clrmqbrk
anumber
strip
##FLOAT
FIN
fax
##Highlight
##PERSISTENT
##PROC
mte
##act
##Factor
liable
##Upload
##Risk
occasions
##Units
##Nonpersistent
PING
encouraged
landscape
refined
Pick
Securities
MITime
func
Diagnostic
OpenAPI
representatives
bounded
Fund
MQCHAR
resend
Movies
##RAW
fuzzy
VRA
asubscription
VL
##Specified
##fd
##MPEG
Chapters
##CR
##REFERENCES
NOLOGGING
RNPS
SAVEPOINT
##Dream
TRANSPORT
##Scott
Wright
##Duke
roductPrefix
##WebtBufferException
##Mike
wildcar
Adventure
RKO
BMG
SNH
PrEP
solves
thanone
##Instances
responsiveness
##except
##Hint
Visit
Independence
ARLs
##Added
Hang
tocomplete
mqsireadlog
##Copying
CHANGE
Contribution
##descriptor
Companion
##yyyy
EXISTS
surround
##VAN
Generated
finger
addNode
consoles
unzip
##const
besides
Pair
##fixed
##HBA
Purchase
Composer
introductory
friendly
##Restricted
italics
theOracle
thegroup
##LONG
heuristically
thereafter
##EGIS
##dump
JRules
posting
##Turning
SYSIN
##Platforms
##Lastly
Severity
Colors
Heat
artificial
##Automation
renders
##Preferences
##activity
##Along
thecolumn
AnalysisServer
##amount
topological
HttpServletRequest
GBM
Outer
Campus
DefPriority
##INHERIT
##office
##listener
##EMS
Gordon
##PB
photos
Virus
##STD
##PF
ENNAT
SAMPLE
##QA
Transportation
bands
Eastern
##Los
REFERENCES
Student
SEBI
Hero
Juan
##XMIT
CARRAY
featur
##fastcall
FILLER
Clip
Hong
##Francis
##Christopher
KLM
Plant
IGBT
##Wilhelm
Theology
theresult
##uid
##CRAB
Considerations
##Middle
Paper
thisoption
complements
Propagation
NAMESPACE
##Entries
##DATABASE
cert
##Removes
##inch
Airline
##Whatever
Jul
journey
evenly
invalidates
##notification
##MOM
originates
Within
##ILinkHome
Swap
##Endpoint
##Provider
MessageBroker
thesession
##SPX
##Taking
occupied
##DISK
##Agents
balancer
formulas
youmight
theimplementation
##Sends
Upon
RDP
##FW
##columns
ContentType
Postaction
sale
insuf
##sal
##WBIMB
RAD
DI
EDM
Issues
ZONEZERO
Consult
Broken
BWMSERVICE
##CONNAME
LBS
Queries
intrinsic
Eligibility
##MIME
##PROD
##Bring
helped
burn
InitialContext
PMVER
flavor
ifconfig
IK
##IPV
APPDIR
DK
SLF
xs
Tcl
pOutputTextSize
Ask
##HOMEDIR
Glass
WNPS
qualifies
##Sports
##Cl
Flashback
errhp
cal
PREVIOUS
OnePhaseJTAResource
Walter
Anthony
Tiger
NEWS
ocesses
Hollywood
WNBA
FRS
Christ
##Myotis
MPI
##Wii
##Soul
EAFF
JMA
##daero
CRH
##Tables
##AAA
QManager
MIS
##DL
svnserve
announced
##Fault
Disks
##DIS
SHARECNV
ObjDesc
##Linear
KICS
Temp
acluster
##Proceed
tunneling
ceases
uns
Fulfillment
isbeing
disappears
Village
##Would
##we
supplemental
##Knowledge
manageability
pertain
Economics
##apply
PPG
theattributes
##either
##raw
tosupport
Bold
setof
IntAttrs
summed
timeline
reflection
restricting
##Metrics
rightmost
##document
Converter
TMs
##Relationships
healthcare
##Onepass
infor
mes
shorthand
resuming
##just
##bottom
SORT
Interoperability
Going
Rest
ld
##defines
Notebook
variance
adjustments
metal
CLASS
##Hi
MQWQR
##INST
INDOUBT
ApplType
street
Cortex
ITCAM
setthe
advantageous
syncpointing
newsgroup
CHAP
##SDL
Adam
SNI
EMPLOYEE
##REMON
##TNS
##Everyplace
linker
theoutput
UHD
nonnumeric
Guy
HocIndicator
theLOB
Cohen
##Fortify
EMACS
uctions
Ka
XIII
DATAFILE
Six
##custom
weighted
decline
Restrictions
##Mixed
##Reasons
##INI
##auto
Making
torun
Hide
ITSM
synchronizing
DataDelete
##than
difficulties
##CLASSPATH
instantiates
modeler
##Scope
sized
##register
##BOX
##AF
Approach
GoInto
tb
##Bold
theselected
divides
survives
Charlie
Jenkins
resolutions
screenshots
##Avg
##TF
interceptor
becreated
hire
thetype
ACTIVE
debit
##next
Gate
men
oil
##Trusted
PDM
registries
exp
logistics
rcvbuf
classifier
##Walk
tour
antenna
minOccurs
Yourself
Masters
Chris
LTSP
STEW
MONCHL
##MT
buildserver
Guard
wc
Fred
Else
OPMODE
ExPlex
CipherSuites
BAE
Cancer
Lie
Di
eBook
##Summer
##Rhinolophus
andyou
##migration
Scheduling
Its
vehicles
##Range
subsidiary
##AES
##mqs
thorough
isprovided
finance
Resolving
##creating
##Applies
UserName
Finished
popup
##Raw
betweenthe
HYBRID
descendants
MOD
stocks
cash
CPC
##SKIP
##Yet
developerWorks
sphere
tabbed
SME
##SYSDATE
##CI
fnd
##layer
pkgadd
Healthcare
delegation
accessto
##repudiation
meansthat
##VIP
##Backing
##Resolving
identically
##Requires
##CONTINUE
encourage
TraceTag
refreshing
contributed
shifts
##video
revise
studio
##structured
gauge
##MQOD
##na
ordinal
theinput
LET
oc
##struct
RCV
UNC
##Fly
durability
##direct
##ENVFILE
SSN
labor
anylink
mathematics
Trainer
CSQE
##PSID
nonbrowse
##sendbuf
Sol
##Success
BASIC
Flume
dim
thetransmission
NES
##SORT
describedin
spell
VIII
Very
GD
XIDs
Facade
TPNOBLOCK
thefields
OH
IND
##Heart
##Il
RCD
##WebtServiceException
SJ
Th
Province
##Na
PTSD
Goodbye
##CACHE
##Procedures
Sector
##SAN
hotspots
Upgrading
PTFs
outages
ibmwebspheremq
##axis
Associate
##cause
SOW
DSNs
##Multicast
BROKER
ENCODING
##ARS
thesize
NMR
##mount
Businessware
Treat
##uuid
tpforward
smoothly
##Companies
##computer
exclusion
resembles
supervisor
unhandled
ranked
negotiate
interactivity
chances
##Tomcat
Rack
##Fri
redeploying
##LS
themethod
##visible
RQMNAME
accumulate
correspondence
Compliance
charting
##Flags
##rows
Reduce
pinpoint
ts
fires
misspelled
Saturday
correction
tech
isto
postaction
DLP
Fair
##io
BH
##DH
##WriteLine
SubIdentity
##router
finder
APPEND
Backout
hConn
##PROGRAM
##Thank
JIS
MBCS
MREC
diskless
##Wed
Oh
OSF
Prevention
TCS
ChannelMonitoring
##errorq
FMT
##Japan
##WOLFSSL
SPC
##Translate
##dvoid
Father
Abelian
UBS
BANG
Bird
ovided
Reordering
##Ca
Nights
Yak
bes
##SARS
KeSPA
contributes
omitting
UCP
##GPU
##CUSTOMER
SCI
emulate
Zip
mapper
mqsicreateconfigmgr
workspaces
EXT
INFORMATION
DEM
thenthe
overloading
Moore
rotate
##socket
Tunnel
Delegate
OMB
##Constructs
##headers
raising
median
dt
bridges
Del
tedious
intentionally
playback
hop
localization
Creative
Bulletin
Overwrite
##Association
##done
na
DUMP
uninitialized
VPC
Rapid
##MAIL
##REGION
upward
telecommunications
IDP
RNAME
NetFlow
##xFF
pod
##Reilly
compensating
Adams
##NL
Height
IFC
STGCLASS
##TOKEN
EnvData
orchestrations
ClearQuest
Wed
##verbose
friends
##Jim
Fortune
audited
FDS
##AUDIT
##FORTRAN
Thompson
##edu
SUBSCRIBE
##VS
##LANGUAGE
##major
IRT
Arms
YUI
LocalTransaction
Horse
##CWYAP
TuxedoServer
geocoding
##Franz
##Johnny
##Lady
MBTA
VOCALOID
altogether
demonstrating
FACT
##human
aspecific
##Origin
SMIT
##Resubmit
##Settings
conducting
Vuser
answering
##win
##Snapshot
Folders
reinstalling
digitally
influenced
debugged
##ejb
DataUpdate
leftmost
daylight
BID
roadmap
##Infrastructure
Holdings
Dossier
gaps
NetworkVantage
##binding
Deletes
traverse
##Need
listof
##td
youuse
webpage
##Implementations
bespecified
Mobility
defective
makers
##ACCESS
usedby
##Converts
##Thrown
MQDXP
##adlex
preaction
##writefile
ancestors
##Activities
hypothesis
prod
Urban
substitutes
##Modeler
Fortify
CHLDISP
MQBO
MQIACH
Stopped
Direction
SFG
Oracledatabase
Spanish
acquires
Sons
mv
TSV
UNICODE
Terminator
REC
populating
Greenplum
Wars
communicator
TMF
MW
Paradox
Harris
beforeCompletion
AZ
MSM
WebtConnectionGroup
Sex
Francis
##CLTCN
TSPITR
##DIALOGUE
Wood
opriate
wer
tRNA
##Mother
GABA
KAI
GARNET
aside
Telecom
##Polling
##Partner
##Activate
##Eventually
##abc
colons
JACC
##installed
zeroes
##existent
##live
##Six
interruption
unmount
##jre
##Explorer
##GAAP
##art
##Meta
##Received
##Daemon
##RMS
evaluations
aviation
inan
traf
Glossary
Syncpoint
Hconfig
BEP
documenting
ect
grace
emergency
shorten
MIPS
Missing
GoSpace
usedin
##required
underscores
conference
loyalty
Situation
##Hellman
Bruce
parenthesis
chaining
##try
andclick
pp
AML
##STATISTICS
predetermined
retailer
##ahead
jumper
holes
##OMS
ZoneZero
TmaxData
##SFR
dev
##Views
subsections
young
EIB
inactivity
OpenFlow
hashtable
##Adapters
MBS
##April
CONFIG
##SFG
IPsec
LNQN
Increase
xdm
obligations
##IDL
Teradata
OTHER
##STANDARD
CRTMQMQ
Beyond
NOCOPY
##ename
pic
CipherTextBlock
DDS
ATL
##Paris
FOREIGN
##lters
AmMessage
Xid
Rising
vNetwork
OCIInitialize
Ghost
Evil
##Victor
KH
MOVIE
##ciency
##CITY
copyrighted
Tibco
commitments
SCP
constitutes
userids
##Upgrading
promotes
##Hcon
curl
##Tracking
exe
learns
subtrees
##REQUIRED
##Stops
ism
##Scale
miscellaneous
Relay
EDIFACT
ideally
shortest
parameterized
##Company
tabular
HSBC
REP
##Wire
god
thisis
decoupled
##Permanent
groupname
##CLOSE
laid
##Filtering
Sizing
##Discovery
enrich
RACROUTE
ALM
##Selected
browses
paused
musthave
Bluetooth
##MQENC
##postaction
hypertext
##Anything
curves
deliveries
DTS
Algorithm
LVM
##Independent
cars
Popular
DSA
fans
SSI
##Fact
airweb
##Bar
RUP
Specifications
Usable
occured
Inquiry
CSQQTRMN
MIMO
##NVD
##SL
Intercommunications
modems
##sum
SSM
##comm
PutApplType
ARRAY
vt
##LIMIT
inch
PlainTextBlock
TPN
Mix
Atlas
AggregateRequest
supportcenter
APs
pinned
psychology
Grace
dthome
completioncode
Khan
thedead
##Chicago
ence
efor
requisition
ACCTQ
fl
CustomDatum
Forest
##Sea
##utm
toidentify
##physical
observations
##nished
thespeci
MEM
##Know
##MIB
CMMI
Deal
VD
velocity
Metro
##Throughput
CSQINPX
Even
##unix
##Enabler
URM
accelerator
##MSCS
andto
ORANGE
SOAPAsyncRequest
unsuitable
Subsystem
##configure
##optional
##Cancel
##XSS
##Finding
CARDINALITY
tangent
##tbl
EVERY
##Executing
grayed
##insensitive
##maintenance
##weight
##Interactive
thumbnail
Balanced
mstr
##DBApply
##Optim
Being
Sale
Seed
Aria
pertains
deallocate
ldapmodify
youmay
##Firewall
##Routines
CharAttrs
DTAX
##Synchronize
FL
Linked
thestandard
anda
##Pages
##destination
##CPWR
Commons
##QUIESCING
SPS
##del
eventual
##Indeed
alarm
defer
fol
aids
cooperate
adjustment
##RW
##WD
sun
TOPICSTR
advertises
linux
essence
##ROWS
FW
Bottom
SAVE
RESETPAGE
MQCBD
MQPD
##Unknown
maxOccurs
##UP
Fresh
displayable
##yyyyMMddHH
Christopher
Texas
Kennedy
Bureau
##cbl
cartridges
RSC
Aqua
gc
##FDS
MQeOutput
##ptr
##California
Otherwise
##Enumerating
##MSD
##Dave
AMH
##sap
##CHAINED
##Miss
Midnight
mailer
removeval
DV
Notifiable
##SAXException
inodes
runmqakm
eceiving
##Antonio
##Frederick
WoO
Smile
##CHF
NWA
SOHC
reveals
LOGFILE
CONTROLFILE
ERD
xmlns
##supported
pour
nominate
AMQTCERT
squares
REQ
Certified
theprocedure
##restart
denies
exploring
##DECIMAL
afterwards
##Learning
##JMX
Forget
FlowOrder
suffixed
##Cast
##SHOW
Transition
##Types
eyes
##quotes
##CCC
Mart
BOR
theassociated
##Requirements
Snow
##Decoding
##Baseline
BR
Website
audits
KeepAlive
ApplIdentityData
SYNCPOINT
resized
##ExitParms
deliverable
churn
CIC
HAL
fordetails
Notifications
##Strings
roots
##returns
Cookie
##secret
Generating
##Uniform
##relation
universe
##tem
Reporter
Kelly
##DML
##unsigned
Margin
PROGRAM
retailers
rings
##AH
##BMW
Aa
disruption
##quote
##LIKE
ITSOMart
##FORM
AUTH
BUFFPOOL
trick
##PV
println
Attempted
CCFAIL
##CANCEL
Far
##ware
Instant
##TITLE
##VARCHAR
Ford
##padded
Morgan
Clark
##PRIVATE
Substring
Civil
##Ray
##Jane
##Unhandled
ORDSYS
securityfilter
OTN
UserTransaction
integratedwith
Jim
##Beautiful
INN
##dB
manifold
WBIPostUpgrade
Won
chy
iDisk
MIAS
##Pu
IAU
Feat
Hate
TKO
LMX
correlates
congestion
latches
destroys
##TOT
##grep
Graphic
##ls
arethe
booking
##Duplicate
##OLD
##EDW
virtualized
modal
aclient
widespread
##attr
mqsireportproperties
##Limits
##Between
##Observe
strengths
amongst
GX
MINUTE
sine
##BIT
##plugin
##Menu
##person
##mnt
##execution
##Presentation
grey
BF
Printing
##Identifying
jurisdiction
##these
##although
indicateswhether
blob
inaddition
MessageListener
reinstated
MQS
consensus
##Inter
INQUIRE
##Token
Caches
consequently
thumb
circles
mountpoint
traps
ma
airline
transactionally
beperformed
##Populate
BRKR
wires
grand
SUBSTRING
President
##MOU
enhancing
Stub
##Original
Classification
##trans
##REG
stuff
##RMI
GTF
BMC
Trailer
brace
ciphertext
CMPCOD
MDCID
EST
rectangular
##EN
SLS
hostvariables
Mass
OBS
alt
resourcemanager
UNUSABLE
DOs
Diamond
IBMIntegration
SVRNAME
ojspc
Ph
failur
ersion
BAFTA
IIDX
ICOCA
##KPI
hp
##MMS
heartbeating
lightly
OpenMCM
encompasses
ET
##IPTV
aserver
##Explains
tilde
mqsichangeflowstats
Crash
tothis
Gray
Chase
COS
Fatal
##Created
ROOT
breadth
InstallShield
WPRCSDB
##CELL
##Department
submitter
NTLINAKOR
Canadian
##recv
##OLTP
FP
Horizon
CU
ScriptTest
inability
aseparate
##show
inorder
ACP
onMessage
programmed
##THREAD
termed
EntityName
Collections
thelast
summaries
thecall
##encryption
##Exporting
PreparedStatement
trimmed
isan
reorder
##EventBody
gender
Ticket
##Seq
##MDX
RESULT
##tr
Padding
Species
rfc
AX
aprogram
##Wildcard
MQMI
NVL
feeds
##Middleware
Scanner
aims
MQSTS
Suspend
BODY
borrower
eg
Unica
BMX
Symantec
resp
##acct
VTCAM
WC
##Inherit
MDCSI
TriggerMsgPriority
##yyyyMMddHHmm
NTSC
cur
##terminal
TLI
CLEAR
##dll
##presentation
precompile
Allowed
##Sam
##zwSAC
fixpack
##ESXi
##LocalEnvironment
MQQA
##SEGMENTS
FOX
tpconnect
KEEPALIVE
Ever
removeref
##empSET
willrepresent
##Matthew
##GEOMETRY
##GEOM
Seven
IPA
PlaceOrderProcess
##Georg
Circus
##NME
##Giovanni
Paradise
proportion
dat
EXPORT
fiss
vtparams
humans
Effects
ISC
deliberately
ALIAS
HWP
travels
hardcopy
datafrom
Consider
Pooling
SQLServer
##Frame
fitness
Cartridge
LPL
MbElement
nth
Clone
fraud
SLAs
##Overrides
##Predefined
hyperlink
Areas
couldn
GMP
Ad
##FAULT
Trend
SEI
Disclosing
BYOD
concise
##INQ
Recognition
tpsvrinit
gzip
##POLICY
Shortcut
suspicious
MongoDB
maximal
tooltip
ranking
##Conditions
Lead
award
los
ofeach
theentire
messageis
standpoint
Rental
##Family
##Definition
PXE
bx
Decryption
television
NXACOMMON
##SQLException
EZisV
Soap
WB
vote
##WORK
##STRMQM
##strcpy
Returned
XCube
Applicable
pads
TriggerType
##Resets
DCM
Sally
##learning
HEAI
swapped
RAF
filetransfer
##Speci
AMT
##Syncpoint
TLC
AUTHTYPE
##jeusadmin
RETURNING
Precision
formation
Hans
Alan
##general
##Jonathan
InputParseException
##AmazonS
Mailer
oblems
##Iron
Jesus
Underground
##Blood
Activate
##RULE
##BIZ
##Timer
acquisitions
demanding
APIM
##Attempts
ExitUserArea
detached
##registry
##MQCONNX
entirety
Trap
aWebSphere
asshown
canspecify
Fiber
##owner
##coordinated
mqsilist
##stage
pasted
##Relative
Proof
NULLs
multiplication
##Robin
##Thin
papers
INC
##ENV
WebServer
delegated
Elapsed
Adds
necessity
Cause
##Notify
Completed
octet
##Themessage
sqlnet
Copying
DefinitionType
ApplName
##position
##DA
Locations
suffer
##CTS
parm
toexecute
##PID
##APIs
Higher
Nessus
##Bottom
investigated
simplifying
Idle
methodologies
meetings
Auth
pulls
##Maybe
theindex
WOC
##Replication
gen
useless
##quali
##Triggers
##HQ
Seconds
##TC
CTI
##SG
attrs
##op
DQ
Centers
Simulator
classical
poison
##Pay
DFSMS
Facilities
RemoteQName
Transparent
Width
##SYM
Pane
BFS
##certificate
Shareplex
##Living
LUWID
Versions
##half
PROFILE
paint
MDBs
##FILTER
POSPIA
XMLType
Resolve
##Elizabeth
THAN
pathway
atomicity
AFP
##oneagent
##co
LUN
##Classic
messageflows
##dbfile
##WTO
##Tony
Stephen
Virgin
startDate
endDate
Stories
ules
##rofileCredentialsProvider
esult
Loving
IUPAC
PRODUCE
incurred
exploits
thischapter
roughly
##Restoring
##wrapper
NCR
rebooted
exhaustive
DER
##Firefox
OLD
##UNLIMITED
Editing
ESS
aspart
fingerprint
surrounded
mkdir
Disabled
mqsiformatlog
LRECL
##Portions
TAC
redeployed
endian
##focused
suspension
categorize
hangs
Styles
MDS
PAS
##Template
TAP
SAFE
harm
welcomes
theattribute
notsupport
anattribute
hasthe
##points
IGNORE
meantime
##Yellow
wealth
deliverables
##contact
thelocation
isexecuted
annotated
##accept
Fonts
Weblogic
##Hover
thiscommand
##Sum
frustrating
midnight
wherethe
##unit
##Establish
Constants
scoped
csv
Operators
##KISA
MQCFT
##Interval
##preaction
##software
notations
inother
thecontrol
theMicroStrategy
##Parser
##Capacity
Upsert
tmp
SoapCall
thermal
Mars
##Boston
ObjectString
##Blank
##Publishing
honored
##gateway
RetService
##argument
TBR
xxxx
apostrophes
##COD
mqPutBag
MQCFBS
Interactions
FDL
ofinformation
##ACC
##random
facto
MsgDeliverySequence
ECHO
##Dir
MONQ
tmconfig
UDL
sar
nonpartitioned
##exceptions
STRMQMDLQ
KiB
Trip
##DEAL
##DONE
##INTO
thelistener
##Everybody
##retryCount
ow
MQDistributionList
Late
FLW
##BFILE
Pollable
##tgt
##Seven
##Li
Si
eqn
Samuel
emove
chive
Miniloan
WCG
WBSC
##Crazy
Vita
GNP
attaches
adjusts
##XQ
##cross
FSB
##SX
##SHARE
##ns
STP
##Member
##GLOBAL
##ce
##MSSQL
##ECM
##trusted
Assume
STDOUT
permissible
Basics
Imports
beconfigured
DETACH
##Capturing
##POSITION
yours
##Connectivity
##Kernel
Drivers
##unknown
strmqtrc
ab
##PMO
##Clearly
anticipated
##native
margins
Brain
Attached
##REPL
StreamMessage
isstored
FASTPATH
resynchronized
awaiting
IPPROCS
Keyword
Ordering
##Measures
whichyou
thismessage
aresult
##Did
specifythe
modifiers
hypothetical
Possible
Less
##declaration
AgentlessMonitoring
emphasize
computations
TextInput
RIGHT
Mon
surrogate
Suit
Buffering
guided
striping
##TOO
Slides
##News
##KM
##TBL
ECI
varied
ManagedConnectionFactory
##RA
Equal
##UNDER
MQIT
##DYNAMIC
grade
##AB
college
##Combinations
MSN
LLM
DCT
##IVP
##Tell
##associated
PB
##SOCKET
SUPER
ACS
NVARCHAR
tpgetrply
Flying
##Rem
##HTYPE
downsampled
##goal
##DBFILE
dbExpress
LoggingFacility
geom
Ya
##Prohibit
ParmBuffer
eam
##Roger
Princess
Campbell
Sugar
Kh
##Debug
SMART
competing
##edited
UPPER
##LINUX
##UnitFlow
##Databases
reinstate
BIPGEN
reloaded
##Minor
Primer
##Tagged
truncates
develops
wholesale
Poll
Auditing
Enterprises
decreased
CBO
Expiration
##UC
Dell
ETRI
noise
DAS
OutBound
disassembly
decompilation
DIT
##Floating
##namespace
thesecurity
usesthe
##jms
##BServ
mechanics
regards
intercommunication
ResolvedQMgrName
##PurePaths
##resolution
##collector
isenabled
scenes
notavailable
bechanged
ith
Servlets
das
roundtrips
unloaded
Favorites
##PI
##Better
backslashes
objectdefinition
MQCACF
Streams
##Cursor
bonus
PARENT
##Regional
rcp
##PROCEDURE
Applying
minimized
PUSH
SHM
##Drive
Prime
##tables
sitting
ubbconfig
ZLIB
mediated
##Sharing
CSQI
Requested
MQXWAIT
##stdout
##XSL
KAL
PSB
##MAINT
IPCC
LUs
radius
hasn
drawbacks
VC
tlisten
##IPC
coach
Jordan
Disc
CDS
Namelist
INDICATOR
Russell
feat
schar
##timeOptimizedFlow
sentiment
##BF
GR
##ADO
ACORD
Chemical
##decision
##DevOps
Patrick
Doe
##Conversation
VARYING
##Say
IWA
XAException
reportmessage
codeMQRC
STRUCT
KCB
ICM
Printer
Sierra
SHUTDOWN
JML
wasa
Observatory
##Deutsche
emoved
##Befor
Frederick
Ain
MTR
##SYSSTAT
checkpointing
Overhead
##PROPERTIES
##Composite
##established
masked
pageset
tolerate
Coordinated
youwill
bitmaps
Snap
##MQADMIN
regenerate
mqsicreateusernameserver
DYNAMIC
##Ping
adopting
concatenating
sooner
Artificial
##permission
havea
indentation
NameValue
CONSTANT
wrappers
EXP
nodeagent
##Extra
##Resolution
##mentation
##usage
##kb
##Co
Licenses
##Commerce
DETAIL
##KAIST
##SSH
##MQMessage
##nish
thereis
theunderlying
##before
safer
parents
aname
SSPI
syncpoints
LSN
Analyzing
Statistical
aging
theparameter
somehow
peek
aredescribed
remained
##Train
repetition
##selected
smarter
Tx
Addison
ele
explored
conceptually
semicolons
presses
internationalization
##sp
Frequency
##mod
##Segmentation
Actual
##processor
laser
chip
anetwork
gas
greaterthan
##internet
INSTALL
authoritative
Math
Speech
forz
partnership
QueueConnectionFactory
tremendous
Eric
subscriptionsthat
MDREP
Scaling
areincluded
Samba
Identi
WSH
Nacional
CBT
theresource
polled
##AWDS
##PRE
##SPIRIT
UTL
##Separation
MQGetMessageOptions
IUT
MQCBC
##Donald
##TmaxSoft
ImqMessage
tprecv
##Signaling
Police
Owned
##Brown
Falls
PropagationContext
Ludwig
##Sex
Pierre
ogramming
WCS
zu
##mL
Mystery
Tears
japonica
beavailable
ko
SHELL
EN
##Grouping
Inline
PutMsgOpts
OCX
Bypass
##choice
##Associate
Triggering
##Verification
##Communications
Notices
SOAPRequest
MAIN
Preference
##Generating
##save
PASS
itcan
isno
subtraction
MSGID
##Cut
##Namespaces
substantially
##premises
##Images
##Extend
tm
##Descriptions
hostName
prototyping
TAR
##Watch
dream
upcoming
Toolbar
electronics
##Same
IVR
##Screen
Quad
WISE
logLevel
##Ethernet
court
thefull
forming
##cf
##INVALID
Guidelines
repaired
purging
cheap
Licensing
##Synchronization
##Segment
thecause
foran
Lo
##keys
wasted
branching
reviewers
HOT
##FETCH
ratherthan
theexisting
Greater
alphabetically
##pro
ob
invariant
##DSN
Enqueue
JIT
##syslog
##Way
##SUBSCRIPTION
Performer
thanks
##RPA
Failback
experimental
Subtotals
##Random
PowerPC
PMP
##Publishers
converse
mediate
##WMLScript
pluggable
comp
PRIORITY
FACILITY
accommodated
IndexType
##sequence
##PARTITION
##multiple
Fit
##Beat
declined
Arrays
MDVER
replying
connectionless
Photo
enjoy
##capture
direc
Graham
##TUXDIR
Philip
MERGE
inet
Columbia
##pi
mqsicompcif
Retain
Nonce
CONTINUE
Pretty
Privilege
ARC
##ushed
Hunter
EMD
qName
GATE
memo
##Alpha
Noti
##Asian
##releases
##METADATA
Russian
PSA
##scmp
AFL
Carl
Nelson
Honey
elemetry
HB
Carter
Treaty
##Georges
ALU
WRC
Myself
kN
##SERVERS
adversely
##warning
Ahead
##ext
parity
##Magic
readiness
slip
##ALREADY
##CONNECTED
baselines
##USR
##MFT
youcannot
##Previously
##Parent
Repositories
hourly
##Starts
##MR
Watson
##Assured
##Aggregation
##Price
EXTRACT
cockpit
ECMAScript
Breakpoints
carriers
instantly
##Five
ojdbc
Starter
##license
Manually
##after
Threat
traditionally
PIM
##LINKtoLINK
DOD
Supplement
##Closing
theitem
##elements
Manger
notifying
##Clusters
Encina
libmqm
reflecting
SelectorCount
##CB
ISV
notions
##Listen
isconnected
SharePoint
andthat
Splitting
##Production
##Trans
##Collection
Exports
overthe
VNC
##coding
##Sep
##Installer
##UserMonitoring
PROG
##USERS
Preaction
FILESEND
endof
varieties
uniformly
syntactically
designates
ofdata
##automatic
FNC
NRT
floor
Wonder
moments
##IQ
Michigan
##Symptom
##WebDB
##PARAM
replied
specialist
decoupling
SGML
##neutral
EMR
##UMS
DDnames
RTS
##yyyyMMdd
Minutes
Targets
##loading
##nhis
##MQINQ
Lights
##Mid
MBR
##Bruce
arbitrarily
oi
##TUXEDO
befound
Satellite
##Elevate
MV
CDP
VTPARAMS
comm
##ifo
unitof
ServerSession
TPNOTIME
tpsend
##Liststhe
JA
##kWh
MCNotifiable
deploymentenvironment
contactyour
Orientation
president
Giovanni
TreeDirection
##chan
GLACIER
ITSOPModule
APU
Feeling
Prayer
FV
GTO
DLM
IMPORT
##LX
##designed
andis
reassembled
##Toolkit
authenticity
docker
Author
##KOA
##DCE
toremove
##Username
##GRP
warns
##xxxx
##LD
merchantability
contentsof
##CLNTCONN
##SQLCODE
Notation
scientific
Handbook
##PROG
##Commercial
##Adjust
##NICE
Essential
##Passing
##search
ambiguity
##tomcat
PET
##Measure
licensors
##CNF
ratings
PLM
whereby
##CREATION
##electronic
thesample
thepackage
##foo
toset
##Delimiter
##chanserv
##PR
##ExitContext
##Monthly
##OSS
evolves
MSDN
changethe
ser
##REALTIME
##some
thisexample
eases
colleagues
toolbox
versatile
standardization
rewriting
MQRP
##ture
coherent
loans
resident
vertically
todo
##Analytics
Upper
penalty
##Fire
voltage
thepower
##Orange
recycle
biz
##MpowerEZis
CATALOG
multilevel
NAMELIST
##CMD
examination
RANGE
##BRIDGE
##BIG
MQCRTMH
##items
##China
##DAS
Buy
PRO
XMS
##extended
##Matches
##ECB
##customer
BACK
GMLOGO
SHOULD
##Subtype
shortly
TFTP
ISDN
JG
tmloadcf
Able
Verified
Camera
ECU
SEM
##radio
##checkbox
WWDC
Sense
Oxford
byteArray
CosTransactions
##CGI
DirectX
##Revolution
SubscriptionsMetricof
deliveredcontent
afterCompletion
pi
##Earth
SOLARIS
kes
IUnknown
OOA
Buddha
activequeue
soapUI
##orgs
esults
Corps
ERA
Moment
Piano
Hope
MRT
GTR
ICTY
CYP
ratios
##icts
typesof
bluspac
RUNNER
##MDB
SX
##xsd
outliers
##Immediately
##Operational
##json
##MQParms
confident
Pending
##outs
##groups
johan
##collection
SOC
Backbone
shownin
mitigate
JPD
correcting
quantified
##Folder
Addresses
subtracting
##green
##Traditional
Toolbox
##have
SFA
navigational
##VAR
cutting
##WAL
CoA
Million
Hibernate
misuse
inspecting
PTP
selectthe
nameand
Premier
##Instrumentation
redirecting
diagnosed
##Matching
Concept
##CSI
shallow
visualizes
enumerated
negatively
andother
href
##arrow
Picker
unreachable
Launcher
mandate
Isolation
##SNDR
ABCD
##bb
##Mar
##Abstract
afterward
projection
Percent
##MACHINE
##Potential
Previous
performers
##demo
spam
revenues
##positive
cancellation
removable
##Autonomous
dltmqbrk
CONMANAGER
##hop
Capability
MGR
abetis
MNOs
nonshared
CharAttrLength
sever
##SUSPEND
##syntax
Coming
##md
##Game
ATA
##development
wise
Evans
NCRs
Atlantic
commission
Dash
approver
ek
SQLCHECK
Foo
nodename
LK
CVAM
##NC
Tor
CMAPPER
Sr
##ISMP
##Gold
##Benjamin
Plaza
##ALTERATION
##FD
USC
##norm
downsampling
##MVP
vsftpd
##Francisco
Jay
##SECURING
Grande
Crown
##Dear
##Hermann
Victor
##Abbey
KNVB
##emotional
mAh
##Sorex
pins
DFS
acquiring
thebuffer
##IR
Calendar
advise
##integrated
##Durable
uninstalls
##Missing
queueManager
##SUN
IFRS
##Financial
OpenStack
JREs
isignored
##Anyone
adequately
##simple
SPM
##Characters
Instrumentation
##prise
Robust
tohave
TSM
LastName
STORE
HOUR
approximation
standardize
##VLDB
##xr
Saved
Trader
##Far
ellipses
CloudScape
##Templates
##dn
toolbars
hyperlinks
##Selection
##Goal
##dat
docu
##Word
##EVNT
rock
Due
##SCC
equipped
toprocess
Harvard
Triggers
BytesMessage
##Queries
promoting
achieves
##ENABLE
recursion
Hotspots
Percentile
##CLR
Indicators
##Higher
Timeline
kick
plugged
quarterly
toimplement
##Samples
##Callback
NOCACHE
##SUM
Professor
archival
vari
suspends
unordered
broadband
##DataSource
depths
##Redeploy
##Named
Diffie
##HOS
subtab
scatter
##Credit
wake
##Bindings
Outputs
REMOVE
ABETKT
bxets
BXETS
##bridge
Ilink
Yang
COPYPAGE
mqBagToBuffer
##TPINIT
ball
##ws
##LINK
SERVERS
ResolvedQName
IPF
##Johannes
md
Conditional
RPMs
##cat
compressing
SB
Hidden
##Davis
committee
Coverage
Productivity
HI
##Causes
##PENDING
Precompilers
RFHUtil
Rise
HE
##TRANSFER
##maximum
AMOLED
Dimensions
remoteFileName
SYSTEMiER
OpenOptions
##UK
##Ready
TPSIGRSTRT
metacharacters
##Sonic
##CWYEB
##Manufacturer
downgrading
Anniversary
Heinrich
Medal
Angels
Rap
EVER
OGLE
artery
LCS
Juice
datadictionary
tosend
restoration
spawn
suspending
DBRMs
ENDRBA
TARGQ
MQCHLLIB
PST
TPNAME
applicationprograms
##contrast
asymmetric
##Securing
unambiguously
En
UserNameServer
##CIS
##Ant
Pull
fractions
unnamed
maturity
startServer
bpe
##ZETA
##Threshold
##Express
mayhave
XF
##VoIP
emphasized
Programme
##Dashboards
FailOver
Keyboard
##Thevalue
ObjectMessage
##nite
thenames
nnn
earth
Apr
msgtype
CLOPT
splittings
DLLs
##Permissions
percentile
aresponse
##Aggregate
onload
##Packages
##OFFSET
##Logger
continuity
flaw
complexities
thedefinition
errormessages
IPPR
aset
rational
##Derived
strange
que
##Roman
Massachusetts
DEL
Qualification
Roberts
##Changed
mightbe
toindicate
jumps
Laboratories
NBP
ASA
##Grid
##NameValueString
MiddleWare
MQWCR
abvan
ABVAN
##SV
Manipulation
Resolved
rebuilding
mqBufferToBag
BackoutCount
ConnectionConsumers
Resume
##MEMORY
Everybody
TU
##restore
##Te
##Silver
IANA
mgr
AID
Bookmarks
sshd
lp
HF
resubmitted
##TD
##Supplied
##FASTPATH
TIP
NHS
MTEEN
fn
PPV
Guides
Morris
PIP
Webservices
ImqBinary
SAPCall
##SH
Door
ManufacturerC
##FBI
Cr
hostAddr
Inclusive
MMA
Wish
Silence
artboard
xscmd
Ten
WFC
HTH
ofOCIEnvCreate
AMC
ZX
Fetchmail
oot
disconnectable
Marine
Metropolitan
Tales
Telescope
JAXA
##Holy
##Rudolf
##NK
Guitar
waited
##Telnet
##Wide
DSC
##Coexistence
Emitter
##MEA
logfiles
thepassword
CAs
respects
##place
##Volume
navigates
borders
shaded
departmental
reinstallation
approvals
Emergency
XIV
##mobile
##connector
##Editor
##RECV
decreasing
IntelligenceServer
##COST
adaptive
AST
DARPA
##bound
##sessions
valueis
accessthe
Bootstrap
jobsthat
Exits
acl
thestring
##DOUBLE
Hints
remembers
##pw
Zealand
Portlet
exclamation
togenerate
toother
Runs
contributor
theresults
Http
##Monitors
Lunar
possess
Filename
##Keeping
IPO
CMD
APPL
thedocumentation
##Generation
##Care
Cyber
nevertheless
##cess
##Collaboration
deposit
oper
PROJECT
sid
Bronze
IDG
##NON
counterpart
##su
logistic
Recommendation
wouldn
##ROUTE
##Indoubt
##ax
DUAL
##STARTSEQ
Storing
##Match
Salary
enabler
regenerated
##CSQJ
RDF
reopening
##Combining
postal
lsService
holidays
achannel
synchronizations
engineer
WTLS
interfaceId
##entity
pseudoconversation
ApplicationVantage
Int
##ModelAttribute
NoticeVO
eMoviX
XFree
tpbegin
elegant
EAP
Billing
ALT
##Her
CIF
##inittab
multiuser
##RP
##overwrite
##SCHEMA
PlainTextSize
InitialVector
##ITSO
EDU
JAXB
vile
ifid
PlayStation
theMQGMO
MsgToken
EI
##Goodbye
NIH
DSECT
Crime
##America
NFT
helpers
cu
PEAI
Mama
Ross
JNSLocal
SKE
iMac
Philosophy
Temple
TK
Reformed
CITES
LDL
##Billy
FTSE
GQ
##Rattus
NOARCHIVELOG
GAP
Oil
LEFT
themigration
benchmarks
##ProdData
##PLAN
##shows
Tips
portnumber
taskbar
##unless
intercepted
##Considering
Depending
KEEP
undeploy
ArrayList
##parser
navigated
##Assigning
##Comparing
##NXA
##WISE
gold
spends
##Including
furnished
pulled
##RELEASE
Applied
Industries
##FAX
Parkway
##Dynamically
dbms
storedin
##ORB
bookings
dltmqm
remembered
##DLQ
dormant
BBB
##TimeOut
createa
##Paste
explosion
theexception
Timers
youspecify
Shut
isgenerated
##Encryption
cool
##Question
thatwere
##kernel
healthy
NA
##Transferring
WiFi
weaknesses
conveniently
Dan
living
##Empty
anexternal
dictated
##STEP
##StrucLength
ebMS
##tems
casual
##cal
ellipse
##signal
substates
Much
compo
substituting
cre
proportional
leap
##CWF
json
expander
stepping
recompiling
RTP
##WWW
##OLE
SecurityExit
degrade
REGION
escalationReceiver
Appointment
IntAttrCount
##esb
##WebtoB
Triggered
##XCube
##Mapper
##empno
nonthreaded
crop
Tablespaces
##kdb
##datalen
PCA
Wo
MQMNAME
##cv
##Alan
Jupiter
TMM
JMSMQTransform
DWG
dblink
filespace
adeployment
##BFGCL
narrower
rolledback
Unavailable
##PROPERTY
resourcemanagers
selectorwith
Carlos
clearingthe
ently
STATQ
Scotland
Finit
Benjamin
Keyref
LRS
OCN
clipping
Douglas
IRB
Indian
Rc
Ben
aud
Eagle
##Steven
ROTC
Stewart
##Dangerous
Parish
Closed
preserving
##Focus
##exec
COMPUTER
##SOC
unsure
##administrative
USERNAME
##Optimizing
SDSF
##alive
Ex
SCAN
##Smith
scalars
##ROW
##Whereas
firms
recreating
Recovering
Formula
##recommends
Browsing
Navigate
CATALINA
KISA
##Jenkins
CVE
FI
impression
secrets
prediction
LDA
VALIDATE
Advisor
RDN
bethe
##MQZ
##Listeners
unprocessed
pReason
lasts
##Stack
invest
usethis
th
Incidents
##merge
##HDFS
parallelized
##Warehouse
thecontext
wascreated
tester
##PAGE
samename
##Inserts
notexist
anappropriate
adheres
sentences
Footer
Concurrency
PRM
Proframe
Exists
mutex
ink
isdescribed
rep
##Lookup
opera
modularity
DataTracker
Categories
##NIST
##PoC
##DOWN
coefficient
downward
cage
beable
RIM
##INTERFACE
##Pressing
GDDR
##CUST
PSMODE
##Expiry
QType
##Occurs
QMID
##Called
InhibitPut
##SDI
Directly
choreography
facilitating
##Essentially
ResourceException
##CCI
##QoS
Floor
Article
CLIST
DefXmitQName
##shift
##RemoteQMgrName
Armstrong
thispublication
Approve
##Introducing
SERVICES
##Plug
##daemon
##area
##Divide
mailboxes
SELS
CCOK
ODON
magazine
Damn
Fun
mp
homes
Northern
Approved
INCLUDING
Kevin
LGPL
##ProcessFinish
Farm
myfile
##arguments
transportable
RPCs
DVB
Lob
##Made
##water
WebtBuffer
NSC
TPCOMMIT
precompilation
Params
thesesystems
adjuster
##cBfh
Race
dpt
Macy
Robinson
##Si
##Ben
##LOBs
##Alex
##Michel
Swatches
##Bernard
strmqikm
##SPD
##Yesterday
Wales
Alfred
stoplist
##SSE
PFA
equests
Explor
##Sherlock
##Herbert
Gabriel
##Peace
##Claude
ibn
Loves
cerevisiae
##WASP
TGF
waittime
conclude
##Person
##driver
engaged
wellas
functionalities
Encrypt
CSQBRSTB
MIGRATE
##lp
LABEL
anomalies
Destroy
Border
thelist
Cobol
theformat
ofthose
genuine
##Attach
CDE
mqsichangetrace
##Issuing
##Licensees
Grey
Excluded
WITHOUT
anexample
Starts
encompass
tps
geographies
developments
messageId
##SVN
XXXXX
##managers
##CLP
BigData
##CES
nowait
RTYTURNCNT
holders
TopicConnection
##blue
thisproperty
##endpoint
Terminate
TPSVCINFO
Queued
##Entering
scanner
theprocessing
obey
##Whenyou
novel
sports
st
##directional
Describe
##HOMEDRIVE
esb
PUB
preface
imperative
stereotypes
twenty
##ity
swimlane
theright
elaboration
onlythe
INTF
infrequently
Southeast
invited
##NS
OUTER
TKSERP
##HELCHS
neural
bias
Airlines
COMMITTED
##NI
Principles
Reality
##NetBackup
##Tells
LISTEN
rearrange
##Edge
##ROWID
quoting
PRIOR
MQCFGR
MQCTLO
Behind
keystrokes
partnering
lessons
SCC
BFA
NW
LSB
SELinux
##netstat
##audio
analog
Leo
COMPATIBLE
Mandrake
Shock
##Rain
##STAR
##HTTPThreadGroup
LMID
##Late
##proframe
##VC
gid
##shadow
Clipboard
hostvariable
bool
MQeFields
Fear
Joy
##OTS
Guardium
forprocessing
sndbuf
ACME
film
XEUS
SQLData
StatusInfo
Beauty
PSI
##Columbia
UDT
##Sarah
SignalSets
inalphabetic
##Ring
##Fred
##Road
##bp
DMPMQLOG
BBS
ITSOGood
processorsonline
##Jeff
Lover
##Tim
PJ
keywor
wizar
SUBSTORE
Democratic
dei
##Girls
NNRTI
AAU
BART
SouL
TCWC
Conatus
##Hipposideros
reopened
inone
BCS
##Traffic
##LH
prefixing
differentiation
visitor
QMGRNAME
cleans
euro
orphan
Organizational
NSCP
MODBC
premises
Ranking
MQclient
##SupportPacs
WKSTN
##Assistant
unconnected
Pie
##Permission
##actions
ITA
theshared
Hypervisor
abandoned
notarget
XMI
paying
Trans
##Tutorial
Analysts
confgured
frequencies
Quantum
LGM
FAIL
Organized
Brian
Redwood
Directories
suppliedwith
##Alternate
forgotten
satisfactory
Selective
narrowing
MQZID
KSS
OMS
##EAIBK
##Layer
##idx
wanting
##Continuous
appreciate
insignificant
thedeployment
##Bytes
fileName
versionof
##Internally
##times
##Flat
##capable
Sent
deadlocks
alocal
PDUs
pilot
multitude
theintegration
modelled
whetherthe
##tiger
mutable
##gram
stacking
meaningless
convex
##Keywords
##history
transmitters
##Compensation
consolidations
uncheck
TIMES
Allocation
RIP
##ALM
##tracking
rsh
##FIFO
##Slide
preset
Adpater
##Fruit
CLWLUSEQ
DefPersistence
ConnectorException
lay
##ResultSet
##Traditionally
Ok
##std
##TEMPLATE
CSQCAPX
##Dual
MaxQDepth
PutMsgRecFields
Material
Princeton
Individual
Branches
##LOAD
datastores
##TABLES
QMQMSAMP
fileset
NetBSD
##DDR
Madrid
headline
paradigms
##tool
##DUT
XB
TD
##Escape
Scientific
precompiled
##CRNGT
era
##Southern
##SCHEM
CIH
NCLOBs
##typedef
land
##johan
LILO
Maybe
VMkernel
##Listsall
Theater
flowto
Pocket
dBASE
##Indian
##hostPort
Lawrence
Codexa
##Jacob
##Charlotte
##Girl
coli
Libertadores
theamount
Backups
ascii
holistic
proved
##Leading
prone
thecustomer
food
suppresses
Firmware
SRRBACK
STARTRBA
##ConnectionFactory
amend
##Chrome
QMName
##Postcard
##USERNAME
tprelay
authentic
accidental
decrypting
##Fully
##Deciding
Optimizing
ASE
##COMP
MORE
##ODS
COMPUTE
##predicate
modifiable
##he
uncommon
##THIN
Broadcast
counterparts
##EIMS
centered
##pages
Successful
spare
Shot
wasn
Requires
MZ
FHD
##STS
##exclusive
itto
##push
asan
oneor
Assigned
alist
Xpath
##RSS
CLWL
##tools
RETRYINT
Participant
reboots
spreadsheets
OnLine
##NIX
isrecommended
Via
thereason
##fly
arequest
untrusted
multidimensional
Ultimate
skeletons
inbox
dT
badges
##SDP
CASS
TMP
##baseref
##robin
##Wesley
tricky
supersedes
collaborations
##ness
inception
##SZ
##good
##BPO
BIM
Preserve
hashing
RTF
ARD
Du
VITRIA
##inhibited
##pos
airgwsvr
##zip
##Easy
Flexible
engagements
##Upper
MatchOptions
##DBCS
MQIASY
##REPOSITORY
##Break
VUE
dealer
Emptoris
ROUTING
Questions
draws
msgID
##drivers
Henri
##Handles
perl
##upgrade
skipping
BREAK
military
Lambda
CSECT
##Angel
##ng
WTC
##ASM
nation
##orders
Firm
TOS
##Chief
TPACALL
Ride
Florida
LANs
SQS
bone
INITRANS
RESOURCE
ANGCOL
MCAUserIdentifier
##small
Nuclear
pruning
ORG
##Members
OCCURS
lengthof
Booking
tbl
MessageId
##Rose
##ImqQueue
##Fails
IOD
CFC
##ko
MSS
ROWIDs
BaggageServiceProxy
executionswaiting
justification
county
Ti
Hmsg
##ALLOBJ
Forces
##HDS
YS
Palace
##Norman
Murray
EtherNet
CloudTrail
ARN
oratext
incr
Jam
AVR
Cinema
Recipe
FADH
##Francesco
##Ma
IgE
VX
IgA
XII
Uzi
IMAX
DSi
##Dance
Gonna
AOA
##Raymond
DRX
Dumb
interconnect
noticeable
##failed
InBound
opinions
abusiness
##accessible
IY
##ATB
ROLAP
videos
thetwo
##Thismeans
thisqueue
ispossible
honor
tampering
interrogate
Listeners
##repository
WARRANTIES
tracker
SALE
##Saving
inexpensive
##CAST
universally
##Hide
opinion
fragmented
expectation
GUIs
##nodes
newest
##shutdown
##ISSUE
TPC
##clock
Sat
forwhich
##KHz
##LIFE
prop
theform
beforethe
accumulation
##rmation
onthis
Dispatcher
AAAA
##EXPIRATION
MQZAS
alsobe
##monitoring
##Kill
jQuery
INITPARM
##USERID
##passive
##Alternately
synchronizes
Erase
erased
agiven
##frame
callers
Constant
Init
CTO
div
##Dirty
Choosing
generically
ICS
canaccess
##ALIAS
##SAMPLE
GK
Alex
discrepancies
ill
Theme
##browse
AUTHORIZATION
##DUMP
Pipe
Summit
##hours
BPMS
IdP
##Gbit
##power
lights
##Sport
ABGWSVR
aircraft
duties
##Executes
##Interoperability
ourselves
Claim
##Mb
RECORDS
ResponseRecOffset
noting
Dear
pt
Restoring
##DUP
cumbersome
nslookup
unprotected
##Going
##COLUMNS
decrement
mandated
##Structured
##digital
##PE
ARK
suffice
##JPEG
##udp
scrollable
##Makes
Territory
##PRIVILEGES
tty
subclassing
Iterator
##OA
Guaranteed
NLP
##COMM
Dequeue
##ix
##August
Hamilton
##Leveling
##ARG
Incoming
thetablespace
##French
CharacterSet
##UAE
underwriting
varrays
##dept
##Van
TPBLOCK
fc
Motor
##Callbacks
##UPDATED
EHR
wasissued
thetechniques
tk
Fiction
IBMMQ
NV
##lob
##ImqItem
FSD
PDFMaker
##Victoria
iTools
Dangerous
ovide
Musical
NKVD
UMNO
##Ctenomys
##Redo
thenormal
##UCP
##pc
##Passive
##split
##integration
##Dummy
construed
geography
outputq
blueprint
theoretical
Standalone
##Notethat
venus
Saving
##Derby
##Designing
##FUSE
specifiedin
theversion
Denial
##was
##runner
##Community
powers
optimally
explanatory
forums
##Probe
##DTM
XXXX
viewable
READY
##Xmx
SANTA
Redis
pursuant
fles
anindividual
aproblem
ADSL
##MQAI
##triggered
intermittent
MQAXC
applicationserver
##XP
dozen
##Themaximum
##Connected
inspected
thecontent
toread
OpenSSH
yourown
SEA
Senior
consultant
unfamiliar
##tar
Performs
ODK
anarray
##Storing
datastructure
XMLdocument
useto
MQCACH
##PREPARE
Structures
sin
society
cli
successor
##ca
Indigo
##CIF
pencil
Filler
##df
boards
Arrow
batteries
elaborate
tuxedo
##more
PVC
QSTATUS
Carolina
correlator
##QMQM
ResponseRecPtr
##LOGIN
##Profit
xsl
Buffers
Ms
SBR
##Wireless
##reject
Sever
Collab
##EXPRESSION
ODD
Olympic
organisation
Levels
Attempt
Britain
BatchAgent
##delivery
spelled
subordinates
Really
##IL
wonder
EZ
gtk
OpenOffice
Mins
Their
EPA
Circuit
replacements
GF
VAM
Conversation
Vincent
ACC
areusing
##Cold
presumed
windowing
SCADAOutput
Sycros
##Toyota
##TMAXOUTADT
OpenKit
PMON
Bookings
##ESX
JMSBytesMessage
qmanagername
MYFORMAT
##WebAdmin
SPACES
Letters
APR
Stanley
##aliasing
IntegrationServerMain
BipSampPluginParser
OnClick
##WebSnap
Catholic
XO
internetwork
Fantastic
sqlj
##Institute
##Illustrator
swatch
nawk
keyName
ChannelStatistics
Stunnel
ovides
eturned
##Patrick
Psychology
##COOH
iTV
##Anthony
##Harvard
Bf
Cooper
##Din
##Earl
INST
INSTANCE
##POC
Separate
##FX
fi
##Overall
##Optimized
dependant
reo
##userset
companion
DBADM
constituent
##MQInput
chars
UNI
Leadership
RAS
##POWER
CLNTWGHT
##Id
lu
##war
OSPF
SuSE
##Printing
packagename
TOOL
respondents
Cash
##mstr
sits
LR
suits
QueueReceiver
acall
insure
thequery
thisvalue
theproperties
##EXE
##privileged
##Operator
dumping
QUIESCE
##SUPPRESS
attaching
JMeter
collectors
##Splitting
isautomatically
isperformed
##Resume
todefine
##Roles
applicationthat
##applications
Labels
watching
foruse
##Placing
##SN
race
ia
PACS
##obj
morning
SERIALIZABLE
##Mission
PurchaseOrder
##MULTIPLE
mqCreateBag
Tags
typeface
facet
constrains
elimination
##shelf
pose
##Privileges
##Touch
HANDLER
GATEWAY
economics
jumpers
Cook
##ind
RDS
cylinders
DEMO
FiSS
Raleigh
##HOSTNAME
##OEM
Jar
lease
##match
##reason
##CSQU
AVAILABLE
PRINT
rejection
LPA
FRR
Aircraft
isselected
youcreate
NFV
probabilities
thirty
Replacing
Environmental
barrier
##NRM
Blind
##wps
##swesbpa
AOC
##catcher
MDOFF
AMQSAMP
wasnot
##Perfect
##Thu
para
##Kevin
PPPoE
Rush
cylinder
insecure
##EAR
tcsh
FE
UNESCO
DECnet
LoadLibrary
AVN
##lf
COLUMNS
##sprintf
wid
Workers
##SAG
UMTS
Ireland
##Week
Atom
PHR
##OpenShift
JavaEE
##JP
salt
AmReceiver
Navy
MQProcess
##Head
hostnames
##ICC
fg
##Rob
Animal
TAL
##brmq
TrueType
CHUNK
Km
idiom
##Palm
NOW
UAV
VJ
irreducible
Spin
##Ten
##WebtTXException
Something
Ernst
testfile
Creek
Dean
HO
eleases
oduction
Franz
Heights
ASEAN
kcal
Wings
##tempo
IWW
Pain
Fight
ZDF
Velvet
##WKBL
BDSM
FSV
CdLS
##Pteropus
##ILinkServer
ILinkQManager
##center
BizTalk
##Coherence
Altibase
tens
Capabilities
NOTE
##folder
mqsideploy
##MQSI
##identity
ASIC
jars
CBD
GMTTIMESTAMP
warned
##Contrast
ported
Visibility
spots
oci
##mails
vpd
correlationId
##sdk
shifted
##Navigation
Flex
##Doctor
PREACTION
reputation
accelerated
excel
##Demand
QueueConnection
governs
##Caching
##balancing
refuses
EntityType
##LR
iSendLen
provisioned
aggregating
##processed
canhave
Regions
##tune
Slow
contributing
informative
Passing
##Incident
destruction
##Comparison
##Functional
tw
Purple
Gmail
##Transactionality
Population
tiling
Purge
##EUC
##Modeling
artist
reusability
corners
##sions
aborts
compartment
dominant
##lls
birth
TRANS
pasting
Assignment
##FML
##Neo
EAIHUB
investigating
bezel
filler
##front
LWST
##TOTAL
TOT
##NetBIOS
##JST
##RATE
##published
##Publisher
MQQT
MTDI
overly
Meeting
FrameWork
multilingual
##Workstation
advances
InteractionSpec
reassemble
trptype
MQCCSID
##OWNER
thebeginning
##Eastern
##ra
##Bserv
##useparams
##DEC
stations
NTLM
##Electric
Populate
indent
telephony
multiples
##Structures
##kbps
Schools
Hunt
RESOURCES
multiplexing
Siri
capacitor
##EMI
saprfc
KOTRA
nucleus
DATETIME
##TABLESPACE
WILL
HISTORY
##Th
cloning
channeldefinition
Across
scorecard
tns
##her
plc
CITY
pk
PCTUSED
##deptno
theW
javac
##WANT
Pt
BATCHSZ
JMSCorrelationID
BTS
Austin
##NGO
Lion
##IEAI
##pragma
##Stay
Sorry
Vault
OCFS
##CAF
##Douglas
##IllegalArgumentException
##MyBatis
##College
##Tommy
Bear
fected
##Philippe
Bowl
Cream
Baptist
##Hyundai
##Ft
qui
Baron
Billboard
##Jay
Romance
FIVB
##Heroes
Lennon
##Lil
Fever
LRT
lbf
NBL
PASMO
adata
##Secondary
theorder
HLR
perception
dynamics
##both
##KVM
##working
##FDC
preselected
##resolve
simulates
##WINDOWS
##Notices
aresupported
dialing
ofWebSphere
servername
amqsputc
##Compact
replicates
##Indicate
PPT
employing
tweak
##MODULE
pervasive
##Ultimately
uncomment
Recorder
ISIS
##Voice
Advisory
amqmdain
POSTACTION
##UFO
##MERGE
thissection
##Listening
Cent
##testMgr
supplementary
##Incorrect
Un
detailing
PURGE
pseudocode
incorporating
##available
Spain
Fee
##RTSP
Lower
##week
neutral
ZDTP
joblog
Cryptographic
##super
thatcontain
##category
##Allocation
Potential
couldnot
##initiated
##metadata
##scripts
##Inner
geographically
Fundamentals
Filed
generators
applicability
environ
Gamma
repetitions
favor
useof
haveto
formally
##Compared
Governing
##Expected
##ES
##Predictive
forecasted
triple
##Rotate
duplex
clob
clashes
MultiSource
##Peak
##Driven
taskid
warm
inequality
VBA
Yahoo
##Absolute
notspecified
nohup
advisory
COL
##SIMPLE
enforcing
Dick
PMLOGO
Desert
MMX
NAC
ADAM
##sNotice
ModelMap
traceability
satellite
##rec
IRQ
Delphi
ADM
##PUBLIC
##Indexes
Political
##ALERT
TRUNCATE
Trail
##Times
##icon
DIAGNOSTICS
##Telemetry
##Jolt
VantageView
JC
UA
forWebSphere
eDiscovery
byspecifying
##Australian
Called
Marking
vuser
thisfield
setmqenv
Archie
subtransactions
Thank
##DIST
RH
Roger
IgG
##Stage
##szbuf
SIMD
AZT
##CWYFT
##SECTION
CRMs
##trd
Ryan
CIE
CERTLABL
##SVRCN
Strange
FPU
##MQQSGD
eates
##Ludwig
##Nicholas
Murder
Syndrome
KOVO
##Elvis
RSMC
##nCoV
##uence
##nity
signify
BANCS
ILinkCon
VCS
conformant
relink
remedies
QueueManagerName
MODEL
##TFT
IBMproduct
unreadable
converters
ICU
##YY
assists
FolderBitStream
ILINK
breaches
prospect
##ZIP
##Opens
twelve
deletions
##CNS
##fiss
competitor
rs
KRW
surveys
regex
technological
Rebuild
onlyone
##member
##msgflow
##Critical
SSLKEYR
Trouble
##has
themachine
YaST
IHS
##Mind
##Whenthe
toupdate
##Argument
Overall
##Reporting
##hidden
toany
touched
lag
derives
##Integrating
thememory
smartphone
Explore
hierarchically
trained
IntegrationManager
ClientConnPtr
GetMsgOpts
TCAM
usinga
systemadministrator
Intra
yesterday
##sign
reminder
##ence
substate
##editing
intrusion
##lowing
bearing
##ate
##extension
overlay
indicatesthat
datasources
subcategories
doubled
##legged
Southwest
Telecommunications
##IFS
Datafile
Lib
Recover
##CUBRID
##IDX
Campaign
additive
Optimal
##AMT
OGC
MQCI
##Businesses
illustrative
KAINT
##sysdate
denormalized
Dir
##XSLT
depict
ECMA
hardened
GOLD
##Ticket
##requeue
resetting
MAXDEPTH
probable
MQCFSF
ParameterCount
Trim
myself
UDF
Sir
sap
SRC
##ibesi
vmstat
BUFLEN
##LAGCluster
##Packard
FireWire
##Freedom
##mysql
netmask
uucp
valued
keyring
TMQUEUE
Gas
##Mhz
theschema
itwas
forthat
Synonym
##VAL
stty
getty
aprevious
Artist
thehost
##PowerUpSelfTest
##Sydney
Das
Maker
SVRGROUP
Preface
##svchp
##EVT
##studentnn
LOV
Parker
sparse
capacityavailable
Sniper
Miles
TComponent
Ki
ARPANET
VoteCommit
collectiontime
ded
plusWebSphere
Tale
eTapestry
Russia
jade
isfailing
eceives
ocessed
Diary
##Ernest
YB
##Pedro
YF
SIV
Bernard
KKK
##dL
Mercy
SSBN
##Smile
##BLG
##Calculate
DBWR
adverse
##Rows
##Maintaining
SYSOPER
##Initiate
yourapplications
payable
rw
##EQ
Ratio
##Symantec
Passive
##TSO
PROVIDERVERSION
##BAM
deviations
userinterface
postcards
ofany
elapses
mqsicreatedb
Following
Initializing
drawback
reconnected
##SQLSTATE
SOL
mile
popularity
MASKED
##conntype
reverses
##PRC
Helps
##Premise
POJO
DEV
Swagger
##CDO
beat
##Thisinformation
CTF
PROC
##valid
SVP
TCR
##chain
theuse
Includes
nicely
permitting
##Suspension
Utilization
impractical
aprocess
magnetic
##Known
reclaim
IDM
dozens
fold
Quote
##downlist
MQCUOWC
##tory
ties
##ter
submachine
thereferenced
##offs
traversal
initialvalue
Shape
recompilation
Weekly
Ownership
DHTML
SBC
##Kerberos
SND
Least
findings
Imported
chassis
##operator
##ZERO
##Drilling
##Interaction
SubLevel
ACCOUNT
PLS
Consistency
Tolerance
##ds
##sm
denial
senior
reestablish
redelivered
UsernameToken
mine
transid
CEMT
mqAddInquiry
TransportType
##Docker
ordocument
##Earlier
##FIRM
##AV
##Oct
##technet
##ACE
CUBE
theroot
Guidance
Frameworks
swinstall
tv
Dawn
Makes
xinetd
BLUE
carray
userlog
AIR
MAPPING
ICA
##ABAP
Aviation
WCC
Employees
Rijndael
IllegalStateException
##RB
NCC
specifier
##Prepared
##ad
CPA
Larry
##price
Mathematical
passenger
fle
JMSType
LUW
##Pet
##SELFTESTING
MQManaged
##Japanese
implementors
adistribution
##ROUND
calculator
MQDestination
MQConnectionFactory
TPNOFLAGS
spiking
sticky
##SCRAP
##scrap
SNOMED
pine
HOLD
PHPCompute
PeopleTools
PRC
##DAEBU
##ATC
##Homo
Roy
##Da
king
securitytoken
FINAL
GBL
DBS
Fort
svnadmin
Dylan
eviously
##Pink
Mg
Knows
Racing
Adventures
cAMP
BWV
PNC
WN
Braun
SUMO
SUGOCA
rough
TRLOG
##Brand
spring
##Explore
GOOD
Forbes
unmatched
##RR
##Logs
##Research
MQfor
authenticator
##Collecting
HostName
##Globally
##dot
##Authorizations
##Slave
##BOTH
ruleId
##therefore
Tue
RENAME
##facing
interruptible
##above
UserId
Currency
domestic
Steady
##Talk
##Specifications
##Comment
miRNA
##ING
##Improve
Milestone
Unlimited
FrontLine
Crontab
hereby
consequential
theMQSeries
isassociated
erroroccurs
ofcontrol
##Distinguished
##ltering
##Propagation
dialogbox
ableto
objectclass
aninstance
DAP
##Daily
Logon
mqmtop
seriously
suffixes
calc
obscure
##embedded
LMS
##OverviewdynaTrace
JES
##Background
subnets
##balanced
##upper
##Duration
measurable
maximumnumber
axes
thedevelopment
subgroup
Hudson
internals
officer
talked
youroperating
##scott
subsection
##aws
repre
##mental
aspeci
##Improved
##Compression
proliferation
INTERNATIONAL
campaigns
electricity
##Pull
##Passwords
Reliable
##Multicasting
##Siebel
##PPP
##Science
ELF
##BK
##BWMAGENT
CALLER
RUNMQLSR
CLWLPRTY
##frequency
##EMPLOYEE
MTD
Freight
boost
##Inspect
directing
acceleration
TPSTATUS
SCB
CHS
apple
##CUD
Hart
ITM
Db
Endpoints
##Switching
BKJ
reassembly
Protocols
Been
##Speed
MDMFL
commentary
INTEGRATION
##Devil
##Combine
devoted
Susan
##DOM
##Nick
abuse
##Programmers
tpenqueue
##Director
EDF
##QMG
SCR
CRTMQMCHL
##Closes
Val
##Neil
getopts
##Me
FLUSH
STRUCTURE
##Joint
renames
authorisation
##math
therecovery
savepoints
##resume
TAF
##HALF
docs
echoserver
aes
##Barbara
##ACCEPTED
untyped
MQGETcall
##strlen
COMMINFO
##Song
##me
serviceDeploy
HMG
##ROWTYPE
fullword
Academic
qmail
Victoria
##Ian
VHF
BusLogic
gradients
IH
AIRLINE
DSYPATH
IAppServer
##Land
vitro
Mathematics
Fisher
Democracy
bfile
##hostAddr
Politics
TSFI
MQversion
TCAS
Bb
IHL
noncurrent
ompt
SAMP
UDCP
everyactive
##Das
rRNA
##Carlos
##Po
JAL
Mountains
Destiny
Presbyterian
##Margaret
##Captain
MWt
Fuck
##MWt
BIGBANG
Chaos
Teen
Gabbana
Cdk
multiplier
Toggle
##Pure
##Outer
##bwadmin
inverted
##ALIGN
convergence
emerge
XMLHttpRequest
##VIEW
##Ending
requisite
##email
Grammar
Loadbalance
##Prerequisite
adefault
##qn
therepository
##EAIHUB
##principal
Camel
killed
tomanage
WW
##Invoice
DestinationData
##extent
##NUM
##Conditional
DataDirect
##Catalog
meter
multitasking
##Callee
Catchpoint
bounce
##Tandem
Annual
discipline
Important
Organizations
RESTART
##SKBM
MILog
Israel
##Lowest
Sections
thesection
##ACI
##quoted
whilethe
noun
##clients
##Anonymous
##Forward
intercepts
calloc
eServices
testers
trending
aligns
anchors
ulimit
thenecessary
messagesfrom
COMMENT
##easyTravel
ca
##httpd
##serverconfig
cascading
datato
chronological
Truncated
availablefor
otherthan
NG
stories
hooks
wishing
##Organization
##Shadow
toString
planet
mqAddString
shortened
MIMessage
Sep
##fact
expressing
specialization
university
misleading
deterministic
everybody
##words
itsown
cleaner
Dependencies
##pwd
##Loop
blood
##ICF
BWM
##HDR
##MAIN
##Performs
smoothing
Responder
rework
##Actual
##Dropping
##knowledge
GROUPS
dive
Bachelor
illustrating
UL
##find
##special
##Multimedia
ENT
Looking
VCR
##plain
##WTA
##FTPGet
MIDate
adirectory
pump
GMCMPM
MDRQ
##Midnight
spooling
NI
Newton
##mands
purple
microphone
##Debian
##TERMINATED
domainname
dequeuing
Birthday
##des
HOSTNAME
Virtualization
TAS
Quickr
DOUBLE
inhibitor
trailer
Verb
##CHARSET
equivalencing
##un
##Rolling
Sonic
concludes
bufferpool
##Gordon
##specification
##LOW
##portable
thetrigger
qname
MQSEL
ResourceAdapter
##EXCLUSIVE
##ImqQueueManager
MBeanServer
Fulfilment
projectName
Standing
CK
sex
Indicatesan
manytimesan
##relief
QMC
gis
##Ni
##vip
ensemble
Sing
Beverly
HSV
Blu
Johann
##Moon
##Returnsthe
##Pt
##Ph
Parliament
BeOS
examplebucket
JRLY
VMPS
opagated
Rio
GAME
##Ferdinand
Cultural
HARPS
Dei
##mmHg
##Women
Ali
##Dancing
Fighting
##Rubber
##Revolver
##Sgt
Shah
EEC
Nord
VLS
##Stanley
Blockbuster
YRT
##Microtus
##Peromyscus
DBWn
arch
seldom
##BWM
##classpath
##settings
CSM
characterize
systematic
Functionality
proposition
##Yantra
##Marketing
##GbE
OpenEdition
housekeeping
distinguishing
##delivered
##Authorize
collectives
##Mandatory
##Lowercase
Endian
Cognitive
visiting
cosine
##made
##Signal
##Partitioning
##Across
heard
complain
watchdog
##Beginning
specs
constituents
##Ramp
##Bin
suddenly
accomplishes
##Heavy
crashed
##distributed
##Band
JPG
PEP
##TRAN
promptly
Releases
Disconnecting
auth
JMSReplyTo
isimportant
connectto
orother
disjoint
EDMS
##Limit
MQPER
##Continuation
gracefully
FileName
RQSTR
Nine
##Hit
ost
redundantly
##processes
ABEND
thecertificate
Servant
blacklist
toretrieve
withan
##minutes
slows
tablet
andtheir
Downtime
##am
Counters
atime
Mechanism
sameas
baggage
ensured
compelling
consultants
##Connectors
Abort
Bits
Diagrams
forany
##ally
wind
##ever
Symbol
predecessor
agroup
Northwest
##DAYS
rebooting
##WMQI
TPETIME
UCL
##dis
##portal
##Guidelines
RStudio
pulse
feet
notebook
BAD
Slice
##comp
##FP
WYSIWYG
LNX
heuristics
Relations
VDMgr
##Balancing
##SPSS
OSPFv
hiredate
##mqrc
PARAMETER
offloading
Recoverable
reestablished
##Registers
MQDLTMH
##since
decoded
Ridge
pkgrm
##uri
##risk
FG
shock
PfnNumber
Acme
Ultra
Redundant
MDGID
RFNVS
##equals
##Rect
##XYZ
occasion
okay
inany
Vorbis
albums
##SUSE
avail
CAT
##Sound
##photo
blade
##Northern
AMDs
STATEMENT
BatchGW
Serializable
PTA
STRMQM
OBJTYPE
CloudFront
MEMBER
##Coordinator
##DESCRIBE
##NEPTUNE
MQSCcommand
ARCn
SUBSTR
thegateway
##Kurt
miles
JAXP
Sin
bc
RUN
##Clears
Loadrunner
PutDate
MTOM
##Mrs
dogets
logicalmessage
GALAXY
Holiday
Exadata
##Draw
tbs
##odata
tiger
GTX
##Xid
BPLM
##nCount
obk
##intot
##intraot
##obk
##DSM
CEDF
##CVB
BV
Passthrough
hashit
Liststhe
##SubscriptionsMetricof
repositorystoring
##Includestime
wasad
##Urban
il
opacity
MQOptimizedFlow
SCPollable
MCPollable
SourceRequestDescriptor
NotifiableSourceConnector
##MQCFH
Flower
##OBJ
AppleTalk
Rh
TPSVCDEF
Weber
ITSOESB
hostPort
MessageSetIdentity
##XMLParseException
fileInputStream
##Erik
WCT
Nova
nvi
Fish
##KO
mydb
SPORTS
NPT
##Eugene
Sinclair
DDG
Heroes
SNL
##DLM
Incremental
Tuesday
##unitinvoker
##Standards
##Configurable
##Dedicated
SIEBEL
LoadRunner
mteagent
Ezis
##oNline
notneed
##Lightweight
DatabaseInstanceMgr
##PREFIX
##Topology
hyper
KIND
Packaging
canchange
slaves
##Refers
##Everyone
escalations
entitlement
##INFORMIX
##ADMU
BPEDB
spin
reg
##paste
className
##Transmitter
Strong
FAQs
##height
Camp
bpc
CAN
##EMPTY
##Requester
SOFTWARE
Effective
officers
regressions
##OpenAPI
ofOracle
TopicSubscriber
##EF
destroying
isspeci
Marks
amulti
##Blocking
Commits
##naming
##OAM
##BACKED
##Failover
##AccountingToken
##transactions
instrumenting
##Nodes
##starting
Controlled
##Numbers
dothis
##agents
##Sent
origins
Trending
thedescription
finalize
issent
##Lifecycle
virtualmachine
undergo
studied
eCommerce
SPECIAL
bea
Dependent
accelerating
Entire
##MTECC
Adapting
##hot
AW
##OMG
Nick
##tomer
decomposed
tailoring
unmarked
##Composition
##ated
programminglanguages
##META
Interview
##basic
Experiment
theadapter
grease
BX
ICO
STRMQMLSR
CSQXLIB
Alexa
HID
PDAs
##Servlets
grab
##VLAN
tbSQL
rebuilds
LTERM
PutMsgRecOffset
SelectionString
##Associated
EIA
designation
WEP
##Soruce
XG
booked
NR
##Domino
INS
Phillips
PH
Deutsche
SIBus
handheld
Widget
mimic
tank
fundamentally
Dutch
grew
representthe
Digest
suffers
Cover
cascade
GATT
Singapore
Worklight
Jersey
Heavy
##Datatype
setValue
acharacter
fed
academic
##ifdef
MQReply
MSB
##CL
Noise
reviewer
MQJMSTransform
Rocket
EXE
##Directbridge
##BufferLength
decompression
CONSTRAINTS
aglobal
##UNUSABLE
UCI
##cts
JNLP
MQHC
libmqmxa
ClientIdentifier
Jump
##Winter
Enough
##Nature
##Texas
documentjob
tempfile
##Dan
NVR
STATION
andproperties
ApplicationProgramming
##Bo
##Jones
QMQMJOBD
##Roy
ZFC
##ImqObject
Warren
BPS
OIDC
Rogers
CWSIS
Nam
SCBK
Piece
Shield
RER
Michel
Workgroups
dem
HEU
HEART
Giant
MSV
Honor
##BPI
##Ryan
KRE
TSG
NPO
##WGSN
Bo
TOICA
GLUT
MGB
EEG
NSB
theinstance
Agile
GUIDE
##BAR
Inner
ISAPI
Travel
suffered
##verify
Backing
reenter
FFF
##Certificates
##Heap
MQHCONN
##StrucId
bought
ci
studying
stolen
overheads
XAOpenString
##Multiply
REXX
##Renaming
FtpServer
jndi
##cardinality
BASIS
##Packet
##Spatial
instantiating
reliance
adopts
hyperbolic
##Graphic
ubiquitous
##tpacall
everyday
launcher
##Packaging
##also
##packages
InfoCenter
##GigaSpaces
##HANA
Perimeter
##MPowerP
tomcat
##flush
##PT
warranted
##VDI
assessing
CORPORATION
Mutual
possession
contractor
undertaken
withother
topmost
anyof
Descriptionname
XT
discounts
MUSR
progression
PartnerWorld
Deactivate
patients
##Slow
thetop
##Hosts
toallow
recycling
outdated
PLTPI
interfacing
##days
##duration
##Sessions
Writes
Tap
fuel
##MQCLOSE
Retrieving
##MONITOR
acronym
ofits
helpyou
##track
indented
##tive
eachother
##Prefix
Representative
##Condition
NXA
objecttype
OASIS
Tax
##duplex
intoa
Strategic
Wrapping
##REMOVE
##RACF
occasional
CORRELID
##CATEGORY
##Sort
marts
##FACT
Triple
portType
Editors
surge
##backout
UNDO
MaxPriority
OriginalLength
ImqCache
MSP
WPA
Implement
Compiling
viable
Manages
##Editing
##least
justified
##flags
MDFB
CurrentQDepth
plant
##Esc
##capicmd
std
Hewlett
##Boot
NNTP
BBL
##subtype
subcommands
##committed
MVNO
Therapy
aws
TRX
##BZFL
PCS
FAA
##fix
GMC
##Width
thecursor
SharingConversations
Matthew
subshell
##creation
##cs
##mt
##Cumulative
##Cookie
##ASN
Wing
Klein
andencoding
Australian
Heritage
LTPA
FileTransfer
##fte
##Thisparameter
##RTI
##Em
Strike
##XID
##ExitResponse
##ALTERNATE
Attempts
##PRAGMA
##SKB
buildclient
tcpdump
FORALL
envhp
Relation
BookingServiceWSProxy
ParameterType
##MQFMT
Reed
##Wake
Pan
DIN
MH
JANUARY
##dbExpress
TClientDataSet
bastion
Chance
elds
APPLTYPE
##Antoine
Ho
##Oliver
Hughes
Cruz
##MBA
Altura
Stay
lexer
topicObject
softwar
##Rainbow
ROCK
zEDC
Cake
MeV
Biology
MIRV
SFSR
##Jesus
Herbert
##Ain
JST
JFL
FFC
BSL
##EO
##ILSI
JUICE
sensible
##Rich
##Appliance
##OWASP
##Rebind
##temporary
##CommonBaseEvent
##Virus
LogFileSize
Attr
WIPI
##HIMS
OpenID
acomplete
hops
##CIO
Shutting
POM
Cartesian
##Transition
Breakpoint
##setting
##publib
nodeName
SCOPE
##problem
##pair
EDS
Income
##grant
taxes
CDO
Chip
competent
bullet
##Thiscommand
theavailable
watches
##executor
##Installable
ServiceComponent
##Committing
##Probably
unrestricted
Continuation
hyphens
Jung
RI
##SPOKE
CodeLink
ng
##wp
##func
subcommand
Diagnose
spawned
Finally
Executor
thepage
theexample
toselect
tosee
##Defaults
##Conceptually
##Instant
##Soft
afunction
versionnumber
reloading
globals
flushed
Immediate
oversight
Plans
himself
##technical
COMMUN
##ISMS
##WM
Modes
Fax
##BatchAgent
devel
##ows
viewpoint
denoting
clearer
triplet
##Natural
governors
Arial
Shortcuts
STANDBY
SINGLE
##Http
fopen
avalid
Trees
grasp
lever
##deep
Representation
CommonBaseEvent
MQWXP
Gift
diversity
analogy
CAL
DSNAME
##INHIBIT
##MANAGED
NeBios
rcrmqmobj
##owned
MFC
MPLS
Exporting
lend
Engineers
BCE
Catalyst
identifed
##STRNCPY
batched
RCNONE
##Packed
##ILINKHCONN
Pen
##Strange
political
##updates
Suppress
stan
##Nobody
circuits
Maintaining
porting
PROD
##Overtype
NEOCrypto
TargetConnector
Wn
mb
unforeseen
cultural
VERITAS
Hole
Brazil
##lower
thesequence
ofcharacters
redhat
##BUILD
hung
##JOLT
Whole
OMEGAMON
blending
ISVs
##traceq
Tridion
##Aliases
BIS
ActiveGates
##central
REBUILD
UNLIMITED
##subpartition
gene
toconsider
RN
CERT
##rps
##Chinese
Variant
railway
notcompleted
ImqItem
PROPCTL
##Axis
##KMACS
MDI
TPTYPE
tpdeq
Shoes
Zeus
Banner
NEXTVAL
CosActivity
Dialogue
##SQLSMALLINT
##Larry
Wake
HM
##nder
Killer
getXAResource
##AFA
SecurID
Keith
##est
ASD
TPOK
Cl
CMCTL
WBIPreUpgrade
##FDP
keystroke
SORES
puppy
##behavioral
eceived
BET
Junior
Chemistry
##Josef
##Ralph
Voyage
TNF
OGN
##neo
##Forever
Swan
##CONCACAF
WGSN
lowers
tomodify
predominantly
##ABSOLUTE
NetWare
believed
##Cape
##Highest
##Enhanced
##vendor
buyers
##heap
##Stateful
ExceptionListener
TCPNAME
transporting
strmqcsv
##GlobalSign
Therefore
GKMC
Positive
##linear
anomaly
##AJAX
##Thequeue
sametime
mqsiprofile
##NUMERIC
mqsimigratecomponents
Inactive
##nodename
##intf
CONDITIONS
##PU
HOMEDIR
configurationfile
aservice
loggers
IDENTITY
##Constants
unary
finalized
cater
MOCOMSYS
eXchange
prioritization
##tpcall
ADC
MIC
##Extension
##MQGet
Inbox
conditionally
QRadar
HIPAA
##standby
MST
LV
Wednesday
commencing
ESOS
##HASH
InfoSphereTM
rcon
Nexpia
##SEOUL
##Reboot
Obtain
anadministrator
thetopic
isin
stmt
serializes
memberships
Characteristics
bridging
##Returning
##PMQCHAR
Jonathan
Alarm
positives
IDEs
Timeframe
forum
overload
fromyour
setenv
COR
##started
tolerating
followingvalues
toenable
HKEY
##round
##coordination
theindividual
corporations
Requirement
malformed
##qmgrname
eval
theinterface
atransmission
Packets
ne
##sc
tocheck
applicationName
displaythe
agenda
DVR
tableName
acct
BusinessObject
ithas
semantically
##OBJECTS
Adopt
MQEVR
BROWSE
##tail
##PCS
Pause
builders
emerged
judgment
ofwhich
##tional
thinks
succeeding
composable
##TextInput
XMLTransformation
waitTime
Jeff
Gender
discount
Difference
emission
workgroup
mL
##SUPER
##UID
HPE
##CLOPT
##cust
WSS
##Imports
redirector
##Coordination
lazy
rigorous
uninterrupted
towork
##Jennifer
ARE
STAT
reformat
##Scan
##holder
CSQQDEFV
PutMsgRecPtr
##SUPPORTED
factorial
Bring
##Exercises
thepublication
tothese
areprovided
##PIN
WRT
##CHASU
##REP
##AE
Crystal
BIG
BOS
wpsadmin
Nexus
swremove
Wrong
Nobody
##sysconfig
Missile
smitty
stripe
Redirect
Cells
HADR
SDE
testbed
Labor
IDA
Schneider
CAP
Introducing
##mo
TPR
SQLDA
ifthere
cvs
##ory
##Portability
idl
##COS
##PP
##Means
brain
managerand
OIS
Decrypt
Boom
##Substitution
##RECEIVE
##CDMA
Demarcation
Heroku
SMT
acommunication
wolfssl
projectgroup
amt
aninput
##EPCW
NMT
cicsmkcobol
messagedata
##Ilink
emulated
gp
TPTIME
##cdecl
piecewise
fieldis
##adsd
##article
Drama
Submap
targetdatabase
##FPS
ors
Beck
Universities
SunSolaris
Darwin
Whitney
SQLT
ITSOESBBus
##envhp
##Crew
##BEST
##DISP
##Sky
SCE
Broadway
cum
WholesalerB
##COVID
esh
epar
Productions
Dogs
doVerbFor
CNC
CNBC
Lucky
##Council
##Jimmy
##Ronald
Gay
ANC
##Maurice
Dolce
IAI
SPOTV
HDC
Bye
Eurex
##IVB
KinKi
Stranger
GBU
##YG
##Hugh
OSC
Illusion
LBV
Formation
CDK
EXID
MYFC
##Akodon
subcomponents
##gures
PERSISTENT
##DET
BPMN
javadoc
Cleansing
entails
partnerships
steady
##added
##Industry
SSLCipherSpec
##od
##closed
tablets
mental
arecreated
iswritten
andhow
sandbox
keytool
##Larger
JDBCProvider
Revert
apostrophe
##Override
Absolute
canceling
BTM
stacktrace
##ROLE
TANDEM
CXF
auditor
Identifying
isthat
Multipart
Instruction
##LEFT
capitalization
##Series
##READY
##Processor
##ascii
##Creation
TEL
interprocess
dmgr
Escalation
##Staff
validations
disrupt
##ilink
##Caller
##APT
HSDPA
Bundle
Stamp
negligence
Lang
WindowsNT
##DMS
therange
reentrant
dspmqver
##Wherever
MQUS
MsgID
pExitContext
##PPMQLONG
##allocated
Enumeration
DATAARRAY
yearly
aka
uncompressed
beprocessed
##Recording
callee
throwable
anadditional
hardening
BUFFERING
Kafka
son
Legal
announcement
##Meet
EAM
AIG
##present
informationon
itmust
theparameters
##Extending
##checked
##dialog
##ILOG
##Intra
SPAN
Ward
spe
##tor
##Keyword
##tailed
aproject
messageNumber
Contacting
##skip
Chassis
EPC
##ND
mc
##Things
forecasting
ascertain
distances
Partitioned
##MFA
subprocesses
##WORKLOAD
Pivotal
Places
encapsulating
dispatches
##featured
JENNIFER
PRIVATE
CSQT
SETSSI
TPIPE
##REGISTER
rcvlen
Detach
Deliver
reportexecution
Datasets
##LIC
checkIgnore
EXCLUSIVE
configurator
##Shutdown
demos
disclose
DAB
ATFMS
OFA
HELLO
EMF
MQINT
PMSETA
##MESCluster
##images
Plate
GIMP
TH
useradd
john
##printable
MQPUTs
controllable
ASL
DBBL
paramName
ITBOX
##GF
CCS
KEB
##listen
##PROFILE
##Navigator
TTS
TXT
xi
SQLERROR
OVER
terminfo
mirrors
##Box
slept
BAT
Jacques
##prod
##vector
##Park
sna
immune
PRECISION
ART
##German
passivation
somebody
##xsl
PoolManager
transactionbranch
transactionmanager
MQPOINTER
AMQSERV
ObjectRecOffset
##Precompiled
sslCipherSuite
##represent
Beats
##BA
Roses
##OSI
##Jackson
##HS
makeQuery
Warrior
##well
Connectorsand
Semantics
Clarke
SOAPAsyncResponse
informationprovided
##dpi
##strong
##tu
##Ed
Manchester
te
ofp
##Tc
##dbs
NAMESCTL
Voiced
VARRAW
Houston
Entrust
Thousand
Turner
shareware
girl
##Ocean
Solar
Commentary
##Andy
MQSYSP
forwar
ecover
Dirty
##Lincoln
##Leo
##Fritz
##JTWC
Prix
##IAU
##Marcus
AEG
Infinite
CNO
Mitchell
JPL
Rouge
Mt
Mario
theology
##River
Singles
Eugene
##MSK
Unplugged
Fighter
Wayne
Wrestling
FIGC
DJMAX
Youngsook
##Zuiko
Archiving
thebackup
beissued
aaa
##SHELL
##ALWAYS
rx
##ldap
burst
BizMaster
geo
ZERO
AMQA
SUBSCOPE
DFDL
##download
referto
fromwhich
sweep
bipimain
messageSet
##authentication
BOTH
Clinical
robustness
CASTs
##Author
GMTTIME
##MO
##counter
classroom
##Signature
Traditional
handshaking
##large
##Supporting
Shipping
##Xms
remind
MessageFlow
##SFTP
ql
thick
Platforms
##Wave
RTYLONG
thejob
##Con
##destructive
ombaq
Given
determinethe
ejbCreate
##Decomposition
##failover
folded
alterations
fuller
UE
Trends
APA
themetadata
holiday
Reservations
theaddress
##Restarting
caption
compresses
Adjust
thepercentage
fallback
##Experience
EasyTravel
thathas
Instead
##Offline
##resources
walks
##explanatory
pa
Deployed
inprogress
untilthe
unresponsive
isalready
Sydney
##Training
creative
LAX
datahandler
Checklist
objectdefinitions
Recipient
familiarize
canthen
isrepresented
##Construct
BNF
CATCH
metamodel
lan
andso
cooperative
indifferent
orthogonal
##stand
abstractions
notthe
Leaf
cease
Italian
pri
hasa
thelanguage
##Thename
actionis
##Decimal
Invoking
TPCall
##routing
Ecosystem
Portfolio
Nice
Obsolete
OT
ber
thisexception
variability
rentals
debate
##RAISE
Curve
##Mirror
##PIPE
natures
XACOMMON
XACHKCON
HEADLEN
SDI
normalization
LGA
##FAQ
mediator
##Hive
##CPS
Securing
CSQQ
RETRIEVE
RBAs
##Respond
PERFMEV
MAXUMSGS
##EMBEDDED
ImqDistributionList
##functions
specifiesthe
banding
datain
Daylight
fps
##night
SYSZ
SZ
##KSC
##CMOS
Eve
BizHub
TRY
Indexing
replicating
enterthe
MQUINT
##MQMDE
Electrical
JBOSS
Keywords
MPlayer
##CE
BNC
messagethat
crackers
FLAC
andserver
getValue
ULOG
MSSQ
tpcommit
paramValue
inspections
Consultant
handed
barriers
##pay
Wells
Gates
KL
##XMLNSC
TMax
##Ron
DBAs
gate
strokes
accident
kernels
##PSP
##RG
##Executive
Frontier
##WTX
dialogues
##LB
SWF
##stored
PPM
##COMPAT
NullPointerException
VRM
dependence
jobexecution
StoA
##iBuf
Needed
Half
AMRC
##HMSG
reasonname
##SEBI
##Pan
TELNET
gtrid
Bloggs
##PROGRESS
USIM
ESR
##Selects
scanline
Shipped
##PRESENT
##BoA
dvPort
scriptlet
##stmt
OL
ruleflow
CAPTCHA
##CAPIS
OPEC
Monte
##sex
Secretary
Bull
thelocator
OCILobRead
PCTVERSION
##WebtServiceFailException
##Marc
##ImqBinary
Stuart
Fischer
##Hell
GAMMA
AIP
Internationale
Constitution
Fool
IRIX
GPA
COO
ule
Chan
econnection
YWCA
MITS
Jude
##Mario
Allegro
Wallace
##Nicolas
##Rio
##Heaven
##sexual
##Mus
Churches
OSCE
##Catherine
##Vincent
EXILE
DFL
KIXX
MSK
CVN
Zeppelin
DSB
Vinyl
Hox
##Gerbillus
toavoid
BSP
misses
inef
parallelize
yourdatabase
Methodology
##ASync
##SMB
endorse
mainstream
##iLink
MQCHLTAB
OMA
ScheduleRule
CFO
Mocomsys
mqsilistaclentry
anonymously
Connecter
##IONA
Finding
iterating
RootBitStream
##Float
negates
instruments
##runmqtrm
OPTIONAL
##Rapid
blind
##grade
##wizard
##Nor
Avoid
##Disabling
NDMS
Corporate
Various
enumerations
##Customization
PPS
silos
hi
WIN
##Pub
##NIS
##EOS
Landing
Capsule
profits
commercially
Successfully
checkboxes
beexecuted
lessthan
canonly
messagesthat
##Seethe
##publish
##DAT
##crtmqm
preemptive
DEST
##ObjectName
ProfileName
Coffee
##ETRI
##hide
##Plugins
catching
sourcecode
databaseadministrator
Annotations
##law
PAN
thatdoes
sentto
##Threads
##JS
##Accordingly
wayto
Reads
##minor
todelete
rooted
SQ
exponentially
emulators
laptops
AgentProperty
##Age
##Into
anindex
isdetermined
derivation
##ects
indirection
abstracted
##ProjectName
LOGIN
##Quarter
##Retrying
##ABORT
Degree
Logistic
##invalid
##SUPPORT
Exact
firmly
brevity
ABB
MAIL
administratively
##REASON
ClusterWorkloadExit
CHAINSTORE
POLO
##Hand
##invoke
Enhanced
Clouds
concentration
##DDoS
##RBA
##extend
CSQY
retrievable
mqAddInteger
MQSRO
psc
CFLevel
amqharmx
amqzdmaa
Archives
bypassing
discovering
##Layout
##preprocess
##Widget
GPGPU
##DBG
MIElement
Proprietary
Pi
##employee
GMATM
##GERPswesbpa
##origin
##RES
##choose
Configurator
joe
##changing
scene
hubs
isone
Han
Interest
AWT
BRIDGE
rollbacks
literature
Architects
##VAM
##pv
##USAGE
Pgm
##Joan
ERRORS
Neo
##air
DataHandler
##Division
##BROKEN
therow
gdb
Foster
##ok
Lincoln
Forge
Planner
Telephone
brown
##specifies
##onepass
ITF
currentuser
grantor
materializedview
theview
MAXEXTENTS
dpi
##Un
AmSender
theremay
COMPAT
##Hall
wsimport
KMACS
TPSTART
swatches
TPNOCHANGE
onstat
##anti
OCIHandleAlloc
meters
stash
GG
typeset
TWO
inputmessage
SAPRequest
##Ghost
##FT
##Metal
invariants
moderator
Official
##light
ppm
Po
READS
##TERRITORY
CONTAINS
##Gary
##typeof
FCS
oss
Scene
subcollection
Bass
WED
Valentine
##Harold
SecID
ACTive
##Wolfgang
DREAM
Drug
Sisters
TSMC
GTA
NPR
Coliseum
DKP
Lil
Hilton
LPDDR
##KADOKAWA
NOB
##FREE
ranks
##FAST
Quarterly
DMX
##Emergency
fear
toestablish
Informatica
differentiated
SPA
##Clean
staged
renegotiation
##PERMISSION
Vusers
##BizFlow
##CCS
Prerequisites
furtherinformation
##tm
serializing
retransmission
Minimal
utf
SOAPReply
##keystore
classname
VPNs
##PDA
##Robot
##TIMEZONE
##controlled
##KOR
Thu
##Included
interdependencies
CLOUDSCAPE
##border
Funds
##Reviewing
disposal
imaging
##Dev
##especially
##COMPLEX
datacenter
ofapplications
##fclty
apparatus
SKBM
decouple
##Counter
##OPERATION
IRIS
warrants
##CRUD
FQDN
Durable
Producer
aversion
DNs
tocontrol
##OPTION
clientapplication
dequeues
toinclude
##lookup
manger
PutApplName
reuses
##strmqm
AuthorityBuffer
Charting
adherence
##Allocating
preprocessing
li
incompatibility
hanging
##Less
Thresholds
cyclic
structuring
Benefits
dig
beset
Spot
##trigger
##Regression
animplementation
replymessage
pulling
isconfigured
datathat
headquarters
abilities
broadly
##CAM
MCD
internationalized
Verbs
##Army
##grid
citizens
MQACT
##MQTMC
recycled
##Frequently
##cial
oftime
automobile
rede
buyer
picking
arestored
##Interfaces
##regardless
##sent
undesirable
onlywhen
Encyclopedia
Merging
##disabled
theproblems
##best
##hr
##Incoming
bps
sq
Conservation
Deffered
cameras
consequent
##Flight
flashing
duringinstallation
##BG
Balancer
Weight
wchar
##InterfaceID
Detroit
VariableUserId
Might
##HC
mrm
Typically
cheaper
Hierarchies
bright
##Cat
packing
OFFLINE
INTERNAL
QDepthHighLimit
MQGI
mqCountItems
ChannelName
roleback
knew
##Button
FIU
##Outside
DCI
##NB
##Swagger
iRMC
transceiver
ServerView
rail
Mbit
VOC
##Minute
determinedby
##NN
PRIME
errant
echoes
##Compaq
Tank
##hda
yourcomputer
thisproblem
fish
IPs
isstarted
##SPEC
##Portable
##keep
ordatabase
##VCS
##RESTART
TMQFORWARD
enqueuing
syncType
Dept
##Fatal
RfcDispatch
ra
##Society
Compound
Tpipes
MQGETs
CustomTrace
##LM
theelement
##tibero
ROWS
storesthe
ToS
getObject
##smart
arerequired
##Anylink
##logger
##Transfers
##oc
CUPS
POSITION
Lesson
PowerShell
pam
PerSecond
thematerialized
MAXVALUE
parallelexecution
##XCWCIS
JDOM
preparations
##Parses
##USN
subdomains
##sid
##RI
##fault
PETA
##letterqueue
theMQOO
pmo
yourinstallation
club
productCategory
##Hour
Bon
##Explicit
##ICOM
##Bell
Brother
##sendmail
Riders
##Cfrm
AIK
##ratio
Aurora
AMIapplication
BPE
QueueMonitoring
moon
InternetExpress
Triangle
Harrison
Ron
Leonard
Carlo
##uint
SignOn
Groove
Bailey
affine
##Lie
interior
PAGENT
SQLERRD
rhcs
##ImqError
Disease
LST
boy
##CGV
##lexer
WholesalerD
acr
##Arnold
Gang
##Lewis
Wagner
##Gustav
Belle
ABO
Cemetery
##Mg
##Mt
Freud
EMU
XBOX
Canyon
##Princess
Otto
Daughter
IFFHS
Disorders
Parade
Somebody
##Andrea
Maslo
SEPTA
GV
itdoes
RESTORE
jvm
ws
Kick
ProLiant
SPEC
##ESC
##Expect
debt
##Vertical
chown
##Carry
xxxxCHIN
staying
downgraded
##Ensuring
##MQCO
Dynamics
thisprocedure
environmentvariable
applyto
authorizes
##userid
##XMITQ
degraded
MAXMSGL
##rity
##WMS
Removes
COALESCE
##inner
SELECTs
##Operators
Gregorian
NEXTSIBLING
statuses
HEX
workings
ISPs
setups
federating
refund
##DataDirect
Assigning
thumbnails
##Expiration
Sullivan
##CMP
##Chart
##VI
##Oil
NDS
ofthem
##rtm
milano
##brain
DBPLLAY
##POSCO
pSeries
##CRT
##SFA
needsto
notallowed
bedisplayed
##DN
usersto
byan
toeach
##Forget
foregoing
centralize
NETBIOS
endmqtrc
Currently
EntryPoint
Pin
strcmp
Replay
installers
dtagent
notcontain
SRB
openssl
##same
##Usethe
Improvement
##Protection
richer
Conflict
Monitored
dataand
enormous
thisfunction
alleviate
Schedules
##SUD
Skills
Slack
invested
##Owner
GPN
thegenerated
sixth
primarykey
unsuccessfully
mqSetString
Identifiers
##MQPS
lvalue
BSM
itemName
propose
informa
##primitive
synch
junction
surfaces
##Expressions
theinitialization
prescribed
practically
##transform
ceased
boththe
hardcoded
##wired
WINS
bays
##Am
##directories
Scoring
followingsteps
Turbo
##Jump
NOP
EG
##being
##Woman
revolution
Worlds
Motive
VSLength
##NVL
##pk
CDR
##Qualification
Archived
##comment
##IOP
recomposition
balances
##ASC
Workgroup
Consolidation
##VSPtr
informationobject
notinclude
susceptible
Switches
Bubble
##BMN
BUILD
##DEV
anaverage
storm
defned
##transport
Sharp
toresolve
Establish
##OTMA
##Mars
Commander
##ikm
Amsterdam
Ogg
##Fedora
bunch
fdisk
##provides
##Limitations
makesure
##Relay
##NAT
illusion
crack
##Linking
RACDCERT
thereply
Portrait
xlsx
##Useful
##IB
PLUS
PIs
##CAD
Symbian
gif
##HANDLER
SMC
##Trailer
##Handler
CONSTRAINT
##Susan
ln
##pending
safeguard
capitalized
DST
Quit
CipherTextSize
Budget
Vulnerability
streamlining
PPC
##Professional
##Panda
Scenarios
##ECHO
vMotion
HAProxy
##DF
restartthe
IU
Bonding
Jason
eXtensible
##Ice
Wine
InterConnect
FDF
##SDOX
IDispatch
IMSC
##RETRY
thefield
MQSimpleConnectionManager
MQPoolToken
##BODY
ServerSessionPool
##tmconfig
TXCOMMIT
Xi
TPNOSIGRSTRT
Namespaces
##lab
channelinitiator
NameValueLength
Sunshine
Wee
andfinish
##Char
Thomson
Adler
eCross
##KCB
##Stuxnet
##heuristics
AUT
Springer
##Kg
sheaf
Et
##Julia
Chung
Imperial
##SU
##Carlo
ColorSync
##Awk
HomeSide
WITHIN
Presents
Raymond
##Church
auf
Rudolf
##Howard
fMRI
Sword
RAI
kbit
ZANU
Mpc
JFK
Mad
##UNESCO
Lloyd
FAO
Kings
AGP
Monsters
##Rex
Vida
##anxiety
##inds
KSLV
PIRA
##posterior
TVB
Outsider
infrequent
torequest
##SAVE
##MANUAL
Containers
prev
prospects
Charts
rising
WRKMQM
unplanned
##Latency
##CONSTANT
##Exchange
familiarity
thatwas
notalready
witheach
residency
decrypts
SRM
STARTED
BIPEDIT
losses
initialisation
##override
tran
Holds
##Principal
assemblies
levelof
toadd
AMQCLCHL
reverts
Warnings
##SUBSTRING
##TAC
##Transformer
consisted
featured
installp
##Launchpad
addressable
##clustered
Predefined
Overrides
img
##jdk
##extra
tube
##Micro
Distinct
##Unicast
Neural
##ITU
##terminate
forbidden
QueueSender
matchthe
##oating
thismethod
util
##BACK
##DISC
qmname
discrepancy
##MCAs
##Flag
police
smartphones
organizes
byclicking
##Behind
subpool
##reverse
reorganization
inmemory
norm
Configured
Requesting
valuefor
Attachments
Contacts
##Hashtable
ancillary
##prone
##clean
Continued
understandable
##respectively
Quantity
Vegas
Analytic
Jacob
thatit
atrigger
Observer
inde
aninternal
ful
indeterminate
encodes
thebehavior
dec
precondition
bare
apparently
##Exact
SourceExpression
##Expression
CVP
lane
MDC
Harbor
##BASIC
Chi
systemboard
screws
tofind
Taiwan
tokeep
##DECNet
VU
XR
Corner
ENTRY
viewers
##TUX
soccer
Films
##XACOMMON
##SRVGRP
intermediaries
Improve
MDA
claiming
Engines
##DG
engaging
tomorrow
##Deselect
CKBR
CSQV
CSQW
REPRO
##BSDS
kwd
CRESTART
heads
MCS
BaseQName
##GetMsgOpts
TE
synonymous
Blog
Kis
Dedicated
workbook
toopen
##WRT
Datacap
SES
##qname
##Street
BizActor
sophistication
perimeter
Platinum
FTPPut
##Indexing
Franklin
datais
##Alone
isolating
CNVER
Rejected
Gbit
depot
##SLS
songs
surprised
dance
##da
subnetwork
BackEnd
jabber
orderto
providedby
accompany
vitria
##blob
##jhlee
reconstruct
##Prompts
Monkey
##XXXX
RECV
Competition
##CMID
##GRANT
Genesis
DHL
ODF
##FB
Seasons
##score
separations
##tb
##Mean
##TRM
DIRECT
speaker
Symbols
SIG
Assured
##AGGR
##CV
nCipher
SPLIT
ProcessFinish
##Law
##Pocket
Beacon
coordinationqueue
PERSON
##Limitation
##Killer
PCC
##HT
SMALLINT
Eden
Pieces
##REPCAT
ePOST
##COO
##EPC
createConnection
##PCRE
compensated
Graduate
theMQOPEN
ObjectRecPtr
fulfilment
BNP
sky
DataStructure
MsgBuffer
MEDIUM
##Somewhere
EMT
Ian
##alpha
deliverywassent
executionsused
CalDblCeil
Commonwealth
##STAMP
##ISCEVT
##NotifiableSourceConnector
NOTIFIABLE
cniCreateNodeContext
##PARSER
##DIM
Apartment
##natural
fieldid
##sageNotWriteableException
ABL
##ADHD
UIC
##il
Stein
Flagger
jsonData
whichthen
createDB
OracleResultSet
aliveon
MQHB
Johnny
TED
ContactingOracle
##Canadian
QSGDisposition
Infinity
addiction
zer
zur
MobileAdjuster
Defence
##Grace
##Hugo
##Ball
Luis
##IAEA
##sur
Evening
SCNT
##Theodore
TVA
LSSAH
##Anthology
NTSB
##kVA
WHIP
HKT
ASTRAY
OMAP
DSpace
capacities
##Thisallows
Leaders
quadrant
processName
midsize
appeal
##Visit
Determining
Chains
##PURGE
ALERT
##HUBS
##HUBR
includingthe
reconfigured
emergence
arrangements
Authenticate
##encrypted
##offline
##Heterogeneous
incompatibilities
##plug
##se
##Proof
adaptor
beingused
##ALPHA
##Querying
myMethod
modulo
##Throw
resilient
##CASS
##Solutions
EXG
Simplified
Conflicts
##DRIVER
##updateinstaller
##KISS
CCL
##Tracker
TimeStamp
Financing
Expire
##ConversionPattern
migrations
Fibre
##Sources
KIST
executionMode
externalized
problemsin
echoed
arerunning
##describing
thisattribute
##thin
DevOn
assures
ages
##Square
##UserIdentifier
Scheme
##BIS
beinstalled
Recommended
Those
##Deprecated
thescript
zRemote
problempersists
##TCPIP
multiprocessor
OAS
##PostgreSQL
reactive
crisis
Violation
guards
##waiting
sampled
till
##os
##NA
includesthe
theycan
forcertain
##Older
##Justification
justify
##Successfully
ExceptionHandler
workwith
thechange
##initialized
reassign
MQXP
Carriage
Subset
Wesley
Meyer
##nding
monolithic
cor
##vice
assert
passage
suppression
##Modules
thechanges
Ericsson
Ed
##Greater
Plain
##dateTime
##bad
##ICBM
Vice
##Convention
VG
##Simulation
##Medium
itemset
Warehousing
tricks
##Facts
aliased
CCB
##HTS
##health
##ISThread
geared
JAXM
##Scripts
##NCHAR
Exhibit
phenomenon
nontransactional
CallbackName
##RUNSTATS
QAO
ofother
Sarah
afilter
Literal
town
##diff
hashed
##Executable
CIVER
ACEE
mon
##OpenSSL
CBA
redistributable
recipes
GPG
VF
##ground
dw
weakly
ns
VIEWS
TLR
island
##Originally
##CCB
BMI
##Hobj
WCDMA
PBX
##RQSTR
resolvethe
beconverted
ConText
##tp
##Money
VARIABLES
tostore
##textbox
knownas
tenths
strncmp
##found
therequested
relays
rev
##Approximate
Bash
PUBREL
MessageDigest
##MAN
##wire
##Bitmap
##MF
ins
returncode
ADMINISTRATION
##SoapListen
##JIS
Kanji
AKS
MINEXTENTS
##Dealing
Lan
bang
BCF
Ramp
PutOpts
##margin
getClient
NYSE
InputCriterion
##ess
FSH
resourcesused
##SEPA
##legal
TLD
##DISPATCHERS
Marc
NAND
UFS
Nicholas
##road
DECUX
DOI
Ventures
UT
ImbDebugNode
Tony
Gary
projective
##ntab
##ub
integrationservers
PRNG
ut
Mason
##Bash
Americans
##IFC
hatch
Fashion
alice
Atari
##Su
Silva
Pico
Venus
Mental
Memories
Requisition
Hammer
trie
iFS
NMAP
AFF
##Clark
Luther
Wonderful
Lose
##Institut
SOV
Augustus
Molecular
Manuel
Peninsula
Wang
Orthodox
##Luis
Pedro
Basketball
IDF
##Boy
KMTV
ATR
CONCERT
Hip
Abbey
Revenge
Britney
UNCAF
AFFA
##consistent
acursor
enqueues
##ping
##Reducing
dependson
spikes
maximizes
thelog
areno
STARTUP
clerks
thecase
SOAs
mixing
##executed
##hello
timeframes
##CAN
##Heartbeat
SRRCMIT
CSQUCVX
mover
##KHAN
Courier
##Reliable
ADDLOCAL
Completing
amqsgetc
othercountries
relied
pkcs
##serverName
mqsideletebroker
adaptation
##params
##WORD
##IPCC
##MIS
##Cognitive
dies
subtracted
##DETACH
Dedicate
premium
##Apps
##look
abandon
POINT
Filesystem
##MSSQLSERVER
female
##Assigns
Banks
##EXCEL
Invoker
##KIND
Spare
Profiling
##RD
shifting
severely
quad
Carbon
Driving
Deamon
ORBs
sn
createthe
adestination
tounderstand
lived
MQExplorer
##FileName
crtmqcvx
##authorized
Actor
sRecvMsg
##HEALTH
##Veritas
externalizing
influences
Severe
thefailure
##CATALINA
##Realtime
aged
theSystem
##measure
Favorite
##Incomplete
remoting
theresulting
##plus
Establishing
##Water
wiki
researching
fluid
PBR
##EV
Transactionality
##specificinformation
asimple
##sprimary
##Retrieving
concatenates
##Theuser
##Parametersname
efficiencies
Scalar
##nothing
unspeci
##Intermediate
##puter
drawings
andall
##Area
preconditions
##capacity
Broadband
cyber
##graph
toolset
JARs
Bound
andreturns
predicts
dated
inches
chemical
BG
simulating
Partnership
nonXA
bwmagent
CLWLRANK
eject
##PGA
##FieldGroup
HyperIntelligence
##period
##BPC
dock
##examples
nonstandard
Importer
##SWITCH
REWRITE
appendices
psid
##tape
reconnecting
InhibitGet
##Closure
frustration
Highlight
Burns
##NTT
Whale
BMD
##upload
surprising
bearer
WTAI
##VTCAM
Contexts
Remaining
Preliminary
yourhost
##SAL
##PutApplName
GMBRWN
STRCMTCTL
stringent
TriggerControl
##ENVIRONMENT
##arg
thefolder
Fellow
GI
##Subcategory
hospital
##AppMon
Asked
reparse
##exports
##dow
##RetService
##packet
refactoring
##BRM
Institution
unsaved
METHOD
Bed
##Unexpected
GRTMQMAUT
defensive
InputStream
##eq
##fs
advent
entropy
Ken
##RANK
WebSphereApplication
##CSA
##Extends
merger
destinationqueue
##Pings
thedistribution
##Latin
##KEv
##dtt
Miracle
sess
##Para
##remoteAuth
getProperties
Creator
Inst
##png
Helpvalues
##TMAXDIR
MQclasses
MQMDS
samequeue
TriggerData
SSLSocketFactory
userresponse
Oauth
Mesh
##always
##notify
Hugh
Compensator
##MappingNode
Vienna
##IGQ
sharedqueue
##ads
dfhms
ObjectGrid
##Face
JVC
TW
ejbLoad
##ROWCOUNT
CONNECTIONS
medicine
##RMFAIL
LANTIME
##clob
MBT
CciChar
Destruction
##YEOIBI
ObjectQmgrName
TADOConnection
TDataSet
##contract
Sean
##Seconds
##CWYES
ASIA
##ATSolution
ATO
pictogram
holomorphic
LX
bufp
##Ford
SqlSession
ISONET
##KTX
##Liberty
PCTmetrics
specificapplication
##spindles
NMON
NetServer
##SMDS
Squad
dell
SOALT
##Nevermind
Ernest
##annotations
##Wholesaler
JoltBeans
APDUs
ICANN
Zoo
##Ensur
##Kenneth
Julius
##PAGASA
Typhoon
##lateral
##Manuel
Francesco
Wife
Animals
MBTI
##gil
##Oscar
AVC
WOWOW
Anthem
BOINC
##Jason
##Lawrence
Teenage
PLANET
MOSFET
Loved
HIP
Waves
MHD
Sudamericana
NHEJ
AfD
pombe
SWITCH
applicationsthat
##Smarter
##Statements
Fujitsu
niche
finishing
SendExit
##OI
Adaptation
robot
templateName
defunct
attended
bedefined
UnitedStates
Promote
maxappls
##SMF
##registration
copyrights
##Straight
shield
COLLECTION
expedite
Elem
mqsimigratemsgsets
accelerates
##docs
##QR
Executing
Adv
Handlers
Caption
Frost
RK
##Cycle
##Termination
dependingon
CAGR
OUTPUTLINK
##Confidential
Angle
##communication
unregister
theadministrator
notuse
Rendezvous
beupdated
theresources
pays
Installable
revokes
##ar
##Selectors
LongMCAUserIdPtr
Align
##limits
[...]
