##는
##다
##에
##을
##이
##하
##의
##를
##은
the
##고
##에서
##년
있
##으로
##가
##로
##한
##었
##되
to
##과
##들
##적
of
##와
a
이
##했
##-
##월
is
##였
##인
##여
##도
그
and
##어
##기
것
##일
수
##게
in
하
##된
##지
##:
##며
##한다
##할
for
1
##The
that
2
되
및
사용
##/
않
you
3
##던
on
등
are
be
or
##지만
##에게
##았
##으며
##까지
##면
경우
can
##만
##자
4
대한
제
한다
##'
때
##해
this
없
중
후
##2
5
한
queue
with
an
받
not
##부터
같
##는데
##라고
by
##성
message
as
##1
'
##화
##라는
##아
##면서
이후
:
6
##·
10
##개
##This
두
시스템
##습니다
《
또는
##명
미국
전
위해
##된다
##”
##합니다
시작
8
##》
##’
말
##다고
7
it
from
데이터
때문
다른
data
##나
##대
##If
“
지역
정보
했
use
이름
제공
일
많
함께
9
##라
##시
MQ
통해
따라
또한
12
name
사람
다음
-
위한
구성
포함
WebSphere
your
가장
서비스
하나
following
manager
주
기록
위치
기능
##3
##다는
더
11
가능
##이나
value
시
일본
발생
‘
##도록
set
개발
information
관리
모든
자
보
have
if
##세
##째
해당
의해
지원
which
used
application
된다
필요
못
가지
아니
그러나
##함
할
수행
설정
내
국가
대한민국
##번
당시
##권
현재
command
file
세계
must
all
##거나
처리
그리고
using
##You
운영
##주
각
has
##차
활동
여러
one
will
뒤
사이
다시
user
확인
번
##s
##위
선수
만들
모두
page
파일
경기
system
관련
서버
결과
선택
##있
##군
영화
기술
설치
첫
any
when
변경
server
object
##In
##보다
등의
##A
##For
정의
##서
##는다
안
##신의
대해
해
시간
들
큰
존재
##으나
이용
상태
데
기준
##음
추가
only
##정보
일부
동안
at
문제
영국
messages
##로서
##시스템
example
지정
한국
##%
20
등이
처음
업무
##4
##될
팀
type
##호
/
##다가
##자의
일반
##로부터
다양
정부
인구
도시
시즌
중국
대
연구
##해야
formula
이러
##5
약
Server
높
최
조선
연결
##국의
more
적용
내용
##였으며
제작
감독
인터페이스
other
가
방법
진행
환경
##형
는
주장
역
##대의
통합
총
프랑스
The
##제
database
작업
number
프로그램
발견
정도
##상
process
자신
DB
요청
##세기
알
독일
생성
재
세
이상
##시키
time
의미
also
전쟁
메시지
같이
전송
끝
EAI
##입니다
대표
유지
15
대부분
##&
남
##받
참여
실행
service
속
새로운
##했으며
##별
영향
구조
&
작품
결정
얻
값
##어서
계약
each
부분
30
방식
16
예
##계
발표
비
was
IBM
##km
these
발매
곳
##m
다
사회
중요
등록
된
0
code
call
field
##회
see
##명의
맡
default
입력
또
##와의
same
서울
리그
대상
##000
new
인해
##전
may
##팀
구축
##《
나
전체
그룹
## 
역사
성공
분석
아들
client
전문
specified
크
사건
특히
주요
##To
공격
channel
교육
기본
error
〈
과정
아래
table
명
관계
불
##됩니다
은
계속
##관리
대통령
표준
연계
음반
이전
생각
수신
적
성
현
신
점
기반
##6
사실
##간
##회의
then
##그
create
축구
수도
##여야
좋
작
사용자
형태
유럽
게임
매우
대회
##해서
Oracle
계획
values
##아의
node
##8
14
13
its
이것
중심
##중
우승
##군의
직접
##When
역할
주로
A
지방
but
do
대학
지
큐
위
사망
no
국제
전투
설명
설립
정치
##*
사
본
##기의
조직
##처럼
##어야
##It
18
##으로써
##0
프로젝트
따르
표시
been
##분
##〉
how
경제
##기관
##으로서
합니다
잘
즉
사업
고려
상황
does
평가
##부
에
##조
개인
요구
into
##ﬁ
살
##도의
applications
##gt
should
group
##스
음악
=
19
Web
17
SQL
차지
##lt
시대
ID
list
저장
2010
열
작성
뜻
##당
parameter
files
생산
##서의
than
오류
100
위하
왕
반
##씨
보안
볼
프로세스
business
##므로
소속
##으로부터
about
문서
군
아버지
C
많이
죽
기업
##겠
기
모델
connection
참가
##리그
특정
아
기간
##7
available
need
attribute
결국
25
2008
##용
갖
broker
access
출연
##트
오
##등
목적
독립
동시
관한
##본의
출신
거의
two
장애
##성의
데뷔
초기
동일
문화
클릭
이루
transaction
등장
XML
API
의
소프트웨어
제품
상대
program
모니터링
select
증가
want
##는지
##였으나
정책
대해서
초
function
성능
##사
such
따라서
2007
##원
##부의
유형
부
마지막
Manager
여성
자리
Java
웹
21
보이
표현
##억
objects
Message
##")
변화
가운데
버전
별
string
원
크기
##시간
방송
2009
option
##시의
활용
모습
회사
를
24
구분
request
위해서
응답
올림픽
within
log
so
없이
그것
대신
they
different
러시아
##됐
타
##“
의하
로마
structure
##내
수정
directory
사항
선거
도입
인간
required
조회
곡
2012
의한
##수의
##고자
출전
외
후보
거래
제외
입
이르
2011
##주의
화면
specify
contains
중앙
공개
유명
고
실시
발전
click
형성
달
몇
앨범
임명
##="
언어
승리
개의
시기
테스트
environment
created
간
단계
property
프로
시장
공식
그녀
up
물
우리
운동
22
찾
might
##학교
자동
뿐
불리
행정
명령
there
로
강
cannot
##으면
defined
아닌
##니
configuration
##OS
run
될
##졌
알려져
서로
맞
local
종료
flow
혹은
전달
method
어떤
2013
삼
쓰
당
접근
I
송신
시리즈
배치
##시켰
##또한
23
내부
##》(
길
항목
여기
first
support
##수
2006
역시
기관
character
##상의
input
각각
자유
자료
형
열린
between
호출
we
##층
2014
##드
목록
영역
##서버
양
##Note
날
확장
비롯
가진
X
함
군사
조사
view
some
이상의
##10
최대
건설
노래
2000
분류
앞
섬
length
Windows
##야
##서비스
보여
상
설계
##초의
집
코드
대하
Data
건물
이탈리아
구
2015
비교
대학교
진출
##위원회
##IBM
낮
따른
##선의
이야기
installation
##체의
만
##」
한편
완료
event
공간
start
##대표
##선
정상
분야
테이블
이미
실패
지금
제한
국민
애플리케이션
달리
관리자
단위
before
##세의
28
인도
선
장
statement
필드
2005
Adapter
source
output
이론
최초
##구
새
효과
선정
네트워크
지속
통하
배우
##번호
Application
ﬁ
##지의
반대
50
26
여자
인
where
B
##가지
27
2018
##EAI
조건
로그
생활
버튼
제국
##Use
자체
change
구현
element
provides
나라
활약
통한
솔루션
규정
기타
졸업
##9
2016
넣
수상
##오
요소
보내
because
##대학교
valid
보호
길이
report
security
특징
개최
properties
##간의
바로
format
참조
삭제
cluster
##보
class
산
인정
exit
z
key
through
##대학
their
리포트
version
을
work
case
definition
##제의
학교
드라마
산업
##란
제시
원래
철도
control
채널
##값
##르
담당
거쳐
services
##C
##An
권한
+
생
무
결혼
기존
안정
공
##테
학생
비판
names
##데이터
*/
암호
##십시오
single
제안
싱글
2017
options
막
밴드
소련
##후
##장
both
them
##코드
S
running
비슷
##단의
current
최종
##사업
미
##기에
interface
##했으나
##점
규모
Integration
그리스
공동
법
개념
국내
마을
2004
시절
##마다
최고
29
section
출시
책
함수
스페인
문
##경기
그림
이때
딸
시도
형식
남쪽
전통
체계
##전문
##처리
either
##\
성장
높이
File
자연
조
네
network
자기
uses
e
추정
북쪽
systems
온
분리
의원
types
명칭
운행
2019
보통
지구
전자
어느
교수
인물
「
어머니
경험
##려면
밖
users
##임
종류
속성
단
그러
지지
called
##천
방향
project
고객
개
실제
##엔
외부
유일
##본
##예
이동
노선
부족
나타나
##t
평균
instance
여부
컴퓨터
클라이언트
out
아이
군대
통신
제도
order
V
세력
##사의
상호
대전
##See
연방
31
만든
거리
목표
attributes
이유
현대
##가능
행동
##키
이끌
without
판매
일정
##=
##업무
원인
##기술
엔진
과학
##리의
##법
level
예정
부여
part
넘
##12
being
이런
##개월
processing
차이
##개발
역임
Broker
parameters
저
나오
쉽
commands
line
디자인
2020
##다면
잡
도움
공유
task
associated
키
after
황제
동쪽
변환
공연
make
##네
##론
다르
반영
능력
유사
구간
힘
이해
손
##폼
전국
problem
2003
대응
파
remote
부르
추진
인기
확보
model
another
서쪽
##역
소
종교
속도
##These
Business
출력
##씩
–
Queue
종
shows
Service
##",
##정의
##골
메뉴
##단
효율
*
##안
태어났
해결
##대로
2002
최근
강화
whether
언급
40
도쿄
##나라
changes
##려고
##반의
먹
##파일
##11
승인
불구
##됨
##교의
product
provide
component
##계의
##WebSphere
교회
개선
##티
인증
수립
획득
##식의
described
문자
존
위험
에서
일어나
차
HTTP
방
인식
시험
open
##재의
주도
JMS
##진
검색
##However
배
범위
queues
FC
지배
##인의
눈
provided
##인지
페이지
제거
##장의
Process
##한다는
선출
##현재
읽
operation
##다음
검증
multiple
트랜잭션
##류
년
측정
characters
시민
returned
get
준비
조정
##으므로
resource
##려는
MicroStrategy
System
end
shown
수준
정
선언
##On
1990
열차
fields
교황
check
response
멤버
보인다
연속
몸
가수
걸쳐
면적
topic
##고의
바탕
월드컵
인터넷
sample
performance
특성
관심
##보수
대체
비용
우주
동
간의
더욱
가족
##크
결합
##급
옵션
맺
reason
과거
those
return
노력
##시켜
add
state
supported
variable
##려
클럽
##초
result
##식
address
단체
사랑
데이터베이스
##센터
보유
##집
반응
Name
##비
##일의
나타내
전기
사상
##사항
줄
용어
들어가
계산
경로
##치
남자
include
target
정당
나이
details
차량
제출
##신
이미지
way
왔
에너지
영어
밝혔
접속
통과
바
모
책임
특별
수록
mode
마음
작가
column
size
##두
민족
이유로
Agent
과
IP
의사
완전히
주변
##항
확대
##왕
text
document
점령
put
그대로
나머지
##종의
모듈
2001
중단
전환
피해
사고
기원전
알려진
방문
##러
자원
남부
sent
달러
백
##릭
아직
complete
차트
existing
비해
##시대
path
먼저
모양
{
보고
판단
##동의
둘
놓
주민
##지역
곧
연기
그렇
경기도
스
##®
resources
이벤트
##지원
편
가문
##인민공화국
백업
승강장
동물
appropriate
install
##통합
거부
검사
de
##현
제어
displayed
made
명의
온라인
부문
만나
##각
가치
specific
노드
##+
기독교
managers
수집
감소
during
calls
응용
functions
소유
##정부
contain
32
발
execution
##때
현상
친구
window
장치
허용
##그러나
오늘날
components
땅
실제로
됩니다
주기
이적
most
정확
발달
allows
could
등과
소설
반면
##타
지나
글
기여
부산
##기간
possible
거두
행위
##률
point
context
부상
##cm
##19
오래
1980
##물의
##각의
space
K
보장
주의
insert
잃
사이트
machine
##金
·
향상
마찬가지
오른쪽
법률
도착
maximum
기초
##족
주연
##인데
agent
장비
북
Version
host
방안
Table
입장
절차
generated
난
널리
1999
북부
##어의
잉글랜드
##녀의
행사
최소
##로써
레코드
action
processes
##운동
선발
##곡
피
배포
영상
60
non
##뿐
도로
작전
변수
시행
TV
파리
체결
짧
##mm
elements
based
software
리
given
체제
TCP
200
경찰
애니메이션
반드시
스스로
##There
##20
##존의
이곳
공급
폴란드
인한
인수
고대
뉴욕
어댑터
와
##후의
소스
연합
전략
비즈니스
handle
연동
조치
Linux
자주
파괴
사전
천
의회
1998
##결과
tables
동작
FIFA
조약
센터
야구
유래
already
시설
##산
##배
애
speci
##i
password
read
번호
##케
programs
##Cause
쪽
##SQL
실험
many
##속
started
##李
installed
세포
##amp
back
더불
##구의
달성
OS
form
정규
바뀌
next
공화국
서
가정
혁명
domain
강력
스위스
session
##15
##W
영토
지냈
권리
copy
header
육군
머리
어
port
성적
각종
##관의
##이란
호
##》,
비밀
넓
destination
##All
금융
buffer
over
장소
identifier
지휘
임시
중간
활성
플랫
네덜란드
automatically
##그룹
정리
해석
##사회
통제
define
##위원
##한다고
##수신
##le
표
연주
회의
대중
헌법
events
측면
##도시
협의
패배
##직
##가의
J
겪
##자료
도구
display
##데
selected
도
드
묘사
실시간
##위의
메트
1997
send
예상
##16
perform
시점
URL
would
exception
디지털
폐지
지적
거주
음
구단
##강
바꾸
##율
발행
캐나다
1996
UNIX
##교육
##Select
##루
##DB
stored
IT
북한
##당의
##name
what
1995
채
창
written
1970
올랐
면
나중
마련
M
금지
test
수많
작용
정신
ESB
근거
총리
##태의
정권
핵심
아시아
검토
##토리
게
입단
사진
Client
주제
##사용
경계
정식
작곡
##환경
while
지명
집중
##',
런던
Set
왕국
출판
##운영
규칙
유
교체
물질
집단
부대
##아서
memory
이듬해
##일반
아프리카
품질
옛
##D
단일
connect
의견
##관계
##B
베트남
중화
##이러
칸
자동차
모드
왕조
지상
차례
협력
개혁
치료
full
지도
returns
##기능
##대회
국립
완성
믿
원칙
긴
투자
unit
통계
해군
##계약
now
후반
sets
##회사
##대상
지식
서부
성격
##기업
클래스
결성
객체
다만
1994
##측
통치
간주
수가
에러
determine
지난
경쟁
쓰이
여
##사용자
담
파악
보존
##경
새로
장관
복귀
SSL
만드
enter
##S
공통
##날
어플리케이션
단어
분포
##Action
남성
This
##해당
민주
right
싶
이렇
##승
##I
파견
content
물론
적극
##F
##As
통해서
##건
bytes
##량의
Configuration
profile
##단계
procedure
나누
##이후
additional
복구
Object
은퇴
active
steps
##생
삶
카드
##Each
일종
below
channels
떠나
편집
##코
##는가
box
공사
표기
##계획
패턴
타입
권력
##시즌
##‘
like
돈
##량
##즈
무대
##링
MTE
관측
record
세션
비디오
CICS
##』
인하
ensure
1992
reference
녹음
전사
여전히
location
제조
메모리
##전의
돌
User
체포
몇몇
describes
팔
##말
낳
operations
including
##Click
버스
##칸
지급
management
『
소개
String
##리
##분의
특수
상당
##상태
측
operating
태양
항상
1960
대기
제기
투입
##노
대비
컴포넌트
##하의
##"(
다루
근무
methods
일치
완전
통일
스웨덴
##세계
강조
팬
under
##민주주의
항공
방영
물리
단순
문학
##한국
붙
##송신
죽음
캐릭터
##카
조성
##광역시
##큐
##지방
requests
take
D
사례
지도자
상세
가격
activity
integration
CD
query
충돌
기회
own
담당자
반복
검
철학
지위
trace
빠르
R
means
##판
1991
U
##규모
스포츠
F
r
products
예술
종합
순서
직후
기사
##살
우선
국왕
개체
##질의
80
##과정
편성
##M
정치인
2021
##반
##소의
개별
##파
##의원
##13
부정
results
##활동
nodes
은행
반란
shared
1993
집합
걸
configure
어떻
강한
UEFA
수용
쓴
여름
평화
##업의
논란
개봉
약간
entry
상징
##컵
##거래
동부
보도
언론
##이의
해외
errors
index
schema
이래
500
제목
가까운
교통
classes
관점
미래
장군
##기본
status
tasks
주목
치
하위
합의
준
지진
복잡
관할
거대
setting
standard
##to
were
알려
바다
초대
동생
이루어지
last
PC
지시
합류
인사
link
includes
위협
추출
화
implementation
타이틀
update
회장
이용한
Interface
In
보였
found
보관
particular
수학
##시킬
well
servers
홈
##We
v
떨어진
##특별시
골
##x
long
storage
배경
##n
i
연장
빛
SAP
세부
계기
승격
근처
밤
##18
투수
훈련
subscription
공부
T
어린
##달
박사
너무
correct
촬영
##시킨
겸
행성
아내
득점
##시장
인천
##마의
가입
Figure
##원의
주소
경영
나무
x
공항
인근
노동
정지
도중
부인
서식
개통
##따라서
##ed
직원
1988
language
귀족
깊
dynaTrace
증명
요건
갖추
방어
repository
병
클라우드
국회의원
대구
김
##조사
이행
즉시
듣
Software
##문화
지점
follows
##14
70
세웠
점차
신라
##것
일어난
제정
LOB
소리
##국가
second
##동안
다리
별도
##17
##통신
회원
폴더
##만의
채택
목
종종
necessary
until
텔레비전
건축
##시험
received
부른다
식민지
확정
##산의
잘못
1989
##길
번역
패
module
숫자
##과학
구역
고등학교
가상
본선
투표
##업체
비율
trigger
뛰
issued
국경
adapter
##양의
상품
find
##더라도
공공
##라도
기계
##—
취임
보냈
할당
자세
tree
필수
##더
계정
강제
그리
환자
item
##단체
성립
코
하계
##너
##연계
##형의
menu
##먼
allow
만들어진
상업
건
Guide
의무
식물
의해서
rules
##등록
갔
무렵
E
이외
부하
프로토콜
help
If
동기
올
specifies
됐
전개
three
오픈
##으면서
업체
Database
variables
병력
##Oracle
송
connector
disk
소재
공작
디렉
##ID
300
chapter
##사업자
뮤직
button
Enterprise
##문
풀
occurs
delete
##아야
당선
##백
##성과
예측
노
라디오
always
무기
계열
##자리
나가
동의
보수
방지
연관
G
자격
##미
##표준
##의의
빈
내의
만화
listed
internal
아일랜드
성과
##트리
총선
authentication
Transaction
그곳
##After
##보안
분산
##MTE
##쓰
##난
thread
모바일
1950
적절
W
folder
fails
settings
관찰
판
CPU
구동
이번
##연구
매핑
결승전
##미국
above
Type
건강
구체
##같
대화
스튜디오
##섬
의식
마이크
##져
포트
기대
헤더
기념
미치
choose
package
학자
##남
입학
##국
빠른
해안
양식
부모
흐름
named
##그림
receive
statements
filter
동료
web
나온
이집트
→
본래
광고
needs
인력
definitions
90
clause
##님
##21
전반
##치의
##모든
range
indicates
카
##레
황
신규
병사
platform
##in
형제
그래서
해야
##정책
##일본
script
종목
일제
transactions
계승
무역
connected
동맹
simple
containing
현황
도달
##인민
국회
발사
경기장
명시
라
write
syntax
64
현실
##왔
세상
##2009
플레이
##체계
조지
한다는
마
디스크
에이전트
업데이트
##은행
##편
supplied
match
학문
예선
logical
##면의
재직
##표
##조선
오스트리아
그해
##페이지
썼
You
##다른
##구분
reply
공장
경
##아래
트래픽
##장애
탑재
이루어져
description
정착
화학
added
cases
멕시코
deployment
씨
##에게서
##종
위기
붕괴
영
##25
##갑
적합
엔터
조각
previous
##족의
취소
requirements
initial
##}
군인
전역
훨씬
1986
지하
failed
로드
갖춘
부근
여행
주인공
1987
##문의
즉위
$
진화
##2010
ESQL
개정
##로서의
개발자
불과
job
even
증거
executed
호스트
한다고
참고
기자
items
1945
##당하
enable
##조직
영업
null
configured
스타
불교
##大
exist
store
오후
심각
록
운용
표면
요리
##c
editor
만큼
##문서
clients
혐의
WMQ
##라면
step
root
##외의
protocol
zero
밀도
##방송
##협회
나왔
apply
회복
##해의
requires
요
안전
살해
이내
이루어진
왼쪽
##․
Center
만약
경력
##당했
친
감염
##프로그램
##품의
외교
침공
지내
중심지
MQPUT
매년
경향
##Explanation
포
독자
development
홍콩
##IP
작동
중인
오르
고유
creating
device
##2008
##작용
further
하루
km
해체
추적
조합
마치
load
##마
##롭
합병
##경제
불린다
features
##구역
##전쟁
groups
윈도우
sure
platforms
recovery
고정
대륙
##의회
several
##바
전혀
따
위의
##O
problems
범죄
가졌
원정
##특히
현장
failure
##2011
온도
진
##30
몽골
Services
분
지하철
대형
##메시지
요구사항
사회주의
##역의
pattern
passed
##라며
순위
임무
##Using
영향력
##온
##학년
장면
궤도
유리
만족
NULL
##법의
35
액세스
월드
##평가
젊
구별
1985
출발
일원
##산업
논문
이끄
##만약
our
1984
tab
브라질
interval
광주
##법원
every
시각
performed
잇
어떠
##sharing
질
학위
##》()
require
##권의
신청
sequence
유로
##a
##대전
얼굴
##내용
농업
가톨릭
해제
하지만
양자
얼마
공화
뛰어난
##based
사후
image
위성
점검
row
세우
나뉘
large
수입
좀
전력
전용
##한편
장기
##분석
##에선
##구조
옆
##장관
library
병원
참석
그런
리턴
절
SOAP
재정
##션
링크
##$
체크
귀국
certificate
completed
취득
Control
##'(
enabled
대립
위원회
##Check
##GB
##00
일어났
레벨
기원
명명
supports
transmission
바이러스
##터
협상
Management
##업자
저항
connections
다섯
플로우
##보호
논리
신문
##click
displays
date
##Specify
programming
어렵
##작업
조금
기후
##氏
본격
불렀
enterprise
##톤
끌
무엇
##시킨다
##진다
just
장착
completion
array
##쿠
앞서
칼
기동
기억
떨어져
instances
신뢰
분할
쇼
physical
##By
##시설
출생
음식
무장
밑
임
성인
사유
able
특이
##고등학교
제임스
##요청
dialog
tool
down
내각
processed
##소
이스라엘
##수행
수단
반환
식별
##방식
수사
##만큼
왕위
패킷
질량
디
##든
##T
돌아가
1982
청나라
당하
경상북도
##E
편입
잠시
토지
준수
addition
리스트
collection
N
shell
##동
확산
expression
included
panel
global
design
##제도
이어지
오브
site
##--
##언스
creates
미디어
태어난
customer
대사
논의
descriptor
홈런
연맹
##山
again
external
숲
occurred
successfully
신호
##다의
장식
강하
##였을
단백질
개편
##글
refer
초반
중반
지키
스마트
인프라
신설
still
태어나
An
##츠
changed
##G
거절
이익
청
##Any
초과
마우스
위반
##카드
identify
’
참
인터뷰
차원
columns
그린
##2012
listener
원소
##e
KBS
##실
지대
##2014
잡지
##우의
유도
개시
로그인
##2013
No
미사일
directly
상위
취급
매
##파의
남편
의존
##화면
탭
누르
전시
핀란드
고전
분자
중의
##세대
띠
우수
정하
인정받
재판
일으키
##쪽
##고는
monitor
오히려
##寺
터키
transfer
비난
##나가
examples
이란
needed
감지
아주
1983
##왕의
##쟁의
향후
상당히
순
remove
추측
rule
노동자
취하
##또는
##Create
해서
미리
commit
남북
documentation
contact
협회
MQGET
##토
##밖에
common
##교회
짓
##셋
이사
##문제
오스트레일리아
브랜드
complex
행
보급
##Specifies
핵
스타일
마드리드
제대로
신경
복사
강의
cause
##++
To
##500
약속
##테스트
겨울
계층
항복
occur
고용
주관
contents
##인터페이스
조작
수익
그래프
덴마크
전차
전부
##줄
##2015
##공원
##석
갈등
필터
전문가
재산
administrator
했으나
currently
출마
dynamic
선의
다운로드
##물
이용해
수출
##’,
서명
색
##2007
##민족
천황
1000
##거의
나타난다
시위
##2016
##2000
민간
##23
##번의
Reference
범주
흔히
레
show
선고
수요
##용의
태평양
후기
교
오랜
->
연대
라인
다수
중지
modify
45
바람
across
감정
소요
issue
behavior
구성원
교사
1979
##무
예외
붉
1973
1972
신학
신화
근대
exists
present
공군
노예
알려졌
1981
러시
지연
H
창설
##릿
보낸
포기
경상남도
##24
##01
해방
##설명
high
##인가
폭발
요인
전화
후손
tools
##단위
교환
New
##브
look
##설정
##王
기구
attempt
가사
유닛
stream
member
투어
전라남도
위원
separate
##령
아키텍처
차세대
은하
##돼
생기
##기록
##고서
직전
방출
이슬람
left
주위
terminal
stop
corresponding
복원
##방법
수급
restart
포지션
정복
맞추
우크라
조절
열리
special
##관
트리
의료
수여
포맷
부담
execute
보고서
deploy
분쟁
##조의
신속
꽃
##구성
L
book
##사단
진입
area
의도
필리핀
##모듈
귀
미군
요새
##우리
##공사
Group
알리
들어갔
고구려
기획
here
앞두
##그리고
MQSC
P
##체
호수
알고리즘
구매
##차원
##2006
슈퍼
backup
소장
##%)
##체제
important
장악
명이
커
고도
##개국
차단
개수
암
모스크바
Connector
유효
instead
메이저
콘텐츠
오사카
##100
메소드
올리
allowed
unique
코치
연극
place
고향
손상
이제
견해
소식
Developer
오전
runtime
1974
산맥
민주당
밝
##합의
##웹
자금
무시
비행
불렸
시인
integer
##심의
우려
1920
계급
##소프트
true
related
문자열
reports
console
윌리엄
암살
top
노출
폰
##사이트
지니
종이
연
1930
##public
times
절대
##탈리
##전송
충분
폴
##해졌
올렸
Chapter
##패
policy
##뷰트
less
선거구
변형
utility
JDBC
##잡
custom
child
뉴스
흡수
build
가리키
시의
금메달
외국
저작
유엔
account
집안
일시
##프로젝트
##발
original
탄생
둔
열렸
##요소
1978
항성
등급
messaging
편지
손실
1975
400
##32
풍부
혼란
##프
블록
records
handler
대략
Dynatrace
쌓
저서
conversion
##호의
차별
##공화
삼성
정기
##없이
바랍니다
##2017
itself
represents
1940
##정상
environments
설
##버튼
아르헨티나
certain
##면서도
카메라
속하
본인
1971
communication
##행위
who
1976
##항목
MQI
죽이
##요
topics
세운
AMD
LDAP
식
털
실현
##토의
provider
##기원전
##level
##bit
##채널
##Message
자치
##선수
충청남도
룰
33
클러스터
very
##기준
done
별로
##로운
##당시
useful
거기
|
##NAME
actions
map
폭
%
interfaces
옮겨
##°
##조건
철수
IMS
search
publish
접하
멸망
매니저
대항
via
강원도
역대
토론
enables
비록
봄
공기
반발
Time
보여준다
1969
글로벌
간단
1963
##22
##항의
다니
Flow
중화민국
rows
상승
cache
##전자
맨
날짜
block
단지
유전자
##K
정체
Security
##스럽
similar
Internet
앤
##생활
모니터
cursor
베를린
루이
PL
채용
유학
스코틀랜드
부서
나타났
내렸
전파
mapping
성경
##여부
압축
감사
##No
금액
먹이
찍
computer
SW
금속
누구
대외
실질
전해
later
하드웨어
탑
추구
MQMD
전후
공원
라이브러리
무리
점점
정비
근
내리
학습
플레이어
호텔
한때
편의
팝업
##작
챔피
codes
##비트
소비
준다
release
##문화재
항
MBC
용량
마리아
solution
어려움
극
베
flows
known
##슈
판결
##사건
takes
##변경
LG
1968
라이브
##해도
꼬리
##다만
##행정
condition
HTML
correctly
##일자
n
잎
scenario
청년
distributed
한글
논쟁
Monitor
트랙
##부대
Gateway
##2005
베이징
예산
##팅
##놓
우
statistics
진단
인민
##부서
법원
1977
철도역
진압
main
일으켰
##기존
경고
건립
텍스트
AS
drop
FTP
##여기
본부
ways
36
금
생명
##디
##스러운
극장
monitoring
OK
##련의
손해
탈출
save
내역
나와
various
흐르
least
인지
wizard
effect
뉴
본관
against
authority
role
##연대
결승
##Data
여겨
새롭
center
##임의
Support
##정
primary
base
한계
건조
##|
HP
월
Rule
대량
독특
lists
중부
RFC
성우
individual
동원
주전
움직임
##지대
##모의
경주
38
사단
직업
##삼
amount
송수신
##time
기록물
관
권
전원
##안사
주교
##우스
##설
꿈
##〉,
indicate
변호사
1948
불법
터미널
영입
하늘
명단
##했었
떠났
##String
##2018
중세
built
벨기에
Network
컬럼
도메인
실
기재
##에서부터
건수
##하나
##어도
양성
압력
성질
솔로
속한
아메리카
깊이
m
포인트
복제
포르투갈
##써
공산당
##배치
specifying
##이상
##〈
캐
통보
투
어린이
##라운드
승진
starts
Check
신체
태풍
그런데
working
니
byte
맞이
군주
외국인
capabilities
##금액
음력
쿼리
장르
피아노
생물
명확
연간
per
48
대개
points
인종
감시
bridge
증상
##Open
좁
1967
처형
conditions
1964
##중앙
##Some
가스
헝가리
작곡가
##64
박물관
야
##색
##User
##학자
향하
어려운
##금융
모르
유전
##Figure
Connection
##defined
갈
중복
전공
공포
Use
현지
##From
명예
##–
##입력
1946
문장
##HTTP
국
탈락
Event
홍보
##내의
해산
##EE
형상
울산
스크립트
##시티
카운티
포위
SOA
issues
##촌
##연합
##the
추산
출장
successful
전설
deleted
허가
운
appear
Explorer
##불
악화
##Because
에도
동계
패키지
##2020
##피
프로듀서
출간
느끼
마침내
부임
마시
기법
입자
##객의
소년
이관
유연
나타낸다
##병
##방의
browser
구하
##유지
창립
브라우저
임금
##응답
아이콘
흑인
##총
versions
개방
예수
산정
지닌
1962
alias
업로드
II
인상
feature
가이드
제자
코미디
defines
DNA
발언
##법인
##능력
회전
뷰
##개인
발굴
육상
수치
구입
활발
접수
##부분
once
##전체
##관련
자살
가진다
교류
BusinessWare
longer
나아가
distribution
속한다
소수
기기
확립
##Set
의지
청소년
##채
싸우
배출
히트
생존
리소스
##설치
단독
어디
항구
##스턴스
연구소
떨어지
청구
지낸
##ned
별명
용도
향해
시에
워싱턴
연재
1949
벗어나
목소리
##서울
int
보완
메
##다며
##∼
1965
static
충족
On
##With
이하
개입
명령어
Project
##포의
태그
1966
상륙
writing
따로
보조
의심
망명
자녀
##영역
포로
##선거
로컬
명성
의장
방해
옷
아침
본사
합성
34
사태
나치
##Q
고급
blank
##장비
starting
##스타
기지
줄이
databases
선생
상하
O
Script
명나라
분열
메인
##州
플레이오프
prompt
##판서
##료의
오스만
수준의
이승만
교토
##한다면
##재
optional
##Description
술
Source
##중의
공정
pages
폭력
합격
한반도
EJB
오랫동안
limit
원격
인접
##장소
원리
selector
추천
administrative
empty
질병
사임
방면
항공기
미술
싸움
##연구소
identity
둘째
수비
##2019
screen
##냐
횟수
##열
문화재
##kg
150
invalid
##특정
##주년
parent
연안
혁신
장점
##여자
##2004
applies
##악의
비례
off
유나이티
예방
신성
encoding
pane
depends
밝히
기호
metric
공주
소비에트
함락
##이름
tag
##조회
##처
고문
entries
일대
##정치
헨리
가공
Properties
##듯이
##질
액션
들어오
administration
##P
##국제
빌
광범위
피하
analysis
37
죄
복합
프리
장교
##文
시티
icon
콘서트
함대
continue
한정
##변의
토대
##공화국
##쥐
좌우
##L
전선
##영화
원작
등판
HUB
Create
##포
평양
##클라이언트
완공
AP
전면
수술
빅
왜
1961
generate
대가
마리
##본부
Response
##보험
태
규제
자라
Corporation
##없
PDF
제주
협정
다소
인쇄
관직
삽입
벽
아이디
##Before
##동시
Node
parser
##민주당
초등
여객철도
requested
##분야
구속
쿠
돕
치렀
manage
sending
확실
##나의
움직이
그때
##발생
##모코
##h
절반
훗날
화재
documents
greater
이중
로버트
##At
basic
문헌
인권
인류
부부
타격
주식
수동
관여
서면
태도
신앙
터널
##확인
접촉
##공
##곤
농민
용
##철도
부진
집행
미국인
##인증
백작
migration
등지
Length
실수
테
법칙
창단
general
순수
검찰
부활
wait
Request
아카데미
평
##시작
##긴
가을
그래픽
아무
에피소드
##X
침입
발발
사령관
양쪽
##플랫
##TV
소녀
호환
char
박
##관리자
런
XA
해상
##는다는
know
therefore
창조
유용
심지어
##유형
주문
invoked
원년
번의
메시
순간
초점
간격
전형
보컬
##…
천체
##중국
연합군
##싱
요한
남겼
오브젝트
기둥
현역
희망
##현의
빌보드
유대
implement
##적의
거
updated
verify
import
##버스
해도
제약
license
##베
##저
사장
sections
자극
통상
매일
bit
개조
원자
1944
##이전
except
makes
##d
서양
완벽
##제공
무게
직
appears
##R
##Enter
taken
엔
##방안
출범
##장치
마스터
카를
도출
Open
처벌
무덤
충분히
용이
##테이블
선조
민
챔피언
밝혀졌
usually
numbers
references
##城
복무
##「
충격
Error
##등급
업그레이드
시나리오
##50
승객
##One
##화의
##행의
##정도
devices
MI
try
##절
점수
1941
##제품
batch
virtual
registered
ebSpher
##They
1958
##인력
유통
bean
updates
Information
seconds
늦
꺾
처
불만
##감
분위기
세종
여겨진다
##Ensure
로스앤젤레스
##학과
normal
double
병합
##2002
오직
MCA
functionality
버리
목사
유출
전라북도
층
긍정
엄청난
상원
##기구
close
앱
탈
Y
##ESB
##편의
##등의
문제점
재료
instructions
관료
구원
매출
subject
contained
진정
도전
가까이
##자원
로봇
이어졌
시내
최신
모여
영지
MQSeries
runs
한국어
operator
아시안
##달러
##결정
##Once
##십
##약
수원
##개의
주둔
follow
Log
파라미터
##and
##r
segment
마무리
연료
##음악
count
만주
often
Select
##방
쓰인다
자바
캘리포니아
전망
##외부
1947
##랑
여론
신분
assigned
육
##스키
logs
##곳
말기
##다양
##MQ
일상
##외
1956
탈퇴
##40
성당
##g
##병원
당사자
##28
##엠시
과제
ignored
online
올라가
고종
모아
참전
##・
태어났으며
##그러
마이클
의학
1939
베이스
sender
속해
##N
DBMS
together
subscriber
고통
##Do
kernel
당했
JEUS
공헌
오페라
##청
##팔
손자
배열
질문
신고
개설
수소
계곡
##척
아파트
거치
지불
막대
기도
##V
플랫폼
이어
retrieve
매체
argument
심사
자식
뿌리
글자
보증
##미터
since
##색의
툴
##성능
##id
통산
나폴레옹
유적
주택
진보
##31
운전
WAS
1919
##다시
structures
##200
공산주의
고리
side
threads
WSDL
사운드
##애
최다
##%,
신자
AIX
deployed
뉴질랜드
계통
으로
조별
Channel
real
받아들이
아이템
주인
석유
합
폐쇄
전신
유행
42
숨
Administration
남기
가담
사형
##상황
원사
##대한
촉진
도와
늘
코로나
로켓
too
entered
##석의
변하
much
임대
##출력
1954
however
서구
opened
임계
벌이
##메
##백만
projects
위로
이슈
컵
본다
백성
단순히
멀리
침략
컨트롤
##세포
re
국도
편찬
##les
정렬
##모델
retrieved
##or
공동체
본질
##대한민국
##공의
##소프트웨어
선전
보병
##방향
연출
##고도
terms
줄어들
bag
수리
##400
분노
가설
##고객
소송
양의
##’(
소멸
##수정
1959
##川
상의
##담당자
##위원장
##투자
##26
근본
Monitoring
##처의
##2003
대대
지향
정확히
##졌으며
관광
39
Editor
마크
저술
주력
시리아
맞서
entire
##헤더
scope
사양
##설의
Add
##이하
c
돌아왔
지은
공업
b
##순위
##우
지표
creation
pointer
크로아티아
모형
Value
recommended
세트
영구
임기
strings
For
인원
template
코어
rather
광
go
보상
##API
##거리
##천만
동적
한자
##필드
이라크
##안정
시청
##강의
옮겼
묻
##if
Transfer
발음
리더
연산
SET
##조치
고양이
막부
갑자기
호의
세금
switch
무료
##mqm
소비자
발휘
Directory
갈색
procedures
태국
과학자
벌였
세대
1952
기체
유대인
유발
describe
usage
건축물
벨
Wizard
가게
##모드
Model
수도원
SYSTEM
생긴
묶
긴급
상실
만났
대수
건국
신용
publication
파트너
##비용
드라이브
55
총독
Intelligence
total
priority
##02
Inc
typically
의혹
##o
##>.
공무원
activities
넓이
##->
이기
법인
뇌
1955
##교통
consider
경보
having
찰스
멀티
converted
허락
identified
lines
성분
Record
사냥
만한
1942
unless
타이완
지붕
##安
##격의
대체로
제일
느낌
##목
집권
갱신
determined
##LENGTH
namespace
혼합
Next
통화
바닥
재학
manual
세워
##48
간행
호주
후원
냈
데이비드
철
##커
##UX
invoke
프로이센
위원장
화물
libraries
노르웨이
띄
재건
dead
만든다
Microsoft
이주
##마리
음성
depending
빠져
단편
move
색상
##편성
사원
##삭제
개칭
##사우루스
1953
diagram
##현황
학살
개신교
EIS
힘들
대선
확률
ofthe
장남
120
75
분해
설득
##Therefore
변동
##기타
##네트워크
민주주의
어깨
All
##지구
##down
충청북도
박정희
이룬다
팝
##규칙
Yes
##동물
타이
광장
이혼
##비의
give
selection
##MicroStrategy
신인
GUI
입니다
technology
준우승
##쇼
본명
프로그래밍
테러
산출물
##도로
temporary
서술
1957
1943
축소
물체
##오의
나온다
pass
##전이
##목적
body
연락
도서관
약화
##우주
##심
중대
##이때
##양
입찰
##맨
전철
##Table
##자세
Access
산하
인도네시아
##빌
게다가
##및
재생
placed
architecture
##인터넷
왕자
pool
선호
##오류
drive
container
specification
manually
void
레이
represent
추방
privileges
##행
exits
##Response
id
블랙
하원
발탁
수의
비중
COBOL
2022
##났
축제
걸리
번주
##Windows
##XML
협업
##^[
악
이른다
##게임
화가
범
선임
후계자
끊
##연맹
결론
기소
##개혁
탄소
customers
원형
독일군
하여금
편리
박스
##갔
##Also
후속
건너
Key
승려
fixed
##subscribe
인용
##창
Target
##사람
사무실
##What
머
UI
경성
##35
41
수송
##이론
협조
심
진격
당사
##황의
챔피언십
일체
약물
축
##작의
removed
항의
permission
복수
##준
주석
내놓
세인트
앉
archive
분명
상용
지침
설치류
효소
##쉬
##조차
con
홀
입증
선포
##기반
암컷
checks
행하
혼인
투쟁
##속도
prior
구글
권장
매장
views
가리킨다
라틴어
Test
정원
당나라
유기
##27
심리
implemented
살인
native
매개
##웨
악기
라우팅
시카고
지역구
metrics
주최
프리드리히
물건
잭슨
아랍
업적
##핑
보물
비즈
당초
업
hardware
아테네
콘솔
Connect
SBS
이른바
company
followed
원활
©
##縣
사무
타자
numeric
불러
아동
올려
##내역
변
주체
##블의
지리
##프랑스
화석
히틀러
재개
갑
engine
레알
걸친
일컫
partition
##시에
##유럽
수십
##공간
특별히
##새
##렀다
정한
##필요
receiving
applied
Format
600
Specify
격파
##시기
블루
##버리
export
Command
routine
윤
에드워드
receiver
SK
##where
루
public
QM
##역사
심장
##소설
저녁
자산
도덕
원주민
원본
유물
서식지
예전
1938
나뉜다
##록
수석
거듭
##생산
일관
##HOME
매개변수
억제
##례의
approach
위상
뮤지컬
칭호
비트
균형
루이스
##대학원
계
previously
##~)
SELECT
내장
organization
##letter
덜
교리
무상
내지
##PC
화려
전투기
가깝
##@
모임
가리
날개
돌아오
initiator
Link
CCTV
보편
영웅
의거
modules
발간
폼
detailed
사정
##元
TP
##예술
문신
gives
##2001
푸
generic
Using
당해
후인
쓸
진학
벌어진
minimum
시호
had
keyword
embedded
재배
1936
located
창당
급제
위대
##프로
##미의
권고
##v
relevant
##아이
특허
FA
브라
##투
중력
##공개
##시리즈
바이에른
entity
##대신
맵
산출
마감
43
왕의
fail
actual
쌍
##향의
links
궁전
자율
delivery
edit
47
파크
탄압
##p
최소한
##마을
infrastructure
installing
여섯
##사고
사법
상인
1937
권위
##H
Console
안쪽
http
공중
best
##29
##Only
가슴
##장이
헌
bar
##How
##이사
애플
third
44
아티스트
메이지
구멍
four
##박물관
##프로세스
맥
집계
조카
opens
프리미어
whole
홈페이지
연고
나타납니다
롯데
1914
지형
이어서
아름다운
지칭
배정
남아프리카
시조
##듯
침해
프랑스어
노벨
managed
대다수
멸종
pr
내전
시정
선박
증언
실력
영화제
극복
detail
##var
가질
published
이웃
##책
##Queue
MQOPEN
소집
small
logic
가용성
free
전제
##징
승
습격
흰색
중학교
커버
##b
1935
expected
##망
—
1951
성향
규격
고등
##런
징역
군단
가량
관하
미니
영감
덕분
공로
##구축
유입
##렌
밀
논
##품
전직
통
DVD
sends
최대한
##사이
상자
##저장
Profile
로직
County
사퇴
상표
대로
Enter
직무
결함
만다
강요
가져오
fact
예제
##자동차
해양
receives
##에러
착수
종사
providing
good
개명
작사
싱가포르
##이닝
인디언
정차
due
46
##효소
resolve
binary
경유
##cation
예비
아무런
logging
##자는
##Now
trademarks
드물
스토리
일본인
directories
simply
취약
따른다
65
addresses
whose
흔적
접한다
자본
우측
한국인
1918
##검사
이온
##영국
돌아와
재즈
##東
불안
persistent
수컷
초래
이력
##대가
출입
##인과
일환
##제국
units
라틴
라고
##MI
수업
파생
사제
ALTER
##공학
샤
metadata
페르시아
##업
코파
대처
##차례
언덕
##인조
조선총독부
GET
Advanced
도모
속의
##온라인
##주기
Report
적어도
##비디오
법령
폭탄
일으켜
산소
됨
가난
brokers
Customer
##절차
분기
position
##Your
1933
##Add
파워
통지
백제
내셔널
방송국
##아도
식품
임진왜란
붙여
driver
##연결
사업자
authorization
##된다는
선로
주지
LOBs
##전하
혼자
1910
추기경
각지
포스트
묘
Edition
##06
일본군
음악가
프레임
##bin
태조
받아들여
강등
##플로우
라이선스
홋카이도
##etc
감각
마케팅
연설
녹색
##File
immediately
개량
##리포트
벡터
나열
웨스트
생겼
otherwise
닫
깨
become
login
##公
##')
농구
와서
initialization
다중
##청의
understand
치르
타율
consists
베스트
발급
levels
엄격
##누스
흑
##조정
56
##문학
일본어
뻗
최적
extension
stopped
뮌헨
##추가
조기
불상
##안전
슈
explicitly
레이블
트
주식회사
석방
keep
##암호
재무
백인
##교수
일괄
formats
뽑
keys
비행기
대학원
나갔
##로스
##府
은메달
##범위
inthe
군의
피해자
살아남
models
델
맛
home
matches
석
exceptions
왕비
거점
detected
scripts
##함수
##건의
라이센스
##Dynatrace
칠
##는다고
전술
바위
##주요
탄핵
##세력
소위
서기
후임
작위
가속
Repository
합계
##통의
subsequent
촌
바르셀로나
1934
스마트폰
독일어
800
휘
지능
Resource
기다리
피부
국방
압도
구문
##또
##손
봉
FROM
Socket
일자
##specific
의문
View
Solaris
parts
delivered
Active
루마니아
##Application
빠지
equivalent
벌
perspective
fully
해발
##종합
독점
List
메일
##과제
Update
##Integration
그리스어
동메달
publications
저자
##int
먼
affect
더블
부친
쥐
1932
intended
시신
##value
자본주의
##탑
동서
몰
밝혀
지구의
학술
착용
태양의
스토리지
Field
permissions
##300
##子
##으니
##독일
티
##박쥐
언제
고속도로
철거
캠퍼스
방언
탐색기
족
d
아이디어
타임
커다란
##byte
조조
첨부
화제
mobile
##술의
##당한
ability
##샤
하나님
according
석사
보험
##의식
##Here
##;(
자랑
탓
##암
판사
쿠데타
##선택
조상
period
CREATE
증대
골든
주어진
--
##송의
복
늘어나
##민의
무력
Framework
실적
그러므로
적도
##위한
Bus
세리
최우수
서브
machines
tablespace
earlier
틀
아이돌
db
secure
저지
##Returns
납품
calling
당국
북서쪽
목숨
##경의
##특별
비상
빚
designed
결심
##물질
리드
##Make
##제안
부탁
이루어진다
##볼
##부문
multi
융합
##리스
##룰
##탄
부장
실천
배제
retry
bus
엘
왕실
##1990
점유
##낸
클
##흐
홍
##나와
##之
Amazon
훌륭
약탈
폐기
원시
unable
##고등
##초기
마이
1928
일단
향
국적
##클라우드
체험
team
형사
액체
##보증
상주
종전
print
##히
커뮤니티
넘겨
##학회
layer
새끼
##86
찬성
북미
처분
국토
킹
Sync
도쿠가와
##완료
부품
화산
여왕
컨테이너
드러나
##느냐
진영
##거
##平
testing
causes
materials
리처드
춤
선수단
##민주
물리학
##郡
mqm
##;,
sources
지체
##’)
포괄
##냈
cost
수백
오른
가끔
사라지
법안
할아버지
avoid
멀
ar
소규모
컨설팅
##60
members
relationship
덕
패션
flag
##금의
나섰
프랑스군
##end
뚜렷
강도
관계자
##타의
대만
##義
JVM
us
≪
Deployment
obtain
##연의
고안
미드필더
##시스
옮기
출현
라는
합리
1924
이민
##박스
##설계
절감
##절의
적응
##256
케이블
초청
pre
52
##〉(
purposes
easy
저하
얼마나
남동쪽
시키
comments
##생의
few
가동
short
##국민
##약의
don
꾸준히
##朴
선물
mechanism
51
라이트
##WMQ
법정
##田
동해
김일성
답
##마저
연습
결의
때로
생물학
프로세서
십
##자치
##판의
활
하우스
packages
##틀
제사
용역
현금
turn
modified
production
콘
드래프트
부지
물고기
민중
대책
후퇴
##증권
others
수직
상관
인생
천주교
올스타
private
##베르크
북동쪽
국제공항
세워졌
이념
현존
각본
##사상
고속
hierarchy
arguments
돌파
축적
집필
흰
올라
1929
##1999
파키스탄
Q
뼈
95
SDK
##중학교
법학
그럼에도
기리
accessed
##Java
식량
##꾼
##소스
##해진
서방
1931
##data
레드
힙합
구상
배웠
normally
동영상
##검색
템플
##엠
1900
근육
##로그
Global
plan
dump
하드
수반
토
선교사
International
It
##道
patterns
행복
녹
물품
##『
세월
##시민
과업
입대
Managed
조항
장수
탐색
극대
##지금
세르비아
##05
##투표
발주
identifies
혼
라운드
##한의
250
mediation
가구
혈액
개장
##강전
심판
나타난
사과
timeout
color
determines
곧바로
LU
final
handling
건의
동방
solutions
##학원
##07
희생
관객
쓰였
Objects
##노드
##무의
신부
##재산
startup
등도
무릎
스미스
중점
돌아갔
성직자
better
상처
임신
##변수
정면
headers
##院
소문
making
##2021
##텐
진주
consumer
standards
Task
maintenance
##成
정교회
##Refer
개성
1923
validation
밀접
1921
##南
##33
##03
##실의
##밖
##존
applicable
##알
1925
태종
equal
콜
series
49
호소
추대
incoming
사기
재임
메커니즘
enough
##감독
##통제
유저
protocols
총괄
##즉
제니퍼
첫째
##하우스
바깥
나들목
proxy
##type
adding
효력
##액
1922
##규정
hold
잠재
##−
##어댑터
클래식
Toolkit
##형태
generates
정교
탄
상대방
입사
셋
펼쳤
##전략
Tmax
거친
요약
주류
밀라노
easily
MQRC
소득
##中
##영상
무관
##덴
극단
사막
임의
Config
교역
##목록
JNDI
##君
##Please
모음
power
내려
창작
##80
향토
increase
##빈
학사
lower
loaded
시사
##일부
인공
PowerPack
보스턴
맨체스터
future
프롬프트
decision
##{
##mail
외의
대안
발명
유력
분화
증권
Query
열매
##학위
쿠바
훼손
주니어
오스트리
바르
communicate
메타
##That
Performance
p
지자체
선두
##한지
감옥
무선
##Business
사물
HIV
쇠퇴
hosts
화이트
지휘관
스탈린
##든지
##34
roles
오토
##푸
다이묘
limited
languages
생애
문명
순환
human
54
reserved
subscriptions
situation
##es
디자이너
부속
운항
칠레
indicated
전주
재능
빨리
outside
리가
되찾
승강
##효과
주간
가하
##사령부
남서쪽
가르치
소화
철학자
choice
탐지
##전한
##대부분
ISO
##내부
개국
완화
999
##혁명
rollback
표본
purpose
가시
##투스
국방부
##공식
workload
수천
남아메리카
Master
흥미
보건
공산
committed
직위
##활용
영주
매각
##부장
인증서
겨우
유배
협약
전당
믿음
##눈
==
United
##While
Insert
##예의
##Start
##헤
총재
##U
direct
핫
아프가니스탄
고시
gateway
정수
Default
##지도
감
샤를
##준다
routing
##된다고
queries
did
press
생태
53
browse
1927
Header
비하
진술
##45
농촌
JSP
##Then
inside
##병의
중계
Load
이용자
Batch
드러내
가로
빼앗
봉기
##성당
운송
##鄭
transport
##최
허
사망자
사용량
##트랜잭션
닮
beginning
##So
새벽
##턴
##Web
##력
##승인
##실행
Count
신장
평생
binding
note
##막
measures
copied
accept
queuing
대결
When
양도
체코
야당
브라운
단선
handles
세워진
설비
일어난다
MRM
줄기
아메리칸
품
자손
##주의자
데리
profiles
##학교의
강점기
Start
Save
화성
media
performs
조화
공세
총장
공학
밥
조지아
Exception
sites
blocks
심하
##server
Development
clusters
이메일
리눅스
##멘
일찍
싫
##전화
인자
섹션
catalog
master
판정
진실
창이
대법원
OCI
##점검
##바이러스
동굴
김대중
##표의
병행
스크린
실내
미만
nested
1926
빌딩
matching
면역
트레이드
##겐
##기동
회
간접
##사랑
My
닥터
Runner
전해진다
일으킨
##플로
RTT
사찰
##Server
##인간
국정
상속
살펴보
아마
정조
##줍니다
티베트
유고슬라비아
차이점
화합물
전동차
share
테이
##철
combination
스타디움
##이것
##Other
해지
위탁
선형
수명
모리
##녀
부과
테마
CF
Analysis
요코하마
##Although
PCF
기용
referenced
##마이
기부
단층
색깔
##메뉴
바이트
야기
잭
##re
그려져
청주
머물
불가
골키퍼
##1980
attempts
Component
반도
begin
모집
중시
과도
##플
유튜브
구름
developers
1912
##공유
돌아온
##님의
##法
##현대
sign
중동
오늘
짐
항공사
동등
생략
후의
##09
항해
벼슬
추세
##최근
당신
loop
올린
압박
부위
##종이
constant
경제학
투구
나폴리
Real
쌀
World
행렬
베네치아
supply
최적화
재난
숙종
Get
대조
##AMQ
##상자
선보였
하느님
WS
질환
불가리아
산화
단축
마틴
##rst
WWE
plug
소형
##헌
##明
적색
닌텐도
김성수
Port
##신문
정합성
드라이버
하이
규슈
Host
likely
##적용
즉각
자가
Example
텍사스
##Type
route
##문자
진나라
##log
##바이트
펼치
actually
예시
##다운
##훈련
취리히
수영
Session
필터링
자이언츠
나타냅니다
##첫
##1998
##국장
복지
transactional
캘리포니아주
##재위
육성
서류
인가
재위
terminated
컨텍스트
놓여
higher
대리
##洞
고기
waiting
##포인트
MQGMO
##공항
메달
납치
##작전
맞춰
underlying
부유
1917
##수급
기병
marks
##콘
represented
회로
분배
Everyplace
이날
의정부
회담
방정식
ISM
Options
1907
박쥐
추
##08
와중
segments
checking
일곱
공인
들어간
##넷
평소
때때로
##자면
가득
사촌
##칼
농장
closed
##룬
reported
AFC
stores
전적
##매
성명
##里
통로
controls
blanks
사자
##경우
사립
이탈
베토벤
99
부터
##동맹
정해진
변신
Workbench
cell
etc
체
알렸
##델
IN
700
##책임
Programming
상장
Cluster
자회사
##버렸
벌어졌
열람
부착
대우
Mac
partner
칼리지
메리
쉬운
측은
workbench
패널
declared
어워드
스위치
why
호흡
##종료
한쪽
취약점
계좌
서적
people
discussed
철저
셀
평등
##usr
듯
창출
##벤
몸길이
상단
디퍼
##지정
멜
무슬림
버
becomes
##읍
곤충
지지자
convert
subsystem
forms
##송
대칭
##번지
##の
SCA
군수
experience
인덱스
기온
만료
된다는
댄스
해소
region
72
##DATE
워크
invocation
심한
##연구원
##행사
브
##뉴
never
종속
TABLE
고위
판매량
##틱
Class
마쳤
만난
하사
사신
대장
여객
1905
게재
##속의
BPM
review
기타리스트
일기
##仁
문법
##터미널
호조
권유
산지
소유자
works
오염
##명은
##공업
##움
신의
집회
터
동사
입법
굴
integrity
##블
구장
교전
setup
clicking
거슬러
##of
간섭
##철의
##군단
요미우리
upgrade
MS
padding
##고려
신임
펜
존슨
본토
##라인
입지
##only
주어졌
migrate
싱어
사격
##모
셋째
운반
버퍼
MQRFH
덮
환승
피터
전향
내내
아마추어
o
lock
extended
UPDATE
공룡
오리지널
전문의
false
허브
##올
합동
##몬
정통
Me
AWS
토너먼트
비동기
DNS
사도
##Client
몸무게
토마스
upon
유산
그리스도
style
average
##800
없애
##eld
produced
Rational
##Alternatively
##이타
##MQLONG
##스터
Page
왕립
##u
기점
해임
communications
##명령
타원
거인
##교
token
불편
rate
##f
라이벌
##텍
defaults
바둑
돔
##나이
벌어지
##光
##가장
일행
동양
##
영혼
투명
##formula
##안타
parallel
##가격
offset
##금
##작가
##뒤
″
부동산
늑대
##솔루션
Runtime
##스마트
루트비히
호평
Action
##인치
CSQ
용인
얇
토벌
##통
샘플
com
컨
별칭
순차
양국
availability
폐
##차량
걸려
correlation
약칭
머물렀
오케스트라
식민
##기기
##버전
##에너지
##앙의
States
평면
##린
TO
결재
컨텐츠
##끼리
##주로
회색
쏘
찾아가
유한
ends
그리드
interaction
단점
낸
자치구
representation
여신
##事
존스
아마도
##대사
앨
##不
##모니터링
상기
준공
Number
대공
중립
##범의
##돈
오디션
Sun
뛰어나
스프링
주재
원조
유치
queuemanager
눌러
##때문
##후보
##레스
퇴각
reasons
연구자
##경찰
1908
##대책
인터
간부
회수
replace
질서
패치
throws
##여러
##info
##연합회
assign
##루수
시계
경쟁력
부처
마주
리듬
영조
Memory
백신
센서
스펙트럼
둘러싸
웨일스
KBO
Input
85
NT
##City
##공무원
책임자
랩
아르
##37
신하
my
Z
옹호
컴퓨팅
전산
관광객
##환의
saved
##국내
ERP
물러나
대시보드
캠페인
##정권
짙
allocated
##분류
##out
warning
##_*
각기
섬유
##야구
##아메리카
탐사
요원
버렸
다녔
##신청
매뉴얼
57
아트
BBC
##Otherwise
타워
주어
##생명
캐시
민간인
##CD
연령
모험
##Since
역량
certificates
발효
##일식
prefix
Controller
수상자
##쯤
발족
시상식
잠수함
##張
파라
기관차
수장
##長
##600
프레임워크
##초등
다운
samples
ready
노인
issuing
larger
고지
객관
considered
매주
모시
128
업계
붙이
고립
무산
예루살렘
성벽
##島
정계
##유의
표지
곡선
##겟
배급
##레이
1906
JavaScript
원수
##버
datatype
prevent
까지
reduce
##디스크
##아니
##42
##36
Platform
원자력
RDBMS
##한데
동전
##原
전의
MVP
대한제국
##新
##유
서서히
##기압
##1997
지중해
##38
expand
##할지
changing
구사
##언어
APIs
##진의
##요구
사료
quickly
곳곳
지나치
농도
자매
##학부
End
발송
부패
샌프란시스코
얼음
입구
윤리
OneAgent
copies
checked
phase
참가자
제의
스승
친척
우익
##차별
though
추락
chain
향한
사라졌
서독
##陽
쇼군
s
그동안
자문
IDs
들어서
여동생
rights
공략
##열차
##탈
해협
##천의
##龍
설이
##가치
MB
selecting
관장
거둔
디즈니
Mobile
##발전
##l
bottom
떠난
Love
수감
Protocol
##TCP
hard
EP
지목
엘리자베스
당대
involved
랭킹
딴
특유
##EXEC
귀환
프랑크
수비수
마법
##뱅킹
##001
고개
적의
##".
card
Library
Activity
##협력
자국
어두운
encryption
encountered
모으
그쳤
성의
장편
교차로
톰
경상
##소속
퀸
동반
day
##공통
Portal
필
expressions
##북
당일
약한
PurePath
##사실
민감
이동하
disabled
일어날
매력
개척
엑스
화폐
facility
연루
##
58
모순
88
##Right
##영의
필름
##자마자
독립운동
메탈
##앨범
마친
onto
마케도니아
제반
헤
##건설
디스플레이
훈장
##使
##협의
warehouse
제주도
겸임
180
dependent
걷
채로
caused
License
##온의
너
##1995
하도급
##k
~)
조종
최상위
동일본
##군사
identi
농
저택
##정당
머신
비틀즈
1500
##군수
resulting
##Change
황금
110
dynamically
##영
목격
##04
##공동
##복지
##원래
총회
몰락
low
##1996
망원경
시집
서인
등재
##목표
지분
##자고
##武
email
developer
##선이
포유
①
상이
상수
attempting
루트
여인
##西
##Messages
교차
쉬
창간
TM
##원사
십자군
##검
##Security
##담당
Code
문재인
reset
bucket
images
당한
잔
의석
##line
입문
Mapping
##상대자
독재
무늬
미들웨어
##축구
비평가
##쿠스
old
##위치
##센
##길이
부통령
신전
techniques
##학
자세히
##德
##ll
등장인물
공전
yet
협
alternative
##선과
##대대
유해
제휴
알파
│
황후
reading
Environment
##많
##화학
계약서
Basic
##자금
##께서
along
##어질
플
크로스
폭격
URI
요금
역의
남녀
포르투
대령
##永
시체
의뢰
누적
##홈런
##up

##여서
충성
서울시
##수준
countries
연주자
기념물
indicating
가져왔
조류
포항
##尹
clear
##ERROR
branch
왕족
발현
JR
##宗
##폴리스
나서
유역
##1970
Description
멈추
##의학
##高
Installation
ASCII
##광역
동인
##저의
전남
득표
정벌
integrated
왕복
떨어졌
반격
세기
marked
authorized
다룬
세균
##보병
##J
중국어
상대식
lost
경남
국기
63
gets
\
transformation
5000
##신경
기상청
##듀
SMS
notification
측근
상영
privilege
##상품
59
휴대
terminates
북동부
significant
남긴
##正
##처음
내륙
쓴다
반사
전북
restrictions
착공
One
paths
##술
##趙
##참고
##이런
##박
1911
##ISM
##NO
exercise
밀려
나고야
##≫
##리스트
overview
##자유
안드로이드
재단
##넨
정점
criteria
주가
단말
중재
개막
심리학
초연
##분기
정서
##시절
##카이
아울러
##새로운
##Optional
word
국무
급격히
실업
옛날
주자
상소
회원국
심의
보정
이어져
##인구
##여성
##리아
오버
다큐멘터리
동화
좌파
소통
들어온
엔드
지각
분지
하단
SF
핀
진지
가르침
62
언제나
스릴러
Administrator
executing
words
##동기
바라
스레드
대답
##²
Storage
차체
java
sessions
책봉
##록의
Cloud
##생성
배상
캠프
파티
조명
격렬
사우스
##user
벤
아웃
##행동
##스카
##1992
##신라
Compute
세로
호칭
##러시아
후쿠오카
빅토리아
경과
tests
며칠
달의
어릴
프라
relationships
download
조언
##룸
미쳤
##1991
MQINQ
1896
알림
사적
당원
##Y
넘어가
섭취
섞
박근혜
140
Mode
불화
referred
던지
무한
끝내
회계
##입
㈜
암시
좌익
감안
지수
##*)
##회장
##이용
##보장
탑승
출산
##이렇
3000
grid
##데이터베이스
##열의
descriptions
게이
바닥글
Commit
관계없이
implementations
bind
나타낼
##공장
##전선
트럭
continues
시범
##공단
단종
graphical
인공지능
용기
촉구
편곡
죽였
합법
##스테이션
경전
exactly
##역학
팩
식사
히로시마
진군
##변환
stack
급격
##클
종족
framework
##매니저
##Service
유무
부당
둘러싼
이은
과일
Order
즐기
##립
스티븐
북아메리카
##崔
thefollowing
##for
베타
당의
고민
##민
관제
signal
예술가
suitable
완
success
수학자
승무원
Apache
방위
하천
##요건
억
traffic
building
무려
수량
join
##참
떼
일자리
defining
주립
자유주의
지사
중구
responsible
improve
원천
61
NEO
산악
76
##스와
##AMD
보다
수령
##전기
합쳐
##Most
Local
affected
states
##스리
야생
퍼져
technical
된다고
naming
desired
강릉
프랑스와
여겼
히
인디
제작자
로스
원나라
INSERT
자발
전류
HA
##자연
##de
문과
##장군
과장
페이
종의
regardless
시켜
마법사
##보이
그랜드
국군
중의원
존중
logged
공급자
상임
##www
꼭
##개선
유비
##자동
##39
존경
치열
®
##的
technologies
무거운
드롭
##주일
빵
태자
##매체
IPv
##철학
해리
국민당
resolved
착륙
사면
##로마
낼
판타지
나선
Import
지름
무사
##지식
엑셀
##풍의
안의
직책
remaining
컸
망
##같이
obtained
선행
##관제
##도와
하버드
##효율
##1994
##학의
광복
토머스
accessing
파트
거짓
regular
capability
Settings
빼
destinations
흙
##性
김구
도서
##on
한동안
factory
교향곡
##41
connects
##MSG
##신규
싸웠
Program
전장
운명
센트럴
##도서관
달려
따뜻
##國
공격수
redo
##집단
days
조인
##Chapter
팽창
관중
##디의
1909
위임
##폰
대사관
CCSID
locator
##슬
##재판소
스키
performing
##킹
직면
minutes
류
공국
CA
##로드
##조약
조선인
아르메니아
WHERE
tells
register
ODBC
##1960
##돌
##44
##주식회사
codice
경비
전승
소설가
건너가
##During
걱정
노무현
목성
measure
refers
##Name
오스트
반경
##ROM
에어
닿
노란색
Engine
이어받
민족주의
묘소
##New
트리거
##변화
바라보
maintain
하락
골드
기름
1904
정치가
##구간
하와이
지나가
##틴
페루
##Example
##셀
Pattern
##점수
variety
사본
밀리
추격
천문학
탈환
빌헬름
음모
원자로
##43
##部
검수
하부
##짜리
##음력
##조제
##대장
DataPower
공모
asynchronous
매입
패스워드
건담
봉해졌
##사가
mail
중기
명문
소니
##會
##부가
스케줄
##모양
jobs
궁
1915
manner
University
##1945
##Both
impact
Module
visible
주축
좌측
내려가
label
##天
지휘자
develop
##부사
##경영
##항공
presented
Architecture
대용량
기습
조달
공백
const
스톤
constraint
양산
##작성자
##작품
주파수
tothe
##하위
현행
##심사
홀로
일방
##오늘날
출판사
파운드
##왕후
##Creating
##Direct
확신
소실
우연히
항일
owner
달린
거느리
BI
##Instead
컴파일
주지사
발전소
##포트
이른
automatic
##51
인텔
##협정
외곽
##아들
계단
##1993
학부
적정
##독립
진동
표명
성균관
##아일랜드
##선조
비극
장의
느린
##복구
around
##"("
역이
역과
adds
Filter
##이제
##랜드
청와대
derived
안내
##스가
도심
##타이
모델링
이틀
NOT
관습
##짓
공적
여덟
xml
BEA
Publish
##청구
subscribers
리투아니아
1913
방침
타인
##준의
##최대
##side
##인도
##평
써서
건축가
##엔진
DISPLAY
알렉산더
130
TUXEDO
남극
##함의
자전거
보낼
스키마
수평
##연속
소셜
케
다를
##Is
보전
스트리트
근접
글씨
손가락
이민자
증기
대폭
##com
시드니
모래
offers
단원
간다
직선
디젤
개업
##set
##700
차남
포털
경선
##SAP
각자
오디오
registry
오가
이의
##興
resolution
locations
Custom
문의
고조
##서양
크림
easier
Status
커뮤니케이션
Section
compression
##끈
##90
증
꽤
overall
광산
연도
축구단
98
위장
indexes
디바이스
##1989
마르크스
부호
although
강수량
정적
렌즈
노르
피트
천문학자
replaced
바이올린
##의사
구리
주행
Collector
관해서
흥행
question
단절
##레일리
크리스
##人
…
##DATA
런타임
리스
궁정
이조
##백업
얘기
한나라당
게시
보충
병렬
로고
도왔
모방
차기
상관없이
아우
르네상스
relative
##추진
executable
삼각형
선교
##영어
별다른
성서
##쥴
##당과
주어지
후일
르
lets
토큰
advantage
implements
configuring
##軍
DC
부재
IS
going
##가상
각국
북서부
파동
로즈
##’.
석탄
성씨
##사유
하인리히
properly
##国
중심부
##언의
보일
센
치세
베이스볼
##전사
사령부
##connection
progress
Language
쓰인
puts
일찍이
답변
배터리
위쪽
난민
Unix
코스
커피
안타
##NONE
##역과
천연
흘러
앨런
취지
부른
콩고
##First
기업인
극히
summary
##답
결코
전념
##됐으며
학파
##MB
##응용
accounting
declaration
평론가
##가들의
##노동
happens
characteristics
고장
듯한
##포스
놀이
보잉
관통
좌석
빌리
이명박
블루스
scenarios
Output
Call
리포
##참판
종결
algorithm
미터
INTO
검출
데이
담배
물러났
##石
helps
backed
중소기업
established
기종
경북
윌슨
섭정
격퇴
##비밀
궁극
산업의
트럼프
연호
caller
아예
66
폐위
##신학
situations
특급
##직의
급
spaces
##협의회
recorded
completes
##일정
Tivoli
직장
사명
##경기장
카이사르
결제
박탈
##세트
일련
parsing
동년
##계급
커서
적대
틈
##계정
대출
익
주말
필라델피아
term
##바르
accessible
connecting
고베
친정
선도
ports
행정부
##평등
역학
톱
영문
소재지
바이
진리
중순
유니폼
유신
dictionary
##폴더
alter
compiler
category
힘입
연평균
##않
68
##위험
##기독교
flags
양상
##벨
다스리
##70
##대외
강사
약자
##무역
유인
장인
피렌체
##속성
##칠
##위기
뚫
##보통학교
비잔티움
PUT
BLOB
thrown
정밀
바가
대주교
##Test
##부인
인재
##근
##、
서일본
credentials
야간
##Error
##1988
##갈의
본문
##프라이즈
typical
독
missing
*)
겸하
대의
##민국
Click
##But
신사
##root
##×
패스
##김
단추
##줬
납부
우위
establish
인코딩
동아시아
빠졌
앓
의병
삼국
팔레스타인
##보건
국장
스테이지
여겨졌
양방향
남겨
반박
Remote
Schema
chart
이어진다
##운
비활성
##미디어
##도구
Eclipse
##마지막
분명히
동로
plus
척
entering
특화
##manager
let
혜성
가르쳤
##江
RNA
##권한
##학생
서열
##부르크
음원
페스티벌
물의
##善
Text
테일러
executes
구제
뒷받침
##친구
깨닫
이에야스
엠
indication
잦
끼
포켓몬
##그렇
기상
왜냐하면
고발
controller
혜택
##고종
방법론
PHP
##모바일
대행
우세
consistent
mapped
번식
올바른
topology
관해
##er
SS
1916
사무소
카페
기하학
외계
유소년
시가
endpoint
Common
전담
담긴
통칭
제네바
decimal
써
드럼
론
##누리
교장
손쉽
##원장
##이벤트
101
중독
둥근
페리
Content
예약
철회
출입구
리버풀
기밀
창의
##단지
##사와
##여단
handled
##″
##47
밟
##주간
아서
##최종
근로자
환원
송나라
basis
##공급
##앤
symbol
##순
##송라이터
주권
평범
##寧
112
looks
별의
바치
major
부합
나눌
원했
##UNIX
Standard
APM
##회담
doing
전임
##128
KT
든
신칸센
f
##통계
##공격
주거
notice
환영
코너
롱
생명체
##林
##펜
##투쟁
duration
합작
타당
Family
해설
##극장
##자산
##소리
나의
preceding
##小
please
계절
에이스
안동
캄보디아
##和
Help
두려워
##형식
Studio
##실점
sub
공립
콩
1895
블
시뮬레이션
t
들어왔
자민
explicit
혁
문인
소금
위주
이긴
포드
무죄
##비즈니스
번영
톤
##韓
##첸
##보통
사이버
좌
생일
캐스팅
우주선
《》
volume
among
대금
늘리
승부
##주택
앞면
##ㅇ
##재단
##계좌
independent
graph
상부
##베리
MQCONN
침몰
오다
Workflow
보낸다
반출
Your
##양식
동점
수용체
추증
파기
##예측
추상
침투
거론
전례
견제
##축의
SYS
내린
장려
최저
##55
현의
background
compatibility
좌절
똑같
테이프
##신고
retained
##으려
especially
tracing
areas
u
스트레스
빨간색
목조
실체
점포
self
고체
제안서
schedule
동경
거행
이사장
굉장히
소환
##所
advanced
Level
##의료
##주가
신념
##검증
##치료
constraints
힐
동독
명확히
술탄
개찰구
##Run
태생
부흥
자동화
From
제재
억압
지냈으며
disable
##중심
Tag
트위터
스페인어
샘
탈당
연인
곡이
에스파냐
granted
MQCONNX
USB
명목
포격
해역
폭넓
##昌
TRUE
저명
함유
forward
연구원
##Define
##과거
급진
그냥
성숙
##이익
후지
##비율
마약
긴장
고원
##실제
##XA
##뉴스
베이
market
임상
힘든
전진
##시마
동지
사당
재현
인조
차종
입당
강과
##종류
솔
assume
소프트
refresh
일요일
##주한
동남아시아
독립운동가
writes
지출
##공급자
대지
##루스
held
공과
vendor
REST
##메이
responses
256
##엘
여파
##1950
・
낙선
이빨
comment
maps
콘크리트
버킷
reads
바에
결과물
macro
진짜
셈
출구
엘리베이터
숭배
SM
Installer
##풍속
##hPa
새겨져
agents
소켓
기단
역설
내보내
aware
원장
일화
만일
났
시청자
##마스터
존속
누락
73
AND
##감사
DJ
servlet
##수단
찾아볼
유네스코
포수
해전
후방
노리
##정신
번뇌
Setup
적재
Tool
Layer
##field
##바이
잠
시내버스
물려받
연고지
##좌상
##지사
##확실
식당
organizations
USER
##랄
추후
유죄
들어와
성종
Method
67
things
77
했었
비서
##서원
##忠
곤란
developed
cloud
조립
칭하
리메이크
##수가
실용
##이행
grant
analyze
##얼
QMGR
##토록
risk
사이드
Disk
knowledge
##척의
기독
##기사
Byte
경사
##驛
컬러
Do
탐구
컬럼비아
Files
미사
스페셜
Base
회화
MQe
그만두
##시킵니다
reproduced
##스포츠
암석
critical
160
##가리
가톨릭교회
##리우스
##타점
##家
core
##현상
Trace
돌리
GDP
간단히
확실히
생전
trying
케이스
첨가
에스토니아
username
도호쿠
홍수
키보드
친일
depend
invokes
Servers
역전
##단과
ensures
시공
##성공
96
빠진
##올림픽
##吉
Address
assumed
유동
probably
syncpoint
##論
##요원
##Let
##시청
Trigger
줄여서
##전투
지류
여지
칭찬
아나운서
##SSL
leave
Analytics
Attribute
주사
폴리
수면
##푼
focus
##건수
##54
developing
투옥
##우루스
##char
침
facilities
시각화
치명
봉쇄
일족
제고
봉사
스콧
루터
개요
×
seen
##호스트
connectors
오빠
의사소통
미칠
Warehouse
낱말
사이즈
##진행
Systems
exchange
열정
Tuxedo
##route
육체
유틸리티
allowing
y
파업
##46
something
HD
asterisk
BSDS
발레
체육
##망의
레이다
##공공
Export
대원
네트
##식품
그날
자치체
difference
determination
operators
교구
휴전
승점
##기획
총선거
스파르타
베네수엘라
그려
뒤쪽
도주
##방지
상당수
맥락
시초
카자흐스탄
decide
부수
Date
상류
들어간다
공습
##운의
결혼식
##이번
socket
동향
메타데이터
스트리밍
##지시
리뷰
##MGR
sufficient
##폭
풋볼
meet
remain
빌드
##홀
의상
##河
Online
workflow
uninstall
쿠키
remains
무조건
입원
흔한
자랐
받아들였
명사
디비전
##짐
날씨
공직
포크
##정지
##공주
##Thus
왜곡
인연
뜨
##딩
시골
우루과이
##보고서
##인사
크리스마스
안장
history
##TYPE
․
inbound
아기
##海
포도주
buffers
표출
락
커널
##上
companies
맞춤
비평
미얀마
흔하
천문
호남
볼륨
출토
아래쪽
평야
##딘
BW
Delete
##Be
폭동
묘지
연상
##인식
나올
교섭
01
connectivity
기인
봤
##발의
남서부
끈
FILE
##file
stand
응우옌
##Setting
한강
학원
그렸
말씀
##핵
US
특권
전성기
Revenue
세조
69
##머
나쁜
칭
문구
passes
행해
김영삼
사헌부
만의
보인
NBA
전했
기갑
partitions
부천
잔류
부리
generally
comparison
##guration
POS
guide
드러났
통틀
피에르
produce
##시가
DLQ
엔지니어
illustrates
thus
##컴퓨터
대두
Pro
오해
급행
Overview
이산화
전두환
정정
##배포
들어갈
##크기
란
열기
파이
transition
Compuware
수렴
panels
Function
AI
제조업
앙리
RM
실전
성별
year
##음의
천안
##연상
##모리
identical
비전
포장
##께
callback
뜨거운
패밀리
십자가
제압
휘하
별자리
##洪
준결승전
##Many
filename
Element
윈도
스택
느꼈
껍질
TYPE
##꼬리
개종
palette
이어진
world
소지
비로소
영광
1890
부자
course
국내외
##=""
##시킴
71
78
스핀
구출
reporting
latest
##더부
느리
00
folders
holds
전함
신학자
##信
통증
BFILE
물리치
무승부
두산
completely
##죠
표적
내려오
회선
서원
상담
none
사슬
근원
주한
전작
fix
##책임자
##동일
##list
Map
적자
설탕
공천
올바르
##앞
고교
게르만
저렴
남동부
NHK
병조
##SELECT
deliver
THE
bindings
점프
쌓았
목적지
propagated
정자
스피드
##자책점
##준비
navigation
늘어났
레이스
##헌법
전년
혼동
한다면
restarted
연세대
사거리
##테스
publisher
장거리
##머리
초창기
연애
바깥쪽
doesn
새로이
##부로
한층
##증
몰래
##가구
갤럭시
##라스
눈물
##松
##Where
##니아
삼성전자
Change
교외
보좌
버지니아
혈통
##핀
화살
찬
라트비아
DELETE
Parameter
일으킬
##문화유산
동위
유교
편집기
learn
##이온
Visual
목재
＜
고가
##은데
항공모함
##nition
세계관
##堂
}
품종
##협
신원
tags
Is
##활의
VARCHAR
정류장
구조물
potential
진도
기금
전인
진급
여유
##정비
81
붙였
##리가
공산주의자
##End
linked
입체
후자
##매치
지폐
벗
풍경
보스니아
창건
성공회
sharing
##제어
월간
방화벽
##JEUS
개관
전압
학
단장
 
layout
##水
여당
드릴
다룬다
가져온
이스트
Full
Job
Agreement
upper
##폴
적당
해명
##權
축출
##49
테니스
##CPU
입각
constants
강연
엄마
##IT
마이너
concepts
##케이드
피신
객
##월드
끊임없이
면제
threshold
toolbar
액
무인
사직
##Verify
##Depending
루프
중장
폭스
##검토
##코어
##Active
말레이시아
축하
기술자
명백
360
실려
환상
##원인
대거
알코올
시칠리아
외교관
패전
HTTPS
휴스턴
##Broker
Out
누가
승계
핸들러
가짜
##청년
울
생겨났
##나무
##극의
슬로바키아
히데요시
이중화
Edit
##는다면
##쌍
플러그인
##캠퍼스
메트로
##殿
학명
##육
##수사
사상자
quality
레이저
윌리엄스
제독
단말기
extract
chosen
인격
ABC
여단
##length
##건물
82
##톱
프랭크
##System
드래그
##62
증진
두개골
계수
##경로
##비치
achieve
부가
Proxy
##토스
할리우드
##엔드
롤
##뱅크
띤다
##ﬂ
Thread
단기
누
바꿔
성모
auto
정립
컴
연이
협박
재선
##•
##Applications
##단일
As
assembly
키우
귀속
##래
##어요
##가족
수용소
##禮
##Copyright
동성애
재처리
상무
몬트리올
둥지
이자
##**
##by
positive
comes
logger
##"),
살아가
wish
##JMS
getting
hexadecimal
##北
양키스
DATA
come
97
익숙
customize
workspace
##1987
래퍼
블랙홀
##전문학교
SC
##전문의
걸린
낸다
##記
##셔
통치자
Intelligent
##넣
저널
모토
퍼시픽
고백
Hat
override
meaning
Adobe
아랍어
감행
Rules
86
begins
게스트
평행
데이비스
##종교
넘기
위함
##보존
마찰
##기록물
누군가
가죽
행적
박해
용병
아키
듀얼
History
그치
##Log
원고
III
미술관
노동당
첼시
##52
국무총리
##퍼
언론인
갈수록
generation
통행
가마쿠라
releases
##타운
대위
##언
##축
미쓰
reached
terminate
시선
키프로스
시위대
한족
옹립
데모
중국인
베른
##BIP
범인
고수
##아과
붙인
lookup
공채
##57
##실시간
임용
##큰
프
##반응
전하
가벼운
할머니
##劉
##Source
offer
subscribe
##ve
Design
파장
따위
controlled
pair
formatting
portion
장사
추모
선비
locally
##풀
복장
메이
케네디
희곡
LED
##Follow
83
문양
병역
베르
비문
담겨
콤
initiation
어휘
타운
##데이
outbound
선원
마리오
compare
demonstrates
주주
중위
비유
동구
차장
finished
관념
##守
##어떤
수습
우편
##의장
##IS
depth
부채
##도쿄
밀집
키스
황태자
##코스
##수지
quotation
학업
우라늄
득표율
노비
##해져
네이버
initialized
댐
연산자
해고
station
##門
1894
공의회
블로그
보강
스쿨
restore
가져올
##부에
줄일
dashboard
신탁
##>,
대치
알아보
충실
##柳
플로리다
##SET
##해진다
sales
Encoding
덮여
Reason
${
종래
materialized
exact
##인자
##비아
##욕의
패한
overhead
화해
광역
Release
개막전
닛폰
##void
타점
숙청
##oriented
##버그
가요
FM
##本
신한
##옵션
##alone
스튜어트
Document
beans
성취
PM
##웨어
레닌
front
우호
##ne
복호화
발령
상점
Part
imported
공조
일반인
끼쳤
##孝
info
migrated
Creating
휴식
한신
칩
책의
소닉
예언
실무
##티스
명은
Of
routed
##기로
##아웃
앞쪽
throughput
scale
track
##여도
##→
부시
너비
keywords
아제르바이잔
mount
커넥션
##경찰서
##배의
퍼지
##SW
editing
##館
승부차기
##전국
원주
자택
##수학
제수
##LG
정해
##표시
raised
상하이
부작용
내주
자유당
브라이언
총칭
##탄소
슬로베니아
평원
소총
##Subscribe
tell
84
염색체
평일
일컬
생산량
반도체
대패
벌금
CLI
##Such
repositories
First
boot
단단
따온
군부
작센
##시켜야
##창이
머무르
기입
tested
구축함
심화
그다지
지주
모른다
토양
올라간다
선종
##53
AGENT
fr
에릭
##차세대
창업
State
선사
##젠
##지점
바람직
귀중
이성
낮추
뒷면
승자
스티브
1902
고고학
석조
##390
일조
성사
##불교
실종
허리
후안
##사령관
##神
stops
강점
##태평양
어원
남인
드림
공표
감수
Postcard
노스
모서리
##which
##미래
과목
워너
##으려고
광학
조종사
왕가
zone
fast
분비
##Connect
창고
근로
드문
접
파란색
하워드
희생자
operate
MQCC
창원
평정
##相
설도
transferred
징수
단행
##宮
##漢
allocate
정제
##75
채권
##가스
##Reason
수축
입성
링컨
소모
서유럽
콜롬비아
faster
Back
우회
industry
유의
87
sort
##케이
굵
##Notice
미스
1901
탐험
지혜
당주
욕구
미루
가나
포획
드러머
첨단
RTI
영양
가신
도루
##기계
92
title
다이아몬드
와인
Run
학교의
치러진
##宋
황실
키워드
일부분
digital
occurrence
뒷
체류
##동당
리모트
leading
플라스틱
스타크래프트
포도
원로원
##大夫
##계획서
##자격
##단말
JCL
재해
물리학자
##慶
Cube
##이다
##lib
https
대역폭
자기장
세례
##참여
##애플리케이션
##return
교단
Dashboard
구할
해병대
전이
##승의
영원
가해
##樂
소나타
##Another
locate
74
보스
##주인
##고대
헝
##킬로미터
##쳐
##BusinessWare
걸렸
파산
모았
vary
providers
extensions
돼지
##페르
오피스
places
지식인
1899
##연패
##Configuring
상상
화자
추론
How
만남
결
노트
육지
##侯
Step
Container
충전
WebDB
행진
촉매
루스
초상화
이겼
백색
어렸
##서명
##Linux
proper
packet
compile
##官
인민군
##당사
시행령
##타입
administrators
레오
오프닝
93
incorrect
꼽
construct
토요일
##date
유지관리
이식
오프라인
networks
##사전
굽
Not
물자
구절
snapshot
##개별
##타가
초안
적혀
##마일
기질
해변
알프스
##체크
restricted
##박사
뿔
나이트
제치
Return
##q
신비
##루타
##디자인
##회전
분량
핵무기
우승자
##Event
포스
쌍둥이
체코슬로바키아
확
mappings
##인수
##인상
##더니
조국
누이
선진
nature
circumstances
signature
extend
routines
Work
##키를
##부산
##텔
##』(
##니스
##일명
##차트
성남
폭행
산다
1898
치즈
recover
덧붙여
구매자
detect
허위
생체
승차
##체육관
당연히
105
EMP
법무부
운하
CRM
Null
assumes
##phase
##웍
years
collected
discarded
투자자
##밴드
중도
가축
##걸
빌려
##전차
제후
speed
##개발자
##1986
언니
##였으므로
TOE
##白
##Process
Added
미분
옳
일명
##궁
1903
필립
prompted
회피
Core
POST
k
CEO
실망
기아
waits
매치
거처
triggers
쳤
빈도
##디지털
외모
두께
놀
##회견
##xml
##대기
policies
##MCI
스페이스
정전
누리
diagnostic
양호
employee
구호
##Midas
##신용
workstation
무슨
안보
포탈
동력
목포
표방
om
먼지
대포
몰아내
멜로디
이토
마쓰다이라
Red
SNS
MO
알루미늄
대변인
장갑
둔다
자사
compatible
서울대
recent
daemon
##과장
103
##스로
중일
##經
출
persistence
##차이
기수
한화
환
아이슬란드
##Information
coordinator
thequeue
한양
##닝
무너지
대표작
사위
##65
질의
달라지
rolled
BY
배후
코무네
91
##市
라마
재혼
진다
boolean
##셨
Desktop
두루
숙주
disks
##%),
웨어
수년
350
미세
##모토
악마
letter
technique
lab
신도
##》("
##Configure
aspects
##세요
interactions
장벽
##복의
ed
cover
메모
잊
입국
까닭
##켄
그랑프리
##어가
마르
격
##한테
##품질
뇌물
세속
ﬂ
계열사
##연금
##범
##group
대피
벌인
줄무늬
##동과
쇼와
외무
##point
##59
지장
##최초
Context
presentation
##그녀
펑크
합스부르크
managing
양측
##깅
SQLJ
주고받
내정
정말
##世
청약
김세종
폭로
##56
Browser
ended
입수
고치
##미술
##日
희
##해제
smaller
bits
IC
더욱이
moved
##인원
treated
사인
children
turned
코트
허리케인
따왔
##세션
vendors
association
negative
##거지
경상도
differences
##는데도
Window
옮겨졌
##Users
줄여
drill
altered
79
기고
지켜
짝
##봉
비밀리에
##源
바티칸
대왕
염증
##향후
kind
예능
코믹스
percentage
interact
서신
만성
방패
##유적
토니
extra
Put
##서기
짜
서자
accounts
서머
##USER
##링크
person
LAN
강풍
레전드
북방
응하
Path
filters
170
##･
##련
##끝
현저
경신
페이스
거뒀
유언
belong
concept
분광
벽돌
냉전
통근
##面
기슭
중추원
돌려
아스
Point
##db
사이클
칼럼
포착
지질
##圖
성리학
##기한
Excel
bound
종로구
##1985
보석
러브
prompts
inventory
공익
밝기
##어로
##1984
모자
아시카가
throughout
##Stop
공지
줍니다
돌입
##완전
인형
##나갔
effective
##Either
블라디미르
##知
capture
Up
shall
##1000
protection
왔으며
증설
추종
코리아
후궁
유선
입출력
채우
아인슈타인
Definition
omitted
나타날
##br
맞붙
고무
우유
독일인
##司
비오
##Plus
shutdown
triggered
putting
초월
900
##자체
군중
꼭짓점
inserted
라이프
Applications
##클릭
COM
치안
CLOB
opening
##谷
복음
화장실
징계
따랐
##社
닦
출석
##자본
훈
대학생
거울
확진
배신
subset
단식
##藤
프톨레마이오스
##스크립트
불가피
split
##And
##스트림
##시켰으며
부도
Authentication
싱
헌신
##기지
나이지리아
사회학
공자
##디렉
##주체
##기가
##아프리카
품고
광물
총대주교
기각
격차
##혹은
코딩
사우디아라비아
참모
##정기
##포함
강원
링
aggregation
Day
약하
둘러싸여
북위
모로코
##평균
##John
사사
##일치
##트리거
탁월
##business
Suite
implicitly
급증
횡단
라이
장례
레논
NAME
주차
Messaging
아카데미상
일생
영의정
distribute
##발주
품목
themessage
hash
연봉
기생
예배
##연
Dynamic
돌연변이
프로게이머
아홉
선배
retrieves
Apply
mm
탱크
대군
transform
레이아웃
##세종
mark
산림
분당
푸른
1800
가볍
후대
장례식
기하
MC
parsed
disposition
연쇄
밝힌
##빛
마스크
킬로미터
바른
영국인
재상
requirement
상응
costs
##파워
##Every
습득
##락
##900
린
##람
젊은이
##강점기
##馬
##베르
BME
PurePaths
firewall
predefined
##극
취재
유니
spent
아무것
선이
##SHA
최후
##계층
##예산
부각
##협상
namelist
기적
프랑수아
예조
Tools
동아
러시아어
트윈스
##현장
비치
WMB
installer
##먹
##숙종
regarding
RACF
ones
optionally
##書
그려진
##헝가리
진흥
mean
##ALL
보드
##村
호랑이
컴백
lot
출처
##낸다
##無
1897
모친
##TB
representing
mouse
##1948
번성
꼭대기
여우
##貞
Unicode
##타마
##省
1884
한인
홈구장
##시각
누설
party
migrating
글꼴
이주하
사살
##플레이
응
나란히
뉴턴
시베리아
총독부
##원칙
##Agent
City
Technology
버그
충남
성도
바오로
새겨진
tape
에게
순회
밴
##1940
전한
유로파
Instance
##58
##무기
##연동
규범
동명
등극
##동이
modeling
피난
Async
validate
둥글
자들
##평화
##吳
Password
implicit
백분율
거주지
탐사선
questions
##판사
차관
함선
반지름
이슬람교
베어스
디비시온
##고속도로
파손
##설비
이용하
agreement
answer
CompCode
##라우
##Switch
##그램
##로맨스
hand
##에이전트
플로
##경험
##성시
GB
initialize
Infrastructure
바꿀
느낀
말의
종점
현종
onthe
attached
모색
특색
##비행
가열
##제작
##Save
Health
##게끔
##교사
PATH
##클럽
89
내기
나가사키
##마력
전송이
고의
##지인
##Object
말레
##Additionally
##잎
해의
confirm
declare
기증
##Course
스카이
중성
찬사
little
##99
desktop
selectors
툴바
이닝
빈번
중추
냉각
희귀
##폭풍
프랑크푸르트
부드러운
수호
풍자
##전달
##printf
##지수
찾아내
RC
절단
형조
##비즈
##드리
##릉
알바니아
견인
Policy
교부
경찰관
에티오피아
##鎭
##start
주입
##주소
External
locale
발병
만세
deploying
dashlet
직관
연한
##황제
성전
##득점
##레벨
풍속
천장
상공
콜로
operational
##서로
밀란
##Under
pairs
##공연
##Not
선보이
Transport
바퀴
베드
취항
behalf
보복
직결
뮤지션
잠금
belongs
명분
동북
슈팅
위키백과
##옹
구릉
중종
오리콘
격리
__
놀라
촉
##町
수에
##영리
민원
sometimes
채소
비단
즐겨
남동생
바이킹
중앙아시아
##쉽
페이스북
MIME
등용
활발히
척추
##시인
빈곤
복용
그릇
##그리스
개인전
트리플
임관
force
looking
##체결
##진흥
mandatory
게이트
Sensor
퇴역
Ctrl
•
See
Architect
##ARIA
동참
##데스
AC
언
연합국
판본
매카트니
119
attempted
responsibility
진전
시드
쳐
1860
##Enterprise
냄새
리비아
출자
상해
필리프
enabling
##을까
양이
팔리
거쳤
케냐
어류
##사이다
딘
윙
##opt
flexibility
모호
나눠
##사이드
기르
발렌시아
##Typically
##대응
##팩
involves
UDP
monitored
요르단
##노선
도요토미
loading
limits
coordination
signed
##노스
시가지
제트
구해
명제
기차
당수
##有
##귀
app
연소
몽
카라
DBA
##취소
##61
질소
video
##갈
IF
호응
##1982
불린
##물리학
##경비
퇴직
택시
쏟
아님
점진
##황
누나
청원
strategy
domains
어업
들여
##주민
온대
소방
악의
내외
국한
국영
어려웠
봉건
깃발
정형
outcome
게시판
벤처
맑
##코프
##都
한성부
indicator
무효
##create
곡물
서북
황족
##영업
revenue
five
ALL
설문
탐
고소
달한다
##生
##EXIT
유관
##Default
##":
##식물
경찰의
헤드
붙여진
파벌
##周
무용
rest
triggering
RUM
민법
생겨나
직경
원반
##배상
##의견
해결책
##워크
##지급
anything
Copy
##대에
고양
요크
바르샤바
협주곡
Universal
listing
duplicate
디폴트
unexpected
윤치호
봉안
확장자
Processing
else
##기인
##파크
얕
##려던
##남의
게이지
##비뉴
##write
임원
##Microsoft
onpage
동행
주역
방사성
파병
explains
##이시아
시트
워드
인질
자선
END
-->
##판매
reuse
##그레
관행
사내
##제한
##햄
Informix
recognized
arrow
오로지
가족의
##당원
examine
##사인
유닉스
잘라
mixed
매매
레스토랑
극동
상경
호세
Subscription
##Next
##경찰청
이룩
supporting
리더십
##Finally
변이
평문
퇴임
퇴장
짐작
성주
##아버지
##오스
막내
케임브리지
##사무소
xa
JAR
XP
guidelines
1880
제국주의
커넥터
공수
config
색채
헬륨
어른
장안
expect
separated
##Remove
퍼포먼스
방대
##">
마블
EU
##친
갓
자아
ACL
##마크
##</
JDK
##좋
동상
지지율
친일파
패하
##지방선
장기간
Buffer
포인터
permitted
##98
Domain
##회원
##범죄
전시회
##엔터
관세
경연
다양체
milliseconds
시설물
시달리
극심한
##1920
##피의
운동가
콘스탄티노
Also
평판
Product
secondary
processor
대변
JMSException
취업
##맹의
##오픈
functional
understanding
##로컬
General
##코치
##격
수색
##공신
후한
아돌프
##뤼
##景
ON
완수
##대통령
##SEED
##자기
##밤
##化
프로덕션
발각
오른손
##함대
가용
##퓨
Messages
에디션
페르시
##related
Cache
##위성
##접속
UTF
##Whether
정산
카를로스
오키나와
수신자
##일시
모이
끼치
RESET
##해방
##野
##대금
ADT
트랜스
기분
##羅
bin
exported
##‧
이북
학계
##통일
포병
##聖
치른
텍사스주
##Similarly
identifiers
순조
아미노산
플래티넘
연금
really
hours
102
침체
replication
##재판
##디스
적다
턱
##1981
사관
##친의
수락
##광
아닐
타일
kg
타이거즈
용서
##목사
accepted
##총회
가계
##Programmer
##派
##상세
VMS
Co
parse
##터널
1885
##message
discussion
분기점
아베
쫓
아사히
##트라
##주행
채무
약점
##string
플래시
##빙
OF
가변
##누
모인
##디아
##테르
투항
둘레
상트페테르부르크
대표자
케이
audit
간략
throw
##위해
땄
##Choose
##작성
staff
DEFINE
관광지
##ERR
반군
formatted
replies
사가
옥
##버린
##利
##디퍼
수시로
Technical
##계열
원내
##th
후속작
저기압
동성
##금지
grep
규
##체육
수료
조선일보
삼각
Backup
digits
##구동
showing
지부
깨달
matter
Sequence
##통신망
##의무
CHANNEL
두려움
맹세
결선
##로프
자칭
##"()
몬
START
공단
Specifies
부회장
산란
##패의
##字
양주
향년
헌정
prepare
##지리
highest
printer
capacity
##을지
persists
##요리
아름답
##①
relating
##VERSION
##뷰
navigate
숨기
##집의
감동
repeating
넘어갔
GS
Ensure
##ref
응시
##빌딩
프란츠
리스크
인계
##상기
##스페이스
산타
도장
##政
이성계
drivers
School
##1979
##＞
##타임
오렌지
##메트
##아시아
온갖
문하
respectively
##Consider
똑같이
##희
노조
##지침
상연
수중
부피
돌보
잡아먹
##룡
구도
##Install
##통보
인체
payload
전날
##孫
##Examples
alert
##PATH
coded
##둘
교과서
꼽힌다
동아일보
강남
마오쩌둥
##삼진
##왕조
SSO
##주관
##하로
옥스퍼드
신선
##비전
##라서
쇼핑
125
##Syntax
체력
##리어
친왕
##림
자전
##실장
고등교육
알제리
컴퍼니
개교
지역인
##後
지켰
##어플리케이션
Account
Company
##마루
체중
컨트리
##1983
라오스
##인민군
##남부
Case
adapters
authenticate
backout
노부나가
아틀레
##회계
Size
통용
이수
##훈장
High
안내서
Naming
##대손
얹
가늘
##Project
교정
Programs
프로파일
##學
02
##국립
해독
##인당
##요의
독성
중성자
termination
접근성
거짓말
##地
외국어
listeners
drag
친분
##黃
멸
Property
불량
제조사
##95
배틀
스리랑카
##行
resides
TEST
철저히
explanation
configurable
청사
##공산당
중령
대승
李
##URL
##Total
##Request
##clause
포스터
감자
사회민주당
남작
packets
유실
##Value
partners
##Two
passwords
##Parameters
던져
##퍼센트
수분
앤드
이탈리아어
구형
발해
어쩔
뉴욕주
##소련
1871
sum
매니
big
compared
Finish
열린다
##낼
유아
##베이스
introduced
There
transfers
interest
##그런
동유럽
독창
prepared
감싸
뱀
deal
쓰여진
Provides
올랐으며
국어
대단
증후군
Only
##Target
##PM
메시징
인명
registration
의의
심해
오이
##左
홍문관
체크아웃
##MCA
##접수
쓰여
고르
연예인
사로잡
맥주
어항
솟
평민
##살의
implementing
collect
히가시
공신
##티코
##수집
컨셉
@
##}"
What
UN
프레
##sender
##將軍
##Channel
IO
##혁신
배양
omit
합당
살리
##뉴욕
해인
##웨이
평평
소령
##선생
##운동가
붙여졌
##물리
##용량
##아가
백만
##횟수
##달의
컬렉션
양반
볼셰비키
whenever
Modeler
주조
##理
치러
신흥
##에다
근교
카이
제대
함부르크
##교황
beyond
디렉터리
##용역
Multi
Adaptor
debug
encrypted
소매
widget
1870
왼손
##관찰사
MQPMO
에스
신중
##빅
티켓
듯하
감금
Line
##확장
##롤
abnormally
수법
피할
LIC
몰수
흥선대원군
goal
debugging
”
##시점
프로시저
Exit
Display
##CREATE
관람
원전
##FILE
##참조
##태
Secure
브로커
Preferences
당연
해상도
결번
배려
##묘
##궁의
캄
##윈도우
만을
font
trusted
노동조합
##넌
##연방
분출
어려서
아리스토텔레스
치환
94
법무
압
##1973
##1972
군함
##뎁
물가
입양
##76
Tree
wildcard
##GROUP
Life
##개소
nor
발의
방치
wide
창시자
방글라데시
성체
##Database
OUT
발주자
긴밀
해시
전염병
유료
실정
##밀도
엔트리
미소
##1946
##우선
무신
창원시
여권
데스크톱
면허
동조
플래그
##신탁
입주
아종
이상인
ms
그저
concurrent
과실
##실적
BPEL
configurations
##질서
남한
##대왕
##speci
complexity
마포구
무결성
dataset
놀라운
##선언
뒤집
사무총장
태양계
유효성
##직원
##필
##1930
창문
설립자
북경
무실점
Non
표기법
training
청주시
##우드
발원
권총
##연소
제프
moving
SNA
외관
켄
궁궐
##클래스
##HUB
학대
합친
향했
반입
##해석
symbols
National
##，
##광고
사라
열심히
예명
LOG
해킹
Show
g
##킨
선과
산의
연대기
##악장
천사
raw
vi
프로레슬링
lead
practice
artifacts
미션
원료
흉노
간신히
보헤미아
=>
##건강
할인
급속
광대
##아스
##덕
배구
far
교원
pop
경질
호위
CHARACTER
의결
자의
담보
##드라이브
##창의
RAM
##정적
인터내셔널
##스페인
살려
토크
지녔
간토
##集
드러냈
사업가
##복합
모티브
##해양
휴가
룩셈부르크
Spoke
##전부
printed
life
옥수수
##라이트
웃
토착
총사령관
수수료
CNS
subsequently
도래
iOS
##조지
경성부
칙령
상시
tier
1600
혈관
괴물
##ㆍ
##결제
의류
alternate
강남구
뾰족
안방
온천
세워져
1889
은거
quotes
primitive
##인먼
##다르
모은
하트
generating
filesystem
삼촌
부설
##질환
후반기
쿠빌라이
준결승
integrate
220
failures
decisions
엘리트
##도어
##梁
설교
송시열
사안
경찰서
entities
섬세
사육
에콰도르
이글스
##부와
나타낸
달걀
정찰
농부
##良
##닌
##원격
Fail
##Exceptions
대역
싣
Large
디트로이트
폭격기
파이널
themselves
categories
CLUSTER
##지와
주차장
곱
파티션
today
interactive
EDI
수심
##太
##수익
보류
폭풍
Region
가미
##장과
교량
생계
내무부
Space
VM
의약품
강렬
##환
전도
##전통
disconnect
곁
장이
##결합
personal
##");
스카
골프
초빙
아레나
##井
wants
Setting
benefits
##농업
읍
RPC
신생
##조각
엔딩
이복
verification
##홈
08
NUMBER
슈트
신축
퍼
정착지
헬스
FIPS
마비
에르
브라더스
공시
##시오
##상과
도카이
필요시
대상자
부드럽
##나미
실린
자유형
KB
나타냈
카테고리
terminals
생긴다
노면
프랑
외야수
페르
일가
히로시
금성
orders
##에스
학과
##상업
실권
로마인
##여서는
wrong
전방
음료
비석
경제학자
말리
다툼
##MQSeries
unsuccessful
난수
깎
강간
힌두교
갑옷
##직접
Sales
##Batch
planning
##Within
"${
공감
선구자
축조
##INSERT
happen
##보드
##그런데
##말의
우정
MP
##이탈리아
조리
당내
말년
강경
##》(,
##은하
converts
##고지
마침
##면적
검열
그레고리오
##결국
맏
동성애자
전복
물류
Human
좌표
IDL
##잔
##1968
역사가
겐
교황청
extent
##you
Execution
노동력
##code
##queue
hostname
집결
진공
공용어
노론
##63
evaluate
천재
접어들
취미
바뀐
##承
##nd
##시도
Net
##청장
동네
젖
##立
지미
라이온즈
다케다
아스널
FALSE
##Its
stage
symbolic
Stop
##셰
생식
가져
파문
아이스하키
스케이팅
발라드
Provider
오라클
기술력
passing
염려
##제조
연립
피아니스트
구경
108
출동
Users
대단히
가혹
씨앗
다투
트로피
속주
VPN
Unable
알파벳
his
○
##92
파일럿
아날로그
편집자
러시아인
##秀
러셀
discusses
징
하이브리드
비해서
실험실
본국
고쳐
배분
App
1200
##소득
precision
깨끗
describing
##size
Reply
예고
##모르
마산
회상
##중계
색인
##굴
##진단
연수
occurrences
##기자
에이
배속
연못
지도부
명종
안토니오
##福
selects
투여
컨설턴트
##창조
공존
세분
##중대
욕
한스
##弘
대리인
적절히
##메모리
##집행
##Displays
미상
##2022
농사
예컨대
마닐라
##Transaction
##명이
##agent
대규
가져다
음향
대중교통
감리
##수도
취할
##흐름
iSeries
##1949
벽화
##원소
##陳
악장
##부를
이상한
플라
세자
즈음
serve
걸쳐서
`
considerations
##Copy
##도움
simulation
##비시
어둠
##가수
종말
세이부
##법률
스캔
qualified
Be
마운트
relational
넘치
##미사일
##基
##나오
##드라마
##형제
해밀턴
무함마드
frequently
Detail
tries
stanza
열려
체인
방송사
ATP
능선
부르고뉴
Unit
TLS
스트림
figure
난다
서문
분파
팔렸
불타
month
방사선
체스
지바
##z
##수립
기성
Driver
별개
매수
Live
stock
EXEC
말미암
조부
역명
난이도
##지진
Admin
개원
미키
저주
Hub
##당해
Certificate
ignore
각도
바꿨
정작
하차
초원
우파
notes
Physical
Jabber
##연료
##1974
##정에
##帝
히로
연장전
##72
매출액
##입찰
##생물학
빛나
느껴
꼴
장성
유격수
달라진다
가중치
##상대
SAS
##건축
의자
능
수확
왕권
##곡이
녹화
ANSI
동형
안테나
프랑스인
##포맷
##강화
나갈
국소
programmatic
토르
복권
전지
진상
보위
해리슨
Virtual
Korea
country
Home
Info
450
##균
이순신
세가
cross
##WAS
##전환
Character
associate
유치원
compiled
##스위스
변호
피겨
##Time
act
바란다
admin
윗
##무대
치아
항소
인테르
sensitive
##：
리치
4000
JSON
의과
내려졌
사범
컨트롤러
##시켜서
미생물
경의
붓
transmitted
##어느
어미
증인
NFS
consumers
detects
원의
너무나
기념비
##WMB
높일
##레코드
unknown
truncated
등등
처지
맨해튼
##古
스타리그
synchronization
||
##윤
취했
전염
야구장
interpreted
##복
유권자
##슨
노태우
다저스
##증서
모터
릴리스
##앙
탤런트
죽인
보살
##솔
inactive
그래도
화력
중퇴
광해군
니시
##장기
idea
foreign
시야
크루
발트
탄도
원숭이
owned
##추적
payment
요정
##자신
애틀랜타
충청도
##도르
##으려는
Install
Foundation
typing
automated
재고
버클리
##국군
가로지르
카르
쓰레기
maintained
cycle
즐길
ACK
##피트
출가
국외
##POS
illustrate
restrict
efficient
사의
str
몫
시켰
1883
대합실
트레이닝
악보
청동
우크라이나
성문
격추
Parallel
##소송
ERROR
##칭
customized
Remove
##습니까
프로그래머
##검찰청
컴파일러
채취
1848
Midas
Destination
04
잠정
활주로
하노이
##Non
##조합
desc
융
##라기
##벽
##華
레슬링
SEED
think
넷째
충
양보
야마토
조반니
기관총
differ
JAVA
##정보원
##참가
경관
오리
##1971
##直
법의
모범
시퀀스
어긋나
익스프레스
루돌프
전래
forthe
employees
IoT
boxes
##결재
##이력
Form
arrays
반전
꼽히
맡기
예하
##스에
전위
##木
mentioned
sizes
care
추첨
첩
##Out
수식
꺼내
Statements
##어스
##싞
##1969
##1962
recording
알맞
09
Routing
##반면
##step
Attributes
아라비아
##영화제
##대구
removes
연말
배우자
펄
북구
접한
삿포로
##접근
##persistent
채워
timestamp
이송
제곱
호르몬
세르비
형인
자결
Write
간편
파싱
trademark
관례
라이언
##1919
타이거스
loss
##응
무단
효
##Update
##혼
106
Agents
올라갔
240
MQQSGD
인문
포도당
거란
##땅
비리
발칸
##구매자
specifications
공용
frame
드디어
클린턴
차출
스트라이크
##泰
친선
##저기압
서재필
##y
127
계획서
OR
computers
##Connection
Max
자제
datatypes
Integer
워
공약
모금
영남
일식
produces
proceed
몰리
아이폰
개항
로저
##定
Recovery
locked
post
111
투르크
군사력
##system
Details
##elds
##FM
결별
마녀
성운
##파트너
월요일
내세우
calendar
소행
비추
천천히
##통치
SILK
respective
sense
Legacy
시애틀
대의원
increased
rename
##OK
사설
이득
터치
리틀
케플러
반란군
##DBMS
FOR
아마존
yourself
진료
##벌
떠오르
카스티야
일으킨다
##부작
왕가의
##Even
##베이
##구현
##doubt
##광의
타임스
가옥
몸통
대대로
크리스토퍼
달아났
protected
##메일
ICT
##부여
la
emp
##찬
로딩
##party
respond
analytics
##가로
##美
마르크스주의
calculated
근간
submit
solve
115
##졌으나
##명칭
붙잡
보이스
정무
순천
개미
##연승
일파
Brokers
##Number
추이
종식
브레이크
1888
마디
자유민주당
초당
##최고
##원이
##힘
영예
1882
연예
##者
후작
Events
powerful
literal
##Get
##먼저
DTD
안양
사라진
줄거리
자크
중엽
##서류
급속히
familiar
##Provides
##료
manipulate
편차
학회
취한
응원
신이
자란
##前
##음에도
방어선
외치
센다이
게이트웨이
##";
그림자
느낄
염기
다나카
알렉산드르
기병대
##회복
만듭니다
##1939
청동기
OPEN
##소장
##보고
##120
히어로즈
윗부분
##롱
##1944
프랭클린
##™
##도입
##분과
##1963
챌린지
대서양
이이
듀오
소나무
구실
찰리
##曹
비주얼
농림
##Installing
라인업
##된다면
아시
커리어
##阿
##요인
kept
##대비
금전
##높
포럼
##태수
##史
##溪
Servlet
##Delete
구두
boundary
함정
혜
가솔린
비타민
소원
케빈
delimiter
자음
비준
곰
##INFO
##삼성
##85
##주제
##통상
어울리
정세
남미
동정
##NOT
buttons
상세히
정변
파울
공고
##보증금
##88
propagation
##지로
델타
조용
편견
##포드
에이즈
카타르
처녀
ActiveX
BC
번창
##1976
타석
보여준
##케이스
무제
롤링
MTV
##時
도망
안치
unavailable
Public
##Length
owns
GNU
##닉
##본래
단행본
명인
공이
수군
soon
임직원
l
##캐나다
외환
##륜
##101
꾀하
중앙부
##뮤직
패러디
묘역
레바논
마다
evaluated
둘러싸인
텐
흩어져
지층
##인권
크다
##았었
초신성
퀘벡
##申
mechanisms
Read
combined
큐브
수성
희극
completing
launch
떠
##즘
규명
얼
이뤄졌
번갈
시립
양성자
##1941
미토콘드리아
DW
캡
고사
내걸
키예프
주어진다
##1978
대웅전
##private
잔존
extends
he
구미
어찌
##독
날카로운
벨라루스
요제프
궁중
##津
급여
icons
납
제우스
##타워
마일
부상자
마야
화강암
헤르체고비나
##운용
eai
저조
NASA
가져온다
놓인
신발
극도
이단
##1964
사절
절약
흥
광저우
해적
가했
##바흐
도피
호족
RFH
newly
스폰서
##문과
제주특별자치도
##팬
##다이
다니엘
##淸
##Return
##율의
열도
##외교
서민
##畵
천문대
리옹
backups
정한다
국정원
##슈퍼
##CCTV
direction
modes
Machine
##주식
##기와
##重
유대교
마스
브리튼
쓰시마
material
##View
능동
드리
ODA
여진
타협
덴
1892
effectively
##실험
불분명
quite
Item
백화점
뛰어들
프랑스령
알렉산드로스
Office
##매핑
##국어
경찰청
한미
##발매
지켜보
북서
##아군
##고시
합산
constructor
AQ
신학교
pro
particularly
##SILK
이뤄진
지면
##Sets
딥
##합
모의
펼쳐
영화배우
삼림
무성
##촌의
성령
365
조세
그만큼
적외선
애칭
##令
##모니터
preferences
재발
Appendix
substitution
미친
thesame
지선
바꾼
1893
얀
빌라
성실
administer
##Collect
금요일
표현식
재질
복합체
자란다
##노동당
##碑
silent
##죄
선진국
Option
##일제
리믹스
헬리콥터
##사관
갈리아
##port
##단순
여타
해저
##킬
소음
샀
유혹
갚
석탑
대문자
불행
Browse
재활
엮
##managed
MQOO
청색
전락
생존자
습윤
##憲
민속
다스렸
레드삭스
##좌측
##규
##성장
넷
##응의
촉발
비행장
반감
습지
러시아군
##唐
국교
##Correct
해커
##이드
상금
주화
누렸
항쟁
차르
예수회
##66
꾸준
Total
Index
##어항
##82
싸
金
##豊
사운드트랙
지배자
CAST
ahead
내재
##캐
##지부
돌출
찬양
원로
제위
규약
nothing
Power
104
##논의
##∙
CJ
유스
##악
펴
연정
##功臣
Package
DS
졌
합치
협동
잠깐
장학금
수련
이남
##徐
distinct
##config
timer
Make
##ORA
##균형
##레이스
##마사
commonly
선별
Zone
flexible
DN
데드
MQOD
츠
요동
볼리비아
미나미
addressed
##전력
guarantee
##학습
생선
옮긴
발리
후배
곽
##영조
제로
튜닝
uppercase
교육부
다발
반기
항체
붐
절벽
성지
니콜라이
이븐
##智
Configure
##Port
vector
Man
가마
카터
염소
위나라
바쳤
목회
protect
monitors
pointers
프랜차이즈
##1961
오사카부
##伊
slow
Names
##Amazon
##법칙
알렉산드리아
위구르
scan
##회가
fit
deleting
명세
##TEST
교대
돼
원산
카를로
##朝鮮
다카
체조
지방산
순교
increasing
partial
fill
작물
방사능
##다리
선장
잔인
##雲
partitioned
##계산
##Over
인해서
시간대
##뇌
##보도
매달
충주
견디
쾰른
켈트
세습
도마뱀
##임시
노하우
서약
사우디
기저
기숙사
##1975
폭파
##方
숙부
divided
##벤치
접목
##no
manages
높여
에디터
Narrowcast
##function
폭포
##이스
믹스
매사추세츠
겉보기
##Adapter
Party
captured
Statistics
##77
##별의
생겨
코끼리
고쳤
resolves
##키로
시킬
송출
DML
##순서
##추
##기법
##네스
거세
콘테스트
슬픔
복종
쉘
척도
repeat
기한
##경보
Institute
달라
MQIA
절정
##Page
달랐
##見
카툰
구의
##쥐속
allocation
ILink
##부족
##논리
##Go
installations
인지도
##81
내성
기어
후예
##心
구마
##68
##KB
conjunction
##Additional
##글로벌
##광주
##채의
클라크
호모
벤치
동치
deletes
keyboard
오타
##'.
검거
영원히
##었었
동맹국
제퍼슨
크리스티안
Partner
covers
met
##경쟁
##처분
오바마
청산
낫
막판
##향상
계시
Tomcat
IDoc
translation
##널
설화
모리스
빙하
##공기
inquiries
##흥원
##단장
보트
띤
광년
shut
확충
CP
feedback
판별
##1977
시합
마루
파충류
스즈키
스톡홀름
##校
악어
센고쿠
Sample
IV
##사진
바이오
##My
##Builder
들어섰
선제
회귀
자르
##담의
성곽
윤보선
##英
피핀
긴테쓰
##사례
semantics
제작사
겹치
당황
격려
신조
동래
요시
We
미러
CAS
지닌다
레이더
파편
북동
차용
요절
동학
보수당
##廣
##워킹
일관된
Go
durable
##회관
뮤
생겨난
암흑
##士
##康
AT
관문
appliance
더글러스
다윈
##메라
arrive
##공정
Fixed
demand
representative
견고
세팅
##결혼
##염의
춘천
규탄
scheduled
알아내
무작위
세련
도스
KIA
오클랜드
후지와라노
periodically
##툴
포터
PD
흡사
##NEO
평형
웹툰
국보
##메이지
천도
소행성
##분리
온다
Search
놓이
정사
차츰
박헌영
factors
##수산
수위
##한가
김해
지상파
힘썼
태권도
늙
바그너
KHUB
consist
DD
##프리
neither
타임아웃
교양
튀
고양시
##아어
##;/
온화
마사
시중
##정형
두각
피로
##84
빔
##담
돌아다니
렌
##선발
반성
과시
토리노
##와라
플라톤
##혼의
단서
Timeout
따라가
reflect
뛰어넘
##워
##세자
광도
학설
받들
브레
##중종
##책의
##Software
mask
반지
휴
드래곤
겉
밭
계몽
데스
##윙
##개요
②
##콘솔
Records
##인은
펜싱
##key
##Remember
부류
스토어
##했으므로
앞선
박람회
거리의
수교
unchanged
부적절
##박의
Choreographer
##져서
기량
전전
불참
주선
##1967
고든
exclusive
현직
병기
내면
1868
##Changes
##고용
Single
et
##사법
##타스
릴
색이
예선전
혐오
templates
##112
190
SYN
위키
마르쿠스
칼리
도널드
##곡인
##역량
Values
동남
##1966
##면은
코믹
객차
아폴로
미하일
복음서
separately
standby
##74
##MHz
Assistant
유체
화상
아무리
두드러지
철폐
흐른다
대본
##자형
서임
암호문
식별자
skip
봉인
몰두
형벌
만주국
오스
##광년
delay
recommend
부록
청소
쓰레드
upload
##측정
획기
##전적
도로는
인플레이션
##玉
수복
재전송
measurements
intervals
Transactions
스펙
CMP
##이스트
##북부
고분
소외
##라디오
##안의
상가
칭송
##오르
##null
##패키지
벤더
##driven
specifically
상정
requester
후원자
오프
경계선
##궤도
유령
평안북도
##다운로드
##해결
Procedure
넘어서
배운
중량
레일
램프
애정
젤
토성
가나가와현
locks
##use
아닙니다
removing
##서에
me
##코리아
##파리
자리매김
goes
건전
단속
잡혀
RAW
##꽃
북유럽
wolfSSL
재차
마다가스카르
시직경
##BW
수와
AMQ
##IN
suppliers
벗어난
맞춘
##개념
##고속
탈취
구로
##路
코르
##壽
##재정
##공수
##default
액티브
##More
letters
항만
""
작성자
##1965
선동
##풍
##사회주의
relate
필연
##w
nonpersistent
앤더슨
무어
##大學
시코쿠
카메룬
더블클릭
##생물
##println
##털
핑크
칼슘
##順
almost
Dashlet
##Detail
ask
미스터리
##구와
갤러리
##－
프린스턴
##죽
##배우
떠난다
캐서린
지붕돌
returning
heap
수원시
John
하얀
##예방
credit
conventions
##사기
##수상
corresponds
##대화
버린다
##마이크
나름
##全
갈래
1886
##후기
정문
리만
집정관
종군
taking
journal
GC
다이어그램
visibility
생길
##자사
LONG
직통
엔트로피
문예
아벨
밀양
만난다
어뢰
새겨
synchronous
Solution
express
##Double
내린다
소극
덧붙였
interMedia
우즈베키스탄
닉
##라루스
라이너
mind
Topic
반납
상사
킥
##CTR
##런던
##거래소
##둔
더비
빙
화장
종파
대전의
마라톤
장래
userid
어려워
스퀘어
로비
풍
##라가
나트륨
##敬
##YES
유니버설
##느
잔여
고집
우드
하노버
본성
조롱
때려
everything
바디
handlers
department
visualization
##페이
신약
회고
스트라이커
유러피언
단체전
무언가
높였
##컷
유능
##잡지
College
##ImqBoolean
유방
##陵
summarizes
구금
Sterling
XSL
대영
##규명
제명
안티
정화
##1910
중상
##亭
##AS
##종목
수지
디스
위안
급히
일산
휠
북아프리카
파르
Fetch
##Output
두지
composite
거주자
실재
앨리스
진행자
게릴라
##미군
1887
해리스
central
pending
휴대폰
goals
coding
##receiver
동요
신민
쾌속
layers
저해
##산업의
##Parameter
##욕
비자
Music
밝혀진
욕망
항원
##당한다
1881
세이
극작가
미군정
추존
##齋
교도소
WEB
데스크
##"/>
exceed
산물
장애물
표정
1861
폐렴
장로
도청
Pack
peer
발목
Right
핸들
베리
불꽃
맥스
단백
traditional
여러분
관련자
Last
분석기
##Reply
RBA
##CBC
벌여
##예선
우울
로렌스
터지
쿠퍼
##허가
OLAP
중수
모욕
##운동장
##浦
increases
바젤
스카우트
남하
베이시스트
비늘
fault
##Red
difficult
본체
전세
##인물
Main
verb
기해
빨간
극우
##루이스
##재난
##150
##사원
유고
evaluation
슬
##타수
힌두
장원
세비야
##개정
테두리
drives
##대행
Migration
trailing
OTP
국유
끝냈
총기
##복무
돌기
밀러
적분
묻혔
무술
타락
용액
##建
failover
##감시
##였음을
##대용량
충북
##수요
VALUES
외형
abstract
이어질
##광부
##몸
1876
벨트
갈라져
theapplication
fromthe
##TIME
piece
135
##교류
중형
면모
reside
##0000
CORBA
break
revision
정량
감성
감추
사각형
##릴
##버린다
그만
파이터
가이
점거
후쿠시마
막스
왕세자
Tibero
permanent
임베디드
실버
┃
수염
시국
서진
수주
체크인
##Command
엑
##FTP
windows
accepts
침묵
범행
어드벤처
1850
##포르
그래미
준주
대성전
Review
Store
##Step
effects
principal
확고
Can
##구로
##conversion
위력
적군
복식
법정동
아담
우르
새긴
정월
undo
##피해
##예정
##가용성
상반기
##Can
MQLONG
invoking
bring
Copyright
Reports
기세
사방
형법
도리
두꺼운
##기갑
점성술
##沈
##카르
##伯
effort
##test
##타인
##Z
스틸
거쳐서
##레이트
측이
평안남도
제인
준용
가산
##Access
say
클리블랜드
말라
속력
##옆면
가입자
Down
가져가
여건
해안가
##xx
단면
##1947
화합
머리카락
민병대
참의원
위촉
RAC
Configuring
굳
이스탄불
행정동
헬기
투르
파라과이
uniquely
Retry
##하루
##지능
RT
염두
종단
댄
고아
자생
##사범
##빌리
사민
달아나
김옥균
##Control
RAID
Tutorial
헬
강철
방콕
칼뱅
##명과
이면
##분자
골격
간혹
시속
##머의
부름
각성
대성
##宣
##your
Close
brief
민사
Device
로우
야외
배수
##국은
매거진
##정조
기관지
김규식
펠리페
Research
satisfied
Pool
내릴
신속히
해안선
##겸
##91
돌격
효종
요격
##중요
##견
원문
##정리
SI
##Unix
##IF
##object
##제니퍼
107
##해군
민정
##反
치유
랑
##이유
RPG
섞여
여배우
슛
achieved
CURRENT
##Insert
NO
exceeded
width
미미
끄
##롬
아랍에미리트
대지진
관찰사
세군다
Scale
##미스
LP
##톨
##인칭
1891
마르세유
chapters
과반
##청소년
격자
평론
감상
1866
초나라
낭비
possibly
배척
우한
재미
민영화
은혜
소생
RMAN
interested
##고급
presence
##치가
printing
실증
##구가
열릴
특사
피고인
여사
사회당
선제골
Shell
##통지
##그래프
##Interface
종양
포르
아닌가
속편
##春
찐
공민왕
##71
##명세서
Hadoop
자메이카
##학기
심야
##북한
산스크리트
##으
##패턴
MQCLOSE
##니다
##사무
정해져
##그리
배울
진로
##스런
##라고도
시상
대법관
1873
마카오
굴복
SaaS
##형사
통찰력
Deploy
##환자
실명
메세지
콤팩트
살짝
대접
민요
독도
주머니
퇴위
노부
##衛
테무르
메신저
Site
updating
MySQL
declarations
박테리아
##으려면
##호기
##논
##잉
받침
군정
##전시
lowest
스파이
origin
전무
서해안
##度
##야시
books
피드백
##Press
##왼쪽
##블록
그릴
데몬
##69
한도
##Tmax
multicast
##붉
##cc
진한
움직일
주름
알렉스
percent
quick
##Forexample
##service
만이
제품군
Best
withthe
매진
공격자
종로
중산
종업원
dedicated

Worldwide
변모
"(
ADS
##999
실존
사상의
이례
함량
대북
##우지
유키
도자기
Upgrade
Top
##혁
GROUP
##Gets
방화
고딕
원산지
이치
덩어리
심문
##부원군
대내
aliases
initiated
편이
##cn
##네덜란드
쿠웨이트
대한항공
α
유성
세계유산
되돌려
##결의
뒤늦
관절
닉슨
##73
Plugin
##역할
carried
##지향
입금
내포
접해
레온
1865
황폐
실각
노르망디
소피아
Long
##규격
##만일
##형성
고령
네오
정했
외무부
파나마
토끼
우아
흥분
솔로몬
grouped
가중
##긴급
kinds
210
acts
타사
ORB
지우
대동
##파와
브루스
함경남도
##노미야
##Multiple
restriction
##SOAP
catch
유포
##250
##insert
##힐
정치학
관목
##佛
##姜
정확도
##Local
Polling
과연
##완의
##노조
쇠
스캔들
현업
##Important
반려
만날
충당
관심사
팔린
집착
우물
군벌
생모
지옥
##QM
colors
닫힌
스테이션
특집
기차역
스님
Operation
범용
##실제로
다이얼로그
디버깅
도약
retrieval
##67
##87
##1942
조수
메디치
Integrator
##Indicates
재편
CBS
TSF
Installing
SMTP
다듬
##행성
애니
떠날
##岩
장제스
각료
advantages
악성
되게
##농협
##군인
fan
코펜하겐
##미술관
강령
LA
자서전
평안도
##비르
utilities
##유출
자재
##IMS
encoded
##97
하반기
INTEGER
padded
죽임
자행
분수
완만
웨스턴
경전철
후사
##instance
degree
Vitria
comma
EBCDIC
##이동
##컴퓨팅
자릿수
white
산이
전해졌
가루
퍼졌
##노동자
셰익스피어
##송수신
Intel
국제선
프로모션
notation
제이
##지도자
Tagged
장난감
##완
애리조
묘비
카탈루냐
##세손
차후
##회수
시킨다
##시나리오
##Configuration
##정확
##Network
##특수
릭
##가운데
주창
##아트
##延
악단
##콜
Machines
absolute
노트북
##보호법
습관
€
고생
##랴
##許
마르코
##Read
공휴일
##java
older
공통점
배달
##콘텐츠
신곡
##광장
장미
바흐
##적료
OST
IDT
family
enclosed
실리
슬라브
서경
천거
suspended
트랜
##수와
##유통
##동생
비싼
##파트
나주
##메리
황색
기쁨
너머
환관
밴쿠버
프린터
MQTT
introduces
##태그
태블릿
적발
거칠
소자
##키스
몬스터
셰
프란치스코
initially
바이너리
간소
모코
imply
capable
benefit
미드
보너스
발동
##룽
레이싱
사간원
reduced
##젼
MCI
marketing
##78
Failed
유휴
##지나
경쟁자
콜롬비
리조트
모스크
사카이
싸워
백악기
대사헌
##로그인
##TO
조의
searches
##96
WAN
##노트
##베트남
화약
##엉
##만화
피라미드
공리
전학
연기자
##노르
세르
프란체스코
##순환
##본인
Parameters
##분해
지탱
딜런
##팝업
necessarily
안개
TX
이뤄
##인천
성남시
사리
서사시
금나라
Bridge
Tour
280
progrm
##정원
결핍
헤비
프랜시스
##디오
caching
줌
recipient
##파운드
극찬
소말리아
그레이트
##通
신한은행
##교환
##MQCHAR
##클러스터
middle
##트림
낙동강
1863
clauses
consistency
intermediate
##숲
펜실베이니아
로스쿨
몬테네그로
우에스기
tuning
##일련
discuss
modification
contract
판명
신형
##홍
다가오
지인
1878
브뤼셀
1864
##라트
개체군
생리학
오크
##学
MQCD
##define
어려울
인과
로얄
필두
##허
동물원
성단
만점
highly
##잘
##좌
앙
상급
강행
마르틴
왜성
##황후
##계약서
신종
숨겨진
##컨
가로질러
간직
갈라지
##代
켈리
참사
이데올로기
##〉()
##삼국사기
affects
historical
갯
##구매
VMware
Send
DDL
¯
마셜
보르
윌
보성
격투
송환
123
프리미엄
##난의
펌프
풍습
##1959
친일인명사전
1872
가토
##一
베풀
##이미
##점포
극한
철강
부사
##1958
국호
장녀
에우
CALL
109
##다스
일각
맡겼
유생
##아인
thedatabase
##SOA
##계수
구독
일당
None
독서
톈진
연달
des
##楊
forth
##변
##LDAP
diagrams
변질
설명서
##nes
잡히
몰려
혀
코소보
전격
우울증
히데
SERVER
##집중
Note
##자문
조심
price
아크
말단
객원
포식자
sync
##투입
구내
lifecycle
##관광
Association
받아들일
##Metricof
전반기
##파가
판소리
radio
week
가까워
배지
##경제학
알라
간첩
모차르트
러일
customization
Subversion
강력히
편향
##명종
하나다
QSGDISP
##연기
Stored
결여
인위
##발전소
네티즌
##트릭
근거지
극장판
쇼트
접전
dropped
##현실
면담
ORACLE
고래
사용법
처한
##유로
대에
추력
항로
##花
도망치
##왕국
##통신부
정관
reach
##class
displaying
애초
##느라
워커
##옥
##여행
재단법인
치러졌
##錄
storing
##오른쪽
멀티미디어
opportunity
##character
meaningful
##79
필립스
사이먼
##SYSTEM
DATE
##home
##true
replacement
##치를
##구체
이나
##일체
개인용
모노
던졌
공명
서남
라이더
효고현
초콜릿
coordinated
Lab
choosing
##method
##IEC
CSS
TDS
편안
##폴란드
##이라고
낡
##대원
수로
##문학상
##이치현
분단
administered
##제안서
inquire
##냐고
서정
기니
슬하
사마
배역
reliability
##미리
repeated
invocations
validated
covered
##각종
great
##then
종자
근래
von
커졌
##下
1830
로이
도망쳤
Authority
clean
이바지
DOM
뉴저지
##1918
##공작
밀가루
identifying
cr
##FLAG
##특성
##select
농산물
CHAR
복호
##기도
태우
로맨스
섹스
##1936
##傳
유서
학장
internally
##GET
양은
##확보
열쇠
maintains
cm
w
##非
##발사
볼티모어
checkpoint
##MS
인적
##이미지
유상
Ethernet
##해질
끝내기
선명
##보유
대차
왕궁
굴절
아빠
왕정
##컴포넌트
##증가
play
##기치
이용객
무사히
축성
뉴캐슬
루크
prevents
최선
respect
TMAX
##요청서
##Required
satisfy
미친다
거꾸로
제왕
마차
타구
suite
응급
##Thread
113
수차례
영위
##과목
##83
스텝
포화
족보
남베트남
워터
##현행
##브라우저
By
올해
compliance
하류
파이프
##키는
열악
탄약
시멘트
킬
평지
자비
##老
마누엘
연꽃
balancing
##RFC
간결
##연도
121
##맵
prefixed
past
용의자
오하
가의
우상
남서
그레이
복선
플로리다주
부다페스트
볼로냐
accesses
explain
웨
구비
닭
자립
나간
튼튼
##분경
##소년
재팬
절망
럭비
##도마뱀붙이
TRANSFER
##수량
##개시
##다중
stopping
implied
six
나노
저지른
116
Collection
##출신
##까
관청
이겨
##右
##한글
깨지
dependencies
Year
##취
conversation
불신
대담
섬기
분류군
앞둔
##얀
천연기념물
##制
requesting
진척
과다
##client
stub
취합
##합계
ex
직계
아부
사바
홈즈
##Migrating
coupling
STRING
##경기도
유족
##│
##서부
뛰어났
곤
##志
로마자
무솔리니
열거
##정규
Automatic
EAR
man
SDO
##라이
자진
낭만주의
##思
울프
계주
과잉
fetch
##%(
##메인
XPath
escape
Android
과테말라
악명
레인
친족
증오
부총리
최성기
나미
웨인
exceeds
##see
255
##텔레콤
해준다
겐지
##勝
직행
##신한
##Modify
±
완결
논하
##1900
그나마
자처
##1943
서리
깃털
포탄
동문
##야마
##객체
##AP
##전원
choices
Lotus
PS
logically
closing
이용이
부실
이동한
대부
주일
##폴리
게리
야쿠르트
핵융합
재일
왕과
##物
English
init
화기
dimension
##청사
경위
언어학
##主義
도사
모스
전멸
프로토타입
combinations
##교통부
느슨
MQCIH
암스테르담
##마치
옹
결핵
##겔
코스타리카
흘리
필명
보루
##Sample
손잡이
SNMP
##get
픽셀
DROP
##펠
빅토르
##1937
바로크
scalability
roll
##Yes
업종
Identity
Navigator
전수
##러스
퍼센트
##렀
1875
공화정
##Socket
설계서
산재
detection
휴대용
##선형
##실패
조문
##컬
##1956
사토
아라
미시시피
파시즘
알래스카
유적지
진사
클레멘스
패해
##Wait
##Version
##JDBC
팜
##글자
피처
강변
조공
##根
##성종
appendix
완료시
##소비
##HP
Advantage
중첩
인공위성
조지프
반주
##커스
Role
위조
##향
로빈
##순의
연회
##在
##국당
그랜트
##達
한큐
optimize
DCE
##Failed
승낙
AM
thing
##dev
굿
페어
넘겼
구획
파직
우의정
##스퀘어
수인
##중단
##근무
filtering
teams
교통사고
올라오
패권
##아파트
서포터
가라앉
경작
브르타뉴
##호출
개월
패러다임
##朝
가톨릭교
##케라
early
asked
##110
GPS
##앱
##long
선율
오노
브루클린
아틀레틱
책정
##Support
Operations
##성적
퍼스트
리모
고온
총통
기사단
수녀
공방전
넓히
##table
##특별자치시
NLS
댓글
Completion
달력
매직
미시
##드로
자외선
여학생
명성황후
반죽
국력
##佐
탐험가
mounted
assets
MQDISC
##지표
Groups
##94
##촬영
And
##혜의
참패
가와사키
끝난다
Computer
득
##rd
##출처
05
rejected
Listener
Terminal
##미치
Safe
가리켜
마하
##해준다
삽화
히브
##1957
후진
징집
##學校
##朱
converting
위생
자정
##관심
풀이
Types
programmer
파도
##지법
실은
착취
##應
simultaneously
##Exception
msg
260
익스
##COBOL
preference
activated
탄력
117
권역
시리
##콤
총무
##전산
Book
##시경
Initial
초상
##장교
##錫
한문
1862
좌의정
요충지
홈경기
##바둑
안전성
##List
노후
상환
di
«
##계통
뭐
##라면서
랭크
오락
미네소타
영유권
##이자
리프트
##동부
회보
태아
##튼
복직
별세
##1938
스칸디나비아
##실시
삭감
Tasks
##Expand
아카이브
마켓
중소
##으면서도
##을수록
러
쇠고기
조이
채색
브로드웨이
반점
레인저스
ratio
purchase
다름
commitment
크로
라벨
주임
MAC
증폭
발포
1869
영장
##효
서해
##시리아
낙양
도카이도
230
보조금
##안보
Metric
개정안
텔레
optimizer
##랭
##1953
복역
한성
##郞
##분열
sheet
##베드
세미나
vs
##울
After
승용차
종사자
##옥의
색의
양대
##마시
걸작
##1933
집행유예
보리
시바
시종
##이상의
330
Handler
##Look
들리
##심리학
추리
몹시
대나무
##민간
환율
restarts
pack
##중화
절의
Apple
##Class
양육
몰랐
시외버스
엄
평의회
기원후
요시다
거성
##왈
곡인
##Master
reliable
aggregate
##UPDATE
activate
secret
lowercase
##Processing
##투자자
분사
##바다
다이
##고리
편집장
무명
##데르
월터
교도
herein
##Field
fragment
폐기물
교육자
##eai
취향
##지지
문단
셸
멘
GO
단정
증세
준장
타이어
일부러
원한
그리스인
육군사관학교
라우터
512
visual
unauthorized
원유
농지
##수다
##나스
성원
나비
메소포타미아
##쇼와
헤이
##眞
짐바브웨
copying
accuracy
Location
publishing
민첩
deferred
wire
##습의
signals
도박
##통부
가정용
죄수
하프
컴필레이션
archived
단가
##화재
##봇
edition
##하드
convention
실사
이양
방송인
재앙
퍼즐
유니버스
허드슨
가르
잔해
미셸
약혼
##선정
swap
Solutions
아우르
collaboration
VoIP
수백만
##가량
Night
##1955
병과
##세이브
더블린
올릴
##탭
documented
##동사
##org
제물
고찰
출입문
문화유산
의례
arrives
##Servers
AG
##-[
규율
입히
쿨
##진이
##멜
와이번스
##세부
correspond
오스틴
명과
##세로
IMF
##LOB
##사지
보수주의
성매매
조승우
GIS
운임
##II
팀원
##탈의
Media
##스타일
CorrelId
가명
제동
되풀이
투하
울리
개헌
##臣
월트
앤드루
대리석
호에
가져야
grouping
ARM
Express
##반사
정황
경매
##몽
숙소
##에겐
쿼크
샬
##노프
##수리
변조
처방
##STATUS
##대중
만인
티저
##렐
톰슨
니콜라
##펠트
서위
인산
##玄
군세
##원정
##법령
jar
##플라이
##Program
modifying
계측
##FC
##락의
##way
audio
##날인
##가요
베스트셀러
모로
카리브
몸돌
##국회
수작업
##Display
##활성
경량
giving
통신사
eight
pools
##용어
마이애미
##PL
dossier
270
Inquire
##육군
##폭력
뤼
##비록
라우
햇빛
##1952
##구속
트라이
타도
제리
푸에르토리코
##副
initiate
commits
computing
##Review
Schedule
책임지
임하
여수
돌아갈
쿡
물결
##Ð
눈치
1867
기이
##1932
##1954
총격
왜구
##복호화
##source
Build
dates
combine
al
##표현
사소
서초구
아끼
빅뱅
##어주
토마토
##La
개기
##内
일설
긴키
이주민
##일괄
##전용
inconsistent
optimization
기울이
보직
NC
김포
진흙
가브리엘
행해졌
왕관
##헨
주니치
거북
프린스
##베리아
released
downloaded
각색
별장
##무늬
온건
사이타마현
##夫人
involve
##Repeat
##랍
##one
anywhere
KPI
FDC
recognize
##회선
essential
##필수
분담
출퇴근
크리
늘려
Brand
남용
교통국
접종
구니
각본가
##조달
##따라
##대리
힙
##Key
##ALTER
왓슨
##COPY
regions
명소
이즈
##륙
휩쓸
동진
주심
닐
동맹군
##분산
##지난
매번
##가정
소중
##방위
차가운
##나마
지나친
##버러
##집권
김정일
##모스
장로교
요하
##숫자
MD
COPY
##사태
능가
INDEX
세그먼트
믹
즈
##마는
재미있
β
루스벨트
허블
##京
explained
##error
친환경
침대
복위
순식간
우지
유골
괌
가두
사귀
복음주의
비단털쥐
Area
participate
Biz
학력
##언론
##탐
##휘
넬슨
1877
##流
부르주아
탑신
##아키텍처
##임금
##DNS
##텐트
Sign
random
막강
외상
실렸
신문사
용암
함경북도
펼쳐져
김정은
##庵
##Issue
bad
##모두
##메시
작년
스피커
delivers
1024
발산
유수
두드러진
주부
##덕의
하키
사쓰마
entirely
##제출
Google
Choose
슬로건
CM
##89
##나주
흑백
파란
행보
##총장
##무스
소울
팔꿈치
웨스트민스터
트라야누스
간사이
##NULL
묶여
authenticated
어촌
QoS
##시트
씻
취직
열강
해부학
납작
참의
필사
에디
andthe
FEP
##파티
백악관
익스플로러
열세
Club
Park
간선
착각
##다면서
법관
튀르크
싸울
축구팀
물려주
미흡
내세워
tx
취해
로열
염색
파면
##郎
육식
##여래
토트넘
달라질
법규
정할
강해
##Possible
red
여럿
생도
1874
여운형
감리교
##페오
comprehensive
interpret
##93
precedence
SP
##Last
##회로
성행
##파이
VAS
부제
##무장
복속
##治
올드
순양함
##관이
reverse
창구
preferred
cancel
펼친
변종
##엽
교제
##인승
스탠리
카이로
reduces
##제주
##분쟁
##Node
##편집
여주
정성
##하이
한창
교의
등단
합창
##시행
##Apply
##동작
가이드라인
ftp
schemas
Vantage
배의
##세조
UTC
손실률
견
묻혀
1879
##back
law
보임
Label
징후
##켈
외면
놓치
게임기
부의장
교인
탈레반
##node
recoverable
ever
##닐
Science
##강과
AN
헌장
증조부
카스
데이브
##기원
삼층석탑
browsers
감축
Internal
loads
조율
다크
튀니지
포르투갈어
채굴
우림
1840
위패
정부군
후쿠오카현
##running
조례
리본
SPSS
왕성
##commit
교실
프라이
도발
문화방송
##熙
멜버른
##월간
expiry
##부처
troubleshooting
경합
##원리
가닥
750
드레스
발전기
용산
반항
조각상
맹활약
demonstrate
More
예의
convenient
viewed
##Don
교과
##사로
버린
춘추
어시스트
햄
##중세
만년
버마
나카무라
할양
아테
조니
##MAX
Failure
##전문가
##Input
##Group
유가
의복
직속
##필터
광자
threaded
토론토
안산
##축제
활동가
##烈
재회
##청시
DLL
##open
AMI
##ins
operates
550
##협약
생화학
스탠드
감당
##화폐
고산
수력
품은
헤라클레스
##彦
변광성
##榮
##오염
신뢰도
통신망
Additional
정신과
횡
판매가
리튬
##국을
##多
흔들
반대파
경건
후세인
##Manager
Industry
엔지니어링
##new
factor
IDE
Maximum
렌더링
나쁘
터보
##백의
당선자
##경주
헤르만
라이프치히
소동
##보살
Tier
공제
Builder
##지속
scalar
320
WAP
Usher
상행
정령
원자핵
평했
##왜성
모세
##카스
아나키스트
cached
익명
##』,
과반수
electronic
메카
결말
##보스
로타르
팔작지붕
round
이윤
농협
##농
registers
submitted
##합병
직물
Outline
##양성
떨어진다
##리오
음악원
반정부
유학자
restored
deletion
##공과
##㈜
약정
bythe
탈피
##음반
하의
모터스
로빈슨
수수께끼
헌납
##반출
구애
궤
##호대
theory
늪
##불의
##태양
슬램
아이즈
##재료
##드가
토목
constructs
치과
##output
##블랙
위축
중앙은행
침범
번은
기운
애인
길드
회유
썼으며
사쿠라
시달렸
Lock
대통령령
손꼽히
With
개개인
Folder
Boolean
##-)
끼친
07
쓰일
피셔
경영학
역도
##鍾
애덤스
산요
무로마치
컵스
remember
##}/
##신호
03
컨퍼런스
흔들리
운전자
상반
계승자
##기통
##중간
RTSP
Raw
##해외
##Or
전자기
초록색
데카르트
피닉스
로부터
복잡도
##memory
적시
MQInput
카탈로그
범죄자
Wire
야망
지성
##봉의
유진
랜드
돌렸
##1935
북극
고노
엘런
tablespaces
presents
##복사
요즘
##인프라
레이어
루틴
크롬
h
##기억
MsgId
안팎
딱
온타리오
회고록
토기
##橋
앤디
##낮
offering
portal
ARIA
##투명
잠재력
##국과
연행
잠입
헤이안
여성주의
서사
##賢
베네딕토
TIME
independently
Direct
Planning
##변동
##틸
##바이더
targets
##비스
##천시
Forms
리프
subordinate
대교
방사
##현종
##전대
가군
일본식
부왕
금환
##cations
##WARNING
자질
머물러
화장품
##화가
도둑
성화
톱니
동국
아치
음절
고속버스
패망
우두머리
##노바
토착종
##밭
흐루쇼프
신도비
##개방
##요구사항
##003
##왜
일주일
영리
뉴런
겸직
##고문
신세
##렛
##미르
평창
1859
격하
도교
조셉
갈리
출격
Shared
kill
listen
Scenario
subflow
May
간판
트로이
식용
농축
증식
현판
##곤의
##女
아우구스투스
올림피아
Binary
legal
positions
192
##윤리
URLs
피츠버그
무척
추운
하급
오일
녹색당
폐허
유아기
##1924
로베르
해트
##path
improved
리버
갑작스럽
##폭발
저질렀
야심
##젤
##혜
지바현
##Common
##당사자
##마비
Over
##Host
guidance
live
tracking
news
closes
q
해태
twice
친밀
##상국
주나라
##鳳
받치
##확정
##저작
##익
불릴
진수
세이브
가졌으며
뽑혔
공안
잃어버린
추억
페르디난트
사상가
##어군
캉
##상서
##변호사
overrides
##태풍
가뭄
failing
택하
IOC
파나
##평론가
종착역
##거부
구한
##제목
UML
gain
AD
##dir
컨소시엄
##약서
MQDLH
nofetch
부양
##녕
비어
발라
밝혀져
인산화
목판
카르타고
viewing
##Back
concurrently
zip
금강
offered
merge
fewer
broken
MQFMT
##DEFAULT
matched
##지에
정박
중용
불경
귀신
연희
바인딩
##Are
##Adding
##Our
Take
vCenter
MQAI
플러스
##도스
신정
##공립
관우
탄자니아
##성서
장자
발가락
##제시
③
intend
Facility
branches
possibility
유전체
Tab
합성어
다국적
캠
아군
##線
촛불
##1923
아편
##이브스
장쑤
Actions
usual
carry
122
##±
간호
항공편
다항식
구약
몰도바
비옥
농성
남방
이주해
##태종
##촉진
Logic
##Internet
##adapter
메이커
DSN
Automation
직렬
##text
네임
##인들
오만
우라
wrapper
윈
Big
##관은
listening
##기회
일리노이주
Components
compound
바뀐다
##머신
Environments
조장
##月
위헌
##1931
정국
제작진
남매
##우라
테리
##如來
York
연중
##성인
피우
순항
골짜기
줄곧
트림
출국
##바위
##峰
practices
분실
##Take
여정
호스팅
green
용해
EC
cumulative
희미
der
##내각
비싸
구와
TBS
불러일으켰
##권력
풀려났
친위대
애국
새겼
관현악
##SEQ
이해관계
##공시
고층
열의
지문
##수록
형의
저작물
MQSET
언론사
##청주
접미사
##同
##라이프
앞뒤
단거리
왕래
증손
##御
##昭
##코파
##새의
대좌
쇼핑몰
hidden
평균값
이진
MAX
나간다
들이
강세
조형
요지
썩
압록강
##이듬해
도르트문트
locking
##상용
##false
##만족
MQQueueManager
subdirectory
oracle
혼잡
6000
경영자
요양
##구스
히어로
##1921
##保
절친
입법부
패럴림픽
plans
Handling
Extended
half
MQQueue
와일드
1700
패트릭
호투
canbe
할지
##WS
빼내
ETL
##119
퇴사
Free
##NOTE
출판물
파커
##춘
장난
kt
아이스
##해냈
##1917
국철
콘스탄티노폴리스
만화가
북군
친선경기
전라도
hint
##update
##process
Team
##all
PostScript
thecommand
판례
군산
찾아오
##섬유
##HTML
Forum
교훈
도어
##온도
##혐의
가드
자취
##밀
도요
사이토
사슴
반동
##현감
##靈
##유닛
역동
Image
방문객
Verify
체내
Plan
Tables
##CASSCM
안경
친한
게오르크
신석기
calculate
IIS
##EA
Prepare
##ea
##sensitive
expired
RMI
Mail
AAA
온난
창립자
료
근사
은폐
반대편
치료법
모건
묵
##이베이
##리터
니콜라스
##池
##仲
씨족
왕건
포탑
쥐과
##업계
limitations
공연장
manipulation
authorizations
문맥
시연
엄청나
치하
##1914
Validation
##Perform
args
침식
독주
일차
가르쳐
내려와
볼트
양파
요직
시원
편제
놓였
##탕
한민
꽃잎
##훗날
유라시아
픽처스
가져와
##공고
legacy
clustering
outstanding
완성도
항생제
배리
PCI
목요일
입상
##놀
출품
##어파
데뷔작
##쿠니
##靑
도하
CONCACAF
달린다
태수
minute
##테크
health
middleware
community
translated
convenience
차질
Raid
##that
uncommitted
▲
손님
발판
평탄
걸린다
기념일
몸체
##랑의
바닷물
OB
하얀색
버티
##평의회
미학
지난날
류큐
무과
역사학
강구
##위탁
##고전
Define
MQSUB
전액
answers
dependency
처럼
##예비
만기
##발행
십자
사지
##지가
##명사
뱅크
부화
첼로
gr
와세다
##萬
독살
봉해
recommends
목적물
exposed
standalone
##아르
펀드
##남성
합금
릴레이
##남자
구타
내야수
깃
로키
창시
##적한
조나라
##이외
##KTF
hosted
belonging
##물론
cable
programmers
650
램
유화
##렌의
유기체
떠올랐
##옛
지질학
갇혀
연주회
##體
맥아더
##’()
실점
##俊
applying
KEY
Alert
##Installation
##`
importing
typed
populated
assignment
##database
Bytes
##새로
##렉
poll
생생
카피
피의자
##Indicatesthe
거룩
신주쿠
선양
##"&
원군
Deferred
##징수
succeeds
identification
operand
괄호
##루이
가해자
캔
증발
##시아
프랑코
##쥐과
designing
Designer
##j
적체
1414
랙
Notes
RRS
NH
Resources
DECLARE
##임무
MAP
前
세밀
강당
시비
웨이
헬싱
##편이
농경
서주
가비
##院君
queued
simplify
커스텀
##CONTEXT
##Advanced
black
증강
##지명
##다니
##으러
##韓國
켄트
대승불교
발톱
웃음
inserts
비지니스
매월
중개
대명사
한꺼번에
Acrobat
쳐서
장병
수열
급성
칸국
연예계
공의
함경도
선봉
아라곤
에스페란토
소아시아
광복군
승단
potentially
도난
dashboards
##Work
accurate
##with
경지
개로
##조항
##로봇
##피스
대표단
발기인
오토바이
##1925
비스마르크
페르난도
사생활
##공인
경감
KTF
Good
vertical
Hot
Clusters
warnings
Login
##육의
evaluates
##Used
noted
##럼
괜찮
자명
계보
만장일치
상고
열렬
기뻐
호소카와
아리
##FAILED
가령
##위하
##Attribute
생리
MQMessage
Society
##對
##章
사라져
민심
난이
##1928
중원
짐승
##cd
##이터
##교체
preserved
가결
지킬
공석
##div
##팝
초의
감마
미나모토노
대관식
침수
relation
TR
율
매도
Template
descriptors
겹쳐
리얼
능숙
##공동체
기전
중합
##1951
##像
모함
##1907
하인
Wii
준하
##활
JRE
유니코드
REFRESH
DBCS
scheme
익히
isn
##유리
결의안
과격
화학자
만류
##星
마스코트
서아프리카
retain
##유사
##제거
pieces
conform
Root
##밸
플랜
부스
단결
대류
여긴
반포
##惠
##Global
##어인
##뢰
patents
cipher
아산
June
loan
##에다가
무고
강했
협곡
지배했
참전하
보컬리스트
##師
후지와라
Invalid
tabs
uninstallation
near
Other
##Following
##US
##도메인
##color
승률
타르
평택
사치
온두라스
람
필사본
상어
모반
따라야
FISS
proprietary
스코어
대여
##Put
쌓여
##Like
따지
##애니메이션
엄밀
고등학생
이윽고
assist
##맥
##Edit
##그래서
한데
OSI
겨냥
해치
##場
꽂
##끼
여의
##소수자
재벌
##이야기
라스
맹
억울
패자
##歌
앞바다
안토니우스
징병
법조인
교황령
메츠
recently
##읍니다
##당국
incident
Digital
##워치
내란
board
고인돌
소박
##夏
##嘉
왕인
modi
##쿼리
##number
conditional
len
compilation
##설립
##130
MESSAGE
eXtreme
전구
꿈꾸
버지니아주
투신
내분
##토시
승상
head
무결
##기초
Diagram
##플랫폼
화살표
수수
175
##반복
assigns
##Free
양심
서점
파이어
넷플릭스
위시
동남아
##니까
염
서한
선구
리즈
핵분열
난징
외척
메트로폴리탄
결장
##cient
##송한
attach
discard
##프레
Street
카운트
##Deployment
카카오
정규식
원상
##나갈
내세웠
모피
군림
##쌀
사서
끌려가
##냥
moreinformation
##Options
Confidential
노란
##시내
모빌
항문
모국어
##제임스
율리우스
손녀
임정
셀주크
카프
코뮌
아키텐
##>)
balance
동종
##but
moves
표절
위도
판매고
##소녀
송도
가독
##참모
##1922
특전
##車
오르간
partitioning
환산
STOP
##하드웨어
##지연
WebSphereMQ
youcan
USS
취한다
구슬
##conf
##대상자
독립성
두뇌
반론
8000
##고기
무겁
##능이
쯤
도미니카
서산
##노동조합
에른스트
향신료
호크스
##결
Enable
##st
##컴
레지스터
성기
콜럼버스
사랑과
##인산
전해져
미토
ensuring
##GS
Adapters
보입니다
filled
실효
국제법
통폐합
날려
시니어
딱딱
여진족
대원군
반감기
##스케이팅
종영
##Determine
Usage
수퍼
114
브리
청각
조연
전대
미합중국
떨쳤
##植
Decision
##자가
##노인
완벽히
router
Bank
변한다
애착
중생
연산군
붕어
요괴
##비와
##stop
ordering
성실히
Welcome
##tier
영동
죽일
##출판
에스컬레이터
혼다
조선공산당
황소
그린란드
##奉
acceptable
##Remote
##폐기
충청
MOM
##라이브
##규제
SID
##Report
##통화
Distributed
국산
##흥
다녀왔
재판부
유클리드
해병
##說
##遠
introduction
structured
Black
approaches
##><
existence
위배
##Tip
fonts
기조
관용
가세
Classic
##1934
복소수
정려
시마즈
항우
06
awk
finds
굳이
Category
카운터
BAPI
후면
GT
##로로
덮개
##렘
끔찍
북측
##공황
루카
##텍스트
growth
CONNAME
expanded
118
##차장
스킬
신입
경도
CIA
줬
##수석
매킨토시
신시내티
푸틴
##號
남원
##셴
맞대결
정해졌
leverage
Summary
약어
conflict
Instances
146
하이퍼
식의
QMgrName
엽
스팸
비스타
계의
기업가
##레이시
당장
##시위
논평
혼합물
경복궁
##類
물러난
유충
아놀드
사절단
카디널스
primarily
세울
##Starting
Specification
##개편
##토지
찾아와
특기
세웠으며
##밍
작품상
가방
##1926
하행
의논
불가리
실태
부의
##002
##Real
일과
급속도
Sybase
적힌
##례
##內
##ISO
##He
##DOS
##모임
##카타
후세
유년
성품
시몬
명상
오나라
adjust
##자율
paragraph
##카메라
올라온
배타
##랩
claim
##Deploy
##Valid
algorithms
##Online
객실
165
BSD
주저
##투어
##식이
남동
온전
일렉트릭
매사추세츠주
##북쪽
로큰롤
##Of
shipped
whereas
JMX
메가
표창
Correct
alignment
낙
악당
사수
펠릭스
##齊
축일
라이베리아
##臺
preserve
신상
##Attributes
고품
스윙
##1905
결사
수나라
세네갈
sequences
##수동
공상
FTE
blue
양극
균일
즐거움
대제
베일
체육관
야마모토
##귀족
우간다
##"》
##High
##학문
Utility
##as
##플러스
##상담
Kit
caches
기울였
##℃
형편
##任
대타
##愛
헤르
##藏
로맨틱
토미
##菩薩
maintaining
##형상
수질
WPS
##꿈
EBS
directive
##면역
quote
부인의
입혔
##작과
잉크
##너스
회견
위안부
##Import
모체
XSLT
트렌드
##감정
##skeleton
##산맥
태어날
즐겼
피치
추장
문학상
가르시아
야마가타
처칠
##신앙
##Loader
안심
RPM
##Restart
Formats
TTA
rendered
corner
Siebel
동일시
##구단
##하늘
##泉
##恭
후계
박영효
유정
진출권
authorities
significantly
qualifier
안건
ESX
##판결
##지상
##팟
퇴출
현도
추서
독립군
##八
소론
프리킥
##향교
implies
Panel
linear
##수급인
##주사
##러시
도산
##"-
탁
정당인
##起
요리토모
알폰소
친숙
##사후
교재
##over
ASM
ent
Simple
##戦
##대륙
##어린
재결합
##語
##타르
복부
##第
제창
관현악단
프란시스코
헤겔
##尙書
measurement
##Sales
claims
Transmission
##분배
##마음
음의
위계
자판
##폭탄
정경
사주
##포고
Clustering
통역
킨
노골
외계인
쌍성
뉘른베르크
현악
예언자
산티아고
삼진
##매출
##Consult
improvements
대등
단수
parentheses
결렬
##제기
##신부
선보인
시그
구전
리우데자네이루
##중량
케이크
사역
##蘇
모신
칭기즈
incomplete
재화
offline
backend
##오니
경영진
Optional
휴일
디테일
보행자
함부로
스칼라
##차관
샤프
칭했
고갈
##1908
올리버
거병
##아목
코트디부아르
명기
##발주자
Commerce
networking
확약
RETURN
##SS
##보안법
##롤링
즈음에
##寶
소관
##Memory
##상금
##전공
비고
notify
계량
cryptographic
IAM
##원단
목표물
##세이
파스칼
유머
갑각류
##甲
도면
##='
ending
hour
뷰어
Are
지평
BPC
글러브
진심
##간다
##참의
석회암
시트콤
지리학
##우승
히데요
날아가
##卿
승정원
제갈량
inter
counter
시동
incorrectly
BIP
immediate
왔으나
##Dynamic
클리어
지남
마당
##단원
키워
이륙
##선거법
##역이
사하라
심리학자
꾸몄
베네치
모나코
##유부
##젝
##경력
실습
Switch
remainder
균등
talk
##clicking
guaranteed
Registry
##주문
slightly
다닐
NIS
REF
##촉
베스
석권
##현과
인플루엔자
성폭행
우연
남아시아
##나자
##겨울
진언
오하이오주
다이빙
삼각주
##광해군
##ow
##기술자
dual
notifications
##성명
dealing
Telemetry
##콩
변혁
diagnose
그라운드
##主
KTX
춘계
댈러스
##공산
미야자키
동남쪽
쓰촨
##란트
##히라
##Does
##SEND
조건부
##Just
##오프
지극히
모던
##장인
입술
콘라트
##기념
유니언
배향
수협
데이트
##하도급
디렉터
VLAN
벡
clustered
MSTR
##마트
continuous
VLDB
##기스
선제후
자동변속기
serial
Experience
Series
##멀티
packaged
##EMP
push
pressing
modifications
expiration
사업비
indexed
여의도
프록시
##연극
된다면
##tab
##고교
조선소
##오사카
어둡
최진실
일러스트
탔
##진상
equir
에세이
바그다드
reducing
##gure
##그래픽
away
prerequisites
Microsystems
Rights
READ
##유도
##이집트
몰타
리어
공판
바지
헌병
온타리오주
##페리
CONNECT
bulk
streams
부득이
##복제
총액
검정
##대량
##여의
이질
MQXR
번개
만연
맷
천하
순종
여객기
원만
##http
confirmation
someone
anonymous
Entry
##재분류
격화
접두사
전권
전미
##날짜
체감
하중
##보상
separator
Viewer
unsigned
바비
밸브
Finder
##MBC
돌아올
##여름
##湖
후회
##1927
서거
북대서양
##동맥
##총독
환승역
##書院
##Part
미수
현저히
Launchpad
TSO
일선
consisting
##National
Changed
용맹
쉴
막지
조용히
##봉사
엘리
산시
남군
##皇
##LOG
##산정
expansion
SHA
##
Government
concerned
##수입
용산구
균
함양
트레
백과사전
NBC
낚시
무능
기미
##악기
##久
에밀
optimized
attention
##확대
##대출
edited
##포털
##msg
누른다
마트
macros
한중
원심
문체
고로
변했
치른다
의주
파시스트
후반전
화랑
허목
relatively
Drop
Sets
COMMIT
당기
급수
도형
##퍼티
들어올
청중
동률
맞닿
드러난다
빼앗기
사바나
히스
고을
전속
rely
법과
##～
##Character
번이
##그린
##청약
##압축
공법
DOS
반향
군청
곱셈
경이
기장
교관
서안
장대
어웨이
수도사
출정
##포켓몬스터
##Furthermore
succeed
whatever
대국민
##»
##Usage
내로
기록관
##테일
meta
SVI
텔
상식
광선
##카를
##판과
변해
후임자
경희대
봉우리
재빨리
펼쳐진
La
날리
야권
퇴진
싸운
##日本
파르티아
로잔
##巖
ordered
incremental
##체가
돌려주
volumes
dir
isolation
와이드
각광
악용
Listing
##ro
색은
##신화
범유행
언더
구강
##式
그대
##尙
NGC
빌바오
Before
적기
불문
##Running
돌아간다
ASP
##Tibero
##질량
##CoA
129
귀가
불의
물리쳤
저널리스트
열망
기압
텐서
리마
선천
드미트리
개신
가이아
족의
##호른
감액
picture
상설
MVS
Ant
126
##부정
##부르
방문자
##Current
##ON
##문명
매기
NATO
모멘트
##대교
##1929
논리학
강화도
미망인
트램
후쿠시마현
causing
CC
redeploy
201
blocked
dif
##STRUC
##글의
##콜라
Way
튜브
Distiller
크루즈
시력
토로
깔
던진
가져갔
버터
선대
##敎
로렌
다카라즈카
콜린스
##when
CODE
부적합
##레터
##password
##예외
American
##BLOB
저축
끌어들이
부조
횡령
균열
##오스트리아
##훈의
조지아주
캐리
Block
switches
견적
##반영
Parser
##손실
perhaps
##호텔
호전
규합
길거리
##웰
##집회
프롤레타리아
도적
니콜
배반
함장
##가공
##YN
##Normally
Running
Any
블록체인
절대로
숙련
##로우
##진화
△
##리라
그럴
주오
갈릴레오
남조
저격
매복
determining
ef
##국제공항
##상호
outgoing
켜
##local
외교부
가든
섞인
원자가
##'()
배아
Girl
reaches
phone
expressed
daily
plugin
싼
배당
레코딩
지하철역
겨루
처치
야마구치
##타현
흡연
망치
작중
우왕
##坐像
##ERP
eligible
커져
##Replace
shortcut
coordinate
##=<
paste
##environment
195
##단백질
##펙
Central
assembler
제너럴
NAM
압수
워낙
##국인
아프
##투수
##수술
볼록
##서진
동시대
숀
consumption
##Without
##교육청
걸릴
##산출물
매끄러운
##Which
##바탕
thlqual
##++,
##대수
##학사
transformed
Inbound
prints
교란
##날개
우체국
##헌의
커플
##1904
강대국
1855
##농구
DATABASE
세단
##오늘
directed
Quick
##방어
동의어
원에
##부스
designer
Perl
##연구회
##하임
피쳐
주거지
플라이
##사격
1856
브레멘
도도
넥센
야구부
바이마르
펜실베이니아주
엘비스
유다
대장군
##조연상
hit
숙지
behind
##threaded
쟁점
##QUEUE
일간
##비상
##몰
2500
대입
내려갔
ICBM
향기
올라왔
##떼
올라와
다행히
저지르
##쥬
논증
##喜
라파엘
##방침
접점
##CICS
##대체
##Custom
builds
months
constructed
미디
돌아와서
중고
##뮤
황자
##崇
##秦
hPa
플랑드르
부팅
Award
financial
Middleware
##ms
##Find
##농민
480
꾸
프로필
양수
합쳐져
뚜껑
곳도
광합성
마쓰
쫓겨나
생포
calculation
명백히
Logging
disconnected
replaces
minimal
혼용
##【
양면
치료제
꿀
부사장
법제
컷
개척자
불길
목이
출사
잡혔
재판관
알바니
가가
conversions
##OUT
net
Corp
측량
MQMDE
모였
롤플레잉
야드
artwork
건네
##정주
슈투트가르트
황위
내몽골
틈타
플루토늄
##黨
이리
1815
베르사유
스테판
elapsed
CL
##하지만
해수면
##진출
arbitrary
Act
##판단
자격증
www
##테러
XID
##공군
XMLNSC
간호사
참수
멋진
흉내
##로니
차명
충칭
피살
점성
##청년회
##미쓰
개경
simplest
aggregated
당당
##가액
Binding
##양자
3270
첩보
##形
듀
데니스
쿤
북조선
아키라
교파
사커
공황
도망가
슈고
중건
timing
recovered
원가
automation
##대우
##셔야
혼재
copyright
행한
serves
충동
USA
amessage
정맥
##국도
##Robert
모자이크
증축
약해
열역학
전열
악곡
##親
유년기
사악
잉카
글로브상
helpful
##DELETE
TimeOut
##Main
##발견
##install
##Core
visit
serialized
##Net
212
##압
##시킨다는
스케치
미라
아름다움
중공업
##당할
자작
철근
남산
형용사
실린더
실책
1858
##魏
터너
천도교
핑계
영화상
이노우에
제단
리스본
윤휴
populate
requiring
레지스트리
편하
##당신
##>/
미달
과세
containers
송신자
팩토리
##예수
##이루
소의
늘렸
실어
##局
##기하학
요하네스
구스타프
중심핵
##呂
오릭스
lifetime
##통해
pick
Pass
##줘야
걸맞
국내선
Transformation
ADK
##서가
##REC
특별법
##밥
##슈타인
충고
프레드
##蓮
유타
공성전
부르봉
병자호란
##노카
##도리
중공군
##Link
##errors
UCS
##compliant
shorter
##매일
젠
변한
##플레이어
권의
##시드
과자
흐
##皇帝
슈트라우스
페로
코퍼레이션
마천
애슬레틱스
##가입
한눈
##version
시제
남지
단자
유익
자신감
##富
부두
이세
일리노이
출병
비긴
귀책
Smart
specialized
##검수
##Compuware
tpcall
abend
##Creates
타이밍
유전학
##群
데려가
플랑크
이즈미
##뇨
콘스탄티누스
##Complete
##읽
전보
##문자열
##enabled
##Async
##랙
##차단
##Unlike
##General
##송시
해운대
영등포구
후보자
Returns
JCo
절제
제이슨
합병증
##넬
##센티미터
죽여
축복
수레
시문
##宇
##WEB
Descriptor
Patch
충실히
floating
forwarded
Exposed
요법
격상
미카엘
베테랑
##토와
와카
키릴
##본국
##뷔
##컬럼
산술
CTR
enclose
155
고난
향한다
받아들인
##처장
입헌
거사
샌디
청춘
##SIZE
캡슐
##리기
##포탈
##트럭
##물품
contrast
##출동
##RPC
##고개
행해진
CBC
후유증
이랜드
대인
상선
이브
퇴적
바리
1801
정실
조슈
##띠
##노현
##하이드
형주
arise
improvement
pull
##키가
browsing
##ing
비대
Variable
##소유
##）
초석
복사본
sensor
가맹
##가인
집의
프라하
로이드
브란덴부르크
수다
일렉트로닉
영장류
이사벨
사다
처마
관위
첸
supplies
##업로드
용지
Integrity
trading
overridden
##마우스
##놀이
Menu
그레
식스
접합
폼페이우스
뉴잉글랜드
괴
몽고메리
Phase
warranties
폰트
##count
Don
##가시
첫날
##소형
MQCMD
칼라
##노래
동거
##근대
1812
패퇴
칼륨
잔혹
빅터
미야기현
bandwidth
reasonable
Rollback
>>
취
hierarchical
saving
모태
##대형
##로라
##논문
이마
광업
유명세
##쯔
레닌그라드
고지대
금색
##閔
곡식
사탄
바스크
후난
사림
idle
Tracker
##비동기
##계속
10000
##Changing
concerning
HOST
거시
un
##wide
∙
##러닝
dispatcher
##삭스
치밀
송파구
ITSO
##레트
실상
##댐
##맹
월남
포르노
발착
##에르
##天皇
옥사
덴쇼
RQ
##주도
##자재
##BASE
Factory
##개년
배송
##려다
highlighted
농담
##handle
싸이
합쳐서
교차점
도성
##엄
가려
스킴
##오가
지르
중거리
##쵸
AKB
무패
010
거버넌스
facts
national
설계자
401
##굿
won
습도
##공부
De
Structure
##러서는
폴란드인
##베트
광둥성
저그
경멸
##得
##丁
벨라
##총의
##소송법
##②
인건비
##param
fixes
##MQMD
Modeling
enhance
namespaces
##소재
cube
transitions
##캐스트
##멤버
##궤
대도
##라니
##외국어
시찰
##領
억제제
다이쇼
성직
야수
혼혈
고토
##Call
레퍼런스
DRM
##Drag
stated
qm
호적
##동화
나왔으며
##밀리
재물
내게
##충
##베스
오일러
##순조
고추
##1906
1854
크메르
다마스쿠스
##노마
사다하루
##나투
무효화
Tracking
중임
prerequisite
QUEUE
ring
instrumentation
203
##저축
숙박
문건
##HTTPS
7000
##会
시차
불어
MSL
고성
오슬로
마늘
##codice
푸젠
수비대
여포
대전차
모잠비크
##부군
##Examine
##견이
Clients
knows
UUID
아닌지
##믹
deprecated
asynchronously
퇴치
범람
pipe
##Sometimes
##높이
양분
즉흥
탄두
프리츠
건륭제
counts
Primary
##그레이
##SMS
challenges
##5000
임치
Temporary
##body
효용
##차이나
##늑대
데일리
호기심
##멕시코
엿볼
호화
선체
자백
##九
통솔
사병
국가원수
함흥
죄인
격침
##나치오
##initial
tried
##리전
##포럼
##ESQL
fine
retrieving
지에
힘쓰
수요일
간사
향수
니켈
조비
알프레드
사령
친히
안톤
##중지
##침의
Two
##메타
##센트
145
LCD
lib
website
##px
줄기세포
올리브
##그것
Delimited
##홍콩
빠져나가
하강
줄였
미묘
##나리
드러난
돌아간
오아시스
돼지고기
막아내
법전
##詩
장갑차
##윌리엄
쓰촨성
헬레니즘
요금소
##학명
##기본법
##Directory
말소
extracted
participating
leaves
국문
시킨
##구나
로열티
원점
관찰자
1592
앗
1857
붙잡혀
비참
1798
자치주
항아리
YG
Now
prefer
finish
##EJB
185
340
신병
FML
기울
내적
##비서
##딸
정거장
타임즈
주먹
##헤드
##집니다
쌓이
remotely
##존재
##원조
##꼴
Expression
ticket
안겨
##히트
##녹
##印
##將
JTBC
1839
후드
남송
##高麗
트라
왜군
172
##백화점
Multiple
하자
정직
농가
##Several
심근
버진
##택
속보
메모리얼
단과
사라진다
겁
모조리
1849
북아일랜드
후베이
며느리
천국
조봉암
석가모니
##차역
##BE
frequency
래
통영
운동량
##年
당뇨병
float
이뤘
중신
나와서
##선사
아쉽
다람쥐
보좌관
이광수
1820
당한다
서품
이마가와
트로트
##땃쥐
##VMS
APPC
measured
1300
IEEE
바뀔
reusable
Statement
corporate
src
단국
Managing
MIT
##병력
짝수
du
##William
게이밍
천안시
인문학
금강산
##》,《
영적
다윗
유길준
##魯
##UEFA
동탁
Row
테크놀로지
MQCMIT
logo
America
expects
하지
accommodate
##파괴
svn
출항
##관념
모터쇼
Rock
##으론
교명
##가사
천연가스
##觀
이회창
잠수
아테나
##여우
##｣
isnot
echo
처해
underscore
##부품
variation
뮐러
포섭
손목
자막
아르바이트
보리스
사영
낭만
독수리
매디슨
##src
룩
##채권
##샵
치중
132
##라이드
지터
우표
내려온
아이오
자각
중후
도제
##석탑
무너졌
몸집
봉헌
대공국
##스와프
##Documents
relates
##JR
##주름
발열
장차
##병단
사카
##色
막시밀리안
루이지애나
테르
훈족
##태조
기요
##히메
124
##이브
오퍼레이션
##조절
##NIC
tokens
COVID
SunOS
추계
지령
개개
##주석
점토
서스펜션
Cup
개축
폐차
경시
칼빈
blocking
driven
styles
##니즘
화요일
##아이디
##우편
suffix
##Disk
바이어
Elements
debugger
predicate
##은지
밸
하이드
amounts
##패스
걸치
관개
근방
양력
순교자
에드
뉴올리언스
거머쥐
볼넷
댄서
##署
문종
아츠
ping
approximately
Drag
##Tuxedo
매칭
##Why
Department
inherited
##160
수산
Balancing
우월
##STRING
Color
보였으나
##차선
선회
유목
구이
엉덩이
전범
수프
문집
율법
샹
##清
##공룡
Layout
apps
SE
Packages
commercial
unpredictable
reused
replacing
Selection
conn
informational
##츄
랜덤
regression
스크롤
##딜
갑작스런
거품
파푸아뉴기니
경호
르네
북벌
술집
##民
쩐
라울
쫓아내
##광복
연습생
풀백
가면라이더
##표기
##원자력
##ODBC
##SAS
##가이드
거쳐야
삭
cd
신진
##자식
##American
##전과
회차
까
떨
영사
병원체
아나톨리아
기근
##불상
파라오
전사한
베오그라드
위그
Steps
도표
##KT
popular
클라
결실
##가톨릭
인치
하비
트랜싯
##전철
키웠
도네츠크
##남매
요나라
도끼
북극해
니혼
고고학자
개구리
##계산서
물량
재기
max
introduce
##Specifying
boundaries
##Upon
강서구
에코
터빈
원치
##Returned
##일기
인디애나
기부금
가까웠
주기도
나리타
##퍼스
황도
##連
##越
##監
##전설
핵탄두
독재자
아이디얼
도망쳐
루체른
사할린
지팡이
레즈
##국토
사변
트윈
##Properties
scripting
linking
도보
아이언
##폐의
모여서
##세운
##핀란드
왕명
집어넣
다채
아리아
수필
닛산
학술지
치루
평의원
쇼트트랙
##축구단
로버츠
케이트
괴멸
##자나
NET
##보전
##학술
##네트
organized
##다시피
##Selecting
LIST
CGI
퓨
##loc
MQSO
미스터
합창단
커브
잇따라
수은
영정
행군
게이오
##베르타
결투
##1912
##플레이오프
면직
##科
곱하
##Base
##도서
##Task
##인증서
##최소
남긴다
##리크
떨어뜨리
##냐는
##수원
국면
피크
단조
##동지
관성
##요법
나눈다
타이탄
코난
##팡
다비드
서프랑크
원내대표
안드레아
##COM
distinguished
##사이버
144
133
keeps
오른다
##국사
##선전
##타자
##미자
도상
걸프
김일
건너갔
루나
동아프리카
utilization
Archive
##침해
##기종
Grid
도식
##is
131
safe
##물건
여행자
primitives
##티티
segmentation
##수송
##소가
MQCA
##닥터
가치관
국공
가락
##마르
겔
에탄올
##공파
청룡
귀순
스틸러스
##출시
At
ROLLBACK
##host
##work
스텔스
프론트
마르크
옆면
프레스
와해
##廳
쌍대
민물
##山城
연임
업무상
##사정
##domain
##운행
EE
##비교
DEFAULT
trees
Soft
##International
바를
incremented
다릅니다
Classes
##103
##체인
음식점
##105
Ⅱ
ineach
웅장
구가
군복
개화파
##노예
##濟
유식
타일러
왕좌
alerts
engines
individually
originally
##전파
Like
said
##''
강좌
운수
1792
종신
체인지
##입자
담임
데이빗
##시립
바빌론
##인류
능하
천왕
경종
##WHERE
ownership
##져야
단기간
CEI
잡힌
##금속
히타치
##관구
##台
원통
프로그레시브
##Love
##다인
유림
고생물학
1814
##탱
본작
Communications
##체험
``
spatial
세븐
갖가지
중공
##1895
##토르
자책점
시그널
사무국
##NET
##원가
brackets
ObjectName
금리
predictive
##（
국의
##에이
Will
코스닥
착안
강타
전주시
직함
화소
앤서니
##마스
프로방스
##영향
가급적
leads
parties
attack
##보조
superior
신주
위법
widgets
##낭
dateTime
애매
브리지
사우
##위안
기획사
관대
노르드
참된
티무르
표트르
결전
##리트
수도회
##紀
##라흐
앨버트
권익
시작점
obligation
stamp
실물
알려준다
광경
숫
평상시
##즐
##브리지
##이가
Programmatic
자궁
1846
히브리
산문
알칼리
레이건
세라
안티오키아
##淵
##MM
이체
Distribution
Sockets
CRL
##문은
공영
illustration
펼쳐지
급습
부분군
쓰여졌
복싱
귀인
상서
코호몰로지
##ex
대소문자
RFID
줄임
colon
완비
iterator
CodedCharSetId
Patterns
snippet
##개체
차수
룸
사모
##대인
##이스라엘
낙하
이모
서체
맥스웰
##작인
##레닌주의
구단주
페널티
##園
야마다
승지
주포
##규의
생성자
캐쉬
paper
portable
##불가
입회
MODE
parsers
VALUE
넓혀
불려
##넥
LocalEnvironment
##Again
앞부분
CCSIDs
°
속이
루비
##자유주의
##루가
벌레
가까스로
공은
랴오닝
조각가
알렉산데르
도야마
건널목
ps
##올리
퇴
enterprises
orchestration
intelligence
##Migration
제지
##=”
##바로
분개
##약자
여야
##에도
QMG
FBI
군비
종묘
시네마
게놈
1795
정의당
좌천
반역
자오선
기와
##岡
카롤루스
##FISS
##분할
driving
##코딩
DMZ
해운
Auto
육박
MQRO
intra
혼돈
지난해
##득
들어와서
본능
조우
루시
바닷가
1789
1853
니카라과
듀엣
아키타
##컨설팅
##Gbps
appended
synonym
enhanced
##금리
designated
licenses
고취
##KBS
##label
우대
기판
잇달
부에노스아이레스
##어머니
석재
섰다
모교
해왕
유목민
##郭
색소
오우치
퇴단
sequential
url
##열람
##case
distributing
증원
##오버
현명
UDDI
남양주시
TAG
Road
특명
제프리
형질
종별
자수
성폭력
함자
호프
1793
젠더
억류
##호프
출세
라이온스
공경
##툰
도키
1851
##우측
불복
최우선
월별
temporarily
유비쿼터스
##운송
ROWID
##청이
##쿨
미주
앵글
느낀다
안창호
박사의
일제히
감명
스파
##祖
스케이트
천수
##Performance
differs
적법
이루어져야
Concepts
encounter
원동력
joins
instruction
젂
피오
도안
##Ÿ
달렸
빌미
파격
보유자
두껍
##사거리
서클
항소심
##잉글랜드
새뮤얼
미첼
무너져
자루
##꽃차례
Roll
엄격히
용이성
##이관
국고
##Suppose
bank
subquery
##스웨덴
Korn
SA
입시
레이크
세미
##네이션
혹
##터키
홀수
경내
희박
양서류
##치카
##해리
1852
헌터
##보관
획
duplication
##셀러
addressing
지켜야
커맨드
##Resource
추궁
robust
시킵니다
##ORACLE
cards
식이
뺀
미얀
살피
레몬
##;&
버려진
심정
##숙의
빼앗겼
실록
localhost
##상위
조서
##CODE
ip
##웍스
신기
##보내
pointed
##transaction
IIP
숨겨
미주리
한정판
컨디션
신봉
사흘
왕당파
공군기지
레이디
집사
##xed
잔액
##예상
##무상
수강
Coordinator
##Single
Station
##살인
니스
##바람
불쾌
이리하여
클레이
굴욕
오토모
사학
질투
압송
##묘의
##足
##陸
오이라트
네이션스컵
마천루
##Level
후처리
좌표계
ibm
upgrading
Generate
##Simple
Variables
representations
Style
rendering
끊이
##원은
##Rational
의제
##려다가
광택
사탕수수
세운다
소탕
크라운
혈
##徳
마이어
도미
불렀으며
초식
애덤
강희제
무쓰
##바라
##OneAgent
Feedback
##PUT
NIC
사각
교통카드
본회의
1400
초록
외과
도리어
##선인
사드
##워스
오리온
진원
퍼텐셜
1847
##波
슈퍼컵
expensive
생산자
등기
disclosure
careful
##Export
lesson
Selector
모션
##CNT
조차
기민
레스터
1803
Wholesaler
발터
피스
자본가
##라마
프로이트
##라드
조기어류
철종
셰퍼드
partially
pathname
Column
##어린이
##스위치
auditing
템
INT
비대칭
True
결집
##란스
아연
외가
솜씨
너희
##아메리칸
정착민
루키우스
허난성
BEGIN
YTN
TOP
##첫째
refreshed
SMF
수납
클로
SSH
##스나
##룩
승선
##웅
윤곽
암모니아
정말로
##혈압
한참
국부
로크
##合
##載
##那
관원
죠
철기
##夫
요율
위젯
##Sub
Hconn
개찰
분의
insufficient
##모형
치수
##DC
147
##나이트
상향
##James
##심리
비방
##게이트
하순
##영장
oup
천주
일삼
관군
가쓰
Bean
##Cluster
상충
assistance
군데
금고
Contact
scroll
RF
샘플링
##DEFINE
##은의
견지
무지
##에라
야전
좀처럼
지경
맞대
신지
##隆
루터교
건너편
##자본주의
에바
트럼펫
카스트
##보르
##藩
##보컬
향교
예문관
reader
GID
원할
##RCV
｢
##dynaTrace
출원
Community
##훈
조합원
Gentran
아이스크림
한국방송공사
PfmNumber
깨달음
양념
불평
버섯
마니
행운
교감
##필리핀
##주군
타선
기권
시이다
셀레우코스
베컴
맞배지붕
요시아키
공식전
thesystem
−
##Content
TRIGGER
##nm
턴
관내
불명
OO
##본명
탁구
마리가
재판소
시카
감마선
##益
마오
히로부미
관저
오메가
##Based
여백
Failover
Receive
##box
##response
끊임없
붙인다
##천억
쏜
외래
종가
부관
갱
새우
래리
##賀
악역
아미
여생
화교
개간
단역
archiving
##jar
skills
ISP
Wait
##잭
##부하
송금
##관계자
서가
부엌
대목
##비서관
유독
정사각형
동맥
##리안
해주
##오리
1844
왕자의
##淳
잼
플로이드
교구장
미시간주
minimize
부하분산
Serial
드립니다
##탁의
##업과
BAR
##리더
##매우
MTS
발상
용의
트랜지스터
부식
중서부
금호
옅
##동쪽
효모
케이프
##律
##雄
세르게이
##文化
견훤
KS
Products
##일수
쿼
교내
resume
Complete
캡처
옥상
떠돌
HMAC
캔자스
##른
fer
사교
빛깔
##이우
##원숭이
노르만
사르데냐
가도
##祠
cursors
팀장
##사양
insight
installs
심층
##상표
unused
resolving
FETCH
##리포
풍요
태양광
외벽
애완
분홍색
배워
미인
##時代
경부
개막식
그래미상
오키
결탁
##관한
Extension
##reference
article
둠
미들
riser
재래
조개
혹독
든다
추위
록히드
형광
담론
오스카
##判
##오스트레일리아
베르나
마레
##墓
##카미
나카
##址
searching
##day
##Write
##Shared
hosting
착오
Credit
##위반
objectives
드론
efficiency
ANY
##이중
##Monitoring
납입
##급체
##발표
##뿔
CLUSSDR
152
포상
##QMGR
author
후반부
ActiveGate
가로막
깜짝
##서장
반대쪽
MLB
찾아왔
클라이맥스
##나치
##加
필하모닉
민족주의자
전란
고성군
미식축구
compute
illustrated
곱한
##profile
연체
##담당관
##기호
outputs
정예
##앞서
distinguish
나인
SEND
##350
collector
DSL
고려대
마라
##들어가
떠올리
스태프
진주시
권세
은신
##修
강성
Ltd
##Customer
UEM
분석가
##Optionally
propagate
##Diagnostics
138
##Managed
inquiry
앵커
호흡기
rc
씬
파주
##아동
##윈
##방면
예비역
춘
사업장
consume
APP
##Keep
Websphere
controlling
garbage
Authorization
plain
##민원
테크
시뮬레이터
Execute
OTT
WITH
국무부
테헤란
회부
Indicateswhether
##虎
골절
하우
헐
양위
##스티
##司馬
포대
##ORDER
##증명서
forexample
efforts
리서치
encrypt
독려
##Leave
SPACE
integers
##일지
진위
##FUNCTION
시흥
꾸미
##>]
라면
상법
##매개변수
분쇄
스케일
##').
##나중
풀리
수증기
변호인
지도력
##됐으나
반공
먼로
토스카나
안철수
##합리
Communication
conforming
붙여서
##Integer
keystore
Id
테라
과감
House
processors
헤어
직권
견딜
콘퍼런스
초판
마술
##쿤
##주머니
##주인공
사나이
망루
두르
돌연
로페스
busy
CVS
백본
##공모
ADP
cleared
##web
outer
리비
코팅
##프라
매니지먼트
소란
##일수록
##과학부
##HD
카지노
화성시
민영
##이치
만주족
당명
##能
열광
킴
아스카
현감
##online
VSAM
##Enable
These
##}.
Native
##상장
Flash
feel
인테리어
기울기
손바닥
##랜
NEWYORK
서둘러
설사
자연수
동아리
##常
어리석
베이커
##해인
주계열
군주제
톨킨
아픔
터뜨리
##Info
##용품
VIEW
Documentation
바인
##전형
##Move
##World
##소켓
벼
##外
Times
Selected
뭔가
분장
##레드
##1911
센티미터
네덜란드어
영미
탄광
##주연
로널드
르완다
안데스
바나나
미카와
##장로회
##EXTRACT
##연장
##팀장
backward
Pre
Each
##행과
##득의
##센서
소문자
주시
##DEF
##로움
SCM
##타트
챌린저
오인
비엔나
언젠가
돋보이
처했
##어판
##屬
가온
##我
캠벨
참모총장
##瑞
어쿠스틱
청하
세키가하라
##WAIT
##메터
Incident
##대리인
기피
메서
WebLogic
Please
Find
##TLS
##프레임
지방관
editors
Song
늘어난
##상인
벽면
국악
마인
##리온
채집
보어
오비
영사관
저스틴
독실
NHL
##신학교
##臨
포위전
트라이아스기
##태후
블루어
##Load
##재정부
##MQSC
concatenation
##Attention
증액
efficiently
appearance
ESM
Required
##몇몇
통계청
##연간
대용
모아서
MQCNO
WBE
보라색
##고려사
Separation
영수
숙고
##짱
잉
##터스
##툼
재정난
시편
통킹
묘호
##門下
외장
##220
편의점
incorporated
따를
누른
밀착
계약자
##타리
Delivery
edge
예금
##배경
approved
msiexec
residing
##구미
##유산
그랬
당은
윌리
이완용
League
유폐
아이젠하워
앙골라
마에다
거제
캡쳐
호가
어음
compensation
효능
파급
고분자
##충분
시냅스
골자
##실업
수렵
이건
앤드류
파열
습성
복소
장강
도읍
하이든
주둔지
다이노스
의병장
독립국
##族
클레오파트라
노엘
optimal
thenumber
뱅킹
capturing
runmqsc
covering
tar
##자바
게시물
휠체어
일한
키트
##record
polling
##견의
##다운스
##상당
JTA
사이언스
분양
랭
##名
지리산
잔디
Jr
##羽
헤센
##관직
##라이너
시게루
절도사
달콤
##≫(
##방화벽
폭우
엣지
attacks
GPU
SCSI
불변
##나우
1100
##세상
##아요
그래픽스
##코르
##☆
서바이벌
유엔군
로저스
월북
##若
예배당
천적
만루
스맥다운
##한국어
##진과
##예정자
DR
Agentless
encounters
##language
KPIs
##톡
##반대
쪼개
##미니
발광
##아주
##해와
쓰러져
성명서
연유
날렸
반열
##방위군
분류학
후신
유물론
충신
산둥성
##요금
##오프라인
##단어
앞장서
##MD
composed
helper
That
##젊
##라오
국사
루피
항전
표결
아이작
탄수화물
##系
딕
##케도
선거인단
지평선
몽케
요코
예견
장단
participants
acting
##AI
##CALL
##였음에도
미팅
canvas
##PD
zDC
##로와
##ESA
라쿠텐
호감
북상
상상력
##숭
바보
##튀
보라
기생충
고작
알베르트
단군
뉴저지주
알려졌으며
마린
##찬의
##身
쿠페
대머리
##예프
##라프
latency
##BPEL
조교수
Exchange
ls
##기금
퍼블릭
Clusterware
불명확
205
환기
유학생
MQPMR
##音
##봤
스탠
거액
서태지
##좌파
송진우
순례
리그전
페드로
프레슬리
아약스
##DISPLAY
logon
</
Hierarchy
##하인
Education
Embedded
automate
##Controls
현미경
##할수록
##Purpose
collections
들어선
번지
##organized
##곡선
놓쳤
##1909
현생
##삼국유사
근세
궤멸
폴리스
타지키스탄
##處
얼터너티브
telnet
##원본
토론회
expose
장시간
##싱글
엘리먼트
Contents
##command
endpoints
와일드카드
구독자
##구글
썬
dimensions
픽
##검찰
접미어
놈
강압
겨울철
국방군
에든버러
##광무
바랐
원정대
웅
##慧
##閣
##恩
discovery
##dd
##돔
JOB
appropriately
widely
귀하
JCA
불법행위
Some
SD
##atrb
낭독
##status
War
onepass
고속도
철자
가정의
돌아온다
##튜
##몽골
부인과
군용
감염자
화음
찾아온
팽
발진
1836
승하
윗면
대법원장
##Unable
168
her
CSV
CipherSpec
intellectual
theserver
레거시
tmax
syslog
grow
##몇
안산시
calculates
Debug
##덜
해일
ret
쿼드
인출
재원
CS
투사
끊기
##히어로
표제
Jolt
마코토
공방
힐베르트
##半
열렸으며
경부선
##容
##謙
변장
신익희
##히로
1841
거느렸
오웬
글렌
니키
##沙
영천
필리스
##HDD
전단
원활히
lack
explore
##기일
yes
Working
Notification
learned
VIP
##감염
노화
미비
loader
##해져서
슬롯
콘셉트
DbmsTaskServiceImpl
빈약
빨강
##특위
마그네슘
1837
볶
참모장
1791
개전
호른
찌르
##竹
##요시
꽃받침
##멧
strong
InfoSphere
##/*
##Further
##this
flat
##Try
매크로
TS
##법상
##캠프
suf
demo
facilitate
다가가
다이어
퍼플
##장사
동산
한마디
SV
##1894
윤치영
생성물
간청
피어스
분과
파트너십
Light
bundle
##ADAPTERDETAIL
밸리
기다렸
precompiler
##유물
DFB
##쿰
감찰
유태인
의대
갈릴레이
애벌레
워싱턴주
도마
버드
바트
공물
다리우스
medium
##tmp
Email
##단가
##SK
Organization
누출
욕설
##조작
owners
DTP
##分
연구실
ax
es
##중공업
보호자
##샘
##David
탕
이별
한자어
새기
##독재
사대부
깁슨
##숙
외주
신청서
부응
보였으며
Diagnostics
Measures
Daemon
consumed
licensed
HDD
INTERVAL
EA
AV
##교원
내수
악영향
아바
이설
후추
수목
유감
던
DPOD
##글리
도핑
킹스
WHO
권위주의
남북조
헤이그
사죄
석기
다마
##작곡
##바리
##密
##강사
anyone
heterogeneous
##Product
##Publish
synchronized
installable
##Include
minor
Array
alive
##>;
Heart
팔레트
문은
정주
##現
747
암스트롱
##위대
##방송국
생장
##성경
##무용
급기야
바투
넓혔
셔츠
베다
가곡
권투
칸트
Hobj
##Contact
##기후
##Point
bold
##매매
##아마
Displays
News
am
##펫
지날
경기력
##미시
오세
##오브
1776
장전
한국군
서북쪽
세포막
쓰러지
아우구스트
반공주의
성채
괴뢰
버밍엄
알현
엔리케
##기생
##蘭
로드리게스
##進
스테파노
usingthe
damaged
##MSTR
##mocomsys
대국
##Monitor
Contract
204
지반
225
##Download
##360
채권자
Locator
캘
디에고
띈다
사무엘
쫓겨났
조병옥
부여군
포위망
모터사이클
##Usually
analyzing
ORDER
Identifier
##할당
##control
143
합쳐진
##스토리
이명
피사
협의회
AU
##벡터
##첩
제천
친절
정오
찢
감탄
직류
계략
구토
소크라테스
로베르토
패주
투니
오고타이
##1592
acquired
투기
##식별
##중소기업
TA
SAN
소진
투자가
Mapper
SESSION
j
##BILL
모를
outline
##마당
##Ê
vSphere
즐겁
출혈
평방
입적
쐐기
혁명가
전곡
청교도
네덜란드인
마른
압둘
숭
rates
SG
갑작스러운
스타트업
출발점
labels
decided
이동은
Connectivity
206
떨어질
CI
결론지
서블릿
##화물
실리콘
##부부
올라갈
열풍
##Charles
포유류
언어학자
봉분
동창
용매
교육학
맞섰
불태우
누워
벵골
대사간
계투
globally
alone
enters
##급여
##separated
롤백
modeled
연다
##이곳
156
activation
About
점심
##카라
슬라이드
이지스
Lee
스톰
인성
고국
사산
진해
다짐
문고
더구나
공화주의
켈빈
북베트남
1796
증빙
경쟁사
CR
공문
raises
##집합
151
##빵
encapsulates
거래소
받아들여졌
릴리
##파라
##:=
##더러
바레인
교지
노스캐롤라이나
##노스케
허정
허버트
올랐으나
기타큐슈
청군
연극배우
이상일
splitting
latter
##리모트
Route
ECM
compressed
##프롬프트
##밑
##CH
대면
영화관
##웨스트
##처벌
성교
방정
남단
##茂
공손
오딘
##護
대파
대제학
발사체
##구성원
무제한
출근
봅니다
##ha
Volume
##고유
slide
##성분
interoperability
##180
Decimal
separation
본사가
##시노
XAResource
예식
문정
도색
출진
레퍼토리
요셉
투병
중앙아프리카
##允
금산
##it
asks
analysts
총합
짚
온전히
##Failure
diagnostics
알람
상회
##박람회
VR
##Close
##현지
어기
여겨져
XATMI
코일
EMI
##군부
병풍
사생아
증직
사이클론
태극
서기관
이오
##慶州
완투
목차
MSG
ACTION
charts
Contains
postcard
137
##서식
RSA
농작물
사법부
설득력
height
##로버트
##당초
프라임
남겨진
발부
구시
격전
파주시
음색
도합
배상금
숙명
루머
변론
아나키즘
서기장
화풍
##맛
이바라키현
서남쪽
미노
Soul
##일본서기
##洛
무궁화호
새턴
잎자루
##리자
##감리
Current
STATUS
인수인계
##""
initiates
가한
Interval
##AVAILABLE
MSCS
enhancements
##Provide
Catalog
290
descriptive
둘러
DM
인슐린
##침
Blue
혈압
천명
롭
##지는
산호
음주
퍼진
##자네
야행성
길쭉
갑신정변
율령
인노
나가노
##예수교
피지
하카타
Router
##온다
##Full
씩
##edit
unwanted
배포판
연락처
옮길
##현금
##description
##RUM
채무자
PK
➤
geometry
계약금
##합동
TMS
리터
##심판
##총리
##Init
보호구역
친하
연하
바늘
##유엔
마을버스
부산광역시
##야스
등산
이성질체
##三
감히
노벨상
##毛
끌려
중앙정보부
여주인공
마구
기욤
##晋
##세르
대니
벤피카
sophisticated
ease
##definition
Connections
accumulated
nice
office
##+)
codepage
Shift
##쇄
작업자
136
440
##異
ConfigFile
코스트
부결
##천사
매듭
동체
indows
캅카스
##翼
역모
트리오
##복선
미주리주
끼워
폭주
##허브
##365
compliant
##static
상한
##입법
Future
##우수
원곡
##111
미약
FK
Bourne
battery
##앵
솔직
370
##상작
엑스선
파랑
특혜
튜링
호크
알바
구했
한복
외무성
레오폴트
펠로폰네소스
쟈
생몰년
조광조
natural
납기
##물자
177
suppose
Under
외화
Standby
마땅
approval
스테레오
휴게소
##맘
##土
드레이크
소용돌이
개표
버라이어티
##倉
주둥이
엘리엇
대니얼
고제
##근거
regard
Month
##140
emitter
시판
##그라
##ag
166
QLOCAL
stylesheet
##受
코카
머큐리
del
루카스
교묘
##산소
행정관
모어
사무라이
불펜
extents
violation
feed
raise
placing
##슈트
##次
오닐
##스토니
##인종
원망
메릴랜드
비올라
해자
unnecessary
IE
ranges
Risk
154
Receiver
##발생기
##아직
육안
clock
##FAIL
hierarchies
##찌
연장선
철제
Manufacturer
펠
명도
시티즌
농경지
캐논
무서운
포틀랜드
들려
관동
혹평
##니스트
황하
화북
##마디
《"
1835
##마리아
##파에
태평천국
건륭
남한산성
옆구리
INPUT
Con
##허용
scalable
221
##cmd
##융합
세제
construction
틈새
학기
다름없
##VAS
##스러워
##기장
쇠약
청일
우기
##서쪽
경치
##channel
YES
##Live
integrating
2023
behaves
로만
##부모
tutorial
##유전자
클럭
음역
장택상
테네시주
길버트
보냈으며
##1913
개최지
위스콘신
웨슬리
worksheet
판권
##번역
##view
##*/
##DIR
consuming
입힌
##어업
161
searched
##해짐
유추
##스토어
채팅
창업자
transmitter
##아라
트랩
테러리스트
방공
##고양이
훅
##군대
근위
코리
£
개그
총알
##節
달라이
갈라진
##煥
델라
##유가행파
tobe
##둘째
##합성
##통신사
NetBIOS
carefully
mqrc
saves
##Unless
patch
##SaaS
Available
인젝션
bitmap
탈바꿈
XQuery
##밀의
변속기
1831
판서
##致
내쫓
가이우스
고분군
현은
이와테현
메르세데스
틴
소대
디비
##정렬
##ch
##이슈
transmit
light
202
highlight
310
##用
남양
불러오
##SUB
핸드
##베스트
트루먼
##든다
울음
나르
##르노
부파
계몽주의
쿠데
그리스도인
##토프
봉작
IPC
study
별첨
Measure
덤프
Mpower
000
BIND
##Maximum
산불
dumps
살펴볼
##나요
보안관
##울산
accompanying
Indicator
인장
펌웨어
##잇
필적
발작
독단
때리
##스코
베티
파우
정치국
중생대
##頭
환초
야구단
fashion
varies
restarting
consult
##Line
##125
대열
##출연
cables
##104
Result
##벤처
어도비
##버시
안녕
훔쳐
성대
실로
##타로
클라인
노무라
외삼촌
서예
##파르
매료
동북쪽
반정
시미즈
밑부분
메인프레임
##시안
##ADDRESS
Word
##SND
acquire
##의미
##대역
##102
sound
낙타
내각총리대신
##기온
##월드컵
이목
광화문
##淑
수류탄
##호골
##ine
lose
##Commit
Entity
##래스
CFSTRUCT
COMP
##대칭
##뼈
추월
뒷부분
빌더
Assembly
Unisys
숙성
지원자
##사장
옴
섭
Island
관구
몰아넣
연출가
연주가
무자비
미우라
고모
하치
비잔틴
##기병
오우
learning
subdirectories
##DVD
##Text
고품질
PIC
길목
포트폴리오
강국
AB
찾아보기
##姓
스탠퍼드
골라
특이점
토요타
능통
마돈나
딸린
뇌졸중
쇼크
슈미트
창씨개명
기교
주제가
그레이엄
시나노
무사시
##조사의
보증금
162
##Services
##Format
막혀
현안
오산
checkbox
어떻게
##라든가
##1896
##보물
Indicatesthe
변천
다치
매스
퇴적물
인민해방군
##宅
##均
꾸짖
개그맨
충렬왕
prototype
originating
##like
compares
cleanup
accordance
온실
multipart
##청과
WAIT
벗어났
의향
##문인
BPO
##네이트
##사당
##位
시그마
무수
낯선
리사
예비군
발이
##장식
핵폭탄
베이컨
1832
고독
##옌
##關
본진
##대장군
##皇后
##가역
땃쥐
HW
ad
expires
163
상쇄
##그리드
involving
differently
153
##경과
JNI
앙상블
시공간
##요한
##곱
엑스포
체격
예리
토리
끓
콜린
mor
##춤
Dream
##과학자
##大韓
교향악단
와타나베
이교도
중앙아메리카
총애
종실
전철역
신고식
소시에다드
##게이
##권리
별표
가시성
##Logical
##상단
##CHANNEL
금품
아파치
contexts
##dependent
##>:
##수출
##ags
got
##tion
##아카데미
##;}
임박
앞세워
버락
결부
퍼스
##리치
명맥
##남북
##에로
비호
페인트
헤라
선방
##갔으며
보르도
맨틀
풀려나
속씨식물
서로마
리얼리티
촐라
우승컵
지휘봉
##Password
##Generally
Subscriber
##Having
세관
유망
beused
sql
##매개
##사도
바꾼다
##울루
지로
통계학
우에노
수영장
깔끔
휘두르
섭씨
아디
해석학
계파
##浩
구석기
이범석
녹말
코민테른
성악
시아파
잠비아
시모
태그팀
improves
assuming
extremely
Cancel
accomplish
##재해
선상
Transformer
결점
##크로스
formal
번복
생산력
일의
이론가
##뜨
샌드위치
##kW
떡
직교
##와인
접경
##杜
황산
상류층
하얼빈
행방
낙하산
##마제
평신도
빈센트
thecurrent
##PDF
comprises
둔화
##연수
가맹점
##리드
비약
##저항
테드
##왔으며
정글
일례
타파
세컨드
피자
##흰
리차드
##県
1806
찬탈
뿜
민권
바빌로니아
길러
클로드
1842
감독상
모후
##듀스
왕릉
프리큐어
largest
##인건비
publicly
유량
editions
집약
BT
##Fixed
##경쟁력
##mi
##α
전극
발행인
##색이
최장
흘러가
교화
민생
대해선
##오카
##서인
BFILEs
목욕
##은퇴
오즈
폐간
1790
드래곤즈
골수
난입
스톤스
정언
지나간다
continuing
discover
면접
%)
봐야
subscribed
corrupted
arithmetic
##시설물
cast
메디
##마운트
Analyzer
##창작
프로토
##right
salary
##도장
##브로
명하
스팀
요도
앞장섰
포교
비트겐슈타인
##지회
##魚
수감자
독소
무찌르
애기박쥐
제이크
##측면
Private
##FEP
believes
trust
trade
phrase
##135
##상수
등록금
##교리
딜
UK
리허설
펑
비기
동대문
궁지
소망
##命
##初
키르기스스탄
##그라드
델리
생제르맹
천마
테오
##邑
##괴
미요시
데포르티보
에버턴
파스
##print
##External
tiers
fall
ignores
고압
Adding
GMT
##DD
complicated
accomplished
Pages
이동식
##Max
Side
took
흑자
##점대
다닌다
유세
##咸
볼프강
1794
대뇌
바울
광둥
니케아
트란
군량
TPS
##납품
##JAVA
급사
##닷컴
스테이
##배열
originator
##문고
##Status
쌓인
##포스트
forget
흡입
##루프
##브리
##묵
비스
불러일으키
##화상
드레
하층
땀
##본관
음운
##하트
낙태
안티고노스
처단
알렉세이
아브라함
암초
접시
주살
##추출
##수당
Partition
purchased
selections
MQOutput
총체
##보급
##script
전동
##오토
바이든
##core
##렌즈
주황색
봐서
Church
##1916
물리학상
기념식
최남단
금화
조던
달려가
##哲
사멸
표준궤
달리기
사르
사이공
##대항전
에트루리아
점성가
브래들리
측정값
city
Operating
Programmable
④
redirect
199
##생태
Queuing
##부도
Outbound
##브라질
Cisco
##음성
##전후
새해
기가
380
전과
##Corrective
가우스
##수스
폐교
pH
강판
맹렬
태극기
구운
출소
##평의
총살
싹
지느러미
##레아
섬겼
하동
명장
개발비
extensive
transformations
baseline
##192
원복
컨벤션
##admin
간과
##방과
##TR
SSD
비트코인
활기
SIZE
이스
욕심
##정과
출생지
놀랍
##주부
##盧
북조
학창
발기
당파
##居
##剛
보주
##以
calculations
##브랜드
tooling
publishes
strongly
##TP
delivering
##입니까
##경고
##믹스
##디렉션
일간지
##루트
엘살바도르
##젂
##시외버스
##可
들였
듯이
##NonXA
##바스
초대칭
외할아버지
개인주의
쇼팽
하산
다운타운
##誠
##丹
이기종
hub
transparent
Domains
APG
subsystems
patent
##HOST
doubt
navigator
##케어
dialogue
##워터
근거리
잠실
랜드마크
동차
고문서
모여들
##간부
King
이언
##儀
##1868
도마뱀붙이
##토키
##봉승
holding
challenge
fee
##Currently
저희
subtype
##포장
235
420
콜레스테롤
permit
그늘
Msg
##ers
##솔리
맞물려
##못
##이슬람
기틀
중앙일보
우산
막바지
불러왔
목장
증손자
보답
플루트
##헤임
정유재란
오카야마
다카하시
이준용
##い
periods
IM
##중임
##Big
##SHARED
##THE
##취급
누릴
##과업
##사자
매립
Smith
comparing
Graph
Offset
continued
광시
국무원
스위프트
##피아
월급
##대강
##징역
남로
##독립당
김정
베버
신과
##男
드루
##岳
##삼존
강희
##盛
##취득
Rep
구한다
판독
##기아
시급
##재생
##안내
digit
##코로나
매트릭스
##셜
mqExecute
reissue
struct
연마
서대문구
불안감
내림
나뉜
##석사
미숙
구석
HMS
째
CLX
말린
생물학자
엘리스
제식
##莊
커티스
가모
인류학
치마
수메르
동티
미즈
지하역
스포르팅
analyzed
SPOKE
##원시
##380
SAM
classpath
offerings
OEM
##Details
thousands
##엑
나타냄
##123
센타
Generator
##공여
교착
##부위
코로
크리에이티브
밀려나
불황
범하
어딘가
명예훼손
각인
김해시
##토모
eate
교복
차분
##석이
김종필
태워
##시리
김치
##房
##마이클
변증법
필리포스
브루노
뒷다리
현청
##여우원숭이
마력
responds
Training
Metrics
routes
##113
193
넘긴
시안
수온
Creation
VO
서드
##부채
telemetry
시세
원이
OFF
줄어든
엄밀히
롬
##에프
VCL
산책
덧셈
머무
##사토
##고래
자갈
불어넣
##퐁
곡면
게이츠
##mg
무너뜨리
운석
##》)
국수
타고난
미카사
hot
##집계
##OBJECT
전자서명
134
고침
출금
AL
POSIX
수표
셀프
Occurs
##舊
##미아
무너진
불명예
빼앗긴
##지검
군락
전투력
퍼부
추축국
학비
하시모토
반유대주의
케인
매질
기묘
보이콧
페니
헨
##溫
Quality
governance
압류
cells
139
OAuth
##선진
박차
BP
##아라비
프런트
movement
##모어
허물
포토
걸음
어필
본다면
창안
촌락
##부리
비둘기
핵실험
단념
옥타비아누스
격분
카불
폐단
##穆
목걸이
노획
히노
호날두
Manual
research
##픽
rebuild
SYSDATE
##AIX
수송기
focuses
tpreturn
142
##트레이스
##TAB
171
investigate
FIRST
inputs
킬러
인솔
737
##사업소
가시광선
투고
플레이트
코미디언
정동
노바
Boy
이케다
##香
독신
경덕왕
1821
시암
##퉁
까마귀
##격투기
##口
척수
##007
##Bi
'/
businesses
Enabler
##절감
Used
slot
##실과
Reporting
##query
subclass
rank
서비스업
OpenVMS
양궁
이끌어냈
그간
남의
만찬
##국적
##텔레비전
울타리
##렉스
사표
부풀
콤비
앙드레
사체
자연주의
##톰
##兩
교우
1843
허베이성
##후사
퀸스
가나자와
##汝
NAS
무방
##발송
느려
Introduction
당할
aligned
verifies
##상사
##target
CWF
horizontal
유보
sorted
176
파이프라인
잡음
청렴
##주자
임업
어쨌든
염료
##입상
후견인
잔치
##1915
타우
##발트
떨치
남조선
강가
부활절
##연합군
빈민
중합효소
##군주
오렌지색
닌자
도승지
##zero
상암동
keeping
QMQM
MQBACK
Integrated
167
JavaCompute
enforce
javax
Projects
inline
eventually
##Trigger
발신
이르지
Profit
##특급
Skip
미성년자
그루
일어났으며
##SRC
담장
##진주
##이야말로
아이튠즈
##나기
##보리
교토부
##識
톨
셔틀
기치
##晉
핸드볼
난자
##曺
기린
카리스마
원종
몰살
요시노
가면
아역
보험료
Alias
growing
##hand
Workstation
##예제
버려
##모음
질적
menus
몰입
조직원
OECD
가파른
줄어드
##이념
뜨겁
705
Encoded
허들
베이직
거미
동북부
켈
색조
면화
문물
총학생회
호러
민의원
구스타브
시에라
에드먼드
탐정
읊
##珍
마그마
##取
rapid
tune
##Video
##남용
폴링
##GIS
157
##SE
본점
Presentation
##홍보
rich
Video
Button
Scheduler
다량
worker
##토사
##어라
##間
고관
소주
서귀포시
아랫부분
대청
목화
귀향
취임식
베르너
이오시프
지뢰
##친다
고르바초프
##브라더스
익사
##留
파르마
주세페
retains
thedata
Engineering
OLE
선불
발췌
##구인
웜
JPEG
DMI
Cursor
정년
빠진다
당부
전환점
공관
박물
##계승
IOs
##증후군
생후
밝혀냈
동포
영문학
해인사
근본주의
임종
조르주
조엘
승마
귀퉁이
##mode
##발급
##스토리지
translate
Persistence
##OPEN
반증
##Code
append
##Job
감기
Results
##SP
##input
##단말기
뜰
대문
##일과
부로
전기장
##consumer
헤지
잉여
##운전
##합작
간파
취락
드나들
합법화
1845
재심
##ℓ
클라리넷
##嶺
괴롭히
##鶴
준동
닭고기
##諸
투르크메니스탄
##希
리퍼
오미
시부야
카이두
##FIRST
stable
clearly
플러그
EXECUTE
##Trace
##펀드
스케줄링
undefined
INFO
##logs
148
White
##마케팅
##HMAC
누릅니다
선적
위해선
850
메우
초등학생
GM
전쟁터
랩퍼
##지휘
##트론
영하
##성단
여러해살이풀
피스톤
##기념관
크리스티
##당했으며
루이지
교주
##龜
##純
아뢰
##叔
##Up
angle
Starting
publishers
설계도
오차
비료
datasets
핵산
심혈
##명인
##ARRAY
Keep
명중
무기한
##font
전량
과도기
##고속도
카잔
급하
맛보
목격자
eachprogrammatic
내려지
측도
민주공화당
표상
##갈래
품계
무척추동물
퐁
부탄
안후이
무예
귀양
누각
아르눌프
allocates
이루어집니다
##UI
##출입
##execute
##Identify
##Good
쌍방
gather
부트
다섯째
##net
eliminate
149
안성
##레딧
순찰
modem
##묘지
관철
달래
진의
보궐
##토라
습한
집전
툰
아이파크
호리
손책
generator
중요도
손해배상
##점유
포스코
증명서
갖출
Wide
프로시
##Standby
보여줌
establishes
subtree
delimited
안면
DPL
ORA
Once
인센티브
주당
매개체
인턴
##시와
방탄소년단
축약
##욱
∼
확고히
넘어섰
##후반
##감과
제방
공예
##포로
결단
섬멸
마거릿
대한축구협회
아가
가네
아야
##團
강대
목판본
peak
##Three
심볼
##Mbps
handshake
brought
행태
9000
수배
distributions
되돌리
공학자
##브라
1810
캔자스시티
화학식
맘
##가루
권력자
유민
##赤
아랍인
##洙
##柱
본디
수호자
디나모
리그컵
화신
율리
차가타이
역습
배트맨
에반스
##108
##제일
##106
accordingly
OBJECT
incurring
##융
Iron
tcp
기업체
군집
Cost
inner
ideal
실크
체온
##녹색
##DS
KDE
##강점
앰
##스러웠
강화군
생김새
여관
말러
친형
##澤
여객선
쟁취
군도
##邊
펜스
##Query
##HA
Replication
동반자
전라
##줌
joined
Dead
상거래
상계
##핵심
Gomez
bitstream
183
##기상
##조성
해양수산부
##따
##Apache
Body
##sql
마커
greatly
하리
##용인
실장
##캘리포니아
여름철
샌
과수원
노랑
종용
파인
##설이
##曲
리하르트
해류
은둔
세포질
고승
포자
##港
올랭피크
backing
집니다
똑똑
##-,
Asset
교직원
##Record
Started
141
Manage
guest
obvious
##병합
하룻밤
##끌
##상공
습기
##영웅
하체
뛸
무라카미
##추의
우즈
크리켓
낭
서울특별시
##샨
청자
1783
평안
##友
브람스
연어
##브레
아름다움을
##住
게이초
##顯
##CONVERT
TB
focused
productivity
##Search
verified
Coupling
BufferLength
수급인
Problem
##written
grants
##page
Formatting
열중
recommendations
##터리
##107
불허
##부상
##장면
##지구의
초보
##워즈
##트랙
쓰여져
노던
찬스
겹
랜디
##아계
탐욕
한겨레
##遼
강박
남반구
자치령
차림
성자
피렌
뽑히
##太子
예종
페미니스트
doesnot
RECOVER
##런타임
그룹웨어
##특허
제작비
동급
급변
opportunities
score
MPEG
##유효
Managers
##원회
inheritance
네이티브
thetransaction
##페이스
conflicts
인터랙티브
PROCESS
##004
##학적
청문회
##LOGICAL
Vol
날카롭
스토
휴양지
단판
르노
반일
레즈비언
서양식
논산
##아령
회군
민가
유이
세토
##公主
포뮬러
보살상
##외국인
Testing
##역서
요일
##와서
qmgr
CH
수기
209
MaxMsgLength
##len
세세
counters
자로
##ACK
Compaq
##면허
차차
payroll
알레르기
자카르타
여과
거주민
##페
##으라고
##삼의
##사카
고속철도
사연
에다
##區
##노총
냉정
이치로
신인왕
전반전
크레타
서아시아
오를레앙
왕후
미에현
테네시
심신
Depth
량
##BROWSE
##MQPUT
moment
relies
chose
reboot
교통량
청취
벗어날
Methods
넘버
랜
IQ
이동해
1799
밝혔으며
757
신작
하구
퇴화
체첸
카이저
낙향
##산면
용사
몽골어
##吏
##兼
성충
정나라
라자
명세서
##포항
##보완
지났
##index
nulls
repeatedly
##바이오
ICMP
멜론
##750
##졸업
선한
위즈
추진력
의외
##원자
중학생
수하
공무
발명가
자라나
옮겨져
탄성
거센
##이세이
상은
##헤이
서던
요코스카
후쿠다
지병
추밀원
크리스티나
세르비아인
탄환
차량기지
##Operation
일별
수시
##유연
Win
프리랜서
##체로
JMSInput
Oriented
어선
##Session
##제약
집대성
##load
seems
빈번히
##직업
당분간
##딕
안타깝
크레
선서
초능력
심포니
구식
양손
전교
##大臣
팔라
해설자
##학파
쥘
##죽음
미트
마피아
##靖
九
##懿
##기념장
소드
##GUI
##감지
##Filter
고려가
##무선
Intercommunication
loops
##MQRC
감독관
마땅히
184
attr
theuser
##RFH
Qmgr
산사태
##릭스
##그라운드
표준어
##얼굴
##위크
##진보
##색은
##우크라
푸드
여긴다
리오
예속
입교
이튿날
방비
##카야
겸손
당도
홉킨스
제노바
비행사
승천
고다이고
##完
산조
##희망
AA
##Given
+)
##generated
SLA
도킹
탄탄
UP
social
##통로
##Send
178
##섭
양산시
##240
##예전
교배
##시켰으나
##곰
선단
순천시
##였었
대법
##桂
안중근
도부
##蔡
호찌민
통합진보당
##将
##법원장
개찰기
Firefox
MDM
consideration
SECURITY
Profiles
##exit
대내외
수생
severe
quali
David
RHEL
Story
Mnet
##시조
기함
알아냈
1802
##別
1809
대학살
유혈
해산물
1813
1804
윤리학
피에트로
따내
샤를마뉴
요시노부
모리슨
비야
##中樞
##gured
COUNT
##소문자
pay
##509
overwrite
##유무
##계약자
shadow
agree
215
Verification
##supplied
##result
interesting
##협업
한해서
##동적
##사물
액수
##++)
##블루
공기업
효자
소학교
포천
유희
가역
##草
##麻
에르빈
북진
계책
시즈오카현
##敦
미겔
재보궐선거
로렌초
##니치
모셨
원정군
콩쿠르
freed
알아볼
##목과
##Sync
Distinguished
Kingdom
Self
Foundry
##담보
##Whenever
항시
Multicast
##마켓
토폴로지
눌러서
해수
빨라
literals
안양시
이뤄지지
##EU
##Show
할지라도
펩타이드
##사슬
WID
화의
대시
recipients
입안
##기업인
ECS
야구팀
운동장
학년
##관료
노릇
##Paul
돌진
뉴클레오타이드
마취
##조참
반민
유망주
암수
오징어
삼위일체
요가
마초
코르테스
heading
합한
licensing
alphanumeric
Subject
##품목
##320
##request
기일
##109
Box
BGP
##내장
##선행
graphics
Sysem
##TABLE
사고방식
컨셉트
SAF
##천문
국채
브릿지
견습
unning
유품
유우
라스베이거스
장엄
전황
엷
북극점
그리스도교
일렉트로
정규군
연나라
콰
줄리아
본당
retention
FUSE
겸비
instrumented
unlimited
signatures
SHARED
##link
명절
ZIP
graphic
스파이크
##우트
광동
서지
Baby
분투
기물
상권
수역
##風
##치아
708
1805
친교
분화구
대진
총상
신겐
원술
관아
리바이
브라이언트
signi
en
##address
##간접
coming
architectural
Publication
##창고
공동수
##Standard
릴리즈
##마찬가지
어드밴스
##찾
##화이트
##스쿨
원주시
##레인
##이거
룬
질감
비의
미처
피력
##이지의
유가족
전망대
##감각
눈앞
##진영
##区
인민공화국
##1898
거장
##루시아
루이즈
증류
지린성
##資
디비시
##EVENT
EZis
##갱신
##정산
Capture
December
rapidly
Requirements
transferring
assigning
simpler
Rate
pseudo
##서열
인스
위급
심취
receipt
she
##포크
##비판
Ð
꽉
이따금
시술
블리자드
던전
면의
플랜트
고이즈미
트랜스젠더
앵글로색슨
캔터베리
##’("
전횡
속국
정종
##원종공신
##王后
##좌랑
##Mpower
공해
##이내
##간격
Fault
Average
Vista
##ADMIN
Axis
158
slash
390
222
##attribute
뒤지
CO
187
heuristic
참석자
##박물
FORMAT
출제
모기
수행원
독감
##Black
뛴
직각
##나르
##위상
실드
어린아이
망막
##장직
쫓기
압승
징병제
미신
율곡
산인
1834
국물
네이션스
##具
합체
##JVM
SKT
CSQINP
newer
aspect
inherit
listens
jeus
사무관
지자
##칩
exclude
##리눅스
Plus
IOException
유예
**
Min
##DESC
육류
안주
트레이너
미완성
미혼
그물
##시사
##George
다스
##1897
##目
기공
템포
전사자
und
조소
##찰스
석상
아과
앞다리
카톨릭
오목
##樓
##라카
suggested
##수준의
notified
limitation
노후화
##서브
국세
##증진
referencing
디버그
##Activity
##','
CLUSRCVR
Provide
고위험
##다발
신빙
포진
1833
맞먹
성북구
서당
방황
간장
알브레히트
카레
잔당
회중
##祐
과선교
도지사
##영구
Sub
##off
##Transfer
caught
align
##음식
Star
servlets
##서부터
REPLACE
##유저
finally
##텍스
October
firmware
활력
Gatherer
##중부
극심
조현
컬링
무가
##염
##리언
위태
흑색
기념관
놀란
마저
사목
발단
부사관
##業
크리스탈
내려왔
해럴드
요리사
1824
##토가
##出
##학살
보나파르트
현악기
트로츠키
금동
한니발
차등
Plug
advice
##파라미터
Removing
404
##Accept
substituted
살펴
##강도
두기
probe
시료
스테이트
블레이드
심도
건국대
FT
##쇠
sendmail
움직여
##우르
마이크로프로세서
강우량
침착
히말라야
몬테
설과
테란
메사
##弼
유창
##1871
곶
소시지
##히토
레너드
오리올
##IUCN
counted
portability
preceded
Force
internet
적격
##건과
틸
##style
meets
##역시
diagnosis
SDP
People
늘린
##불안
460
RCA
채운
Sound
기꺼이
영산
학부모
산간
##1884
##팔의
아랫
장덕
고바야시
기독교인
항거
최북단
서역
강진
자객
리치먼드
일진회
남극점
광배
CASE
리뉴
##복잡
수월
upgraded
Cloudscape
hide
London
##property
hasbeen
##KHUB
skeleton
##폐
1521
var
##팜
수신기
inhibited
##HANDLE
So
##발달
spec
절충
걸로
선언문
명부
유성구
##호가
테슬라
알파인
무마
##ft
응력
셔먼
신예
콘스탄티노플
코넬
아타리
피난민
음악인
채플린
화친
이시카와
##隱
주둥
##Often
Passport
preparing
일일이
chooses
마이닝
조석
ATM
Art
Changes
thename
actor
##117
언더그라운드
시스
적성
"'
지루
코러스
남짓
##사우
밀어내
##극단
현관
공소
해와
레오나르도
##빌보드
##학년도
남경
불로
퇴학
외쳤
일축
명목상
버나드
바스
울주군
본초
##타카
##러브
maybe
간행물
##서울시
money
##Working
##WSDL
transforms
아웃소싱
##청자
Drill
##330
부와
##호수
##Le
계란
야채
나카소네
페레스
비아
##병사
##로브
현과
알베르토
갑판
마쓰모토
포리스트
나카모리
서보장
##적자
조교
##동양
##일단
scheduling
귀사
164
다각
cn
Employee
노사
이노
퓨전
scaling
##digit
##경영자
브로드
##SYN
글래스
치솟
자석
River
광부
##정류장
경작지
##맥스
##解
손수
풍기
아소
전해진
##시모
사단장
##제이스
색소폰
##티오
탈수소
모용
기후현
deciding
##sh
##지자체
seem
rpm
중견
##Generate
datetime
Authorized
##active
associates
LTE
union
승패
인맥
격돌
멤피스
여기저기
##파인
##야드
자존심
비서관
로베르트
돌고래
치킨
##두스
코네티컷
이색
파룬궁
속현
소라
근본번뇌
##설명서
MUST
##Post
filenames
프라이버시
금번
principles
##연령
titles
오퍼
##렙
##행렬
행의
##rfh
원화
조짐
##INSTALLATION
생산지
쥬
껍데기
##된지
망하
##先
##스트로
나리
##캄
1818
타이거
##議
##파로
주계열성
산둥
광서
헌제
궤간
캔디
api
Unique
Market
excluding
##한화
174
##Appendix
IX
##밋
】
디오
##상하
Feb
##INPUT
treats
##TMAX
원거리
가속기
거둘
써야
푼
등대
번역본
##충의
청탁
마셨
소아
경제력
##―
방한
##탱크
비무장
레비
##胡
누명
점령지
##로켓
족장
##克
히로시마현
교회법
로열스
나시오날
Journal
##중복
##IDT
결산
mailbox
##independent
##홈페이지
720
PROCEDURE
하나하나
막론
통찰
vehicle
지워
##코트
##Jean
깔려
지원군
대표인
자력
퍼레이드
##플라
##。
깼
백두산
캐나다인
위선
시트르산
발화
오자
미트라
볼턴
thevalue
wanted
TABLESPACE
##부담
##IoT
lengths
individuals
student
223
##특징
WebT
equals
세무
ROW
##double
211
##연산
이니셔티브
취입
headed
Freeform
분별
##Battle
BMW
##丸
활자
그라
정칙
##데이비드
##니카
그려졌
##전인
표어
사키
##委員
##麟
추봉
절멸
박격포
말라리아
머피
##머스
라리
변방
덩치
해남
synchronize
Views
가짐
경부고속도로
communicating
속임수
JavaBeans
##상거래
돌풍
##^
##레이터
##Adobe
car
##화성
strictly
##스팅
기다린다
성찰
급감
##틀리
##안동
전임자
도맡
정설
거둔다
케이블카
##政府
픽션
사회주의자
##火
들판
영성
산체스
마카
북인
후학
수요자
reflects
severity
Reader
송시
기술인
##LAST
##특이
SDS
qualifying
연례
이사로
단락
투영
광명
시나
##였으니
거물
듀크
단발
민선
심했
회합
##으리라
Illustrator
코페르니쿠스
##토기
무릅쓰
이오니아
후버
##옥시
브루크너
갈라
은화
바쿠
침실
하드리아누스
##상승
IDC
##application
ConnectionFactory
mirror
##Values
deep
intervention
219
과금
Professional
무색
직사각형
BAPIs
바쁜
大
정이
식료품
전시관
##피터
##因
남측
근소
방울
##1902
무신론자
##호크
수녀원
모노이드
##바시
강아지
쿠르
어종
강호
경쾌
꿇
승전
쿠르드
바울로
##발라
에미
시영
mqbrkrs
부산물
cat
conversations
OAM
##Different
Functions
##능
팬클럽
Speci
bags
GIF
##산업단지
indexing
Entertainment
##정서
택했
코덱
##객
##토론
속박
섰
##리코
성행위
일면
동이
린다
##나토
아틀라스
홀로코스트
자그레브
동프랑크
미모
스트라스부르
크롬웰
체세포
찔러
아미타
도라에몽
##짧
MDB
경미
사외
몰렸
##방법론
graphs
##감소
##Always
ordinary
207
##방문
##의약품
체질
##유기
varying
##혈관
##저널
##출
한류
소변
두터운
mining
##여객
MQCFH
브루나이
재가
상동
생태학
찾아갔
##쿠르
조준
등반
궁핍
##도덕
안드레
연해주
인디애나주
##산군
양조
밀워키
비스콘티
퍼거슨
인대
비키니
forces
##총괄
toward
##동향
##Listing
미쳐
##강제
##항공기
##운수
##지하
usethe
SERVICE
subscribing
2030
Interfaces
##PMQLONG
Place
Bad
##cursor
전동기
행차
육아
대주
신세계
관람객
##니시
조밀
핵연료
보인다고
메스
판관
##지청
##고구려
허구
주니
##機
엄지
##부의장
포식
콘스탄티노스
의인
처남
돌궐
페널티킥을
주군
##선우
에볼라
에스파뇰
##최신
##과일
Chart
##Schedule
extracts
핀테크
##행이
##채무
##signed
imports
##Restriction
##스케줄
STR
자부심
##법안
SAML
##450
퀘스트
자성
##봄
더욱더
##가을
locators
외피
음식물
노선도
여태
##야당
달인
문중
##圭
밤하늘
토착민
카리브해
##戸
##리투
아르메니아인
##라다
터진
경은
상과
광주시
데르
윈터
노브고로드
기주
케니
페미니즘
##ef
##조가
strategies
##상도
damage
##인용
##준다는
환경부
Endpoint
환수
smart
##잔액
출하
foundation
Implementation
구명
쉐
640
공모전
##깊
원제
보행
융기
인더스
벌써
그걸
눈길
##사우스
##고조
갇힌
역행
배럴
##제이
##恒
갔으며
만화책
##少
헥타르
재주
제향
명왕
##親王
snapshots
##패스워드
소각
##국시
org
ILinkPut
접할
Getting
interacts
Register
intent
소유주
교두보
병목
MQIIH
공평
팬덤
Flag
North
segmented
웅진
##노비
마샬
택지
가릴
극성
억지로
전체주의
코시
히사
겸했
합세
1816
사학자
리키
합장
연기력
항저우
체르
아오모리현
작사가
affecting
usable
quiescing
ten
Cognos
reconnect
##tree
formed
exchanged
Little
처우
Round
##라우팅
푸른색
Cockpit
유의미
초고
##대내
UFO
captures
수차
터뜨렸
##121
Game
packed
##깨
뺏
차라리
##사회학
문어
##스톤
##燕
헬렌
환생
##학당
라오
성추행
드러낸
##데뷔
동족
헤이룽장
알론소
머리장식
토스카
키드
##rollback
증감
초급
pause
Cleared
dot
214
##Date
##Mobile
##상환
##해왔으며
##리프트
##일보
청정
가전
##free
##복원
DMB
변할
여명
규장각
##곽
경마
뺨
아사
옥고
좌완
##만세
성찬
주스
##塔
리바운드
근심
황갈색
코코넛
요시쓰네
캡틴
crash
##서약서
Requests
##Context
switched
verifying
남길
Micro
worked
197
inform
명료
##파스
##Multi
##235
##grained
##월경
Sum
불능
제타
스타트
##석유
영세
익산
LONDON
정시
##달리
##화로
디스코
미화
여수시
##헬
그립
반년
해구
강탈
세례명
##敏
##색한
장조
1808
스코트
청조
야마
가와
신비주의
때마침
##타시
회랑
살롱
외젠
고요
##구균
##奎
무안타
##설계서
altering
rewrite
ACLs
##만들
지침서
하도
HR
216
##절과
JAX
##shared
시일
부칙
Know
##구도
##self
Fedora
나날
관서
픽업
훔치
약제
대적
##원주
내려진
봐
칼날
결속
꾀
하르
생가
토드
친동생
메릴랜드주
미카
도나우
##세인트
페스트
##如
카우
신궁
보츠
##완장
Kernel
##대조
##헬스
exercises
unsupported
##육성
##Cloud
Green
실황
능률
##such
병용
집합체
##Hz
referring
##batch
SGA
##전술
##스토
Front
Korean
지하수
뿌려
신관
관광업
##우시
차리
##베타
##²,
난간
팻
크리스틴
크릭
##斗
##運動
추앙
사실주의
미르
##복음
격노
주청
혈청
음경
상파
Nodes
TTL
##Long
shift
WAR
##Upgrade
가처분
아카이
아닐까
##탐색
tpacall
181
##Removing
combines
교신
##예보
Special
##함께
##넥스
##세가
analyst
외출
위아래
트레일러
집현전
법조
밈
숭실
로펌
무공
상온
##비평
##≫,
행했
향리
##타이완
단련
버크
##全州
정몽주
##코사
Parsing
##localhost
탬
elsewhere
410
159
182
Indicates
##명회
##드릴
##전반
대쉬
printers
CLOSE
망라
IGQ
내일
명명법
수능
##DNA
약학
##University
##노이
돌려보내
유린
피했
평온
##결성
춘천시
스티븐스
##푸르
괴테
##也
시어터
빅토리
진핵생물
소피
난쟁이
##FIFA
##티아
숨졌
##노부
선우
##저압부
outlined
brand
couple
Post
##하고
광역시
##Describes
##첨
친화
##because
##좀
##분포
##BIND
REQUEST
##element
Probe
Second
사옥
노이즈
weight
##品
##케스
169
East
##대사관
'-
포켓
남구
나스
지단
##마인
장정
##푸른
약사
벚꽃
뷔
사조
쑨원
황해
지배층
하디
파멸
웸블리
처해졌
1828
프라이스
1817
1807
##공민왕
##安東
익주
영지주의
recreate
소수점
closely
##상황실
readable
##실천
##보로
span
간염
##분화
##국방
arriving
dragging
wireless
NonStop
밝혀내
압둘라
Festival
기형
재조합
1775
##도선
##夢
균류
##교도
##兵
현무암
성간
##大王
덴버
맥도날드
제사장
##妃
사로잡혀
베르나르
연방군
##본기
데려오
쥐라기
절터
DEBUG
PaaS
##황과
##시정
소량
##Map
Migrating
indirectly
191
procedural
##미들웨어
탈옥
Evaluation
##카운트
exports
표류
##바이저
iSCSI
러닝
csect
##해졌으며
fielded
학급
##롯
도자
비시
즐거운
##ｍ
잠들
##약칭
음소
브리트니
만국
움직인다
재야
우화
일리
##商
귀의
쓰러졌
1787
##구르
웰링턴
동군
##토피
상감
요시타카
미네소타주
받침돌
phases
따름
##BAT
##표로
Consumer
pooling
회신
PKCS
switching
##형질
넥스트
##호주
올라간
Domino
자본금
transient
compiling
##스레
그쳐
##거대
계획안
##탁
레저
호스
##펀
코르도바
후천
승소
##드라
1623
로런스
초고층
여운
공급원
페라리
핀다
국명
산기슭
다녀온
글래스고
망원
발트해
라치오
카일
척추뼈
##宜
선발전
FORCE
##복수
##Execute
Operational
430
유가증권
##Mapping
##제인
indicators
##아이콘
후행
##과세
##양면
전일
델라웨어
Board
##크로
친필
##더블
0000024
흠
##십의
보육
울트라
세브
단호
스코
용품
##페스
동결
##力
후각
간디
##중화민국
##孟
파월
강물
분가
남해군
황궁
##슈테
반칙
기악
감형
산투스
무분별
##케이블
aqueue
participant
checksum
impossible
##Design
alphabetic
credential
내년
도큐
UOW
operands
axis
Signal
Production
communicates
화일
무비
MQException
Brown
##성향
##럭
하이웨이
굴곡
##공무
모질
##원수
##MultiBlockTextProcess
##FinalBlockTextProcess
중앙선
호송
괴롭힘
무지개
포워드
수양
주상
혈액형
춤추
완패
애호가
##1903
이탈리아인
위엄
보호령
카롤링거
의금부
아케메네스
사법연수원
majority
##AGENT
Union
functionally
provisions
crtmqm
져야
CN
personnel
coordinates
backslash
개정판
##Legacy
embed
says
Documents
appliances
destined
##AWS
##DCRUM
닫히
undelivered
Mediation
redbook
받아들인다
CT
##리프
소치
자연히
Supplied
##볼트
금방
트렁크
##지터
페인
매장량
##레일
꼬마
##피아노
담화
북마
헤일로
헬라
코코
브리티시
하스
심복
요시히로
마인츠
군마현
querying
Low
##室
##개발비
##인쇄
적인
demonstrated
Japan
Dump
핸드폰
packs
thedefault
Workload
수선
safely
division
##CAS
정밀도
inetd
##충돌
##경남
힌트
지오
##지휘자
##느냐고
몰려들
##대만
복도
구덩이
비명
시성
종주
쓰러진
##제자
##대군
##사면
2600
아카
##구치
소수자
페르미
위안스카이
##민중
린네
준위
관동군
농민군
함포
한탄
고후
코베인
##타우
링네임
##의가
##Byte
동법
##손해
##플리
##BPM
Azure
##확
##backup
##210
KSC
189
Collaboration
fundamental
##Rule
DT
##Method
visualizations
##와도
179
면치
리브
휘발
포브스
VSE
천만
##농장
##Reads
##페더레이션
##다크
끝낸
##돌기
비핵화
양양
가석방
아즈치
##시르
##1901
묵살
##신성
포고
윈스턴
##라이스
##남쪽
바실리
봉황
##노리
가오슝
##히데
버펄로스
구성도
trends
##Managing
##창업
950
##MQGMO
##고장
compilers
##Defining
SR
substitute
즉석
모계
대세
##소방
공병
##수인
##애플
스위트
301
001
머니
##정거장
살린
CSQUTIL
이전인
봐도
##노사
도저히
겉모습
켄터키
행방불명
익혔
나포
##한반도
원통형
파탄
온몸
##방정식
조제프
국민회의
##랏
종교인
계엄령
##미야
##氣
##사단장
##典
범퍼
시라쿠사
우쓰노미야
서장
강유
##Flow
상암
Magic
becoming
##Preparing
Focus
##Allows
##Clients
##수업
끌어내
제어판
##LU
##부호
departments
##Gateway
##127
카네기
Refresh
홀딩스
##bw
##평면
여가
다지
책상
용접
부등식
##만장
다항
참배
액정
묵인
연일
1825
커리
엘리자
마타
상나라
##軒
무궁화
오클라호마
자연사
##亨
##오구
등지느러미
게오르기
바덴
미움
설법
만네
방계
차드
오미야
시마
근연종
파이터스
원더러스
MIB
analytic
ReplyToQ
##던지
heartbeat
delimiters
##솔창
Double
##임계
##동력
ifthe
San
##원에
배부
카타
##초대
실격
김천
##카페
##흠
카세트
더더욱
게임즈
아픈
##β
키즈
영종
##쿠라
파샤
우랄
내통
쾌락
타타르
랭스
충주시
트래킹
cfg
알린
802
##자주
finding
launched
IPS
불가항력
변제
establishing
USING
265
escalation
FIFO
플레이스
noti
변함
부딪히
CNN
##소수
REMON
##다거나
회자
##구장
인척
##녹음
사간
충성심
포터블
##웃
##벡
국경선
##모노
칼데라
잔기
##눔
홀리
마운틴
기쁘
메르
##獻
##裕
##START
##Function
##신뢰
Conversion
Modify
uninstalling
ADD
가할
##예약
##이체
186
MT
queried
Council
프로펠러
크로스오버
SQLCA
그래
게임스
4690
효성
움직였
이권
뢰
##티나
터키어
도기
소작농
레바
다이스케
주앙
버틀러
유약
오보에
솜
영연방
에테르
##甫
가우
궁녀
슈바벤
에인절스
##본이
##취약점
정액
안전망
##BI
##task
Processes
##from
##양산
194
188
광디스크
슈퍼마켓
##column
Who
##Writing
rectangle
인터럽트
James
Personal
고용주
##축산
책자
##지오
expr
쏟아져
순응
게이머
남아공
스피어스
1819
##奇
##하마
##바퀴
마주치
북반구
서훈
##냈으며
상체
1788
해왕성
교서
건국훈장
창덕궁
스펜서
윈난성
소나
옐친
##메드
##효종
조시
##靜
득점자
에이미
##리턴
일금
Left
##sec
promote
endmqm
##Cannot
현대식
youwant
납득
filtered
##Locate
##데스크
Inspector
centers
"-
소급
##EC
autocommit
##리원
##SID
##115
European
2025
##so
##아이템
정규직
air
##다섯
그려지
호로
PSP
공생
##페어
펼쳐진다
##테라
##법과
되돌아가
연사
##경관
트라우마
해피
루즈벨트
은사
연선
로런츠
다카시
가환
울창
모면
##구락부
1838
##備
뉴기니
엠블럼
키루스
마리우스
문관
사보이아
##肅
합천군
서킷
석가
노나라
주교좌
##read
##GHz
Logical
room
Segment
mqsicreatebroker
Gallery
Drive
denotes
##동경
##190
MIN
반송
약관
##Header
##오피스
##효의
proxies
Multimedia
executions
Devices
쿼터
본드
##MOCOCO
208
##컴퍼니
은평구
West
407
부스터
Hall
탄화수소
##만을
저널리즘
산발
함의
무한히
##보가
직역
진동수
##정청
##峴
##헨리
박수
##貴
적시타
공사관
모티프
##쿄
연승
이봉
##라크
집단군
##ILink
competitive
traces
silently
CHLTYPE
Availability
valuable
Either
##call
음수
##유전
Social
OTS
Japanese
Merge
경제성장
##엑스
학식
흔들림
St
폐업
늦추
##우가
종일
내려놓
냉방
은밀
도의
위세
채웠
횡포
휘발유
가야금
##튜버
##綱
기복
보두앵
와트
##範
팔려
부락
##言
윔블던
핵미사일
헝가리인
신앙고백
창녕
그람
##欲
매튜
##고정
##우상
##Module
##추정
square
MSI
손잡
iteration
Fields
leaving
이동성
##170
하향
Airport
평이
밀턴
##';
아이패드
탄산
의리
##식과
##사마
용납
상대론
고귀
교섭단체
##상학
가선대부
1826
##於
사중주
프로테스탄트
보이즈
노스캐롤라이나주
##復
광종
치소
리간드
tvN
멕시코시티
킵차크
##궁주
youmust
discovered
##입시
##객사
proven
positioned
FUNCTION
날인
문란
##확산
저작권법
digest
253
##취약
사업체
속출
##러블
##재무
오버헤드
##흔히
initializes
ap
##실에
##비리
면도
헤딩
##켓
subpartition
풍미
##단식
##역명
##종과
소마
청장
성상
담수
밝힌다
아브
수화
세간
##국민회의
엡실론
덩샤오핑
말엽
인삼
##炳
##제학
##嚴
시에라리온
##교단
나카노
총파업
코니
앙코르
도고
##갈색
종착
##COUNT
계상
##결함
meant
##Names
낙찰
요망
맞출
툴킷
##연락
precise
minus
포커스
재생성
미세먼지
July
augmentation
retries
Games
전조
기호가
##환원
##_*)
##드림
##이라크
방어력
만물
수훈
##동포
프라이드
베가
기침
벌어져
클라라
금관
윤치
신대륙
내밀
교동
프레드릭
문교부
형이상학
정약용
스웨덴어
얼스터
##황금
우크라이나인
징발
##나트
##사슴
칼리파
외직
타로
상관없
수없
신변
##드립니다
##Storage
variations
늘릴
##VALUE
##Informix
engineering
저항성
##포가
placement
적당히
##nitions
196
versioning
##Korea
핑
##card
##게다가
sal
##흑
##워드
실종자
잡스
##USS
플랑크톤
예민
졸
보이저
무신론
마우리아
수소폭탄
##來
##대전의
##티노
농노
##禪
존의
이각
엘프
##댄
심법
##관할
별지
AES
평점
##while
##근로복지공단
enclosing
팩스
HTTPRequest
##Connecting
permits
##액션
##전역
수조
significance
portions
238
1605
##5601
breakpoint
Press
DESC
가져옵니다
검색어
##Second
Examples
국제기구
푸시
became
retail
##></
감염병
전폭
돌아보
파드
기동성
에런
소포
협연
절개
응고
소감
시간표
진폭
영유
얽힌
어스
피타고라스
##鐵
낙인
보손
반대자
해발고도
질책
더운
##丘
갈망
수모
세워졌으며
금메달리스트
##自
원더
패의
손쉬운
PTF
##신시
토의
##지형
interpretation
Issue
곧장
지원금
##},
##INQUIRE
395
WSRR
Building
applet
버림
예거
##후왕
목동
##이렇게
소방관
굉장
##백제
##1870
조그만
카바
시리우스
총명
조계
##苦
불사
콘스탄틴
건너온
맛있
상석
예멘
기절
조반
전소
탈라
SEQUENCE
##탐색기
보증서
&&
Scope
##REQUEST
Launch
보여진다
validity
되돌
targeted
##정수
##입금
등각
##Built
##성전
나빠
NameValueString
주파
##잠
끌어들였
##재건
##쟁이
##니즈
##GSG
생산물
리저브
1780
TBC
##1899
낙엽
모자라
##선거구
클레어
둑
수험
판의
안기부
##레프
홍익
##메이트
은하단
소선거구제
볼프
태클
주루
가부장
##節度使
가봉
##철종
##양현
개혁주의
##파악
##트래픽
forwarding
RS
##지체
기울여
DHCP
##Defines
secured
198
Persistent
##관측
adjacent
##button
Federation
##Invalid
XAP
vender
designs
##쇼핑
방호
나눔
Stream
meeting
##총액
MQXQH
그린다
부적
##Investigate
datagram
긴장감
환호
공격력
양평군
각오
##오모리
열전
독학
SUV
참가국
올렸으며
드니
어니스트
북송
##게스
##》《
변명
시모노세키
흑사병
뻔
알레산드로
광무
슬퍼하
##鄕
그레고리
아폴론
뱅크스
식읍
아프간
##상대식
에페
밑면
##도청
Clear
갑과
##VPN
일수
상황실
DataSource
Die
##Digital
##전지
조망
face
streaming
##인덱스
dequeue
##출판사
##00942
inquired
참으로
Young
낙관
##엘라
펄스
마이니치
##토니
연좌
##今
##춘추
아저씨
##리히
##하나님
중견수
블레어
조예
명륜당
##頼
회색빛
estimate
serious
접근권
##비게
##군데
disclaimer
FFST
##Property
Mile
재량
##check
incompatible
##Basic
##defining
sibling
웨이브
GRANT
총수
널
페이로드
배선
밸런스
끌어들여
AH
대학원생
##필름
회생
##도인
함축
##이트
##Mac
검사장
조언자
큼직
에이지
쿄
##카쿠
체구
지낸다
주성
상투
모국
빽빽
대대장
박지원
##廉
##持
갈비뼈
앵
마운드
플뢰레
##히가시
##위너스
훌린
certi
overwritten
Super
##critical
영양분
strmqm
거제시
queuemanagers
와의
제보
232
##저하
##알고리즘
##MP
instantiated
##Rather
다방면
##자수
PMS
##경상북도
##테이
휴지
##옴
Paul
##Objects
조제
BS
##소니
##자키
올림
##싶
Great
ft
준다는
거창
RMs
##정체
1763
내보냈
레프
뒤편
##한다며
##소닉
##낙
툴루즈
유기물
아비뇽
아가씨
군역
세타
시라카와
오스트로네시아
심왕
##린턴
##貪
##mte
보호법
씌
ABAP
성장세
centralized
인구수
##Title
##expression
##Protocol
Finance
draw
##수소
기안
SCOTT
530
schedules
aid
##114
Join
##서적
##전주
해답
FTA
##밸리
콜라보레이션
##가드
접했
회기
상층
카트리지
폭발물
##라즈
애틀랜틱
베른하르트
##디온
단양
뉴멕시코
에리크
레프트
사카모토
사이고
포메이션
순사
육사
계모
수양대군
원균
아미타불
##라시
연꽃무늬
suggestions
operatingsystem
##폐기물
##한도
##진수
Features
##Through
shape
MA
##Automatic
##010
Loop
propagates
CLASSPATH
##Encoding
보건복지부
Kerberos
##왕복
삼가
초음파
고운
한두
##Arial
카트
샐러드
수세기
아핀
##총생산
브룩스
중류
1784
경향신문
##隊
평화상
프레더릭
##주이
무당
총탄
문하생
블레이크
사비
유구
아소카
쌍방울
여류
##연산군
경사면
physically
장부
##인터
##Fail
지어
##지요
쾌적
Sender
hence
##기적
influence
착
테스
resubmit
architect
##무리
##난다
궁금
로테이션
교각
##Michael
꾸려
ImqString
##정이
터져
기류
##영원
자켓
##동방
##鉉
##졸
응축
화원
글리제
주필
##대혁명
인도주의
병세
고창
##오이
월리스
##牛
##티오피
페트로
구워
제르
##이카
레버쿠젠
##콘스
BMT
deals
directives
173
##State
easiest
##CHAR
Fire
worth
matrix
##이랑
전출
RGB
##샷
##116
##데일
도금
맡겨
공직자
##소원
##아기
##교토
의성
##1890
부차
##鎬
##表
퍼져나갔
##離
재판장
아명
펭귄
대교구
루키
앙주
은색
##爾
흰개미
쇼난
##None
##보수가
##삼성전자
thought
##IPv
Lists
Fix
Alerting
Off
##Clicking
suit
와이
*.
눈금
휘말리
Air
offload
Let
존재감
##행진
택
커진다
##저우
도요타
##조례
##후지
##보인다
Moon
본받
제니
붙잡혔
1822
흐른
그란
로리
장본인
##勳
성가
##乙
중앙유럽
으뜸
귀족원
포츠머스
허나
깨어나
슬픈
뜯
보급품
카슈미르
##속곡
토고
마애
Asynchronous
서브시스템
investment
##installation
Pub
##명세
울릉도
##SERVICE
##성격
mix
403
corrupt
##through
drilling
지멘스
근절
광원
##품명
발상지
charge
isthe
##표본
##BC
##강원도
##3000
Academy
뼈대
우뚝
선거인
청두
##홀드
무왕
contr
##베를린
덮인
염화
내슈빌
당과
어부
##리카
편평
##運
복건
눈썹
유장
논산시
소프라노
존호
폴리네시아
아유
알레
세레
승부조작
베티스
##%.
##방해
##DW
MFT
##Those
##대시보드
##Navigate
Print
비상사태
나타났으며
illegal
Items
labeled
thereby
멘토
클립
screenshot
독보
concrete
660
개폐
Hello
compact
관공서
하이델
지배력
입선
평시
RMS
##white
한방
두부
간헐
다각형
수없이
엉뚱
난폭
우여곡절
짠
일약
횃불
라이프니츠
김나지움
선거법
《》(
이슬람교도
이집트인
시련
명망
반혁명
##普
나뭇잎
##라리
초순
가나안
##而
##慈
라치오주
나선다
##祿
##侍中
오와리
##단층
forced
writer
AUTO
PKI
merged
PDA
replicated
typographical
연필
##Build
importance
520
enforced
직급
##지주
염분
비닐
Mr
timestamps
연화
continuously
versus
문서함
금이
워킹
Play
줄어든다
해법
classi
비정규직
개와
나우
##라틴
뜬
부딪혀
끝점
애용
섹시
##도상
##Thomas
##댄스
경호원
부정부패
##착의
##브리튼
##동구
신안군
혈연
쌍용
기의
은밀히
냉동
노름
원뿔
##촌인
허셜
최강
가쓰라
곁들여
군기
성조
##녜
라몬
알렉산드라
아드
##개수
수탁자
Cross
##Management
KIC
하이라이트
##Customizing
모회사
su
224
##*,
##throw
buffering
concerns
patches
turns
BMP
최첨단
학생과
거느린
intf
MQBEGIN
originated
엑스트라
전군
##벤츠
인도인
찰
WML
##랭킹
##아침
매표소
레스
이영호
유니온
생쥐
##무로
##比
제후국
##만과
타악기
죄목
천지
게르
##메스
베르디
##果
헤르베르트
벌인다
출몰
베라
다이라노
에린
injection
칩셋
##Secure
Firewall
##REQ
compress
##timeout
##재배
수자원
배합
Move
architectures
sorting
선점
##부기
spreadsheet
nonblank
##사라
##Compile
fourth
Days
CCI
qualification
도울
rerun
##리얼
중산층
백지
kB
아산시
disorder
나아갔
폈
웰스
##정의당
마사무네
내려다
고조선
##카인
노먼
##언어학
게양
아우구스티누스
승화
펴낸
파피루스
체액
유배지
##연구관
##메틸
##하천
##사이즈
##Address
modern
##Location
당면
configures
Derby
제법
기본법
##event
interim
218
팁
##하단
##PS
FORM
##","
##지기
Again
##전남
만회
분이
##머니
삽
##결번
고스트
##쟈
##중독
나뭇가지
펀치
화물선
##옛날
예우
##정변
shar
시역
라이스
주술
루소
서곡
잉태
페르난데스
페니키아
두른
1797
마키
##Their
##로직
띄우
practical
IFS
GSKit
",
outlines
Demand
##INF
<=
수출입
첨
PUBLIC
directions
##그래
틀린
federated
conversational
understood
##;)
##수명
OVA
매트
##Fields
중증
와이파이
트루
스프
슈퍼주니어
클랜
##한때
##기둥
##동원
세이버
쇄도
##인회
되돌아왔
##버지니아
유계
하이젠베르크
하야
적혈구
제패
아르타
엄호
카파
악한
밀려났
절지동물
##秋
부제학
##노시
stages
Chrome
##이용자
##협조
Heap
불이행
administering
행정자치부
표시줄
##Vantage
교통수단
글쓰기
Render
##반경
##배정
##231
LISTENER
MQTM
RECEIVE
Thomas
999999
DESCRIBE
헬멧
##등장
##블리
동대문구
망상
대관
미야기
디랙
ther
벨리
케이지
##어는
누드
땅콩
##1866
각운동량
몰아냈
벵
작화
오카자키
야마구치현
미켈란젤로
고증
수사학
발사대
바우
갈라진다
수니파
서군
단사
커트
박중양
##선군
마르티네스
후륜
summarized
시군
##결과물
MQParms
KMS
organizational
serialization
THROW
##표면
엄중
번들
이더넷
##Obtain
##connect
햇볕
##WHO
##ﬀ
고착
##기단
##퍼시픽
tperrno
TxRPC
꼬
추석
특질
특징지
베이비
기약
극소
경구
야스
난방
더글라스
##스코틀랜드
집합론
뒤셀도르프
##유학
##寬
사투리
##아크
쇼펜하우어
코린토스
의용군
무굴
의탁
파르티잔
공양
파올로
기마
나혜석
루손
##시카
피질
암벽
##개미
##fetch
##including
##수용
informed
nickname
workstations
arrival
##매년
##프로토콜
FLOAT
obtains
##Selector
##출장소
걸림돌
골반
purge
destroyed
창사
##버퍼
##monitor
yyyy
##법학
은유
##나간다
남코
##국왕
##유수
강서
##전도
본대
리히텐슈타인
베니스
부계
에센
##板
전문학교
다카마쓰
탄원
오카다
미일
전령
게일
안달
##실록
분구
테너
황태후
짝사랑
베일리
##輔
언약
##신청서
Appliance
forwards
wsadmin
217
mutually
감사원
마인드
cut
로드맵
##Connector
227
AR
ou
producer
##이해
##사냥
스털링
##진입
적립
포용
강인
난해
부평
타개
##버드
나기
##역대
성동구
찾아냈
##정맥
쭉
외야
##강릉
탈선
##統
##우림
Dance
##文學
화염
##屋
은신처
모더니즘
프레디
잘츠부르크
##현은
해머
간통
산마리노
##硏究
궁예
마틸다
판의금부사
##스트로스
만슈
##받침돌
##JSP
##근로
잔재
Invoke
##CSQ
방범
commas
Administrative
##산국
배심원
##인지의
DBIO
guides
넌
##IC
##교실
TID
hints
##성동
나설
전년도
##로크
틀림없
##닉스
분위
각별
임팩트
##1600
관리인
번역가
트리니티
유미
셀러
정역
낀
혼수
씨름
광석
##陰
여호
북단
##섬네일
조그마
죄책감
슬럼프
##교향곡
모셔
도운
필로
록의
라디에이터
ISIL
석불
##察
켄터키주
트리니다드
##基壇
가시마
WebService
##기밀
##리비
수당
##Desktop
};
ran
정함
산입
고부
XMLNS
##어다
##230
##여신
sees
corrected
##적절
교통부
필기
스티커
전산망
rowid
Cubes
마모
Encryption
더미
식단
방전
크레이그
1593
라디
장서
관중석
경직
##이크
##한스
종반
로망스
후쿠이
불멸
##메르
##콕
AEK
변주
레지스탕스
히스파니아
##세인
시라
##나카
풀럼
드래건스
사브르
캡콤
히스토리
##셋째
##주변
##중식
휴지통
##init
시제품
HTTPInput
##context
기만
VERSION
##표지
##무엇
##리스크
##NH
##ning
##위협
MQRMH
Old
RX
Robert
만하다
1770
BDE
표시기
##코마
군소
호프만
##서구
신정부
서커스
곤도
와카야마
변성
##박정희
##망원경
흩어지
주택지
취역
미시마
하녀
마라도나
##茶
슈타
공훈
##太后
##六
윤원형
가자
이와키
##볼넷
도파민
유미르
bene
##엑셀
##format
다이나믹
NONE
대각선
보호프로파일
Spring
BINARY
essentially
##수신자
전용선
##찰
fragments
South
##550
treat
arrived
suspend
equipment
굴착
풍화
Spatial
##워싱턴
에너지원
Arts
940
정반대
DBCA
퍼시
유난히
##차인
양평
아호
수혈
옥중
천자
콜라
처참
묻힌
엘튼
히메
안드로메다
간사장
알렌
앙골
콜레라
카르타
##참모총장
##雨
블러드
서계
혼마루
사극
##질레
러너
시외
Replace
시너지
implications
##protected
##Config
##MEM
일절
병상
SVC
slave
##Errors
Mark
Composite
##첨부
translator
희석
##우대
고비
선호도
시발점
##De
ClearCase
##옆
사별
##본과
펼쳐졌
찬반
모른다고
##주임
##보훈
##동굴
다진
어근
눈동자
코레
꾀했
의석수
터졌
크라
##평양
##東京
중진
철원
세인트루이스
라인강
故
입궁
이스턴
시즈오카
##줄기
최치원
의종
##수수료
mod
Where
뜬다
membership
GSA
##격차
guarantees
verbs
pixels
성장률
내용물
회의실
GE
abstraction
##Buffer
##KEY
넘어선
PID
Hardware
HDFS
Su
##신장
CSQM
CKTI
##지하철
접대
플레
하버
subprogram
##행복
태세
나사
##평야
저술가
YMCA
다케시
실력자
대혁명
##高等
##레크
레슬리
피에로
새의
건반
침팬지
##콰
##圓
안드레이
보그
##베크
무안
역전승
사모아
##衡
지장보살
구스
현내
스와
클랩튼
concurrency
foreach
##CA
##나머지
vtadmin
프로세싱
demands
##추세
뉴딜
certified
unlike
qualify
##Who
##%\
nonzero
##DRBG
##PORT
##커뮤니케이션
양립
털어놓
산업용
다운스
meanings
##FROM
##OTP
353
파이어폭스
##일본어
고인
약품
재건축
피고
##받침
##국민회
세차
징역형
전집
중국식
하동군
방학
관립
외로움
치렀으며
통도사
시주
롬바르디아
문묘
##진지
모리오카
collects
Technologies
visits
##Runtime
##Tivoli
clone
SVRCONN
##바운드
강자
Vehicle
zoom
##순수
##variable
##부인의
튜
UAE
Radio
재귀
접견
신구
해수욕장
닉스
요트
밀양시
##멸
##원반
##토크
생물체
WTA
폭스바겐
옷감
덥
##비츠
도전자
##스러움
##仙
샬럿
하와
만행
##1885
알베르
수탈
##보트
착한
잡종
쓰러뜨리
매슈
시녀
첨탑
칼리프
포레스트
에스터
레반트
소장품
봉토
에치젠
에리
와다
쇼니
ARCHIVE
age
##별도
##브로커
Errors
각서
##services
##유관
travel
##기대
##Later
stanzas
Token
##standard
560
##수납
Sessions
##소시
##proc
##Distributed
치매
라임
##꼬
캔버스
따라잡
##바닥
##={
##성체
용법
##일까
슬라이더
##종위
그게
레티
##유공자
굴뚝
도플러
워런
##타임스
영월
뒤쫓
랭커스터
매달려
익산시
자위대
홍준표
고려인
플라스마
정찰기
백자
히타이트
히데키
쫓겨난
##세라
오마
##기관차
호놀룰루
지원병
총영사관
태정
##器
남중국해
박자
리의
무용가
폐암
옥천
maximize
numerous
##MOCOMSYS
##Nextro
##SSO
##지내
comply
##제로
##규범
Protection
producing
auxiliary
올린다
Water
Complex
assignments
simplified
##state
revoked
CPUs
Here
opposed
지청
##모집
op
##CLOB
##family
Cannot
엘레
##검의
양지
##alert
―
밀수
##kHz
어쩌면
점막
이삭
지하실
노미
##殷
지브롤터
마사코
어리
유임
외손자
수뇌부
##융희
##우루
끌려갔
##신이
불륜
스포르차
피리
다다요시
창법
덤불
##lter
informs
GW
tend
##app
##메가
##본사
알린다
##준다고
satisfies
SMP
예보
호우
가져와서
improving
seven
지중
##즉시
272
275
블루투스
##용기
attachment
OMG
버블
DASD
인스트
오름
KO
주간지
시흥시
inode
##한자
통째
포켓몬스터
##여진
##트레이드
분분
1680
글로브
##助
유키오
기쿠치
##다이쇼
대양
##葉
윈드
1811
강경파
##禹
세웠으나
##祭
참호
페론
빌럼
호위함
##선교
스튜
변주곡
스키타이
꾸며
프레데리크
명창
교육감
##후쿠오카
##예비치
줄리엣
배드
아키타현
probability
heavy
##력사
처한다
##여건
거래량
easyTravel
##Enabling
##금번
Existing
##Statistics
실감
informationabout
persist
까다로운
##INIT
revoke
intranet
##쏘
남해안
##알리
##트레
##문법
대전광역시
##Ⅱ
단언
##보단
##TIP
##직과
고심
땐
강수
TTC
폭도
경무
번진
중년
스타드
도망친
바친
조나단
오자와
밧줄
##공산주의
보우
백혈구
##소서
##홍의
##真
유모
기장군
진흥왕
##作
##각본
아사쿠라
아와
지크
Dictionary
CHECK
Permission
##법규
포틀
##서드
##AUTH
inherits
Redbooks
recognizes
##base
characteristic
##대부
Determine
pad
직사각
페달
##중립
오대
옵
##경전
친근
리버스
subtransaction
##브루
굽히
메탄
말투
관사
eated
##페르시아
진왕
김원봉
내뿜
말레이어
애스턴
향이
1778
##于
##簡
##모스크바
##刺史
보니파시오
이스마일
##判書
콕스
##패치
흘려
ii
##Authentication
##Public
##Supported
quota
##UTF
gateways
voice
선량
##WITH
##피오
Modules
통학
##경북
##specified
Re
##싱가포르
MQCCSI
##Peter
##하가
##셸
Pad
감지기
작업장
Boys
그럼
질타
클라우스
그로스
1829
##존스
##무사
성왕
휘말려
수에즈
풍조
중대장
##首
윤회
헤르메스
테베
도르
안드로
로시
슬로
천구
술탄국
산성
##덴쇼
사가미
보병대
제시카
런던탑
granularity
##ts
##rpm
VAT
##SYS
고루
##민법
broad
DEPT
##OLAP
thatthe
가집니다
creator
collecting
collective
##사상의
우선시
테크노
##돼지
급성장
asset
replay
##축소
휴먼
RECORD
##TARGET
##280
abnormal
TRANSACTION
Match
풍력
분전
장신구
외전
제트기
산화물
악몽
평택시
##득실
##지붕
공교
##사리
분리주의
##항쟁
##그루
시어도어
##開
자유주의자
도에이
도이
밀정
생원
우르바노
헌종
군관
##조어
용모
포니
석호
콘클라베
간언
총신
즉위년
죽인다
보카
페라라
프릴
에드워즈
##루브
고케닌
thatyou
bootstrap
##노동부
트레이
everyone
alternatives
atthe
공정거래위
Restricted
Snapshot
##도면
IIOP
"%
buses
render
Knowledge
##식사
집적
catalogs
atomic
serving
540
Alive
MQIACF
##쿼
에어컨
##이즈
##interface
##짜
걸어서
완충
차내
아쉬움
재래식
들어온다
파이썬
##정은
다뤘
병영
출연진
재킷
공고히
초회
도와준다
한학
중앙당
보수파
직선제
##도사
황금기
지카
사탕
배웠으며
오가사와라
##布
고전주의
하마
키케로
바티스타
군자금
목욕탕
역병
숙적
군산시
필리
인조반정
니제르
##亮
말버러
린치
numberof
denote
##변조
happening
##메모
articles
Processor
##Getting
datasource
자이언트
truncation
Separator
##job
##Events
눈부신
##영문
enqueue
Michael
이항
Operator
##118
##수법
끼칠
여장
##직이
노원구
야후
퇴계
교육청
가리킬
브로
님
생사
보상금
##뱅
MX
1597
선례
레버
버펄로
##자살
박혀
포천시
남진
맬컴
은행나무
심슨
연대장
진봉
발문
##尾
타블로
아이누
에미상
수족관
장크트갈렌
##Unfortunately
은닉
수계
HH
지양
바코드
reinstall
UAC
oriented
Cast
manuals
XCF
##산지
redundancy
##프로세서
명동
국권
##hosts
BASE
신분증
Upload
reviews
##USB
##부서장
마십시오
##미션
SUB
##증명
1823
##클로
원판
Accelerator
경색
타계
##도우
가출
1827
뱀파이어
정열
나일
주동자
호종
그리핀
찬가
헤어지
위클리
속명
밀교
시노
무안군
##미나미
니콘
무인역
occurring
##Intel
sysdate
##MQGET
False
의한다
성희롱
수행자
##단기
블로킹
Activities
star
DataLength
와이어
티어
샷
수사관
쾌거
가디언
브리핑
권위자
맞춰서
부산시
피폐
##박근혜
크레인
주방
재적
##버스터
##칼의
다졌
##실베
협동조합
외래어
목포시
##崎
스포츠카
브란트
##코로
##船
드러낸다
테일
척의
프린세스
도호
사사키
군마
##秉
스테로이드
알카에다
##만주
안토니
들어올렸
미그
마한
##烏
사림파
##교구
##슛
선데이
##푹
##로바
워터스
contention
##Existing
##징시
strategic
Gartner
##본문
exploit
Linus
##Programs
재검토
대일
이뤄져
암묵
마이너스
상승세
##지출
fetched
binds
##출금
mnemonic
##미사
##0600
관악구
도우
빌리지
##SELFTEST
##트레인
##랫
William
##Blue
고어
염원
김영
선인
정유
##호르몬
수집가
##창원
대정
삼중
ectory
열등
멧돼지
##라르
납북
달라붙
##모모야마
##데리
베니
굶
중선거구
노히트
청혼
중남부
창세기
##식민지
니체
##응우옌
적과
악마의
자작곡
##考
사천왕
어룡
스파이더맨
telephone
386
##도중
검지
Success
firewalls
##Certain
customizing
##″.
validates
증서
##Give
soft
##유동
##배출
방역
상대편
226
EMPTY
골대
##Google
효시
##채권자
##닷
##드레스
본존
##부시
세심
숨겨져
##증상
섹터
이완
##중형
##인방
##구이
돌출부
주법
##함인
올라섰
고구마
교직
사망률
덕양구
잎겨드랑이
에리히
정파
##調
형태학
요안
##로동
호메로스
플리머스
몸소
이로쿼이
금광
아드리아
연패
내시
##캉
요한네스
##아리
가와치
##釜山
그라나다
sequentially
##Order
Bind
위탁자
레벨로
PORT
LINK
##Document
##세스
huge
4096
SupportPac
##ASCII
theinstallation
##빠른
BO
exporting
Electronics
##non
##빈도
Infra
##일인
서재
##그럼에도
클린
aren
##Namespace
VS
최단
##주장
tpalloc
##표가
##통과
하모니
##더라면
##송이
재외
섞이
중합체
##무라
울림
##장성
주미
오리건주
위그노
진구
공성
숨진
##까마귀
##부윤
##́
마산시
브래드
네모난
로라
기뢰
오리온스
scanning
asingle
##Internal
intelligent
##지적
##고딕
Packet
##갑의
로그아웃
##qmgrs
##요양
라이프사이클
TFIM
foreground
213
묶인
story
##자와
##num
anchor
arm
##137
##증과
실업자
##소비자
##kr
##1800
##지배
외적
달라졌
이게
몰린
빗대
초본
청계천
연명
아민
옹진군
##병과
##판관
##칼리
1777
에이브러햄
##당은
##포르투갈
바이런
간택
##오름
oldest
leaf
##수탁자
BIT
##+,
##문장
UDB
만족도
##타이틀
중급
xsd
228
##form
TNS
co
주십시오
930
Codes
bug
##parameters
MIString
##INDEX
325
꽃가루
다롄
DESCRIPTION
법대
마사유키
##사적
##물리학자
나가사키현
##차림
변의
재촉
##型
유력자
##教
블라디
의사당
아오
크로노스
제복
##나폴레옹
문경
마티
이시다
##爲
레게
측실
주자학
##석과
통근열차
짝짓기
좡족
##警察
##order
##SERVER
Discovery
##세금
끊겼
##관리법
##소요
니즈
deployments
mainframe
frameworks
##username
bash
terminology
Topology
##색상
묶음
##병렬
wildcards
광교
brings
510
##네오
필라멘트
pointing
principle
캐스트
resumed
쇄신
건지
법무법인
Album
판매자
##하원
식생
##Richard
숨지
##좌석
##정사
##보냈
혈류
합격자
막히
##둥
네바다주
관악
정장
##수호
투척
##스님
병약
맥도널드
퇴거
삼남
위스키
##에드워드
에렌
##가슴
##冠
포세이돈
소르
걸스
볼가
수동변속기
##地方
에밀리
이끼
종과
비겼
##欽
##대사헌
역무원
화승
accurately
과부하
##Exit
Warning
QSG
renamed
endorsement
##힌
##once
##NATIVE
ofthis
WebtoB
ST
263
이거
adopted
프로파일링
##룹
##trace
##Place
개소
##스테이트
##PFM
IBK
DEFPSIST
replica
줄인
GPL
그야말로
##오후
답습
누리꾼
##어를
명품
복고
신조어
##이리
1648
CHF
림
비행선
녀석
고고
경영난
데이먼
메이어
기네스
뽑힌
마쓰이
검소
물고
하코
연작
어귀
유스티니아누스
졸라
또래
전리품
크리스천
인기가요
##히사
##平章
설리번
일본국유철도
브로스
에미넴
mustbe
##export
##전담
##간행물
##Script
utilizing
##내륙
##자명
floppy
252
순전히
##상주
##붓
고스란히
ofa
##570
repeats
NAT
Preparing
CDs
universal
ACI
##제정
MQENC
##잘못
최우
##선도
##템
UC
타지
Rev
내비게이션
생활비
완승
##산이
SU
확증
지세
1636
훈민정음
스탠더드
##꼽힌다
속옷
회동
판화
아워
다면체
힌
왼발
남태평양
나돌
고뇌
서대문
레지옹
##뱀
활화산
물색
교학
평양성
##黑
##나크
갈아탈
문인석
굿모닝
completeness
Resolution
mismatch
##각서
늘어날
denied
asking
##메소드
사다리
##양방향
영화사
대사성
CMS
interrupt
trail
Repeat
동식물
였
##엥
회송
JOLT
##바디
Hill
##고사
알콜
##영양
TCPGW
유괴
마이크로파
제철
영공
논설
잠자리
팔레
다뉴브
법학자
진보당
울루
사춘기
카메오
갇히
기려
테레사
익룡
도조
최고봉
상징물
모음곡
차갑
알제
요시미쓰
##舞
사마의
통영시
왜적
선수상
다이오드
parallelism
##Decide
##여야만
##유니
##Projects
ina
fire
##메세지
obsolete
hlq
##buffer
behave
##++.
워크숍
갯벌
interprets
tagged
##재고
adapt
priorities
273
##소인
BM
num
##정식
##부수
realtime
sheets
RCS
##주주
Templates
ELEMENT
사령탑
로트
패드
SL
##카가
##나선
##매니아
##이래
Sports
호이
보로
고상
작용기
##아와
풍성
##퇴
명지
##超
서간
다키
번사
##민회
정치범
진사시
형무소
사담
프리메이슨
##피질
메이슨
초명
몸값
방이
##스카이
전륜구동
##関
존스턴
##府使
직구
石造
recognition
furnishing
##컨텐츠
##퀸
NL
305
POP
일류
Band
##Browse
##White
커지
##AUTHORITY
Columns
악취
띄워
##인인
명령문
234
IIB
##공포
911
##영주
연합체
##만이
구미시
성년
비웃
뭉쳐
무정
벌리
판다
벌일
God
##OH
테트라
귀여운
양모
경인
##스루
힉스
힘러
##훙
놀랐
낙점
패미컴
플레밍
자위
1453
##론가
괴로움
용감
수찬
경원
쓰가
##覺
포병대
말라위
##유르
선덜랜드
기술료
Meta
##Index
##ip
vision
##Consequently
##SI
Torvalds
CEP
조달청
##창출
감면
불합격
##CHECK
##관점
##수령자
cryptography
super
quiesce
청의
##United
저온
DDR
sole
UserIdentifier
##empty
designers
여느
##벨트
인의
##회색
스트립
해골
##신인
반다이
##빠
모퉁이
##구멍
네이션
##총국
동면
상파울루
장흥
암반
##장론
표현주의
권했
##사학자
프렌치
도치기현
##승리
암살자
##니르
##營
양제
##条
펠레
후백제
녹훈
에타
##카나
##坂
좌안
세미놀
inserting
adequate
##MQHA
소홀
####
ESBs
terminating
##물류
arrows
최저임금
##매수
cookie
##줄기세포
##사운드
보냈으나
구속력
##protocol
꼽혔
##PROCESS
조력
pdfmark
원자재
##쉐
구릉지
buckets
구로구
비축
흡
##성운
세스
의전
##산현
셔터
##사학
##銀
이승훈
옥타브
영등포
포구
아가미
그리피스
##實
금기
##樹
타이베이
김홍집
단량체
대식세포
##라사
드리블
안드레아스
재통일
코다
##니코스
펜티엄
폴로
##大君
낸시
매춘
주고쿠
##교구장
무네
##總
다이요
은언군
spread
BACKUP
##site
Timer
shutting
inaccuracies
##NEW
##Contains
##유가
##기록관
용수
##126
SQLSTATE
collation
Rose
Citrix
Sleep
architects
Transform
Wireless
Licensee
##bind
##주목
##지위
밑바닥
MQOR
자유도
##돼야
##관장
보인다는
##1883
비정
해충
풀타임
##리티
대권
성층
잠복
##소학교
##狀
마르셀
힐러리
##보위
굴드
체리
호쿠리쿠
조선족
##이토
이듬
히스패닉
칼뱅주의
호박
주걱
마젤란
체임벌린
피난처
로스터
아일랜드어
아이치
선왕
##하르
맘루크
광무제
석등
우참찬
이사벨라
총감독
곤살레스
##縣監
완봉
itis
##129
ASync
##조기
연구비
Grouping
excellent
paradigm
Europe
privacy
ISPF
##니어
Kubernetes
표식
identities
##­
국지
수출국
shells
##Sterling
##납
Download
Crypto
##오라클
##알파
##Best
Loader
##수분
##험
##엔지니어링
INVENTQ
응답자
WHENEVER
공언
버릴
후송
##신체
##태국
패소
##박자
##노르웨이
살포
수구
좌초
##바트
록펠러
안재홍
##기독
지난다
부역
##空
모하메드
흑연
구로다
대마초
메틸
비버
유니버시아드
허정숙
중창
석물
항공대
##뫼
번안
##境
##벤투
차베스
폐비
TRACE
1415
국세청
달라서
##®,
planned
isolated
infringe
announcements
came
토사
##Validation
Jan
##반드시
augment
multithreaded
##사나
##멀
##플래닛
알릴
##ver
##__
Lookup
surface
할애
올라서
##질수록
자유로이
‘’
표지판
##인도네시아
##엄의
표준시
##붕괴
##킷
공백기
##시킨다고
##웨이브
옥스포드
사유지
불운
##기체
##콘서트
중등학교
표범
1392
간척
##유전학
##국민당
역법
합중국
천주교회
벤저민
##노라
이황
가창력
마사히로
방어전
병부
쿠릴
이규완
##副使
루이지애나주
미시시피주
성범죄
##마키
239
##lename
##App
##Visual
UID
산호초
##Allow
##순간
임대료
simplicity
##이기
##Formatting
factories
Samsung
##마법사
##access
##단부
표의
오디
프레젠테이션
옮긴다
비우
도선
중남미
##서리
MocoCrypto
##그때
완주
딱히
이쪽
단단히
Christian
말살
##형과
##서야
##삼국지
사돈
##楚
부마
무례
##인민지원군
연천군
가타
봉급
##악단
##겸의
카이퍼
##뉴클레오타이드
오쿠보
알자스
도독
헨드릭스
##임진왜란
문무왕
파파
크로스컨트리
미륵
군무
크리슈나
씨방
로베스피에르
캔자스주
하드코어
이제동
Refer
quantity
##Mail
##요약
전문기
##명령어
Term
##ps
프로페셔널
닫혀
##※
##순차
symmetric
생성기
##copy
##절대
synchronously
##스케이프
나타남
Incorporated
##Pro
##인대
##264
##인해
뷰티
##이성
nearly
##entry
##err
slower
Never
##background
##nal
##유아
##챠
자퇴
얽혀
##하우
간간히
##시계
MQC
##전작
볼거리
폭락
각하
신생아
1750
##雙
집요
슈퍼스타
페터
에히메현
주제곡
제이미
벤자민
##珠
말초
달성군
##서경
피루브산
##1860
상층부
적위
##廷
##건안
양군
##同知
조식
##다람쥐
experienced
장과
DL
emerging
##Count
initializing
WBI
straightforward
Administering
envelope
##IX
skipped
regularly
##자용
피드
낙후
초도
##Receive
2024
wallet
##방재
다자
Alignment
판교
분말
실링
실화
알아차리
##여론
상속인
굳혔
경산
##구리
cari
식물원
##이마
가만히
##식스
배드민턴
아미노
유타카
마요르카
옹호자
맞선
스투
유파
문학사
불우
미술품
뒷날
대륙군
불러들였
김유신
1786
민회
랄프
부쿠레슈티
바하
에리트레아
##아노
상피
김종직
닛코
후시미
월경
##입단
##라라
##아키라
##NGC
페루자
팔코
인터라켄
mostly
##근로자
눌렀
criterion
buy
##Questions
##run
##실내
##응방
WLM
drops
공문서
FileNet
##Power
##후처리
SQLCODE
game
merely
dossiers
##Fi
Incentive
Card
##401
알토
wired
November
수고
PARIS
##순천
주신
##생식
##개조
만지
Legato
##번가
고기압
빗물
##여고
고창군
##數
##μ
라이터
##스트리트
FIS
미로
##1882
새천년민주당
##事件
민주자유당
조소앙
고환
소가
방위군
명작
재림
즙
로도스
##리오스
서베를린
앙투아네트
아나톨리
수송선
죽이기
가니메데
수도원장
##무덤
하비에르
##提學
##호아
올슨
##정반
##133
FULL
Restart
운영비
##협동조합
indirect
##Passport
happened
코인
DO
theconnection
254
한진
Nextro
##⋅
distance
동질
FilePut
인포
Selectors
gsk
approximate
번만
pos
명만
##시퀀스
##접촉
고질
발돋움
##ASE
성형
##항이
Debian
##WW
렉스
인스턴트
깊숙이
1018
최고점
SignalSet
병의
수호신
방벽
원안
##연두
경화
예산군
싸여
신의주
음모론
애국심
라플라스
##介
안구
견과
밀레니엄
살상
##姬
알려졌으나
오로라
##경상남도
미녀
##季
증기선
항모
##末
##梅
##愼
조모
지그문트
포의
윈저
미스코리아
##尉
협공
승탑
scans
Logs
##오브젝트
whom
trend
certification
##가동
##자간
WMS
협소
##Building
##컨트롤
##Auto
##독일어
expire
##Hence
##AIDS
##DBA
##카트
##불능
Another
statistical
##ment
부기
##천안
돼서
Dock
##내면
중문
##인터내셔널
##선고
troff
센트
정에
전자기파
터전
##옷
##자극
헌트
헌법재판
1660
별과
모노레일
석축
1604
온건파
데려왔
강동
개신교도
하타
우익수
황무지
산시성
##試
페름기
##껍질
썬더
근신
배영
##교위
수번뇌
marker
unlikely
sockets
thresholds
##Continue
MQSERVER
figures
supplier
##입장
##수면
워크스테이션
##패드
Correlation
##DECLARE
##문헌
##Revenue
231
##151
prohibited
312
duplicated
##클라
err
California
##122
비트맵
##넘
그친
macOS
Bag
레지
##자라
AggregateReply
##캐릭터
드라
Christmas
1620
카오스
##당인
로랑
괴팅
국화
바이올리니스트
두만강
근해
반탁
슈베르트
스티븐슨
##造
기관사
합방
이방인
계비
아바스
불가사의
신약성경
##桓
모유
적갈색
법원장
재치
림프
가고시마현
방어율
initiating
headings
##채용
bserv
ROI
싱크
##ActiveX
##Virtual
##라이선스
##action
의존도
mainly
##셔서
Country
Kill
##수이
reject
레아
sampling
##대주주
##tions
의약
생겼으며
##불법
물려
유사시
행세
##헬기
##차이점
가속도
급한
중사
부유층
동작구
지나갈
관측자
배기
KOSTA
머레이
1774
배격
캐롤
바사
thr
주성분
##히스
세도
백두
장령
한성부판윤
##鳥
유쾌
우니
안보리
베니토
카토
민스크
앨라배마주
아헨
##아드
헤일
궁수자리
신호장
박원순
##파베
하행선
순절
회남
비야레알
SNK
木造
OLTP
##청주시
송수
어색
Alt
##격자
##수수
towards
smallest
million
##Space
proposed
##properties
Exercise
##○
신용카드
dropping
simulate
인프라스트럭처
##201
somewhat
defects
스트리
##대개
Regional
##스튜디오
251
##270
br
Football
##사제
##Rock
화산재
올랜도
1781
유리창
영아
1610
Nextree
TNA
##위키
##대수학
가르친
재키
##카로
보름
애도
##1889
##반란
자존
백조
앙투안
다이애나
협력자
노아
이심
신시사이저
허벅지
환각
벌목
##이코스
산수
쯔
##국문학
버려졌
지망
성부
하남
##메네스
##中書
테이크
##준수
Customizing
param
organize
uninstalled
BFH
##누가
pure
##퍼드
##DESCR
조속
269
tnsnames
upgrades
EOS
잠식
뽑아내
간극
MM
CE
발자국
가독성
스리
일주
Catch
960
##임기
양당
재조명
에뮬레이터
CMDSCOPE
##passwd
##모습
##DataCenter
##Picture
크라쿠프
분대
##벅스
몸담
NGO
골목
미안
##섹스
해부
원작자
##났으며
##건조
핀치
##界
간도
가택
##1880
##베르트
##1867
중흥
갔으나
퍼펙트
쿠알라룸푸르
노동자당
네로
서고트
팔레르모
아래턱
##비노
##영의정
셀틱스
버니
조커
##塔身
delays
chains
fairly
##Special
신안
promoted
통행료
straight
##진압
##일지라도
interactively
갖춰진
흩어진
packaging
declares
January
##FOR
tips
마스킹
분주
에어백
Priority
1080
##분당
##124
개작
##Sequence
ME
무수히
동자
ename
행할
스탠포드
##얼마
datafile
수려
##계곡
1689
일반직
두려워한
뒤덮
영양소
역적
악수
##訓
입헌군주제
##청나라
##혁명당
프레스코
뵈
아퀴나스
##祥
##廟
송준길
재방송
봉수대
사라예보
Stadium
##아이돌
카를로만
observe
##OFF
!=
curve
possibilities
##TM
##Transmission
##Reference
##Lotus
traced
alphabetical
##PASS
##III
모사
callbacks
커질
resets
Submit
Secret
PIN
##Intelligence
313
무한대
##일대
Division
쏟아지
모른
Le
친다
곤경
이공
레인보우
##수용소
공론
침전
##種
##턱
George
전해질
밤낮
##정공
##鹿
우등
한다며
푸코
태평
##春秋
##전서
석좌
##군관
매리너스
생부
적십자
에피
올렸으나
가와카미
노이
국민정부
장막
##지아
공녀
##뉘
포츠담
아비
스피릿
강론
##마쓰
##선승
##절도사
##선원
코카인
토이
solely
LIKE
이어야
##착수
Xeon
수거
##Today
expertise
RD
##Accessing
looked
면책
##CLUSTER
Stand
assured
semicolon
instructs
##flow
thin
##Vitria
떨어져서
말미
IL
광명시
수개월
##Short
##전면
리전
이니셜
리포터
매혹
SDPS
앉히
영내
나토
##가닥
됐으며
봉화
나바라
푸르
##반도
소품
규소
환대
대동강
##鏡
오에
소질
미하엘
매운
##懷
노렸
배쪽
경련
##先生
##옹주
손오공
캐스터
생년
##레인저
##put
##132
이루어짐
Generation
##Embedded
ranging
FAX
Limited
gathered
익일
mq
##Universal
차감
Maintenance
##370
cardinality
241
THEN
stateful
##고가
Units
##브이
통설
thedestination
폭설
-)
달라집니다
##인데도
곡률
##560
264
personalized
##마스크
콜렉션
##휴
버즈
##입학
각의
조경
##스코프
##회의소
##말레이시아
##국악
IMR
##사망
액세서리
버금가
질주
에픽
지적도
##천과
##국공
두목
절연
고이
##제트
거둬
##그리스어
테크닉
##手
벙커
울라
##Joseph
##》·《
##點
계명
식물학
상륙작전
테살로니키
모라
전봉
남학생
멸시
##생성물
워털루
험준
미술가
판각
##로스앤젤레스
호나우두
##尊
##嬪
악행
파이리
탄창
블럭
친목
hybrid
##스트리밍
##저해
fits
MQXCNVC
##수령
superuser
##Turn
##시행령
나아갈
absence
poor
Frame
translates
##䤎
이종
##STR
1650
얼라이언스
증여
theclient
NEW
##transactional
precede
transformer
사라질
whilst
ES
밀레
mi
##en
우디
지낼
어셈블리
민자
카나리아
##뉴질랜드
골프장
단번에
##봉사자
##인사이드
##스프
콜드
휴양
조앤
특파원
##鮮
학생회
플레어
트레인
레이놀즈
통정대부
삼국지
여흥
뉴멕시코주
에이커
작풍
배설
상록
여고생
어간
보령
랑고바르드
##갓
신숙주
사네
속죄
##전라남도
성내
##파키스탄
구마모토현
레인저
##츠카
에나쓰
Tuning
##_”
##산출
combining
##SYNCPOINT
HOME
SPX
##Administration
MBean
##육상
warranty
hh
한지
damages
##").
incidents
multimedia
##제회
controllers
##131
470
구인
만능
late
사토시
IMM
IPTV
IMAP
시크릿
680
연면적
아람
클레
thechannel
채워져
부조리
지표면
페스
순방
##고로
부츠
달팽이
가꾸
섭동
신식
캘빈
해금
##춘의
##레오
##아르헨티나
난사
티탄
랍비
가오
명곡
왕녀
데메
##威
겐로쿠
무주
##侍郞
##Rollback
##젯
##max
##구제
트랜스미션
extending
dynatrace
붙임
##Drop
중은
JSSE
##not
##더불
longest
##컴파일
SO
Child
선처리
고정길
observed
##Rename
Look
303
##놈
##등기
##136
흔치
Want
##재전송
##아우
Tablespace
소양
플롯
##신단
우편물
심어
NP
물방울
파스타
JMSOutput
##pInputText
##스틸
연비
카니발
대함
Girls
##시카고
리라
닉네임
크리스토프
닥치
노이만
##충청남도
비견
들려주
##노아
##랜더
플라자
##중주
1598
앞섰
##細
몽골족
##辛
민진
담양
집시
##七
찌
트라키아
변경백
##비크
오랜만
##유대
알렉산드리
##僧
제례
성녀
라디칼
이세민
마르코스
연골
골문
메이든
스타즈
##테무르
아센
##귀박
insurance
##Unit
##directory
objective
repair
Push
stands
heavily
pixel
양해
##role
concatenated
생태계
SUM
Perspective
철의
Davis
##군청
Peer
아바타
##650
WESB
violations
서초
채우기
패러데이
신경망
방수
다이렉트
##대법원
자연환경
제자리
##+[
호황
##페스티벌
아우디
##시타
심상
어마어마
헐리우드
##리시
##교차로
꺼리
태운
반원
져
푹
수출품
샤먼
휘트니
법당
비르
이방원
스무
코프
기숙
강착
외무대신
무라야마
졸업식
카스트로
탐험대
##화석
무위
하타모토
중심가
##민스
##等
##포체
시에나
##觸
inthis
suited
PGM
##Off
##Due
##색인
stem
considering
닷넷
Bar
##>\
저감
양적
##플리트
contribute
시운전
##NODE
^
##built
bracket
##프레임워크
##십니까
##Bad
preview
인쇄물
식수
거지
CG
##TGT
##신사
불러들여
강우
의정
갈아타
1758
치우
미국식
임해
따돌리
서하
ocess
##準
부총재
어울려
셰필드
파이브
지극
이나바
##가문
##상어
슐
피어슨
로어
로제
남오세티야
##其
##바우
##隨
로트링겐
커비
NCAA
아르민
##자치단
POC
##850
긋
낙찰자
interacting
decrypt
위험관리
tocreate
##자로
##면부
FIELD
##트랜스미션
zones
JSPs
##기안
가상현실
##인공지능
OpenSSL
##RAID
음란
##404
utilize
vice
daemons
245
##History
encodings
##리부
갖춰
LEG
절도
스피너
판도
##칼라
빗
사보
##El
대마도
훈련장
준다고
풀려
##조이
##눌
##살리
귀한
브롱크스
오비탈
패닉
##從
##생물학자
국회의사당
러더퍼드
밀고
차례차례
에드윈
싸웠으나
무찔렀
##자이다
##役
레몽
사쿠
화순군
##아속
시왕
라싱
##SM
Coherence
interrupted
##Component
어려우
##국판
Maven
Zero
##Human
functioning
IVT
재무제표
고른
233
##경색
SFTP
지주회사
##레티
지기
canceled
##202
responsibilities
행이
behaviour
영속
LNG
형세
자유자재
정선
인버터
Law
Reseller
##jpg
##디언
소비량
타국
지나간
제작소
독이
##어이
##메트로
산책로
1519
1785
##블로
페퍼
##ControllerException
청송
그려진다
1603
날조
젤리
합천
##오스만
##직할시
##리처드
불출마
세일러
초신
##리누스
두려워했
금발
##미가
폭정
용감한
디디
정승
페넌트
의령
내해
스루가
화족
비욘세
나인뮤지스
Validate
누수
##Regular
resulted
LAST
highlights
revert
##ACTION
##마감
##터로
##수에
온실가스
##소통
saw
##관찰
풀기
유즈
##block
inclusive
3500
dis
##네이버
##엣
변위
briefly
##㎡
Awards
##하와
과부
Kim
향유
생명력
##연주
##관인
ClientVantage
JPR
광양
초인
해로운
얼어붙
##화합물
##아름다운
주치의
문맹
자꾸
미츠
벌어진다
"**
상주시
이괄
리타
트레일
유명하
동인지
삼국사기
쓰였으며
바바
##꾸
대장균
조선조
데카
괴로워
노트르담
블랙번
##라바
##岐
봉신
고야
당상관
지린
바니
카자크
##배수체
옥개석
theappropriate
Begin
reload
##prepare
isused
시킴
세분화
소명
##DT
##cnt
청취자
##340
우발
##동료
##4000
맞췄
신청자
SVR
posted
##반환
##지선
CURSOR
관측소
쓰루
겸한
##닫
##진하
JYP
오븐
subpartitions
외양
Dark
영락
우에
일찌감치
김포시
유도체
에디슨
폴란드어
디시
평창군
지친
지온
대수학
융성
##이소
순회공연
##協會
오른팔
##1863
##보스토크
퀘
코나미
공민
##위스
위스콘신주
##건륭
고트
야유
##벨벳
##결핍
관음보살
##영화상
##레알
송강
퍼킨스
팬아메리칸
##쾌속
decrease
af
##인정
##업데이트
DIMM
composition
outcomes
excluded
Beginnings
virtually
cp
248
arises
textual
##부팅
provision
stateless
##시스템즈
##소단
풋
##142
##153
들인
수완
대작
맞춘다
762
하수
##보사
건재
스모
잃어버렸
##사찰
덱
##부지
클론
성안
ClipsAndTacks
효고
##지질
##진구
##메탈
##교양
운전석
영락제
소국
남북한
물길
##윤의
라그랑주
무도
위문
식욕
성전환
리보
시어
미나토
##진리
##주교
##燮
미즈노
재경기
##斯
스노
초음속
1759
뚫려
요크셔
은총
##帶
우거진
사하
##庄
##가요제
블랑
체로키
안세이
##법정
##ss
##담기
##실무
correlate
##소셜
##플러그인
##reply
명실상부
XSD
777
##SMP
시리얼
downloading
sys
Plugins
wild
inspection
##Pharos
상술
자칫
초승달
전각
완주군
##씬
##동자
##혹
배차
##POP
##도전
##구경
##장단
##설과
내버려
##덱
##邦
치욕
배재
어진
입건
신랄
##坊
##코노
##이승만
고위직
옹기
본따
조어
상무위원
상형
NAD
해마
아델
엥겔스
##케르
##삼국지연의
모셔져
튀어나온
칙서
##緣
##阮
우메다
문하시중
불계승
신춘문예
advance
SQLstatement
##뷰어
##용시
##현존
CHINIT
sizeof
정합
sleep
##으신
AJAX
disables
자연재해
거듭나
semantic
스탭
##Customers
concern
부정확
수십억
출고
##VM
coupled
receivers
##cate
##아키
##OUTPUT
##Alive
##유일
불림
귀결
##미팅
##CURSOR
##ism
일보
개회
유한회사
위크
##Courier
갖은
교점
치사
세라믹
올레
서산시
옮겨진
빌린
##入
##지미
수산화
##국령
노스웨스트
항변
핀란드어
다득점
스몰
막사
##그대
시구르드
외조부
파블로
시바타
전봉준
낭트
##알라
##극회
엄정화
##space
prevented
##누구
끊어진
CAF
thoroughly
##탐지
##CC
##GDP
##SNMP
mutual
decryption
##OPTIONS
323
570
의료진
화질
##킥
##260
##용지
Commission
Town
##St
##콜로
##LIST
##교과서
대주주
단숨에
선풍
자주포
보일러
manyreport
줄지
찍혀
임했
아세틸
치부
##errorMsg
##신문사
스틱
##로즈
공범
확장팩
##바이올린
##마르크
구면
푸리에
공양왕
##강변
브룩
혈중
장덕수
할복
인부
담양군
##분지
사암
솅겐
디아스
사샤
트빌리시
##튀르
반달
청화
출전권
갈라타
우마
배수량
콜로니
주박
필살기
##HEADER
exclusively
##Besides
##CF
jms
본건
책임감
##Have
inspect
browsed
##Day
Hard
##진도
##창구
나뉠
##Column
##외국
classification
방과
회절
quoted
##호에
##안과
##탄생
장학
##보국
낮출
섭외
받침대
퇴원
HBO
계산기
유권
품위
##압력
걸어가
##"><
징조
##원제
발원지
검교
동복
케네스
##民國
예카테리나
아즈
불발
##철학자
##문화방송
이복형
경비대
##노이드
파도바
아코
##태자
망토
원수가
##후군
종친
##누의
##淨
의성군
네빌
롬멜
황도대
루도
backs
shipping
##연관
Asia
experiences
manufacturer
##Persistent
##created
##480
authorize
standardized
gap
risks
##어떻
수탁
##DM
스캐너
시계열
##상실
##농도
한발
overloaded
절체
Thin
temp
While
Redo
Avg
영동군
크리에이터
##CIA
##소개
RSS
USAGE
QR
가늠
xid
##우와
##천문학
장시
##원화
넥슨
PP
DESCRIPTOR
##봐
진천
누비
살림
공덕
콤플렉스
##토마스
##장에
음각
양각
어려워졌
통가
스탠다드
영일
퓨처스
##銅
##獨
파울리
일으켰으나
텅스텐
피격
예이
##會社
##이적
##기소
크리스찬
중원소
곰팡이
장시성
##베르그
길렀
아우크스부르크
피델
거북이
괴롭혔
파이퍼
작별
부코바
딸기
명주
##가르
##芳
##만석
##兪
버스터
태후
excessive
##여대
특장
##dynatrace
##Warning
##resource
##KR
천식
##공지
carriage
Spec
1506
##alter
##나노
절실
France
오너
##소프
##San
기득
##행법
##브릿지
운전사
쫓겨
##울프
힘써
못지않
##키나
몰라
특산물
여래
네바다
##벨리
마더
수잔
##내렸
문무
중학
사부
일격
##측근
아르키메데스
휴즈
고아원
오사무
칭다오
##뻘
몬티
뉴펀들랜드
건기
집무실
썰
드레스덴
비토리오
완치
##舍
구르
뽑혀
하코다
##시랑
##현역
##덩
오카야마현
Mk
정여립
피레
트리케라톱스
초선
destroy
##스테이지
Title
dashlets
##수원시
##납부
hundreds
특약
believe
signing
##Option
Centre
Peter
abort
##조류
braces
##users
filesystems
임상시험
##NT
IB
간담회
순번
deactivated
##그랜드
##Re
##enable
들어맞
##AD
통일성
끌어올리
각급
JCO
breakpoints
CSQJU
말뚝
갖췄
##장전
안과
##온천
주범
노키아
##해발
MQCHT
스티어링
냉
##1869
1782
##二
영의
##1864
##紫
페르미온
##리타
왕망
##소총
백혈병
끓는점
크랭크
태사
##마땅
미워하
차려
유황
토레스
##に
##支
마린스
유제품
##레르
##1891
브루
티베리우스
정복자
라벤나
코모
##시집
루브르
##慕容
경당
듀이
마르텔
##총관
이재명
##교도소
아래층
상냥
보비
로버스
테베스
##시범
##비로
##SBS
bottlenecks
LD
Administrators
중이
##예시
Whether
Age
comparisons
stakeholders
##붙임
##Problem
committing
broadcast
HANA
##각각
넘어간
##핏
실외
학점
커플링
로프
거듭제곱
어우러져
980
경전차
##크래프트
외딴
응집
공공연
1624
마실
해내
##마틴
한수
대각
##수장
마술사
##피리
화순
킬로그램
##근육
폭발력
순례자
아라카와
양원
역관
막내아들
게코
맞은편
##테리
경악
달마티아
영재
남문
##護軍
로스트
캄파니아주
LGBT
수페르리가
##민사
배점
stay
chance
Enabled
Terms
##십시요
언행
##선박
invoice
subfield
##Compute
##Compare
trim
jump
##header
hoc
##설계자
##255
##EXCEPTION
Connectors
##확률
##범주
##여섯
##백신
붙일
Sites
채울
CPI
프란시스
1413
과천
##서기관
##탐사
노린
데미지
수난
시프트
형과
##마로
칭화
아이러니
판시
티셔츠
공대
연금술
쿠르트
살아온
일대기
##1893
실형
프로리그
##아프가니스탄
벌였으나
부어
지치
리보솜
완도군
철십자
넬
최신형
##吾
##누이
별거
##게르
##마타
자락
이브라힘
##始
##웨스턴
도쿠시마
에레디비시
##oracle
##순번
##노력
##
##셀로
##깅을
##deploy
adoption
천재지변
##delete
responding
##Testing
BYTE
333
핸들링
안다
##exe
##택시
소방서
##Documentation
##에어
recompile
유사점
환불
Handle
에버
기계식
올라프
CHICAGO
블러
ACE
##-"
개점
4500
도로망
Op
Pr
다뤄
##드럼
상행선
돌려받
##산화
뉘
기억력
전업
사족
일레븐
라빈
고조부
오마르
묻히
회개
##성공회
##하느님
외아들
저승
폐번치현
마스터스
힐튼
인천광역시
초계
태화
의관
조너선
##고스
##핑크
##原從
##淸州
##디폴트
##Sun
한국은행
##라이브러리
##Except
stubs
##업종
관습법
interpreter
Because
##Biz
##row
acceptance
OPTION
spot
##DE
##지분
##삭
##판정
##럴
##Learn
Writing
##Writes
금주
학제
##European
##왓
카카
드라이
970
##단체장
Summer
##CO
페이퍼
전편
패스트
수해
람다
남대문
##비자
마츠모토
컬
##보좌관
친위
판문점
열흘
##동아일보
로이스
##구름
오키나와현
부룬디
공예품
정순
막대기
휴식기
서른
##列
니콜로
흉년
모리타니
데릭
소사
부르군트
해남군
모리셔스
##시라카와
아론
녹스
헤이케
옐
주니어스
##공식전
리처즈
##Recovery
##Platform
pricing
international
currency
##LINE
##premise
##작동
Player
따릅니다
isa
##yes
##session
Reset
##1024
축산
열과
Composition
Person
conventional
##】
Committee
내보낼
spend
팟캐스트
좇
##왔으나
##광학
contacts
##close
의결권
##RTT
corrective
강인한
제네시스
Avenue
노숙
김천시
##가마
거동
익힌
##본선
크라이
신촌
마나
1590
##端
컬트
##천체
##角
펴냈
멘델
##極
##예배
철교
쓰리
침례교
주둔군
##슈타
로테르담
만두
##천황
서얼
유주
##한서
섭입
홍타이지
다치바나
좌참찬
##襄
##青
로코
클랜시
페미
##견적
시책
Financial
unified
worldwide
tracked
##cys
##신속
##알림
freely
isolate
##broker
dotted
##Restrictions
##무가
avoids
TIMESTAMP
COMPLETE
ND
##width
될지
##스크린
##XX
##JavaScript
대유행
237
QMgr
##트루
조업
과열
OTMA
ItemIndex
Charles
후생
아쿠아
XDS
작아지
##조장
##스텐
생육
폭풍우
##Procedurev
살아간다
1644
이안
인산염
균주
상아
천둥
빼어난
수용액
초전도체
##1865
청소년기
추징금
신년
이기붕
석패
교민
##지리학
##國民
설상가상
##등부
김성
##루비
브리즈번
##秘
##프로이센
함양군
산화제
##퀼
편대
요시마사
근위대
##실라
##티니
봉지
나가토
##公園
유타주
켈러
##파이널
고트하르트
마쓰야마
timed
confusion
MON
##FULL
##array
ldap
##term
SSLPEER
악천후
inclusion
재연
IA
hyphen
integral
262
304
RP
1536
##제외
accompanied
##ret
##501
##리버
찍힌
달라진
확연히
노르딕
지방도
징벌
내고
머지
베넷
§
##불량
##으라는
출루
짜리
난항
내연
설날
##만부
수식어
##경성
##레이크
길가
풍토
찾아온다
##두더지
onment
연경
##세리
오웰
닐스
정읍
1618
1760
한옥
페르디난드
##슬로
강해졌
목축
##好
##살라
보성군
성산
무스
보필
##症
람보르기니
##侍
분동
언더우드
캐머런
승문원
스쿼드
tracks
##Requests
touse
Demo
##Routing
그램
부교수
##BO
anapplication
##Ignore
##CONN
granting
toolkit
suggest
##부동산
Workshop
satisfaction
integrates
chunk
##SALES
396
theproblem
SN
커야
정중
배관
스미
##배틀
##식량
득실
금세
##파이어
SAX
##자임
##바오
샵
능히
##발사체
몽고
자가용
혈전
자랄
기계어
##사스
불빛
비틀
받쳐
낙마
되돌아갔
고졸
봉천
체형
정신병
아칸소주
자라났
숙의
##건담
말려
##泳
워렌
그리워
전도사
특검
##혈증
도바
1757
김제
제갈
케리
편도
모하마드
##집단군
보닌
토비
三層石塔
##parameter
기다린
##Spoke
##총무
##world
schemes
##priority
방재
removal
##Destination
Hits
downstream
백서
##APP
##Exposed
311
냉장고
##홀딩스
혹시
##용자
redundant
SoapUI
##dimensional
befor
Paris
공모주
기제
지정학
메인보드
##CRM
acid
##액세스
시럽
##205
광고주
##미라
빠질
동반성
검은색
1607
주원장
##1500
반자동
##해석학
위층
색출
##故
드로
초라
##우도
밝혔으나
치타
철광석
만과
후쿠
아타
의정서
밝혀진다
##求
습작
리우
사르트르
영해
##투라
금과
위트레흐트
에반
라디오헤드
양태
인문주의
레슨
##양군
불태웠
외측
##象
##사르
##兵馬
##中央
코크
##홋카이도
##管理
클러치
해적단
SCN
realize
게을리
노무
프린트
키움
##Assume
##APM
INTERFACE
doc
conforms
externally
##Pass
뒤따르
confidentiality
‘-
우량
##mteadmin
baseref
##기업체
375
Quarter
달해
##포리
##소식
##ANSI
고마
##개통
##진법
마자
##스타트
Bucket
##라야
퀴즈
꺼려
마리나
수유
라이플
가인
##하우젠
##사회당
차녀
대성공
성토
완고
##장갑
주모자
##期
군체
열린집합
구어
동구권
내심
사이키델릭
청량
씹
간쑤성
막말
금지령
세포벽
반역죄
프리덤
군축
미노루
목초지
루도비코
각막
리에주
식년
시우바
##취급자
Interaction
##else
Head
Intellectual
##ld
##종시
##단인
thatare
lightweight
virtualization
reality
MHz
frames
##090
laws
MQZ
BANT
##html
Worker
drawing
movie
저소득층
MQWIH
MQRCCF
##피크
사스
##실수
##handler
약국
소독
바이스
양안
##렀으며
스킨
쓸모
##Km
펫
형편없
프리즘
ol
스켈레톤
소신
##인형
##럽
da
후미
옌
도가
주공
진보신
건너간
순국
생식기
녹는점
기울어져
위독
본뜬
카보베르데
불신임
##堅
오시마
유복
혈장
리카르도
험프리
부검
지상군
사라센
##HIV
##宰
##輝
##向
하마마쓰
요시카
##문화사
춘추관
라싸
좌찬성
공로자
평영
나무껍질
벨리즈
살라딘
키보디스트
포르쉐
선댄스
estimated
LQ
CAPRI
supplying
suchas
sensors
##USE
##MQI
Supported
omissions
229
↔
##해운
##입대
불순물
CTRL
asthe
##227
Examine
##Confirm
##430
PeopleSoft
OUTPUT
##dbnode
LIBRARY
끌기
CIP
##교섭
가라
##재외
이재민
전광판
##SAMP
프리스타일
OracleJSP
성급
1772
끓이
##pop
편광
뻔한
**";
축전
##솔로
##브레이커
MLS
도라
단죄
다녔으며
##태양의
마신
교유
교편
##BBC
갈라졌
충절
고흐
##바드
##街
도망갔
손톱
양녀
진주성
랠리
##昇
음양
영암군
##다양체
나흘
원죄
축삭
스팅
테레지아
셀틱
듀란
##cant
Strategy
##performance
##second
Three
wrap
환급
##대별
governed
Static
과언
참관
Throw
249
VAN
Conference
ago
Computing
Optimization
Generic
281
##Intelligent
##트리스
위드
스프린트
##토큰
##Register
MQZAO
틀리
##rc
##inst
heat
profit
콜론
정평
통장
##정자
워치
샌드
접착제
숙
웰
##리호
##kt
역간
미네랄
투과
공동묘지
이변
##정복
정부인
화형
분신
병설
폐포
실내악
테오도시우스
영도
한랭
산동
귀납
사들였
내력
##차르
부군
공포증
울리히
기거
안무가
지토
##하르트
##Overview
끊어졌
##시공
##퇴직
##Model
mission
<->
preparation
##BROKER
대민
bypass
충원
##container
redirection
parses
decides
##터치
감도
SLM
9999
Publishing
confidential
넘어갈
##Queues
ctx
299
춥
Flags
택배
속속
예매
Wall
##crossing
국책
전화기
글의
여행객
바일
##의존
##아랍
AWDS
세율
메이플
##serif
변칙
카나
선분
NFL
동역학
콕
중서
##평론
흘러드
신간회
열반
즉위식
영접
번번이
미소녀
총연장
협궤
범어사
mRNA
대동맥
지요다
##버니
스키피오
##袁
안무
##兒
##나비
현령
##마군
##chem
##錦
평양직할시
정상부
##夷
1609
호국
텐트
시전
브라운슈바이크
옹정제
다우
마일스
에노모토
다카사키
헤이시
##슬램
##트리오스
##왕전
바야돌리드
다승
reduction
폐해
im
한시
pc
##TS
양사
Docker
##Typical
variant
simplifies
banner
precisely
관계없
scheduler
##별첨
Customization
<<
##수표
손익
##SDS
Range
이뤄지는
privileged
##아울러
##신분
트랜스포머
접지
##아내
잠겨
addr
##신보
설파
진하
##비어
##사과
깨졌
배급사
응모
##변이
##용사
황태
잡아내
간선도로
보소
μ
변속
envir
레그
공공연히
##오페라
군내
##종족
핍박
##誌
관음
도굴
신사참배
##大邱
복숭아
##旗
시해
빙그레
민병
앨라배마
마가렛
관작
우에다
펀자브
아르테
WBS
ONE
주소지
소홀히
인사이트
modifies
discards
Aggregation
securely
##DES
delayed
244
##매니
XMITQ
노령
쿠폰
##사무관
新
뚜렷이
##스마트폰
더빙
Syntax
찾아보
paging
ADO
한계점
역부족
방편
##TOPIC
새만금
Earth
라스트
##치는
선보여
통한다
Woman
챙기
아프리카인
##산기
##미스터
##조선일보
##호인
노년
epository
강동구
##줘
씌워
삼성그룹
냈으며
웨일즈
거스
보수주의자
다녀오
계엄
비스트
지나갔
부주석
모하
참판
철군
토후국
이홍장
아리마
싸운다
특공대
백군
암세포
외할머니
코네티컷주
윤석열
소현
호몰로지
만력
##전투기
야마가타현
헤비급
PSV
쿠루
UFC
multiplied
Always
Insight
##장시
##템플
solid
##samp
sh
registering
PROPAGATE
Cell
JSF
연혁
Supply
##컨설턴트
LIVE
##Consumer
Shows
##셈
##Top
revisions
심해졌
문부
##She
##지각
##310
리에
감속
홍주
바라볼
우선권
Precompiler
##폴드
인제
구청
모듈러
타이머
사철
장력
##1872
이끌려
한산
여전
양주시
lb
수영복
카디프
수세
트랙터
선산
남침
따돌림
찬미
##마니
일으켰으며
WWF
조광
##왕자
강직
석의
속칭
##다마
문화부
##발리
평가전
헤로도토스
좌익수
섬인
매겼
편수
##곶
폐선
김종
비밀결사
병참
병장
밋밋
화엄
히바
리베라
##承旨
장경
행선
예장
배교
로니
NXT
##증이
##국내외
##롯데
메세
##부천
troubleshoot
whenthe
PDSE
242
##Below
위기감
285
wizards
247
재배치
##145
##147
newline
##str
Initialize
clicks
ultimately
pushed
noaction
CORE
넥
Predictive
유니콘
태동
1616
##올림
MiG
##라데
견주
격인
약수
수서
조리법
엇갈린
비장
원호
##펄
오레
배움
갈고리
리얼리즘
요시오
두루마리
오랑캐
저격수
교세
연해
라부아지에
극좌
철원군
맡아보
다케
노런
##厚
양아버지
서양인
브리타니아
바쳐
프레이
방랑
모란
신디
토라
사성
도네
##城府
고쿠라
혜종
##존상
##순환고
##읍성
염전
권신
원담
##주머니쥐
체급
卷
실비
##Router
arrangement
eliminates
hex
bill
##예금
Chinese
특례
obtaining
Retrieve
##니트
예산안
집중력
die
##Introduction
##6000
PFM
마칠
##데일리
급부상
코디
부동소수점
찾아다니
수정안
포커
택한
##실질
##트인
돌아섰
굳히
얽매이
그랬던
고배
##진실
##올린
의미론
1526
각계
##해안
입항
통달
캐슬
##방영
압수수색
목도
되살리
반장
블룸
남겼으며
아사노
석회
구파
인현
구라
외세
##球
통곡
업고
##蔵
호르헤
바르바로사
혼슈
##샹
올빼미
팽팽
일러스트레이터
스텔라
##麗
하시바
간에이
하리마
사라고사
육식성
루빈
위너스
볼프스부르크
min
##보험료
##이중화
##TTA
##강력
전문과
산업별
단의
##https
292
##내외
##인에
고해상도
submission
물음
매끄럽
알선
##175
defect
fills
##MODE
UNIQUE
Salesforce
알아낼
##쿠바
SATA
기다려야
##무관
스루
풍선
일어
트러스트
##잠수함
청도
트윗
연성
##진에
스에
ROSE
태반
##1876
1637
##sans
##서북
코스타
##사변
Saint
신혼
##클레
단맛
야산
자유민
마지못해
##동해
유리수
그건
참혹
##1892
##則
공수부대
월간지
베이루트
사미
##김일성
코라
버팔로
출신자
광기
약재
##타케
단테
유인원
게릴라전
##潤
마르티노
##토이
##악마
아미르
알프
가고시마
##衣
엘람
구레
사우론
사진가
귀위크
남우
전기철도
마도카
##전개
도용
Opening
##Subscription
##Clear
취해야
##메이커
폐쇄성
##휴가
MQPS
##혀
##Site
##수많
스트링
증권사
##house
Major
클립보드
공감대
Throughput
##204
Death
MCAUSER
denoted
415
##싱하
prede
geometric
봉투
이정표
##141
Women
##게스트
가진다고
##233
패딩
##라스트
포항제철
##벨기에
극소수
##픽셀
지의
##수반
##클린
스톡
##보스턴
중등교육
아리랑
##비서실
1580
앰프
왜건
불가침
벗겨
##합전
##프랑스어
##自由
대륙성
감격
조계종
꼭두각시
캐럴
##國際
앤젤
귀도
웹스터
##드웨이
기무라
육조
##経
버몬트
귀부
##문종
역전사
대화재
##＞(
##世子
##坡
객사
충숙왕
윤선도
난부
이와타
앗딘
쉐보레
케로로
##About
수취
##사본
Bserv
portfolio
government
로서
##168
CIO
RESTful
당근
개인별
##정계
ac
미연
MOVE
Price
##탈퇴
expecting
persisted
##Admin
286
306
SIEM
##볼륨
달릴
가창
서포트
trial
##endmqm
MCAs
오리엔트
Relationship
##´
actors
클수록
NEXT
바꿈
##팩토리
##인트
wsdl
##티어
##자드
610
1002
AK
목과
##˚
Justify
방목
esour
슐레스비히
지명도
목수
##귀국
하토야마
펼친다
엠마
##북위
메테인
##社會
대서
환멸
##전보국
##청춘
박물학
옷자락
이데아
과당
대항전
약해졌
홍성군
숭상
태위
요아힘
##마리오
##無明
노다
삽입곡
레니
토우
야마시타
포트로
딜러
QA
##Certificate
issuer
Dashboards
##농촌
##수치
Checking
WRITE
580
##security
##항상
Beans
##체이
유방암
남양주
##유치원
##CompCode
contribution
trap
##트레이
Confguration
##퀘
##components
##올라
뱅
부분집합
카렌
Stock
답사
tr
RESLEVEL
TLOG
접선
##상부
메디컬
##스틱
##폭포
##안녕
트인
에릭슨
##요코하마
##質
##일곱
EF
햄버거
다른데
항속
철새
##계몽
##원작
키미
민코프스키
무르
다쳤
슈뢰딩거
사색
평화주의
난류
제헌
##1886
발흥
굶주림
형량
아파르트헤이트
연체동물
흄
##숭배
힌덴부르크
자폐
전리
부대원
이국
##管
##譜
후주
중턱
핼리팩스
별시
옹주
루지
승무
초이스
머라이어
흑기군
needing
리노
장단점
##PHP
경비원
##테이프
입찰자
##일상
##벤트
CSD
##Deferred
##Topic
MQM
개이
##512
savings
Loading
umask
243
pertaining
Confirm
315
##빔
energy
China
##Peer
높인
총계
EJBs
Collectors
389
##139
대소
강습
##督
수라
토요
데크
세계인
맞춤법
저마다
##심소
원한다
성역
전경
충만
부서지
플로리
뻔했
##제곱
##1887
갑오개혁
##염색체
온게임넷
헤이세이
뜻대로
심상정
리미
최고령
아데노신
##繼
슈만
퀸즐랜드
참나무
법률가
유랑
##스미스
##카리
콘월
##마이어
티투스
1762
적진
코르시카
막시무스
##母
##寅
투팍
레이첼
##博
##鄕校
사이토카인
##立像
falls
circular
deployer
##게시판
##Born
wherever
Samples
fora
##인텔
interchange
screens
FDA
PMO
##인격
##로스트
##an
하신
ILOG
theobject
Final
yellow
tightly
theme
소액
LOAD
##폐지
금연
„
가칭
##싯
타결
완구
트릭
실례
배트
차선
synonyms
원은
부평구
savepoint
만만
호드
##뜰
##주파
##우산
총격전
신입생
통감
##Tahoma
##비행장
##허의
스물
사저
심경
라미
아시모프
##1888
음악회
미크로네시아
발명품
##民主
최면
흉터
오타쿠
미야코
1614
아카드
##毅
피날레
꼬리지느러미
동물학자
파벨
크렘린
##교포
##흘
아람어
##무르
클라우디우스
진무
부교
셋쓰
##마쓰다이라
계림
힘줄
##리사
대축일
토마
와이오밍
##보살상
레이더스
신중도
incorporate
##가변
##반입
##안함
measuring
CAM
Hash
irrespective
##MQCONN
tiles
##ICT
부치
령
문화재청
행한다
인덱싱
##Item
SEQ
MQGet
cubes
insights
agreed
Martin
전기차
이뤄지고
630
##명단
##오로
보관소
코멘트
multibyte
##교대
펀
##핚
##마법
디저트
도이치
익스트림
##장수
포즈
##역인
행선지
TNT
수적
1683
1627
거쳤으며
분류법
타이포그래피
작자
##방학
휩싸였
##戰
분립
이시영
이와쿠라
신앙심
자랐으며
힐스
##할아버지
행진곡
주치
오트
베드로
만토바
##투르
육로
겐신
##모치
##작위
페레
봉했
나라현
지석묘
제미니
히메지
Museum
시흥군
유표
##御史
파머
후이족
##링스
##站
##사라이
총열
recursive
Parent
##url
FLOW
##앤드
하청
보험금
reviewed
2048
Standards
banking
Edge
##wbi
finishes
##include
portlet
##Help
sec
제스처
무의미
versa
##Identifier
Ⅲ
Condition
ideas
breaks
소인
theorem
##골든
CUBRID
##item
군부대
왓
CipherSpecs
고액
원예

아티
기내
OPS
협찬
부러지
##유한
넉넉
역경
##정보국
문호
본보기
교포
토속
##스파
군국주의
아방가르드
##친위대
처자
서라벌
현상금
##냐며
지쳐
동급생
조선임
초상화가
단당류
슬라브족
크리스털
만리장성
끓여
산청군
오언
꾸민
송광사
##요크
티르
볼리바르
셔
성터
오클라호마주
위니
라지
스나이퍼
접영
애플렉
frequent
##NUMBER
examining
TCO
CFLEVEL
semaphore
principals
##유상
##으시
시한
##시한
##상도의
ifyou
youhave
OSS
서귀포
246
##명명
288
##동아
##MA
Traffic
##050
##211
##Self
##부속
##뮤지컬
##모사
##identi
##주당
얼리
##203
##수첩
팩터
마포
AMS
ConnectionConsumer
490
광활
Mary
읽히
콜레
축이
넘어지
촉탁
박스오피스
사칭
매니아
1492
레고
\'%
##라타
Theory
##리어스
악재
두드러진다
##가게
##術
##회화
##체스
1765
허약
이어졌으며
##폭격
##공위
연평도
세실
하남시
삼척
김종서
##돈녕
히로유키
메탈리카
입이
프레이저
##양력
입소
##현령
##啓
안수
신심
군단장
##타석
흘렸
##太平
##意
커크
##린이
##雪
이복동생
시어머니
새마을호
캐넌
럭키
##엄마
칼초
마사키
##콘티넨털
에가와
##DAY
##rw
대리점
257
shares
##Cross
injected
체크섬
Things
##sbin
Based
##Domain
succeeded
viewer
ONLY
##염기
태안
지킨
##component
dollar
451
##효로
##대표자
퇴근
립
##폐쇄
aparticular
uniform
동선
##호환
##구문
##Qmgr
네이트
Transactional
두드러졌
##비디아
DES
##우에
cartridge
헬싱키
폐사
쉬워
다이어트
##우체국
부동
##들러
##공학부
밀어
##러서
속여
도봉구
북태평양
안료
승강기
##토끼
영덕
루블
닐슨
체스터
##루시
##웬
##청원
마그나
일단락
박힌
##시어
나치스
##담배
##敎育
##항일
수공업
신랑
대월
외동딸
발레리
마리아나
##뚜
참봉
호숫가
연원
가요제
##루크
##거리의
야곱
북중미
##경비대
극본
##Louis
노역
대공포
실증주의
##토머스
##연대장
거문고
##레트로바이러스
##都監
동궁
금산군
##曰
나가오카
특진
대프랑스
##이센
추크
베네벤토
코너킥
##Subsequent
당진
알려야
##자전거
federate
IDS
##패킷
##참가자
##테마
thatis
subscribes
정품
편익
predict
##Health
##Path
enumeration
다큐
321
##획득
제호
##중력
IR
subtask
장중
science
##193
QALIAS
값비싼
Ports
넘쳐
멈출
##virtual
소화기
명당
##으니까
##이진
천이
시발
틀렸
##클리
홍대
1701
##DateTime
추축
##자회
링고
주동
다비트
시마네현
도쿠
태백
도일
조선어
##성군
##공세
애니메이터
방탕
권능
땅볼
##제군
불태워
카다피
##리다
##翁
원류
##예종
마테오
히로히토
신령
면역계
뒷발
느티나무
브레스트
교미
츄
허균
미니애폴리스
##호그
##울리
##이끼
##temp
보냅니다
##직무
Third
##Implementing
computation
간략히
##용도
thecorresponding
jdbc
도급
comprise
##데드
tmadmin
##변형
proc
동태
MDX
##send
##록과
weeks
##파일로
생년월일
##선물
디스커버리
examined
Ubuntu
candidate
앞단
##착
##182
인원수
##전문기
기대감
채워진
##간섭
엑세스
QmgrName
##경상
##IO
##212
마우
AF
##음료
STX
1570
사로
GP
부딪혔
##버려
##진다는
##억제
금정구
커튼
체이스
원성
1450
맛과
글라스
통일부
##반과
가환환
기시
복당
침략자
##헤르
서태후
##陶
약했
##Henry
##음모
가극단
피아
미덕
수륙
표피
##백인
##劇
비변사
세바스티안
##카리브
혁명군
김제시
##戒
##드프랑스
살아갈
함안군
식초
##裵
줄리
덴분
요시히사
산신
##우왕
요시키
일개미
공손찬
동지중추부사
카고
김보름
canuse
##형법
##매뉴얼
increasingly
PI
XHR
Topics
##Likewise
##확인서
##Trust
served
scanned
##습지
perspectives
Providers
마일리지
308
밝힐
일신
##Workbench
Jean
todetermine
confidence
서강대
해면
markup
피싱
##emp
연결선
##keyword
Programmer
dispatchers
MQRR
술어
empno
880
알려짐
구술
##넓
을과
주유소
경유지
성수
예절
물리량
##아시안
기즈
남해고속도로
벌집
멋대로
##롤의
마고
풀려난
##아인슈타인
##독립운동
중립국
한자음
변태
신해철
##1848
플랜테이션
##리츠
벼농사
##다드
법무관
빌레
캣
말라야
목관
플라잉
포에니
안토니누스
지파
반목
체르노빌
로페즈
기요모리
EXO
##무형문화재
연개소문
##聯
카시니
오스본
##병마절도사
응원가
##黎
루니
VVVF
##執
workloads
Staff
Fast
estimates
패널로
##고무
SSE
truststore
Trust
##사료
딛
Extensions
Deep
##Reports
284
##remove
ROM
closer
아시아나항공
LS
toa
OID
##screen
##COMMIT
##525
장내
갖춰져
Royal
##로워
##154
테마파크
##이노
Lombardi
해준
##덧붙여
HCONN
공여
##238
1779
##지원금
플로피
##신세계
통제력
##공관
Hotel
다로
##세도
불기소
진도군
##골드
조선왕조실록
에메랄드
둥
우동
##다와
##1861
매리
오줌
이상재
키운
중무장
재거
획책
넘겨졌
##勢
劉
칼레
하퍼
검술
아일랜드인
예편
디아
신시
음서
피침형
현무
야마자키
베로나
##騎
조운
신이치
행크
facilitates
avoided
##부령
전행
문서화
##import
perceived
##Specifically
submitting
proceeding
##Excel
##Feel
1527
simultaneous
permanently
##바인
Survey
겁니다
evaluating
monthly
LOCAL
worry
돌발
##’,’
##cl
##직장
생소
##Logging
assurance
Canada
##지토리
ce
Sherlock
##520
Army
##155
bw
돌파구
Agency
##비료
굵기
오존
##리마
##지우
##했으니
외신
##루쿠
월등히
해온
##工
##도라
타진
##동인
##렀을
공보
대검찰청
허가서
oduct
토네이도
매점
벅스
수전
기선
험한
솥
##부흥
재밌
##러서야
강연회
##게르만
무녀
의화단
에드거
##마하
칩거
비누
태어난다
다카오
심실
멀린
쥔
보령시
##死
디오니소스
1520
안티오코스
반역자
마티아스
사보이
낙랑
##休
고메스
아카시
양말
김성근
코먼웰스
알레만
케리건
프레슬
볼드모트
당직
동호회
##보정
LC
reflected
goods
##LIBRARY
somewhere
CRLs
serviceability
##SKT
BB
exam
흥덕구
Commands
Changing
transactionality
Creates
similarity
챕터
Convert
바꿔서
초동
요령
datastore
##장벽
266
당뇨
##앨
##래공
##008
체재
351
StrucLength
circle
##Recall
Richard
쌍이
microprocessor
NS
294
bookmark
CPF
Allocate
수문
모뎀
무난
love
MQAX
잘린
정읍시
텅
##나온
빨랐
MPGW
##갈등
스티
1615
탈북자
가진다는
유공
##계단
군수품
스키장
해달
##기념사업
##가가
수꽃
질산
##광산
한국사
신동
웨버
전교조
무스타파
윈난
형제자매
피터슨
오히라
출옥
인준
광해
자연석
이교
##리나
미네르바
평단
##쿠사
트란실바니아
Joseph
글리
페리클레스
기혼
에콜
##조선왕조실록
베스트팔렌
##甘
보르네오섬
수마트라
뉴기니섬
하진
##县
최익현
##구력
##密陽
##도루
##합체
미도리
묀헨글라트바흐
미야모토
불그스레
computed
##logging
Networks
##추후
##Little
CDN
##조원
기산
산업단지
출입국
equally
panes
475
넘어온
Telnet
dummy
acquisition
##232
##COMMAND
267
302
학내
유럽연합
##CTX
cycles
##Rules
trouble
KC
프롬
##at
620
정답
ADHD
입혀
MQCFSL
Away
##097
션
주사위
Audio
FreeBSD
실추
가까우며
##곧
##인생
GSM
##쿼터
동봉
실세
1572
##Indicateswhether
미아
##IOC
장구
##전당
##군정
##개입
##혈
괴산군
버릇
급팽창
정은
오세훈
붓다
현대그룹
성금
날아다니
후량
1728
속어
작정
윤웅렬
구루
##팍
##健
##森
미케네
엘베
##기름
1764
##포병
록과
##기념물
공작령
튀코
##亂
토모
##헌종
##다라
##종착
테라스
##휴게소
봅슬레이
백국
오른발
콜트
오다큐
메가데스
융프라우
async
##FORMAT
##ISP
##위로
##Migrate
##xxx
strict
##전송이
##샘플
Initiation
##유해
##리소스
##레이저
258
iPhone
demonstration
##Determines
봉착
##*.
March
콜라보
invoker
intuitive
XX
##boolean
SALES
FX
사과문
차이나
##코인
##드레
앙카라
##관방
정진
##원전
제각기
난립
두드리
##캐스터
홀로그램
STS
다행
엇갈리
MBA
수포
MGM
##아리랑
대명
부녀자
##職
1612
모독
음계
남북국
전국구
이를테면
튀김
이심률
저우언라이
변증
##실력
일개
궁내부
김좌진
중편
##포프
##코바
호치민
##금성
오디세우스
돗
##格
세베루스
황조
깬
한림
명군
활동전위
케르
1640
삼별초
##학급
##아베
삼존
진양
페드루
자청
모식
##타코
페르디난도
##밀스
유위법
반그림자
##Cache
멱
##모델링
##IIB
##초과
##Man
연차
로보
형태소
##TMS
##사내
##Physical
Chain
##대략
Simulation
##Down
##동영상
##Manage
Too
##ELEMENT
Have
봇
관인
##161
통관
##대외연
LDIF
##중등학교
나침반
하한
분모
##호로
ED
##진다고
버디
##걸음
#/
업소
##기어
##스도
##일찍이
의구심
##콥
이주자
늘어놓
##커피
성욕
워프
본의
##1862
1608
피아트
허술
##發
범한
번트
직감
충격파
##기이
보살핌
##촌은
스트롱
밤새
피의
이인
##近
##소대
피선
응징
##싸움
하루히
돌려보냈
상복
##旅
앨버타
태양신
술라
루르
실학자
##경연
전용도로
##幸
미쓰나리
북면
거창군
시위자
종성
둘렀
아오키
리버럴
##아리아
아루바
호그와트
##LOCAL
##CLASS
##Never
##공제
Branch
expectations
##철수
##Initialize
##Related
transit
##Policy
SVG
##정밀
고군분투
번거
##일별
Monitors
사와
묵시
##인공
##sort
타깃
입점
##detail
Since
되돌아오
##성실
Stage
Sea
allocating
##Should
Most
현대캐피탈
주최자
##학관
##전압
##어선
##편찬
##AC
연합회
##라자
##단종
밀크
##골프
##아산
Sciences
떴
CBE
##'-
대덕
붐비
##NHK
천정
##1400
원초
1630
장학생
수성구
이요
##再
국가주의
중력장
##光州
벌였으며
법명
음파
백금
적대감
개화
그로텐디크
테오도르
태어났으나
진산
신고전주의
약초
아프로디테
##羊
완강
스타덤
자연법
임지
##廣州
##크리스
에마누엘레
차륜
배다른
히젠
반구
도로시
매춘부
##쉬르
실축
##父
##카베
##栗
서녀
메시아
##힐스
야마우치
바이닐
equation
drawn
원한다면
##Smart
얼룩
##Binary
##Development
theinformation
advised
differing
##프로그래밍
로그인한
adopt
disconnects
flavors
##scale
호출자
이견
##켜
EXCEPTION
joining
opposite
##의도
꾸리
타스
quit
notion
QName
Mind
##Phase
##구호
water
원대
Jones
쑤저우
##국경
MQTMC
pen
체인점
값싼
정해진다
유례
명암
##글러
비춰
남이
뉴타운
오피스텔
주춧돌
##야말로
야만
El
더군다나
팬텀
세바스토폴
서울역
##續
1530
십진법
##아지
##호랑이
순환선
헨더슨
장신
허파
헤모글로빈
##晩
면회
하얗
독립선언
##상원
인품
암트랙
##바니
배와
아킬레우스
프리스
선법
애슐리
##노보
시들
베르겐
1649
##與
##라테
황소자리
##株式
예부
번식기
이즈모
사누키
병마절도사
트레이시
괴인
##감독원
assessment
deselect
Connecting
##RLY
hands
창조적
525
Hive
##원부
##타당
grows
border
##대안
펼칠
이분법
SFR
##POST
책략
Why
##숨
quarter
Money
##134
shard
저절로
커진
Just
Berkeley
MG
빠
미술사
##어미
로이터
인터프리터
소대장
1740
증산
도처
##소위
서천
##급행
갈라파고스
투표율
노려
운문
##늘
일진
센스
증권거래소
##프리드리히
따라갔
창제
쌍극자
사회단체
발성
토륨
다케오
##宝
서화
창녕군
##궈
##²)
헤즈
색슨
멸치
옐로
바르트
벨파스트
카트린
공작원
행각
터키인
##토미
마가
무득점
위업
미쓰히데
아르슬란
##驪
##해병
##아강
공대공
스페인령
강진군
카미
##펑크
VfL
교행
발차
셀타
##사키
에스메랄다
archives
##0001
전산실
##중국어
Screen
##차년
clicked
cancelled
Letter
##Home
##AA
##Deleting
encapsulated
##실태
Models
constrained
Metadata
##매입
##Primary
##AND
students
스토리보드
세입
##소매
KAIST
가평
GPKI
특별상
나눠서
##팁
autonomous
reopen
남겨둔
lob
Or
섀시
칠곡군
##래쉬
##FA
##인기
제제
의안
승하차
##둔다
관전
토종
##취의
실의
휩싸이
침입자
공허
##짝
##VCL
##각류
기강
생겨서
시크
숨겼
벌기
##1873
##공예
자유민주주의
살균
Δ
득세
실바
도함수
##노와
바바라
애비
보디
곡도
흑점
뭉치
산개
##素
예쁜
##經濟
배운다
베니젤로스
차이콥스키
##팽
건널
##何
레미
가느다란
##고보
남원시
세네
아자이
##헛
니조
북원
메디아
##農
##밀양
##広
체사레
팰리스
수아레스
이자겸
##알프
아다치
니코
신데렐라
##Asynchronous
##Instance
##Parallel
클락
##요령
##별지
player
threats
##TRUNCATED
비상시
##Identity
redirected
##위해서
##할인
저변
수산물
GUID
##SESSION
German
Lightweight
솔리드
##파지
증분
난관
열립니다
##위생
항법
CTX
AVG
JUnit
누계
encapsulate
Interchange
##손실률
Analytical
미쓰이
Energy
vectors
##관용
잠기
QREMOTE
어학
실루엣
수혜
필치
흐리
일소
비워
Subclause
후크
밀폐
Grand
준말
##기력
부딪치
발길
1653
쉬웠
##도정
번화가
##썬
##심이
##개구리
억양
촘촘
석영
해직
리코
순진
1768
베릴륨
##舜
화평
신파
##京都
재빠르
어순
벅
큰아버지
들어설
##孔
절강
하지메
밤중
패터슨
##오에
푸가
셀룰로스
포클랜드
##라로
찬송가
##文科
이순
##1830
##교인
사울
##스틴
데려갔
포티
탈린
빨치산
##祚
영묘
##織
대간
이황의
킹스턴
난바
푸트
음성군
##정랑
욕계
디아블로
##기사단
우주인
하치노헤
쿠프
##Thefollowing
gathering
##Various
서무
##등록증
##BME
##=“
##Sending
##오래
로케
Certification
불완전
추상화
##146
HTTPReply
Mozilla
SCADA
owning
transmissions
SCHEMA
넘어오
messageflow
##장터
experts
384
plugins
##캐시
timeframe
##Zero
##포시
용융
초전도
tile
##Safe
expands
##MQBYTE
LEN
##Mark
##640
EV
성장기
307
##붙여
##정화
##열린
아세안
negotiated
##완화
존립
연약
##밀리미터
##SF
BSC
Callback
비관
수작
카리
1494
빼놓
XSQL
팡
덧붙여서
프리뷰
쾌
##주지
미끼
역내
##민속
##주역
멈춰
##관리국
인천시
ogram
1602
생동감
주택가
예술품
배설물
##치만
채찍
상록수
바랬
##뛰
ocedur
##총감
고윳값
후금
##개장
그레그
당권
반한
##부락
인류학자
종신형
안드레스
손질
군의관
##私
제럴드
말린스
몰디브
더러운
도리아
코르넬리우스
달려들
돛
아스투리아스
삼국유사
소제
매상
##쿠시
도치기
영생
허적
출루율
물병자리
팔각
사라왁
리암
divide
markers
위변
국민은행
##JOB
##ST
Conditions
##social
##행시
mqsichangeproperties
realm
validating
##수직
fork
similarly
끝자락
##disable
USE
##660
##NOTI
581
##Programmable
##STOP
##many
깨끗이
MQCXP
##교차
스캐닝
##전처
ssh
드로잉
합해
정돈
SBCS
##소와
후처
참신
attributed
Early
밀림
입맛
Motif
못지
이천
에픽하이
브레인
1755
시구
갇혔
프린
자급자족
난소
유속
도내
로터리
##막이
##약물
1565
기염
차고
1643
음극
oker
푸앵카레
아톰
##1878
멜리
코흐
##자매
마흐무드
지중추부사
시르
시나트라
제플린
사로잡혔
##볼라
가슴지느러미
괴링
뮤즈
베르크
방망이
데려와
고흥군
중군
##다비
##에스파냐
##각이
##스티븐
유자
도미니코
소노
누르하치
미코
분고
당상
조에쓰
단바
정희
##沢
케이시
수문장
마애불
네브래스카
##鎮
##惟
##배수량
팬터그래프
restoring
##mqsi
##스캔
##비에
영수증
MMS
Consortium
###,
##master
오더
할인율
일지
##간이
합니까
##맞
##이징
##display
Fact
##증기
동북아
1208
semi
desirable
⑤
##이프
##DBPut
##해요
##곤란
##대해
former
Reserved
##Assuming
풍수
MQSCO
##달성
##162
##sub
스파크
1613
##지드
##USD
롤러
GroupId
##221
왼
##승강장
399
##RC
모닝
세탁
무하마드
##NBA
생산품
도체
1528
메르켈
청구인
명승
##펌프
최전선
화차
대구시
##1300
Film
접착
상속자
##모던
토막
지켜본
##토바
세터
월스트리트
왈
조만식
##스투
애국자
##米
##로웠
와카야마현
쇠락
아스트
알마
중성자별
딱정벌레
엘라
##막부
샌안토니오
데려다
아노
홀랜드
베트남어
파비아
아인
라파예트
이름난
기독교도
쳐들
카마
들어올리
양고기
크누트
지대공
사나다
##자카
감바
난형
##衆
메인주
유루
영남대
IUCN
광릉
##린스
##心所
뇌샤텔
##Large
XI
apart
readme
Compare
continuation
실마리
##처하
##Programming
##processing
talking
광진구
직간접
퀄컴
##이이
readers
carries
##Simply
##정규식
##20000
##고와
printf
occupies
##느냐는
998
##実
dept
##MVS
##SALARY
딜레마
농어촌
HS
copybook
##증거
통풍
##′
##듣
왔었
##NE
집행부
주유
##잔디
curr
##이젠
독트린
패러
부안군
##條
##뿌리
##쓰가
##국보
##리라는
1591
리오넬
##노무현
편집인
서울특별시장
전능
공화제
##배구
구약성경
개울
부르키나파소
스카웃
신격화
칙
아리스
육신
멘셰비키
행실
물줄기
##타다
데려
쫓아냈
페데리코
헨리크
고바야
맥길
부원
##易
코브라
우안
##규슈
마사토
산리쿠
##오지오
메타크리틱
ongoing
자격정지
##필요시
사용료
복리
##ER
##GL
화두
##Drill
##″,
timely
Accept
부주의
##물량
disconnecting
manipulated
attacker
절로
>=
##산림
Director
pretty
Rich
##Communication
##슬러
840
BIOS
거실
##Solaris
Continue
710
thetable
extensible
범례
##138
##사직
sorts
buf
나눗셈
##195
편중
chained
##SOURCE
##partitioned
##모아
Al
호구
##거용
퍼뜨리
디지
##십자
Gold
##로지
##버릴
##코카
##정통
##AFC
Got
막상
라운지
체신
수트
TimeoutNotification
##왕립
##문관
코발트
우치
알아채
가드너
##하치
1670
카간
통일민주당
호남선
##紅
무형문화재
쏠
##와카
벤젠
##鼎
점령군
히파르코스
정력
낙서
##어려서
훈련소
군주국
##버트
볼링
참파
중앙집권
사들여
##고르
만하임
다당제
살라
엔리코
수호이
##원군
##미우스
기관포
격식
브란
##尼
낭인
토호
대하드라마
알레포
##친왕
##菴
콩팥
##郡守
로타링기아
갤러거
나이츠
테스토스테론
safety
확인서
개략
가교
차주
##project
considers
Stack
##만료
transports
##INSTALL
##침입
##경계
Specifying
ML
Invoice
##Stored
Federal
customizations
##desc
Argument
316
##외환
불공정
모빌리티
##공중
##191
loosely
successive
##Sender
attachments
SUSE
385
Assign
survey
annotation
##트랜스
##김해
##negative
##SUCCESS
전입
1617
Sky
##납니다
##앞면
##灣
##술부
##정치가
##대결
##㎝
##봉기
놀랄
ess
도민
통수
북문
##단총
안락
UUCP
산모
유명무실
1513
젊음
진천군
##を
##귀의
금은
나치즘
덕수궁
비로
우주망원경
##세기말
나카가와
스콜라
경시청
샤이
에르난데스
대기근
퀘벡주
누에바
키르케고르
셜록
##베토벤
볼레
나팔
순행
특무
청어
레가
Peace
관복
창극
안시
##金海
홈런왕
파평
선무
동부승지
##判官
##코끼리
콜럼
엠파이어
##제프
Blues
##~》
timeouts
##Temp
Owner
##굿모닝
##qualified
Member
Dashlets
##Prepare
##IDC
PA
POWER
Limit
ciphers
indefinitely
##Repository
인트
DECIMAL
helping
disadvantage
associations
중간자
##Ex
##Pre
##SCA
음질
##주차장
파수
독촉
orthe
arenot
Alice
은행가
crypto
한가
##;"
당위
402
##185
##People
교수진
##컬러
ee
##거점
##연설
##스트리
##中國
리버티
##실로
1550
너바나
일어서
꿰
##파동
##이명박
매몰
골고루
넘나들
##모니
##착륙
퀘이커
마우리
슌
냉대
피토
순결
명복
가르친다
마르코프
홍차
염기쌍
대궐
##문양
식민지화
에번스
파슨스
작곡자
단형
과립
노팅엄
미나
##모이
엘렌
알트
끓인
##1881
게르마니아
우생학
##世宗
천민
실비아
##굽
성좌
무용수
##혁명군
마쓰다
##熊
홍천
##게이초
함안
노토
투수진
다무라
효행
흡혈귀
폐역
나방
펜더
히고
##캇
SLBM
협시
접속자
##메타데이터
참작
DISK
consolidation
##SC
theWebSphere
yields
considerable
mqsistop
unexpectedly
delta
proceeds
##Stopping
영상물
##CP
faults
proof
커밋
##retry
돌릴
arising
##165
##720
상담원
카카오톡
유시
##sample
ebXML
##left
##301
##172
transparency
##Central
##386
##420
##금지법
스테인
FF
넘어간다
Washington
비화
405
##할까
##tpalloc
사투
임산부
제이콥
비스듬히
##개성
##삼거리
제비
1621
기로
우성
캐리어
##성우
자모
##평방
부전
1560
입방
##청문회
##〉("
소학
방북
##조국
##티베트
나세르
양복
숙부인
가극
밀렸
침강
##열전
스플릿
관료제
##后
##契
글리코젠
##폭격기
중핵
근년
튀링겐
휘장
판노니아
리나
슈타인
위암
극의
헬레나
##董
로체스터
뒤엎
가리발디
사이온지
팔츠
향로
##大師
쳐들어오
##丞
##華嚴
샨
##倫
성혼
축음기
선내
바얀
정과
##왕상
암꽃
어금니
족제비
건조림
아즈텍
애너하임
라라
오이타현
랑선
ormore
이럴
##국정원
##Checking
##196
##TRANS
870
stdout
##208
훈령
cron
*,
##무명
##Will
##계약법
##생체
##개설
##Attachment
융자
전가
##249
업자
숨길
transmitterChannel
##225
namelists
##중기
watch
uploaded
##Schema
gray
##출전
단연
통고
미정
Nov
##장판
일직선
가위
1588
익혀
##스피드
머스크
경험치
##다를
bIsEncrypt
##서방
##엘리
엔젤
##문화원
##제대
레이트
부안
척하
건축학
1745
복개
##0000001
1635
왼편
입석
##국민학교
##世界
##누나
##막스
라인하르트
개혁파
당적
지부티
브라이트
아난
의용
신군
녹차
자자
천궁
##베른
시험관
떠났으며
관악기
왕정복고
##기리
필리포
기요마사
##望
##碩
고즈케
미란다
헤이스
##江陵
평산
##성제
에닉스
##務
김태원
후지타
민속문화재
##로리
##툴바
다산
Navigation
AnyLink
##profiles
##Hot
##급대
Rename
Ajax
전자책
narrow
subroutine
##CLI
##Putting
274
##덤
하달
##닥
##저자
1440
토탈
##Store
걸러
328
Problems
##주권
산학
##UDP
##181
일전
##태도
##述
##217
##Case
##던스
열지
들여온
##접종
수만
다이아
정회원
##요가
셰이크
급등
엄숙
분만
러시아워
석고
1619
베네
##거울
##비행단
##코너
뒷산
##葛
종인
해탈
##유격대
삼도
다친
헤럴드
은하수
소행성대
##물고기
##스타드
마제
##思想
바하마
디오클레티아누스
격문
샴
사구
전법
원추
##화랑
##노포
##오노
화포
##거북
1651
부교리
가가와현
무루
비와
벨벳
##생쥐
##반승
##힝
베냉
요시노리
졸리
제닝스
임사
워리어스
닛타
DeNA
브록
믹스테이프
latch
##라이센스
원재료
따져
POSCO
equates
leak
Vendor
routers
whitespace
PostgreSQL
hover
warehouses
VCAEUE
767
지급시
##MASTER
numbered
HEAD
현물
##add
##Print
##');
자필
기지국
접두어
실생활
신제
농산
연접
BUFFER
구매력
Qt
소중히
체크카드
혼란기
##백스
##루지
이타
들렸
1707
오바
히라
보른
로자
##교가
윌리스
##마가
알버트
##내전
할례
내사
가졌으나
엽록체
##리노
단명
난동
소유스
인양
##國師
물리친
알란
빈혈
##륭
##登
##贊
아드리안
삭과
꾸란
축구장
갑상선
##충렬왕
이름자
##輪
공중전
오니
청풍
울스턴크래프트
웨식스
선전관
기념장
differentiate
methodology
덮어쓰
shopping
GPP
booted
443
##출장
##비슷
존엄성
##레이더
##title
WHEN
##Messaging
Layers
##명시
혈당
소프
후원금
##thread
##DETAIL
acknowledgment
protects
##Retrieve
##Files
측정치
##kill
resize
##감염증
343
##Reissue
찾아낸
DX
##윌
TRPTYPE
##적색
에어리어
주무
Nations
##자녀
##석학
활로
머지않
지질학자
닌
##포도
각주
버추얼
##리조트
비운
자부
##둠
이륜자동차
소인수
Songs
살아나
멈췄
톡
##要
##위가
##봉쇄
여행기
켤레
풍의
##설화
북주
랜스
하야토
##1850
아일
합리주의
흩어졌
##수용체
초현실주의
북해
꿰뚫
의령군
에덴
낙원
면했
##감옥
불가르
항공우주국
동고트
##리아노
경서
슐츠
충선왕
##學士
국학
아오야마
살인죄
백작령
부수찬
##贊成
##하목
살레
##피츠
멕
캐피
브라만
미네
##벌레
##리틀
제라드
동남동
##가면라이더
bottleneck
rolls
과태료
벌칙
공구
Historical
파서
overlap
art
›
755
콤마
##Whichever
멸실
##PGM
Javadoc
자물쇠
##질병
RPA
액티비티
willbe
swapping
Markup
POOL
##광교
conceptual
Years
sentence
317
Course
SFP
캐치
##예술가
역방향
319
##TRACE
malloc
시스템즈
프로비저닝
##Hello
Inventory
##내일
##223
##Korean
##Completion
없앨
원어
##라지
##MQe
obj
##화식
##DMB
비주류
표가
van
펄프
형평
ICC
빨
자른
일광
던질
##페스트
##고속버스
##장르
보건부
연천
진부
임진강
1645
유영
명랑
BFILES
1720
1582
군자
화분
해치백
덤
론도
AmazonS
쏴
Arena
##Die
공명당
##사사
1606
장준
##노가
##遊
중입자
뒤따랐
##  
아몬드
니시노미야
##남인
진공관
국문학
영천시
남안
새크라멘토
병리학
다당류
욘
코카서스
현세
금의
안락사
사대
앙헬
코시모
무정부
편집국장
골망
##員
슐레지엔
##사다
몬태나
##徽
철로
##疏
앨리슨
휘그당
##CoV
덤블
notices
정보주
##WBS
##독자
직종
외산
##centric
##Channels
##Grant
##384
도시락
##ABC
##어음
foo
##durable
##아무
찾기
Dual
##LEN
INOUT
알리아스
synthetic
피폭
국비
이착륙
부호화
##Environment
PV
##lived
continually
subclasses
##일임
창궐
##condition
2100
##144
##148
##좌표
가리킨
소득세
드릴링
□
에이전시
SHOW
하락세
》
990
이베이
노즐
희소
##진료
##냉전
##SELECTOR
MQTopic
훔친
맹목
총면적
치닫
세뇌
반미
음정
자유민주연합
그림책
비꼬
문학부
경의선
근일점
논박
##念
양부
의학부
창자
예이츠
대위법
본떠
회심
로마네스크
함재기
히치콕
말다툼
##摩
기동력
월동
산란기
##흙
황국
엿
임오군란
고니시
마누
무서워
##강희
영주시
콥트
포경
희종
에이로쿠
당간지주
초구
알탄
자폭
스토크
리한나
##힐드
디럭스
##아즈마
로버트슨
디지몬
콜론타이
disaster
노동부
오용
Robin
##DEBUG
".
tagging
WTX
disparate
##options
Exceptions
html
arranged
##Commands
##업그레이드
##해상
artifact
##END
##Functions
##열기
백그라운드
선금
##딥
supposed
##심장
##152
의왕시
##VMware
frst
단시간
layered
##bytes
##규약
고위급
Alpha
music
##패션
##164
미생
DIRECTORY
##Backup
slice
##급사
##연습
실직
모을
##혼용
CSQJ
NameValueData
##IV
##셉
school
선천성
##LGCNS
착상
##카바
##병기
건드리
육각형
##체육회
낙농
1769
철자법
##돼서
흘렀
외우
##대지진
돈다
서정시
할레
오스카르
핼리
남명
##창단
##率
우주비행사
그레고리력
막이
배신자
여순
##피에르
고단샤
나빴
시나가와
장모
1629
당했으며
속인
세레스
대종
송구
참지
##용군
텔아비브
발루아
##太祖
프루
혼전
성악가
산장
외도
유형문화재
##新羅
호지
"《
##翊
기모노
찰나
##무네
##尚
##다호
감무
버트
미쿠
렉싱턴
저고리
Intermediate
##소집
재실
##비단
##Gartner
innovation
initiatives
diverse
##Customize
QMNAME
해경
입찰서
Sendmail
funds
##첨단
securing
topologies
##REM
퀵
margin
symptoms
UX
335
스노우
##163
##트랩
terminator
unset
thesource
스피어
높인다
##Methods
spelling
##배당
무형
##심각
##DMI
##약점
##더리
어우러진
영구히
표고
##Block
##밴
##문항
*),
노하
Henry
디나르
##스탄
##이언
슬래시
기발
퀄리티
##옵
움
메인스트림
유행어
법체계
COMPLETION
향료
1455
베어
그런지
힘차
공소시효
허무
방형
##문예
케네
정교수
을사조약
##삼국
앨프리드
중시조
불포화
브래드퍼드
아흐마드
샤론
회관
모치
생강
진안
##이족
##히로시마
숭고
##튀르크
크리올
개창
허베이
##逸
쿠마
튜더
육수
우타
##注
고쿠
##도쿠가와
별자
초거성
이시이
이산해
봉수
네브래스카주
세자빈
##도마뱀
핸콕
스피
스프링필드
니시무라
달렉
restores
NORMAL
##약품
##실습
thinking
리빙
Exerciser
extraction
closest
abends
응대
가파르
##INTEGER
LENGTH
Need
##확장자
Medical
##echo
assumptions
탑승자
샌드박스
queueName
즐겨찾기
rarely
##fail
unstructured
resemble
터득
이사의
타임스탬프
순열
authors
overflow
##막대
주종
Ver
늘어난다
Voice
1001
WORK
1515
##타나
우시
##스턴트
##몬스터
##어깨
##쥔
STDL
pragma
유급
##앴
##파나
876
OCIErrorGet
보금자리
숱한
관절염
##는커녕
1583
1694
톨레도
매카시
스커트
심부름
##대학생
원기둥
냉소
##環
헌병대
##괘
기행
##서이
##악곡
##惡
모르고스
에딘
##1875
맹주
오호
##복음주의
##레온
향해서
숯
순정
콩트
감실
천주교인
본가
붕당
싯켄
##實錄
성소
경순왕
##慶尙
##지냈
나섰으나
정철
군신
##蕭
여호와
발바닥
해곡
그루브
##洲
##요미우리
베니테스
헬무트
산탄데르
호쿠
후쿠치야마
현급시
코우
놀도르
납세
BL
##물가
##거래법
총량
investments
##Administrators
executables
IETF
갈음
##대문자
paid
빈부
헬프
##Authorization
던진다
혼선
##Result
XXX
##are
##재직
실무자
##Answer
##-(
유스케
케이티
Sending
575
backlog
##증자
##Old
##액티브
##略
##量
##애니
##수역
##지간
Land
Unknown
Mgmt
##교과
##스팟
##쟁
수용자
이용은
핵과
선반
지휘부
##타지
니코틴
진력
장제
##모터
제멋대로
##화력
맹인
부총장
Louis
애국가
##轉
성신
초속
가네다
##당파
퀴리
##우당
##점령
에워싸
##재즈
도감
1675
##坪
환국
괴한
브렛
측선
서늘
##미티
⟪
전서
병석
##총재
바그
징용
의술
1525
지기스문트
통나무
성제
알래스카주
##대대장
분비물
##太守
양광
칠리
히데타
선덕여왕
주경
오로
##감찰
단층대
레인지
##빙판
메이스
스테파니
assess
##Doing
##Tag
##Dead
##common
welcome
MQJMS
dispatch
##오랜
##Scroll
EXTERNAL
##SVR
295
##인계
##비나
Optim
##APPL
장애자
Roles
workaround
solving
##Alter
band
handy
##업소
##성현
##RDBMS
Rows
Wild
##도로공사
지날수록
##유치
렘
자이
##노출
올려져
궤적
노보
##체전
키울
토픽
1555
##붐
싸이월드
인화
##MC
##보행
초창
내과
구보
985
##\'
약식
##조직법
카페인
레이먼드
##FONT
##리라고
리쿠
도화선
중경
1730
유라
오데사
왼손잡이
훔볼트
주향
들으며
##모래
예과
##妙
마사요시
##천주교
쑨
캐롤라이나
##이아
##進士
우계
롬바르드
##아테네
경례
보스니아인
아르고스
파열음
약혼자
유려
반쪽
##紹
이족
프라이부르크
건안
아케치
##東國
##몬트
잡식성
키라
호자
##카마
나카지마
맥라렌
아토스
망주석
책무
벌금형
##스텝
##Must
negotiation
MQCB
mixture
##컨테이너
소상
##Enables
236
withdrawal
##158
PARSE
##literal
stability
433
##종전
##정전
associating
Envelope
recommendation
고령화
##기술원
EX
##지령
나날이
##이르
ver
Numeric
infinite
constantly
eliminating
##Great
359
구주
##이사의
closure
지갑
preprocessor
decremented
BK
RAR
FAILED
ObjectQMgrName
급식
인신
##권역
바구니
##퍼스트
##싸
##피드
##King
2200
'(
1589
##국무
번번히
움푹
##호조
내서
갈대
연역
Championship
버틸
1721
제논
##다우
광우병
##도트
샐리
##지름
##편하
##체조
##작곡가
녹여
살의
투데이
##Edward
##우라늄
유카
성비
식인
똥
##參
자헌대부
전갈
비례대표제
애들레이드
##매일신보
합쳐졌
不
##요정
올림포스
##레와
큰곰자리
##巴
몸매
시적
개역
트레블
완장
논픽션
해학
위신
노장
말갈
질렀
##키아
##乱
주희
뉴햄프셔
진종
계율
요네자와
##스테드
##了
##대승
Beatles
레흐
##지평
수족
##어시스트
##이글스
니코니코
비신
##ITEM
##content
##사회단체
Small
##CONNECT
industries
##텔레
##Verifying
부가세
saying
##이메일
crucial
preventing
PRIMARY
직제
##변국
261
Duplicate
기하급수
커리큘럼
나타
JVMs
Invocation
constitute
소폭
KIS
touch
##레이어
스니
인라인
노련
##습
에지
##Super
지킨다
내려서
Oct
425
##국기
심장병
##동서
창설자
조가
에디트
축사
직영
조난
##rcv
1611
들어야
모양새
순도
도살
발견자
1601
##신과
##숀
헬리
##MQHBAG
요란
패션쇼
##특전
권좌
몸짓
##　
안겼
##Karl
##미스트
신채호
##유년
사정거리
##신민
활약상
정우회
##탈리아
스완
내막
인조잔디
빙하기
##말리
##琴
여공
피츠
##阿彌陀
헤매
나오미
루카셴코
##로이
정육면체
고양군
##크림
덴무
화단
##雅
니시노
##리니
처소
수액
라피
##세월
노바스코샤
수도자
카자흐
황주
유격대
하카
파이크
슈비츠
국민주의
조승희
기요하라
코스프레
지드래곤
diagnosing
반올림
##기술료
벤치마크
##Month
##스톨
##Developer
##Nothing
delegate
highlighting
##Assign
whichever
##143
##시각화
울진
Include
268
##Effective
expert
##depth
Feature
Follow
shortcuts
##구청
modular
verbose
##북로
summation
670
Fall
##Usher
French
##가우
시진핑
Alliance
##207
스테인리스
Approval
##다기
CCDT
##CRYPTO
##트라이
재구
남동구
SPIRIT
wasexecuted
색다른
여길
##부진
##유령
플립
가업
##닭
강대형
매너
연구회
##간지
콧구멍
인두
슈나이더
##篇
도깨비
##타격
##1840
열성
자유시
##무렵
후렴
고이치
왕도
후쿠자와
샌디에이고
오사
##링거
페소
##광복군
##骨
##스탈린
북극성
Heaven
김정희
데인
타라
##豆
##罪
비비
라테라노
우이
사공
##해방전선
금당
다르크
여제
스타스
##cache
manipulating
파운데이션
로거
##큐브
##인다
채운다
bugs
VB
MsgDesc
##보험의
usr
##반려
theprocess
Defining
287
##때로
##해킹
Mining
tailored
Maps
visually
슬립
떠돌이
varray
상습
submits
##Ability
Loan
##Reduce
didn
flight
unaffected
begun
민수
acknowledgement
옴니버스
##커버
컴팩트
He
요점
subtasks
MQDH
MQCTL
북한산
##기분
조형물
견학
서핑
베어링
텃밭
직장인
##유명
승승장구
필러
집게
검진
dvoid
전분
##사부
변덕
반세기
놓여져
##미즈
Queen
우분투
약해진
수보
카펜터
##코시
개리
후스
##시바
신해혁명
황교안
야코프
코언
쇼토쿠
백부
윤봉길
퇴폐
콜리
##흑인
청도군
주형
아이오딘
질러
절기
##Les
##비늘
꿀벌
왈라키아
##1789
탐페레
##振
아우렐리우스
분봉
라시드
부추겼
더위
죄악
회령
일문
##杉
##쿠지
로주
매립지
권속
##牧
##禧
마쓰마에
데와
##忍
장흥군
##飛
츠빙글리
##사막
등애
옵티머스
##캐롤라이나
자유지상주의
##링겐
##척탄병
##煩惱
Does
##DRM
##선거관리위원회
##③
contracts
##＂
flowing
##runmqsc
##DR
##INTERVAL
둘러보
마스터플랜
##Naming
unattended
Subscriptions
EVENT
전자파
ExceptionList
Declare
##=’
JK
assemble
##Hardware
문항
bars
##소자
퇴행
펌
##References
Signed
Compression
근면
다이얼
JTS
Short
##무효
##Low
eliminated
thebroker
makefile
##주서
##wait
Minimum
##공은
국산화
##199
##222
transforming
에뮬레이션
로더
##최상위
##츠와
##Android
##HEAD
엿보
집합과
##ANY
수발
CipherSuite
금기시
##종별
Study
##Agentless
##Distiller
GNOME
##TEL
억불
에인트호번
카디
부력
##램
스파이더
##삼각형
가맹국
파괴력
##드래곤
장마
네온
##외곽
긁
##Saint
##부근
무시무시
허니
##베이시
접사
한라산
인심
1674
##에이스
그토록
상도
제소
경공업
진화론
탈영
폄하
##柴
그분
단양군
제청
한국일보
##호쿠
출두
테디
하반신
생원시
태양풍
##자장
갑작스레
이바라키
##꼬마
팰컨
져서
뉴먼
다수당
##사역
헤어졌
##難
1712
수병
남강
고릴라
흘러들
중층
냥
자치현
##끄
요시모토
아라이
나이토
삭스
만민
증득
##교육학
위턱
##돌고래
손견
작용소
배기량
메이드
네우스
##우먼
김택용
avalue
간식
임차
회의장
URIs
##단점
cold
Expiry
##리문
##PurePath
##주전
kit
mathematical
WMQI
##품종
additions
##Element
blog
checksums
출력물
caret
298
##키트
숏
##159
prime
피플
##House
anew
미적
positional
transparently
##Similar
ESXi
employ
##싸이
1714
##Alias
XL
바라본
주춤
##black
##체인지
##역전
MOJIN
LPG
##쾌감
화사
##시내버스
허수아비
특산품
덕택
나눴
라다
##한국인
영제
##름
더러
백범
단편집
##교와
줄리안
##버거
본적
티토
청진
##楽
프리마
서예가
민란
매일신보
개헌안
베네딕트
알렉
그렉
재흡수
오이디푸스
##리투아니아
##렸
##유고슬라비아
중학부
집터
양치식물
칼럼니스트
알랭
##照
##濟州
발아
살인자
##芝
사가현
##돈의
콘스탄스
카르텔
키치너
영암
비숍
통조림
음주운전
##昌原
더그
상산
브레시아
##존슨
BGM
마사카
##Waiting
##lled
recovering
부서장
여비
##강령
중요시
JOIN
Duration
deeper
rolling
COMMAND
강소
##enterprise
개인정보
##Retry
271
periodic
adhere
##Initial
##262
wrapping
bigger
uuid
rounded
placeholder
traffc
##167
스위칭
##제재
integrations
##추천
##점인
LinkGet
Into
associatedwith
tied
retrying
##aware
즐긴다
sizing
Bob
getter
외경
##목포
##직전
가정과
##first
군사용
Customers
DEC
##타임즈
##텍사스
유로존
고음
ECB
titled
##세관
##214
##DEST
울진군
##};
하늘색
##속국
도시바
좌상
##총력
##카니
##부총리
##헥타르
1471
처사
아파
corr
등교
##맂
홍역
차일드
크라이슬러
위인
다닌
이학
불거지
유언장
##겹
정연
원폭
집정
볼테르
플리니우스
##총동원
이슬
냄비
미타
##청년단
교호
주격
봉건제
1540
실론
##찐
스몰렌스크
##翰林
스퍼
결백
학풍
##연군
사노
##蒙
홍백가
중수소
망명자
##오키
사타케
타수
도야마현
##번주
청백리
기흥구
데비
더럼
전패
백병전
##린다
클로버
벤조
자오
북키프로스
관방
미하라
세레소
헤르타
##NHL
adifferent
CACHE
slots
##어떠
##PCF
##ENABLED
갑의
Msiexec
##통사
##산역
##Private
distinction
276
##검정
Choice
마친다
mounting
unusable
embedding
##호흡
소산
293
373
피해야
District
DE
##BYTE
383
ExitResponse
Synchronization
thevalues
발암
##주선인
역참
1234
##피해자
미해결
직할시
##무를
운전대
##RESUME
Clause
웅덩이
PVU
501
##인척
Season
오지
페니실린
광구
##상회
편승
##슐
➪
레이드
##빗
마음껏
기화
##183
##방출
##동산
사직서
용례
옮겨서
넘나드
TransactionListener
라며
MQMON
이대로
요로
##관절
천상
도수
신나
##코미디
##인데다
셉
##거로
중정
##콜레
건너와
창간호
##양성자
램지
연방제
카를루스
파스퇴르
우드로
탄식
서대
1634
코지
##히틀러
오프사이드
스토아
양감
코린
##詞
##薛
자코모
톱니바퀴
툴루이
##聲
챈들러
일리리아
Rain
흉
##衍
레기
파티마
코뿔소
사액
수운
잔잔
장공
남인도
돌기둥
동두천
##〉)
수마트라섬
루가노
##參判
롯
승차권
쇄골
타카
미즈키
레딩
로리타
조훈현
##스피어
conf
Fabric
consistently
adjusted
##-->
##NEXT
MEMORY
##보낸
theerror
##Increase
##LANG
슈퍼컴퓨터
농림부
##UN
populates
##URI
bitwise
PPP
FIX
truly
yield
Learning
##Avoid
##Metadata
annual
##사업단
##저작물
##전류
vulnerabilities
mass
lots
##env
Monday
##광배
1632
액면
##157
##우로
##게임즈
##안성
le
##오전
ILE
##시보
파푸아
일렬
##VCAEUE
승수
Symphony
muscle
##쓰리
대충
챙겨
롯데월드
이화여대
##구청장
submap
1756
구급차
인내
##남녀
색칠
DSM
장계
관영
포부
##고향
렙
vMA
1628
돋
천공
금수
재규어
치명상
##실리
공권력
나일론
##역정
해양성
##해산
파송
티아라
오드
페놀
교조
로웰
급진파
병들
자상
Champions
웁살라
이치조
장성군
사도행전
소조
레오폴
사마시
관상용
빈라덴
성시
##般
##락스
태원
스포일러
##흐트
포가
##사령
샤를로트
진보주의
가금
도량
입조
마그
경복
##수군
##하리
해냈
드와이트
정선군
덕흥대원군
고등관
호시노
덩굴
풍산
오구리
올가
신천지
단다이
##구사론
##Transactions
##소방서
suggests
##KIC
##윈도
551
##Summary
##격지
앞세운
##234
##187
760
##Everything
broader
TEXT
increment
Perform
JServer
Troubleshooting
SVN
DSP
##eSQUARE
##게이트웨이
##Handle
pCompCode
##갱
Alerts
##연수원
culture
canonical
booting
공집합
무인기
##혼란
덧붙이
##자치구
여력
##스턴
##칭하
subtotals
고려사
##endian
잘리
Am
Studies
##의자
WOLFSSL
##묘사
밀리언
두건
종지부
##마이크로초
##라오스
##평화통일
블라
데일
유향
컬리지
수익금
##벗
##여당
역수
##펑
##해피
##로렌스
가해진
##푸드
루즈
멋
양천구
치프
##國家
양민
보름달
상보
구국
JTWC
한국식
어로
을미사변
코드네임
물러날
야마나시현
마테
캔버라
##거스
프로메테우스
##스티스
홍성
테무
과보
##밤중
샌더스
요시무네
##滿
탁발
후쿠야마
사마소
오야마
신토
TBN
##問
##洋
김덕령
행장
프레스턴
##베츠
제레미
##터빈
늘어져
##발레
세로토닌
스플리트
다코타
시게오
정명훈
김연아
##구마
##목적물
스프레드시트
Username
unlock
CAD
SupportPacs
▶
스트레이트
whichthe
wrote
체벌
공역
전계
##왜냐하면
##215
FAQ
accidentally
##SPACE
greatest
##network
Prompt
이연
APAR
780
##management
inhibit
Namespace
상수도
오피
##Force
가르칠
셰프
##소나
SubName
99999
쪽지
Our
Middle
그렇지만
##플레인
##개동
youare
##WPS
##836
Toys
트롤
금천구
라이드
소책자
퍼스널
AggregateControl
지지부진
이어집니다
웬만
subprograms
신드롬
서두
Say
##환승
##자루
금상
##결핍증
분자량
부산항
가평군
돌아서
NK
성호
##프레스
재계
내측
γ
인선
##반지
##고추
본류
주이
갈루아
##마구
마그누스
게슈타포
우고
끈질기
스테이크
##신학자
모니카
마르티
문리
##군단장
위르겐
자야
게이힌
괴벨스
크루스
금서
진성
의열단
##도프
치장
##綠
카노
담가
계면
당나귀
리카
범종
카브레라
처녀자리
올리비에
케라
샤흐
##마정
학군
말라카
##摠
봉사자
돌핀스
레이커
유코
##Moreover
##Library
leverages
inwhich
##BACKUP
본원
COLUMN
GA
##Normal
선급금
##원구
Enabling
STEPLIB
##Developing
sides
house
몰라도
MY
우도
##명부
##건축물
##SVC
actively
##formed
virus
##Too
소수성
줘야
감독원
Cycle
Concert
법리
##공백
##자당
DPM
Counter
Hashtable
##정세
##드라이버
수초
col
ResultSet
##전시관
소시
##컨트롤러
##예고
마지
Economic
Ⅰ
DF
rfh
불러서
##센스
##보유자
OCSP
돈의
Come
##타이어
##수성
길잡이
##장자
농심
##경찰의
ㄱ
1741
notifiable
우애
##버킷
관현
第
일탈
산적
퉁
##Grand
최악
1585
열연
텍스처
브릿
지지가
피부색
청해
점원
이걸
##잃어버린
##1874
비엔날레
장유
##키치
시황제
인천항
##반트
워즈
인피니티
감화
플란
군현
##마르틴
지협
카누
오두막
불러들이
가톨릭교도
붕
왈츠
음표
##생인
식구
##忠州
구례군
##라나
##혐오
송이
격투기
##mph
도립
베텔게우스
유곽
무종
웬
석벽
카라코룸
##유키
ZARD
니나
##슬라우
치타스
##ARCHIVE
멈춘
##월별
인트라넷
##separator
depicted
BAM
##exits
트레이스
variants
##Side
environmental
newsgroups
##Moving
buffered
##인재
retried
heart
오프셋
##행정부
Connected
##¡
전면전
띄어쓰기
mechanical
##terminated
gone
'%
로지
##텀
timers
Defines
##삶
펀딩
깨뜨리
Workspace
##Apple
##협동
##금고
펠로우
관의
식탁
도넛
##신전
Mar
끼친다
주중
숙제
찬란
외자
먀
선주
Magazine
Spreadsheet
##TDS
amqsput
누군가의
검찰청
내한
1469
##조시
남유럽
1524
addev
##일러
조안
금욕
##ml
마마
##대국
형체
##논쟁
양인
선다
##1801
어두워
반찬
##하얀
교목
##國立
syndrome
불렀으나
칭한
원자량
라비
아리안
현대사
파인만
##우파
파타
국방위원회
풍족
포르투갈인
밀약
##酒
장타율
히카리
역인
스탈린주의
##도독
탱고
몸싸움
적국
공변
포토맥
노여움
즉사
진형
##권기
오라
엘레나
전투원
##화음
헤스
##복실
다카우
유두
1773
##胤
데려온
침탈
군영
##功
양공
노반
가노
하세가와
노심
메이크업
최영
봉군
티라노사우루스
##르투
##후안
사우스캐롤라이나주
세르지오
VfB
##아미타여래
##검출
내부망
전용기
상한선
##커머스
expanding
caution
quiesced
##TRST
##증대
##서면
##Modifying
372
Pentium
BIE
##슈퍼마켓
##Eclipse
##Null
EMS
SystemOut
Done
채무불이행
NTP
assembled
##덴마크
instant
빠짐없이
방금
Tech
##Lists
eye
Strings
Same
순이익
Procedures
##나눈
수일
budget
730
천인
마커스
##네임
##레이다
Williams
QuickTime
수용성
##퀘스트
채광
Johnson
##PART
파헤치
##원대
스탬프
노블
원더걸스
1713
결석
##전단
망각
삼척시
1596
미추홀
정각
##ROSE
방조
희생양
##저녁
온양
LOVE
싸워야
##Pierre
1595
1626
따라다니
예고편
쫓아가
슬프
##건대
해프닝
##須
진자
##슬리
스톨
기공식
오시
##잭슨
##느냐며
언쟁
레빈
국기가
##―)
성탄절
항구의
아이비
계양
풍년
요르요스
조산
교수법
바이에른주
##크로아티아
태산
힌디어
하저
현실주의
관상
건장
유탄
해군기지
지배권
수필가
편파
##궁도
##壇
마르크스주의자
실학
배위
라인란트
건넜
##매카트니
반다
라나
해미
파섹
앞발
읍성
희빈
이석기
로버
헤어진
레자
스폰지
##防
과달카날
SLR
이효리
##아비달마
얼티밋
오르티스
##GID
각호
공사비
##수일
성숙도
텔레콤
suites
collaborative
EQ
말일
resultant
consumes
##Validate
291
Mount
CSI
Assembler
encode
##칠레
남다른
needto
##Conversion
##156
CW
넘길
##발신
##곤충
Background
##공용
##DBGet
비인
##Life
브이
음영
fatal
insertion
TXSeries
equality
##개최
매출채권
ATMI
seeing
##Calling
professional
광섬유
##슴
ADAPTERDETAIL
광산구
Publisher
한국전력
photo
개연
무역항
##Notes
##DFT
##캐스팅
어제
##부자
확실시
짜임새
996
제곱근
행상
불거졌
##SHB
도입부
##국회의원
##프렌즈
암울
1559
##둑
##국동
입장료
비서실
밀스
가오루
##")"
해밀
##건국
리디아
하모니카
아칸소
지배인
양키
홍천군
명문가
##일합
충무공
앉혔
##독수리
동해선
여대
##여객철도
NADH
##르바
##아식
본루
소프트볼
분묘
피카소
아우슈비츠
이소룡
가즈
가해졌
직분
##想
예테보리
주교회의
##방교
폐질환
사육신
볼드윈
롤러코스터
카푸
##儒
교만
##승지
##제독
##로스터
파키
혼례
##감자
장승
정묘호란
정방
하타케야마
히로사키
썰매
색계
##보그
스프링스틴
볼스터
##노리오
##힙합
##근본번뇌
normalized
conducted
##상암동
##CURRENT
Try
ext
landing
accelerate
##cluster
SWIFT
MANAGER
isdisplayed
DOMAIN
Activation
networked
brands
##전방
##Understanding
##무시
ship
##선불
Interactive
Wi
##Child
mysql
##안드로이드
Facebook
##충전
##약관
담겨져
수정과
Forward
##종종
##Transport
sothat
##에요
증시
DataCenter
Constraint
든든
수출액
##분위
오작동
##내리
갭
##Addressing
##ALLOWED
고차
##이게
diff
##store
수입원
##Martin
히든
두세
##시온
##텁
오른편
##º
PDP
주해
##으라
##경선
ManagedConnection
##JMSException
ADSDL
과대
번호판
끌어올렸
유압
Tu
##nbsp
코칭
##편지
탈세
뱉
크나큰
데어
소부
강북구
류성룡
##1812
##Sir
정동영
석판
영이
충적
약체
카야
기네스북
통감부
퓰리처상
리무진
영변
물망
테레
사다리꼴
내렸으며
앙심
장손
성주군
##震
베링
##전해
##동일본
세이지
범고래
내셔널스
##만장이
설교자
군제
##帖
간수
신명
복병
샤르
고쇼
고트족
선지자
히데아키
아이유
잉글랜드인
##伏
헤로데
감비아
유병
아키나
애버딘
극락전
대피선
##가디언
##게리온
가즈히로
벨리댄스
derive
PARALLEL
##TIMEOUT
##RMAN
##NFS
Forrester
나이스
##MQOPEN
Postfix
ADAPTER
##TTL
consecutive
시행착오
급상승
축척
침체기
##니티
대상물
##Procedure
looping
싯
##손상
편철
Forecast
체외
TC
revised
##samples
CES
EULA
NON
MQMT
555
duplicates
Expert
MQEVO
어구
##WAN
##라든지
Maria
사업단
달기
fprintf
passwd
##BM
subprocess
딕슨
##216
우레탄
Tru
##부패
이동의
Children
##중반
##산부
rating
LT
아머
##CARRAY
옥외
스며들
준거
분교
제각각
##사립
찼
JPublisher
##Pointer
워크래프트
1761
1711
##Royal
##믈
판결문
##Johann
스텐
1655
##닌텐도
선택지
##비문
빈곤층
남발
epositories
##料
##상고
휴학
불면증
심오
로동
##백작
공비
쾨
##창한
질식
조부모
맹렬히
사피어
열대성
물감
##펭귄
삼인산
심방
트라키
##오족
민트
트리톤
##아홉
크라수스
지냈으나
##탈리아나
##아미노
##노회
##당나라
사쿠라이
##銘
상대역
벼슬길
##座
가메야마
무라
현손
##仁川
목제
다카다
##皮
윤증
##군부인
##카시
가와고에
Lady
콜먼
브루어스
홍건
룰라
패튼
이누야샤
롱스트리트
파라디
##Synchronous
##020
auser
effectiveness
abbreviations
##Win
##MRM
기명
##올바른
Analyst
disabling
768
##특례
법인세
liability
소정
##SYNC
##snd
August
296
Packs
355
Uninstall
seamless
휴직
277
UTP
Identify
coverage
초중
##시브
계류
Sensors
334
##바를
survive
##스레드
기준점
##부제
345
내려간
stdv
##OUTFILENAME
322
##Numeric
##AT
금일
격변
##문재인
좁히
EISs
최상급
MASTER
##span
##임대
590
보호관찰
##스포트
##쇼크
USL
천연자원
##웜
Bell
나이키
송치
##스프링
PARTITION
나빠졌
ISU
철권
ESPN
막심
1661
건조물
VHS
병자
흘러내리
##으리라고
구한말
##어류
철판
##대령
운율
디펜
1688
이창호
##미드
억누르
유색
내려간다
히카루
##상대론
최규하
##1623
##聯合
프레데릭
천주교도
##散
##항성
##補
호두
##1859
탁지부
1646
차마
복통
제철소
동군연합
이누이트
보호국
드레퓌스
##元帥
어조
첩자
엄하
##오빠
바나흐
제노
동프로이센
##남편
프리드먼
##비니
단신
산길
1567
##簿
##미코토
미야자키현
유격
##段
##가이다
변두리
번스타인
희극인
아비스
##공천
##포켓몬
##五
디어
카세르타
##쥐아과
웡
필히
331
competitors
Sharing
매시
견적서
Mbps
wantto
Links
mqsichangebroker
sysplex
neighbor
##Subject
##메이저
건설업
노멀
##integer
dest
##EDI
jsp
purged
governing
UNION
ASN
correlated
acknowledge
##189
면밀히
##강국
MRI
##Tools
receiverChannel
##safe
Comments
##Implement
##Developers
spool
corruption
filling
파종
Regular
##Until
Python
##반청
##복귀
CRUD
##국정
급박
PSID
TASK
##Freeform
무라타
431
SECTION
매겨
2400
LE
합참
pInputText
##충격
AIDS
최고위
##더라
라고도
플래닛
살충제
버클
##이민
##피시
##아사히
두텁
##충주
1512
##포니
은상
##文書
##취리히
##공로자
오오
##논리학
신문인
최순
휴전선
오카모토
히데오
패티
페아노
어빙
《》,
##공이
봄의
열한
##레닌
##滅
남포
헌금
사로잡힌
버뮤다
이바르
격멸
겨울잠
최남선
##웨이트
오대호
이케부쿠로
능했
##장조
테이트
남획
공격기
웨일스어
미끄러지
손흥민
중략
차오
예천군
포퓰리즘
맥베스
블라디보스토크
바칠
##나간
##策
돌과
##백자
##強
파니
복제품
진중
##히코
##至
훈구파
아키코
조선귀족
송곳니
녹조류
아마고
코미
##관음보살
고택
호군
히딩크
리베리
사우샘프턴
##존자
캄포바소
숭녕
constructing
minimizes
appearing
intact
정무직
글귀
##예규
##식성
asa
sell
##Resolve
elevated
OI
Stopping
##mea
##Cognos
##Describe
datafiles
accepting
배너
theconfiguration
청구서
##configuration
상생
##Features
리딩
fte
NTT
##188
##storage
Signature
##MAP
tail
스톱
havebeen
##compatible
폐막
뜸
##멕스
clip
러쉬
##약국
블랙리스트
미확인
provisioning
portlets
740
노고
PCB
피곤
##Jan
##지소
rowids
Eyes
사회봉사
##선출
##남아프리카
##점프
옥천군
1510
##미트
한적
항산
탈수
##용대
유토피아
울려
1703
##아나
##입구
우주국
생활상
wholesaler
피험자
짜증
정토
##政治
양원제
버거
기노
알렉시
폐결핵
##民族
적개심
퀘이사
코돈
남만
인칭
뉴사우스웨일스
스쿼시
페르세우스
플루타르코스
기울어진
거만
##ə
바실리카
1642
1665
##어릴
헥
페테르
당쟁
##報
대륙회의
오무라
편액
##精
요충
순치
비각
수박
##신증동국여지승람
##호리
병주
황동
시사회
츠나
아커만
머스테인
rare
##MONTH
노임
급료
대당
markets
clarity
complementary
Injection
Gbps
고칠
structural
##replace
##회하
authenticates
knowing
283
326
##관세
exposes
##Size
Extract
DAY
examines
돌려준다
deck
357
보여집니다
결손
HPV
교집합
창작물
집적회로
##Region
##MESSAGE
##830
him
Partners
##혼합
writers
guard
Hospital
모성
TCB
971
##작물
Edward
##빨간
##신설
703
##냄
가야
##소설가
킷
LCK
단골
모험가
##부나
thesaurus
##로이드
달서
방진
##수산물
아라비
콘돔
방광
프렌즈
영동고속도로
샤프트
화보
후술
ITV
청원군
##여왕
##투아
UCLA
##문집
돈바스
오갔
대남
군장
쓰쿠바
부끄럽
##중학
기념사업
세계사
피콜로
하와이주
나오토
참회
한림원
멘델스존
합주
비범
니콜라우스
##레테
문학가
이경
바우어
비토리아
라카
1771
연속극
##盟
두족류
마네
안상
플로렌스
마사노리
##都督
도르곤
옹정
장화
보급선
요구르트
암행어사
침례
흑태자
남색
##몸길이
프시
식세포
##어웨이
##神道
##명나라
데프
##보수주의
완행
##forward
##blocking
관보
##NORMAL
경리
##ProFrame
##기전
##결산
##파견
Federated
259
##조명
##지문
##라메
##213
##known
absent
regulations
##red
JavaServer
rm
##used
거래처
##TA
339
perfect
##SVI
##플레이스
nm
영문자
win
agrees
##stream
telling
##blank
visualize
mart
anyway
##complete
configur
conduct
Controls
declarative
Valley
##예컨대
##리즈
##共
캐피털
##리브
지번
##훼손
마크업
일회용
최대치
##춘천
실러
사파리
##세나
Warp
아메바
살릴
초목
세일
투약
##도둑
##블라
열대
##출구
리모컨
헬로
##上海
폭언
함유량
##239
1715
Train
##중앙지
##김구
은어
에로
트렉
1573
위트
폴라리스
팔과
##영토
스타인
브레이
브룬
사티
기슈
최용건
모란봉
뭄바이
양곤
##鴻
##연전
라덴
점액
##수비
잉글리시
게일어
아르테미스
구세주
펠트
1685
##갈리아
호민관
면한
원효
##더글러스
따와
효령대군
##아르메니아
##산인
##南京
##르네
##假
패트리어트
##深
이사금
경마장
산세
소경
##우마
아오이
버드나무
도쿠시마현
번데기
##나시
고흥
스벤
미림
##포대
누르스름
탱화
unusual
부가가치세
월등
summarize
strength
##언제
chmod
mqs
~]$
##460
MTECC
ReplyToQMgr
##Submit
##volume
Ring
##Extended
TTAS
hook
dictates
##순이익
항생
merging
##모으
treatment
근력
##실증
##able
solved
investigation
GetFormError
thefile
nine
Snapshots
Marketing
##코더
행은
##파생
DateTime
##강연
moderate
백악
내다보
혁파
##APPC
디바
##Accounting
##오렌지
##손자
내구
원외
532
##환상
오버플로
##전라북도
저의
을로
애드
가증
색감
##학대
군포시
아스팔트
싸인
##자니
##불화
##고야
##샬
기념품
가히
##강한
보은군
##윅
광양시
맬
공로상
교향악
##연예
양전자
##우치
로마노
북제
독립선언서
중앙역
##방언
송가
아포
마르스
강둑
뮌스터
##오사
치지
배아줄기세포
##세균
##슌
문왕
인종주의
삽화가
안트베르펜
코마
브리티시컬럼비아주
전통문화
극작
##렸으나
치러진다
##문답
운남
朴
환공
붙잡히
상비군
크리스토
대모
##루마니아
석비
뱀의
현상학
완파
##결선
북로
##쿠마
조피
태안군
##라토
[...]
