[PAD]
[UNK]
[CLS]
[SEP]
[MASK]
"
'
0
1
2
3
4
5
6
7
8
9
A
B
C
D
E
F
G
H
I
J
K
L
M
N
O
P
Q
R
S
T
U
V
W
X
Y
Z
a
b
c
d
e
f
g
h
i
j
k
l
m
n
o
p
q
r
s
t
u
v
w
x
y
z
ㄱ
ㄲ
ㄳ
ㄴ
ㄵ
ㄶ
ㄷ
ㄸ
ㄹ
ㄺ
ㄻ
ㄼ
ㄽ
ㄾ
ㄿ
ㅀ
ㅁ
ㅂ
ㅃ
ㅄ
ㅅ
ㅆ
ㅇ
ㅈ
ㅊ
ㅋ
ㅌ
ㅍ
ㅎ
ㅏ
ㅐ
ㅑ
ㅒ
ㅓ
ㅔ
ㅕ
ㅖ
ㅗ
ㅘ
ㅙ
ㅚ
ㅛ
ㅜ
ㅝ
ㅞ
ㅟ
ㅠ
ㅡ
ㅢ
ㅣ
가
각
갂
갃
간
갅
갆
갇
갈
갉
갊
갋
갌
갍
갎
갏
감
갑
값
갓
갔
강
갖
갗
갘
같
갚
갛
개
객
갞
갟
갠
갡
갢
갣
갤
갥
갦
갧
갨
갩
갪
갫
갬
갭
갮
갯
갰
갱
갲
갳
갴
갵
갶
갷
갸
갹
갺
갻
갼
갽
갾
갿
걀
걁
걂
걃
걄
걅
걆
걇
걈
걉
걊
걋
걌
걍
걎
걏
걐
걑
걒
걓
걔
걕
걖
걗
걘
걙
걚
걛
걜
걝
걞
걟
걠
걡
걢
걣
걤
걥
걦
걧
걨
걩
걪
걫
걬
걭
걮
걯
거
걱
걲
걳
건
걵
걶
걷
걸
걹
걺
걻
걼
걽
걾
걿
검
겁
겂
것
겄
겅
겆
겇
겈
겉
겊
겋
게
겍
겎
겏
겐
겑
겒
겓
겔
겕
겖
겗
겘
겙
겚
겛
겜
겝
겞
겟
겠
겡
겢
겣
겤
겥
겦
겧
겨
격
겪
겫
견
겭
겮
겯
결
겱
겲
겳
겴
겵
겶
겷
겸
겹
겺
겻
겼
경
겾
겿
곀
곁
곂
곃
계
곅
곆
곇
곈
곉
곊
곋
곌
곍
곎
곏
곐
곑
곒
곓
곔
곕
곖
곗
곘
곙
곚
곛
곜
곝
곞
곟
고
곡
곢
곣
곤
곥
곦
곧
골
곩
곪
곫
곬
곭
곮
곯
곰
곱
곲
곳
곴
공
곶
곷
곸
곹
곺
곻
과
곽
곾
곿
관
괁
괂
괃
괄
괅
괆
괇
괈
괉
괊
괋
괌
괍
괎
괏
괐
광
괒
괓
괔
괕
괖
괗
괘
괙
괚
괛
괜
괝
괞
괟
괠
괡
괢
괣
괤
괥
괦
괧
괨
괩
괪
괫
괬
괭
괮
괯
괰
괱
괲
괳
괴
괵
괶
괷
괸
괹
괺
괻
괼
괽
괾
괿
굀
굁
굂
굃
굄
굅
굆
굇
굈
굉
굊
굋
굌
굍
굎
굏
교
굑
굒
굓
굔
굕
굖
굗
굘
굙
굚
굛
굜
굝
굞
굟
굠
굡
굢
굣
굤
굥
굦
굧
굨
굩
굪
굫
구
국
굮
굯
군
굱
굲
굳
굴
굵
굶
굷
굸
굹
굺
굻
굼
굽
굾
굿
궀
궁
궂
궃
궄
궅
궆
궇
궈
궉
궊
궋
권
궍
궎
궏
궐
궑
궒
궓
궔
궕
궖
궗
궘
궙
궚
궛
궜
궝
궞
궟
궠
궡
궢
궣
궤
궥
궦
궧
궨
궩
궪
궫
궬
궭
궮
궯
궰
궱
궲
궳
궴
궵
궶
궷
궸
궹
궺
궻
궼
궽
궾
궿
귀
귁
귂
귃
귄
귅
귆
귇
귈
귉
귊
귋
귌
귍
귎
귏
귐
귑
귒
귓
귔
귕
귖
귗
귘
귙
귚
귛
규
귝
귞
귟
균
귡
귢
귣
귤
귥
귦
귧
귨
귩
귪
귫
귬
귭
귮
귯
귰
귱
귲
귳
귴
귵
귶
귷
그
극
귺
귻
근
귽
귾
귿
글
긁
긂
긃
긄
긅
긆
긇
금
급
긊
긋
긌
긍
긎
긏
긐
긑
긒
긓
긔
긕
긖
긗
긘
긙
긚
긛
긜
긝
긞
긟
긠
긡
긢
긣
긤
긥
긦
긧
긨
긩
긪
긫
긬
긭
긮
긯
기
긱
긲
긳
긴
긵
긶
긷
길
긹
긺
긻
긼
긽
긾
긿
김
깁
깂
깃
깄
깅
깆
깇
깈
깉
깊
깋
까
깍
깎
깏
깐
깑
깒
깓
깔
깕
깖
깗
깘
깙
깚
깛
깜
깝
깞
깟
깠
깡
깢
깣
깤
깥
깦
깧
깨
깩
깪
깫
깬
깭
깮
깯
깰
깱
깲
깳
깴
깵
깶
깷
깸
깹
깺
깻
깼
깽
깾
깿
꺀
꺁
꺂
꺃
꺄
꺅
꺆
꺇
꺈
꺉
꺊
꺋
꺌
꺍
꺎
꺏
꺐
꺑
꺒
꺓
꺔
꺕
꺖
꺗
꺘
꺙
꺚
꺛
꺜
꺝
꺞
꺟
꺠
꺡
꺢
꺣
꺤
꺥
꺦
꺧
꺨
꺩
꺪
꺫
꺬
꺭
꺮
꺯
꺰
꺱
꺲
꺳
꺴
꺵
꺶
꺷
꺸
꺹
꺺
꺻
꺼
꺽
꺾
꺿
껀
껁
껂
껃
껄
껅
껆
껇
껈
껉
껊
껋
껌
껍
껎
껏
껐
껑
껒
껓
껔
껕
껖
껗
께
껙
껚
껛
껜
껝
껞
껟
껠
껡
껢
껣
껤
껥
껦
껧
껨
껩
껪
껫
껬
껭
껮
껯
껰
껱
껲
껳
껴
껵
껶
껷
껸
껹
껺
껻
껼
껽
껾
껿
꼇
꼈
꼋
꼌
꼍
꼏
꼐
꼑
꼗
꼝
꼬
꼭
꼮
꼯
꼳
꼴
꼼
꼽
꼿
꽁
꽂
꽃
꽈
꽉
꽊
꽌
꽝
꽤
꽹
꽿
꾀
꾎
꾛
꾣
꾧
꾪
꾸
꾹
꾼
꿀
꿈
꿉
꿋
꿍
꿎
꿑
꿔
꿕
꿘
꿨
꿩
꿰
꿴
꿸
뀀
뀁
뀂
뀃
뀄
뀅
뀆
뀇
뀈
뀉
뀊
뀋
뀌
뀍
뀎
뀏
뀐
뀑
뀒
뀓
뀔
뀕
뀖
뀗
뀘
뀙
뀚
뀛
뀜
뀝
뀞
뀟
뀠
뀡
뀢
뀣
뀤
뀥
뀦
뀧
뀨
뀩
뀪
뀫
뀬
뀭
뀮
뀯
뀰
뀱
뀲
뀳
뀴
뀵
뀶
뀷
뀸
뀹
뀺
뀻
뀼
뀽
뀾
뀿
끀
끁
끂
끃
끄
끅
끆
끇
끈
끉
끊
끋
끌
끍
끎
끏
끐
끑
끒
끓
끔
끕
끖
끗
끘
끙
끚
끛
끜
끝
끞
끟
끠
끡
끢
끣
끤
끥
끦
끧
끨
끩
끪
끫
끬
끭
끮
끯
끰
끱
끲
끳
끴
끵
끶
끷
끸
끹
끺
끻
끼
끽
끾
끿
낀
낁
낂
낃
낄
낅
낆
낇
낈
낉
낊
낋
낌
낍
낎
낏
낐
낑
낒
낓
낔
낕
낖
낗
나
낙
낚
낛
난
낝
낞
낟
날
낡
낢
낣
낤
낥
낦
낧
남
납
낪
낫
났
낭
낮
낯
낰
낱
낲
낳
내
낵
낶
낷
낸
낹
낺
낻
낼
낽
낾
낿
냀
냁
냂
냃
냄
냅
냆
냇
냈
냉
냊
냋
냌
냍
냎
냏
냐
냑
냒
냓
냔
냕
냖
냗
냘
냙
냚
냛
냜
냝
냞
냟
냠
냡
냢
냣
냤
냥
냦
냧
냨
냩
냪
냫
냬
냭
냮
냯
냰
냱
냲
냳
냴
냵
냶
냷
냸
냹
냺
냻
냼
냽
냾
냿
너
넉
넋
넌
넎
널
넒
넓
넘
넙
넛
넝
넞
넡
넣
네
넥
넨
넬
넯
넴
넵
넷
넸
넹
넻
넽
녀
녁
년
녈
념
녓
녔
녕
녘
녜
녞
노
녹
녺
논
놀
놈
놉
놋
농
놐
높
놓
놔
놨
놰
뇌
뇗
뇜
뇠
뇨
뇩
뇬
뇹
뇽
눀
눁
눂
눃
누
눅
눆
눇
눈
눉
눊
눋
눌
눍
눎
눏
눐
눑
눒
눓
눔
눕
눖
눗
눘
눙
눚
눛
눜
눝
눞
눟
눠
눡
눢
눣
눤
눥
눦
눧
눨
눩
눪
눫
눬
눭
눮
눯
눰
눱
눲
눳
눴
눵
눶
눷
눸
눹
눺
눻
눼
눽
눾
눿
뉀
뉁
뉂
뉃
뉄
뉅
뉆
뉇
뉈
뉉
뉊
뉋
뉌
뉍
뉎
뉏
뉐
뉑
뉒
뉓
뉔
뉕
뉖
뉗
뉘
뉙
뉚
뉛
뉜
뉝
뉞
뉟
뉠
뉡
뉢
뉣
뉤
뉥
뉦
뉧
뉨
뉩
뉪
뉫
뉬
뉭
뉮
뉯
뉰
뉱
뉲
뉳
뉴
뉵
뉶
뉷
뉸
뉹
뉺
뉻
뉼
뉽
뉾
뉿
늀
늁
늂
늃
늄
늅
늆
늇
늈
늉
늊
늋
늌
늍
늎
늏
느
늑
늒
늓
는
늕
늖
늗
늘
늙
늚
늛
늜
늝
늞
늟
늠
늡
늢
늣
늤
능
늦
늧
늨
늩
늪
늫
늬
늭
늮
늯
늰
늱
늲
늳
늴
늵
늶
늷
늸
늹
늺
늻
늼
늽
늾
늿
닀
닁
닂
닃
닄
닅
닆
닇
니
닉
닊
닋
닌
닍
닎
닏
닐
닑
닒
닓
닔
닕
닖
닗
님
닙
닚
닛
닜
닝
닞
닟
닠
닡
닢
닣
다
닥
닦
닧
단
닩
닪
닫
달
닭
닮
닯
닰
닱
닲
닳
담
답
닶
닷
닸
당
닺
닻
닼
닽
닾
닿
대
댁
댄
댈
댊
댐
댑
댓
댕
댚
댜
댥
댩
댱
댸
덇
덉
덊
더
덕
던
덛
덜
덟
덤
덥
덧
덩
덫
덮
데
덱
덴
델
뎀
뎁
뎃
뎅
뎉
뎌
뎐
뎟
뎠
뎡
뎨
뎬
뎷
뎾
도
독
돈
돋
돌
돎
돔
돕
돗
동
돛
돠
돤
돨
돰
돷
돼
됀
됄
됌
됍
됐
되
됛
된
될
됨
됩
됬
됭
됵
됻
둅
둉
둍
두
둑
둓
둔
둕
둖
둗
둘
둠
둡
둣
둥
둬
둻
뒀
뒇
뒈
뒍
뒤
뒨
뒶
뒷
뒹
듀
듈
듐
듑
듖
듗
드
득
듞
든
듣
들
듥
듦
듫
듬
듭
듯
등
듵
듸
듻
듿
딈
디
딕
딖
딘
딛
딜
딤
딥
딧
딨
딩
딪
딯
따
딱
딳
딴
딸
땀
땁
땄
땅
때
땍
땎
땐
땜
땞
땟
땠
땡
땭
땶
떀
떄
떇
떈
떉
떎
떔
떟
떠
떡
떤
떨
떫
떳
떴
떻
떼
뗀
뗄
뗌
뗍
뗠
뗧
똂
똋
똍
또
똑
똘
똠
똤
똥
똬
똷
뙈
뙊
뙋
뙛
뙝
뙨
뙯
뙽
뚖
뚜
뚝
뚠
뚤
뚫
뚯
뚱
뛰
뛴
뛸
뜀
뜁
뜂
뜃
뜄
뜅
뜆
뜇
뜈
뜉
뜊
뜋
뜌
뜍
뜎
뜏
뜐
뜑
뜒
뜓
뜔
뜕
뜖
뜗
뜘
뜙
뜚
뜛
뜜
뜝
뜞
뜟
뜠
뜡
뜢
뜣
뜤
뜥
뜦
뜧
뜨
뜩
뜪
뜫
뜬
뜭
뜮
뜯
뜰
뜱
뜲
뜳
뜴
뜵
뜶
뜷
뜸
뜹
뜺
뜻
뜼
뜽
뜾
뜿
띀
띁
띂
띃
띄
띅
띆
띇
띈
띉
띊
띋
띌
띍
띎
띏
띐
띑
띒
띓
띔
띕
띖
띗
띘
띙
띚
띛
띜
띝
띞
띟
띠
띡
띢
띣
띤
띥
띦
띧
띨
띩
띪
띫
띬
띭
띮
띯
띰
띱
띲
띳
띴
띵
띶
띷
띸
띹
띺
띻
라
락
띾
띿
란
랁
랂
랃
랄
랅
랆
랇
랈
랉
랊
랋
람
랍
랎
랏
랐
랑
랒
랓
랔
랕
랖
랗
래
랙
랚
랛
랜
랝
랞
랟
랠
랡
랢
랣
랤
랥
랦
랧
램
랩
랪
랫
랬
랭
랮
랯
랰
랱
랲
랳
랴
략
랶
랷
랸
랹
랺
랻
랼
랽
랾
랿
럀
럁
럂
럃
럄
럅
럆
럇
럈
량
럊
럋
럌
럍
럎
럏
럐
럑
럒
럓
럔
럕
럖
럗
럘
럙
럚
럛
럜
럝
럞
럟
럠
럡
럢
럣
럤
럥
럦
럧
럨
럩
럪
럫
러
럭
럮
럯
런
럱
럲
럳
럴
럵
럶
럷
럸
럹
럺
럻
럼
럽
럾
럿
렀
렁
렃
렇
레
렉
렊
렌
렏
렐
렕
렘
렙
렛
렜
렝
려
력
렦
렧
련
렩
렬
렴
렵
렷
렸
령
렺
렿
례
롄
롊
롍
로
록
롞
롟
론
롣
롤
롦
롬
롭
롮
롯
롱
롷
롸
롼
뢈
뢗
뢫
뢰
뢴
룀
료
룍
룐
룓
룔
룕
룜
룝
룡
룥
루
룩
룬
룰
룳
룸
룹
룻
룽
뤄
뤅
뤘
뤠
뤪
뤱
뤵
뤼
뤾
륃
륆
류
륙
륜
륟
률
륤
륨
륩
륭
르
륵
른
를
륾
름
릅
릇
릉
릍
릎
릏
릐
리
릭
릮
릯
린
릱
릲
릳
릴
릵
릶
릷
림
립
릾
릿
맀
링
맂
맃
맄
맅
마
막
맊
맋
만
많
맏
말
맑
맒
맕
맘
맙
맛
망
맞
맟
맠
맡
맣
매
맥
맦
맨
맫
맬
맴
맵
맶
맷
맹
맺
먀
먂
먄
먕
먛
먝
먩
먯
머
먹
먼
멀
멈
멉
멋
멍
멎
멓
메
멕
멘
멜
멣
멤
멥
멧
멨
멩
멫
며
멱
멲
면
멸
몀
몃
명
몆
몇
몉
몌
몠
모
목
몫
몬
몰
몸
몹
못
몽
뫅
뫈
뫌
뫏
뫘
뫜
뫬
뫱
뫼
묀
묁
묂
묃
묄
묅
묆
묇
묈
묉
묊
묋
묌
묍
묎
묏
묐
묑
묒
묓
묔
묕
묖
묗
묘
묙
묚
묛
묜
묝
묞
묟
묠
묡
묢
묣
묤
묥
묦
묧
묨
묩
묪
묫
묬
묭
묮
묯
묰
묱
묲
묳
무
묵
묶
묷
문
묹
묺
묻
물
묽
묾
묿
뭀
뭁
뭂
뭃
뭄
뭅
뭆
뭇
뭈
뭉
뭊
뭋
뭌
뭍
뭎
뭏
뭐
뭑
뭒
뭓
뭔
뭕
뭖
뭗
뭘
뭙
뭚
뭛
뭜
뭝
뭞
뭟
뭠
뭡
뭢
뭣
뭤
뭥
뭦
뭧
뭨
뭩
뭪
뭫
뭬
뭭
뭮
뭯
뭰
뭱
뭲
뭳
뭴
뭵
뭶
뭷
뭸
뭹
뭺
뭻
뭼
뭽
뭾
뭿
뮀
뮁
뮂
뮃
뮄
뮅
뮆
뮇
뮈
뮉
뮊
뮋
뮌
뮍
뮎
뮏
뮐
뮑
뮒
뮓
뮔
뮕
뮖
뮗
뮘
뮙
뮚
뮛
뮜
뮝
뮞
뮟
뮠
뮡
뮢
뮣
뮤
뮥
뮦
뮧
뮨
뮩
뮪
뮫
뮬
뮭
뮮
뮯
뮰
뮱
뮲
뮳
뮴
뮵
뮶
뮷
뮸
뮹
뮺
뮻
뮼
뮽
뮾
뮿
므
믁
믂
믃
믄
믅
믆
믇
믈
믉
믊
믋
믌
믍
믎
믏
믐
믑
믒
믓
믔
믕
믖
믗
믘
믙
믚
믛
믜
믝
믞
믟
믠
믡
믢
믣
믤
믥
믦
믧
믨
믩
믪
믫
믬
믭
믮
믯
믰
믱
믲
믳
믴
믵
믶
믷
미
믹
믺
믻
민
믽
믾
믿
밀
밈
밉
밋
밌
밍
밎
및
밑
밒
바
박
밖
밗
반
밙
받
발
밝
밟
밣
밤
밥
밧
방
밭
밮
밯
배
백
밲
밴
밸
밹
뱀
뱁
뱃
뱅
뱉
뱐
뱑
뱔
뱟
뱠
뱡
뱶
벃
버
벅
벆
번
벉
벋
벌
벎
벏
범
법
벖
벗
벙
벚
벟
베
벡
벢
벤
벦
벧
벨
벳
벵
벷
벼
벽
벾
벿
변
볁
별
볅
볋
볌
볍
볏
병
볕
볗
볘
보
복
볶
본
볼
볽
봄
봅
봇
봉
봏
봐
봔
봕
봣
봤
봥
봬
봹
봼
봽
뵀
뵈
뵉
뵌
뵐
뵙
뵤
뵨
부
북
붂
분
붆
붇
불
붉
붎
붐
붑
붓
붕
붘
붙
붤
붥
붰
붵
뷔
뷠
뷤
뷰
뷱
뷴
뷸
뷼
븀
븈
븊
브
븍
븐
븓
블
븛
븜
븝
븞
븸
븻
븿
비
빅
빈
빌
빔
빕
빗
빙
빚
빛
빠
빡
빤
빨
빫
빰
빴
빵
빶
빻
빼
빽
뺀
뺄
뺌
뺍
뺏
뺐
뺑
뺘
뺤
뺨
뺪
뺱
뺴
뺷
뺸
뻄
뻆
뻐
뻑
뻔
뻗
뻘
뻣
뻤
뻥
뻬
뻽
뻾
뼁
뼈
뼉
뼐
뼘
뼛
뼱
뼸
뼹
뽀
뽋
뽐
뽑
뽕
뽵
뾆
뾜
뾞
뾟
뾣
뾩
뾪
뾬
뾭
뾯
뾰
뾲
뾴
뿌
뿍
뿐
뿔
뿚
뿜
뿡
쀆
쀇
쀈
쀏
쀐
쀑
쀒
쀓
쀔
쀕
쀖
쀗
쀘
쀼
쁀
쁈
쁑
쁘
쁜
쁠
쁨
쁩
삐
삑
삔
삞
삠
사
삭
삯
산
삳
살
삶
삷
삻
삼
삽
삿
샀
상
샂
샅
샆
샇
새
색
샌
샏
샐
샘
샙
샛
생
샤
샥
샨
샬
샴
샵
샷
샹
샾
섀
섈
서
석
섞
섟
선
섣
설
섦
섧
섩
섬
섭
섯
섰
성
섴
섵
섷
세
섹
센
셀
셃
셈
셉
셋
셍
셑
셔
셕
션
셜
셣
셤
셥
셧
셨
셩
셬
셰
셴
셸
셻
소
속
손
솓
솔
솕
솜
솝
솟
송
솥
솩
솬
솽
쇄
쇇
쇈
쇙
쇟
쇠
쇱
쇳
쇸
쇼
숀
숃
숄
숍
숏
숑
숔
숕
숖
수
숙
숚
순
숟
술
숨
숫
숬
숭
숮
숯
숱
숲
숳
쉇
쉉
쉍
쉐
쉑
쉔
쉖
쉘
쉞
쉡
쉥
쉬
쉭
쉰
쉴
쉼
쉽
쉿
슁
슈
슉
슌
슐
슘
슝
스
슥
슦
슨
슬
슭
슱
슴
습
슷
승
슽
싀
싑
싘
시
식
싞
신
싣
실
싫
심
십
싯
싱
싲
싴
싵
싶
싷
싸
싹
싻
싼
쌀
쌁
쌂
쌃
쌄
쌅
쌆
쌇
쌈
쌉
쌊
쌋
쌌
쌍
쌎
쌏
쌐
쌑
쌒
쌓
쌔
쌕
쌖
쌗
쌘
쌙
쌚
쌛
쌜
쌝
쌞
쌟
쌠
쌡
쌢
쌣
쌤
쌥
쌦
쌧
쌨
쌩
쌪
쌫
쌬
쌭
쌮
쌯
쌰
쌱
쌲
쌳
쌴
쌵
쌶
쌷
쌸
쌹
쌺
쌻
쌼
쌽
쌾
쌿
썀
썁
썂
썃
썄
썅
썆
썇
썈
썉
썊
썋
썌
썍
썎
썏
썐
썑
썒
썓
썔
썕
썖
썗
썘
썙
썚
썛
썜
썝
썞
썟
썠
썡
썢
썣
썤
썥
썦
썧
써
썩
썪
썫
썬
썭
썮
썯
썰
썱
썲
썳
썴
썵
썶
썷
썸
썹
썺
썻
썼
썽
썾
썿
쎀
쎁
쎂
쎃
쎄
쎅
쎆
쎇
쎈
쎉
쎊
쎋
쎌
쎍
쎎
쎏
쎐
쎑
쎒
쎓
쎔
쎕
쎖
쎗
쎘
쎙
쎚
쎛
쎜
쎝
쎞
쎟
쎠
쎡
쎢
쎣
쎤
쎥
쎦
쎧
쎨
쎩
쎪
쎫
쎬
쎭
쎮
쎯
쎰
쎱
쎲
쎳
쎴
쎵
쎶
쎷
쎸
쎹
쎺
쎻
쎼
쎽
쎾
쎿
쏀
쏁
쏂
쏃
쏄
쏅
쏆
쏇
쏈
쏉
쏊
쏋
쏌
쏍
쏎
쏏
쏐
쏑
쏒
쏓
쏔
쏕
쏖
쏗
쏘
쏙
쏚
쏛
쏜
쏝
쏞
쏟
쏠
쏡
쏢
쏣
쏤
쏥
쏦
쏧
쏨
쏩
쏪
쏫
쏬
쏭
쏮
쏯
쏰
쏱
쏲
쏳
쏴
쏵
쏶
쏷
쏸
쏹
쏺
쏻
쏼
쏽
쏾
쏿
쐐
쐤
쐬
쐱
쑈
쑤
쑥
쑧
쑨
쑯
쒌
쒔
쒕
쒖
쒗
쒠
쒸
쓓
쓨
쓰
쓱
쓴
쓸
씀
씁
씂
씃
씄
씅
씆
씇
씈
씉
씊
씋
씌
씍
씎
씏
씐
씑
씒
씓
씔
씕
씖
씗
씘
씙
씚
씛
씜
씝
씞
씟
씠
씡
씢
씣
씤
씥
씦
씧
씨
씩
씪
씫
씬
씭
씮
씯
씰
씱
씲
씳
씴
씵
씶
씷
씸
씹
씺
씻
씼
씽
씾
씿
앀
앁
앂
앃
아
악
앆
앇
안
앉
않
앋
알
앍
앎
앏
앐
앑
앒
앓
암
압
앖
앗
았
앙
앚
앛
앜
앝
앞
앟
애
액
앢
앣
앤
앥
앦
앧
앨
앩
앪
앫
앬
앭
앮
앯
앰
앱
앲
앳
앴
앵
앶
앷
앸
앹
앺
앻
야
약
앾
앿
얀
얁
얂
얃
얄
얅
얆
얇
얈
얉
얊
얋
얌
얍
얎
얏
얐
양
얒
얓
얔
얕
얖
얗
얘
얙
얚
얛
얜
얝
얞
얟
얠
얡
얢
얣
얤
얥
얦
얧
얨
얩
얪
얫
얬
얭
얮
얯
얰
얱
얲
얳
어
억
얶
얷
언
얹
얺
얻
얼
얽
얾
얿
엀
엁
엂
엃
엄
업
없
엇
었
엉
엊
엋
엌
엍
엎
엏
에
엑
엒
엓
엔
엕
엖
엗
엘
엙
엚
엛
엜
엝
엞
엟
엠
엡
엢
엣
엤
엥
엦
엧
엨
엩
엪
엫
여
역
엮
엯
연
엱
엲
엳
열
엵
엶
엷
엸
엹
엺
엻
염
엽
엾
엿
였
영
옂
옃
옄
옅
옆
옇
예
옉
옊
옋
옌
옍
옎
옏
옐
옑
옒
옓
옔
옕
옖
옗
옘
옙
옚
옛
옜
옝
옞
옟
옠
옡
옢
옣
오
옥
옦
옧
온
옩
옪
옫
올
옭
옮
옯
옰
옱
옲
옳
옴
옵
옶
옷
옸
옹
옺
옻
옼
옽
옾
옿
와
왁
왂
왃
완
왅
왆
왇
왈
왉
왊
왋
왌
왍
왎
왏
왐
왑
왒
왓
왔
왕
왖
왗
왘
왙
왚
왛
왜
왝
왞
왟
왠
왡
왢
왣
왤
왥
왦
왧
왨
왩
왪
왫
왬
왭
왮
왯
왰
왱
왲
왳
왴
왵
왶
왷
외
왹
왺
왻
왼
왽
왾
왿
욀
욁
욂
욃
욄
욅
욆
욇
욈
욉
욊
욋
욌
욍
욎
욏
욐
욑
욒
욓
요
욕
욖
욗
욘
욙
욚
욛
욜
욝
욞
욟
욠
욡
욢
욣
욤
욥
욦
욧
욨
용
욪
욫
욬
욭
욮
욯
우
욱
욲
욳
운
욵
욶
욷
울
욹
욺
욻
욼
욽
욾
욿
움
웁
웂
웃
웄
웅
웆
웇
웈
웉
웊
웋
워
웍
웎
웏
원
웑
웒
웓
월
웕
웖
웗
웘
웙
웚
웛
웜
웝
웞
웟
웠
웡
웢
웣
웤
웥
웦
웧
웨
웩
웪
웫
웬
웭
웮
웯
웰
웱
웲
웳
웴
웵
웶
웷
웸
웹
웺
웻
웼
웽
웾
웿
윀
윁
윂
윃
위
윅
윆
윇
윈
윉
윊
윋
윌
윍
윎
윏
윐
윑
윒
윓
윔
윕
윖
윗
윘
윙
윚
윛
윜
윝
윞
윟
유
육
윢
윣
윤
윥
윦
윧
율
윩
윪
윫
윬
윭
윮
윯
윰
윱
윲
윳
윴
융
윶
윷
윸
윹
윺
윻
으
윽
윾
윿
은
읁
읂
읃
을
읅
읆
읇
읈
읉
읊
읋
음
읍
읎
읏
읐
응
읒
읓
읔
읕
읖
읗
의
읙
읚
읛
읜
읝
읞
읟
읠
읡
읢
읣
읤
읥
읦
읧
읨
읩
읪
읫
읬
읭
읮
읯
읰
읱
읲
읳
이
익
읶
읷
인
읹
읺
읻
일
읽
읾
읿
잀
잁
잂
잃
임
입
잆
잇
있
잉
잊
잋
잌
잍
잎
잏
자
작
잒
잓
잔
잕
잖
잗
잘
잙
잚
잛
잜
잝
잞
잟
잠
잡
잢
잣
잤
장
잦
잧
잨
잩
잪
잫
재
잭
잮
잯
잰
잱
잲
잳
잴
잵
잶
잷
잸
잹
잺
잻
잼
잽
잾
잿
쟀
쟁
쟂
쟃
쟄
쟅
쟆
쟇
쟈
쟉
쟊
쟋
쟌
쟍
쟎
쟏
쟐
쟑
쟒
쟓
쟔
쟕
쟖
쟗
쟘
쟙
쟚
쟛
쟜
쟝
쟞
쟟
쟠
쟡
쟢
쟣
쟤
쟥
쟦
쟧
쟨
쟩
쟪
쟫
쟬
쟭
쟮
쟯
쟰
쟱
쟲
쟳
쟴
쟵
쟶
쟷
쟸
쟹
쟺
쟻
쟼
쟽
쟾
쟿
저
적
젂
젃
전
젆
젇
절
젊
젋
점
접
젒
젓
젔
정
젖
젗
젙
제
젝
젞
젟
젠
젣
젤
젬
젭
젯
젰
젱
져
젹
젺
젼
졀
졈
졌
졍
졔
졨
조
족
졲
존
졵
졸
좀
좁
좃
종
좆
좇
좋
좌
좎
좡
좥
좦
좧
좫
좬
죄
죉
죕
죗
죝
죞
죠
죤
죵
주
죽
죾
죿
준
줁
줂
줃
줄
줅
줆
줇
줈
줉
줊
줋
줌
줍
줎
줏
줐
중
줒
줓
줔
줕
줖
줗
줘
줙
줚
줛
줜
줝
줞
줟
줠
줡
줢
줣
줤
줥
줦
줧
줨
줩
줪
줫
줬
줭
줮
줯
줰
줱
줲
줳
줴
줵
줶
줷
줸
줹
줺
줻
줼
줽
줾
줿
쥀
쥁
쥂
쥃
쥄
쥅
쥆
쥇
쥈
쥉
쥊
쥋
쥌
쥍
쥎
쥏
쥐
쥑
쥒
쥓
쥔
쥕
쥖
쥗
쥘
쥙
쥚
쥛
쥜
쥝
쥞
쥟
쥠
쥡
쥢
쥣
쥤
쥥
쥦
쥧
쥨
쥩
쥪
쥫
쥬
쥭
쥮
쥯
쥰
쥱
쥲
쥳
쥴
쥵
쥶
쥷
쥸
쥹
쥺
쥻
쥼
쥽
쥾
쥿
즀
즁
즂
즃
즄
즅
즆
즇
즈
즉
즊
즋
즌
즍
즎
즏
즐
즑
즒
즓
즔
즕
즖
즗
즘
즙
즚
즛
즜
증
즞
즟
즠
즡
즢
즣
즤
즥
즦
즧
즨
즩
즪
즫
즬
즭
즮
즯
즰
즱
즲
즳
즴
즵
즶
즷
즸
즹
즺
즻
즼
즽
즾
즿
지
직
짂
짃
진
짅
짆
짇
질
짉
짊
짋
짌
짍
짎
짏
짐
집
짒
짓
짔
징
짖
짗
짘
짙
짚
짛
짜
짝
짞
짟
짠
짡
짢
짣
짤
짥
짦
짧
짨
짩
짪
짫
짬
짭
짮
짯
짰
짱
짲
짳
짴
짵
짶
짷
째
짹
짺
짻
짼
짽
짾
짿
쨀
쨁
쨂
쨃
쨄
쨅
쨆
쨇
쨈
쨉
쨊
쨋
쨌
쨍
쨎
쨏
쨐
쨑
쨒
쨓
쨔
쨕
쨖
쨗
쨘
쨙
쨚
쨛
쨜
쨝
쨞
쨟
쨠
쨡
쨢
쨣
쨤
쨥
쨦
쨧
쨨
쨩
쨪
쨫
쨬
쨭
쨮
쨯
쨰
쨱
쨲
쨳
쨴
쨵
쨶
쨷
쨸
쨹
쨺
쨻
쨼
쨽
쨾
쨿
쩀
쩁
쩂
쩃
쩄
쩅
쩆
쩇
쩈
쩉
쩊
쩋
쩌
쩍
쩎
쩏
쩐
쩑
쩒
쩓
쩔
쩕
쩖
쩗
쩘
쩙
쩚
쩛
쩜
쩝
쩞
쩟
쩠
쩡
쩢
쩣
쩤
쩥
쩦
쩧
쩨
쩩
쩪
쩫
쩬
쩭
쩮
쩯
쩰
쩱
쩲
쩳
쩴
쩵
쩶
쩷
쩸
쩹
쩺
쩻
쩼
쩽
쩾
쩿
쪀
쪁
쪂
쪃
쪄
쪅
쪆
쪇
쪈
쪉
쪊
쪋
쪌
쪍
쪎
쪏
쪐
쪑
쪒
쪓
쪔
쪕
쪖
쪗
쪘
쪙
쪚
쪛
쪜
쪝
쪞
쪟
쪠
쪡
쪢
쪣
쪤
쪥
쪦
쪧
쪨
쪩
쪪
쪫
쪬
쪭
쪮
쪯
쪰
쪱
쪲
쪳
쪴
쪵
쪶
쪷
쪸
쪹
쪺
쪻
쪼
쪽
쪾
쪿
쫀
쫁
쫂
쫃
쫄
쫅
쫆
쫇
쫈
쫉
쫊
쫋
쫌
쫍
쫎
쫏
쫐
쫑
쫒
쫓
쫔
쫕
쫖
쫗
쫘
쫙
쫚
쫛
쫜
쫝
쫞
쫟
쫠
쫡
쫢
쫣
쫤
쫥
쫦
쫧
쫨
쫩
쫪
쫫
쫬
쫭
쫮
쫯
쫰
쫱
쫲
쫳
쫴
쫵
쫶
쫷
쫸
쫹
쫺
쫻
쫼
쫽
쫾
쫿
쬈
쬐
쬝
쬠
쬽
쭈
쭉
쭊
쭚
쭝
쭤
쮉
쮜
쮝
쯔
쯕
쯗
쯤
쯶
쯹
찀
찁
찂
찃
찄
찅
찆
찇
찈
찉
찊
찋
찌
찍
찎
찏
찐
찑
찒
찓
찔
찕
찖
찗
찘
찙
찚
찛
찜
찝
찞
찟
찠
찡
찢
찣
찤
찥
찦
찧
차
착
찪
찫
찬
찭
찮
찯
찰
찱
찲
찳
찴
찵
찶
찷
참
찹
찺
찻
찼
창
찾
찿
챀
챁
챂
챃
채
책
챆
챇
챈
챉
챊
챋
챌
챍
챎
챏
챐
챑
챒
챓
챔
챕
챖
챗
챘
챙
챚
챛
챜
챝
챞
챟
챠
챡
챢
챣
챤
챥
챦
챧
챨
챩
챪
챫
챬
챭
챮
챯
챰
챱
챲
챳
챴
챵
챶
챷
챸
챹
챺
챻
챼
챽
챾
챿
첀
첁
첂
첃
첄
첅
첆
첇
첈
첉
첊
첋
첌
첍
첎
첏
첐
첑
첒
첓
첔
첕
첖
첗
처
척
첚
첛
천
첝
첞
첟
철
첡
첢
첣
첤
첥
첦
첧
첨
첩
첪
첫
첬
청
첮
첯
첰
첱
첲
첳
체
첵
첶
첷
첸
첹
첺
첻
첼
첽
첾
첿
쳀
쳁
쳂
쳃
쳄
쳅
쳆
쳇
쳈
쳉
쳊
쳋
쳌
쳍
쳎
쳏
쳐
쳑
쳒
쳓
쳔
쳕
쳖
쳗
쳘
쳙
쳚
쳛
쳜
쳝
쳞
쳟
쳠
쳡
쳢
쳣
쳤
쳥
쳦
쳧
쳨
쳩
쳪
쳫
쳬
쳭
쳮
쳯
쳰
쳱
쳲
쳳
쳴
쳵
쳶
쳷
쳸
쳹
쳺
쳻
쳼
쳽
쳾
쳿
촁
초
촉
촊
촌
촐
촘
촚
촛
총
촞
촤
촥
촨
촬
촴
촹
쵀
최
쵸
쵿
추
축
춖
춗
춘
출
춣
춤
춥
춧
충
춭
춮
춰
춸
췄
췌
췢
취
췩
췶
췼
츀
츁
츂
츃
츄
츅
츆
츇
츈
츉
츊
츋
츌
츍
츎
츏
츐
츑
츒
츓
츔
츕
츖
츗
츘
츙
츚
츛
츜
츝
츞
츟
츠
측
츢
츣
츤
츥
츦
츧
츨
츩
츪
츫
츬
츭
츮
츯
츰
츱
츲
츳
츴
층
츶
츷
츸
츹
츺
츻
츼
츽
츾
츿
칀
칁
칂
칃
칄
칅
칆
칇
칈
칉
칊
칋
칌
칍
칎
칏
칐
칑
칒
칓
칔
칕
칖
칗
치
칙
칚
칛
친
칝
칞
칟
칠
칡
칢
칣
칤
칥
칦
칧
침
칩
칪
칫
칬
칭
칮
칯
칰
칱
칲
칳
카
칵
칶
칷
칸
칹
칺
칻
칼
칽
칾
칿
캀
캁
캂
캃
캄
캅
캆
캇
캈
캉
캊
캋
캌
캍
캎
캏
캐
캑
캒
캓
캔
캕
캖
캗
캘
캙
캚
캛
캜
캝
캞
캟
캠
캡
캢
캣
캤
캥
캦
캧
캨
캩
캪
캫
캬
캭
캮
캯
캰
캱
캲
캳
캴
캵
캶
캷
캸
캹
캺
캻
캼
캽
캾
캿
컀
컁
컂
컃
컄
컅
컆
컇
컈
컉
컊
컋
컌
컍
컎
컏
컐
컑
컒
컓
컔
컕
컖
컗
컘
컙
컚
컛
컜
컝
컞
컟
컠
컡
컢
컣
커
컥
컦
컧
컨
컩
컪
컫
컬
컭
컮
컯
컰
컱
컲
컳
컴
컵
컶
컷
컸
컹
컺
컻
컼
컽
컾
컿
케
켁
켄
켈
켐
켑
켓
켔
켕
켙
켜
켠
켤
켬
켭
켰
켱
켸
켹
콇
코
콕
콘
콛
콜
콤
콥
콧
콩
콰
콴
콸
쾌
쾡
쾰
쿄
쿈
쿜
쿠
쿡
쿤
쿨
쿰
쿱
쿵
쿻
쿼
쿽
쿿
퀀
퀄
퀊
퀘
퀭
퀴
퀵
퀸
퀼
큆
큈
큐
큑
큔
큘
큠
크
큭
큰
클
큼
큽
킄
킕
킠
키
킥
킨
킬
킴
킵
킷
킸
킹
킼
타
탁
탄
탈
탊
탐
탑
탓
탔
탕
탖
탙
태
택
탠
탣
탤
탬
탭
탯
탰
탱
탳
탸
탹
턀
턁
턂
턃
턄
턅
턆
턇
턈
턉
턊
턋
턌
턍
턎
턏
턐
턑
턒
턓
턔
턕
턖
턗
턘
턙
턚
턛
턜
턝
턞
턟
턠
턡
턢
턣
턤
턥
턦
턧
턨
턩
턪
턫
턬
턭
턮
턯
터
턱
턲
턳
턴
턵
턶
턷
털
턹
턺
턻
턼
턽
턾
턿
텀
텁
텂
텃
텄
텅
텆
텇
텈
텉
텊
텋
테
텍
텎
텏
텐
텑
텒
텓
텔
텕
텖
텗
텘
텙
텚
텛
템
텝
텞
텟
텠
텡
텢
텣
텤
텥
텦
텧
텨
텩
텪
텫
텬
텭
텮
텯
텰
텱
텲
텳
텴
텵
텶
텷
텸
텹
텺
텻
텼
텽
텾
텿
톀
톁
톂
톃
톄
톅
톆
톇
톈
톉
톊
톋
톌
톍
톎
톏
톐
톑
톒
톓
톔
톕
톖
톗
톘
톙
톚
톛
톜
톝
톞
톟
토
톡
톢
톣
톤
톥
톦
톧
톨
톩
톪
톫
톬
톭
톮
톯
톰
톱
톲
톳
톴
통
톶
톷
톸
톹
톺
톻
톼
톽
톾
톿
퇀
퇁
퇂
퇃
퇄
퇅
퇆
퇇
퇈
퇉
퇊
퇋
퇌
퇍
퇎
퇏
퇐
퇑
퇒
퇓
퇔
퇕
퇖
퇗
퇘
퇙
퇚
퇛
퇜
퇝
퇞
퇟
퇠
퇡
퇢
퇣
퇤
퇥
퇦
퇧
퇨
퇩
퇪
퇫
퇬
퇭
퇮
퇯
퇰
퇱
퇲
퇳
퇴
퇵
퇶
퇷
퇸
퇹
퇺
퇻
퇼
퇽
퇾
퇿
툇
툥
툧
투
툭
툰
툴
툷
툹
툼
퉁
퉈
퉏
퉞
퉤
퉩
튀
튈
튌
튐
튕
튗
튜
튝
튠
튤
튬
튱
튳
트
특
튺
튼
튿
틀
틈
틋
틍
틑
틔
틙
틟
티
틱
틴
틷
틸
팀
팁
팃
팅
팉
파
팍
팎
판
팑
팒
팔
팖
팗
팜
팝
팟
팠
팡
팥
팦
패
팩
팬
팰
팸
팹
팻
팽
퍀
퍄
퍼
퍽
펀
펃
펄
펌
펍
펑
페
펙
펜
펠
펣
펨
펩
펫
펭
펲
펴
편
펹
펼
폄
폅
폈
평
폊
폍
폐
포
폭
폮
폯
폰
폴
폵
폶
폻
폼
폿
퐁
퐅
퐆
퐈
퐏
퐕
퐝
푀
푄
푉
표
푝
푠
푯
푸
푹
푼
풀
풂
풆
품
풉
풋
풍
풵
풽
퓉
퓌
퓏
퓔
퓨
퓬
퓰
퓸
퓽
픀
픁
픂
픃
프
픅
픆
픇
픈
픉
픊
픋
플
픍
픎
픏
픐
픑
픒
픓
픔
픕
픖
픗
픘
픙
픚
픛
픜
픝
픞
픟
픠
픡
픢
픣
픤
픥
픦
픧
픨
픩
픪
픫
픬
픭
픮
픯
픰
픱
픲
픳
픴
픵
픶
픷
픸
픹
픺
픻
피
픽
픾
픿
핀
핁
핂
핃
필
핅
핆
핇
핈
핉
핊
핋
핌
핍
핎
핏
핐
핑
핒
핓
핔
핕
핖
핗
하
학
핚
핛
한
핝
핞
핟
할
핡
핢
핣
핤
핥
핦
핧
함
합
핪
핫
핬
항
핮
핯
핰
핱
핲
핳
해
핵
핶
핷
핸
핹
핺
핻
핼
핽
핾
핿
햀
햁
햂
햃
햄
햅
햆
햇
했
행
햊
햋
햌
햍
햎
햏
햐
햑
햒
햓
햔
햕
햖
햗
햘
햙
햚
햛
햜
햝
햞
햟
햠
햡
햢
햣
햤
향
햦
햧
햨
햩
햪
햫
햬
햭
햮
햯
햰
햱
햲
햳
햴
햵
햶
햷
햸
햹
햺
햻
햼
햽
햾
햿
헀
헁
헂
헃
헄
헅
헆
헇
허
헉
헊
헋
헌
헍
헎
헏
헐
헑
헒
헓
헔
헕
헖
헗
험
헙
헚
헛
헜
헝
헞
헟
헠
헡
헢
헣
헤
헥
헦
헧
헨
헩
헪
헫
헬
헭
헮
헯
헰
헱
헲
헳
헴
헵
헶
헷
헸
헹
헺
헻
헼
헽
헾
헿
혀
혁
현
혅
혈
혐
협
혔
형
혜
혤
혯
호
혹
혺
혻
혼
홀
홈
홉
홋
홍
홑
홒
화
확
홖
홗
환
홛
활
홤
홥
황
홯
홰
횃
횅
회
획
횎
횐
횔
횟
횡
효
횸
횹
횼
횽
후
훅
훇
훈
훉
훌
훑
훓
훔
훕
훗
훙
훚
훤
훨
훼
훽
휀
휑
휘
휙
휜
휠
휨
휩
휭
휴
휸
휼
휽
흄
흉
흌
흍
흎
흏
흐
흑
흒
흓
흔
흕
흗
흘
흙
흚
흛
흜
흝
흞
흟
흠
흡
흢
흤
흥
흦
흧
흨
흩
흪
흫
희
흭
흮
흯
흰
흱
흲
흳
흵
흶
흷
흸
흹
흺
흻
흼
흽
흾
흿
힀
힁
힂
힃
힄
힅
힆
힇
히
힉
힊
힋
힌
힍
힎
힏
힐
힑
힒
힓
힔
힕
힖
힗
힘
힙
힚
힛
힜
힝
힞
힟
힠
힡
힢
힣
##인
##해
##준
##다
##고
##했
##음
##가
##상
##각
##잔
##존
##액
##예
##방
##접
##종
##실
##시
##입
##키
##겠
##습
##니
##4
##1
##조
##제
##2
##항
##수
##관
##련
##학
##점
##L
##A
##T
##E
##R
##C
##V
##S
##B
##6
##I
##W
##에
##서
##라
##의
##량
##D
##a
##t
##세
##협
##회
##이
##사
##한
##없
##으
##며
##s
##f
##i
##l
##e
##별
##칭
##을
##즈
##스
##성
##과
##행
##역
##중
##M
##U
##7
##징
##자
##원
##통
##망
##로
##드
##하
##지
##x
##n
##o
##b
##c
##k
##g
##r
##5
##3
##9
##비
##는
##d
##p
##환
##빌
##딩
##N
##언
##할
##룹
##산
##공
##정
##않
##m
##h
##편
##함
##려
##면
##트
##탭
##덕
##대
##변
##u
##킹
##일
##때
##내
##목
##록
##검
##증
##낙
##연
##용
##여
##러
##및
##경
##메
##처
##리
##민
##본
##개
##선
##y
##P
##v
##은
##력
##0
##8
##쳐
##계
##년
##월
##신
##받
##아
##야
##융
##거
##래
##허
##청
##생
##번
##유
##틸
##티
##기
##업
##F
##치
##프
##그
##램
##어
##책
##카
##체
##모
##보
##차
##j
##w
##후
##z
##와
##색
##있
##술
##째
##부
##분
##전
##Q
##O
##발
##겨
##재
##배
##헤
##더
##남
##뮤
##표
##간
##H
##법
##품
##등
##축
##감
##도
##장
##봅
##요
##버
##핀
##글
##벌
##나
##득
##템
##q
##급
##형
##닝
##만
##찰
##식
##주
##완
##집
##약
##금
##합
##소
##외
##무
##구
##동
##향
##영
##류
##테
##핵
##심
##확
##Y
##를
##웨
##휘
##포
##털
##J
##총
##화
##데
##브
##단
##율
##피
##텔
##레
##콤
##반
##층
##G
##능
##뿐
##튼
##붙
##작
##출
##것
##였
##료
##평
##불
##터
##패
##머
##들
##킬
##안
##위
##석
##렬
##진
##적
##룰
##험
##결
##코
##핚
##략
##획
##운
##뉴
##권
##명
##북
##롤
##마
##담
##당
##물
##침
##되
##속
##문
##태
##측
##폴
##뢰
##었
##넌
##괄
##송
##매
##저
##건
##추
##휴
##우
##써
##임
##열
##링
##활
##펌
##게
##션
##페
##까
##훅
##례
##웃
##젝
##격
##호
##줍
##K
##져
##직
##질
##센
##설
##랑
##럼
##블
##므
##벤
##락
##크
##맨
##말
##너
##켜
##육
##판
##쟁
##규
##범
##봤
##될
##던
##천
##광
##교
##셀
##퓨
##횟
##깅
##황
##앱
##초
##난
##쪽
##란
##달
##줘
##손
##률
##X
##파
##팀
##복
##멸
##옵
##클
##탐
##암
##핑
##갱
##같
##양
##령
##순
##깃
##쯔
##납
##채
##취
##왔
##솔
##루
##현
##응
##큐
##필
##졲
##텐
##츠
##컴
##플
##창
##답
##백
##택
##몬
##귀
##쉬
##짂
##끌
##슈
##찾
##좌
##밀
##누
##욕
##바
##빈
##억
##엔
##근
##잉
##오
##최
##국
##턴
##칙
##온
##Z
##갈
##미
##워
##벽
##폰
##널
##름
##늠
##케
##즉
##또
##효
##텍
##객
##극
##딧
##녹
##벨
##토
##탈
##립
##르
##악
##견
##델
##삼
##셔
##폐
##따
##른
##충
##픽
##꺡
##꺢
##꺣
##꺤
##꺥
##꺦
##꺧
##꺨
##꺩
##꺪
##꺫
##꺬
##꺭
##꺮
##꺯
##날
##볼
##됐
##애
##뮬
##타
##림
##많
##론
##듯
##봉
##값
##칸
##된
##탁
##승
##촉
##람
##알
##강
##쿼
##특
##ㅣ
##푸
##디
##듈
##긴
##뷰
##느
##홈
##랐
##댑
##네
##움
##닊
##킵
##앙
##독
##꼴
##륵
##절
##롱
##뉑
##뉒
##뉓
##뉔
##뉕
##뉖
##뉗
##뉘
##뉙
##뉚
##뉛
##뉜
##뉝
##뉞
##뉟
##철
##살
##맹
##린
##캐
##캔
##삭
##셜
##춰
##짐
##쓰
##몰
##퇴
##참
##탕
##됨
##콘
##꾸
##퍼
##럿
##잡
##팩
##갂
##올
##엄
##착
##갯
##퀀
##맞
##큼
##퀴
##럭
##군
##쇇
##희
##믹
##펜
##멲
##냐
##박
##병
##흐
##랫
##폼
##놓
##셨
##첨
##십
##밧
##짜
##팔
##칠
##죞
##좬
##익
##헌
##두
##투
##춘
##님
##넥
##젠
##풀
##킷
##촌
##옴
##앞
##춤
##울
##륨
##벗
##슬
##앤
##돼
##륙
##넷
##즘
##노
##께
##툴
##옥
##농
##균
##낼
##혹
##핛
##히
##베
##탄
##돌
##훈
##싞
##막
##욱
##낭
##톤
##혜
##릭
##릿
##픈
##뱅
##혁
##갑
##엠
##흡
##컨
##팅
##됩
##척
##얼
##죄
##든
##골
##씨
##념
##렦
##봐
##숫
##았
##쳤
##뎀
##폭
##줄
##족
##높
##엘
##먼
##랙
##뒤
##딘
##커
##흥
##뇌
##렛
##칼
##뎌
##먹
##붂
##길
##싱
##샷
##윤
##염
##셈
##듬
##압
##챠
##밸
##컬
##홍
##췌
##롭
##힘
##틀
##롯
##펀
##톱
##툭
##렌
##칩
##섬
##낸
##엽
##겼
##런
##팬
##빙
##힌
##읶
##쌍
##럽
##닥
##친
##맵
##떨
##뤄
##웹
##륭
##씀
##덱
##숙
##킴
##벅
##켐
##멀
##돈
##핸
##둘
##닷
##잠
##꺼
##졌
##줌
##싸
##틴
##돔
##쥑
##쥒
##쥓
##쥔
##쥕
##쥖
##쥗
##쥘
##쥙
##쥚
##쥛
##쥜
##쥝
##쥞
##쥟
##켓
##귺
##킨
##밍
##씩
##텝
##벼
##젯
##춗
##젂
##넣
##붕
##괴
##맷
##랜
##쇄
##눅
##넘
##왕
##릴
##멘
##쇼
##홗
##굴
##맊
##콜
##잘
##팹
##홖
##좋
##켰
##홀
##끔
##펫
##곡
##떄
##랩
##셋
##섷
##딕
##낮
##샘
##밴
##눗
##몫
##첩
##펴
##릅
##팟
##김
##걸
##풍
##뭄
##롬
##탑
##셉
##랍
##웅
##큰
##듣
##잭
##윙
##겟
##꿈
##넛
##펙
##렴
##윈
##쉽
##렇
##밋
##랏
##빛
##젼
##빅
##둡
##맥
##캠
##봇
##슨
##늘
##훨
##닌
##눈
##렉
##갔
##봄
##찬
##섭
##늬
##읍
##놀
##듀
##쿠
##곤
##곽
##헙
##렸
##돕
##썡
##썢
##썣
##썤
##썥
##썦
##썧
##썩
##썪
##썫
##썬
##썭
##썮
##썯
##떤
##뀌
##쾌
##죽
##웠
##혀
##깥
##묵
##럴
##밑
##렵
##벡
##팸
##났
##튜
##옹
##낌
##덜
##켄
##혼
##못
##왼
##읽
##캡
##슐
##펑
##새
##엣
##엑
##앰
##앗
##갖
##겐
##훼
##룸
##졸
##찌
##곳
##샤
##섰
##룡
##둑
##굿
##둔
##즌
##랭
##혈
##얄
##햐
##롞
##끝
##츨
##눔
##ㅊ
##쬽
##쯤
##틈
##뜻
##궤
##쉘
##닐
##옷
##릇
##끼
##앆
##펼
##웟
##컵
##멧
##탬
##쁘
##톨
##곧
##턱
##헡
##헢
##헣
##헥
##헦
##헧
##헨
##헩
##헪
##헫
##헬
##헭
##헮
##헯
##웍
##댐
##닛
##뒀
##싹
##ㅋ
##쏘
##짝
##겁
##싶
##밥
##짓
##댓
##쥴
##뱡
##줬
##윣
##섞
##딜
##몹
##웎
##꿔
##솟
##눴
##궁
##딪
##힐
##겅
##졍
##릎
##랬
##픔
##쥬
##듦
##퐁
##떠
##읷
##룩
##챀
##곾
##젤
##젃
##긋
##룬
##겸
##뎁
##듭
##닉
##텀
##넬
##팝
##즐
##냈
##횡
##듞
##쩔
##깐
##띄
##핍
##꼭
##낄
##삽
##됬
##덤
##몽
##굳
##뜰
##녀
##죠
##딛
##멤
##띈
##뀔
##릉
##꽃
##잎
##맂
##텎
##밖
##껑
##껒
##껓
##껔
##껕
##껖
##껗
##껙
##껚
##껛
##껜
##껝
##껞
##껟
##랴
##웁
##켈
##윗
##멍
##좀
##칫
##빡
##얻
##뒷
##둬
##팁
##뜨
##쓸
##뜡
##뜢
##뜣
##뜤
##뜥
##뜦
##뜧
##뜩
##뜪
##뜫
##뜬
##뜭
##뜮
##뜯
##뀜
##웤
##렁
##럱
##럲
##럳
##럵
##럶
##럷
##럸
##럹
##럺
##럻
##럾
##컫
##논
##릶
##냅
##돠
##셩
##튬
##첫
##긍
##뭪
##뽀
##챔
##렘
##혔
##롟
##ㅇ
##밭
##껀
##땐
##콥
##튺
##툼
##띠
##괸
##릱
##큘
##슷
##렷
##겱
##겲
##겳
##겴
##겵
##겶
##겷
##겹
##겺
##겻
##겾
##겿
##냥
##뚝
##잦
##곱
##냉
##숭
##홉
##핟
##맺
##엇
##잇
##닱
##닲
##닳
##닶
##닸
##닺
##닻
##닼
##닽
##닾
##닿
##녁
##낀
##왑
##짱
##뫱
##뾭
##긓
##깛
##긯
##깄
##궳
##궻
##럊
##떀
##묡
##팜
##픞
##혐
##펠
##슘
##캘
##촬
##싣
##읜
##덴
##츄
##펣
##얘
##틱
##컷
##븐
##떻
##늉
##잃
##눠
##볗
##묶
##캣
##붐
##샵
##렀
##빠
##쵸
##쌀
##섯
##둥
##랄
##돤
##돨
##ㅁ
##쿨
##펭
##엯
##힙
##땠
##쁜
##흘
##깊
##뫼
##헀
##땜
##놈
##봬
##쉐
##륜
##찮
##넓
##릾
##맙
##댁
##힉
##깝
##싯
##쁨
##폯
##뜁
##뜂
##뜃
##뜄
##뜅
##뜆
##뜇
##뜈
##뜉
##뜊
##뜋
##뜌
##뜍
##뜎
##뜏
##옮
##퀭
##캅
##찍
##퉁
##빨
##멕
##텟
##띾
##톡
##콩
##닙
##샬
##햄
##빗
##맛
##섹
##뭇
##딤
##챌
##ㅈ
##깨
##멈
##놨
##둕
##흔
##갋
##긖
##긫
##궸
##먝
##뫏
##궥
##귡
##궫
##귕
##궞
##궴
##궕
##궖
##귏
##갃
##ㄷ
##ㄴ
##ㅅ
##탰
##쭤
##흩
##퀘
##셕
##넉
##앵
##촘
##챗
##닫
##헛
##뛸
##윅
##됌
##숍
##짒
##짔
##짖
##짗
##짘
##짙
##짚
##짛
##짞
##짟
##풋
##쬝
##쯹
##죝
##꾼
##숲
##쿄
##꿨
##돋
##죾
##꺽
##룻
##꿉
##탠
##끓
##틔
##꿋
##벿
##슴
##힝
##릯
##ㅞ
##뛰
##쇠
##왜
##뀐
##틑
##믄
##됀
##ㅎ
##솩
##ㄹ
##똑
##앨
##깓
##긐
##깋
##귽
##긜
##긚
##뤪
##룕
##귩
##빶
##뱑
##롦
##벦
##궢
##궲
##궘
##궬
##궠
##궋
##늑
##굙
##떡
##짢
##껴
##낟
##읭
##깁
##녘
##끄
##궱
##궵
##궶
##궷
##궹
##궺
##궼
##궽
##궾
##궿
##꿎
##팡
##둉
##퀸
##럁
##럂
##럃
##럄
##럅
##럆
##럇
##럈
##럋
##럌
##럍
##럎
##럏
##늄
##퇁
##퇂
##퇃
##퇄
##퇅
##퇆
##퇇
##퇈
##퇉
##퇊
##퇋
##퇌
##퇍
##퇎
##퇏
##뼉
##흙
##랗
##썁
##썂
##썃
##썄
##썅
##썆
##썇
##썈
##썉
##썊
##썋
##썌
##썍
##썎
##썏
##찡
##찢
##찣
##찤
##찥
##찦
##찧
##찪
##찫
##찭
##찯
##굡
##굢
##굣
##굤
##굥
##굦
##굧
##굨
##굩
##굪
##굫
##굮
##굯
##숳
##끽
##횔
##ㅡ
##컸
##낱
##핱
##핲
##핳
##핶
##핷
##핹
##핺
##핻
##핼
##핽
##핾
##핿
##꼬
##탱
##녕
##볶
##읿
##솬
##끊
##껏
##쏑
##쏒
##쏓
##쏔
##쏕
##쏖
##쏗
##쏙
##쏚
##쏛
##쏜
##쏝
##쏞
##쏟
##낍
##떇
##렐
##랒
##랓
##랔
##랕
##랖
##랚
##랛
##랝
##랞
##랟
##띧
##봽
##봼
##뽵
##듫
##쁀
##륆
##걁
##똂
##믿
##췄
##깰
##펩
##뤘
##넨
##튿
##땅
##틍
##늁
##늂
##늃
##늅
##늆
##늇
##늈
##늊
##늋
##늌
##늍
##늎
##늏
##귄
##눟
##팽
##잧
##헐
##헿
##맒
##쥐
##팥
##젓
##ㅏ
##뇨
##벙
##벾
##삯
##꼈
##웜
##삿
##혤
##갹
##챈
##뤅
##꼌
##묺
##맀
##꿀
##흉
##씌
##늦
##꼽
##늪
##잚
##쌓
##곲
##곴
##곶
##곷
##곸
##곹
##곺
##곻
##곿
##껱
##껲
##껳
##껵
##껶
##껷
##껸
##껹
##껺
##껻
##껼
##껽
##껾
##껿
##벳
##숚
##쩪
##쩉
##첚
##얶
##윱
##쏵
##셰
##릮
##샙
##댕
##뼈
##얀
##뻤
##렧
##긱
##갭
##튠
##옆
##싻
##찜
##쟤
##묘
##씡
##씢
##씣
##씤
##씥
##씦
##씧
##씪
##씫
##씬
##씭
##씮
##씯
##냇
##텁
##푼
##괩
##멩
##닒
##릍
##궑
##궒
##궓
##궔
##궗
##궙
##궚
##궛
##궜
##궝
##궟
##갬
##턡
##턢
##턣
##턤
##턥
##턦
##턧
##턨
##턩
##턪
##턫
##턬
##턭
##턮
##턯
##엌
##냄
##몇
##걀
##뎃
##땍
##흑
##윕
##빼
##즇
##믩
##햡
##햢
##햣
##햤
##햦
##햧
##햨
##햩
##햪
##햫
##햬
##햭
##햮
##햯
##쩑
##쩒
##쩓
##쩕
##쩖
##쩗
##쩘
##쩙
##쩚
##쩛
##쩜
##쩝
##쩞
##쩟
##흠
##붓
##앴
##굶
##넋
##팍
##꼝
##앓
##묛
##쁈
##럮
##큠
##픁
##픂
##픃
##픅
##픆
##픇
##픉
##픊
##픋
##픍
##픎
##픏
##삳
##눌
##끗
##꿕
##깎
##벵
##푹
##짾
##탸
##뚜
##쀓
##ㅕ
##잣
##삠
##륩
##빴
##켸
##릳
##짋
##룽
##뽕
##폿
##뭅
##숨
##곅
##쏭
##왓
##걔
##삶
##댄
##늡
##늢
##늣
##늤
##늧
##늨
##늩
##늫
##늭
##늮
##늯
##첼
##뵉
##첡
##첢
##첣
##첤
##첥
##첦
##첧
##첪
##첬
##첮
##첯
##꾛
##썸
##쑤
##샌
##휙
##몸
##맘
##뭠
##덧
##씻
##쨰
##ㄳ
##콰
##쩌
##깔
##귁
##귂
##귃
##귅
##귆
##귇
##귈
##귉
##귊
##귋
##귌
##귍
##귎
##씽
##빔
##돗
##닭
##욲
##읱
##읲
##읳
##읹
##읺
##읻
##읾
##셑
##덥
##쨍
##딱
##챡
##ㅠ
##ㄲ
##롄
##쀘
##웏
##셍
##탤
##갤
##톰
##갛
##ㄱ
##뱀
##궐
##닑
##닓
##닔
##닕
##닖
##닗
##닚
##닜
##닞
##닟
##핏
##밝
##덩
##웂
##맡
##챕
##딈
##꼼
##궈
##윩
##끈
##곰
##얽
##뇹
##잿
##컑
##컒
##컓
##컔
##컕
##컖
##컗
##컘
##컙
##컚
##컛
##컜
##컝
##컞
##컟
##핌
##쌈
##슥
##켠
##믑
##믒
##믓
##믔
##믕
##믖
##믗
##믘
##믙
##믚
##믛
##믜
##믝
##믞
##믟
##댥
##뤵
##쎤
##걊
##웰
##죗
##둠
##쩳
##쪨
##쿻
##솜
##멜
##헝
##횎
##냑
##냒
##냓
##냔
##냕
##냖
##냗
##냘
##냙
##냚
##냛
##냜
##냝
##냞
##냟
##잒
##ㅍ
##앉
##깂
##깆
##깇
##깈
##깉
##깍
##깏
##뚱
##귱
##귲
##귳
##귴
##귵
##귶
##귷
##귻
##귾
##귿
##ㄺ
##셴
##쑥
##흚
##뒨
##롷
##ㅜ
##펍
##잢
##잤
##잨
##잩
##잪
##잫
##잮
##잯
##츌
##컡
##컢
##컣
##컥
##컦
##컧
##컩
##컪
##컭
##컮
##컯
##엉
##씑
##씒
##씓
##씔
##씕
##씖
##씗
##씘
##씙
##씚
##씛
##씜
##씝
##씞
##씟
##욋
##펄
##렏
##튀
##챤
##딴
##놔
##찻
##굑
##굒
##굓
##굔
##굕
##굖
##굗
##굘
##굚
##굛
##굜
##굝
##굞
##굟
##뮴
##씰
##샅
##칚
##챑
##챒
##챓
##챖
##챘
##챙
##챚
##챛
##챜
##챝
##챞
##챟
##얳
##즙
##ㅌ
##ㄻ
##갰
##뚫
##횽
##옦
##몃
##뻔
##쓱
##롸
##됛
##뗠
##귢
##쒌
##꼗
##쩍
##왱
##왲
##왳
##왴
##왵
##왶
##왷
##왹
##왺
##왻
##왽
##왾
##왿
##쩡
##윭
##걱
##댈
##꽁
##뗌
##뭔
##뭖
##눼
##쉔
##싼
##텃
##멥
##썹
##옘
##밤
##괏
##뭗
##랲
##칡
##칢
##칣
##칤
##칥
##칦
##칧
##칪
##칬
##칮
##칯
##퍽
##숏
##쉼
##팠
##곘
##찿
##젔
##읂
##볍
##쑨
##뭝
##떼
##쁠
##햇
##뚤
##죤
##뇜
##윌
##뱃
##뵈
##콕
##휠
##텅
##겡
##쳥
##졔
##얏
##촛
##잓
##잕
##잖
##잗
##잙
##잛
##잜
##잝
##잞
##잟
##핡
##핢
##핣
##핤
##핥
##핦
##핧
##핪
##핫
##핬
##핮
##핯
##ㅑ
##밈
##쿰
##휼
##돷
##걏
##긤
##걐
##묻
##쀕
##뭩
##짧
##픡
##픢
##픣
##픤
##픥
##픦
##픧
##픨
##픩
##픪
##픫
##픬
##픭
##픮
##픯
##힛
##훙
##앎
##멓
##췼
##뵤
##녔
##쉰
##젇
##덮
##줒
##줓
##줔
##줕
##줖
##줗
##줙
##줚
##줛
##줜
##줝
##줞
##줟
##됻
##됵
##숃
##빵
##뻬
##뤼
##빽
##펨
##탓
##얹
##촐
##욜
##뻘
##찼
##맴
##썼
##쉖
##귒
##츲
##겪
##춥
##쁩
##꼿
##뭭
##츰
##죿
##딸
##옼
##붵
##덟
##뛴
##쟈
##굉
##쎈
##뷠
##뾴
##궇
##귟
##릲
##ㅙ
##쥱
##쥲
##쥳
##쥵
##쥶
##쥷
##쥸
##쥹
##쥺
##쥻
##쥼
##쥽
##쥾
##쥿
##윲
##윳
##윴
##윶
##윷
##윸
##윹
##윺
##윻
##윽
##윾
##윿
##갓
##윰
##쪪
##곌
##췢
##볁
##꼇
##쪄
##긨
##긣
##끕
##쪾
##턑
##턒
##턓
##턔
##턕
##턖
##턗
##턘
##턙
##턚
##턛
##턜
##턝
##턞
##턟
##뻐
##쎄
##뭨
##괡
##괢
##괣
##괤
##괥
##괦
##괧
##괨
##괪
##괫
##괬
##괭
##괮
##괯
##룳
##엫
##헹
##쉴
##뷼
##듻
##춖
##횅
##퀄
##쫁
##쫂
##쫃
##쫄
##쫅
##쫆
##쫇
##쫈
##쫉
##쫊
##쫋
##쫌
##쫍
##쫎
##쫏
##쳬
##톑
##톒
##톓
##톔
##톕
##톖
##톗
##톘
##톙
##톚
##톛
##톜
##톝
##톞
##톟
##좥
##밌
##뻗
##푠
##엿
##굁
##굂
##굃
##굄
##굅
##굆
##굇
##굈
##굊
##굋
##굌
##굍
##굎
##굏
##뙛
##밙
##맫
##뤾
##뙽
##얗
##첍
##넴
##뭥
##닦
##쳇
##뫜
##뒶
##멣
##뵙
##헷
##첵
##낵
##샾
##쌁
##쌂
##쌃
##쌄
##쌅
##쌆
##쌇
##쌉
##쌊
##쌋
##쌌
##쌎
##쌏
##짹
##봏
##윢
##윥
##윦
##윧
##윪
##윫
##윬
##윮
##윯
##맟
##괌
##샀
##뭐
##핃
##믐
##쏁
##쏂
##쏃
##쏄
##쏅
##쏆
##쏇
##쏈
##쏉
##쏊
##쏋
##쏌
##쏍
##쏎
##쏏
##잍
##멨
##탔
##녈
##핁
##핂
##핅
##핆
##핇
##핈
##핉
##핊
##핋
##핎
##앖
##쟱
##쟲
##쟳
##쟴
##쟵
##쟶
##쟷
##쟸
##쟹
##쟺
##쟻
##쟼
##쟽
##쟾
##쟿
##쩱
##쩲
##쩴
##쩵
##쩶
##쩷
##쩸
##쩹
##쩺
##쩻
##쩼
##쩽
##쩾
##쩿
##듥
##샨
##컏
##젞
##뎉
##쎔
##좧
##짤
##젹
##꿰
##쭈
##툰
##띁
##띂
##띃
##띅
##띆
##띇
##띉
##띊
##띋
##띌
##띍
##띎
##띏
##낡
##낢
##낣
##낤
##낥
##낦
##낧
##낪
##낫
##낯
##훌
##씁
##귝
##좁
##찑
##찒
##찓
##찔
##찕
##찖
##찗
##찘
##찙
##찚
##찛
##찝
##찞
##찟
##숑
##뗧
##싘
##죕
##쓴
##넒
##폮
##퓰
##꽝
##듐
##떳
##옂
##옃
##옄
##옅
##옇
##옉
##옊
##옋
##옌
##옍
##옎
##옏
##셥
##눁
##눂
##눃
##눆
##눇
##눉
##눊
##눋
##눍
##눎
##눏
##꽂
##몌
##즁
##즂
##즃
##즄
##즅
##즆
##즊
##즋
##즍
##즎
##즏
##쉥
##쀑
##떎
##띱
##띲
##띳
##띴
##띵
##띶
##띷
##띸
##띹
##띺
##띻
##띿
##륟
##똬
##릏
##뎠
##뙈
##휨
##폄
##긑
##긒
##긔
##긕
##긗
##긘
##긙
##긛
##긝
##긞
##긟
##뉩
##퐝
##콧
##퀵
##칳
##욇
##츤
##ㅗ
##샛
##욘
##뭙
##굵
##똋
##럯
##껍
##졀
##뿌
##벆
##쓨
##츽
##룔
##엡
##엢
##엤
##엥
##엦
##엧
##엨
##엩
##엪
##엮
##긥
##팎
##룐
##뜸
##쩁
##쩂
##쩃
##쩄
##쩅
##쩆
##쩇
##쩈
##쩊
##쩋
##쩎
##쩏
##깡
##쫤
##벎
##쀖
##샹
##ㅓ
##잰
##뜑
##뜒
##뜓
##뜔
##뜕
##뜖
##뜗
##뜘
##뜙
##뜚
##뜛
##뜜
##뜝
##뜞
##뜟
##꾀
##둅
##궦
##렙
##퉏
##ㅂ
##쿜
##짩
##펃
##뇽
##횼
##쭉
##랪
##귤
##푝
##귐
##씂
##씃
##씄
##씅
##씆
##씇
##씈
##씉
##씊
##씋
##씍
##씎
##씏
##셻
##썽
##힁
##깑
##깒
##깕
##깖
##깗
##깘
##깙
##깚
##깜
##깞
##깟
##욁
##욂
##욃
##욄
##욅
##욆
##욈
##욉
##욊
##욌
##욍
##욎
##욏
##뜹
##뎬
##땀
##켱
##쎁
##쎂
##쎃
##쎅
##쎆
##쎇
##쎉
##쎊
##쎋
##쎌
##쎍
##쎎
##쎏
##쨁
##쨂
##쨃
##쨄
##쨅
##쨆
##쨇
##쨈
##쨉
##쨊
##쨋
##쨌
##쨎
##쨏
##섟
##짬
##빰
##믈
##쿤
##엒
##엓
##엕
##엖
##엗
##엙
##엚
##엛
##엜
##엝
##엞
##엟
##맣
##굽
##쿽
##쟑
##쟒
##쟓
##쟔
##쟕
##쟖
##쟗
##쟘
##쟙
##쟚
##쟛
##쟜
##쟝
##쟞
##쟟
##긵
##궩
##렝
##컹
##갸
##믡
##믢
##믣
##믤
##믥
##믦
##믧
##믨
##믪
##믫
##믬
##믭
##믮
##믯
##뾩
##싀
##넯
##킥
##샇
##긏
##댊
##뢫
##쫱
##쫲
##쫳
##쫴
##쫵
##쫶
##쫷
##쫸
##쫹
##쫺
##쫻
##쫼
##쫽
##쫾
##쫿
##웣
##댩
##뵨
##밗
##뼸
##휭
##좆
##얒
##얓
##얔
##얕
##얖
##얙
##얚
##얛
##얜
##얝
##얞
##얟
##슦
##퇙
##쫓
##늕
##묟
##꺑
##꺒
##꺓
##꺔
##꺕
##꺖
##꺗
##꺘
##꺙
##꺚
##꺛
##꺜
##꺝
##꺞
##꺟
##뿍
##즑
##즒
##즓
##즔
##즕
##즖
##즗
##즚
##즛
##즜
##즞
##즟
##넞
##넵
##텨
##벟
##뀼
##얌
##뺐
##챵
##찱
##찲
##찳
##찴
##찵
##찶
##찷
##찹
##찺
##훚
##퇘
##걖
##틟
##잆
##딥
##뭘
##뭉
##퍄
##솽
##랼
##꽉
##좦
##꼐
##슁
##뽑
##듖
##뿚
##쪑
##쪒
##쪓
##쪔
##쪕
##쪖
##쪗
##쪘
##쪙
##쪚
##쪛
##쪜
##쪝
##쪞
##쪟
##뷔
##픸
##팖
##젙
##숯
##쉡
##첑
##첒
##첓
##첔
##첕
##첖
##첗
##첛
##첝
##첞
##첟
##걷
##챢
##챣
##챥
##챦
##챧
##챨
##챩
##챪
##챫
##챬
##챭
##챮
##챯
##왠
##먀
##륾
##휽
##젆
##쿵
##욳
##왡
##왢
##왣
##왤
##왥
##왦
##왧
##왨
##왩
##왪
##왫
##왬
##왭
##왮
##왯
##맕
##슽
##몀
##큭
##꾎
##녞
##잁
##잂
##잊
##잋
##잌
##잏
##뙨
##뮨
##랤
##킸
##뾜
##뻽
##윐
##곑
##곒
##곓
##곔
##곕
##곖
##곗
##곙
##곚
##곛
##곜
##곝
##곞
##곟
##춭
##헱
##헲
##헳
##헴
##헵
##헶
##헸
##헺
##헻
##헼
##헽
##헾
##몉
##쌩
##긄
##푀
##퉞
##홒
##쳄
##텥
##쌔
##붥
##팰
##횐
##캢
##캤
##캥
##캦
##캧
##캨
##캩
##캪
##캫
##캬
##캭
##캮
##캯
##헉
##쀏
##겊
##쩢
##쩣
##쩤
##쩥
##쩦
##쩧
##쩨
##쩩
##쩫
##쩬
##쩭
##쩮
##쩯
##똥
##똷
##끙
##틋
##켁
##랠
##ㅐ
##앳
##즡
##즢
##즣
##즤
##즥
##즦
##즧
##즨
##즩
##즪
##즫
##즬
##즭
##즮
##즯
##풵
##뭓
##쭊
##캁
##캂
##캃
##캄
##캆
##캇
##캈
##캉
##캊
##캋
##캌
##캍
##캎
##캏
##믱
##믲
##믳
##믴
##믵
##믶
##믷
##믺
##믻
##믽
##믾
##뱟
##콇
##젖
##뉼
##릐
##룝
##쥁
##쥂
##쥃
##쥄
##쥅
##쥆
##쥇
##쥈
##쥉
##쥊
##쥋
##쥌
##쥍
##쥎
##쥏
##큆
##줁
##줂
##줃
##줅
##줆
##줇
##줈
##줉
##줊
##줋
##줎
##줏
##킕
##릵
##탹
##쳂
##켹
##켔
##훽
##묢
##묣
##묤
##묥
##묦
##묧
##묨
##묩
##묪
##묫
##묬
##묭
##묮
##묯
##윔
##욡
##욢
##욣
##욤
##욥
##욦
##욧
##욨
##욪
##욫
##욬
##욭
##욮
##욯
##칱
##칲
##칵
##칶
##칷
##칹
##칺
##칻
##칽
##칾
##칿
##팻
##옱
##옲
##옳
##옶
##옸
##옺
##옻
##옽
##옾
##옿
##넹
##앲
##앶
##앷
##앸
##앹
##앺
##앻
##앾
##앿
##걵
##됭
##놰
##웥
##줡
##줢
##줣
##줤
##줥
##줦
##줧
##줨
##줩
##줪
##줫
##줭
##줮
##줯
##봔
##퐆
##앁
##앂
##앃
##앇
##앋
##앍
##앏
##퓉
##웡
##웢
##웦
##웧
##웩
##웪
##웫
##웬
##웭
##웮
##웯
##퉈
##붤
##쪼
##괘
##궰
##뙊
##딯
##츁
##츂
##츃
##츅
##츆
##츇
##츈
##츉
##츊
##츋
##츍
##츎
##츏
##긹
##긬
##긡
##긦
##긲
##긿
##뾰
##섩
##읁
##읃
##읅
##읆
##읇
##읈
##읉
##읊
##읋
##읎
##읏
##즱
##즲
##즳
##즴
##즵
##즶
##즷
##즸
##즹
##즺
##즻
##즼
##즽
##즾
##즿
##샐
##ㅒ
##셸
##꺁
##꺂
##꺃
##꺄
##꺅
##꺆
##꺇
##꺈
##꺉
##꺊
##꺋
##꺌
##꺍
##꺎
##꺏
##븜
##꼳
##벃
##낲
##낳
##낶
##낷
##낹
##낺
##낻
##낽
##낾
##낿
##뇩
##븛
##홥
##냡
##냢
##냣
##냤
##냦
##냧
##냨
##냩
##냪
##냫
##냬
##냭
##냮
##냯
##읖
##곁
##곂
##곃
##곆
##곇
##곈
##곉
##곊
##곋
##곍
##곎
##곏
##쿿
##뉨
##줱
##줲
##줳
##줴
##줵
##줶
##줷
##줸
##줹
##줺
##줻
##줼
##줽
##줾
##줿
##웓
##슝
##묾
##갗
##쉭
##쇈
##섦
##땡
##쨡
##쨢
##쨣
##쨤
##쨥
##쨦
##쨧
##쨨
##쨩
##쨪
##쨫
##쨬
##쨭
##쨮
##쨯
##볋
##켑
##쪷
##끑
##끒
##끖
##끘
##끚
##끛
##끜
##끞
##끟
##괒
##괓
##괔
##괕
##괖
##괗
##괙
##괚
##괛
##괜
##괝
##괞
##괟
##삐
##귣
##귥
##귦
##귧
##귨
##귪
##귫
##귬
##귭
##귮
##귯
##쒔
##맬
##빕
##웱
##웲
##웳
##웴
##웵
##웶
##웷
##웸
##웺
##웻
##웼
##웽
##웾
##웿
##옑
##옒
##옓
##옔
##옕
##옖
##옗
##옙
##옚
##옛
##옜
##옝
##옞
##옟
##첱
##첲
##첳
##첶
##첷
##첸
##첹
##첺
##첻
##첽
##첾
##첿
##븍
##룜
##쬐
##뉱
##뉲
##뉳
##뉵
##뉶
##뉷
##뉸
##뉹
##뉺
##뉻
##뉽
##뉾
##뉿
##렊
##픱
##픲
##픳
##픴
##픵
##픶
##픷
##픹
##픺
##픻
##픾
##픿
##딖
##뼱
##퀼
##듗
##뿡
##퇡
##퇢
##퇣
##퇤
##퇥
##퇦
##퇧
##퇨
##퇩
##퇪
##퇫
##퇬
##퇭
##퇮
##퇯
##훤
##뙋
##먕
##맃
##댱
##퇸
##윑
##윒
##윓
##윖
##윘
##윚
##윛
##윜
##윝
##윞
##윟
##쳑
##쳒
##쳓
##쳔
##쳕
##쳖
##쳗
##쳘
##쳙
##쳚
##쳛
##쳜
##쳝
##쳞
##쳟
##띤
##셤
##솥
##뺌
##섀
##쿡
##훔
##멋
##긅
##쩐
##낚
##샥
##햅
##뫬
##븸
##맶
##긌
##떉
##벢
##뿔
##켙
##겔
##뿜
##뀱
##뀲
##뀳
##뀴
##뀵
##뀶
##뀷
##뀸
##뀹
##뀺
##뀻
##뀽
##뀾
##뀿
##굼
##뷸
##칁
##칂
##칃
##칄
##칅
##칆
##칇
##칈
##칉
##칊
##칋
##칌
##칍
##칎
##칏
##덫
##촊
##뼹
##껄
##듵
##귔
##쳾
##쎱
##쎲
##쎳
##쎴
##쎵
##쎶
##쎷
##쎸
##쎹
##쎺
##쎻
##쎼
##쎽
##쎾
##쎿
##찁
##찂
##찃
##찄
##찅
##찆
##찇
##찈
##찉
##찊
##찋
##찎
##찏
##렿
##귖
##럔
##롊
##잱
##잲
##잳
##잴
##잵
##잶
##잷
##잸
##잹
##잺
##잻
##잼
##잽
##잾
##팑
##볅
##읠
##롮
##읡
##읢
##읣
##읤
##읥
##읦
##읧
##읨
##읩
##읪
##읫
##읬
##읮
##읯
##솕
##핒
##핓
##핔
##핕
##핖
##핗
##핝
##핞
##껁
##껂
##껃
##껅
##껆
##껇
##껈
##껉
##껊
##껋
##껌
##껎
##눱
##눲
##눳
##눵
##눶
##눷
##눸
##눹
##눺
##눻
##눽
##눾
##눿
##넽
##젬
##뮱
##뮲
##뮳
##뮵
##뮶
##뮷
##뮸
##뮹
##뮺
##뮻
##뮼
##뮽
##뮾
##뮿
##퀊
##툹
##갡
##갢
##갣
##갥
##갦
##갧
##갨
##갩
##갪
##갫
##갮
##뭱
##뭲
##뭳
##뭴
##뭵
##뭶
##뭷
##뭸
##뭹
##뭺
##뭻
##뭼
##뭽
##뭾
##뭿
##톐
##흗
##떴
##셧
##햂
##겢
##겣
##겤
##겥
##겦
##겧
##겫
##겭
##겮
##겯
##궡
##궣
##궧
##궨
##궪
##궭
##궮
##궯
##꼯
##띔
##갠
##퓌
##뱉
##팒
##멱
##걍
##긳
##칟
##퐅
##뉁
##뉂
##뉃
##뉄
##뉅
##뉆
##뉇
##뉈
##뉉
##뉊
##뉋
##뉌
##뉍
##뉎
##뉏
##넸
##욵
##욶
##욷
##욹
##욺
##욻
##욼
##욽
##욾
##욿
##랁
##랂
##랃
##랅
##랆
##랇
##랈
##랉
##랊
##랋
##랎
##묑
##묒
##묓
##묔
##묕
##묖
##묗
##묙
##묚
##묜
##묝
##묞
##첁
##첂
##첃
##첄
##첅
##첆
##첇
##첈
##첉
##첊
##첋
##첌
##첎
##첏
##뫅
##얡
##얢
##얣
##얤
##얥
##얦
##얧
##얨
##얩
##얪
##얫
##얬
##얭
##얮
##얯
##띑
##띒
##띓
##띕
##띖
##띗
##띘
##띙
##띚
##띛
##띜
##띝
##띞
##띟
##탯
##춣
##뀑
##뀒
##뀓
##뀕
##뀖
##뀗
##뀘
##뀙
##뀚
##뀛
##뀝
##뀞
##뀟
##꿘
##퇹
##뭡
##뭢
##뭣
##뭤
##뭦
##뭧
##뭫
##뭬
##뭮
##뭯
##볕
##붆
##눑
##눒
##눓
##눕
##눖
##눘
##눙
##눚
##눛
##눜
##눝
##눞
##팃
##쨑
##쨒
##쨓
##쨔
##쨕
##쨖
##쨗
##쨘
##쨙
##쨚
##쨛
##쨜
##쨝
##쨞
##쨟
##왈
##깻
##톈
##갲
##갳
##갴
##갵
##갶
##갷
##갺
##갻
##갼
##갽
##갾
##갿
##롼
##꺠
##츻
##촚
##퍀
##햔
##뉡
##뉢
##뉣
##뉤
##뉥
##뉦
##뉧
##뉪
##뉫
##뉬
##뉭
##뉮
##뉯
##텩
##밉
##ㄸ
##앟
##퇱
##퇲
##퇳
##퇵
##퇶
##퇷
##퇺
##퇻
##퇼
##퇽
##퇾
##퇿
##엊
##셃
##븀
##쏠
##붉
##봥
##짃
##짅
##짆
##짇
##짉
##짊
##짌
##짍
##짎
##짏
##쒸
##톏
##갞
##픑
##픒
##픓
##픕
##픖
##픗
##픘
##픙
##픚
##픛
##픜
##픝
##픟
##쀐
##띡
##띢
##띣
##띥
##띦
##띨
##띩
##띪
##띫
##띬
##띭
##띮
##띯
##궂
##궃
##궄
##궅
##궆
##궉
##궊
##궍
##궎
##궏
##봹
##븓
##븿
##웄
##웆
##웇
##웈
##웉
##웊
##웋
##폈
##뇬
##쪱
##쪲
##쪳
##쪴
##쪵
##쪶
##쪸
##쪹
##쪺
##쪻
##쪿
##볌
##텼
##뱔
##콛
##뢈
##젱
##갇
##갉
##갊
##턋
##젊
##햱
##햲
##햳
##햴
##햵
##햶
##햷
##햸
##햹
##햺
##햻
##햼
##햽
##햾
##햿
##딨
##춮
##뎅
##얁
##얂
##얃
##얅
##얆
##얇
##얈
##얉
##얊
##얋
##얍
##얎
##똘
##퓸
##뭁
##뭂
##뭃
##뭆
##뭈
##뭊
##뭋
##뭌
##뭍
##뭎
##뭏
##ㅛ
##쳡
##쳢
##쳣
##쳦
##쳧
##쳨
##쳩
##쳪
##쳫
##쳭
##쳮
##쳯
##넡
##꼏
##땞
##ㄵ
##ㄶ
##닁
##닂
##닃
##닄
##닅
##닆
##닇
##닋
##닍
##닎
##닏
##쳱
##쳲
##쳳
##쳴
##쳵
##쳶
##쳷
##쳸
##쳹
##쳺
##쳻
##쳼
##쳽
##쳿
##벏
##쌤
##걄
##꺱
##꺲
##꺳
##꺴
##꺵
##꺶
##꺷
##꺸
##꺹
##꺺
##꺻
##꺾
##꺿
##밟
##겑
##겒
##겓
##겕
##겖
##겗
##겘
##겙
##겚
##겛
##겜
##겝
##겞
##앢
##긁
##긂
##긃
##긆
##긇
##긊
##긎
##쯕
##붑
##왁
##왂
##왃
##왅
##왆
##왇
##왉
##왊
##왋
##왌
##왍
##왎
##왏
##뮌
##믁
##믂
##믃
##믅
##믆
##믇
##믉
##믊
##믋
##믌
##믍
##믎
##믏
##꼋
##헑
##헒
##헓
##헔
##헕
##헖
##헗
##헚
##헜
##헞
##헟
##곢
##곣
##곥
##곦
##곩
##곪
##곫
##곬
##곭
##곮
##곯
##븊
##뫌
##뽋
##렜
##륃
##뺪
##귞
##덇
##뺴
##볽
##쟉
##듸
##칑
##칒
##칓
##칔
##칕
##칖
##칗
##칛
##칝
##칞
##힖
##괁
##괂
##괃
##괅
##괆
##괇
##괈
##괉
##괊
##괋
##괍
##괎
##홤
##캱
##캲
##캳
##캴
##캵
##캶
##캷
##캸
##캹
##캺
##캻
##캼
##캽
##캾
##캿
##텂
##텄
##텆
##텇
##텈
##텉
##텊
##텋
##텏
##뫘
##늱
##늲
##늳
##늴
##늵
##늶
##늷
##늸
##늹
##늺
##늻
##늼
##늽
##늾
##늿
##톲
##톳
##톴
##톶
##톷
##톸
##톹
##톺
##톻
##톼
##톽
##톾
##톿
##솓
##끱
##끲
##끳
##끴
##끵
##끶
##끷
##끸
##끹
##끺
##끻
##끾
##끿
##켕
##읒
##럡
##럢
##럣
##럤
##럥
##럦
##럧
##럨
##럩
##럪
##럫
##렺
##윁
##윂
##윃
##윆
##윇
##윉
##윊
##윋
##윍
##윎
##윏
##걂
##릷
##텿
##늒
##늓
##늖
##늗
##늙
##늚
##늛
##늜
##늝
##늞
##늟
##푯
##롣
##쥡
##쥢
##쥣
##쥤
##쥥
##쥦
##쥧
##쥨
##쥩
##쥪
##쥫
##쥭
##쥮
##쥯
##읓
##읔
##읕
##읗
##읙
##읚
##읛
##읝
##읞
##읟
##젺
##헁
##턁
##턂
##턃
##턄
##턅
##턆
##턇
##턈
##턉
##턊
##턌
##턍
##턎
##턏
##팉
##뉠
##풂
##쌱
##쌲
##쌳
##쌴
##쌵
##쌶
##쌷
##쌸
##쌹
##쌺
##쌻
##쌼
##쌽
##쌾
##쌿
##맑
##맋
##콸
##슭
##긶
##긷
##긺
##긻
##긼
##긽
##긾
##렩
##섵
##놐
##뻑
##흰
##튳
##욑
##욒
##욓
##욖
##욗
##욙
##욚
##욛
##욝
##욞
##욟
##괱
##괲
##괳
##괵
##괶
##괷
##괹
##괺
##괻
##괼
##괽
##괾
##괿
##굱
##굲
##굷
##굸
##굹
##굺
##굻
##굾
##뜀
##빤
##텱
##텲
##텳
##텴
##텵
##텶
##텷
##텸
##텹
##텺
##텻
##텽
##텾
##엾
##옡
##옢
##옣
##옧
##옩
##옪
##옫
##옭
##옯
##맅
##훕
##뭑
##뭒
##뭕
##뭚
##뭛
##뭜
##뭞
##뭟
##쀼
##걡
##걢
##걣
##걤
##걥
##걦
##걧
##걨
##걩
##걪
##걫
##걬
##걭
##걮
##걯
##똍
##맏
##컁
##컂
##컃
##컄
##컅
##컆
##컇
##컈
##컉
##컊
##컋
##컌
##컍
##컎
##늰
##뀁
##뀂
##뀃
##뀄
##뀅
##뀆
##뀇
##뀈
##뀉
##뀊
##뀋
##뀍
##뀎
##뀏
##뮑
##뮒
##뮓
##뮔
##뮕
##뮖
##뮗
##뮘
##뮙
##뮚
##뮛
##뮜
##뮝
##뮞
##뮟
##씱
##씲
##씳
##씴
##씵
##씶
##씷
##씸
##씹
##씺
##씼
##씾
##씿
##쪡
##쪢
##쪣
##쪤
##쪥
##쪦
##쪧
##쪩
##쪫
##쪬
##쪭
##쪮
##쪯
##걑
##걒
##걓
##걕
##걗
##걘
##걙
##걚
##걛
##걜
##걝
##걞
##걟
##쏱
##쏲
##쏳
##쏴
##쏶
##쏷
##쏸
##쏹
##쏺
##쏻
##쏼
##쏽
##쏾
##쏿
##쀗
##떫
##슱
##춸
##쭝
##젰
##걃
##걅
##걆
##걇
##걈
##걉
##걋
##걌
##걎
##끎
##숀
##긢
##긧
##긩
##긪
##긭
##긮
##챁
##챂
##챃
##챆
##챇
##챉
##챊
##챋
##챍
##챎
##챏
##뤱
##냱
##냲
##냳
##냴
##냵
##냶
##냷
##냸
##냹
##냺
##냻
##냼
##냽
##냾
##냿
##낑
##낒
##낓
##낔
##낕
##낖
##낗
##낛
##낝
##낞
##촴
##뜱
##뜲
##뜳
##뜴
##뜵
##뜶
##뜷
##뜺
##뜼
##뜽
##뜾
##뜿
##텡
##텢
##텣
##텤
##텦
##텧
##텪
##텫
##텬
##텭
##텮
##텯
##걲
##걳
##걶
##걹
##걺
##걻
##걼
##걽
##걾
##걿
##흫
##엁
##엂
##엃
##엋
##엍
##엎
##엏
##쉑
##뎡
##껡
##껢
##껣
##껤
##껥
##껦
##껧
##껨
##껩
##껪
##껫
##껬
##껭
##껮
##껯
##닡
##닢
##닣
##닧
##닩
##닪
##닮
##닯
##턲
##둍
##먄
##랡
##랢
##랣
##랥
##랦
##랧
##랮
##랯
##쫡
##쫢
##쫣
##쫥
##쫦
##쫧
##쫨
##쫩
##쫪
##쫫
##쫬
##쫭
##쫮
##쫯
##촥
##놉
##깩
##쟡
##쟢
##쟣
##쟥
##쟦
##쟧
##쟨
##쟩
##쟪
##쟫
##쟬
##쟭
##쟮
##쟯
##깱
##깲
##깳
##깴
##깵
##깶
##깷
##깸
##깹
##깺
##깼
##깽
##깾
##깿
##쏡
##쏢
##쏣
##쏤
##쏥
##쏦
##쏧
##쏨
##쏩
##쏪
##쏫
##쏬
##쏮
##쏯
##츑
##츒
##츓
##츔
##츕
##츖
##츗
##츘
##츙
##츚
##츛
##츜
##츝
##츞
##츟
##뺱
##됄
##짲
##짳
##짴
##짵
##짶
##짷
##짺
##짻
##짼
##짽
##짿
##끁
##끂
##끃
##끅
##끆
##끇
##끉
##끋
##끍
##끏
##퉤
##ㅔ
##럑
##럒
##럓
##럕
##럖
##럗
##럘
##럙
##럚
##럛
##럜
##럝
##럞
##럟
##뼐
##랱
##랳
##랶
##랷
##랸
##랹
##랺
##랻
##랽
##랾
##랿
##뱶
##쳁
##쳃
##쳅
##쳆
##쳈
##쳉
##쳊
##쳋
##쳌
##쳍
##쳎
##쳏
##컱
##컲
##컳
##컶
##컺
##컻
##컼
##컽
##컾
##컿
##쬈
##젣
##묱
##묲
##묳
##묷
##묹
##묽
##묿
##갘
##갚
##갟
##촨
##텰
##뮡
##뮢
##뮣
##뮥
##뮦
##뮧
##뮩
##뮪
##뮫
##뮭
##뮮
##뮯
##겍
##룥
##웑
##웒
##웕
##웖
##웗
##웘
##웙
##웚
##웛
##웝
##웞
##햑
##햒
##햓
##햕
##햖
##햗
##햘
##햙
##햚
##햛
##햜
##햝
##햞
##햟
##쑈
##뷱
##튌
##쀔
##츢
##츣
##츥
##츦
##츧
##츩
##츪
##츫
##츬
##츭
##츮
##츯
##챱
##챲
##챳
##챴
##챶
##챷
##챸
##챹
##챺
##챻
##챼
##챽
##챾
##챿
##왒
##왖
##왗
##왘
##왙
##왚
##왛
##왝
##왞
##왟
##쑧
##떈
##샂
##댜
##샆
##밲
##겂
##겄
##겆
##겇
##겈
##겉
##겋
##겎
##겏
##쫑
##쫒
##쫔
##쫕
##쫖
##쫗
##쫘
##쫙
##쫚
##쫛
##쫜
##쫝
##쫞
##쫟
##퐕
##텑
##텒
##텓
##텕
##텖
##텗
##텘
##텙
##텚
##텛
##텞
##댸
##낁
##낂
##낃
##낅
##낆
##낇
##낈
##낉
##낊
##낋
##낎
##낏
##냁
##냂
##냃
##냆
##냊
##냋
##냌
##냍
##냎
##냏
##갅
##갆
##갌
##갍
##갎
##갏
##쌑
##쌒
##쌕
##쌖
##쌗
##쌘
##쌙
##쌚
##쌛
##쌜
##쌝
##쌞
##쌟
##츱
##츳
##츴
##츶
##츷
##츸
##츹
##츺
##츼
##츾
##츿
##쎡
##쎢
##쎣
##쎥
##쎦
##쎧
##쎨
##쎩
##쎪
##쎫
##쎬
##쎭
##쎮
##쎯
##먛
##싲
##귑
##귓
##귗
##귘
##귙
##귚
##귛
##튤
##쪁
##쪂
##쪃
##쪅
##쪆
##쪇
##쪈
##쪉
##쪊
##쪋
##쪌
##쪍
##쪎
##쪏
##뱠
##싵
##탙
##퇑
##퇒
##퇓
##퇔
##퇕
##퇖
##퇗
##퇚
##퇛
##퇜
##퇝
##퇞
##퇟
##풉
##삑
##둖
##썑
##썒
##썓
##썔
##썕
##썖
##썗
##썘
##썙
##썚
##썛
##썜
##썝
##썞
##썟
##톁
##톂
##톃
##톄
##톅
##톆
##톇
##톉
##톊
##톋
##톌
##톍
##톎
##캑
##캒
##캓
##캕
##캖
##캗
##캙
##캚
##캛
##캜
##캝
##캞
##캟
##썱
##썲
##썳
##썴
##썵
##썶
##썷
##썺
##썻
##썾
##썿
##엱
##엲
##엳
##엵
##엶
##엷
##엸
##엹
##엺
##엻
##혻
##젭
##앑
##앒
##앚
##앛
##앜
##앝
##뮁
##뮂
##뮃
##뮄
##뮅
##뮆
##뮇
##뮈
##뮉
##뮊
##뮋
##뮍
##뮎
##뮏
##쀒
##롍
##헂
##헃
##헄
##헅
##헆
##헇
##헊
##헋
##헍
##헎
##헏
##뾆
##먩
##촁
##톢
##톣
##톥
##톦
##톧
##톩
##톪
##톫
##톬
##톭
##톮
##톯
##봣
##ㅖ
##떔
##뙯
##깢
##깣
##깤
##깦
##깧
##깪
##깫
##깬
##깭
##깮
##깯
##쨱
##쨲
##쨳
##쨴
##쨵
##쨶
##쨷
##쨸
##쨹
##쨺
##쨻
##쨼
##쨽
##쨾
##쨿
##팦
##풽
##촹
##쿱
##삔
##앧
##둣
##숬
##쌡
##쌢
##쌣
##쌥
##쌦
##쌧
##쌨
##쌪
##쌫
##쌬
##쌭
##쌮
##쌯
##쮝
##댚
##썰
##뙝
##튝
##뀡
##뀢
##뀣
##뀤
##뀥
##뀦
##뀧
##뀨
##뀩
##뀪
##뀫
##뀬
##뀭
##뀮
##뀯
##뇠
##뎷
##땶
##룓
##묁
##묂
##묃
##묄
##묅
##묆
##묇
##묈
##묉
##묊
##묋
##묌
##묍
##묎
##묏
##췶
##밎
##폻
##탊
##눡
##눢
##눣
##눤
##눥
##눦
##눧
##눨
##눩
##눪
##눫
##눬
##눭
##눮
##눯
##쟂
##쟃
##쟄
##쟅
##쟆
##쟇
##쟊
##쟋
##쟌
##쟍
##쟎
##쟏
##쐤
##짡
##짣
##짥
##짦
##짨
##짪
##짫
##짭
##짮
##짯
##햁
##햃
##햆
##햊
##햋
##햌
##햍
##햎
##햏
##띰
##뉰
##젟
##뻆
##땎
##앣
##앥
##앦
##앩
##앪
##앫
##앬
##앭
##앮
##앯
##얱
##얲
##얷
##얺
##얾
##얿
##뚖
##맄
##렕
##룍
##끡
##끢
##끣
##끤
##끥
##끦
##끧
##끨
##끩
##끪
##끫
##끬
##끭
##끮
##끯
##쎑
##쎒
##쎓
##쎕
##쎖
##쎗
##쎘
##쎙
##쎚
##쎛
##쎜
##쎝
##쎞
##쎟
##탳
##푉
##퉩
##탣
##턳
##턵
##턶
##턷
##턹
##턺
##턻
##턼
##턽
##턾
##턿
##뗀
##넻
##꼑
##씠
##er
##he
##on
##at
the
##es
##in
##or
##ion
##en
##ed
##an
##le
##ing
##ro
in
##al
##ct
##ic
##st
##it
##re
to
##ou
##ar
##ent
an
##et
##ation
##am
##ag
of
##se
and
##om
th
##ess
##is
##ac
is
re
##ll
##ut
##ue
##ow
##ri
for
##as
##pl
##ect
##ab
##pt
##ec
##ver
##el
##il
##age
con
on
##ot
pro
##ur
##ate
you
st
##ig
##ce
The
##od
##니다
##nt
##ment
##her
##으로
##em
com
##스템
be
##00
us
that
##all
or
##ame
##if
##ad
##id
##하여
ex
사용
##에서
##ers
##ol
##ist
##oc
##ve
MQ
##ort
##ul
de
##ith
##im
##ile
##un
##for
##ata
##ction
##and
are
with
as
##ication
##um
##ple
##01
can
##ch
##up
##ay
##ter
##eb
In
##하는
##est
시스템
##이터
##able
##cess
##erver
cl
##form
##ir
정보
##port
##ject
##per
관리
se
##ppl
데이터
ch
##og
by
##ity
##erv
##ption
##ain
##us
it
##pe
##qu
not
##비스
##ust
##ure
##art
##ER
Web
##ase
Con
##ult
##gr
##ub
프로
##yst
##한다
DB
this
##tr
Pro
##ystem
##here
##ly
##essage
sp
val
##정보
##ew
en
##AI
##pplication
##rom
##ail
set
##ueue
##ice
경우
##하고
Th
data
##anag
##ies
ad
##관리
##fer
##ode
##op
tr
##ap
##iz
comm
##ack
##ans
name
##llow
##cri
from
Re
파일
##ine
서비스
##bject
at
##ass
##nect
##ace
cont
sh
##ated
##ON
##ype
##av
개발
##ex
##AT
##end
##ory
##스트
def
##ecif
inst
##이스
##ire
wh
기능
res
201
사용자
file
##fig
##ork
##BM
This
업무
##Sp
##ive
##our
대한
제공
use
EAI
##ST
##anager
queue
##시스템
Int
If
##ang
##ime
Ad
IBM
##합니다
##Sphere
##ind
int
##vel
##ition
al
처리
Ex
확인
##ore
##습니다
message
WebSphere
##formation
##ervice
##hen
##act
##ard
##ant
##OR
fo
Or
your
if
##os
##pon
##ib
##lect
인터
AP
##rr
application
system
##MS
서버
##ill
##ht
##IN
##out
specif
follow
Server
page
For
##are
ID
##iv
##ave
##acle
##ample
##LE
통합
설정
##atab
##ient
command
구성
운영
##ber
value
##nd
Cl
St
object
있는
지원
ac
cre
##apt
requ
연계
##ost
le
##ach
##ial
##페이스
수행
##aram
Oracle
add
##min
보안
구축
server
##ther
##ide
dis
##atabase
all
##ava
information
user
##ext
##ance
str
사업
##put
기술
log
200
Se
##rib
##ord
##ich
##so
##ribut
im
인터페이스
##uct
De
##ser
##cl
##ME
##figur
using
following
변경
##aramet
##ary
필요
##ersion
##int
##urn
한다
process
##unction
ret
IN
선택
##ak
##Str
##ud
##ows
##icro
which
RE
##ateg
used
조회
have
Com
##ld
##AP
##apter
##rror
Micro
##escri
connect
##AR
##irect
inter
10
##사항
해당
install
##ence
##ally
trans
테스트
위한
call
To
##gram
##umber
You
##ments
##TE
met
do
##ault
type
will
##ight
##ick
per
##pert
##ey
##QL
##적으로
get
##AN
##th
발생
##ied
##vent
fil
Ch
##CT
##ource
list
loc
또는
##ages
##ft
가능
등록
분석
##적인
up
##ID
##ress
un
##upport
att
ab
Data
when
has
12
##ign
##iew
##roup
생성
must
##AS
##ast
##ategy
manager
##AL
one
##pp
##oo
API
##abl
관련
추가
##ms
##eld
##ax
적용
new
있습니다
##ues
select
##ann
##ator
수신
##ount
화면
##etw
id
##ck
##도록
문서
##te
function
##action
##Strategy
##ield
##02
표준
Tr
##젝트
##iness
MicroStrategy
설치
##하기
sub
out
##yn
example
##usiness
##ML
##되는
##EN
sc
##ob
##ET
database
요청
time
prov
any
only
option
입력
##pen
##clud
작업
run
##ould
##ating
Inte
su
##tt
환경
##ubl
##ry
paramet
##hod
##ual
##ION
저장
##기관
##ware
결과
##figuration
##RO
##ting
##ux
##코드
return
11
##ome
##ener
##oad
##번호
##ES
number
##ates
ne
pr
설명
ent
so
##그램
##own
내용
이용
rec
SQL
##시지
##ip
프로젝트
more
정의
defin
Str
있다
see
##ations
default
전송
pl
start
작성
##use
##gent
mod
##ari
##heck
##ug
##세스
aut
error
includ
실행
##되어
##IS
oper
other
Res
client
##itor
class
##DB
통해
contain
고객
##ock
##ep
##play
##ize
##ions
##이션
다음
##TP
Wind
direct
ind
##ument
##ite
##AC
전문
##ause
sec
##ere
##IC
##ink
det
##ote
Application
##annel
ar
메시지
대상
##ff
##urr
##니터
On
key
##IT
support
attribut
An
##der
위해
로그
개인
##oint
따라
part
##ull
##이블
service
no
files
char
##rig
장애
System
Windows
##read
descri
##ices
##face
##ced
##에는
col
요구
create
모니터
method
CO
but
##ange
OS
클릭
##mat
access
##서버
##ath
##atch
propert
level
수정
pre
##ical
##ces
String
##처리
##ix
##ead
man
group
field
Cont
##rok
##get
프로세스
##12
##minist
##하지
doc
프로그램
클라
report
IP
rem
mess
also
##ponent
work
program
Java
need
##ys
provid
##opy
##하면
File
then
each
##ility
##urity
##웨어
publ
Inter
##ics
포함
##ml
##시간
display
stat
En
모니터링
##UT
##ustom
##gration
##oot
##ecut
01
Service
request
Message
Sp
##vir
##ache
table
Connect
java
##yp
bu
was
14
ST
테이블
##viron
##etwork
유지
##low
##ception
Version
##ous
기반
##ier
code
##rol
방안
##ministr
##pri
##roker
기본
송신
상태
Gu
string
##res
19
항목
##사업
comp
##ttp
Trans
##ection
제품
##ook
Us
##ables
we
##ND
계약
##oy
Manager
자료
It
설계
모든
지정
##케이션
##ger
상세
##ning
13
version
##ose
관리자
parameter
ass
##이지
##ake
20
messages
##ree
##ule
av
##ask
act
15
삭제
진행
perform
Inst
##플리
##inux
자동
click
same
##row
##해야
##파일
##over
##ploy
##ert
방법
##ponse
pass
##Con
state
구분
##하여야
##UB
##RI
##tern
제안
pri
channel
may
##fore
Process
##ATE
정보를
검증
##urrent
##플리케이션
16
Un
##프트
거래
##ss
XML
전자
##cc
back
specified
##one
주요
성능
values
##ound
IT
##서비스
Table
how
##IX
Guide
http
담당
구현
##ervices
##루션
##DE
기관
오류
##iffer
Business
##라인
##MQ
##onitor
HT
Linux
configuration
When
these
##MP
Man
목록
hand
대해
directory
ident
단위
100
transaction
##Name
##10
DE
comple
공유
##vironment
wr
##입니다
SS
Object
활용
##ftware
qu
vari
OR
nam
##word
Ent
이상
event
##ailable
##이다
##sion
##하게
##eng
connection
##RE
lib
Set
##ccess
유형
##ify
00
인증
##LL
should
check
##ble
gener
##에게
TO
하는
##ge
into
##PT
its
##ired
app
##워크
execut
##cript
##ference
US
Integration
표시
연결
##거나
Name
SE
교육
does
##NT
Comm
##ong
See
LO
User
line
NO
검색
IS
완료
end
기준
##plement
##ild
prod
##CP
mq
##ov
All
##LO
result
##ulti
bas
솔루션
##ength
about
##US
than
charact
init
attribute
##str
mem
differ
exp
##uster
보고
##umn
Agent
read
fail
Cre
open
품질
기존
allow
##ke
db
##CH
##토리
ed
내부
##하며
want
일반
기타
암호
Adapter
rep
시간
##ery
##11
##ten
##PE
##부터
available
view
##wo
UN
ele
다양
over
##AB
typ
##irst
top
##ization
문제
specify
이름
been
##val
AS
응답
버튼
cor
document
##AME
전체
##ures
##으며
ES
단계
node
##ED
정상
##ove
exist
current
개선
such
사항
objects
component
##ucture
현재
##ox
Al
Enter
통한
##iver
##지원
format
##자료
##ech
##ible
기록
installation
##agement
##성을
##ically
me
port
외부
평가
계획
applications
네트
##arget
##fter
local
##프트웨어
where
test
다양한
##che
그룹
Program
SY
CD
현황
##scri
Add
##sg
CS
접근
reg
##ower
요구사항
SO
데이터를
describ
##let
two
##우드
Descri
호출
Chapter
##PS
environment
합니다
Install
##ession
public
##name
000
Use
address
##igure
개인정보
25
##이트
조직
PC
검토
##OS
##이드
방식
Im
##way
Copy
##con
TR
##ING
ap
폴더
project
##기술
백업
다른
bl
stor
##AD
##file
rel
different
##업무
##보수
##UE
source
##UR
17
##rid
##계획
기능을
클라우드
승인
Val
##roug
코드
Client
inte
em
필요한
interface
host
sim
소프트웨어
출력
Database
dri
bec
##된다
##로드
##arch
Specif
##app
##랫폼
따른
네트워크
cons
Queue
##sert
Def
##됩니다
point
rece
##rough
HTTP
##문서
##CS
Sec
에서
##EM
##prise
Figure
SW
business
##IG
send
xml
##자가
Mod
참조
pos
##fo
점검
기업
##카드
there
##its
Type
##CO
##und
##eader
Rec
##에서는
first
권한
EX
fl
있음
##St
##ermin
시작
created
Expl
##ade
##nder
text
Description
PL
Inc
##edi
CH
02
size
##ative
##uction
Pl
##date
##In
security
연동
column
접속
##ish
##rap
network
##sp
Using
종료
ER
##atform
여부
Log
dev
수립
##ma
task
##포트
MI
Note
##스크
신규
Dis
include
custom
같은
chang
##icate
##03
defined
##ond
##센터
pack
valid
##PL
web
##rary
some
등의
##omain
##Ex
메뉴
##olic
추진
org
##par
등을
계정
instance
##cept
control
definition
before
through
they
동일
properties
##not
##방안
setting
Aut
##까지
rest
enc
##ark
##ash
required
##een
모델
response
appl
##right
##AG
일정
multi
options
배치
contains
detail
Select
bin
property
있도록
##etween
AD
##마트
path
32
##RL
Class
##ingle
##되지
MS
정책
소스
18
acc
users
##LT
step
2019
PRO
des
##eat
As
##velop
##CE
##ner
##결과
product
##UP
change
##므로
구조
enter
based
between
##andard
디렉
inv
##개발
##데이터
하나
##por
input
So
CON
dec
MQC
유지보수
버전
##dition
##ases
ag
output
공통
##ym
TP
Copyright
length
HO
Administr
config
##ron
section
통신
TCP
스마트
implement
##ILE
##ply
페이지
within
##내역
spec
##istribut
names
##ater
##05
아래
bot
par
##ted
Back
##roll
##UM
CP
전달
있어
채널
리포트
영역
SAP
running
##AM
##베이스
##DS
CL
No
##자는
##하도록
UI
down
##raph
##IP
Configuration
Work
##ents
##ized
tool
record
##lease
절차
JMS
##line
에러
##09
##hor
inc
24
Requ
##32
##NS
파일을
order
그림
##04
import
main
under
##ffer
22
identif
cannot
##기능
called
##내용
##서는
반영
cert
right
모듈
##uring
##mis
##ines
##ither
위치
password
subscri
cluster
##보호
필드
##자의
List
sche
함수
print
##pend
MQS
systems
한국
##oci
##olut
##통신
Act
##여부
##ven
##inal
proble
mode
##ever
##ination
행정
##omat
##ise
##erved
prot
Open
##elp
##view
##ool
them
##001
Monitor
비즈
UNIX
##ities
##echn
##요청
action
##등록
because
Up
MD
##SE
provides
Ret
##ors
실시간
##TT
Not
Broker
##mit
Cor
##기간
##스터
##이언
##구분
통계
character
##06
structure
parameters
나타
과제
mach
Ar
initial
이동
##환경
case
By
Met
Enterprise
Sub
occ
iss
##Id
Error
single
Sh
데이터베이스
FOR
Bms
##ification
make
특정
##ql
##YPE
Page
기간
load
go
##enter
##ESS
script
insert
deploy
##키텍
URL
MTE
QM
디렉토리
시험
How
##ources
types
max
addition
software
##08
접수
##ABLE
##ivity
##odes
##hent
21
agent
산출
도입
Click
ph
메모
대응
##RM
다음과
way
##ular
온라인
신청
##벤트
their
broker
model
애플리케이션
##ENT
##urs
##net
ESB
트랜
administr
##oud
##oper
after
##SP
##ared
##ocol
box
ow
dyn
##iles
명령
might
##mpt
root
target
Transaction
##race
##enu
lang
tem
##ric
응용
services
##que
##하였
##lete
##eries
DB2
##니스
고려
am
이행
사용할
commands
효율
Interface
##load
##현황
##DBC
협의
##oll
##MD
##red
##ful
##대상
arg
manag
appro
##ider
암호화
안정
경우에는
##attern
변환
##by
##이언트
있으며
하여
sign
대외
##imum
##OL
버튼을
associ
non
require
##조회
specific
##AX
##24
##연계
thread
uses
##edo
##전문
off
##RC
Bu
##ason
##ets
개요
제출
제시
SSL
로그인
##이브
##imit
##ern
Paramet
link
handl
이벤트
MO
##ens
Action
시스템의
WMQ
부분
second
##ely
priv
##잭션
attributes
##시오
담당자
##수행
Reference
multiple
클라이언트
both
memory
범위
##rect
Le
##hether
##이나
상황
either
같이
확보
##CI
##old
##ATION
별도
##소드
element
##CA
##pos
위하여
##other
Per
domain
않는
##mary
form
Pr
어플리케이션
sup
##ampl
Be
메소드
확장
##ability
##ream
IF
##ra
##tes
block
##하거나
item
##통합
비즈니스
새로
세부
##단계
##omm
부서
##Cl
Security
트랜잭션
Time
##uments
li
operation
tables
##체계
조치
RF
##vi
##pro
##사용
##ef
static
0x
USER
##되고
아이
장비
index
Report
##리오
아니
##rame
가상
아키텍
refer
이미
Check
##anation
##apping
wind
이용하여
Management
사용하여
속성
##테스트
##ORT
##십시오
Direct
##프로
다운
전환
##ules
##ATA
##itory
##aces
##ually
conver
##보안
내역
서비스를
30
##tc
##lection
##max
functions
직접
23
variable
##igr
수집
이전
Propert
tp
Support
##olicy
옵션
feat
연구
존재
##veloper
##sible
배포
Ap
##enc
true
success
##Data
표준화
##oid
##igh
Custom
체계
disk
Option
##나리오
사전
space
##64
##List
msg
##llig
Services
##되었
del
##ai
automat
##ULL
null
App
실시
보호
remote
##ww
##til
##보고
whether
##ffect
이를
03
##ton
dest
Event
Explanation
최종
Test
플랫폼
##99
displayed
www
202
put
형태
shown
Software
##amples
##일자
##14
##back
##약점
##15
machine
참여
가능한
##gine
exception
Network
요건
writ
repl
There
platform
Sc
equ
조건
count
##gin
사용하는
##erm
##oin
생산
Rem
ERR
##Link
Pre
##Type
##프라
statement
##16
Run
standard
NAME
arch
##ynt
##ateway
##IST
##ero
Command
provide
위험
결정
하며
min
##화면
Start
##rray
repres
##IME
국가
##분석
Out
giv
HP
Project
look
또한
##려면
##Pro
another
Tool
header
##VE
most
체크
copy
installed
자원
Function
bel
topic
WAS
##ended
conf
##키지
configur
없음
##Time
CPU
##MM
Wh
##ales
##hentication
##래스
Ed
경로
TE
##ential
stop
##ank
시나리오
resource
supported
##항목
Port
being
##orm
exit
without
Source
##운영
정부
##별로
##uage
복구
performance
##unt
인터넷
카드
나라
##ara
SH
##olog
LG
##itect
##uxedo
Prod
시장
RO
2013
##댑터
##CL
##07
etc
##vious
##cedure
여러
##ia
##ell
distribut
역할
Intellig
associated
##ense
Control
Over
HOME
session
shows
next
Group
##lob
window
changes
full
These
described
pan
##ync
status
##overy
##icates
##ait
details
sw
##TH
location
cd
##거래
으로
비밀
것으로
##sh
##aster
##보험
##tain
monitor
depend
NULL
Example
provided
하고
##MO
##담당
중요
##은행
Tuxedo
##rypt
클래스
##관련
usr
pers
num
##mq
##가능
filter
##yntax
##nara
##13
during
existing
목표
##VER
가이드
Right
backup
##String
Part
returns
##NO
author
Col
제어
##기업
##ression
인력
Return
long
develop
##하다
##MB
##nal
Qu
##ived
2008
##oose
##Re
##기준
##roller
##서를
kn
prompt
##irt
common
##레임
##페이지
WS
##db
sample
##정의
사용자가
processing
제한
##PTION
home
Des
buffer
rout
발급
context
Arch
산출물
Number
##ale
어댑터
001
##ging
공공
관한
hard
국내
##기반
##very
components
Value
##sole
패키지
##Exception
Connection
New
bit
##업체
목적
handle
steps
driver
영향
selected
아키텍처
##DI
gre
find
##abled
영업
define
update
AND
금융
##io
##IB
##로그
##olution
안전
##34
Administration
write
##과제
##anced
##으로써
##ars
##GR
##수신
co
what
모두
##aly
가지
Information
##older
##MT
##NE
##aging
의견
##bm
##point
##rie
상품
##Service
성공
##bers
##바일
##GB
증가
비고
다운로드
##ational
최소
Doc
returned
만들
Corpor
##obile
최대
que
##untime
##ocket
##ialog
64
##IL
분야
pres
ob
##set
automatically
help
many
##폴더
own
My
image
while
Access
complete
flow
Default
예정
2015
모바일
##Cont
Loc
##sure
like
Developer
##ected
correct
##금액
Get
제공하는
##PC
통하여
##세대
##트리
Corporation
##들을
##mission
이관
##lobal
##UN
SUB
design
##FS
필수
##방법
것을
##ok
##관리시스템
##sc
##be
27
problem
##hell
##ming
##SC
새로운
allows
문자
##LECT
##oard
비용
Comp
##25
View
Model
lay
##하십시오
실제
초기
profile
speci
configure
INT
##정보를
commun
의해
Result
ON
##ouse
##Or
##OP
active
partic
##EC
Cause
Create
fact
Lib
Prot
cache
ibm
termin
my
red
의한
appe
##ole
dat
##평가
certif
Ass
date
##icense
대하여
지역
Call
characters
those
##들이
condition
28
##stant
SP
FILE
jar
reason
##irtual
##확인
결재
comput
##보증
노드
Dyn
동작
요소
build
menu
컬럼
##EB
mqm
##als
match
WH
Att
MB
previous
##설정
해결
CSQ
것이
RC
##oug
separ
description
번호
##지를
EN
device
않은
FTP
tim
분류
LD
내용을
##soft
Ind
##정부
Apache
##amic
reference
26
would
##EE
var
##plate
disc
##MI
##ences
##19
##ATH
그리
Active
Det
##년도
##FT
SET
관계
값을
없는
stored
BE
Component
##lean
lock
##STEM
SELECT
07
entry
스크
##넌트
methods
##ready
인프라
##ved
regist
##18
DATA
PD
classes
공급
들어
fields
ext
파악
pattern
##oding
된다
##으면
##rit
선정
2014
However
##md
도구
could
참고
##rop
##ued
package
##대로
##UI
##hed
Id
##empt
flag
##방향
contin
already
protocol
##문에
button
##로부터
차세대
job
identifier
Key
Response
##iag
##rigger
##vanced
##시스
BP
##IZ
below
##사의
eai
account
PM
메일
이후
management
##less
산업
팝업
지속
일부
resources
additional
expl
processes
Reserved
책임
##flow
##화를
mail
DBMS
객체
Format
ref
##NAME
Stat
##AY
again
정보보호
SYSTEM
constr
map
##alse
appropri
##Set
모코
##DL
possible
SC
규정
last
2012
NET
content
##포넌트
##86
tab
향상
Tmax
including
Channel
##ough
변수
리스트
지식
query
settings
35
sent
과정
Field
row
##ROM
gr
되어
delete
매핑
Installation
elements
##INE
##ross
파일명
library
인수
now
이력
Also
##000
servers
##quence
##기를
eas
##러한
발주
##work
ver
card
##ision
given
operating
We
##ency
##해서
lar
##ernel
06
Request
Connector
found
##되어야
전략
##type
Setting
##ternal
INF
자체
TIME
##ody
준수
##대책
##자를
PLC
sets
위반
이슈
##ified
##pond
개체
제2
지급
타입
Monitoring
신용
TS
generated
ERROR
투입
el
appropriate
dialog
다시
##상태
FROM
##ERE
authentication
Library
Node
업체
Red
##ings
JDBC
##인력
##ique
Backup
29
##17
calls
schema
최적
등에
TYPE
##BA
Reg
컴포넌트
기록물
made
techn
HUB
events
없이
repos
시행
Microsoft
지시
##istics
destination
##조건
사이
##ynch
##그레
컴퓨
##ume
upd
##과의
SER
제외
##Connect
SOAP
TABLE
##enari
sum
##ology
sm
예상
DEF
##Message
주소
##LS
활동
execution
operations
##En
Creating
Pack
개정
##립트
##akes
begin
의미
##에도
Center
gu
제거
LDAP
SV
DO
##ecess
고도
개별
##rod
검사
결과를
ht
디스크
void
##ALL
있어야
export
이러한
storage
shared
보고서
##itch
metric
attempt
enable
##플랫폼
##MC
##로우
trace
##변경
assign
##File
회의
includes
##원회
##ward
편집
##이전
##ches
##SQL
36
array
실패
retrie
식별
Mess
측정
메시지를
Prov
JE
##ires
managers
##reen
limit
##pace
첨부
LOG
represent
##ynchron
영상
partition
Gateway
PO
##35
AC
policy
##ICS
공동
##ASE
수준
##MENT
메모리
모코엠
SYS
##board
Files
중앙
##ermine
started
보유
Load
##sions
results
##ances
##작업
Mem
every
false
##성화
##itle
particular
Gener
well
모코엠시스
##지만
제공합니다
LIG
보장
시스템을
TM
MQI
procedure
시스템에
choose
Perform
##izard
##ont
##소스
End
##ACK
site
##round
Oper
##텐츠
POS
향후
Cluster
AIX
Bad
base
##구축
brow
maximum
##alys
queues
Send
##하려면
##ps
##함으로써
상호
개발자
##ee
Sever
이미지
Implement
##ie
여권
Stor
필터
orig
동기
try
##Ware
안내
Publ
보관
beh
오픈
subscription
Next
DS
final
sys
##VO
Rights
WEB
reports
##33
됩니다
##성이
##DR
##ervlet
##유형
AN
UP
##이력
되는
br
TH
OK
확대
50
##alysis
language
스크립트
효과
##Server
Specify
##ART
search
##ince
migr
cap
Manag
##PORT
XA
sql
##ASS
bytes
##요소
##xy
show
##방식
wid
##mp
Deploy
##AST
high
module
DIS
##화된
통제
just
##raw
##ames
도시
##22
LOB
instr
tx
##valid
zero
##DK
복사
MQRC
비교
opt
II
he
Configur
##ivel
##Path
센터
법률
업로드
folder
mark
Code
민원
byte
##90
##rc
부여
##신청
SA
implementation
necess
were
info
추출
##ries
##56
##ename
##ACE
##Int
300
##ily
선택한
라이
자세
SN
동일한
Method
2003
graph
hardware
Link
configured
##ilt
##설계
Properties
##완료
##프로그램
때문에
보여
Intelligence
struct
기반의
After
가장
##메인
##이며
Exception
원격
##inst
##anc
requests
##AGE
고도화
Architect
##Log
##yle
길이
##JB
##부서
##ators
주기
##ULT
저장소
바탕
신속
##분류
Internet
##istent
MQP
받은
From
준비
throw
형식
Document
##모듈
##발생
##뷰트
##rics
함께
##AIL
programs
take
##FF
Sym
Rel
##erby
##ively
##ibility
##grade
##DATE
사용자의
mqs
##Info
CT
NE
공개
##Ch
shell
##되며
Parameters
##ories
##되면
kr
##간의
sl
Attribut
errors
COR
조사
JEUS
분산
##ramework
##ategory
각각
동시
means
##Trace
##트리뷰트
ke
##ished
##umer
##ways
pa
##resh
매출
deliver
##gre
features
##ched
store
BMS
determine
simple
협업
##라이브
##ffic
cal
할당
물리
private
##On
##STR
크기
분리
##목록
Each
##sw
failed
##sel
Thread
vis
Pass
##20
Read
Objects
GS
Advanced
##ope
34
견적
transfer
##ves
이하
프로토
클릭하면
present
##Code
requirements
TB
repository
consider
##power
Mail
강화
데이터의
2011
added
##Manager
패턴
##Res
adapter
three
##97
commit
mat
Techn
tot
##oss
04
tasks
의사
주민
Dec
##aris
단말
##tility
서울
##21
release
##uc
정보화
구동
도출
panel
Level
named
##TF
건수
##UX
Target
##abel
remove
##undle
incre
##드시
##계약
kernel
Db
관련된
mapping
##하고자
대표
##트릭
ORD
day
##시스템의
실적
Dri
애트리뷰트
enabled
2009
Configuring
##전송
보안약점
##ANG
소스코드
##CTION
##ouble
sales
##표준
groups
##erc
Host
##ERT
도메인
##제공
조정
##이고
##pect
##edia
SM
통합플랫폼
Flow
later
포트
##hip
##들은
integration
Bas
08
Bl
restart
Ver
##ph
##user
중심
Mobile
Ident
##55
creating
##mgr
DT
Bus
자동으로
alloc
MON
unt
##활용
FI
chapter
제3
##ives
가져
##전자
세션
modify
차단
describes
follows
necessary
하나의
##위치
certificate
BusinessWare
ensure
Display
##atal
Parameter
##adata
종합
PG
않음
구매
##respond
dum
기준으로
recovery
##으나
Do
않고
PDF
Fail
용량
핵심
반환
RES
##emon
##인증
edit
##mer
정확
above
specifies
계속
GET
##ram
감사
##XT
##sd
With
sever
##af
##78
##RIPTION
2020
NOT
Multi
##여권
left
##들의
##Val
Pri
##tract
반드시
##CTV
보완
EJB
##자에게
template
기동
internal
##ications
range
prior
##top
##atabases
City
pur
##장비
displays
##영역
##사는
APP
written
경우에
Engine
##23
##UST
apply
correspond
비밀번호
##etter
##데이트
그래
handler
Off
##우스
nodes
하드
전산
판단
있을
BI
##ape
Sim
State
listed
##상황
##oop
HTML
##mb
기술지원
tag
허용
Su
##위원회
마련
작업을
STR
Socket
전자정부
2010
##교육
Design
이해
##orer
사이트
onnara
##기관의
req
SOA
##oke
MQSeries
##구성
확인한다
성과
bms
##에서의
Step
##atrace
송수신
부하
boot
메트릭
##ysical
##dd
always
시설
execute
회원
SUP
금액
norm
##gn
RFC
our
deployment
##산업
wait
##urred
##개월
##36
connections
협력
##고리
AUT
even
total
descript
MQe
effect
##SS
Exp
##entr
구성도
종류
##ERS
변화
##ls
VAL
업데이트
우리
ORA
book
sequence
##rag
CCTV
stream
방향
until
included
Specifies
area
variables
##연구
##ately
##그룹
이에
ca
대비
rights
##bound
suppl
screen
1차
tools
2차
##30
##cul
VM
AMQ
이루
헤더
SSO
##side
##ivid
##endor
login
expression
Transfer
Local
ll
##ixed
Config
supports
각종
bind
##시티
Product
REQ
qual
requires
Severity
activity
virtual
##alyt
integer
##icated
determin
기반으로
Rule
자세한
Task
computer
CICS
syntax
integr
##ts
##ered
Any
상세정보
##도시
##UTE
Non
clients
##areh
remov
##aring
Directory
##enario
##증권
500
Real
취소
##ilar
WHERE
privile
##절차
##ior
스토리
해외
Develop
columns
CM
sure
close
##amp
DES
##ube
경험
활성화
Main
아닌
##ilities
##ONG
확인할
교통
place
Hand
##점검
규칙
전사
##stand
##ICE
##WS
ALL
oracle
rules
OP
primary
##isk
서버에
클릭하여
37
##ru
##개의
##ktop
AR
##워드
심사
##그레이드
PATH
##User
related
One
##자인
##aries
Batch
발송
Acc
COL
원인
##조사
##98
Cloud
html
containing
Ab
이상의
파라
instead
Net
##용량
##cho
trigger
정보통신
##수를
exten
##ursor
receive
Yes
##95
55
Date
##ias
##ITY
따라서
48
##aTrace
##CC
sn
##94
##imal
dig
ED
##install
needs
indicates
38
##보드
##wise
##icit
documentation
방문
UX
channels
사고
drop
Max
##fr
임시
CRE
unit
unique
Storage
failure
CUR
##자리
DD
Other
파일의
connector
Explorer
rule
##경로
##faces
large
save
##로서
정기
able
##ully
##EY
Implementation
중복
메타
Build
##미터
PROC
logs
##omet
initi
NT
##ilter
dynaTrace
추적
external
##28
AT
하위
인스
real
##uf
here
품질보증
##JE
업그레이드
회사
바이
accept
LQ
##istory
많은
##arning
지침
pages
45
##AV
Memory
패치
##보다
logical
runtime
Platform
Input
STAT
instruction
이용한
argument
##ashboard
know
MAX
##ns
흐름
계좌
##road
가용
Editor
pool
##oolean
##FILE
##ierarch
입찰
##가지
##니저
스마트시티
products
##vant
Performance
##led
Appl
##INT
behav
사례
##self
삼성
##만원
Bundle
decl
##urther
정보시스템
아이디
엔진
받아
##도를
##ARD
서버의
해당하는
최초
batch
엑셀
##CK
##거리
diag
내용은
소요
meas
SUBSC
OUT
clause
DR
util
##ouch
오른
##ges
##정책
RQ
##ined
발생하는
우선
해제
MQG
##26
컴퓨터
##BS
several
단일
Cons
##금융
REC
##atalog
##뉴얼
documents
##Com
##valu
special
부문
##원의
사유
##avig
모드
short
그리고
Output
listener
Detail
002
comb
items
transactions
스토리지
##Object
##aced
Execut
DATE
Ant
재난
##log
46
##인트
일괄
##LD
plug
definitions
exe
계산
은행
Rece
##ler
Touch
Overview
프로토콜
공간
이루어
recomm
##ear
needed
방지
##ci
클러
est
Import
불가
PK
databases
##lement
##96
Init
##부분
리턴
예를
신한
프레임
##fully
##시키
problems
SMS
compil
이중
##ifest
head
reserved
##actory
Options
##76
Vis
국민
dynamic
##100
형태로
MSG
global
interval
body
문의
##END
tree
별도의
적합
홈페이지
##arehouse
##인터
GW
##201
##tion
명시
Integr
rele
Lay
ATT
net
##턴스
##자치
##IM
Release
Disk
Update
디렉토리명
##지식
400
인한
contents
##Tr
Fl
표현
클러스터
파일이
organ
Property
Sol
encoding
##ointer
제1
영문
##시설
directly
SUPPORT
선택합니다
allowed
received
style
아래와
##공유
container
##48
##ather
플로우
여부를
member
최근
폐기
##안전
개선대책
##To
##ality
platforms
changed
파일에
##ged
less
##Util
eb
##ceed
administrator
##JECT
Par
END
특성
SF
Map
CHAR
마이
정보가
수요
오른쪽
sym
##시기
feature
##iss
IE
예산
SUBSCRIPTION
마스터
currently
검증자
사람
RM
invok
Programming
##pository
##31
DM
ERP
Bak
Section
##40
위반라인
free
##38
side
##플릿
현장
##IVE
still
스키
Dynatrace
2007
없다
호스트
##기록
##ryption
파라미터
activ
CORBA
최소화
적절
##37
투자
현행
##지는
예외
MDPS
What
const
##sl
BW
editor
##으므로
링크
Prg
utility
평균
##BC
혹은
download
위해서는
Bakup
##gment
##관리자
긴급
수익
development
스키마
sv
Conf
##RIB
##les
##mt
Derby
J2
Post
amount
draw
형상
##Cloud
Common
개선대책서
icon
examples
##iod
Installing
exists
않는다
Ma
Resource
확정
판매
##aw
하드웨어
echo
로컬
##ridge
##범위
conc
##라우
40
아니라
없습니다
##지털
사업자
고용
##ley
않습니다
##pose
done
운용
##인지
separate
ILink
Standard
stand
role
통보
05
customer
##quent
operator
Edition
via
##aa
사회
tri
##조치
##itive
YY
##admin
Session
##분야
console
##files
Top
At
RD
유효
구간
##호화
인증서
31
archive
delet
rows
##IF
Subscri
##ele
인쇄
##change
##idd
word
RCV
distribution
mi
invalid
##이어
등록된
##met
대화
##cel
##결정
##겠습니다
timeout
##ORM
Notes
optional
지연
##27
Your
Sun
SK
eG
layout
##osed
목록을
시스템에서
##any
performed
연락
Unix
descriptor
전자문서
대해서
Remote
상용
##시험
##cp
Co
발생한
가입
CA
아이콘
같다
discus
있고
obtain
이름을
##medi
##Value
##로벌
정상적으로
인스턴스
이내
HA
He
##me
##uration
connected
스케
sit
BO
Status
es
공정
Manifest
eGov
##gor
Repository
하기
physical
Before
##2팀
동안
블록
##화벽
Oracle8
supplied
워크
Unit
신뢰
사용되는
##lear
PR
##uce
who
##Paramet
very
2016
##eed
important
db2
##메일
##erial
##rite
else
##ering
마우스
Ac
metrics
최신
그러
리소스
##건수
##저장
명령어
자산
##성과
collection
MONTH
eGovCloud
lists
##JT
##izing
double
entire
cases
##44
##라는
쿼리
MCA
경영
identify
##astr
Syntax
##reak
Console
fails
##pre
##greg
##uch
##frastr
Mode
resol
widget
ODBC
발생시
탐색
useful
ISM
##ides
##alle
Values
fin
Repl
Customer
Sw
similar
calcul
##중인
데이터가
##라고
##PR
Applications
engine
##aving
##랍니다
construct
디지털
지방
산정
instances
vol
##gorith
날짜
records
경쟁
issued
##ONE
Valid
보험
소개
보다
56
2000
##Connection
AG
발전
정리
납품
publish
creates
##담당자
license
across
Fin
small
압축
Line
라이브
##missions
cursor
##러리
keep
수용
passed
대기
##cle
complex
##onth
##모델
ign
Administrator
##Event
시점
##ading
##alytics
지능
Online
##fix
corresponding
규격
##는지
affect
##ured
MAN
behavior
Sample
parent
keyword
statements
Returns
drivers
##frastructure
versions
BPM
비정
Protocol
individ
GB
##VM
작업수행
Content
60
ALT
Tem
instructions
발행
times
ear
256
##UEUE
##아웃
게시
##상의
since
Av
appears
Typ
##값을
##이전트
Script
Dev
##allel
sched
Solaris
pop
original
mount
##입력
결함
License
SND
##no
글로벌
취약점
##ivers
어떤
least
manage
##Queue
Help
2005
Oracle8i
##echan
##ean
##수의
further
CR
인식
##와의
Attribute
LU
APPL
전화
Base
예제
디자인
Text
##ring
Mpower
패스
##urance
##system
GUI
##자로
로드
INST
ENV
57
TRAN
##vironments
47
xls
Defin
성장
Ag
값이
128
EV
reply
업무를
Adapt
포맷
CREATE
js
restri
switch
##aps
label
COMM
##verage
Index
BM
Ph
fac
##Requ
편의
제안서
##ront
인해
Pers
##Script
color
interfaces
청구
caus
##ARE
cause
PH
##ian
executed
appear
방식으로
##행정
##OM
##포함
empt
##실적
원본
##OT
##ush
에이전트
##ocation
인터페이스를
statistics
numbers
##Onnara
COM
old
rc
hierarch
remain
##50
##anning
ISO
master
completed
general
##itional
등이
eGovCloudOnnara
수도
##udio
##ench
대용량
##acy
various
##ends
provider
Controller
DESC
UPDATE
서비스의
Sum
AUTH
텍스트
##ng
logging
##DC
cr
NUM
##ROUP
##AIN
소속
확산
enables
단순
##라우저
IMS
cop
장치
Header
라우
##UAL
단계별
국제
##CHAR
작업수행일
##Parameter
ls
레벨
영향을
##ationship
ET
##심사
제목
Change
join
roll
사용한다
grant
##Msg
##소시
Core
Environment
checks
empty
##승인
##검색
txt
신고
enterprise
##Im
선택하여
Production
Migr
src
Module
##IR
문서를
Edit
Brow
##설팅
클릭합니다
경찰
##Qu
Em
##ature
##rel
##ored
mult
기초
working
##계정
##요구
Contain
라이브러리
issue
DCT
Jan
##대장
##정보시스템
##bed
Specification
points
dt
successfully
##By
ps
것이다
Plug
Driver
##관계
Basic
child
보증
##규칙
개념
44
##삭제
##ynchronous
##mitted
lines
##구조
##host
##endix
바로
##DP
DW
Go
Deployment
열람
##roduction
##uing
##LOB
Enc
보기
SCH
중소
지정된
##com
개의
간의
관리를
가지고
##ital
정지
##iving
시각
##YS
##조직
drive
코어
##수료
sect
Ber
Framework
cur
Is
매개
##ken
환경을
sort
설정을
##RIBUTE
##테이블
arguments
매뉴얼
예측
pe
시스템은
BY
##활동
MONTHS
move
인사
INFO
그래프
특징
Char
화면에서
높은
REG
##제품
##2B
metadata
person
##oles
용역
Managed
browser
주관
keys
##Request
##of
SEQ
##ism
grep
해야
##maz
동기화
##동기
바랍니다
만족
built
occurred
##접수
##고리즘
codes
##투자
bean
전용
cho
##ustr
##kit
사항을
online
일자
Sm
##raries
##venue
##Ord
hold
##aking
##ded
##otal
##Comm
Column
core
##적용
##keley
respon
TEST
Power
certain
##LOG
순서
individual
##antec
Pattern
##회의
##porary
PS
Sales
##orld
pointer
문자열
미래
##heet
##ipse
Runtime
ATTRIBUTE
##eus
position
##to
##통제
##1201
starting
##Factory
selection
Lang
Query
##케팅
level1
기재
Hat
turn
##lex
itself
##등급
Berkeley
##필요
press
##시작
er
어려
서식
##회사
impro
Comple
논리
J2EE
##mazon
known
제공한다
level0
##Rec
##세서
messaging
devices
against
콘텐츠
Messages
FL
mys
BIP
COLUM
##관제
##ters
period
##ience
관리하는
용이
액세스
자격
09
##pr
entries
##사고
##검토
트래
alias
반복
##CD
##점을
당사
직원
datas
err
##ird
CODE
##iance
##UNT
원칙
##레이션
Only
CF
easy
##tp
##발급
les
Sup
패스워드
lon
##aun
표준전문
대체
don
##력을
constant
##AND
monitoring
##일정
정의된
##tenance
Rest
즉시
Global
80
##없이
JAV
##도급
ALTER
Distribut
입니다
PJT
중지
##46
하지
basic
communication
usage
##UND
통합테스트
보낸
ef
유사
유출
##ONN
##자원
MEM
Mapping
포털
##Key
symb
##소시엄
지원하는
##설명
bar
##chema
TA
##ailability
actions
admin
##dbc
##CF
##queLink
mechan
트리
##df
PUT
sharing
##변수
대책
Architecture
Graph
76
방화벽
##공사
##oms
##자체
상위
architect
solution
##clipse
##ember
occurs
wizard
##Bu
전문을
Record
##eam
##izes
##SA
##EP
SequeLink
Filter
유연
seconds
##으로부터
consist
##라도
MM
takes
Symantec
pi
Now
RT
OB
##LETE
grid
##러스
Cert
##이용
동의
jsp
##이너
##hes
##QM
functionality
메소드명
##기에
112
Related
administration
Grid
iter
##검사
전임
##ested
개수
##OW
OL
초과
HOST
DC
ORAC
uns
취약
패키지명
subscribe
도움
##도로
수행할
Vari
EXEC
WSDL
Regist
##idential
level2
니다
prin
dist
방법을
##ORD
공유폴더
공격
Intelligent
algorith
Delete
Some
##트롤
지시사항
##뱅킹
longer
COB
##alyz
파트
ord
##ogn
##과정
##부문
##ferred
처리를
JAVA
하면
조성
##active
entity
##ially
##단체
이중화
pane
LIGon
설비
generate
##브젝트
projects
##작성
##ival
##41
되었
문제가
HE
ORACLE
고급
##본부
##perty
priority
##cat
##OB
##alth
DTT
Point
Vendor
Author
Count
Insert
post
der
##이타
자동화
conversion
수동
##uced
##ycle
##TA
사업의
동시에
상태를
브라우저
예시
##받은
##pload
INS
evalu
maintain
establ
xx
##itri
normal
hig
수량
##92
일치
BEA
##MIN
##단위
2006
효율적인
catalog
선택하고
대상으로
세계
2017
libraries
Analysis
once
프로세스를
RET
원하는
Save
##ling
운영자
레코드
테이블에
##though
tb
##ane
Inv
##abilities
environments
Tools
규모
much
마케팅
specifying
##aemon
COMP
##비용
발생할
programming
##De
MQPUT
현상
##upl
crit
ini
##cket
반출
occur
managed
경우는
##aaS
##002
정보의
2018
##Out
bound
##LM
작동
S2
impl
Initial
##전략
절대
SHA
지점
REST
transmission
##API
있는지
##계좌
numer
stack
기술을
##ector
COLUMN
않을
SERVER
JS
permissions
1000
Portal
Bec
##llustr
오브젝트
COBOL
LEN
shut
Dynamic
LINE
처리할
통해서
관점
Stop
few
##Flow
Address
lat
메인
Once
Require
KEY
전에
##보고서
##제어
##ving
##FH
conditions
Make
알림
사용량
QUEUE
runs
LIST
usually
미국
가능합니다
집계
##메시지
migration
sections
과장
##있는
opens
EMP
SI
represents
apache
결제
Optional
blank
Nam
템플릿
TUX
로직
Then
upgrade
VAR
mean
##명을
부가
discuss
Created
setup
##ograph
flags
정보는
##GW
권한을
프로그램을
고려하여
dir
PASS
SDK
초기화
mysql
XX
##권한
건강
##라이
##세요
사업수행
원활
Job
Users
abroad
##Controller
##추진
나타나
##IZE
현대
프린
##스를
mov
특별
VALUE
##사용자
explicit
##개선
Reply
##공단
##사업자
중소기업
Language
JSP
defines
contact
receiver
시도
##irm
멀티
##cent
CHAN
대시
##bit
Del
##ipp
cost
쉽게
만들어
font
fr
Examples
##ifier
continue
010
threads
##down
연계를
##ordin
홍보
알고리즘
대해서는
Visual
Because
20031201
33
starts
ter
##자산
##KE
##는다
##hing
##aterial
AV
TX
Domain
distributed
Account
##acing
Amazon
concept
assigned
Assurance
Appendix
본인
##도우
99
것은
##ilder
처리하는
sem
신속한
Wizard
##connect
privileges
일련
directories
Functions
근거
answ
개인정보보호
수급
Wait
##ORY
제조
RP
Profile
Lab
비상
한글
대리
계층
topics
vi
dump
활용하여
##Count
101
IV
##IO
드라이브
정합
##NEL
verify
검수
적정
##wd
하여야
중인
cred
교체
구성요소
복잡
##BER
컨트롤
High
##BMS
BMW
##cedures
항목을
replace
예방
##arn
Order
makes
회계
##88
##책임
트래픽
MA
greater
Office
proxy
understand
analysis
유통
progr
설정된
수행하는
감지
region
boolean
하도급
express
issues
라우팅
법인
##FIG
##75
등으로
IC
프롬
ack
기대
##하므로
자료를
qmgr
##지침
장소
##arrow
##fficient
MOD
located
None
##흐름
##ployee
##IE
##ARY
addresses
총괄
참조하십시오
옵션을
##ercise
##Source
Toolkit
updated
scripts
##lock
##lier
extension
GROUP
Admin
Analytics
Item
Univers
Policy
Package
Messaging
##버튼
XS
수행한다
사용자는
##사유
authority
break
except
Introduction
##Se
Spec
Export
creation
빅데이터
측면
Settings
sav
##교통
however
ADD
##생성
processed
good
sender
Min
##SM
getParameter
Length
track
LAST
##ground
Configure
##Stat
Sign
indicate
ways
rather
##Date
Manual
방법론
Chang
경제
##entral
##보기
##emo
Comput
constrain
filesystem
terminal
email
Stand
문서관리
##체제
MQMD
php
##Env
##계획서
##jt
servlet
##VICE
UT
##헤더
seq
##등록번호
Simple
윈도우
##하면서
공지
##유지
##Hand
ip
##ipher
INTER
requested
Under
administrative
DAT
Development
계정계
##rupt
detect
내에
특히
보내
notification
프롬프트
생성된
selector
About
재무
##elf
Refer
correctly
BIN
분석을
기본적으로
manual
often
Summary
NP
segment
scenario
immedi
Commun
invol
Sync
transl
##TEM
Msg
##bench
cover
진단
시스템과
각각의
relationship
gateway
best
##EA
power
deleted
##검증
##SO
CHANNEL
미리
요약
op
현금
환경에서
다중
특이
라이센
encryption
대내
케이스
##Size
주의
DBA
##icens
EC
##Spher
지자체
소유
updates
위해서
##Length
##ourse
collect
compat
전망
##osing
##VS
mte
fre
Category
##ANCE
##르면
ebSpher
MQSC
##39
##70
completion
##생명
기능이
최적화
체결
Procedure
표준어
합계
##고객
hosts
Confidential
##etch
too
가상화
되지
인원
취득
overrid
품질보증2팀
Assurance0
##시장
설정한다
##72
removed
Virtual
##훈련
별첨
Title
TRI
##진흥
클릭한다
otherwise
대시보드
RAC
PHP
##Ad
구체
##르게
Case
proper
Put
발견
ve
earlier
대량
##unc
##45
rev
##iers
웹서비스
Rout
prevent
물리적
Down
##상품
successful
##shot
이는
있게
retrieve
##사항을
Auto
token
MP
REPL
First
##준다
equival
loop
##olutions
문제점
메시지가
SEC
layer
내에서
##AULT
##FO
포함된
##esh
BR
DRM
ned
DTTM
jeus
works
##wall
center
##자에
서명
share
집중
installing
인덱
secure
lower
중계
고객의
바탕으로
##obe
방안을
simply
TC
전문가
Conver
vo
화면명
##apshot
만약
복제
four
YN
##조제
##entials
PAR
연관
##box
##space
navig
##TB
용어
DELETE
이외
Ensure
컨소시엄
삽입
사진
forward
sk
가용성
Master
태그
42
MQH
선택하면
##주기
포탈
75
Path
measure
manually
자신
##레이
지원합니다
##ATCH
사용하지
지능형
##GTH
##For
##규모
가능하도록
##자치부
근로
##HUB
사무
##디어
B2B
시스템으로
민간
상대
Password
않아
##oded
인계
Total
GP
LIC
Public
Feb
##LY
und
##학교
QMGR
packages
출입
aggreg
##ACH
Layer
##Up
assum
binary
dim
exact
Technical
다만
##Cmd
##GER
적절한
Here
https
의하여
##li
CONNE
대외비
##URE
cp
##수정
tmp
scope
##abling
##영상
행정자치부
##ending
##1P
##VAL
##sequent
무선
컨설팅
##단의
않도록
중요한
##ais
고객사
가진
Priv
선택한다
##도가
별로
필요함
관리자가
언어
##air
설계서
##WN
##주는
##드라이브
있지
##결제
##어야
##안됨
And
##신고
##기본
medi
##TR
ins
HD
Integer
##Context
의료
embed
Running
서울시
무상
##leg
##43
연구개발
불가능
##80
사양
OF
도면
차장
##사거리
quot
startup
##Impl
임의
tar
갱신
They
blocks
somet
호환
Reason
차량
##테이너
initialization
applied
##rl
##Query
mac
##마다
##ty
##cast
Cal
WMB
encrypt
바탕화면
가격
과거
bus
media
##예정
clear
##HT
조회한다
##CAL
파일은
포함한
altern
Usage
quick
등급
avoid
나의
##itria
오류가
장기
##nost
depending
##하려
optim
서버에서
Disc
메뉴를
##Sh
Provider
제작
시범
##BO
BS
ORG
##구분코드
throws
letter
AM
QA
##Doc
##기기
capabilities
NONE
accord
##Config
프레임워크
Mid
것입니다
##Card
gov
filename
##Node
##마이
##IV
Cache
typically
안정성
Adobe
INSERT
let
JVM
##iddle
##되도록
사용자에게
std
AL
Suite
##이행
##OUR
detailed
##ACT
##지급
65
param
Found
컨테이너
Diag
##003
제안사
Activity
Desktop
##ension
##시스템에서
##47
members
메모보고
화면에
##하였다
Instance
Null
cell
대부분
버퍼
##ific
Receive
비율
##출력
INTE
DV
제약
LIN
incom
##지막
fix
low
DB에
Protection
##itions
2015년
Schema
가능하다
##orial
Secure
##Agent
명확
##ased
성명
양식
구축을
Solution
중단
조회할
##cs
##단말
고유
##irewall
##목표
일반적으로
pair
주식
##semb
ENT
##ITION
규정에
##aken
Publish
SL
##HO
##TY
라인
##uture
stopp
IO
##now
Systems
xsd
##reshold
이메일
##apped
catch
##ret
비동기
마지막
##ideo
diagram
충족
ESQL
##TER
DNS
ITEM
##사람
##ites
Workflow
START
hierarchy
General
##oli
3D
volume
miss
Sched
##path
서브
지속적인
PER
title
정의서
##GE
##요건
matches
OC
증권
##ctions
발표
specification
##itut
##man
unless
##Stream
##appen
##part
서비스가
actual
##ably
협조
plan
서비스에
equivalent
mobile
인정
##결재
##파일을
RDBMS
##udit
##Client
equal
유재
서버를
##acter
calling
EDI
##006
테스트를
##ooting
003
minimum
##경우
localhost
##my
##abor
DEFAULT
기존의
procedures
요청을
env
##izations
의사결정
permission
##PLAY
90
owner
Mark
대출
보존
happen
2014년
tmax
trim
독립
quest
OLAP
##ventory
##장치
##ained
lookup
##ICATION
EZ
tell
MySQL
SEND
##nk
그리드
95
art
예약
Constant
##roubl
##85
##전산
안정화
##iff
flo
spe
후에
##ORK
매우
expand
부터
##방지
##설치
##ention
##ached
drawing
##Get
관련하여
writing
역할을
##퍼드
prob
SIL
third
유재윤
지표
수수료
Element
##성능
namespace
주문
그러나
STE
먼저
##DER
##igned
restore
Differ
MQCF
지정한
numeric
lit
특수
##andom
##솔루션
PROCESS
SAN
정렬
GR
##aunch
##시에
탐색기
제1항
Adaptor
##ln
zip
함수를
initialize
##pth
offset
##ocus
Dashboard
respect
alter
정부지식
delivery
CNS
절감
references
공공기관
organization
제안사는
권장
일관
2011년
NUMBER
GIS
MQM
##하는데
##협의
ma
감소
스타
##변환
Track
##Input
illustr
Cube
MCI
NM
WB
TRUE
sending
parser
디퍼드
##reate
66
유관
검출
placed
amq
##트를
##PN
modules
##ople
##ledge
##뮤니
데이터에
##이상
DISPLAY
algorithm
##ks
##utorial
CLI
SILK
근무
컨텐츠
설정할
기기
##fl
의무
previously
내용이
라이센스
목적으로
Current
##29
##TD
route
정도
exper
strings
structures
authorization
##usters
Servers
Recovery
수입
##RS
119
machines
##오는
상담
제고
invoke
TMAX
1회
번째
서로
##CODE
적극
39
##epend
집합
situ
Mac
##체의
due
Dest
##bar
이유
##fs
##너지
toget
저장된
##Root
Block
Upgrade
LENGTH
CC
##77
##이면
together
환경설정
invoked
##roublesh
편리
Ora
화면경로
Authentication
메뉴에서
전반
Runner
##IA
부족
##복구
화면을
##들웨어
작성자
##Pl
transport
Leg
##하였습니다
행위
autom
Window
##서의
##APP
pg
품질관리
매니저
material
##ident
사업장
##대기
##atis
##card
##서에
terms
pdf
architecture
적재
스케줄
applies
contained
levels
native
##rient
Automat
Allow
dead
had
기관별
API를
##활용기반
차이
##ulation
PCF
symbol
mechanism
GM
eml
wide
##101
##조의
복원
##thing
Trigger
recommended
Processing
##map
##복지
images
temporary
##삭제안됨
CCS
절대삭제안됨
대외비임
업무처리
입력한
month
endpoint
taken
##Map
println
implemented
##uman
시스템이
INSTALL
재해
조합
##차로
STATUS
Form
##일시
CRM
맞는
공유활용기반
복호화
##anner
higher
않으면
adding
클레임
persistent
VERS
opened
Rational
##View
##LONG
##yb
혁신
##GIN
시간을
##번째
운영환경
recover
ATMI
declar
##ift
regard
##중앙
보낸사람
links
replication
origin
inside
Mach
달성
Pure
##ENSE
MQGET
위탁
AA
##FORM
PROJECT
##BG
감시
Smart
분할
##종료
##취소
Revenue
데이터는
indic
uninstall
sources
##ivoli
사실
바이러스
compl
하였
##tom
callback
But
방식을
##회계
MQR
문서의
VERSION
review
12월
Tom
않았
##dn
jdbc
사외
Inform
##시스템을
안정적인
having
##Error
convert
warehouse
S3
가공
DL
Device
내의
CW
Region
pci
##TED
응용프로그램
ora
describe
##수립
##enced
기술적
표시됩니다
loaded
##ene
Methods
di
##ently
가치
입력한다
##파일서버
정산
저작
Container
공사
##omin
ms
BU
##ds
##ung
operate
prop
Image
##리는
Comment
##Trans
prefix
##TS
##list
요구사항을
##cut
Excel
derived
Size
Me
lif
immediately
Full
기획
엔터
Book
bat
identity
##head
모델링
MODE
##tem
##uces
Trace
같습니다
여기
sens
##상세
##했을
##금을
daemon
##jor
give
views
JDK
제도
##버전
Commit
ignored
BC
##타임
값은
부담
스위치
Required
den
Tivoli
dd
##통계
LIB
Subscription
according
##경영
제공하고
IM
전기
##Port
##EMA
Requirements
##112
단위로
현황을
LE
validation
본부
##edef
##clus
라이선
##pm
Context
##DO
58
Midas
EZis
표시합니다
company
미들웨어
##SG
PA
##무원
무결
##함에
SVC
headers
socket
##수준
applic
질의
super
대행
fully
##ollabor
bread
##처럼
빠른
중심으로
##적이고
##다고
고정
##Org
변경할
bridge
CONT
##DIR
READ
therefore
Since
##인수
되면
##buf
III
Feat
커뮤니
##trl
속성을
##tra
whose
username
##link
customers
OCI
dupl
있으므로
별도로
Managing
hour
##공개
MQLONG
관리할
맞춤
listen
patterns
Structure
CUST
보안관리
##olicies
##config
minut
완전
handling
curl
LICENSE
##터리
dashboard
Therefore
##종류
OPEN
맞게
subsequent
expected
matching
명령을
##ITH
Ext
Getting
하자
최고
##force
일시
##DEX
Every
team
운영을
##관련문서
중간
전담
##aut
##지역
암호모듈
better
saved
SU
##plest
##시스템에
성능을
Biz
disable
##overn
##URN
##Ind
##목적
##ays
Vuser
Foundation
##하드
##연금
운영체제
소비
TPS
##직원
##AID
tablespace
##정보의
Print
Switch
##NDI
##EDO
##rokers
##USE
형상관리
과제카드
rw
testing
HM
NH
##어서
CALL
##afe
##atively
printf
followed
시각화
desktop
##bat
Reports
##대응
##uning
REF
방법으로
##App
FOL
지속적으로
안내서
Proxy
UNIT
##Att
introd
That
Universal
infrastructure
##오류
150
##자동
preced
incor
##mail
SNMP
macro
Remove
연산
최적의
변동
위의
Find
##Text
SERVICE
금지
Buffer
입금
##타입
##station
JNDI
Que
compiler
pars
나타내
breadth
profiles
##102
어느
##인가
depends
rate
노출
말한다
modified
serial
보안파일서버
workflow
javax
2013년
technology
사업을
deployed
##lying
Additional
##inary
프로젝트의
손해
Supported
regular
Warehouse
##제한
alert
cloud
경찰청
에게
##효과
##형태
SCHEMA
Free
##ESSION
##다면
형태의
extract
##plit
TUXEDO
##계산
속도
침해
업무에
APIs
category
위성
Pc
cs
flows
부장
moc
ppt
##Common
Info
##ISS
##나라
##디스크
Execution
hd
Enable
존재하는
##생산
사용하면
아래의
54
pay
숫자
중에
formats
1년
필요가
##jb
TOE
Components
synchron
점포
기본값
Details
때에는
서면
품질통신
클레임관련문서
품질통신포함
ct
history
##Power
Http
capt
##OK
EIS
##Session
##만을
건설
사건
##ea
입력하고
보정
##도구
YES
리포
업무의
BASE
Character
##ender
Adding
Iss
year
데이타
forms
percent
##케이스
##PY
##불만
transformation
Fed
자율
유지관리
##채널
##Group
##설계서
##으로서
External
정확한
##주시
##물의
문화
##SW
##arks
찾아
생성한다
##에서도
재사용
Mult
양방향
rm
강제
설치된
관리자는
응답시간
정합성
Verify
fixed
##Item
##품질
##herit
파일로
Scenario
원활한
eld
##oT
##INFO
여신
outside
##alloc
물품
UTF
cmd
Types
checking
Write
특이사항
Names
bucket
##Inst
bal
환경에
테이블의
deb
L4
never
did
사이버
FOLDER
actually
##EAI
embedded
86
controller
Fix
warning
Autom
고객불만
농협
visual
##파워
generic
improve
AI
Programmer
dataset
연속
CNT
respons
라이선스
실시간으로
FC
분기
explicitly
비정상
사전에
car
clicking
ADT
##imes
Contents
필요하다
##대한
사업관리
plugin
##EL
MQX
Setup
Replication
일련번호
BRO
잘못
pract
registered
NFS
routing
Fo
##fg
##레드
사용을
Last
x86
서버로
png
##oto
Choose
개방
##TO
tre
피해
구성되어
행정정보
내역을
일반적인
우수
Search
충분
##로커
##roubleshooting
DataPower
snapshot
로깅
외국
85
note
##DA
타임
##93
MQRFH
##pare
중국
##사이트
##Class
Pos
Single
##plements
기술이전
##Col
routine
History
납부
명세
##vention
Kore
fill
offer
선택할
정보보안
##진행
VPN
##come
sol
용도
Qual
Attributes
bits
##200
Tele
인덱스
부정
1234
##State
DI
##oom
URI
징수
THE
##eta
샘플
##시켜
연결을
sync
경고
gives
beginning
Browser
analyz
##NC
70
accessed
##규정
Informix
along
Apply
TLS
causes
sur
기업의
DbEnv
프로젝트를
만들기
closed
없을
clean
커넥
##istence
효율성
##bs
encount
제5
화면으로
Health
전송한다
##마이징
##VC
##essions
protected
Home
제4
##DM
##LED
Altern
repe
exits
equals
본문
보전
##Result
##순위
shall
구성을
tcp
Tag
Game
cation
Prof
##ANT
##매니저
PORT
hash
maintenance
사후
커스터
configuring
ge
binding
##light
Modify
##irection
공백
600
Look
엠파워
##ORE
##응답
len
255
retrieved
SR
register
임계
통지
##서류
Parallel
making
##OUT
받을
##되었습니다
##Hz
솔루션을
rst
trad
bran
관제
어떻
전임자
Win
##omes
주체
##영업
ftp
exceptions
##co
게시판
과업
파티
사용합니다
independ
##억원
Technology
##BACK
production
Define
##더라도
Exit
INIT
2012년
crypt
guration
##RY
Review
disabled
증대
있으나
##인계
##uages
Constr
가정
transform
i5
dummy
Where
##de
detected
sil
##emand
선택된
Recv
제공하여
background
AUTHOR
rollback
신원
##반영
오프
컴파일
designed
Acro
##Aut
Pur
사용자를
drill
##eler
2004
누르면
확인하고
Multiple
Endpoint
Tables
factory
##omsys
PRE
##공간
auto
품목
획득
samples
##아이
지정할
MOCO
##예산
지원을
identified
restrict
콘솔
##등의
##ibero
어떻게
retry
##omino
합의
approach
front
##quis
become
AMD
SQ
필터링
##vis
##env
사용하고
과제관리
##atory
fam
단위테스트
현업
neg
Transform
##mqm
coordin
AWS
##인의
MSTR
알려
##national
활용한
붙임
##enef
기능은
##PI
작업이
국토
2개
78
Automatic
ORDER
해지
##플로우
확장성
WITH
##연동
##습니
리포트를
AGENT
##증명
##능력
subject
signific
##CON
적용하여
KB
권리
webs
##ologies
url
96
##Mod
ability
##ek
trust
사항은
##제출
88
ACL
##affic
USB
sends
##Logic
도로
PurePath
applicable
있으면
tests
##CHAR2
WIN
##LES
expressions
More
운영관리
jms
다수의
##tf
7월
ADDR
underlying
##라이버
업무별
상태로
allocated
까지
##td
THEN
그대로
착수
Studio
upper
tier
제공할
Exchange
Begin
relevant
Dat
SB
Opt
##400
##지표
서비스는
POST
##Add
첨부파일
io
브로커
##상대
##들에
ROM
##ump
Acrobat
##ety
폴더에
doesn
Async
iterator
간단
입력합니다
##했습니다
메타데이터
목록에서
cnt
##리스트
Can
NEW
##금지
MQGMO
##이체
##공정
우측
USE
subscriptions
포함되어
##시스템과
##ASK
ws
##alk
##Number
테이블을
인지
정보에
1일
1개
도움말
ONL
Follow
ejb
easily
파트너
Jun
MQHA
EM
##납니다
licens
##reement
퇴직
reset
Domino
enough
##xis
절차를
자금
##단에
While
BACK
sale
##pact
Workbench
parts
복합
Arg
nx
Exten
##atisf
##USTER
시민
determines
Bot
consum
##발송
기능으로
120
implements
Sets
있어서
##2013
cir
사용하기
선언
적합한
HW
##재산
##하시
##pers
alph
learn
Fc
읽기
##하겠습니다
PRI
##DT
컴퓨팅
##nown
DEFINE
##relation
##사례
threshold
시간이
##Process
동적
recogn
models
bottom
인하여
1024
영문명
Please
##ural
van
queries
##scdn
KT
play
유명
frame
##공통
##혁신
Naming
##riented
days
작성하여
Transactions
Occ
handles
코드를
##Order
##005
authent
##len
##소통
결합
68
INDEX
##MDD
determined
상기
##vantage
크게
mer
##KI
##바이스
Builder
ACT
JavaScript
##프로세스
certificates
focus
##used
Although
TOP
오퍼
##Header
hostname
Eclipse
##ulate
nm
악성
##VR
##clude
Shared
signal
잠금
##Table
refresh
VARCHAR2
Let
##arant
##정의서
major
Long
Internal
참가
DOM
RUN
정보계
units
하지만
Rules
dimension
어려움
##ium
Maximum
Site
stores
May
availability
##yles
커스터마이징
##ips
역량
##add
##주소
##ili
##aven
Quick
시설물
kind
##Call
##mar
이용자
방법에
naming
dbo
P2
RMM
defaults
temp
##aching
권고
belong
대신
##OC
parallel
personal
43
performs
##1609
around
roles
국정
overview
명명
##모니터
activities
##먼트
되고
##data
##eria
CLUSTER
TRANS
qmgrs
exceed
Person
법령
##estamp
Migration
MESS
로그를
지난
포인트
##systems
Are
자바
Invalid
휴대
##정보화
디렉터리
##서명
스타일
능력
과정에서
큐에
Spring
##는데
제품의
##day
scan
CONNECT
##티티
##0001
Topic
변경된
KHUB
Pool
pc
##이므로
##mc
stopped
controll
logic
Definition
##종합
리포팅
자가
LOCAL
전원
포함하여
##STATE
협의하여
라는
chain
주민등록번호
credentials
##pc
consists
HH
##91
DB서버
dll
ready
invocation
ICT
##맹점
Started
##olders
Certif
Standby
대처
IoT
prompts
프로세스의
나타납니다
latest
AB
Lock
##웨이
selecting
normally
##emonstr
직무
##UID
IPv
처음
##청구
Average
DA
none
눌러
##plestory
##배치
formatting
안전한
jobs
##enarios
Maplestory
##Main
ETL
Dig
inf
Collect
출장
##지정
propag
debug
Cost
Proble
copies
##ees
soap
##004
존재하지
투입인력
512
##onym
##그레이션
constructor
조작
Store
purpose
printer
##조정
guid
upload
사내
relative
lik
제공되는
PROP
##번호를
Sam
##ctionary
이라
##PUT
##info
Metric
##ises
확인을
004
Documents
단가
##ora
##outer
ask
##bone
ISP
Tutorial
시뮬
##원장
SIZE
##uous
##ica
chart
party
##Constant
CAS
스캔
탐지
패킷
있었
개발을
##property
concepts
완료된
##rd
##비트
##하세요
이다
##oring
receives
entered
##수급
##송신
##과학
unable
미디어
Exercise
interpre
##pared
고려한
resolve
detection
providing
매체
DSN
SID
##선택
Routing
Servlet
유무
유형별
##entran
##인터페이스
V3
##Work
##ple2013
디바이스
98
Br
##ivery
##Web
##grading
##여부를
77
toolbar
##poses
Express
Big
##RES
스마트폰
승인을
다음의
Gentran
교부
왼쪽
##문을
Byte
차트
정책을
registry
FUN
##gers
많이
limited
FN
고객정보
Bind
##클릭
##리티
executable
##aim
##icast
계획을
Navig
##세지
interaction
increase
VL
##icle
기관의
ports
combination
배열
##주체
기타폴더
##chie
폴더를
Statement
significant
##erve
receiving
OPTION
Color
standby
##Series
##자와
REM
받는
한도
005
핸들
##수가
##OO
Ins
설정한
위협
프로그램의
schedule
shutdown
##menu
응답을
TEXT
##tle
JOB
유닛
999
OFF
##plates
색상
##ferences
변경이
##erval
phase
controls
DVD
programmer
##metry
fast
framework
문서함
copied
제시하여야
Maple2013
건축
CONTE
법률정의
리스크
##킨다
##Center
관리한다
Am
##otus
유명곤
mill
불필요
특허
Hard
##UC
문제를
##cher
filters
동일하게
HANG
##just
Displays
##ollaboration
FAL
APM
1월
XM
##GT
외환
Ltd
정비
##FL
##매체
보급
단말기
diff
vendor
항상
##ancing
전개
##omp
BmsCommon
단축
개발환경
mm
Logging
##MQM
developer
##extended
##했다
drag
##quire
남양
Array
addextended
level1name
level1type
level0name
level0type
addextendedproperty
simpl
SCA
identifies
급여
답변
Shell
api
automatic
공단
##MMDD
signature
##Field
##scape
policies
큐매니저
##구간
Korea
##시킬
계획서
EA
방송
upon
##인이
##isher
publication
##내역을
##gg
Machine
##Version
##요구사항
41
감리
사용한
에러가
standards
##ufact
Vol
continued
care
becomes
Destination
##되기
효율적으로
SaaS
Vitria
##XX
##LOCK
CONFIG
width
##버튼을
##UD
Processes
LI
이때
2010년
##이익
##전환
WebLogic
##IEW
RUM
보수
Most
##rix
##AGER
yes
서류
##Char
people
desired
복지
설정합니다
Ctrl
고객이
경기
##항에
##mas
계약상대
방식의
2001
TMS
Infrastructure
##MSYS
파티션
Operation
##경제
프로세스가
자동차
Narrow
방법은
##OPEN
수행합니다
##thernet
executing
교환
유비
웹하드
protocols
##Th
##당한
수신자
객체를
JM
##pin
##할수
datat
보통
필요시
MQCONN
dependent
시행령
##lements
Legacy
##ERP
RETURN
satisf
추후
부분을
##exp
Starting
schedul
등과
mocomsys
게이트
facility
##전화
meaning
self
##ats
##LOT
subscriber
WAR
52
##BK
##지고
##Option
##Index
ARCH
TER
명칭
##물을
missing
경우가
QM1
choice
cn
True
leg
##IAL
SFR
##Handler
MQRFH2
##되거나
building
##rant
suit
delivered
처리결과
scale
course
주간
words
경력
메일관리
Provides
considered
manip
reading
languages
Ref
changing
OBJECT
수행을
Depend
conn
NAS
world
##FI
##관리를
Modeling
MOCOMSYS
future
##Response
mapped
수출
##인을
advanced
referenced
중심의
scal
DOC
123
검증된
##code
##기관에
##이름
Handle
게임
내장
##AUT
NIC
privilege
BT
##ifications
waiting
처리한다
##ration
##eter
##imits
보안성
YYMMDD
LAN
PUB
조건에
센서
WHEN
solutions
##유통
ens
##Constants
sb
서버가
##ETA
others
##등을
항목에
##접속
resulting
Dist
##통령
Patterns
에너지
재외
##key
Events
##verse
Soft
Reporting
Pe
##cated
speed
SG
회선
계약의
properly
67
##터스
converted
IEC
random
wc
wrap
##가격
3월
pot
FLO
Listener
한번
체계적인
WebDB
##MSG
discussed
##년월
##공지
##연구원
derby
문서에
expect
fore
ld
##mod
호출하여
문서관리카드
훈련
COPY
JSON
##ners
##ba
오프라인
##립니다
정의한다
매개변수
INTEGER
T1
재정
부품
answer
대통령
수시
##case
화면이
##XML
Show
JB
##장을
abs
진척
initiator
extends
aw
##기동
연결된
Backbone
firewall
FORM
CE
ess
##acity
적용할
3차
demonstr
대외계
좌측
##개요
##어나
graphical
##pat
실현
level2name
level2type
FW
##NING
##Status
REPLACE
##perties
달러
사용법
##ops
제외한
제휴
##aining
tux
보전자료
Pres
##이는
조직도
모델을
신뢰성
FAI
RAM
runmq
시에
##추가
PI
PART
achie
attempts
통합관제
##ROP
이전내용
우편
증설
extended
Queues
series
읽어
##inations
MDX
signed
SCS
선행
입력하여
COUNT
목차
Used
이내에
something
interact
packet
신용카드
Termin
##로의
제공하여야
though
transactional
##umeric
##the
yet
조립
채권
##58
삼성전자
interrupt
학습
PP
##이즈
SNA
##Buffer
gets
요청에
prec
조건을
logged
390
##yper
delimit
DH
Space
Working
53
UCS
##dk
##ypes
consumer
Identity
##IES
협력사
establish
800
FA
FAIL
Hub
코어뱅킹
attach
micro
가동
APPLICATION
ADMIN
##iqu
10월
경로를
Building
DATAB
##신용
indicated
EVENT
bug
RFID
summary
주석
generates
##기능을
##fc
##이기
이것
재시작
편의성
intended
##Direct
REP
developers
purposes
창출
데이터셋
##ello
조회조건
Fixed
권한이
Patch
##대화
정보와
Close
##erequis
##진흥원
ENTER
Meas
Rep
looks
RMAN
무결성
주제
##asing
Installer
배경
##치는
##arter
BLOB
##aged
exam
볼륨
##Def
MESSAGE
원천
##xx
##UL
##opt
incoming
Lotus
MR
Notice
increment
레이
시정
엔티티
Sens
##GET
browse
11월
STOP
EXCE
Metrics
OT
##CII
##AMP
지정합니다
LLM
##Sc
consistent
big
##ogle
##ffers
Retrie
replaced
Template
노력
MIB
incorrect
부산
NOTE
조치를
average
##운용
supply
마이그레이션
창이
operators
설정되어
arri
##니어
연계하여
성공적인
guide
구분하여
Listing
digital
침입
##Par
Contin
CARD
시험운영
cross
런타임
##place
CTR
unsigned
workspace
정하는
차주
##이관
workload
##No
Fact
VAT
ss
손실
##42
제안요청
Otherwise
##ribute
출력한다
##시키는
##국민
수신시스템
수급사업
om
##그래
Second
Activ
기안
published
##ADE
things
##lette
##andatory
담당자가
IG
##급여
공인
생성한
encrypted
OU
##VEL
##실행
secondary
tape
영업점
##인터넷
##60
##운드
##하려는
MES
lost
sa
##Not
오퍼레이션
##stract
HEAD
사원
asynchronous
433
자리
##모드
게이트웨이
##Base
##진다
제품을
meet
##ographic
RPC
##장애
minutes
central
누락
확인합니다
defining
WaitTime
표기
생각
Partition
Resources
생활
Subject
재고
##ains
##서비스를
##istic
adapt
##코드를
FEP
paths
Certificate
cat
Less
Stream
larger
override
다음은
##래그
Ke
##Servlet
##dir
Private
유비쿼
NV
##제도
##plet
##UCT
결과에
110
reb
3년
Occurred
마감
불법
##ons
##IZED
whole
9월
##bps
subt
RESOUR
##이사
##stitut
##ah
##book
##uspend
submit
INPUT
transmit
compression
프린트
SDS
Serial
개발팀
105
Ethernet
IDs
ESX
6월
메시지의
되며
##Off
CN
수납
##용차
##PA
AQ
단추
##call
##gan
##부장
사항에
팝업창
고려사항
Roll
연체
원장
웹서버
likely
FD
tm
나머
##encies
SendTime
TASK
processor
compile
RecvTime
구조를
TD
호의
유비쿼터스
##roid
상관
온나라
##비율
##테고리
communicate
BFILE
나타난
로고
##지니어
##order
250
관심
간격
lead
생성할
리스
DATABASE
##alf
comparis
제반
##HERE
inherit
##하나
##ifies
logger
Location
##sembly
Hash
MULT
Middle
##코딩
지정한다
FALSE
occurr
##StringUtil
MGR
performing
Tibero
##za
취급
##oh
##되므로
LL
##Occ
##DATA
Validation
##cip
split
조달
Microsystems
communications
nested
V6
관리자의
ASCII
Registry
##조에
생성하여
##standing
experience
PACK
심의
의사소통
constraint
ssl
partitions
quickly
##Fl
##init
reporting
Testing
##성에
vt
원가
exactly
유관기관
주로
##legate
bw
월별
아키텍쳐
000원
가져오
Tomcat
드라이버
참석
HTTPS
##080
BmsCommonStringUtil
효율적
59
Distribution
MC
스케쥴
##KER
사업에
separated
representation
HJ
북미
허가
##다는
구성원
과정을
인가
타겟
progress
##FC
다음을
IA
MIN
확인하여
##precated
승용차
ANN
CCSID
Deferred
Optim
spaces
구성된
Two
주기적으로
critical
Syn
재처리
Formats
일본
##스위치
구성하여
##자료를
통합계정
##anti
##모니터링
##rv
##장소
accessible
integrity
WW
FLAG
sessions
병렬
동향
##OINT
인터페이스의
##지시
49
환경의
융합
serv
서버는
##통보
기록물철
계약에
TEMP
카테고리
Sequence
분석하여
##협회
##SSL
Integrity
benef
Transport
branch
모니터링을
EP
ROUND
zone
mqsi
Writ
confirm
LOBs
SAL
Narrowcast
대상자
lets
##73
##unk
이전에
RS
저장한다
##ybase
관리하고
Consider
##주행
작성한
신보험
##group
장애발생
##ministering
2월
이와
##elines
##66
이사
전화번호
resolution
제출하여야
integrated
Box
##ategories
subsystem
plus
visible
보유하고
##박스
##agent
publications
포함하는
특성을
##법률
locations
주는
설정이
DRBG
##ulated
term
##gl
교육훈련
수준의
Nextro
##istant
STRING
##해도
going
전부
checked
장점
##iper
CLASS
SVR
##ASTER
##5678
PW
출처
releases
Sn
부처
##opp
alternative
소켓
##54
##sect
유형의
72
개인폴더
RA
Sl
Tab
본사
##known
XP
enh
identi
문서중앙
192
##stat
당해
##rm
Dim
4월
상태에서
대외기관
verb
조성윤
eclipse
ye
##RIA
인수인계
vector
기법
##렇게
실행할
SD
아직
locale
되어야
##피스
impact
swap
indicating
descriptions
##가이드
partner
DEPT
SMTP
KR
모듈을
digit
sensitive
##하는지
##gments
##pective
##sive
particip
제니
하도록
##izer
통합관리
parse
recommend
sites
Watch
단어
Cap
##값이
caller
##사업부
Planning
Availability
도착
##Element
##shop
증명
CAP
사물
##인식
##텍스트
사이즈
트리거
##트로
스마트도시
수를
##ubes
Partner
##드는
##기술자
형사
##발주
이런
##ACF
MANAGER
LS
범죄
interest
##nostics
independent
##편지
reduce
노동
Documentation
문서는
redo
goto
지체
migrate
svc
키를
##Occurs
Intel
Built
##59
책임을
clusters
Tim
해영
행사
전자여권
Gl
##FM
영향도
Failed
대학
FML
EXIT
ROW
duplicate
Flash
##idden
애플리케이션을
market
이외의
Bank
past
회수
##bj
##계획을
Elements
상암
##Start
decimal
값으로
##포털
##까지의
제니퍼
Of
prompted
represented
##LI
##진단
##sphere
Available
Drag
상세조회
##mpty
audit
##Bean
##pi
##면서
##Inter
만든
완성
##idget
Condition
##iable
##Output
cou
##adm
의거
##Exit
##Connector
adds
##ournal
emp
employ
progrm
detects
##하였으며
##시저
##olation
##함수
199
##없음
##행위
##ookie
FAILED
##함을
##아키텍
가맹점
일일
##74
##메뉴
문서중앙화
Joint
##Le
##End
때는
Deb
bank
어떠
##견적
alone
있지만
##EX
disconnect
TFT
cube
저장할
Both
미만
connecting
102
##ANGE
자유
##설비
가능하며
CLUS
declaration
Menu
##의견
성공적으로
완벽
해영팀
##대비
##amically
Timeout
float
##에만
##사무
125
##LOSE
During
##position
때문
wild
##leting
저하
inventory
경험을
push
순번
trimString
Symb
2009년
##At
조직의
##방안을
fetch
##queue
##추적
위치를
flex
이익
accessing
##정보통신
sal
##MA
locks
##leep
Math
##anel
서버와
compress
##지점
##위한
매출액
##sdl
자신의
comes
##velope
##대학교
criteria
##ik
##Pass
obj
보건
##들과
개인정보를
terminated
##fm
installations
offers
##053
probably
##2C
Many
에서는
FUNCTION
스크립트를
NB
창에서
##ServiceImpl
5월
##grad
HR
##ecimal
locate
##ENCE
Errors
올바
fte
rcv
활용할
##ragment
Concept
traffic
##되는지
주민번호
연도
xxx
##메라
kill
mut
실무
횟수
이제
찾기
##들에게
##권을
전국
Tree
별지
Mar
##라클
##79
compare
xmlns
메소드를
TSF
##속성
easier
더블
##유율
개인정보의
어떠한
onto
##자치단체
운영에
primit
##All
##Page
silent
알아
프로파일
받음
scenarios
진행중
단위과제
한계
buffers
deal
웨어
HDD
##포인트
##ists
표출
요청한
##ipient
부서별
##ULE
##ashlet
news
keywords
##기는
아이콘을
원사업
##spec
프로젝트에
AUTHORIZED
51
MQTT
installer
##기관이
신청서
##lectron
순차
##vl
areas
refers
데스크
##Listener
감독
설립
##Check
대부분의
##ands
KO
pol
MQF
프로그램이
DN
Day
##Create
##Of
섹션
##mark
##vert
lnk
빠르게
MQCC
BEGIN
출시
##Sub
##vc
##문제
추가할
capability
##print
TAR
VR
매입
튜닝
Email
##고용
##write
##소프트웨어
조회하는
고시
Distributed
compatible
cpp
ns
등은
##가치
##Act
##명이
employee
극대화
TV
##KEY
thus
규제
##LP
##부의
##arm
doing
Execute
##시점
##az
##ror
160
append
TRIP
reads
Operations
##89
##ECK
##Run
why
Troubleshooting
Warning
##BE
##IH
포함한다
##감사
recon
##길이
addr
##ISE
백만원
##arily
Operating
상이
##rict
comment
comments
B1
필요합니다
pjt
HQ
오라클
##체계를
Scale
##erce
Added
brokers
buf
Tuning
VMS
##Loc
##idth
VMware
지적
##다운
##크로
poss
##음을
빌드
chos
editing
##olt
##처리를
##NEW
##ingu
mysqli
implementations
Sender
Demo
video
##티브
146
svn
##효율
##Array
Inbound
QMgr
##통합정보
MAC
등록한
efc
나누
proc
기술의
##paring
Migrating
patch
BIZ
코딩
discard
Lif
xa
mediation
pat
Login
##ancial
##입금
##자격
##ASSP
프린터
드릴
##관은
구성하는
UJ
기밀
difference
Indicates
Employee
Discover
##oS
정한
이용할
신여권
##class
정의한
클릭하고
concurrent
established
Ow
수행하고
거쳐
미흡
xlsx
mis
실습
MQOPEN
although
obtained
물론
##기획
##nowledge
Instead
JN
##RT
International
의미한다
공지사항
##집니다
Integrator
regardless
grow
메시
##중에
##RID
장애가
5대
##약서
발주처
Sybase
2008년
MQeGW
Layout
##partment
BPE
##서버의
재기동
제공하며
자율주행
팀장
가능성
경보
수정할
SEED
##ddpin
efcddpin
##oft
##Login
##Update
##산출
가능함
Limit
MY
선도
##Ret
Decl
Download
##FD
장애시
ends
Boolean
IMP
backups
allocate
compatibility
반려
정보통신망
risk
##리지
protect
Groups
나타내는
레이아웃
비트
palette
처리가
subd
SQLJ
상태가
63
##포구
typedef
Plan
사회적
maps
표준을
Encoding
limits
있는가
Completion
MQPUT1
##STAT
2002
기간계
Collection
Primary
Success
Role
부적
##디오
among
indexes
Remov
rect
##위험
##Property
정해
##하시기
MED
WORK
slow
단방향
exchange
BROKER
XQ
##Per
situation
reasons
시스템간
##하기로
가이드라인
N1
ASP
tion
##메모
프로그래
Logical
수원
##평균
##파트
reflect
GPKI
RESOURCE
##Pjt
wmq
extra
하겠습니다
##71
##GL
##뎁터
##ustry
기회
##51
Maintenance
자기
데몬
Changes
필요성
작성된
컨텍스트
Automation
##elnet
Low
범위를
RSA
bo
보조
뿐만
차별
##분기
appliance
question
##가입
MDW
##공업
##84
##탈로그
Bal
vs
##where
Cipher
Kernel
경과
##ordination
계약을
소방
##core
advantage
선진
##62
Outbound
기본적인
정부통합
##에서만
체계를
형식으로
Fedora
Subscribe
FISS
##르는
사용될
기능에
linked
##ipping
Had
lot
##상에
BmsOrd
depth
Double
arr
##ed10
reported
우선순위
ds
##세청
##Num
설정하여
##IGN
433ed10
Medi
Utility
작성일
accounts
기술한다
Logic
재산
##eral
추가적인
RESULT
DMZ
DROP
##ins
BmsOrg
계열
부분에
mouse
come
##edict
extensions
FIX
추정
##차종
##문자
interactive
##명세서
MQD
respond
substitut
8월
유용
페이지를
##ernal
SYSDATE
##RK
보여준다
##aff
operateCmd
복수
decision
1414
아웃
Features
멤버
Programm
상황에
quality
##CM
활동을
sap
##UEST
취합
##cing
##기안
103
dynamically
Commands
guarant
Acceler
involved
전송을
주택
LINUX
BL
마법
제공을
통합운영
##대출
##iry
제공해야
timestamp
##임을
trying
##결과를
mk
mpower
rais
##AIT
RECORD
직위
개발된
전문의
Transformation
생산성
happens
##expected
##ining
El
##press
queuing
##fers
Mon
tw
Prompt
저장하는
절차에
물류
결과가
필드명
TOPIC
variety
인증을
화재
##gist
WAP
##dl
##유출
##법인
Entity
##LOPT
중에서
정보기술
생성하는
##oken
전자서명
XC
##SH
##활성화
Handler
IPS
ActiveX
2020년
Evalu
##주차
dct
유저
지문
##하였을
만료
##가는
##연결
csect
상주
구축방안
SKT
대전
##oses
EL
##cipal
##ren
##분리
##clusive
안정적
ACK
Purpose
##어진
##랜드
Issue
Hadoop
filtering
CSA
구조체
##MODE
round
Google
저작권
connectivity
##Internal
커뮤니티
인공지
##하되
ACC
circ
Row
##49
##52
leave
리포트에
크기를
##서버에
채용
##Sep
##Des
##NET
정보제공
##되었다
정수
Archiver
IR
직업
유형을
ADDRESS
##요망
##ecycle
Thus
FTE
13112
counter
##ucing
GN
##gle
##프레임
##raft
FR
공용
스트
Callback
배정
있기
implicit
##iques
공무원
arrow
시스템과의
typical
bag
캐시
가능성이
NS
쓰기
authorized
measures
인라인
##구현
RENEW
##시행
Administering
Wire
please
CSM
##ASSPATH
notes
인공지능
Contact
Year
##ness
json
##time
##스타
comparison
##Spec
Delivery
RENEWAL
##53
Alert
##mbed
나머지
Body
Jul
삭제할
Finish
정의하고
plot
조기
팩스
segments
추가로
##시아
##Tem
##Ent
서비스로
OutputRoot
hex
나열
더욱
순위
basis
맞춤형
달리
반납
encountered
VIEW
sun
사용자별
CURR
EXCEPTION
BMT
과학
configurations
caused
유연한
##체크
ID를
Defining
이동한다
prof
agents
restrictions
Schedul
원칙으로
생략
##체결
작은
evaluated
MASTER
##arator
##시스템으로
EMC
Maven
##Pre
NEO
shortcut
프리
##ormal
FIPS
##Attribute
Alternatively
##주의
##내용을
받은편지
이렇게
배송
하게
등록한다
Keep
Cred
EQ
어뎁터
##줍니다
styles
변경에
xs
음성
##LIN
108
망연계
##alone
##isions
##posed
rpm
106
워크넷
granted
feed
Unable
declared
Problem
기상
소셜
Another
ASM
RLY
##채권
CSS
##ESB
계약서
responsible
62
##받아
cy
##chang
##URL
Corp
MQIA
##4J
##회원
정보연계
##most
force
Mat
ev
1999
맵핑
##Task
##아키텍처
nition
##USER
Central
지도
notice
Changing
##urrency
USING
ARCHIVE
2단계
Media
##소프트
악성코드
PROD
3개
Month
##온다
##부처
트랜잭션을
철저
##sation
거래를
##olute
domains
바이오
nvl
##수량
관리자를
Statistics
##TYPE
필요로
generation
CONTRO
세금
##Format
##AK
##br
006
produced
디렉토리에
4대
rad
차지
abort
전송하는
Assistant
신한은행
연락처
유의
adjust
2021
교육을
CLASSPATH
##테크
aware
fs
##Action
하이
produce
llm
##암호화
REMO
분야별
oriented
##As
##NG
##불가
Notification
200812
piec
wrapper
UDP
beans
##cv
referred
Drop
Press
금융기관
ANNUAL
identical
경우에도
purch
Developing
이름으로
AMT
설문
Analyz
##ament
JMX
Draw
technical
##icode
121
CASE
넘어
##hat
aspect
##PM
경쟁력
navigation
Lat
##umes
Static
##mx
states
##Channel
61
##Un
##ants
그룹을
##연구소
QAF
##Pr
transition
접속하여
담당자에게
비정형
##Separator
살펴
##go
##러그
issuing
mstr
##Point
생성하고
##ocker
compos
Loader
Collaboration
기입
##정산
COMMIT
narrow
타임아웃
launch
complet
키워드
##민원
통합단말
protection
writes
RAID
wish
유도
제6
##XA
affected
2012053
CUSTOM
관리가
administrators
sleep
TOT
##매출
executes
Ster
증빙
##RAY
상황을
복잡한
BIND
5년
##자금
generally
correlation
Formatting
공제
카메라
PKI
##조제1
111
##TPUT
div
붙여
체제
##arge
DET
##Box
##Interval
레이어
##하지만
marked
relationships
Construct
BPEL
제대로
##Control
thrown
digits
인도
대가
안됨
great
##Be
tps
수치
##차량
기술개발
고용보험
chosen
stud
administ
데이터베이스에
##PRO
##aneous
Communication
##정보원
사업추진
calculated
##관한
##READ
cfg
##FACE
Results
wsdl
##Line
recent
상의
요소를
keyst
extend
대금
##규격
특별한
주차
필요할
analyze
demand
##earch
Digital
시에는
가능하게
Enabling
networks
respectively
##ENC
prepare
marks
mask
##산정
등록되어
packets
2016년
Market
나타난다
GMT
수가
##query
windows
2018년
연간
사용된다
failover
allowing
CHECK
Hardware
UC
것인지
##elcome
##Admin
##visor
fault
대구
색인
Based
BUS
##명의
1단계
청약
instanti
항목은
Impro
PROPERT
시연
##TL
##냅니다
portal
##greSQL
집행
##표를
##ulk
흐름도
최대한
Exceptions
##집계
Browse
##avel
topology
자원을
변수를
하자보수
poll
##컴퓨
imported
Restart
##nostic
##참여
##elist
FST
Suppl
##vr
##qual
변경을
DECL
Upd
highlight
결산
loader
human
마포구
탑재
##서식
##etary
10g
##가능한
encl
brows
##요일
loading
vert
##정보가
나의과제
개방형
212
efficient
room
##ropp
assume
Metadata
메세지
시군
고객에게
PostgreSQL
bad
제조사
116
##105
Volume
##aus
##Pack
##안내
입고
disks
OUTPUT
Clear
##되었는지
Sensor
##stream
2019년
remaining
##접근
##ta
CI
접근을
heap
69
FB
##ne
##iding
Designer
Jolt
his
다수
##Core
passwords
continues
향상을
folders
STATE
Schedule
Authorization
##bl
업무시스템
등록할
NODE
CompCode
시점에
82
sz
기여
대국민
미정
##지에
##엔진
Programs
helps
경우에만
년도
##007
States
단계에서
handled
건강보험
직장
Fac
##paces
##ANK
자료의
miuser
##공관
Codes
Hot
생명
정형
설치를
NLS
아카
2PC
목록에
73
govern
##ests
RPM
대규모
이어
stan
little
think
developed
지방자치단체
##공동
작성할
Card
##스페이스
BATCH
OPT
하거나
##하우
##용어
Launch
SUM
sheet
exercise
있다면
managing
시뮬레이션
##api
iSeries
##ools
호환성
기능과
align
Special
##entation
장은
##ky
Bit
Embed
3c
customize
years
##Net
near
tags
wildcard
templates
xsl
이의
##comm
##내의
##antics
##undament
수익성
무엇
##스플
##일치
##Document
##87
##운트
sequ
내용에
##Dir
##기의
ing
resolved
메시징
##사를
##Form
요청이
97
##chk
PIC
107
이용기관
담당자는
LOCK
강력
발굴
##Ed
##만큼
delay
##사가
finished
##PTYPE
negative
##미널
Bean
SECUR
취업
##테일
##ISH
Final
iP
플러그
##Home
ORB
비용을
효과적인
구름
##리드
실제로
IPv6
##Options
##GM
##imate
인터뷰
##conds
Identification
bindings
yy
의존
##기가
Manage
IX
109
conven
seen
linear
fb
중급
분야의
WT
상시
신호
##대리
##ishes
##ENER
Lesson
구입
##화하여
적용을
결과서
ME
contract
관리체계
Human
##GHz
##길동
필드에
##ctl
completely
##FER
설정하는
화면설계서
이미지를
보안을
connects
##urable
관련한
요건을
technologies
L2
QSG
2017년
Match
##OD
REL
##현황을
런너
유일
적체
Cent
정정
Manufact
사이의
##TTS
tells
##ester
cancel
Classes
번호를
논리적
##유지보수
subdirect
oc
##rief
constants
GDB
##sung
recipient
desc
Aggreg
Course
맞추
##4C
##조인트
listing
sugg
CMS
mon
부과
담당업무
##방법론
Modeler
##수익
Transformer
##Token
##요양
##oub
##aset
##specially
duration
##olid
TPE
연장
책임자
GC
연결이
Catalog
tele
##공장
tracing
소프트웨어의
positive
##ancel
pred
height
디폴
WPS
사용률
외부연계
CLIENT
프로그래밍
간에
##인프라
Share
##ILD
걸쳐
스트리
##속도
MQIN
##CTL
##aches
week
committed
##lict
##InternalID
llmInternalID
##사이
buttons
고지
##투자증권
World
입력된
93
dept
IDL
수행하기
##ipped
HH24
vary
제정
매일
주도
revenue
Struct
표준화된
Fields
DECLARE
CMP
NC
##etime
Agreement
##Runner
개시
없으며
##yth
##HR
subset
aggregation
Sterling
되도록
##reat
적용된
SCM
간주
##이라고
요구하는
채널을
checksum
questions
있습니
엔지니어
##RST
변경관리
foreign
종속
##WARE
##공급
##ABLED
##이어야
카탈로그
##니즘
##구매
##되었을
techniques
##촉진
접근통제
entering
유틸
Native
해킹
##pg
Segment
##사항에
위험관리
war
##선거
really
MQRCCF
ignore
CUB
inode
Organ
suc
작성한다
##oice
##prietary
Expression
진흥
HttpServlet
##Al
##차단
MQQueue
Take
발신
부재
위원회
발생하면
##Stop
Concepts
명세서
못한
##4E
KTF
없도록
##57
stock
Through
linux
auth
Complete
Variable
전파
characteristics
QM2
##업무를
영역에
Tasks
벤더
##반기
##isms
조회시
##전산센터
년월
않으며
증상
##ii
##Mem
##riggers
representing
raw
##수표
확보를
presentation
Variables
##eight
보고서를
Projects
12345678
suitable
jav
##hicle
##83
140
송신시스템
initialized
begins
Move
PMO
##ood
direction
김현
##Put
attr
Est
SUSE
fi
사업비
portion
Short
holds
##경험
##토록
rs
##이라
##ious
##롭게
도구를
104
CURRENT
SECURITY
##iring
INTO
MBean
자연
##항의
##rypto
Util
기본정보
Collector
##rs
adv
사업명
##ised
바꾸
주관기관
행동
##Frame
사용된
발주기관
##인원
##구역
변화에
constraints
illustrates
##스트리
있다는
##사업의
completes
Accept
Physical
qm
위치에
대표이사
레지
언제
##cd
##orth
##oco
솔루션은
요구사항에
영역을
##ATIONAL
faster
held
##화에
trunc
통신을
시기
##지지
##writ
##cell
knowledge
assumes
ACTION
Label
관리대장
EAI를
확인하는
있는데
기록관
구체적인
dsp
글꼴
##matic
##ores
프로그램에서
checkpoint
dictionary
구독
##iant
##주식
##ares
##COUNT
UnitFlow
XSL
그렇
문장
##성장
##데이타
inbound
PUBL
VAN
세팅
##수수료
##백업
##쉽게
categories
##특별
Creation
requirement
preceding
##수집
##ao
RECE
##msg
경우를
panels
hours
ctx
Telemetry
Root
난수
때까지
Middleware
##500
##XP
행정안전
REQUEST
달라
병행
##TN
##COM
Replace
##aint
SSH
##프로젝트
##antage
솔루션의
##마감
접근할
##Auth
직급
활성
소통
##준비
##oriz
연계서버
공동수급
Determin
Personal
REIN
getting
decide
UD
say
##식별
proceed
Transmission
일관성
시군구
87
추가하여
계좌번호
KPI
RFQ
allocation
IFS
##Dct
Style
설치되어
DISK
기계
함수는
remains
71
mention
##호의
inform
전자금융
answers
수는
##백만원
especially
내보
##Met
##판매
IIB
snd
일자리
navigate
박스
##로써
사용자에
drives
거버
유조인트
검증을
74
변수의
클러스터링
##PER
reject
인터페이스ID
정상적인
부분은
computers
불필요한
TARGET
MRM
totalmenu
##CCESS
KST
KIC
nd
대형
##aq
LED
이용해
개인정보처리
##기반의
92
Tier
##링크
##012
invokes
DLL
suspend
상단
연계서비스
timer
Word
##82
##바이
Workstation
공식
##alyst
##acks
ensures
낮은
##Load
accur
Fr
광고
KS
프로세스에
workstation
시트
임직원
10년
##iliar
TNS
Upload
유럽
항공
##Mode
##etail
MQB
그룹웨어
2007년
Front
MVS
태스크
##start
성능테스트
identifiers
Specifying
DTD
고장
최상
##KB
anything
##가지로
exec
transfers
Best
##TEAI
이름이
공급자
MQPMO
유사한
BACKUP
##Password
IIS
외에
기능의
지정하는
wrong
부가세
cle
단체
attached
화면의
smaller
부합
##terator
있다고
##자부
MQZ
172
##Component
Oct
동영상
학교
Correct
foo
responses
추천
modes
리스트를
CAT
취약코드
검출소스
ANS
vCenter
소모
##시도
##DN
args
월간
통합을
pairs
SAS
WMS
ou
회사의
##xr
##리고
##기로
COMMAND
##Instance
제품명
passes
명령어를
Cross
전력
기대효과
Font
관점에서
영구
##했던
##교부
##LEx
abstract
정책에
Tracking
법적
데이터와
수행한
strategy
효과적으로
##lib
##ventions
National
Team
##UES
ic
journal
보상
비중
지정하여
Incre
##책임자
succeed
##roy
##aily
Selector
GNU
Binary
SESSION
라고
백본
##일을
DEP
Parser
이주
##Dis
통화
구축된
사항이
##ython
유선
##HD
overall
계정으로
debugging
precision
Ne
##호출
CLOB
메신
백신
문서가
요청할
dr
##한도
##010
##LEN
1식
DIR
win
114
##커니즘
encaps
리스너
수동으로
84
won
##ATEG
htm
Diagram
controlled
axis
##Sec
필드를
Programmable
안건
기존에
연동을
##quently
임계치
##hest
94
LP
개설
증감
##이거나
classpath
이름은
V7
리더
##이라는
##감시
이용하는
사업기간
##ITOR
보유한
##기술을
프레임웍
뱅킹
중점
##vider
구축하여
전자결재
Packages
Insight
Bar
##utton
situations
Accelerator
IIP
리모
##포탈
220
tradem
FS
JCL
##해제
등록하는
008
middle
invest
여기서
##증명서
libc
임의의
Govern
nex
##ike
설정에
Temporary
그런
심각
홍길동
##a2
##mm
##room
Webt
조회하여
passwd
presented
세트
##entially
180
##Command
JAR
VIP
광주
베이스
의뢰
colors
개발에
##데이터를
보관함
특성에
NW
Throw
outbound
##string
##version
보안정책
ASS
##process
Tracker
KC
ONS
##건비
135
quant
##시키고
없으면
sear
남양공업
cipher
SOUR
법무
##TV
looking
persistence
##opsis
eX
당일
##키를
Receiver
국번
차원
허브
회신
Chart
##chestr
클릭한
Symbolic
MAIN
기다
##량을
##투입
incident
OC4J
##Level
유틸리티
figure
annot
클릭시
##Rece
##협력
##ifact
distributions
4개
추세
##드를
11g
##Store
recorded
연구소
신속하게
life
capture
##STATEMENT
Tip
고가
whenever
##itories
공백여권
##MCI
unexpected
전송할
##점수
##서버에서
Unicode
Actions
DESCRIPTION
비해
RMS
디버
상자
스레드
##lt
단위시스템
버전을
mappings
##Stamp
accounting
##심의
제외하고
Speci
파기
141
printed
Assign
Decision
coll
정규
##Param
percentage
Nov
기호
제공하기
국내외
365
Finally
MMS
WTF
출금
##From
union
구현방안
연계시스템
115
아니면
##onymous
caching
##테이션
설정하고
prepared
참조하여
주변
EAI01
그래픽
거부
##확보
yourself
##화면에서
qualified
Customizing
routines
manner
이기
##aits
##구하고
HMAC
cast
MIME
409
##근무
##ited
perspective
loss
제주
체험
가입자
Large
콜센터
safe
##iases
LoadRunner
LINK
EML
업무명
거버넌
UB
웹사이트
촉진
EXTE
##표시
##etd
##mediate
MK
개최
##url
평가항목
PC에
잘못된
CONTROL
Ge
POP
gs
유상
##모비스
CURLOPT
EDITION
STEP
보임
##시에는
##81
regions
##970
XXX
재해복구
millise
##Flag
Panel
손쉽게
인천
##61
KMS
받고
잔액
관리하기
최소한
Refresh
REINSTATEMENT
DOS
##Transaction
FAX
대역
##tl
##일까지
PCI
무시
##정보관리
Area
BIT
Si
3개월
반송
주십시오
호출한다
안에
symbolic
guidelines
트레이
할인
IDS
##strap
##gmt
손상
##Db
그룹에
없어
##AA
reached
사용이
표시된
2141
수령
127
applet
Stored
간단한
Self
XPath
에는
130
007
driven
moved
##Attr
MAPP
##RR
##APTER
AVAIL
measurement
##Del
협력업체
자주
지출
##ster
구조로
##합회
Fire
NAT
hidden
노트
실행하여
대상이
##ossier
비밀번호를
인터페이스에
Either
##성명
##간에
everything
CB
MER
##으로는
요구되는
LG전자
Capt
열기
찾을
##실시
Generate
introduced
커넥터
것과
요양
MQT
Rev
Forms
계약금액
완료되면
습니다
탭을
효율성을
대표자
PGM
반환한다
##해결
장애처리
이벤트를
STEW
SOURCE
##ae
absolute
스트리밍
HAN
##off
##Filter
##현실
안전성
##Interface
SALES
HEADER
불량
##gate
1312
##250
Handling
FO
##릅니다
##퀘어
79
범주
장애인
Transl
MDM
##serv
##300
##디렉
##AUTH
항목의
컴포넌트를
ANY
가시
##동안
sufficient
##REE
컨트롤러
INTERFACE
keystore
금주
만큼
##ocial
외국인
이자
발생하지
places
formatted
sometimes
Dialog
만드는
서술
해소
##대의
##어를
potential
OM
의도
협상
##page
##pass
scanning
##RITE
기준을
sbin
업무담당자
mqsic
단독
##서관
보험료
facilities
Di
Solutions
##상담
planning
주소를
capacity
700
Widget
누적
외주
##WER
##orizont
분배
LANG
형성
##내기
##시킨다
##합계
내용의
항목이
overhead
Understanding
1G
PMS
그에
받지
보려면
안전하게
최적화된
MQINQ
Tri
이체
##컨설팅
설정은
리포트의
##재산권
가져오기
MST
##정지
analytics
##urer
##alleng
sizes
Place
Sk
##HOME
brief
항목명
schemas
Appro
employees
Mov
값에
##에관한
##idents
caches
BB
Live
##irus
EAI에서
적용되는
148
유효기간
원래
##ecast
hdisk
Boot
TF
누른
##YN
구현을
##DEF
##erequisites
Measure
CIS
##TIME
##a1
##ifying
DataSource
TRACE
Whether
verification
Join
os
설명을
##pling
price
기준에
민원인
effective
##일로부터
156
표시되는
##Ident
플랫폼을
자본
##스퀘어
bash
Compute
fe
lst
Depending
축소
제품에
138
##103
수립하고
##ography
IDT
##계산서
메신저
##System
사용해야
optionally
##서버로
##Environment
청주시
ant
NPIB
Crit
바이트
##Len
##vers
validate
FIN
hmc
관리에
접근권한
MT
Zone
축적
Argument
primitive
##LIST
Spoke
응답전문
Mer
소재
##WORD
inserted
인코딩
##glish
tun
경계
enabling
cc
##예측
##endar
utilities
mounted
rename
변조
##매핑
backed
국민연금
medium
RAW
8080
demo
##Ar
##JMS
isn
Inf
113
위험요소
충분한
far
담보
##duct
##연도
기능개선
broad
gscdn
##sec
Uninstall
Apple
FDC
##참가
136
단계를
exported
에러코드
Archive
RMI
##Us
126
Instr
구분자
##LOY
VI
##ided
구축사업
unknown
신한생명
Associ
##PATH
발생한다
considerations
83
translation
BSDS
공모
##템플릿
##est1
##프라이즈
재외공관
FF
pk
##선정
##페인
나타냅니다
ZETA
거의
##Lib
##경력
Connectivity
Hyper
조인
##로는
##율을
##ority
redirect
Identifier
리모트
AAS
NAM
##BI
##경찰
##측정
대화상
familiar
Mount
어디
인적
##iler
showing
현행화
achieve
conform
118
layers
HttpServletRequest
Don
OD
Tax
ZZ
ec
류현
추이
후속
Commerce
cycle
전시
##rno
house
##이어그램
Mean
fd
ssh
첨단
##NODE
WBI
dual
마찬
ones
##olf
##정보와
통신망
장비의
fit
내부망
nexon
MQCHAR
133
##과정에서
GERP
sais
모양
##iation
##mi
Creates
Meta
토큰
userid
conflict
##Bytes
Profit
류현종
추가된
##Enc
받아야
CONTEXT
##names
##ASH
Similar
##제목
Clients
VS
hot
trusted
Cubes
##리아
ra
##지도
##icult
##activ
opening
반입
자치
주고
증거
##과장
122
moving
LEVEL
Evaluation
목록이
필드의
##SPACE
compiled
MFT
##네트
견적자료
5개
##Test
##시스템은
생성되는
scroll
VER
패널
Flag
Authority
Audit
RH
vm
서비스와
내용과
Implementing
구성할
differences
미치는
분실
##Send
##지의
관리과제
프로그램에
단위업무
관계를
조회된
##ormally
엔터티
##Gen
##agic
수신한
##RESH
Folder
업종
131
FIRST
적정성
##Content
Clusterware
Hello
OO
210
##beat
older
4차
JRE
VO
바람
httpd
terminate
Encryption
상표
##bi
네트웍
커뮤니케이션
어댑터를
boost
Poll
atr
a11
##대금
Clusters
EXPR
피드
Drill
NIS
x8
즉각
Plus
Button
doub
광역
채무
Imq
SQLEx
소음
##포맷
leading
데이터베이스를
##LoginVO
나오
##ison
핸들러
OEM
pfm
메커니즘
##ots
지원한다
##anned
functional
Video
eff
##inter
CUBRID
##server
사이에
transferred
Extended
ACCESS
ABC
Hierarch
##Pool
##Report
attempting
tom
mandatory
고성능
##Empty
CBC
Router
드롭
##원이
0x00
summar
양산
QU
##관서
##ipt
사용됩니다
프로시저
returning
Resol
Agents
Ter
불구하고
##heets
NEXT
ETTS
FE
Factory
##iller
인터페이스는
삭제한다
참여기간
coordination
유기
보안대책
기반구축
connectors
restarted
비활성화
##Custom
##건의
수신된
문서화
##reads
오류를
거버넌스
##CAD
##리스
XQuery
저장하고
INSTALLATION
상당
하나를
lin
파싱
포인터
Adapter를
##spection
##Byte
##Dept
##노드
엔터프라이즈
##VMS
##imin
IDE
유형에
상대방
nor
Extension
012
ub
##hib
프로세스는
expr
boxes
입출력
##Dri
##사회
관리자에
stops
United
머신
##도입
설명한다
클래스를
ect
##EAR
##anies
Connections
##자재
##gm
locally
Writing
터미널
##reme
MQOO
SOFT
implementing
소관
##ros
생성합니다
행정안전부
재발급
Websphere
5724
리턴한다
turned
##자동차
gz
lab
일별
##VU
계정을
확장자
81
##ATOR
strong
##MPLE
Pars
##레이터
##ina
commonly
tracking
상환
##artment
연계대상
JO
hscdn
##Host
##형식
##합니
stest1
따른다
##Provider
의해서
역시
##Names
회의록
ARIA
상에서
이면
##Back
##aler
함수이다
Feature
강력한
calculation
##었다
지원하기
DEST
Alias
CRL
MAP
##orn
사업부
143
문제로
Android
triggers
##체인
##레벨
관리의
##하였음
Requests
ten
##르고
조회하고
만족도
측면에서
ded
light
##oz
##plete
기술이
Failure
사무실
cout
징수통합
1234567890
등에서
##내에
지금
해석
##ula
암호화된
covered
Stack
##ISP
quite
Binding
OLE
vitria
##부담
##명세
##otype
##udo
Does
반영하여
MAPPING
드래그
개인별
채택
함으로써
##els
cryptographic
판독
Conc
ATTRIBUTEFORM
시정조치
atrb
ts
큐관리자
Repe
내외
신기술
predef
##256
애플리케이션의
s3
##제안
개발이
upgrad
##imited
89
five
kit
내부연계
수립하여
롯데
assembly
구성방안
##ISA
영역의
전반적인
practice
Preparing
정기점검
Computer
SAM
##uware
RFH
triggered
상단의
##DF
프로세서
개발자가
##020
Sil
제재
##사양
##LEMENT
combined
##Statement
232
dropp
168
Terminal
예비
대상을
호출하는
##ADMIN
불일치
meta
Play
근로복지
tper
작성하고
특장
##일이
페이지에
##111
ldap
Retrieve
Pa
1번
오버
큐의
투명
claim
locked
##ptor
제공함
pending
##ones
수행하여
AES
dw
RFP
Phase
experi
rt
협약
##IBM
사용하
community
##사법
ROLL
discussion
조절
##PP
발생하여
Gr
VW
플랜
##4j
spring
Selection
assumed
JBoss
CG
PID
game
##보장
가능해야
goes
메트릭을
업계
행자부
##orph
##platform
통합하여
##ADM
UID
비롯
##미디어
가중
passing
##leton
Synopsis
##uri
##isting
Failover
소비자
이것은
board
##HQ
196
Adapters
func
comma
144
weight
standalone
distin
창을
토대로
상황실
Turn
제안사의
있음을
delimiter
BLOCK
회전
publisher
parsing
L3
syn
##주고
##cons
어려운
Risk
TGT
위와
제기
##endors
그룹의
현재의
MQCA
dam
버스
##elper
해당사항
##화면으로
datasets
datatype
##WORK
DBIO
dynatrace
PaaS
잠재
해서
##는가
상속
##일련
stub
117
설계단계
영역에서
AMS
OLD
재전송
한정
##분산
##발전
##available
124
결과는
기업이
sense
##건설
##킵니다
##ompl
내부적으로
단추를
Ob
강조
부착
추돌
##frame
##istor
English
Lists
Orig
##용역
delegate
today
정보처리
저장되는
perman
##UIRE
declare
milliseconds
버그
##dc
printing
##Inte
데이
##oun
시스템별
ACCE
##의뢰
##정보에
##apan
관리자에게
Invok
발생되는
효과를
STRUC
##patcher
transmitter
이력을
LIG시스템
Stopp
##블릿
실행하는
##104
TDS
설치할
##Adapter
##New
children
GID
당사의
수단
##YM
네트워크를
family
파일에서
##ibly
Try
디폴트
ODS
w3
보안관제
CVS
FEE
Firewall
RATIONAL
##SPHERE
dependencies
금액을
VLDB
속한
엘리
기록관리
SymbolicName
TAB
성격
##ebel
nothing
통합된
boundary
진출
##세계
##gest
intro
peer
UML
아무
DB의
retained
supporting
00010
MOM
mqsich
SITE
휴지
##중계
문서번호
PERS
##하우스
자원의
명시된
Push
##Access
##0101
지원할
입력할
F3
Sort
비전
하는데
principal
따위
위임
창의
타사
##aspers
technique
Diagnostics
TI
Und
##icating
시간에
blocked
tpcall
modifying
구체적으로
커넥션
predefined
보면
sizeof
##aspersky
Stock
idea
하나로
BmsPjt
operational
##사거리에서
제공한
Usher
typing
일정관리
Preferences
BINARY
mentioned
레지스트리
상장
##Title
##턴트
permitted
프로토타입
artifact
피드백
BAT
cent
##컬럼
당사는
시퀀
##광역
Trust
실행한다
Rollback
rot
##iability
##ilit
프로그램은
apps
기록물의
highest
exclusive
providers
CSV
distingu
등록정보
계약체결
규칙을
##gs
Japan
pick
##가기
필요에
상세한
owners
##Record
##Monitor
##ERR
1402
##essional
##대상자
stanza
##NL
##바이트
자료는
migrated
AUTO
##ockets
STOR
방식은
algorithms
수탁
업무구분
newly
##ABLES
Scope
Pay
분쟁
##의무
데이터베이스의
mar
쓰레드
Entry
removes
MANAGE
신여권통합정보
Licens
##bu
데이터부
arbit
여권발급
aggregate
LONG
df
가로
##점이
##파일의
produces
Member
##기록물
XMIT
##lectronic
JC
준용
평문
환경변수
##COVER
indication
1대
관하여
##Detail
##NP
##yond
maxOccurs
정해진
WAIT
자재
타당
테이블스페이스
##ENTER
##SACTION
정의되어
방법이
##spect
costs
UK
검색조건
customized
30일
BOO
Lookup
##opic
UNI
공통기반
DQ
workbench
throughput
명확히
Trade
CMN
td
제7
적용한다
recv
접근성
##1946
##160921
들여
##공무원
147
sendmail
licenses
Further
언급
##ports
인증서를
approx
NON
망분리
이용해서
일정한
##ercial
회원사
MODEL
##ARCH
Processor
compliant
DIST
구문
초급
##리를
beyond
ResultSet
용지
##준수
##OI
관리시스템
시간대
WEBSPHERE
RECV
##comp
Conversion
PT
Tech
typed
NonStop
유효성
Kaspersky
관광
##1D
운영중인
MANUAL
sq
진입
사용에
Connecting
메뉴의
Bytes
##확인서
특장점
tick
##원가
almost
secret
health
##QMgr
undo
raised
오피스
팀원
##FOR
정상수표
TPNO
Generic
FLOAT
M1
ea
불편
연락요망
못하는
##Job
INV
12160921
145
생산2팀
64bit
Integrated
mechanisms
##16091946
V3970
20081216091946
cut
ping
##Lnk
##ca
##경비
##생활
LOOK
daychk
organizations
SUCCESS
고속
##명과
DB를
displaying
destinations
terminates
Clustering
입찰참가
Future
WBS
##ARED
Embedded
effort
##doc
##천시
##INESS
Cho
FORMAT
##store
##관리체계
suite
부분이
locking
##client
enhance
band
##방송
##일에
##병원
삭제금지
##ultaneous
##기관에서
아래에
removing
91
##Pri
작업에
소프트웨어를
concat
restricted
Siebel
BUFF
##장기
##cles
partial
모듈의
##encing
라이프
Steps
사양서
감염
처분
Answ
접속을
개체를
##check
##이동
continuous
eng
확인하기
accompl
수집된
##Properties
Baseline
##Ref
##NAL
discover
이후에
최고의
YO
케이블
탭에서
Enforce
노드를
정확하게
갖추
서비스에서
PMR
입증
exclud
released
Unique
검색할
##TimeStamp
multip
AutoCAD
장기요양
Samsung
휴지통
구인
이번
지원하며
거래로그
중요도
bool
회보
Recomm
우리은행
Appliance
Caliper
payload
tomcat
Bridge
live
구직
##Bind
partners
TRANSACTION
treated
##문서함
국방
후처리
transpar
통일
MQCMD
##담당자는
vers
명을
부록
thing
subscribers
객체의
고가용
JP
수작업
##스토리
##법에
##adecimal
사업자는
수협
재활용
##Soft
##중단
##공고
##문화
endl
accepted
##요원
entities
quotes
Declar
##ipe
SYSCS
##ATEGORY
Pages
UDB
너무
##안정
사용자정보
IDENT
Its
종목
##팀에서
##ipment
##스플레이
XAT
엔드
abn
담당하는
240
facts
일정을
repeated
Keyword
##wards
MQCONNX
##ibern
Viewer
concern
BmsOrdCard
Kit
MET
리얼
##사항은
정의를
scheme
신한금융
Pol
편집기
GE
Qmgr
준다
성능이
페이지에서
factor
##ograp
129
Expand
수원시
tperrno
팩트
##CONN
aliases
2014년도
pipe
폴더의
archived
정보시스템의
IDC
Defined
옵션은
Company
syslog
감안
버전의
Presentation
WRITE
간접
##총괄
toString
upgrading
프로젝트명
##Plan
2번
범정부
우려
convention
009
시장은
RACF
공인인증
ce
##mC
##ZZ
구성하고
구축에
메시지는
Interactive
##일련번호
얻어
Consumer
listeners
건물
##9조
##만으로
##납부
정보주체
keyboard
개선을
identification
##itionally
협의를
VALUES
BUSINESS
211
G드라이브
gdb
telnet
시키
Enh
waits
blocking
icons
Brokers
Po
##amily
##otion
##017
relation
mutex
Cogn
activate
##changed
##ographer
tns
제8
##단가
BIE
점유율
##내부
SVRC
aspects
##연합회
##클라
##isco
multicast
merge
휴대폰
##iration
정의할
그림과
##있다
throughout
paper
어렵
##BU
##Dele
##분의
작업의
##하다고
##상태를
widgets
synchronous
##마스터
angle
DBJ
전송된
시장의
##허가
WebService
작업은
Shift
##selves
EDW
ANSI
Even
매매
사본
##Cache
##conn
pathname
##혁신팀
1개월
Safe
audio
##에대한
ism
기본으로
이름과
TOTAL
Cancel
Loss
##과목
##Nm
##선을
##뿐만
inner
Chore
##ISC
나타낸
Scan
프로토콜을
Contains
ptr
하에
##ref
reverse
cached
difficult
P1
uid
##필드
##STAMP
계약기간
목표로
Relationship
국토교통
OPTIONS
아카이브
Frame
HIST
LC
메서
##도체
IPC
encoded
Compaq
FAQ
v3
##ELD
##배포
##퍼런
owned
##Address
대통령령
composite
노하우
상자가
##around
##enus
##abet
Upgrading
구글
신설
확인이
preferred
상황이
Compuware
Products
단기
주1
##불량
공통코드
하고자
CONNECTION
유가
##uid
사용함
실행되는
preferences
Shut
1건
WESB
ir
##uccess
##근로
151
기간을
synchronization
신여권통합정보관리시스템
ok
내려
코스
suff
assist
320
DOMAIN
2년
민감
##이프
##ulating
compared
##ATED
decre
##Timeout
wolf
##용으로
handlers
Previous
2015년도
##저장소
visualization
나누어
UM
INFORM
##0002
지원하고
변경될
XMLNS
LOAD
구름많
lu
따로
시큐
##ANY
Everyplace
SCO
시공
##Desc
##sterisk
##adow
개발사
참조한다
goal
##ometric
구성된다
swit
SQLException
wire
##rase
elimin
blanks
Calcul
##Shield
DETAIL
얻을
##입찰
##mount
runmqsc
수행사
Typically
외의
현실
##NK
##기한
구성은
##RECT
모델의
registration
EU
반별
현지
contr
deploying
##Utils
##ACHE
Perl
마이크로
literal
해양
해쉬
REPORT
##annot
wants
엑셀저장
##auses
##web
##acs
##aves
increasing
conventions
BmsDct
상암동
Break
특급
137
repositories
##Builder
Removing
vendors
##pack
페이지로
diagnostic
다이어그램
##ibernate
매년
데스크탑
VC
갖는
explains
##IMIT
링크를
ssw
##Cert
##DIC
##치를
##008
department
백업을
##되면서
Consult
collected
gl
pull
##관리팀
국세청
##LIB
지원하지
loads
##operability
destroy
fonts
DML
신탁
알고
알람
##bo
##Policy
##식을
selectors
plain
frequently
##디렉토리
JAX
과금
도달
##FA
XSLT
Owner
##ercises
involves
##징수
notify
지역별
practices
Quality
MATCH
모형
필터를
FIXED
omitted
##출동
STAND
SYN
할당된
semantics
수록
##ulates
수행함
##nel
##icator
##단지
##hel
##ONFIG
##DB1
maintained
SALT
mir
getB
crt
시범운영
OTP
##상에서
##Over
클라이언트의
##Req
성과지표
##발행
simultaneous
orders
생태
액션
##Open
##OOL
고객과
industry
활용을
##ConnectionFactory
SVRCONN
주시기
##Database
##Events
Register
로봇
##사항이
determination
파견
##plus
##olesaler
SLA
주어진
##java
##Child
Detailed
TERM
제안요청서
dc
pm
##주택
##져야
저장되어
authenticate
2대
##cture
##artbeat
134
제시하고
partitioned
Databases
divid
nn
tries
대장
포괄
prefer
기관간
인력을
BME
GQ
첫번째
##조합
##gree
##portun
ASE
FIELD
hexadecimal
EI
bundle
SMP
age
conj
유연성
QMgrName
dspmq
경유
##데스크
Struc
조직정보
백업파일
아이템
adapters
로딩
##ADDR
Defines
termination
##광역시
EB
Effect
router
대안
Latency
##width
Operator
powerful
##oppy
못함
포함하고
132
##IGHT
Retry
##metric
trail
구성한다
amqs
Parsing
DP
Fast
biz
##정비
##확정
Deprecated
Provide
별표
targets
Numeric
큐브
##폐기
##plex
페이지의
블록체인
이기종
확인한
##abler
volumes
asterisk
##67
phone
##항목입니다
전제
큐를
Ste
작성하는
경로에
3단계
DAY
##명으로
사업은
soft
노드의
패턴을
0810
##Comp
마찬가지로
함은
##vey
관리적
정의하는
어플리케이션의
configurable
시퀀스
Tel
WML
##NB
##집중
Important
circum
돌아
인텔
##lines
Checking
EMPTY
ren
자문
지사
##And
요구에
FULL
##해주
particularly
automated
Jdk
위에
MQPS
추가합니다
저장매체
개인공유
##REC
balancing
6개월
실질
##Pers
inSet
##ulations
처리하기
Queue에
Multiplatform
Statements
900
FLD
시사
약정
outer
puts
LISTENER
examine
WO
종업
캐쉬
##의료
##node
##3C
##Init
일부를
##산출물
철저한
대기업
유동
헬스
확립
webapp
##Obj
##KR
seem
Interfaces
associate
스케줄러
satisfy
##Offset
MEDIA
요청하는
quotation
SIG
##ZX
금융권
POL
외화
칼럼
##견본
추출하여
보존기간
Repeat
두고
##고지
##수는
적용한
bring
trademarks
것에
##pd
##GS
prom
##LTYPE
222
Which
라인업무
##STATUS
Has
142
거래의
G4C
tail
셋팅
하단
##ills
MQCFIN
Daemon
Welcome
##IFT
##wxr
##Exp
##Module
HY
##ytes
failures
Cannot
오늘
있습
Severe
한도견본
다르
정확히
##chen
##플라
Separ
##기관은
수준을
비교하여
##Handle
##Method
EO
MAIL
간편
전표
##ourcing
기반을
자세히
MONITOR
WARNING
reconnect
UUID
deferred
테이블에서
CERT
가속
재구성
##KMC
모드로
##시키기
alternate
symbols
LIKE
ELEMENT
##Ag
설명합니다
프로젝트에서
LAB
지향
직관
구현하여야
##LOAD
extent
CV
##Media
##향상
DB보안
개발서버
설정표
연결할
popular
understanding
LIBR
PRM
sound
전통
##ightly
##rapper
Percent
요건에
SHARE
##like
durable
011
##센터의
Bug
임대
reuse
Includ
##상황실
지능형도시
bt
escape
높음
사용시
MQQ
IBM의
materialized
ROLLBACK
ko
squ
##공학
##atio
##PEG
fixes
##위원
anonymous
##usion
tested
의견을
통과
제공함으로써
제품군
계획수립
scheduled
분포
##Application
##FE
201006
실행합니다
Asynchronous
최상위
IB
mind
비인가
Inventory
지원서비스
결과값을
ITSO
reboot
SPE
다루
##소개
기능입니다
int32
DEV
SRC
정립
Viewing
국산
네이
##B2
##스팅
##받는
처리부서
##illa
internet
##Delegate
dot
tuning
억원
##동의
APPC
submitted
##ropy
et
pad
##rip
staff
##CharSet
incremental
hw
Exper
recording
Quest
qualification
ECM
Distiller
LLMC
Capture
Aug
얼마
요인
##재정
##소재
SPACE
사실을
NA
math
##리기
##개인
Administrative
developing
소요되는
사유가
Cognos
양도
##고속
ING
unavailable
programm
retrieves
MQIACF
침해사고
CUSTOMER
미입력
일어나
판교
##위해
##건을
방지하기
##Search
skip
형사사법
CMD
Pop
##PRISE
InfoSphere
바인
EXPS
MUST
매월
받는다
inno
visibility
용이성
##Local
##patch
##omic
##하였으나
A1
##NR
165
방식에
EXP
converts
Passport
맞춰
줍니다
##uro
##작용
##매뉴얼
Think
호출할
matched
##란드
##rec
deleting
Adapter가
##담당자가
나타나는
synchronized
Multiplatforms
DDL
Equ
창업
##배상
##ursors
Sys
남아
##den
##부품
##건강
##umul
업무흐름
##ACS
Compat
smart
##vantages
evaluation
belongs
완벽한
UEM
##uation
##보유
##jection
revision
##flows
하므로
##수증
##만이
DB암호화
도출된
##관이
##설턴트
##olio
intern
Token
minim
Net8
REFRESH
##방화벽
##ITE
인터페이스가
Research
MDPS6
Persistent
플러그인
VSE
재생
진료
##DBA
companies
연결되어
downloaded
조립기
occurrence
이라는
훼손
##IANCE
152
PLAN
##경영혁신팀
##보존
##시간을
CONNAME
##orizontal
##Button
##하겠
##ober
agreement
확인해야
체계적으로
deletes
benefits
지불
##라면
corrupt
Auth
fn
해시
메시지에
상태에
ESM
##CSP
cards
THREAD
Blue
R1
가변
장애에
breakpoint
##going
Side
법원
비표준
##gw
##개시
전달한다
##return
수사
##호기
임의로
가공비
자사
지나
##itivity
수신측
##UTION
relational
산출물을
EE
TTA
캠페인
224
Life
##WAS
운영서버
수행에
##upported
158
CRAB
covers
distinct
Der
setmq
Child
등록하고
LOC
소스를
조건으로
R2
pix
##UPT
##ye
themselves
##ILITY
버튼으로
ADO
brack
DDoS
사용해
monitored
doubt
동적으로
##erber
##level
##agram
getMessage
##ilters
명확한
contribut
modification
BmsLnk
##EEE
Variant
##pad
##izable
remember
PASSWORD
##예정일
생기
Forward
##DEPT
##porate
##ensions
RCVR
repeat
HBA
설치가
ADS
MSCS
Possible
REMOTE
##dt
##GN
Compar
##Stack
corresponds
재구축
학생
##이자
##듭니다
##iling
파악하고
CONTENT
처리에
수행해야
corner
consult
키보드
##마크
변경하여
tpmC
behalf
전사적
TRIG
SCSI
intercept
KDE
연령
##일수
##INIT
DEC
표시할
애플리케이션에
MANAGEMENT
여성
##없는
jpg
객관
##기타
파악할
엘리먼트
##1팀
exclude
DECODE
표시하는
##ray
##처분
##ERVER
10일
Enabler
이상인
##이언스
Reader
일치하는
rob
넣어
##009
구성이
ISS
사유로
##동산
stage
사용하도록
Amer
##eness
정보로
##uge
attempted
Financial
Definitions
레코드를
University
concaten
Declaration
이며
##gu
ended
arrays
sing
##inder
accepts
automation
goms
rank
다르게
Accessing
분리하여
December
eth
앞서
적은
툴을
##대학
POC
CAPRI
mqsichang
EST
IH
##검진
##저축
idle
CLOSE
nature
##시나리오
검증한다
접속할
PostScript
Range
gather
##운데
intellig
MQCFST
Scheduler
소수
##WL
##def
##감독
해당되는
workshop
시행규칙
법무부
nl
v2
##angle
##이지만
세미
##망을
##rt
정의하여
completing
capable
자격증
##FLAG
iv
##정리
MQCH
신용정보
calculate
choosing
XATMI
이터
##예방
##하에
##ising
Selecting
5000
Family
selects
Shipping
integrate
invoking
distance
종업원
ICA
전문인력
docs
전반에
##컴퓨팅
##erberos
##코어
##참조
업무수행
specifications
CONVER
letters
msi
##ohn
KH
##011
시스템구축
flexibility
CK
Vu
초당
##GROUP
deprecated
##apid
##등록대장
SHOW
highly
SNS
sam
밖에
한편
##상환
clock
추가한다
ROOT
퇴직연금
##로직
association
부서의
##VALID
##잔액
159
recognized
VLAN
모습
서비스명
Existing
동작을
확인할것
stopping
제1항에
carri
Num
실증
##라이드
업무기능
##ICY
기관에서
threaded
recommends
Illustr
bulk
소프트
아시아
평가결과
하나에
TEL
Communications
IEEE
Just
coded
파일과
floppy
POWER
하려면
##장이
표준용어
담당자의
CHLTYPE
HTML5
NORM
pub
동양
##oor
##imation
##서버를
수주
안되는
텔레
##Cnt
조회를
설명은
016
##서비스의
주식회사
EXPRESSION
ax
다이
##Cd
EXT
choices
Ess
OTH
mint
DB로
장비를
일련의
##OURC
Workshop
명령행
##eploy
STL
아님
하단에
##호에
CONN
채널의
트랜잭션의
RPG
lifecycle
compressed
개수를
이나
치료
##quency
통합검색
암호를
Determine
타입을
360
migrating
##UserId
SWHOME
크기가
##만족
SOC
아키텍처를
APPLIANCE
##하시면
노트북
False
##해지
##anumeric
사용하며
DBT
specifically
기관명
SYNC
incidents
안정성을
eXt
VuGen
창구
##YTE
##됨에
구성에
soon
로그아웃
15년
Deploying
BAS
에이
##경쟁
##민국
##arb
DEL
인계인수
Organization
LIBRARY
이들
존재할
SAMPLE
##umulative
##수납
161
제3자에게
부하를
Mediation
conjunction
반면
타입의
libcurl
Draft
troubleshooting
리눅
않게
Controll
##업무의
Pract
시나리오를
만들고
coding
dossier
비슷
화물
##Dest
##inc
24시간
Why
Credit
border
##ETABLES
##OSP
전략을
655
##tx
##ICAL
updating
충분히
후보
어플리케이션을
존재한다
Views
instrument
subdirectory
Dashlet
FX
떨어
##65
##px
##강화
##exec
관련자료
##CSI
종류의
근로복지공단
KM
Sap
##SOR
##rem
운영하는
copying
Polling
U2C
같음
Include
resides
제공자
등록하여
감사원
traditional
U2C4E
Flex
lo
국무
외교부
타이
white
154
EXPSOURC
EXPSOURCETABLES
##JS
##업체는
Gig
Normal
sOrd
##가스
발생함
compet
Tue
유스
데이터로
##환경을
notifications
administer
누구
클립
##Case
##페이
##취급
##atives
제공된
버전으로
OpenVMS
Offset
Persistence
Plugin
패스워드를
높아
Specific
##하였고
제3자
RUNNING
FLOW
piece
##son
##정보는
영역으로
Remarks
Confirm
Allows
##조의2
MN
##일반
대한민국
설치하여
##DB1P
00C
170
News
CURL
dedicated
공문
##하십
하나은행
##작업을
이해관계
CONNECTOR
Grant
204
storing
MAPPINGMODE
상수
스펙
##nov
##률이
14년
검토하여
pointers
##표준화
TRANSFER
이진
##체를
Selected
PROGR
##program
모코코
##Seq
solid
convenient
정량
기능별
품질을
행정기관
WSRR
##아이디
소득
파생
##법령
선택정보
수정이
distribute
##업체의
separately
예상되는
##BACKUP
5G
Op
개편
장애를
##파일에
describing
결정한다
로드맵
revoke
optimization
##Column
방범
##상부
##POINT
기술은
추진계획
ATM
Signature
UDDI
노후
없고
##Row
##015
다음에
Descriptions
물리적인
PKCS
##eline
변경한다
interMedia
apartment
02경영혁신팀
이력관리
불가능한
1명
Fre
도모
edu
여권번호
##ToEmpty
##Delete
국외
작용
운영지원
##Proxy
영상을
Arguments
Samba
유비쿼터스도시
T250
MQRO
unn
요청자료
discusses
무료
그렇지
점수
challeng
등록을
ITS
MSSQL
vehicle
차이가
유닛플로우
Meaning
구름많음
미사용
##OG
##att
degree
increased
RTI
Like
세분
AGD
MIG
공고
연금
운송
##gress
Comments
적용이
subs
##efined
맞추어
SOFTWARE
QS
연습
툴바
##si
시스템관리
##LEX
요청자
주요기능
클라이언트가
separator
eXtreme
##68
##비를
##명령
##되게
##HH
입력하면
MQSI
위험도
deadlock
dashlet
때마다
일체의
좋은
MQJMS
203
##플로
시스템간의
Additionally
##Proc
matter
BWM
Head
SUN
##실히
정보관리
확인서
predict
접근이
Attach
형식의
Utilities
4096
##entdd
Inquire
처리하고
Stud
RESET
리눅스
HI
가운데
##에스
##lleg
##분율
개발한
ide
##Default
nat
라운드
자는
##Mgr
권한관리
MEMO
편리한
##프레임워크
##인다
##obj
값의
상승
##전달
SOL
Remember
형식을
정합성을
##Works
##퍼런스
Cisco
GD
Prevention
activation
##문의
##agraph
처리시
##센터에서
관계없이
assignment
alphabet
Manufacturer
taking
것임
##가액
grouping
copyright
더블클릭
3rd
디스플레이
실명
charset
Adapter는
세션을
gif
변형
##창조
이상이
외부기관
ii
##물에
1998
dropped
유스케이스
CASS
md
##엔드
attack
155
decrypt
argv
##UNC
이하의
인스턴스를
자치단체
dp
제로
##Max
##stances
Proprietary
수행하며
SW사업
기업은
지속적
Privile
##너리
157
customization
office
Controls
Invoke
가치를
demonstrates
ML
Sem
Spe
부모
양자
Envelope
##Thread
discarded
vertical
LF
갖고
갖춘
양호
처리하여
Interaction
솔루션으로
것이며
Choreographer
대로
육성
기관에
macros
alphanumeric
GA
뒤로
MQW
요구할
##OSE
formula
DHCP
##에관한법률
로부터
컨설턴트
기술과
##되었으며
##조제1항
A2
BDS
css
만일
##Change
bootstrap
Professional
ND
adm
사용자와
Unis
ADV
kept
affects
balance
Balancing
ahead
이로
##비밀
training
##aph
평가를
MD5
##lexus
추돌사고
산재
타기관
##장의
##apters
단위의
도움이
Debug
Coded
OID
eight
수배
##란을
viewing
Feed
농업
적용하는
저장합니다
Dictionary
연계모듈
##byte
##하려고
EAM
그것
TIMESTAMP
Navigator
half
URLs
받아서
취득한
vtadmin
모의
##UV
##bes
##장은
기술자
실행하면
routed
연관된
Axis
fc
mixed
변경하는
grouped
영상정보
txn
공시
만듭니다
##전에
##크기
SHARED
오픈소스
Within
Standards
Light
##이란
##Ptr
##건에
10개
은행연합회
##apsed
##어난
##iders
개발하여
350
기한
배부
##전용
한국생산
분야에서
정기적으로
##사거리방향
Establ
Need
않으므로
##DEV
SERV
되는지
##Model
Dupl
코드여부
응용시스템
##페이지의
##itute
wolfSSL
six
따르면
전역
구축하고
사람이
MQXR
Oriented
cf
브랜드
##등에
##파크
stmt
보안목표
modem
효율화
conditional
보여주는
과학기술
feedback
Series
충돌
펀드
##내에서
generating
manages
##NOME
SEQU
Unisys
Clean
Knowledge
bi
##조립
분석단계
응답이
대응방안
##cpy
filesystems
조금
##공수
##연락
전체를
연동하여
tpreturn
effectively
올바른
S1
뒤에
핸드
##사자
##파악
##reet
업무관리시스템
Deleting
Alt
채널통합
자신이
gt
laun
##종별
##DY
##erg
##otals
networking
PurePaths
EAR
Hour
WM
사용중
##ICES
reader
streams
304
HS
등록번호
대내외
1의
aff
##러닝
USAGE
SEL
위험을
##항목을
Such
People
VE
ng
별송
##logic
DLP
Filters
M2
모집
##산로
##리테일
입력하는
country
Filtering
미등록
##값으로
Orchestr
적용됩니다
수정한다
rolled
omit
##인지를
##UCH
조회한
anywhere
tabs
DISP
IIOP
문자열을
##대기함
##llegal
som
원주
##원을
##우기
RECOVER
Enables
특정한
##clusion
minute
계약상대자는
##템플릿관리
##ury
Reset
##106
##Execut
offline
visit
complexity
완전히
DAE
paste
논의
엔트로
오후
있거나
##기금
전송이
전달하는
hierarchies
Complex
arbitrary
suffix
정제
##우편
HELP
IPv4
##화재
##직자
파일전송
분석하고
overl
dependency
viol
##Select
웨어하우스
CipherSpec
Similarly
LM
Material
oct
##하신
##비게
##YANG
reach
업무용
공유를
propagated
purchase
Wi
fri
가지는
compilation
만기
문서유통
수정한
동의를
관점의
Route
구별
RESP
accesses
##ucer
##영업팀
##현실화
CPS
fall
비공개
암복
##대가
##QU
##lling
197
##사업을
JOIN
509
KOR
인건비
##횟수
inactive
##ogene
디렉토리를
Prepare
전략적
Drive
그러므로
cpu
건에
##acall
보호를
사물인터넷
kitchen
5분
Cell
V2
여행
외교통
##bre
Contract
클라이언트에서
IFM
##Resource
단가현실화
##brk
엔트로피
cm
esc
사라
##Descri
##ese
처리한
initiated
##Install
##WR
##역량
개발자는
##osh
0001
위치한
prints
Identify
Hi
미팅
소송
일단
출동
##시의
##FG
사업계획
scre
Modules
보여줍니다
Encrypt
MDB
WAN
pid
합리
##ki
##hp
연계가
presence
##ancy
permanent
누설
책갈
##지수
##nc
##요인
시스템명
##Conn
NonXA
TG
bed
금품
##MR
##UMENT
##ithread
##ONS
Extract
단계의
조달청
##Beans
##ozilla
##컨소시엄
PROTO
MQCD
Workload
분리발주
OVER
##013
##aker
Computing
그룹별
putting
##신청서
books
credit
opportun
않아도
1인
wor
##Body
overwrit
결번
##출금
이름의
##cont
reload
Party
NPIS
LLMR
mix
선물
위에서
준공
##관리위원회
공유할
CHL
CHANGE
activated
##년월일
처리된
Compos
overwrite
파악하여
보내는
손해배상
경기도
IAAM
김동
순으로
팔레
폐지
##지연
##양식
변경요청
자동이체
용량을
IBM은
설정하면
현재는
GRANT
유일한
NAMYANG
circumstances
책갈피
제12
##동작
##밀한
연계는
INC
요청전문
신속히
건수를
compliance
ACTIVE
##네트워크
3000
블로그
에디
합병
##시각
##63
poly
MQFMT
쉽고
175
modeling
아니한
234
목표를
##IZATION
##방식을
GS리테일
asked
ui
법규
##스로
subclass
제품은
채널이
ever
백서
실행시
표시된다
##개발팀
이동합니다
initially
##Driver
수행되는
transmitted
상세검색
검색을
외부에서
체크리스트
STORAGE
BIG
DF
가족
제동
##AE
##QUE
수신처
거래에
기간별
클래스의
commons
REPLY
##Schema
##oph
MQCNO
Modifying
Dual
##니까
##KNO
##01N
업무가
테이블명
전체적인
변환하여
tpget
Scal
ONLY
##ossary
##조달
alive
acts
생산부서
Wholesaler
문자를
공간을
정부통합지식
Pointer
체납
##ulf
운영방안
img
black
담당자와
explanation
prevents
vSphere
기금
송부
##NER
##안함
개인의
0으로
DSC
HL
ZIP
city
cron
153
통계를
AnyLink
대량의
##eer
##차원
##영향
##amed
10G
저장을
상황에서
실패한
대비하여
denot
exceeds
바에
##ashed
unused
리스트에서
필요하다고
##ka
##ws
139
조직을
monitors
possibly
FP
T2
충전
##성적
theory
##ista
##ndi
##Only
이루어지
Experience
2개의
hyper
##삼거리
outcome
포함됩니다
활용하는
내부의
descriptors
##HTML
ser
talk
반영한
바이너리
internally
ICAO
Mandatory
용도로
##Man
##haps
clos
업무와
149
##CPU
##COL
184
Merge
fragment
##SVC
로그관리
개선방안
##프로파일
saf
##zis
##IND
성능에
177
##CIM
CCSP
solve
propagation
XMITQ
Cast
RBA
##부가
##화하고
##문서를
살펴보
TL
##2P
##vo
interested
나타낸다
af
ty
##AF
##근거
ENC
behind
INTERVAL
aug
##408
내부에서
##지침서
출입통제
JNI
##ogeneous
FACT
우회
intermediate
가져올
##TRAN
##OSPHERE
her
납입
부동산
##hone
##젝션
##농협
162
1차로
정의합니다
STO
단계에
분류체계
##aws
##dev
PDS
Delegate
요청한다
기관코드
ANAL
Debian
마법사
##플라이언스
2주
rang
오래
##이미
##weight
##화로
2차로
PROCED
제10
##순서
EAI시스템
containers
INFOSPHERE
정확성
Domains
manipulate
Our
bill
##패턴
##절감
##inger
지정하고
2048
TRADE
시사점
보류
##UPS
##직업
발생합니다
DataDirect
생성을
Set한다
Disable
이유로
유가증권
요망
##VID
##베드
restored
TABLESPACE
searches
##69
##버스
사용여부
edition
##분석을
인프라를
##ailer
decisions
##Reply
interpreted
##erequisite
Rate
watch
##iency
Ann
clustered
결재자
중계서버
VT
결론
##roken
Guid
2022
finish
제11
##WD
##지방
##소득
notation
INQ
##SEAI
UTIL
Compatibility
특화
화살
##SDS
isolation
international
추가적으로
정당한
##수록
##B1
IND
이상으로
##자료의
외부에
##NSION
트랜잭션이
0x0
queued
##절차를
combine
consistency
팝업창이
개월
막고
변화를
pref
relating
registers
20031201102
eg
마일
##값은
##het
##mdd
moves
##sembler
Amount
mqe
ordering
redund
##Engine
effects
TT
웹방화벽
##can
운영의
documented
TIMEOUT
DLQ
Sheet
YEAR
##리즈
arc
영향평가
##목록을
Discovery
WBE
Cy
Demand
최저
explained
상대적으로
benefit
##Template
##Lay
##aight
##aft
##장에서
##artner
Environments
EXE
Fundament
fed
##Read
##으로의
사용중인
정보공개
programmatic
##PLC
##loaded
CSQX
행위를
상관없이
Green
GNOME
보낼
스팸
여유
전세계
##부에
Exam
들어가
소요예산
불가피
Requirement
##Office
inherited
넘겨
##RET
##OND
선택항목입니다
locator
버전이
2006년
끝나
##fort
##KS
##rome
minimal
없으므로
##아야
##동향
실행그룹
14층
거래가
mea
구매자
Continue
Answer
Synchron
pip
##uary
##forward
관리함
##ERV
복구를
가져온다
앞에
##Rule
##limited
##category
##kens
기관과제
IFRS
분야에
서울특별
서울시민
서면으로
interactions
ELSE
enclosed
serve
정적
##ocations
sorted
되었습니다
frames
우수한
ESXi
PUBLIC
강화를
##Tree
##WE
getString
uncom
ending
TSAM
##방식으로
소속기관
altered
regarding
##수단
introduction
표시한다
DIRECT
Fragment
마운트
이란
주어야
지하
##CN
업무에서
Agentless
increases
labels
##수로
commercial
생성시
##기준에
crash
air
na
들면
10분
OSS
송신측
UNKNO
ENABLED
partitioning
SALE
CURSOR
취약성
주제영역
flexible
Air
##별도
##부여
##anium
chmod
Profiles
TPM
변환을
##MTYPE
uppercase
고가용성
##enda
수행하여야
라우터
##조제2
June
SCSQ
hit
##공제
버튼입니다
30분
INSTANCE
411
JPEG
Plexus
sd
세종
창에
##ashes
spool
acqu
modifications
PROPERTIES
RFH2
iOS
zeta
##LATE
##Rep
소프트웨어사업
green
컬럼에
##유형별
09년
unsuccess
alerts
인텔리
나오는
청소
##With
inetd
Ren
명의
관리서버
제공하지
삭제를
공공기관의
상호작용
사유를
Coordin
elds
cleanup
서울시민카드
ilink
nt
##mask
##옵션
##ibilities
loginVO
낙찰
비전자
접촉
업무시작
실행을
Table에
Prepared
예정임
포트를
리소스를
Temp
Minimum
MQQueueManager
세미나
pt
모음
BmsConstants
대중
##Batch
##사진
##메이션
##명은
##avor
접근제어
이동통신
의미합니다
플로우를
김현수
바란
배상
##vm
관리하여
##LOCAL
Critical
MG
대분류
질문
##Acc
##Target
Server의
동일함
원인을
Snapshot
UNKNOWN
rend
##항공
443
lowest
##Parser
artifacts
##있음
##물질
처리함
##CHL
Subversion
속성이
##페이지를
규정을
coupling
RELATION
suggest
관리되는
Sept
견적제출
수요예측
improved
때문이다
##atever
높이
문을
오전
환급
##개정
##법원
##aming
MQMessage
도입을
819
UND
가리
##atures
##open
disposition
183
Listen
범위는
흐름을
Restri
AMI
hom
유니
##Sync
ann
hosted
221
indicator
대역폭
mnt
루틴
수의
일을
##mn
##QName
##들로
analyt
AP1
표준헤더
##ampling
목적지
길이를
나타나면
신원조회
website
붙여넣
최소한의
CAR
Fault
War
##uild
intr
208
1521
임시저장
##Identifier
Hierarchy
SEQUENCE
롤백
슬라이드
우클릭
##umb
##ansion
요청시
backend
컬럼을
replacement
months
Stopping
NORMAL
Loop
VQ
점점
##실패
##ifiers
tpalloc
Developers
서울특별시
301
away
##부를
##피탈
retrieval
restriction
legacy
PROCEDURE
쉬운
채번
##치지
installs
진행한다
##117
accomp
편의성을
REFER
licensed
Euro
기아
요금
##fox
계약이행
자료에
ARRAY
diagn
endpoints
authenticated
유해
제품이
문제점을
conversation
실시하는
INITIAL
Extensions
LIMIT
비디오
##Bl
##imately
DB에서
##시설물
적절히
##단위로
Freeform
rmm
스트림
##geb
##교환
##ORI
설정해야
##UPTABLE
BZ
전까지
##Vantage
##Grid
unix
대행기관
ACCEPT
FCP
하단의
##시스템이
구현할
##bytes
##ucation
January
##결제원
NVL
FOUND
Pub
페이
##Iterator
##약품
##ulner
연계기관
225
모듈이
CSQJ
이외에
커널
##하던
##Free
stab
Data를
generator
BYTE
적극적인
Den
SDR
Tx
Vector
위함
##주민
분석이
인력의
대해서만
IOException
Nodes
닫기
병원
원사업자
##통지
##받을
compound
점검항목
Screen
SEQNO
Supply
통합관제센터
##istorical
mus
독자
##YP
Bucket
국가를
리스트에
Packet
organized
ONLINE
ARM
혼합
정의함
209
JMSException
graphics
overrides
2021년
소계
전문에
외부망
explain
교통정보
listening
##LOTID
190
영역별
안정적으로
Multicast
CFS
##YC
enforce
scans
목적을
##Logger
부적절
##ses
##지구
확인해
##LEVEL
##TEST
someone
일정에
QMNAME
certified
EDT
소유자
내보내기
LOOKUPTABLE
C1
할수
PC의
##Sta
identifying
syncpoint
##LOT명
Secondary
OI
PFM
xr
바뀌
스페이스
##count
구성합니다
neither
modi
15일
Sending
디버깅
외교통상부
이지
플래그
ine
limitations
Without
##ruption
라이브러리를
BPC
반응
서약
승인자
##odesk
애플리케이션이
verbose
상암산로
##LINK
Choosing
302
BK
원고
##ez
이상을
검색어
검토를
Customers
##taining
당사자로
로직을
##출시
##닉스
동일합니다
augment
산림
쇼핑
##acl
Algorith
171
flush
RC2
OWN
yym
제일
##보관
##rehen
##pts
Third
단위시험
consolid
##itrix
명명규칙
자가시험
Undo
hwp
Wide
fine
응급
##중훈
##pa
지원이
설치하는
검색결과
minor
시장을
Compile
WINNT
divided
바란다
Sout
cient
여전
##cr
##ISt
##Cons
minOccurs
##중앙회
cumulative
제13
천원
##traction
보안기능
모코엠시스는
facilit
legal
essential
2D
DG
John
##유무
##달러
expert
helpful
중앙집중
responsibility
interpret
편성
theor
##iser
운영하고
manufact
목록의
Cookie
GUID
선별
캡쳐
목적에
TBL
AVAILABLE
종이
##WEB
##회선
##사전
##계층
##어댑터
##배정
reside
생성된다
##0201
표준화를
##형태로
Eas
##화가
Itanium
namelist
expired
calendar
Position
Sur
Vista
cust
dif
초래
##Location
##메세지
##ony
##ager
##imedia
기술에
가능하고
포함되지
연결하는
truncated
Fill
tutorial
yield
해상
##Crypt
##usable
newer
182
185
전산실
coordinate
##공정코드
원가관리
implicitly
Fetch
Rename
cable
##Api
##대체
CDATA
##검사기
Python
Zero
관할
동부
##과는
##안에
##현금
사용가능
EAI02
항목별
tpacall
##isioning
carry
##원인
directive
reliability
액세스할
시뮬레이터
131125
합산
##bd
테스트케이스
appendix
174
##PC보안
factors
제2조
협업을
1997
amt
암호화를
의도하지
공수
병합
##rans
필요하며
preference
Levels
STANDARD
POLICY
YTN
gcc
hide
##시는
##ha
##있습니다
##값에
##ERY
Alph
244
함수의
명령어로
financial
evaluate
pse
isEnd
정보자산
Prevent
##기업의
##이력관리
쿼리를
joins
Virtualization
제1항의
3가지
opp
확충
##됨을
chk
parenthes
DSP
Hit
Roo
디자
##SDR
##창구
기술로
convers
PM7
부하분산
tuxT
Crypt
FG
mp
##Rem
##부팅
통합PC보안
연계방안
여부에
ADAPTER
simultaneously
310
토지
##변수를
205
230
비용이
2중
Jeus
유입
##Tag
##력이
##128
cells
Supplied
##Edit
##부하
iso
##ebook
Price
확장성을
##보증금
applying
등장
##예금
##ude
전산장비
populated
알고리즘을
생태계
강남
다를
##bing
##변동
##탐색
##astic
reliable
Correlation
LGE
방향으로
##nowled
스테
철도
##eon
관리방안
APT
INVALID
REAL
entropy
164
mqrc
명령으로
어댑터의
비용은
floating
##Plus
parsed
guarantee
1시간
saving
플롯
##0003
166
readable
속성은
Activation
강의
##통해
EXCL
4100
PAGE
gn
전년
후행
##산물
소프트웨어산업
참여하는
guest
##보다는
AE
ai
단점
##대행
##재난
IFR
##IFI
Super
가진다
exceeded
TRIGGER
isEndSeparator
Citrix
dom
gure
유실
##량의
##oe
incons
##0106
아니한다
##ighb
자체적으로
LT
WR
##드로
##more
포함할
quote
agd
Transactional
diagnostics
구간별
CAO
CONFIGUR
dv
비기능
선임
제14
대응을
##GRP
datagram
객체에
unsuccessful
hello
sig
##제외
##관점
##apes
recently
validator
uniquely
Restore
개인정보보호법
kinds
soapenv
종업원수
NR
관세
##기재
관리는
업무는
ACCOUNT
기재변경
latency
131128
sequences
##클라우드
face
벤처
이르는
##2000
##플러스
obt
introduces
CAM
Social
menus
안함
정밀
##iances
##cape
##부로
owns
긴급출동
Community
browsers
IAM
##률을
Inherit
closing
관리와
로그파일
코드가
##ishing
##고유
##broker
usual
Trad
Units
tablespaces
지식관리
예상결과
DU
법정
풍부
fo3
진행할
##ssl
우편번호
##사무소
Japanese
099
PAY
받았
하이브
##구청
##ascript
업무팀
straight
181
Art
Generator
미래창조
freed
마지막으로
PROPERTY
##사이클
LET
##iest
Server를
기반한
방식이
Incident
dimensional
적립
##차관리팀
##oment
경우의
EAI는
##index
설명서
163
msgflow
combinations
Problems
Random
정중훈
##시킵니다
strength
수신하여
167
권한에
BPR
matrix
##Directory
pwd
##수요
##Socket
Exercises
EXIST
속성에
early
건강검진
##과학기술
하이퍼
Cr
Ra
##ius
##1234
compact
Permission
Symmet
PRIV
3일
DUAL
있으
##BL
##mits
사업과
##해야함
TOUCH
단순한
2EA
RULE
유형은
repair
242
ownership
Wed
##Wind
expen
trading
dbs
188
384
B2Bi
TDR
tro
하다
##UME
사용하려면
envelope
shadow
subtype
StringUtils
Always
공동이용
captured
GMB
Kerberos
반도체
위젯
선택하십시오
193
현황분석
코드는
Learning
slightly
의무를
4대보험
feel
QTY
lp
로우
##FR
186
식별자
IMPORT
조회가
backward
FORMTYPE
219
광교
정체
##error
기술등급
Resolution
연결하여
##LOW
GSUV
dimensions
서브시스템
타당성
Fundamentals
unchanged
Autodesk
Left
initiate
어디서
시큐어
programmers
Mozilla
구역
##Mapping
##LEAN
입력을
231
증가에
instruct
패밀
##기구
##zip
테스트는
발생된
reduces
##umeration
CHARACT
LSM
VIT
시스
콤보
##노동
##hemat
deactiv
독립적인
declarations
배점
습득
열고
폐쇄
##젠테이션
179
Overrid
##MCATEGORY
컴퓨터에
substitution
suspended
열어
OracleTimeStamp
기술능력
blue
FORMCATEGORY
Detection
2005년
extracted
부적합
M드라이브
PIN
MQSUB
아니오
DISC
##ANDLE
Beginning
MULTI
##플로이
Cycle
##결산
spent
IDoc
환경으로
STORE
warnings
Glossary
Drawing
국립
백엔드
이라고
##오피스
##든지
Prerequisites
최종견적
검사를
CTRL
Topics
NH농협
plugins
PROGRAM
인텔리전
Eai
##신탁
outSet
테이블이
##파일로
viewed
주기적인
Symmetrix
SOCK
##PSS
csv
rejected
mor
극복
받기
프록
##enn
216
##ommod
신용평가
##조치를
##활동을
배분
##대를
##타워
표준에
edge
integral
Invest
optimize
2일
더불
약자
관리합니다
시작하는
Loading
유효한
insight
##Binding
Samples
예금
substring
##ITLE
Correl
CSQ4
OBJ
제약사항
##Dt
##증가
경우도
##문서의
clustering
SUBSTR
immediate
Dashboards
##자동화
Analyze
핸드폰
IZ
Vt
cxx
hh
녹색
않거나
후에도
##언어
##찾기
##결과서
countries
입찰에
Mapper
Initialization
Throws
mqsicreate
##brevi
EBC
HIS
PQ
mt
국고
MQAI
Traffic
STD
expiration
187
인터넷뱅킹
##담당관
NETWORK
References
데이타베이스
미래창조과학
외산
인구
##free
portable
Derived
김현수BACKUP
404
마다
육안
##인데
##요약
Manager를
시작할
Submit
CATAL
##BIOS
4NB
cookie
daily
광범위
단지
확약
##시면
##uer
TRPTYPE
반영한다
35UP
생년월일
외장
##해양
##omorph
##AP1
relay
indexed
옵션이
##Regist
Namespace
보건복지
Cover
##econ
##istical
invocations
signals
##358
Initi
되므로
명사
한하여
##박스를
whatever
사용자들이
저장하여
이용자의
리포트에서
ARS
probability
awk
RHEL
MATCHED
QMQM
하루
해주
후에는
##방침
unlock
고객을
##123
시간과
Soap
기록물을
necessarily
INTEGR
October
6개
NF
점을
##1과
##이슈
android
운영할
자료가
##전문가
reduced
경제적
deny
switches
F1
##r1
##기회
##Files
Interval
AP2
##Configuration
SMF
컬러
##MARY
##런싱
##ullet
서비스별
IDX
Descriptor
점검결과
paragraph
원격지
Columns
2003120110
WOORI
더불어
##L1
MQOD
##ETCH
NAMES
Throughput
4000
5일
루트
주지
##zz
##ithmet
실시한다
Repres
sso
범용
불러
인재
##Decimal
##gt
##hand
##aste
LOT
폴더로
215
필수정보
물리적으로
사업자등록번호
##ybrid
webservice
검진
당행
원문
Inspection
seed
대상에
1311
ITM
실시하고
Filesystem
방문하여
##ometry
탐색기에서
편리하게
##Unit
Composite
견적제출본
2nd
BA
JCA
docker
내가
도전
##Broker
##amer
Department
colon
##DED
규칙에
Again
출입국
odbc
rpc
수식
유발
입주
##Reader
##또는
##ASON
추진전략
214
주기적
해외영업팀
1로
안티
포틀
##COPE
계정의
##fficiency
Blank
기술지원팀
TXN
일관된
advice
하이브리드
강소
약속
재개발
재시도
SQLSTATE
제품으로
presents
노드에
발견된
##Attach
Tablespace
abnormally
##CharSetId
1분
검찰
##TM
##계열
##재해
closes
파일서버
Exposed
설정된다
hang
nh
forth
사용자로
처리시간
correl
요구사항이
바로가기
보이지
촬영
processors
198
계획에
Plot
제한을
되었다
Country
Machines
##arbage
broken
테스트가
##030
가상에서
금융결제원
entirely
##Quote
AJ
재료
##로스
intend
Workspace
##테이블에
스케줄링
디자이너
W500
수평
chunk
remot
##분류체계
Navigate
VRAID
v1
##Tx
Advisor
URL을
Scene
GLOB
WID
W3C
소분류
아닙
즐겨
##해서는
##Label
Comb
수정된
##RIPT
1606
호출을
클라우드컴퓨팅
Specified
컴포넌트의
##발생시
텍스트를
##기본법
적극적으로
W50097
7일
dates
순서를
##창이
235
201407
deletion
potentially
Facility
Car
##요금
##소화
OSI
Administrators
##환경에서
제시한
보호하기
##phone
공정검사
EXECUTE
C6
cv
gain
nice
##가상
##aved
MSET
260
참고하여
slave
마이데이터
##Image
##adding
aud
##dp
##부는
shape
조직관리
접속이
accommod
##090
ep
spl
통행
##512
##일자를
신용건
예상됨
주민등록
변화관리
기본값은
BmsOrgUtil
DAS
김경
능력을
따르
##AINT
JavaBeans
준수하여
##rontab
Qualitivity
Conditions
상이한
Europe
yymmdd
tax
wtf
일원
##cf
##vas
##icity
getName
주요분야
페이지가
대하여는
공급업체
POSIX
structured
느린
보이는
##린다
1401
Named
Firefox
2식
hint
당기
디플로이
##option
##전기
환경과
##omez
신속하고
OPER
AAA
자유롭게
바람직
HG
got
ment
rfc
동법
무단
바코드
방카
판정
피보험
##Block
##mes
##융합
##ott
##Space
DEAD
##기간을
부여된
지침을
selections
만들어진
radio
개발사명
2회
Cos
SUS
sid
tt
장에서는
파일럿
logo
변경사항
Heap
접목
폴란드
모듈은
POD
삼성SDS
##Integer
AF
진다
##편집
##YNC
기록관리시스템
REGION
이유는
consumers
암복호화
510
CAST
상반기
##RG
chapters
Dead
LOOP
공동활용
lowercase
Fi
##WAY
Enabled
178
replaces
중앙행정
MDPS4
제안사가
##BN
##Pos
##어음
requiring
보안사고
206
제출한
제목을
##commun
264
금일
배제
##IAS
##한다는
##정보보호
문제에
##093
대응할
Good
Dataset
summarizes
##rehensive
커서
##남양
##onnect
analyst
clauses
##ONSE
변경한
##기술의
##IGH
방송통신
Duration
연평균
##해주는
##Java
문서처리
단계별로
PC에서
이행을
##상황을
Convert
선박
##1a
##이었
##CHILD
Adapter의
64비트
300GB
근로자
drilling
BIZPL
MCO
fundament
간략
매칭
##와는
##레이스
##위를
테스트베드
SQL문
##050
해결을
##Entry
바인딩
##질의
clone
resume
지원되는
변경시
##ISION
Analyst
169
단계로
##chemas
FORCE
##단계별
Accounting
RECEIVE
electronic
공장
##수금
##Meta
##PAR
##소싱
##iform
##unct
생성하기
상세히
진행상태
importing
확보하고
세부사업
지식을
ENTERPRISE
MERGE
Split
bold
##집행
assert
전달된
Displaying
Priority
Small
Different
##지가
##빌딩
Sources
등기
##화학
장애복구
254
agree
##기준을
EBCDIC
9005
water
선불
속도를
##교차로
##퍼티
제공됩니다
출력하는
카드사
산출물의
공공부문
08년
initiation
연속성
cycles
##Person
Fort
캐싱
포스
##ruct
##atus
개발과
UBBC
1주
fer
커버
##총액
MQConstants
dispatcher
computing
graphic
Swing
않아야
##books
tu
미비
본다
보안컨설팅
##ID를
maintains
##선거관리위원회
cleared
SIGN
거주
대여
되돌
생체
##icles
##rete
개발하고
STK
Records
fraction
상자에서
들여오는
Vi
근본
##Kit
##uble
처리량
가능하여야
평가한다
frequency
##persistent
said
##Customer
A4
Ack
임금
##Pane
##터를
정책이
giving
해결하기
일괄전송
measurements
Measures
보안목표명세서
Gets
collaboration
horizontal
김영
일상
##용접
tokens
##htable
SEG
dbms
일반현황
아키텍트
회사명
콘텐츠를
현대카드
아닙니다
Dump
PUR
##SD
상세보기
calculations
telemetry
trailing
Illustrator
UBBCONFIG
OAuth
jndi
시킨다
저축
##예약
구성으로
적용합니다
CSQC
sorting
somew
Icon
MV
QR
가질
##반출
##och
추가를
화면은
문서로
Respon
로그에
접수번호
모드에서
##DOWS
##ithmetic
보강
구조의
나타났
옵션으로
선정된
미래에
ur
IDM
Institute
tempor
##urist
##비게이션
March
파워
##igate
추가하는
ADM
AMQ8
암호모듈의
WINDOWS
활성화를
drwxr
fm
임베
정보공유
##derr
replicated
270
##arehous
OLTP
구비
표제
##천만원
Analyt
FILES
##SO001
incomplete
##습니까
수급사업자는
Dimension
포틀릿
Band
민자
정하여
희망
##lqual
Manip
한국고용
##Track
본인확인
사후관리
interesting
Translation
BUFFER
303
CMQ
Gre
본격
##EF
Force
USN
##요청자료
형태를
HPUX
COMMON
고유한
Docker
joh
##태료
처리계
##illy
연계정보
280
refres
##STRUCT
occurrences
Lin
Sch
진화
##DD
##xml
adj
Logs
신규로
213
CTS
수요자
errno
thlqual
변경하고
##REAM
OpenSSL
재무회계
respective
Lifecycle
라이프사이클
rb
t1
강구
전공
주주
##인에게
##신규
leak
0xFF
CLUSSDR
PoC
##01NARD
OZ
원복
##로지
개발방법론
추가한
##Conf
구현된
##999
산업의
stdio
ksh
고령
능동
연기
##고자
##가동
##eless
관리기능
환경이
비밀키
Models
이력사항
성과를
friend
팔레트
나중에
상에
##bc
##거시
##득이
inqu
##etype
삭제하는
부분의
Quarter
POOL
edited
CodedCharSetId
ij
강원
방지를
##고시
##변화
stable
recurs
printers
InputRoot
translated
Following
TrueCrypt
ANALY
GLOBAL
W의
재현
##Is
##dr
##재분류
##asc
지방세
EMS
운전
permit
Instances
Visibility
일자별
annotation
900544
lt
임원
치수
##land
##만건
##마을
등록이
##계획수립
담당자를
graphs
##계약을
subsequently
VITRIA
NN
wbi
상단에
stamp
변수에
과정명
twice
MTS
경영진
keeps
screens
##folio
##보건
##등이
##채무
한다는
유지보수를
에러메시지
범위에
크기는
scheduling
upgraded
META
과태료
스캐
##ned
통합시험
176
Modified
EXTER
오픈API
적합성
Gomez
##합성
##토어
##icip
retain
보고자
개선사항
32bit
##irty
Typical
CHARACTER
ARE
sourcing
적용하고
Permissions
##gnore
triggering
스케쥴링
Considerations
앞으로
##BT
##이음
##하자
##INVAL
필요하지
##PED
AS400
##지원센터
편집할
pools
hierarchical
부적절한
OUI
##확장
##오염
##022
##기관코드
Strategy
테이블은
Customize
Operational
EOF
여전히
Cart
Pi
VF
pen
##이후
##esource
ISMS
준수하여야
길이가
geo
못할
##Last
##RAN
##식품
##gres
1st
Ve
부팅
의결
전면
##cedural
##107
##계획에
CONF
어댑터가
보장하기
신뢰할
branches
##ulfill
Fax
ther
INI
입력해야
작업자
장비에
어댑터는
제2항
대비한
Signal
BSD
dashboards
YM
tions
관찰
두번째
##Ver
##디드
시험을
##etscape
grad
미리보기
메서드
지구
##omb
Depth
dbenv
배치작업
##Profile
MDPS5
simplify
PRODUCT
프록시
SMB
ring
스스로
신시스템
##Head
##icing
저장된다
indirect
194
##OrderId
salary
무중단
뷰어
수직
##ga
requesting
##사업장
솔루션에
corporate
Recover
##arking
Validate
순서대로
Cou
Dere
cursors
hp
tty
##Book
##부채
##국의
메뉴가
228
##보험료
Performing
Issues
Improve
누른다
Hibernate
장착
환불
##Way
##History
##법을
##andem
수정하여
BmsException
애플리케이션에서
정부의
##138
편의점
##HTTP
iPhone
1개의
Synchronous
mv
일체
##QUEUE
관련문서
SHIP
##BOX
##aha
용인
##KT
##0100
내용으로
##UBUN
파라메
busy
침입차단
July
Structured
PROTOCOL
EF
Mc
##DAT
##block
STAR
assets
하는지
227
converting
##로그인
DISABLED
achieved
연도별
METHO
Pat
Xm
거리
이고
##Next
##기사
##감지
##격한
대상의
191
207
성능과
Week
intervals
##Loader
Recommend
MAR
깊이
많아
제24
Proc
EAI서버
libst
fewer
accurate
##수입
프로퍼티
파일시스템
전송되는
오류코드
나타남
Instruction
BANK
에스
주무
##SET
##look
##uff
##jax
##것으로
article
recognize
bath
lob
데드
##run
##금리
##ids
선택하는
1415
오류로
버튼이
MOVE
REQUIRE
사고처리
scalability
Determines
DCE
GL
UOW
la
ratio
##ILL
##코리아
Unknown
USA
##installation
precedence
Feder
HANA
RESPONSE
Somet
WRK
것도
##시킴
##Min
##주로
shm
UTC
##협의회
클립보드
Duplicate
rapid
walk
독일
##Writ
##Function
##ples
프로세
업무영역
EXPORT
BmsSta
당사자
expressed
arrive
있습니까
Feedback
Div
NAC
공직자
누출
속도가
자를
##전력
##팀장
stderr
##osure
SSD
개인정보가
통신서버
메모리에
publishing
##ithreaded
SPSS
김성
열립니다
##witch
분석할
생성됩니다
anyone
표현식
EMPLOY
세금계산서
bandwidth
September
libstdc
CJ
Empty
QoS
않다
야간
##manager
##도서관
##탐지
##알고리즘
toler
Webs
함수로
가능한지
Industry
조정할
confirmation
뷰를
##물품
##anch
isol
async
로그는
참고자료
ManifestVersion
StrucId
bs
보는
정식
정한다
##에러
##차장
##안을
##애플리케이션
##ana
EAI의
보안이
단순히
##Transfer
Rad
도서
##num
##Xml
실행하기
상세내역
quies
표시되지
CSR
동일하다
persist
수준으로
가져와
##940
SFTP
nes
이종
체감
##청약
정보자원
Sep
Unlike
BmsW
overridden
건의
경비
현재까지
기업은행
##43C
snapshots
PWD
Timer
ROWID
범례
좌표
사용되지
noted
REASON
173
Compare
유연하게
멀티미디어
신보험시스템
tc
##할인
##ACC
자동화된
Wireless
alignment
CIM
출하
##ONT
그룹화
출력된다
플랫폼의
산출물에
Initialize
못하고
인자
##tab
learning
설치한
환경파일
wsadmin
RELATIONSH
풍부한
임베디드
6차
국회
##배경
##주체의
##작동
##란에
##관리번호
foot
neighb
장애로
Apps
최초출시
optimized
CWE
surround
밖의
스템
식품
##istribution
제시된
SupportP
CWY
##메모리
RX
TIB
x64
sta
정보유출
strateg
개인화
정보화사업
대해서도
causing
대구은행
XMLNSC
Comparison
Telnet
새롭게
하십시오
##산지
##abit
시스템코드
기능점수
시간은
goals
대책을
TUXDIR
Verifying
ACTIV
debugger
##공동이용
Government
최초출시시기
1부
Sql
tit
교차
조항
##2E
##러링
거래내역
packaged
함수가
slot
이해를
encounter
##marily
정부통합전산센터
GO
MACH
레이블
문구
부채
선호
##Topic
##정보조회
Introd
IP를
모델에
replies
인터넷을
상용화
GRP
negot
A0
Mart
중장기
##Mon
관리하여야
filled
Caching
jb
##sf
##도의
##브라우저
##alic
사업자가
Compl
##방법을
assigns
Controlling
##40843C
W5009740843C
1공장
고품질
부당
##EI
##았다
IPTV
필드가
행정정보시스템
27001
heav
Basics
2010년도
TRIM
V8
te
바닥
##Gu
##시간이
유형이
시작하기
##485
현상이
Items
국정원
gen
리뷰
법제도
속하는
여기에
advantages
발생하고
작성을
자동적으로
보호프로파일
CMDS
pptx
심각한
##직업훈련
레거시
실용
##에따
##전표
고객명
##strategy
폴더가
Returned
SAVE
picture
Roles
pw
##Ctx
##framework
rely
##ooth
Guests
모델명
MQCLOSE
동작하는
Will
hub
도중
어음
재배치
질병
##An
##MIT
##주관
Prefix
##IFY
만족하는
Brand
1GB
Gartner
SDO
sOrderId
트렌
##cm
##르기
hosting
Disconnect
##AGES
##FileName
inheritance
Aggregation
ICS
IOP
관세청
부득이
스냅
##pool
##랑스
advert
getC
권한은
signatures
discovery
중앙회
공개키
RTSP
involve
CONVERT
GT
TITLE
lg
차후
회복
##SVR
##변조
##담보
##uts
conse
사용자정의
195
검토내용
223
시장이
terminals
메일로
CORE
##경찰청
brackets
특화된
하반기
##고도
##fd
##품목
##abytes
적용될
ITC
expiry
에러를
지침서
controlling
CEI
299
GMS
Tandem
덮어
##모닝
사용되고
저장한
제품과
backing
websphere
MSA
##UNG
OWNER
TAG
TIP
공람
수렴
이론
##추출
ste
atmi
##번호가
orderid
요소에
meaningful
DOCUMENT
CentOS
Original
CACHE
Xeon
dial
재원
차례
##Services
##gi
암호문
확장을
지역의
qualifications
##InputStream
Infra
BAPI
PE
도서관
레퍼런스
프로세스로
표시하고
기준이
참고한다
Abstract
PRIOR
XY
것인가
##성은
##ilename
통합DB
기술력
구현하는
계정이
자원에
maintaining
현대모비스
##신용정보
HANDLE
WDB
있던
하되
FileName
테이블로
##COMM
##PLY
##OLI
##RCVR
retrieving
slide
이루어지는
Templates
REPOS
숙지
교육과정
Attempt
업체의
8GB
Vantage
적어
##취약점
##토큰
##rout
개발의
AP서버
설치하고
방법과
DEAL
모델은
241
체크박스
ROLE
finds
pressing
implies
임계값
Fore
나는
실태
##Lob
##AResource
014
BmsLoginVO
실시하여
템플릿을
##Shift
ABAP
Shortcut
##Account
temporarily
2GB
dn
통상
##Crypto
##BR
##많은
적용된다
요소기술
SAML
애트리뷰트를
사례를
pieces
intelligence
굿모닝
노인
##Dec
##원칙
##bp
##800
사업에서
삭제된
inserts
도입되는
Detect
업데이트를
국토교통부
fiss
##율이
12개월
##value
relate
ordered
자원관리
CSQ1
국민건강
broadcast
SERVICES
DFD
GMI
도난
비씨
수리
이송
프러
##쓰기
##anger
분석에
Uses
Startup
ROI
authorities
허용된
중소기업직업훈련
acknowledge
중소기업직업훈련컨소시엄
Audio
사정
##NUM
##oting
trade
Exact
getConnection
plane
패키지를
정도의
warrant
점차
##heast
Procedures
Threshold
선택을
##pename
메시지로
방안이
MQCACF
knows
제4조
guidance
Germ
QLOCAL
미세
영어
##암호
##ulator
요청된
operand
기록된
선정하여
재난정보
INVENT
306
들을
재작성
##관광
결과물
제시해야
제어를
designated
해결할
offered
satisfied
EXTENSION
BAR
Bound
oup
머리
Adjust
처리는
perf
전송한
기간이
configures
PARAME
Iterator
PAS
##문고
log4j
brand
##관계를
DWF
장소에
Factor
GPS
Round
TIV
fair
mid
pure
것처럼
높이고
헬프
##수산
##업자
개발하는
처리되는
프로세스와
자료실
mqsist
Technologies
Parent
유용한
않기
##ufficient
##차순
Connectors
13년
backout
내부시스템
SYTEAI
flat
Logger
장치를
##Color
순차적으로
transparent
Nt
시켜
터치
##지토리
유지하고
1995
성능관리
whereas
##업무에
simulation
체계적
용이한
Allowed
transformations
AH
M3
##현상
기록을
일부에
ICAP
MRTD
administered
ABS
ell
뉴스
대민
##Part
##igible
해결방안
originally
Ro
TIG
줄일
##hav
##section
getLoginVO
Chrome
##116
기록한다
출력할
amz
Devices
EVNT
Salesforce
미처리
##이벤트
##플랜
##enames
##mental
shift
프로그램으로
primarily
integers
소프트웨어는
보호법
STATS
모드를
Registration
ONLSEAI
건축물
enhanced
JA
격리
##Err
##온라인
inher
정보분석
16GB
출력을
모듈에
ONET
트래픽을
unnecess
423
Benef
C2
Know
han
와의
##Bus
##lined
##oit
##9i
##주문
구축하는
실행된다
SELL
문제는
226
##Click
eai1
Phone
브라우저에서
스케쥴러
JTA
글자
마스타
BPO
heartbeat
Uninstalling
##이미지
da
dem
나와
드론
##BD
##어링
기관이
dbp
relatively
메뉴얼
Grouping
Members
##이력을
Supplier
HAC
Old
RI
값과
환수
##율은
파일들을
leaves
unlimited
14일
항목으로
appended
점검을
##ynthet
##author
TIVOLI
귀속
비대
소멸
##1조
##EAD
업무규칙
프로젝트관리
218
ACCT
Postcard
Subscriptions
이주영
Mis
배출
##Bag
##량이
##sr
##GJ
##송수신
적용하기
수정을
민원처리
실적을
acknowled
도면층
arrives
비롯한
감사원요청자료
XSQL
가스
누리
##액을
##oat
##받기
##콘솔
MQDL
##char
outstanding
요청사항
##코드가
점검사항
##Reason
##관리시스템의
레벨의
Peak
Banking
MIS
NDS
##사에
##보전
prox
extern
exposed
트랜잭션에
결정하는
serialized
BIS
CCI
EUC
V1
입회
잔여
점유
##Dyn
##로운
##우선
EAI로
발생하였습니다
attention
상세내용
233
builds
제2장
##OMANY
##QMGR
consumption
역량을
manipulation
대화상자
움직
원산지
##도에
##건이
##XS
##inition
제공으로
subquery
statistic
Assembly
##요청서
카드론
정보보호관리체계
Graphics
자동화기기
개인정보보호법률
Redo
mog
##세부
##려는
scmp
##ught
메뉴에
클래스는
초과하는
현금서비스
에이젼
탈퇴
##비즈
로그가
계약이
##데이터의
고려해야
클라이언트는
20140106
Operators
Flat
워크플로우
collections
Scripts
취약점을
profit
study
소모품
RELATIONSHI
DRI
Miss
##현장
TRUNC
decode
시장에서
##금액을
Prototype
POSITION
##계약서
determining
acceptable
자산관리
msiexec
AU
Sockets
national
배당
순환
##원은
##일로
##져서
##블로그
##entry
관리단체
Conference
개발도구
strlen
scr
전체에
writer
제15
크로스
##스케
##자본
구축할
기술인력
단위기능
##전문을
##DIF
Calling
Decimal
SMALL
expanded
Concurrent
CGI
multipart
얼마나
House
PVU
cari
##첨부
##unately
문서에서
015
##RED
189
수집하여
patches
YOKE
OTHER
강소남양
TW
c1
대법원
양성
얻은
폰트
##field
##cest
##특성
##iguous
사용하게
지원하여야
보안서
조직별
네트워크에
SPI
quantity
##Delivery
##Consumer
FETCH
pin
상실
##Sample
##BLOCK
##하더라도
##enant
defect
절차는
금융거래
##works
대표적인
##status
TOUCH기타
OCSP
누릅니다
인텀
카운
##using
WebT
사업단
수신한다
전자적
솔루션과
도입하여
SPX
Several
센터컷
##prises
명확하게
Successful
엔드포인트
##Layout
EXTERNAL
GH
HSM
설계를
지정하지
##struct
acceler
위험이
TRANSM
FM
H72
시에도
##시청
##Bridge
##역할
##위탁
입력이
담당한다
UNION
##COD
##mqi
사람의
IGK
설문조사
Bash
Tw
다소
스택
##키는
변경합니다
##fte
idx
저장됩니다
BmsS
비밀유지
##기반시설
peak
참석자
청소년
RELATIONSHIPTYPE
DIV
glob
무역
##쪽에
##erting
개발지원
추가하고
결과의
finally
ATTRIBUTECHILD
##Permission
tenant
A3
Korn
dm
v6
납기
출고
##스캔
##바랍니다
probe
##요청을
존재함
실시하여야
저장소에
도메인명
MEMORY
의사결정을
independently
Navigation
theorem
Bill
상당한
세그
이수
##HA
##도는
##취합
enfor
운영이
##서버와
##파일명
검색하여
##inese
Desk
##연구개발
appearance
XSD
하였다
의거하여
browsing
표제부
ONETOMANY
UMS
vulner
상자를
좋습니다
서버보안
Forecast
상세설계
consume
직접적인
증가하고
##ancer
restarts
Capacity
corrupted
4GB
SDL
차원의
##DB2
##처리가
통계정보
Simpl
소요시간
collector
인덱스를
coordinator
##CONFIG
November
프러시저
애플리
특권
##신한
##국가
파일공유
##ourne
변경후
scanner
문제해결
248
downloads
CWConnector
DUR
ict
tibero
주시
##WSE
##개설
##텐트
있는지를
선택하거나
인증심사
전체내용
##EDI
가상영역
persists
##PAH
fundamental
mag
pp
손익
응대
##Su
##분할
##맨드
##oul
Injection
구성됩니다
고객관리
##센터에
scripting
가상계좌
Networks
들어오
매핑을
Verification
포맷을
Suppose
집합을
Enhance
SUSP
401
Fib
Raw
render
공조
##고딕
##inity
spreads
수행조직
Username
검색된
Background
BmsCom
LOGIN
480
정기적인
워크벤
precise
AASPAH
versus
Cursor
수상
##Oper
##운전
구축으로
발생했습니다
대상은
요구를
지정하면
Sharing
##ought
##QueueManager
Speed
L1
Q1
##sem
alt
logon
응답속도
함수명
발주자
significantly
incorrectly
2중관리
SORT
애플
워터
유즈
재설정
중분류
짧은
##인은
##Buf
##에너지
##Mbps
##텔레
INCL
소스에
Reduce
여권과
Editing
과업수행
##Receiver
EMPLOYEE
Days
수석
재발
##RA
##marks
##YK
사업으로
표준프레임워크
요구됨
Works
239
##eterogeneous
Aggregate
MDS
Mechan
가까
금리
전혀
히스토리
##212
##일괄
##큐에
##맥스
SQL을
##erty
Prin
236
##ILING
sysdate
##위원회의
AMQ7
Purch
원사업자는
오는
##드립니다
##전파
##들도
##imo
제출된
분산파일
##Valid
ReplyTo
##Security
Hashtable
IL
North
고위험
귀하
재직
##관의
##총리
보안교육
생성이
상태의
252
최종적으로
가용성을
##aphore
332
타행
프로젝트가
0200
대외MCI
nonpersistent
counts
체크한다
메모리를
가져오는
정보통신서비스
CLUSRCVR
HISTORY
378
영수증
##Appl
##DISP
##단어
업무관리
구성되며
구축이
##USB
Recipe
searching
SEGMENT
Upon
efficiency
firm
j2
rare
##AO
thin
화면이다
상태임
보여주고
EDM
아이디어
measured
용역사업
20031201100
제5조
Datas
EPMS
INFORMATION
원주용접
feder
johan
Sometimes
750
RTT
하더라도
##사실
##하실
##물류
strict
기술료
##파일이
오류에
checkbox
Locator
Keys
오브젝트를
##auth
damaged
mogaha
도표
테마
##콘텐츠
##ERIES
##시스템구축
##antic
변경으로
##기관과
buy
CLWL
하여금
회의관리
utilization
MODULE
과제카드수정
컴파일러
##Subscri
pixels
CAL
MID
TMP
ft
living
##Cred
##Bound
##취득
##root
Three
사용자ID
CHG
도움을
프롬프트를
params
illustrate
tune
PERSIST
##ynthetic
싶은
리포트는
Scroll
목표치
함께메모
450
translate
alpha
iPad
BD
ILE
Same
날로부터
동반
재설계
재설치
##린이
Delet
operates
TOOL
confidential
bitmap
designer
SFG
holding
손해를
##Library
무관
절에서는
##대표
##쉬운
##util
설명한
삭제가
addressed
indexing
07년
Migrate
소유권
geometry
springframework
가중치
곤란
탭의
해설
##yte
##PMS
##OPT
##등학교
##allery
업무상
##ORG
운영과
abbrevi
##계획의
경로가
SFP
단순화
축적된
hyp
무인
스파크
자사의
테두
##gression
기능성
결과로
PDA
입찰공고
재난안전
원사업자가
정보기술아키텍처
민감한
Ezis
검정
##제재
##II
##DU
SEARCH
compute
성과관리
한번에
자리수
##Writer
3회
LR
cubes
신상
##손해
##atial
Server에
전체의
기업용
OpenShift
회원가입
BIP8
saves
기회를
1위
V9
sy
빈번
셀을
##학습
##유저
Prop
subnet
variation
참여인력
##로서의
CRT
##Receive
통장
##select
관리하며
확인란을
서버명
통합에
##023
표시됨
##ABL
replacing
archiving
mqsire
teams
단위과제카드
즉각적인
RR
##Dialog
##여야
##arc
공유함
Checks
보호대책
BROWSE
인가된
한국고용정보원
Focus
Iron
YMD
worth
갖는다
이노
일이
커스
##제거
##AMS
##Term
##Vari
##Write
##중심
##권자
##ETIME
고객사의
largest
JEONS
pooling
ORGAN
UNIQUE
JEONSONG
Ev
HIGH
KSC
PCT
jre
그린
부대
학력
##itude
통합연계
실행하고
Alloc
expansion
apple
243
이동할
이후의
Reading
KOREA
유즈케이스
314
ro
quit
##LLER
대화형
Privacy
demonstrate
concurrently
growth
대가산정
CPSE
LB
Policies
Saf
fire
과목
##Vo
##Bas
##WARD
##검출
##밸리
보안에
Tru
MQSO
의미를
131206
##Expression
Rob
dh
선형
##만의
comprehensive
viewport
ESA
PLS
생산현황
영향이
SPO
아웃소싱
난수발생
accommodate
TTL
csh
gured
##iled
getS
Chinese
보고한
existence
##단계에서
##One
대내MCI
cart
그러한
부도
졸업
##일부터
##F2
연계된
013
ObjectName
##환경의
guaranteed
Updating
Governance
Bourne
Hconn
malloc
she
시킬
아닐
##Menu
##확대
사업이
변경되는
가능성을
031
SANTA
MQMDE
singleton
다이얼
에이젼트
808
Nested
병목
아니다
오토
이용한다
compr
솔루션이
부서장
참고하십시오
공동으로
##산업의
constructed
국제표준
##OWER
##ippet
consuming
mkdir
ranges
NL
미칠
엽니다
##hz
##패치
##roperties
##aints
프로젝트는
로그인을
238
##화면을
designing
모코엠시스의
우리나라
ETRI
##ophist
Bo
Mi
Netscape
SIP
VG
일어
##domain
##열람
##센서
##rier
##ubun
사업개요
transitions
##ESC
전송하고
preview
Uns
020
접속한
##결과에
이동하여
##loading
##Project
경쟁력을
제안서의
recommendations
이익을
robust
전찬
중대한
##했으며
##종의
modern
이름에
구조는
##Travel
Subscriber
engines
parentheses
SDP
난이
이니
##는지를
proprietary
사용하거나
setopt
travel
shipped
종료한다
##Recv
errhp
OCR
Bi
mc
완화
##AQ
##성공
adopt
진행중인
검증대상
Copying
multipl
리스트가
Importing
remotely
KNO
ipt
nod
나이스
##적재
##압입
기능들을
interoperability
프로그램과
00D
destruct
수익증권
아이콘이
DBJR
Dir
징계
##0032
spin
보안장비
저장장치
Connected
##OSS
##Callback
stylesheet
sndbuf
X11
주력
처리건수
Chain
##코드는
018
제안의
목록조회
외부의
복사본
Links
incompat
데스크톱
Question
Algorithm
MQDLH
공단의
때에
##DOW
##atable
##search
unre
##REL
Locate
활동에
sequential
South
전찬희
백분율
##할당
##임금
advis
업무서비스
확인하십시오
QM3
Quant
Compression
marker
periodically
사무소
입찰참가자격
국무총리
##ergy
0을
대칭
성실히
수질
제18
주세요
큐에서
##SR
##매입
##usual
##ATING
ISIR
topmenu
지급한다
NPA
##차로에
##시켜야
Optimization
기상청
convenience
미래에셋
헬프데스크
paging
농림
chip
Styles
연계방식
##ributes
##TEXT
Guest
영역은
한국인터넷
확보하기
제20
NetBIOS
471
취약한
DBJR358
CIA
EH
LNK
RB
직원의
##Publ
meets
시작한다
237
개별적으로
Bag
NICE
hpp
##BASE
##로나
##ball
##oming
informational
perhaps
prerequisites
approved
결정할
메일을
SAF
RETRY
차별화된
##Destination
##gebra
Hive
판별
합성
활발
##Bar
##사와
##패스
EAIBK
한다면
1200
fielded
거래는
Describes
ADK
구조에
Append
분리된
supplies
accomplish
1을
Broad
sr
고침
대우
##holder
##leashed
지원함
적용방안
문서등록대장
##pensation
일정계획
SSLC
SCEN
sqlj
digest
diagrams
Jav
매수
전문변환
1605
효과적
snmp
없다고
보내기
Debugging
서블릿
##년간
##기호
MQException
해당분야
클라이언트를
Protect
SHAFT
##종료일
완전한
BASE64
올바르게
##authorized
XID
ti
훈시
##제시
##oa
##Fail
##크레임
##XY
##UTIL
단위사업
217
컬럼의
지시번호
princi
Deliver
treat
##Return
Moving
typename
##각형
##JO
##캐피탈
ID가
지원에
진행합니다
CDs
251
검토하고
요소의
resolves
primitives
OMG
##compiler
Cle
Lead
s1
곳에
성별
예탁
##ards
##achi
사업내용
##RIM
내부에
differential
버전관리
Apr
요소가
SNAP
사이트에
behavi
엑셀로
REGIST
##Prefix
Launchpad
RDB
보이
적응
적으로
제16
통테
##도서
##ARC
##match
제안업체
cations
제17
##군청
사업자의
Intercept
Unleashed
##sgroup
offic
Generation
##AMPLE
제외하고는
친환경
ISC
승인계
코드의
폐기물
fontconfig
uninstallation
IDENTITY
AJAX
##ze
##ogram
처리로
네트워
이벤트가
cdrom
기기의
행정정보공유
휴대용
SGA
wmqfte
subdirectories
QUERY
square
i3
드립니다
안된다
울산
##ran
##irth
확인함
실행한
단계는
InstallShield
eai01
populate
boundaries
부가가치
##UDIT
032
덤프
비지
신분
##LINE
##object
##ENAME
거래처
Opening
이해하고
헤더를
경험과
rebuild
bund
luc
과도
##제표
##편의
##엔지니어
##rocess
inquire
datafile
설정하기
요구사항의
종료된
목적은
JEUSMain
사이트를
압축을
##Rcv
##Copy
##재생
reaches
정보주체의
##ANC
12년
설치되는
subpart
유지할
1996
Unless
연구원
SYS1
그러면
비슷한
##고유번호
312
Cir
WTA
데모
막대
##NM
##같은
Oracle9i
filenames
조건이
이슈사항
slice
본인은
Currently
coordinated
파라메터
2가지
모비스
없었
##2D
##P1
적용되지
다음으로
aren
승인된
Incor
기간에
formed
국가정보
인력투입
preserve
보여주
규모의
serves
##QMgrName
##novation
crontab
관인
방재
세로
##Tool
##aros
##oder
##ifold
요청함
017
검색엔진
svr
worksheet
circle
ol
높이기
보이고
회사는
##여신
##시스템과의
삭제하고
##DataSource
Education
mailbox
식별하고
baseline
날짜를
##amera
LTD
불출
청탁
##A1
##PGM
개발할
기술적인
SVI
종합적으로
##slt
##DAO
attachment
Hypervisor
Err
JR
읽어서
종종
##SION
##이하
##GP
dispatch
프로젝트팀
265
발주기관의
PKD
사업수행계획서
PARM
mococo
ArrayList
##lectronics
mqsichangep
Privileges
IQ
iost
mand
##C6
##vice
##FLOW
##with
##Yn
개발자의
처리해야
STDL
방식과
##기간이
세부적인
식별된
materials
offering
datatypes
Examine
SOCKET
##havior
Daily
면제
토픽
##SL
##pw
stay
##idence
지원하여
사업화
ESC
former
##트리아
분산된
경험이
##programs
끌어
사설
약어
##판단
##듯이
##START
종료일
공통모듈
부서명
obvious
31일
유무선
scheduler
3년간
natural
CES
Road
WL
WE
##실시간
##수도
##copy
##Null
##마당
server1
장애대응
인증키
TPC
객체가
일괄등록
HM성능
mqsichangeproperties
4G
EOS
빠르고
의심
인간
##점으로
##감리
##GING
##LEASE
requester
연계한
##serting
##MES
진행하고
응답코드
전환을
##ISTICS
제한된
상품을
construction
optimal
직원이
membership
여기서는
saas
contrast
414
FT
cst
법제
출발
##xt
##관리공단
수행이
##serve
##TEMP
상품처리
워크로드
CFSTRUCT
OBOI
상담원
Mgmt
Rank
##했는지
##TZ
##fh
##Use
##ubscri
##한다면
업무프로세스
EAI에서는
계정에
전달할
Black
주관부서
