[PAD]
[UNK]
[CLS]
[SEP]
[MASK]
"
'
0
1
2
3
4
5
6
7
8
9
A
B
C
D
E
F
G
H
I
J
K
L
M
N
O
P
Q
R
S
T
U
V
W
X
Y
Z
a
b
c
d
e
f
g
h
i
j
k
l
m
n
o
p
q
r
s
t
u
v
w
x
y
z
가
각
간
갈
감
갑
값
갔
강
갖
같
개
객
갤
갱
거
건
걸
검
겁
것
게
겐
겔
겠
겨
격
겪
견
결
겸
겹
겼
경
계
고
곡
곤
곧
골
곰
곱
곳
공
과
곽
관
괄
광
괴
교
구
국
군
굳
굴
궁
권
궐
궤
귀
규
균
그
극
근
글
금
급
긍
기
긴
길
김
깃
깊
까
깔
깝
깥
깨
꺼
꺾
껍
께
꼬
꼭
꼴
꼽
꽃
꾸
꾼
꿈
뀌
끄
끈
끊
끌
끔
끝
끼
낌
나
낙
난
날
남
납
났
낭
낮
낳
내
낸
낼
냈
냉
냐
냥
너
넌
널
넓
넘
넣
네
넥
넨
넬
넷
녀
녁
년
념
녔
녕
노
녹
논
놀
농
높
놓
뇌
누
눈
눌
뉘
뉴
늄
느
늑
는
늘
능
늦
늬
니
닉
닌
닐
님
닛
닝
다
닥
단
닫
달
담
답
닷
당
대
댄
더
덕
던
덜
덤
덧
덩
덮
데
덴
델
도
독
돈
돌
돔
돕
동
돼
됐
되
된
될
됨
두
둑
둔
둘
둥
뒤
뒷
듀
드
득
든
듣
들
듬
듭
듯
등
디
딕
딘
딜
딩
따
딱
딸
땅
때
떠
떤
떨
떻
또
똑
뚜
뛰
뜨
뜻
띄
띠
라
락
란
랄
람
랍
랐
랑
래
랙
랜
램
랩
랫
랭
랴
략
량
러
럭
런
럴
럼
럽
렀
렇
레
렉
렌
렐
렘
렛
려
력
련
렬
렴
렵
렸
령
례
로
록
론
롤
롬
롭
롯
롱
뢰
료
룡
루
룩
룬
룰
룸
룹
뤄
뤼
류
륙
륜
률
륨
륭
르
른
를
름
릉
리
릭
린
릴
림
립
릿
링
마
막
만
많
말
맛
망
맞
맡
매
맥
맨
맹
맺
머
먹
먼
멀
멈
멍
메
멕
멘
멜
멤
며
면
멸
명
몇
모
목
몬
몰
몸
못
몽
묘
무
묵
묶
문
묻
물
뮌
뮤
므
미
믹
민
믿
밀
밍
및
밑
바
박
밖
반
받
발
밝
밤
밥
방
밭
배
백
밴
뱀
뱅
버
번
벌
범
법
벗
베
벡
벤
벨
벼
벽
변
별
병
보
복
본
볼
봄
봇
봉
부
북
분
불
붉
붕
붙
뷔
뷰
브
븐
블
비
빅
빈
빌
빗
빙
빚
빛
빠
빨
빵
빼
뻗
뼈
뽑
뿌
뿐
뿔
사
삭
산
살
삶
삼
삽
상
새
색
샌
샘
생
샤
서
석
섞
선
설
섬
섭
섯
섰
성
세
섹
센
셀
셈
셉
셋
셔
션
셜
셰
소
속
손
솔
송
쇄
쇠
쇼
수
숙
순
술
숨
숫
숭
숲
쉬
쉽
슈
슐
스
슨
슬
슴
습
슷
승
시
식
신
실
심
십
싱
싶
싸
싼
쌀
쌍
쌓
써
썼
쓰
쓴
쓸
씨
씩
씬
아
악
안
앉
않
알
암
압
앗
았
앙
앞
애
액
앤
앨
앵
야
약
얀
양
어
억
언
얻
얼
엄
업
없
엇
었
엉
에
엑
엔
엘
엠
여
역
연
열
염
엽
였
영
옆
예
옌
옛
오
옥
온
올
옮
옷
옹
와
완
왔
왕
왜
외
왼
요
욕
용
우
욱
운
울
움
웃
웅
워
원
월
웠
웨
웰
웹
위
윈
윌
윗
윙
유
육
윤
율
융
으
은
을
음
읍
응
의
이
익
인
일
읽
잃
임
입
잇
있
잉
잎
자
작
잔
잘
잠
잡
장
재
잭
쟁
저
적
전
절
젊
점
접
정
제
젝
젠
젤
져
졌
조
족
존
졸
좀
좁
종
좋
좌
죄
주
죽
준
줄
중
쥐
즈
즉
즌
즐
즘
증
지
직
진
질
짐
집
짓
징
짜
짝
짧
째
쪽
쫓
찌
찍
차
착
찬
찰
참
창
찾
채
책
챔
처
척
천
철
첨
첩
첫
청
체
첸
첼
쳐
쳤
초
촉
촌
총
촬
최
추
축
춘
출
춤
충
춰
취
츠
측
층
치
칙
친
칠
침
칭
카
칸
칼
캄
캐
캔
캘
캠
커
컨
컬
컴
컵
컷
케
켄
켈
켓
켜
켰
코
콘
콜
콤
콩
쾌
쿄
쿠
쿨
쿼
퀘
퀴
퀸
큐
크
큰
클
큼
키
킨
킬
킴
킹
타
탁
탄
탈
탐
탑
탕
태
택
탠
탱
터
턱
턴
털
테
텍
텐
텔
템
토
톡
톤
톨
톰
톱
통
퇴
투
툰
툴
튀
튜
트
특
튼
틀
틈
티
틱
틴
틸
팀
팅
파
판
팔
팝
패
팩
팬
팽
퍼
펀
펄
펑
페
펙
펜
펠
펴
편
펼
평
폐
포
폭
폰
폴
폼
표
푸
풀
품
풍
퓨
프
픈
플
피
픽
핀
필
핑
하
학
한
할
함
합
항
해
핵
핸
햄
했
행
향
허
헌
험
헝
헤
헨
헬
혀
혁
현
혈
혐
협
혔
형
혜
호
혹
혼
홀
홈
홋
홍
화
확
환
활
황
회
획
횡
효
후
훈
훌
훗
훨
훼
휘
휴
흉
흐
흑
흔
흘
흙
흡
흥
희
흰
히
힌
힐
힘
힙
##e
##w
##i
##s
##v
##r
##b
##o
##t
##p
##문
##E
##C
##A
##끼
##울
##고
##c
##m
##d
##a
##황
##제
##l
##로
##빌
##슨
##흑
##동
##보
##애
##h
##일
##상
##타
##인
##리
##엠
##오
##원
##야
##미
##탑
##벼
##드
##O
##k
##n
##g
##이
##루
##장
##섰
##으
##며
##x
##u
##수
##기
##서
##트
##베
##르
##크
##호
##에
##론
##대
##만
##j
##옥
##바
##우
##스
##R
##S
##측
##체
##의
##2
##5
##3
##사
##W
##P
##험
##금
##깔
##거
##y
##광
##츠
##포
##티
##즘
##을
##니
##치
##박
##물
##관
##라
##파
##해
##산
##식
##판
##소
##역
##빠
##졌
##함
##러
##내
##렸
##z
##첩
##도
##아
##팔
##찌
##비
##결
##1
##8
##차
##설
##날
##한
##시
##개
##화
##를
##다
##작
##법
##탱
##I
##N
##덕
##임
##납
##6
##B
##q
##형
##선
##남
##탐
##영
##희
##밍
##프
##명
##암
##부
##세
##회
##지
##신
##성
##터
##무
##L
##Y
##G
##페
##클
##레
##색
##강
##청
##당
##료
##키
##감
##구
##메
##폴
##테
##카
##왕
##백
##밀
##7
##V
##했
##후
##f
##벨
##자
##정
##섹
##T
##락
##면
##숙
##전
##방
##준
##9
##M
##홍
##안
##삼
##중
##승
##0
##4
##U
##D
##퍼
##닉
##노
##편
##표
##린
##피
##쪽
##싸
##였
##쇼
##봉
##민
##텐
##불
##경
##채
##규
##진
##친
##목
##재
##늬
##몽
##배
##벡
##실
##여
##복
##즈
##게
##딘
##투
##절
##욱
##코
##는
##국
##공
##학
##현
##주
##철
##얀
##롬
##어
##본
##택
##F
##모
##격
##총
##통
##두
##그
##귀
##징
##마
##란
##쿨
##종
##유
##령
##록
##틴
##나
##돈
##골
##뉘
##엘
##헌
##추
##곤
##랑
##용
##볼
##곡
##토
##빈
##J
##간
##집
##살
##계
##각
##태
##와
##풍
##가
##천
##양
##데
##까
##느
##출
##렬
##뤼
##삭
##염
##념
##옹
##석
##근
##군
##칸
##균
##취
##과
##은
##립
##증
##땅
##저
##Q
##H
##Z
##하
##누
##커
##침
##맞
##착
##네
##패
##창
##쇠
##깨
##위
##머
##겨
##끄
##워
##길
##웠
##웨
##익
##려
##심
##먼
##습
##델
##득
##엔
##션
##렛
##처
##운
##책
##톨
##새
##K
##예
##합
##렴
##렌
##디
##갑
##답
##윤
##륜
##효
##혈
##단
##적
##래
##달
##른
##김
##들
##럴
##범
##떨
##져
##약
##돌
##별
##었
##건
##걸
##조
##흥
##셀
##널
##섬
##향
##팀
##옌
##롱
##탄
##묘
##생
##류
##객
##롭
##훈
##쉬
##연
##긴
##쿠
##발
##없
##브
##북
##버
##핑
##림
##속
##갈
##검
##월
##씨
##악
##콜
##입
##찰
##행
##쳤
##므
##큼
##압
##섭
##송
##롤
##업
##권
##넬
##케
##셰
##링
##요
##엉
##병
##밖
##음
##초
##X
##켈
##콩
##망
##쳐
##량
##럽
##톡
##폰
##릭
##궤
##질
##알
##람
##환
##즐
##써
##억
##냈
##글
##완
##순
##충
##턴
##혜
##너
##언
##잉
##히
##굴
##콤
##븐
##듭
##겸
##줄
##극
##뉴
##교
##둥
##술
##탕
##랭
##큐
##룡
##척
##웅
##릉
##률
##례
##멜
##먹
##율
##할
##필
##온
##룩
##첼
##열
##엽
##셔
##더
##튜
##담
##름
##킨
##혀
##릴
##항
##랫
##번
##녹
##럼
##품
##슬
##난
##매
##텍
##말
##찬
##촌
##뷔
##궁
##던
##닥
##뤄
##텔
##랴
##밥
##졸
##짐
##반
##몬
##춘
##왔
##분
##막
##렐
##긍
##띠
##따
##닌
##플
##틸
##넨
##슈
##맨
##쓰
##핀
##혔
##랜
##닝
##낙
##힐
##럭
##켰
##늄
##윗
##힌
##든
##벌
##낸
##풀
##좌
##꺼
##등
##봄
##묵
##덴
##평
##급
##엄
##죽
##손
##켓
##련
##숨
##뜨
##력
##헤
##셋
##덩
##쿄
##족
##둑
##략
##쇄
##숭
##탁
##육
##냥
##눌
##슴
##잡
##년
##점
##갔
##응
##혁
##쟁
##농
##흙
##읍
##맥
##펠
##밭
##벤
##축
##올
##샤
##뼈
##블
##능
##녀
##뿌
##허
##옛
##랍
##님
##웰
##쌍
##꾸
##켄
##톤
##직
##빙
##릿
##넣
##듀
##잔
##룰
##궐
##않
##앨
##런
##듯
##닐
##외
##센
##펑
##템
##참
##휴
##앙
##멀
##랐
##혹
##액
##룬
##돔
##짓
##층
##딜
##햄
##딱
##넘
##융
##얼
##혼
##첨
##퀴
##낼
##겐
##랙
##랩
##딕
##룸
##깃
##흔
##팬
##픈
##힘
##켜
##독
##되
##견
##깊
##끈
##짜
##헬
##탈
##랄
##곰
##흘
##렀
##꽃
##틀
##틱
##뷰
##폭
##존
##킴
##퇴
##멸
##폐
##딩
##변
##끝
##푸
##멘
##논
##렵
##협
##꼬
##싱
##춰
##흐
##팅
##듬
##펀
##덤
##젤
##틈
##캐
##칭
##획
##짝
##빅
##쥐
##휘
##앵
##넷
##멍
##죄
##탠
##팽
##놀
##낭
##벽
##쌀
##십
##못
##겼
##값
##칼
##벗
##둔
##펙
##램
##섯
##활
##넌
##된
##싼
##룹
##륨
##샘
##펄
##겔
##왜
##킹
##몰
##눈
##튼
##뇌
##냐
##닛
##넥
##혐
##닫
##잎
##둘
##솔
##녕
##웃
##첸
##핸
##딸
##킬
##윌
##접
##흰
##붙
##컨
##옷
##퀘
##홈
##픽
##뢰
##칙
##깥
##홀
##펜
##젠
##덜
##흉
##돕
##콘
##칠
##잠
##곳
##있
##빵
##렉
##확
##셈
##숲
##챔
##째
##앤
##꼴
##엇
##털
##즉
##컴
##빛
##춤
##괴
##뱅
##듣
##툴
##잇
##헨
##좀
##뜻
##끔
##윈
##촉
##썼
##캠
##핵
##빼
##잘
##컷
##뱀
##맛
##갖
##돼
##욕
##받
##퓨
##뮤
##움
##앗
##났
##컬
##때
##훼
##겹
##륙
##붕
##흡
##겠
##셉
##캔
##톰
##겁
##밑
##웹
##렘
##닷
##늘
##팝
##촬
##냉
##높
##톱
##맹
##특
##댄
##낌
##밤
##뿔
##슐
##꼽
##갤
##꾼
##즌
##큰
##밴
##뽑
##봇
##훌
##빗
##같
##횡
##캄
##녔
##몸
##또
##곽
##뒤
##믹
##삽
##똑
##엑
##튀
##갱
##떠
##넓
##늑
##께
##펴
##툰
##롯
##뛰
##끌
##쌓
##좁
##곱
##뻗
##팩
##최
##턱
##쓴
##낮
##됨
##것
##놓
##숫
##괄
##뚜
##멈
##녁
##앉
##맡
##윙
##슷
##셜
##폼
##빨
##멕
##껍
##쾌
##뀌
##렇
##쿼
##밝
##덮
##앞
##꼭
##씬
##묻
##륭
##찍
##씩
##샌
##몇
##끊
##았
##섞
##될
##쉽
##깝
##뒷
##잭
##덧
##쓸
##컵
##늦
##붉
##뿐
##찾
##많
##꿈
##헝
##훨
##젝
##떻
##떤
##좋
##쫓
##퀸
##캘
##낳
##힙
##곧
##굳
##삶
##빚
##훗
##옮
##멤
##짧
##옆
##뮌
##맺
##홋
##읽
##띄
##젊
##싶
으로
에서
19
20
한다
201
200
에게
까지
대한
으며
지만
10
된다
부터
사용
면서
라는
이후
라고
는데
18
##으며
미국
##er
일본
199
##or
지역
12
##00
다고
위해
때문
그리
11
##on
시작
##리아
경기
다른
##스트
대학
그러
자신
사람
함께
프로
따라
##an
또한
사이
198
##in
15
세계
다는
경우
가장
당시
##la
하나
이나
16
그러나
기록
##시아
이름
국가
또는
한국
##주의
가지
의해
##en
위치
##민국
17
선수
##부터
현재
활동
영화
197
통해
##ar
프랑
대한민국
연구
##으나
그리고
사회
조선
아니
##레이
만들
196
대표
##ti
보다
##al
리그
다시
14
정부
포함
프랑스
영국
대해
##es
시즌
동안
194
13
여러
도시
독일
전쟁
for
으나
##mu
중국
로서
시대
다가
는다
일부
모두
제작
모든
가능
이상
처음
##랜드
##mula
formula
위한
감독
정치
문제
세기
195
인구
##he
알려
개발
아이
였으며
이루
주장
구성
위원
문화
시간
##ic
거나
대회
서울
이러
새로
했으며
존재
정도
중심
일반
지방
##is
이용
다음
관계
작품
km
##부분
##라이
나타
도록
운동
학교
193
대학교
음악
역사
##니아
발견
경제
시키
30
로부터
영향
국제
게임
기준
대부분
축구
들어
사건
공격
발매
교육
결과
전투
발표
음반
기술
##통령
참여
192
발생
##at
우승
특히
민주
##이스
아들
##지만
방송
##리스
유럽
##it
과정
##el
대통령
##란드
##ou
25
새로운
제국
이전
##화국
결정
부분
선거
최초
지원
관련
인해
어서
하지만
러시아
사실
의미
독립
상태
생각
##리카
2010
일어
진행
##버지
로마
자유
다양
형태
필요
그녀
##le
191
라이
설립
중앙
으로서
21
조직
계속
중요
사망
설치
##나라
주로
여성
##us
202
##우스
성공
이것
구조
이탈
##re
##어진
##디오
계획
000
##om
프로그
생산
##학교
해서
나라
##ol
매우
상대
2008
따르
##르크
시스
gt
기관
처럼
##tion
운영
lt
타이
아버지
2007
이탈리아
정보
돌아
발전
자리
스타
24
22
같이
과학
인민
올림
바이
국민
해당
23
차지
태어
2009
##as
주요
보이
철도
참가
소속
방법
2011
결국
위원회
전체
등장
##ing
이어
이유
2012
거의
제공
관리
행정
##ch
역할
못하
인간
앨범
그리스
##il
시리
데이
후보
최고
시기
지정
였으나
프로그램
출신
고려
출연
데뷔
생활
기원
한편
올림픽
사업
##프트
100
해야
초기
교회
레이
유지
회사
##운데
인도
##et
으로써
방식
##스터
대전
반대
군사
많이
대신
으로부터
연합
##am
조사
시스템
2014
가운데
##레스
##비아
동시
2006
시리즈
이미
의원
26
공식
내용
스페
2013
시켰
그룹
인터
##ro
노동
모습
우리
연결
28
출전
승리
규모
##이트
표현
형성
마지
개인
이르
유명
27
상황
평가
이론
수도
인정
##이션
각각
190
기능
2015
제도
여자
기간
지구
기업
직접
마이
언어
고등
지도
마지막
했으나
2000
따라서
임명
열린
##한다
그것
정책
월드
현대
가진
아래
대상
##비스
of
추가
##머니
건설
2016
불리
##FA
목적
항공
보여
자연
##야기
민족
2005
단체
변화
##전히
2018
수상
으면
산업
노래
##라마
공동
프리
지금
여기
의하
29
시장
서로
##인다
##ra
실제
배우
건물
이야기
요구
##ed
2017
아르
시절
플레이
오스트
전문
비롯
공개
알려져
특별
스페인
브라
계약
지지
##학자
결혼
##스크
마을
50
##nd
일으
경찰
학생
2004
진출
자동
우주
부르
없이
관한
역시
교수
##대로
##os
황제
The
드라마
한다는
어떤
거리
모델
변경
속하
##이지
##ter
세력
31
기반
원래
못했
자기
사상
노선
활약
졸업
의회
##id
최대
달리
세포
소련
공화국
밴드
보호
판매
비판
개최
공간
##이드
지나
아닌
작업
거쳐
행동
보통
정의
인물
군대
전통
증가
수행
종교
서비스
##프리카
싱글
설명
40
만든
2019
이동
모양
기원전
연방
189
##운드
실시
환경
##남도
기본
##ur
##ac
##르트
혹은
전국
##ig
위하
특징
공연
제외
지배
2002
##니다
분류
##스탄
기타
소설
다이
회의
차이
나이
방향
의한
능력
교황
지휘
이끌
부대
##어지
##ation
기존
남쪽
통합
북쪽
그래
기독
야구
##너지
전기
도입
전자
대해서
분야
the
바로
2003
동물
효과
나가
##로스
운행
##od
보내
##루스
사랑
어머니
인민공
나오
인민공화국
한다고
1990
지하
##ent
##ad
피해
확인
혁명
가족
비슷
기독교
예술
명칭
##어져
추정
이때
작용
오늘
2020
중화
차량
##mp
국내
국회
기념
주변
므로
비교
도쿄
과거
##른다
인기
왕국
남부
유일
컴퓨
자료
마다
시민
시설
공산
출시
##나다
열차
작곡
가까
도로
상당
##러스
부족
동쪽
선정
성장
소프트
시켜
##te
적용
동일
반응
어느
문학
작가
부산
서쪽
는지
자체
에너지
물리
장관
차례
2001
태양
개념
높이
경상
실패
형식
담당
이런
달러
TV
##um
역임
##북도
선택
특정
올라
어린
고등학교
물질
##므로
연주
위해서
클럽
행위
크기
인지
컴퓨터
가수
이사
정당
##ve
대체
캐나다
월드컵
내부
디자
태어났
센터
주도
스트
뉴욕
##린다
##ec
연기
##ri
사고
더욱
##진다
관심
교통
조약
정신
명령
건축
##ot
개혁
이라
188
속도
FC
데이터
가리
일어나
1980
다르
작전
##리오
애니
대사
협회
선언
고대
##스타
500
분석
도움
북부
시킨
걸쳐
영어
구역
체제
지속
불구
스위
출판
려고
##BS
단계
##자리
마음
##가지
육군
밝혔
보인다
설계
공사
연속
확장
결승
집단
사무
점령
시도
언급
치료
구간
##ir
결합
남자
대중
내려
의사
##아들
친구
목표
어려
메이
베이
##드리
1999
요소
분리
후반
오늘날
당하
페르
##op
소비
규정
최근
헌법
개월
어야
획득
부상
FI
강화
멤버
자치
고자
유사
선발
해군
예정
챔피
조지
실험
마르
수준
포르
면적
현상
들어가
스포
선출
구단
동맹
부문
##글랜드
1998
소유
조정
St
버전
종류
머리
비행
체계
최종
##oc
가문
유전
이해
통치
경험
폴란드
버스
배치
안정
나타나
이적
##ia
조건
연대
사단
##웨어
처리
거주
네덜
네덜란드
려는
제한
가치
방문
60
뛰어
비해
186
민주주의
##un
수록
##거리
제안
원자
법원
일종
잉글랜드
재판
##렇게
학자
준비
행사
파리
##ce
정확
32
드러
표준
주민
알려진
책임
Ch
노력
##메리카
주인
아시아
##메이션
엔진
##트남
1997
만나
##ow
장치
정권
제품
##디어
##난다
장군
1970
대하
경기도
완전히
##카이
거두
자동차
##리지
##and
35
디자인
통과
지냈
인데
그런
외국
요청
1995
##스로
비디오
187
통일
가정
##BC
1996
파괴
투표
영토
##의원
언론
요시
발달
정규
대로
기사
하이
애니메이션
영역
여겨
반면
##역시
수용
스테
올랐
FIFA
##ag
식민
##라스
마리
경쟁
해석
입장
베르
평균
시험
##젝트
원인
바르
##ver
아직
움직
승강
문자
접근
제조
사령
용어
받아들
그림
국립
총리
로스
##메달
##ay
아마
지명
인식
북한
주제
거부
평화
공항
추진
##스코
생물
전라
사진
훈련
경계
런던
오르
1994
성적
편성
나무
방어
##머지
행성
다면
나머지
통신
##th
널리
챔피언
실제로
아프리카
기여
에스
정상
부정
프로젝트
신문
철학
1992
구분
##일랜드
이듬
남성
스스로
가르
이곳
패배
amp
##ul
스위스
오래
왕조
서부
부여
자주
1960
In
강력
스포츠
병원
오른
크리스
민주당
문서
##시마
파이
해결
묘사
300
당했
세워
주연
cm
나온
상호
더불
이듬해
의식
부인
경영
1991
무기
in
권력
금지
무대
보수
바탕
##스턴
베트남
사라
텔레
80
유래
아서
마찬
마찬가지
##리트
##비전
근처
바다
동부
찾아
스웨
70
도착
외교
다수
고속
승강장
알렉
가져
공원
차트
불교
조각
밝혀
그대로
무역
득점
회장
세대
1993
##톨릭
mm
노르
다리
지난
만큼
단순
전해
공작
길이
법률
폐지
지도자
결성
지대
##웨이
신경
충청
장소
먼저
기초
##im
신라
감소
인터넷
임시
바뀌
박사
##부르크
요리
반란
나중
화학
스웨덴
일제
성격
오스
##em
중간
##NA
대구
위험
귀족
생성
소리
연맹
아무
수많
은행
장애
스튜
다만
##라인
제시
복귀
검사
협력
오스트리아
프레
가톨릭
인천
인사
녹음
정식
업무
떠나
##인트
##50
지적
중단
수학
단어
아일랜드
본선
1988
1989
연장
등록
활용
주의
전달
투자
식물
##레일
##버스
파견
유대
로써
##og
투수
##야마
경기장
기구
여름
나타내
표시
보도
일정
지진
회원
기계
36
미술
해안
트리
UE
체포
미사
초대
보였
형제
제기
이외
발사
이스
바꾸
여행
지식
2021
##나무
입단
관측
만화
달성
소재
완성
식민지
측정
근거
UEFA
##시코
마이크
은퇴
몇몇
죽음
떨어진
쓰이
관찰
번호
위기
33
연구소
발행
자본
파일
총선
시행
서식
종합
차원
##ap
얼마
통하
이주
국왕
디지
야마
확대
번역
정리
스코
필리
상업
방영
세웠
근무
1950
계열
표기
캐릭
##워드
완전
으므로
학위
슈퍼
지위
이라고
브라질
권리
전시
내각
아내
예선
유형
전략
상징
소프트웨어
직후
90
라인
전환
캐릭터
안전
공장
아카
##티아
유로
##ut
함수
보유
판단
그린
1945
##트로
조성
카이
##st
대응
##워크
##ie
동생
하루
이래
##임스
특성
의견
양식
이슬
이루어진
카드
보냈
시위
정착
거대
체결
사이트
##ard
교체
충돌
계승
##가리
국경
습니다
라디오
강한
공부
기자
38
윌리
여전히
못한
박물
수사
포르투
공급
주목
분포
생명
제거
논란
천황
네트
##ion
뮤직
비용
유리
계기
태평
으면서
합류
즉위
이집
이집트
촬영
##ess
후기
타이틀
디지털
##로나
미군
미래
통제
당선
설정
##레일리아
1987
너무
관광
##라도
홈런
##ine
##모토
개선
여객
광주
다루
##트리
측면
만드
대륙
##토리
히로
##간다
보존
부모
45
오사
집중
1986
텔레비전
범죄
세상
환자
원정
저항
병력
가까운
and
올리
강조
케이
기회
예수
사회주의
##리학
은하
##동안
취임
크로
##어나
멕시코
영상
이렇게
장기
수정
옮겨
개통
본래
따른
외부
##러운
에이
소수
수비
전차
충분
물론
##베이
감염
##어졌
표면
##백질
일어난
단위
박물관
특수
##니스
오스트레일리아
밀도
승격
34
##ity
노동자
주인공
병사
##소년
순위
자원
##ab
본부
제주
가입
소개
개국
이슬람
결승전
입학
신학
발매되
##코드
세르
허용
최소
인근
둘러
##무원
##교회
건강
궤도
무렵
몽골
유니
제정
해외
##아시아
동료
건너
##아가
개정
Al
윈도
작성
배경
마사
184
나누
윌리엄
지하철
지점
오브
1984
##가와
400
실행
원소
약간
극장
이번
현실
1985
하계
##회사
스튜디오
집합
피아
가격
개봉
바이러스
청년
그렇
전반
단백질
도중
인한
##ys
##모리
점차
아시
주식
학문
우크
재정
사우
다카
자격
삼성
고전
##버트
가졌
de
종료
마치
계산
마련
그해
종종
전사
천문
혐의
이하
네트워크
적극
제목
민간
음식
군인
신호
논문
분자
도서
보고
스키
##igh
포르투갈
질량
베네
불러
##나이
각종
간주
헝가리
학년
인수
위협
##특별
나왔
알렉산
48
인디
지상
185
비밀
농업
회복
증거
온도
해방
승인
종목
강제
남북
##ell
이미지
##광역시
확보
##ang
붕괴
다니
코드
무장
합병
바람
180
그곳
편집
##스티
후쿠
아우
양자
전역
1982
37
만약
소장
수립
##리포
수입
진화
범위
지내
출발
홍콩
계급
비트
어떻
광고
임무
침공
경향
성립
##ak
전선
오후
조치
부근
합의
미치
스티
갖추
국회의원
양성
엘리
뉴스
##디아
변호
채택
국방
아키
##어들
##피아
##보드
재산
버리
수단
증명
빠르
전력
공군
공산당
재직
겨울
확실
세이
##ber
##ist
잡지
채널
터키
근대
태평양
장면
##스카
금융
1983
이란
##주교
명예
공공
항상
183
가스
교사
에게서
그려
장식
구축
플로
미사일
##요일
정치인
블랙
감정
폭발
남편
##ip
42
인하
##소리
##누스
라틴
미디어
토론
Re
핀란드
##티나
##ill
기후
##니어
Th
항성
스타일
연극
제임스
##est
유도
토지
##tic
성인
루이
전개
시티
향상
##아프리카
불렀
세우
얼굴
라며
리스
일어났
강의
기대
시청
기획
캘리포
가로
대기
##다는
다섯
불과
##마크
##베르
해도
에드
전하
예상
군단
불가
복잡
그래서
1981
대대
사례
II
장비
캘리포니아
서양
경력
시킬
군주
대립
이스라
1979
독자
모리
살해
이끄
기억
##키아
회전
보장
음력
관할
중심지
효소
거래
위원장
39
나치
자금
원칙
라운드
레코드
라이브
1973
##ers
이스라엘
##준다
179
1972
An
##테르
아주
코치
##all
노예
강원
대형
##타인
##지션
종이
귀국
투어
나폴
아랍
위성
공유
##도로
모스크
1920
초등
마리아
주교
##ue
지시
차별
카르
의학
문화재
협상
고양
공주
##ty
규칙
1940
참석
의료
##로드
150
오사카
이루어져
윈도우
의해서
##철도
동의
진다
스리
1930
매년
41
64
클라
중반
청나라
라면
업체
수출
유전자
##없이
부른다
초반
신앙
꼬리
성과
##라비아
대항
1974
훨씬
대학원
이루어지
비율
출생
일원
##특별시
잘못
##uc
모르
고종
했었
조합
유엔
알려졌
떨어져
서울특별시
##고기
가사
단지
##oun
고용
뛰어난
왕위
남동
보병
스파
함대
아메리카
심각
카운
핵심
카메
기지
전혀
대장
알리
단일
아름
에도
이제
##틀랜드
##라노
##ne
권한
오히
보급
브리
##ran
181
정복
상하
나와
##ub
어떻게
##오카
시각
전화
비난
대비
Mar
##ph
본격
##리스트
넘어
##ud
편입
우선
##마스
올렸
태어난
시내
시인
만주
##바이
고구
잠시
직원
필리핀
집행
##리히
오리
지키
고정
##반도
##our
돌아가
개편
탑재
1975
인상
요새
의장
##오스
신화
게이
1978
선고
저장
1971
클래
이어지
KBS
플랫
이승
이익
중세
##낸다
##av
고문
공기
목록
해체
확정
1969
조금
구체
오랜
1976
43
세종
아야
논의
마드리
산맥
##요시
갈등
본인
창설
판결
운전
앞서
유학
에선
##데미
엔터
플레이어
활성
의무
공업
De
도달
1963
마드리드
상품
협정
암살
##다가
바라
후지
터미
55
통한
일으키
사후
솔로
태어나
출마
##레이션
##의회
##드로
##ge
선조
덴마크
비록
오히려
경상북도
나뉘
1948
세운
Ne
Le
반복
1968
소식
드래
인정받
물러
75
베이스
저지
공포
항복
보조
##se
소년
##if
입자
연합군
거절
아카데미
검찰
아파
Un
자세
창조
마침
##스키
공산주의
##를린
우수
별도
트랙
##트라
오른쪽
##고리
##주시
등급
애플
##레이드
무리
##네시아
사령관
터미널
전설
장착
중학교
추측
나카
하드
방출
인터뷰
마쓰
##아메리카
전용
1977
금속
북서
투입
전후
고향
연관
44
인류
메이저
47
논쟁
인종
장악
주위
Ar
포위
강하
탄생
방면
구별
경상남도
효율
성당
체육
카를
보안
반도
의존
##CA
하늘
코미
고구려
신체
##ice
##ong
사전
북동
##네스
브랜드
시점
이성
포기
아스
호수
온라인
후손
헤이
요한
1946
공화
죽이
흡수
더라도
머물
인조
왼쪽
내렸
준다
투쟁
일치
역대
평양
서기
어린이
총독
영향력
도서관
우스
생존
공학
제어
이민
스피
스코틀랜드
밖에
인권
##각형
46
아나
합성
관점
아르헨
명명
성경
혼란
금메달
1964
##이크
어렵
수여
흔히
열렸
##운동
안타
##에르
라도
청소년
##ight
CD
개체
제출
직전
아르헨티나
약속
집안
해졌
일으켰
##우드
들어갔
통해서
정체
52
붙여
신설
명성
생겨
교토
분쟁
편지
##ob
선생
내리
이른
##다리
신성
해상
1967
MBC
개시
생기
주기
중부
마크
절대
51
의도
무엇
구속
182
인가
주전
폭력
스카
보컬
원주
수송
숫자
열리
1949
분열
1962
주택
활발
##ian
진입
##문화
불린다
조절
사항
변호사
인공
태풍
시킨다
메시
##싱턴
동원
600
견해
현장
농민
사법
전공
코미디
장교
모스크바
빠른
취급
강점
포도
플라
만족
##터리
사태
호텔
수집
이기
재단
저서
상당히
히데
스케
헨리
성능
##ry
st
반영
베를린
1966
상승
노르웨이
지니
작곡가
건조
선교
##리어
창립
정비
박쥐
오전
포지션
##셔널
##정부
1965
후원
소송
말기
오픈
법인
자라
800
멸망
지닌
레드
반발
한때
##원군
예산
##자기
전부
막부
천체
160
##하라
연고
중대
##일러
178
하나님
연료
제대로
##오프
54
프란
오토
상륙
탄소
진보
Com
에피
경성
대수
취하
노스
교류
아미
그런데
도망
불렸
울산
예측
직업
대화
웨스트
삼국
철도역
현지
목사
항공기
##미터
알아
진압
유적
사운드
##ss
백작
그리스도
탈출
시리아
철수
운용
##ae
공동체
거기
전라남도
강원도
해산
교환
원작
##ate
빠져
##퍼스
슬로
로운
임금
코스
피아노
고유
하위
53
도구
질병
심리
에어
터널
1961
당한
교차
워싱턴
중화민국
여부
전문가
Sh
포로
다운
전파
##사키
스러운
부활
노부
베이징
수술
##ore
경주
원리
일대
파라
##일보
요인
가리키
아테
로드
방사
전철
##병대
수원
모여
통계
취득
흑인
159
스크
1944
십자
아름다
출입
공통
육상
구성원
우려
##에트
법칙
불법
1000
PC
건립
접하
##퍼드
허가
##기에
DNA
학습
##ich
##다이
어떠
압력
보관
1941
아라
스럽
고리
49
제자
된다는
분명
복합
콘스탄
고도
대략
오스만
남서
정지
응용
##비드
떠났
##아버지
충청남도
화물
해양
대리
##ant
LG
로버트
선보
출장
수소
이뤄
망명
##ain
##서트
훗날
먹이
신분
장르
논리
건국
미터
순서
모아
1919
아침
다스
태국
한자
예비
카운티
##드시
나타났
소스
처형
나갔
프로세
계통
자살
##키스탄
브레
변형
복무
흐르
움직임
갈라
영입
1939
##수록
탈락
디스
부장
파트
##per
관직
경로
자녀
동계
##라이나
간단
##SA
##세이
물체
앞두
적절
to
독특
문헌
방해
##ens
kg
추구
벨기에
위반
강점기
보스
유기
주관
65
방지
재료
프라
테러
성질
누구
보험
Be
re
소녀
지붕
채용
##데스
##리케
항구
는가
반드시
사장
향해
56
주둔
##해졌
이온
살인
헤르
생긴
점점
판서
소비에트
외국인
##art
리더
콘서트
Sp
개신
히트
엄청
##무라
이중
기도
향하
마침내
맞이
글로
살아
1958
버렸
으려
치렀
##ord
조작
99
명단
절차
학부
등지
감사
이자
플레이오프
공무원
마케
선전
승진
연재
58
풍부
한반도
1947
파악
달하
보낸
##OS
관료
트랜
##무부
##ff
갖춘
##카와
동기
성향
싸움
자극
폴리
무시
발언
부부
참전
뿌리
화면
##소드
신청
주간
영업
신뢰
##io
저작
일본군
우크라
영지
##킨다
카메라
세인트
수도원
미국인
여객철도
개조
트라
##라드
##쿠라
끝나
부임
실질
통상
다며
일찍
둘러싸
1956
싸우
기체
느끼
맞추
빼앗
군수
오페
합격
재위
메이지
연출
타격
브루
##FC
희생
접촉
니콜
정원
##듀서
프로듀서
##로그
집권
Pro
의심
도전
연산
120
##타르
이룬
한계
증상
177
전면
완료
Con
내전
유물
독일군
백제
새롭
악화
분위
정기
##ort
아프
연안
##유럽
##oh
동작
목소리
식품
88
끝난
하우스
베스트
마이클
출간
스프
빌보드
62
추산
의지
동성
자이
박정
스마
한국어
시카
물리학
기법
이승만
FA
달라
취소
인도네시아
가을
개입
모드
페르시아
말레이
코르
그레
명나라
분해
72
블루
1959
희망
##이어
배출
기하
파크
올려
제일
명확
지낸
특이
##메리
700
동남
##바르
충격
사임
아동
아사
체코
사령부
스미
트로
신인
학술
사냥
창단
1942
등판
He
순간
66
##노스
포트
보건
서버
나타난다
미니
선거구
일본인
비평
Lo
조종
나아가
61
부하
확산
기둥
태도
타이완
##에이
##시스
서명
1954
전형
오랫
부진
마르크
스토
##ik
재건
처벌
축제
인접
구원
##end
##ST
문장
분할
##치아
바깥
레스
주식회사
57
떨어지
평등
지급
아파트
좌우
학회
구하
왕자
심지
##나이티
##우리
글자
##포르
##문화재
권위
손상
수리
타자
##ok
유나이티
주년
산하
##카이도
판사
분위기
개막
루트
어도
오랫동안
캠퍼스
균형
##연히
남겼
둘째
기에
함락
##티브
밝히
순수
불상
무덤
##머스
단독
된다고
상원
악기
에피소드
받아들여
가상
대개
흘러
라이트
침략
유행
공정
레오
1952
현역
당국
고지
메모리
승객
이닝
개신교
각지
진정
한정
##세포
혼합
##ure
1943
여야
최다
아티
오프
68
보고서
광장
지리
추천
백성
벌였
구현
##틀러
Coun
호주
엑스
##르타
근본
##man
1953
홍보
알렉산드
63
후계
86
억제
양쪽
도와
메인
##크스
녹색
석유
대량
발발
기상
1955
##젤레스
학원
아시안
스탠
요코
##거운
매일
흐름
모형
절반
실현
대법
화성
오페라
회담
간행
노출
전신
벗어나
##ment
확립
임대
광역시
움직이
그때
화재
문명
##하마
기울
별명
사형
##iver
듯이
새겨
밝혀졌
파르
##사자
Me
어깨
세르비아
국장
출범
##ib
서구
테이
김일
상위
저술
학과
도쿠
발굴
변환
본사
과학자
멀리
왕실
감시
로켓
유치
##qu
방위
##투스
##레옹
1957
심지어
162
연간
##이센
클레
모임
여론
실수
일시
계곡
나폴레옹
페이
피하
##디션
데이비드
영화제
고통
입법
임기
편찬
에서부터
인증
설득
에르
원년
한다면
##브리
광범
수익
사원
98
마무
전원
사실상
루스
##질랜드
미드
프리미
당초
폐쇄
롯데
장수
##ld
김정
뉴질랜드
대공
일상
1938
완공
탐사
독립운동
테스트
라틴어
해리
고양이
복수
화석
불만
침입
이어졌
기기
날개
황금
드라이
합쳐
임진
어려운
##사스
##베스
도덕
74
순환
여단
##IV
그렇게
신자
계층
##릭스
161
US
가슴
수석
이라크
1936
95
화산
##iv
##저우
천연
두려
##어스
플래
1910
예전
성분
학살
중력
영웅
치러
##ct
작동
크리
1937
부사
프랑크
Se
루이스
백만
##아티아
크로아티아
찰스
청구
복지
공헌
코파
바닥
리가
징역
그라
타임
그레이
##라이언
확률
니시
지켜
##ational
갈색
결론
##iz
가담
약물
무사
언제
가설
가시
불안
2022
관여
정하
73
성우
##직자
1918
가까이
59
마시
통산
미나
적합
소득
어려움
기호
올라가
누르
수요
알파
는다는
다소
손자
##민주
원형
상관
여왕
인쇄
그래픽
##텐츠
이치
정해
기소
##학생
시카고
단편
면역
심장
공로
로봇
출력
거듭
##앤젤레스
로스앤젤레스
커뮤
올해
복음
신부
##ov
1914
질환
생물학
콘스탄티
끝내
광범위
병합
무게
텍사스
71
민중
분노
##BA
##더스
프로이센
공중
졌으며
프린
복원
포인트
긍정
임의
커뮤니
엄청난
돌아와
돌아왔
검토
NA
어디
폭탄
산화
코로나
##ock
펼쳐
1935
그만
사제
바위
실력
줄기
부담
방송국
##ect
가구
연구원
상실
마무리
분기
보상
##메이
사마
##코스
벌이
76
노벨
재배
뮤지
보물
위대
김영
신고
피부
##ly
막대
매체
##ast
85
국무
혁신
##ind
맞서
##one
산소
프라이
##이너
비례
화합
You
77
부지
통화
초점
유고
##AR
170
속한다
탈퇴
##은행
1933
레알
인용
자식
추방
가량
호소
선박
사정
##au
넓이
##스트라
따로
역학
연설
마법
##먼트
##ory
이시
폭격
##쿠스
숙종
안토
평론
발음
SK
대선
본질
부친
전라북도
메시지
스마트
##바로
1951
각본
심사
승부
즉시
지형
위상
프로그래
규제
진단
시드
##바라
Am
일련
카라
농구
여겨진다
176
96
법정
##드리히
IC
스토리
조차
지향
##마니아
전동
전투기
교리
변수
속한
##에른
##아내
##프리
아리
암호
부위
연습
입력
Par
급격
오직
경전
##ith
67
개방
다케
천만
비상
##일스
프리드리히
참모
조별
##버그
##비치
원주민
보여준다
SS
164
였을
옮겼
하원
미쓰
의혹
한국인
리처
포스
재학
게다가
후속
158
가나
163
깊이
87
잭슨
이혼
형사
필수
##가락
리버
벌어진
비서
구매
CO
작사
1932
액션
바이에른
수영
박정희
주력
구입
가공
고기
##이치
152
상인
후임
손실
주최
사자
에드워드
92
세트
##나가
##조합
히틀러
##토스
느낌
##산화
질문
고속도로
자전
진격
##ust
창작
조카
동방
##도르
쿠데
리드
하인
후계자
국도
##대부
사우루스
IS
##일리
브라운
점수
파워
##러리
더블
자국
웨이
##TV
왕비
총회
포스트
가이
본다
82
만났
도요
태조
##해서
모토
스탈
1934
감각
줄어들
국정
##ond
받아들이
본명
SBS
피해자
득표
##산시
##타이
결의
91
조상
##ood
##ath
선호
언덕
발탁
레인
##체스터
아웃
##다란
설치류
##tern
내셔널
동아
진주
뮤지컬
늘어
En
매장
독재
가마
쿠데타
81
수업
혼인
##피스
여섯
Sc
오버
참고
##리노
##어도
개별
도모
우라
마르크스
Ma
168
바르셀
김일성
1928
바르셀로나
대지
백인
##천군
프랑스군
1924
줄이
##ence
완벽
촉진
인디언
한글
AP
Ro
근육
연락
뜻한다
##에도
광복
구멍
돌려
저녁
##tive
진영
##ER
시사
예방
허락
세자
수백
정조
갑자기
##하여
이내
장남
##IA
조지아
모터
이웃
동서
프랑스어
84
되돌
티베
충분히
자는
커버
##BO
아름다운
대왕
동양
와서
국군
자본주의
##숭이
쓰여
수십
156
아테네
내세
시상
교향
1900
유통
좋아
140
중기
밀려
탄압
화이트
그리스어
려면
범주
태종
대책
메리
추기
느냐
제사
대체로
총장
이른바
입니다
아트
##슬러
전술
##ial
78
시마
음악가
게르
디스크
##가니
나타낸다
##메리칸
93
변하
약화
만든다
##의정
##시오
업적
97
음성
의문
저자
선포
##ide
소비자
승려
다룬
궁전
사우스
차단
시조
175
##왜란
남아프리카
1931
임진왜란
지불
화장
네이
가와
##니즘
고급
##독부
질서
개칭
격파
미리
당나라
##sh
th
미야
발명
말레이시아
수치
화려
사도
소위
잠수
##생물
1921
불가리아
당대
사유
##슈타인
바둑
유형문화재
천주교
친일
##무르
골든
추기경
조조
루마니아
개설
내놓
평안
1923
비행기
방정
주석
소멸
아인
거치
일본어
아티스트
이어진
생태
1929
NH
블라
AT
시나
County
분화
습격
힘들
도마
빅토
급제
라스
쓰인다
##클리
극단
보살
달려
해발
##다수
정차
센트
황후
당원
타운
1925
가진다
리처드
157
반사
알프
진학
일으켜
타인
꾸준
심판
물건
세리
왕후
재즈
방언
라우
동해
페이지
단순히
구글
##머리
##ack
누리
포켓
101
기동
CP
Wh
154
고위
싱가
싱가포르
미시
##ug
00
석사
##여금
디아
영주
돌아오
1922
신사
##aw
개량
벡터
처분
##ric
엄격
##원경
경제학
알바
유효
연예
전직
##란색
누스
보편
조선총
##공항
칭호
피터
정교회
지사
휴대
조선총독부
##바키아
영감
거짓
강요
패션
들어오
학사
무료
호흡
전송
가난
동명
홋카이도
선수단
소문
##레인
##ace
Bl
##지사
무한
전주
빌딩
사기
구상
김대
보르
창당
최우
기부
이념
재개
151
고객
##마르
가리킨다
그럼
무력
가속
개척
집회
69
안쪽
소형
증언
흰색
서원
유발
Co
재능
대우
영조
130
충청북도
토론토
야당
##ary
사격
경비
당해
166
걸친
골드
검색
랜드
찬성
Sch
서방
사양
생겼
데스
주체
선임
소방
소집
부서
##ton
물고기
유산
나온다
실천
방정식
일기
##미르
##TA
Bo
Ph
남기
사퇴
인원
Wor
주소
선로
94
크로스
운송
83
프리미어
세금
훈장
Col
경고
독일어
혈액
영양
마주
서술
섬유
원수
##pe
오이
##ah
국제공항
마저
교구
주어진
사과
영구
##비히
덕분
##iss
잠재
##민주당
시신
렀다
노리
부동
합리
아이돌
배포
닥터
165
소화
축소
일단
스탈린
##EC
군부
최후
##미야
액체
콘텐츠
1927
##유산
가요
속해
나섰
정통
하여금
덧붙
멸종
혼자
정확히
알고리
오가
정수
Te
기리
153
수호
이룬다
마스터
블록
재생
우크라이나
WW
동북
킬로
1926
도쿠가와
행복
지중
뮌헨
비스
아메리칸
##시스코
##DP
대성
항의
자이언
개성
경사
암컷
환승
돌아온
주일
풍속
알고리즘
##친다
화폐
##BM
법안
##오르
##up
목성
고시
화제
토대
172
대만
형상
1917
화합물
테크
##천시
베네치아
본토
항해
89
북미
이명
벨라
##olog
110
유배
##베르크
본관
##성군
스펙
com
##베리아
원시
1907
티베트
모바
유한
시트
파티
흔적
가깝
카스
오케
중지
##ire
대가
인생
##총리
노동당
독점
식량
프랭
발간
이른다
크루
후쿠오카
지역구
##너스
상속
약탈
세부
자산
##야스
대다수
##무늬
각국
탄핵
실업
관객
신장
법학
표본
빌리
##레오
총재
주문
유대인
사이드
앤드
종사
철거
Joh
곡선
복사
단층
필드
회로
##뜨리
테마
훌륭
대법원
오카
유력
##동생
여우
스미스
간부
농장
구름
My
강도
힙합
##성기
배열
특별히
Man
성직자
행하
세워졌
모바일
펼쳤
할아버지
관계자
휘하
##벤트
##ck
MS
석방
실내
적응
제이
250
167
철학자
국적
인민군
드래프트
야스
전제
스톤
클로
1912
치르
##ris
중성
174
이마
안드로
중추
분산
일체
물려
봉기
타워
조기
후퇴
프로토
세월
1905
발휘
추적
##베르트
드물
아틀
171
폭풍
양국
DV
로맨
쓰였
Ad
레닌
노트
크라
##ont
간격
타점
놀라
농촌
비틀
공룡
##과이
지휘관
모음
지질
스티븐
타율
##ivers
안토니
##rom
반지
거점
감옥
작위
정면
##구리
이날
살아남
으니
HIV
나서
파키스탄
압도
입구
자유주의
용도
중립
라이프
오염
다이묘
자랑
주니어
알레
장례
##ical
커다란
투스
시계
마루
동성애
사무실
기압
발레
윤리
##ive
나선
이와
종전
##리우스
원조
145
데리
##하이
기병
착용
동인
특별시
극복
피트
성종
진실
##사르
직무
안동
동메달
이벤트
무너
입대
##티오
는다고
79
부유
박스
그리하여
139
은메달
나들
대변
목숨
와이
글로벌
스프링
##드라
적어도
접한다
##ass
이어서
이스트
주자
지칭
스테이션
엘리자
al
빠지
개장
장로
세로
트레이드
그럼에도
아프가니
늑대
다다
선형
부품
근로
페이스
New
공세
과도
일환
재판소
오키
명시
##페이스
고조
언스
개명
수컷
1908
선교사
결심
155
글리
못한다
비치
주류
##저스
메탈
재임
조항
콜로
부처
##돌프
플로리
해제
##로지
영혼
##시스트
멀티
초청
ch
로렌
김성
선물
서식지
데려
북서쪽
맨체스터
타이거
공국
라트
##브라
Love
브로
연상
##제국
번지
보스턴
##ies
##센트
역전
나들목
아프가니스탄
배웠
##age
부탁
남녀
쿠바
모자
클래식
성서
##ep
임신
an
장점
하버
심리학
그러므로
부드
중동
드러나
Car
cod
교역
1906
올스타
합동
##레나
##ula
국방부
무늬
회색
돌파
베르크
오류
포켓몬
요원
##테스
사막
주재
Cl
남겨
페리
무용
##ite
안내
요금
원자력
강등
동지
영원
파운드
행렬
이즈
포항
도미
세조
댄스
타입
##orm
똑같
마감
어두
판정
##여서
동화
창원
르네
##슬라비아
유고슬라비아
요미
클리
사무소
EP
동반
산지
##ier
칼리지
##사이
간다
고고
전망
드리
지연
클래스
비하
이행
##미아
집필
평면
교도
나다
HD
구사
하와
콜롬
밀리
염색
국토
유입
쓰러
취리히
##MA
철저
##힌다
레이블
프로그래밍
##닉스
돌아갔
부속
##ann
##해군
항공사
##세대
##필더
미드필더
Ex
수직
마그
##공업
좌파
We
##레아
망원경
메트로
캘리포니아주
북동쪽
AC
낸다
놀이
스타디
남동쪽
##티스
동굴
때로
옮기
##데이
국민당
마틴
패턴
우에
JR
대결
하사
on
발전소
900
고개
코어
지중해
각자
가끔
##ase
유용
한성
사찰
베리
##자키
사관
대조
지부
들어서
히로시마
도마뱀
상처
새끼
목격
고안
마일
##리나
복구
옹호
접속
표지
삭제
현존
대원
밀라노
포유
자치구
새벽
판타
평론가
간섭
중종
대칭
음모
익스
대동
진동
투구
수반
모험
사신
수장
##ID
쇠퇴
우익
하느
##페인
하느님
벼슬
아이디어
##메니아
장갑
홀로
첫째
지수
##레이크
상주
일곱
공신
발렌
필라
##즈니
아르메니아
Gr
중시
카자
거느
웨일스
체험
포드
요코하마
리스트
##프라
리아
제약
##son
김종
놓여
서적
참조
##구치
pro
아무런
넘겨
소요
인터페이스
전적
149
자매
흥미
진술
규슈
성명
닌텐
닌텐도
미스
##ost
출현
146
운반
존스
토벌
급속
##니스트
납치
수천
정서
##데르
##위대
추대
트랜스
강남
통로
파트너
베토
입증
초상
민족주의
플로리다
쇼군
조화
탐험
사라지
단장
맞춰
과장
레벨
압박
연소
연계
해협
일으킨
##코프
배급
광산
##고속
가르치
들여
문신
토마스
해진
##ach
전당
전동차
고서
선제
유역
OS
##마이
신도
수감
##ere
UN
강전
##AN
북아메리카
실점
Pr
리투
비중
바이올
샤를
##제르
특허
챔피언십
WWE
이조
캠프
킬로미터
예외
위키
제네
매니
##ound
국기
##배우
스타디움
되찾
초래
##키스
주의자
양산
위안
헤드
##인물
기갑
당신
가해
버지
시모
프레임
경유
우드
늘어나
로즈
코트
##도사
겨우
DVD
인력
레지
매각
거둔
##추어
##tem
손해
함경
##런스
명사
##래프트
왕가
메달
도호
원로
곧바로
##둥이
합니다
잠수함
관중
##믹스
모래
서인
저널
기관차
베토벤
예술가
##les
남서쪽
프로세서
복제
일자
Su
적색
칠레
운항
AFC
##도니아
좌익
Br
기용
사립
편의
비즈
생애
의석
협약
드러내
Univers
삽입
테르
##필드
지표
주거
비평가
올린
인치
행해
두려워
169
시게
콘스탄티노
꾸준히
의정부
##ung
Is
다녔
증기
김대중
1911
부작
파울
쿠스
윤치
매치
무산
배제
황태
##리그
고립
기생
안보
평생
운동가
두드
외계
호조
##다니
모집
세워진
사로
화가
##으므로
La
구장
리듬
직선
직위
147
BBC
이오
폐기
SN
메르
신임
##아르
구리
필립
나폴리
codice
상수
교과
트럼
요미우리
농도
조선인
베타
내장
압축
왕립
141
박근
모로
파생
##애나
1904
가하
기온
색상
십자군
싱어
밀접
전향
MV
시달
오리지
전승
##슬리
자이언츠
대승
##ern
##프란
탑승
빨간
##ium
연금
##다른
아오
여서
일행
이수
에스파
태자
보좌
걸리
존슨
비전
선두
원장
부패
충성
칼리
동일본
아마추어
John
산악
무슬
타원
시집
별로
비단
재무
FM
문법
불화
##권자
##주군
버지니아
진지
연구자
곤충
##우치
와중
교전
##키퍼
개찰
골키퍼
가톨릭교회
남아메리카
거친
##슬로
어워드
유인
Or
구로
기름
스승
스트라이
무슬림
용기
퍼져
하와이
청동
##아니아
세균
고교
싸웠
커뮤니티
##루살
##Pa
##튜브
라마
중계
##루살렘
##ous
오케스트라
강릉
미만
김구
붙잡
정교
카리
포크
축구단
AM
사촌
키스
문재
방안
청주
칭하
삼각형
##스팅
##히로
유비
최우수
유튜브
##방송
크림
##사관
사료
##ED
기타리스트
미술관
관하
유아
##아나
노무
천안
사카
변신
트라이
##AC
미카
##슬링
1909
그려져
공립
이재
주사
크레
##로운
지지자
트럭
##자치
협의
##ala
루트비히
얼마나
모시
심하
마오
조명
##라트
마케도니아
##밀리
박근혜
우루
KT
평소
오리지널
내륙
##ick
##멘트
소행
용인
유키
단종
##AM
건축물
아기
비잔
융합
가게
144
디오
World
권고
나이트
##land
토르
교차로
시호
좌석
##yn
분배
증권
필름
고르
예루살렘
주파
야기
##보이
##트럼
##총장
간접
대안
##타운
##플레이
점성
신하
몬테
모순
##ear
베른
전염
나타난
걸려
던지
머물렀
고분
얼음
##카스
##랑크
부호
수지
무관
연령
트레이
퍼시
여인
173
들어간
빅토리아
색깔
적대
##ron
##ish
##ame
완화
운명
가질
동사
단행
약칭
경남
계단
##ile
스펙트럼
레이스
개발자
건담
자책
플레
SF
이에
출판사
예언
가득
도심
행정부
KBO
시에
토너
노조
벌어졌
아도
히스
상소
##베리
다큐
도메
아세
저기
알렸
페루
1915
자마
침해
##az
안드
전해진다
자문
선보였
##베이스
##긴다
리치
야생
역과
경찰서
게시
하천
엘리자베스
아가
오디션
패러
##이즈
##ft
아마도
명문
##IS
아울
정계
##일본
##나르
빨리
스와
저택
권유
성남
출산
학파
콜롬비아
대행
노인
대단
돼지
유신
훼손
교섭
만난
할당
대사관
조언
후자
급진
배상
##영상
1913
##ool
##게이
디자이너
샌프란
샌프란시스코
조류
설비
코리아
품질
루수
무선
차체
해임
기념물
##몬드
1500
케이블
기하학
부수
회원국
창간
모노
##때로
반환
선진
악장
관광객
모니
##amp
IP
기점
체인
펼치
148
비틀즈
육성
##부사
지휘자
측근
그래프
시아
의병
최상
블라디
그쳤
열매
전작
추락
쿠르
##IN
부동산
때때로
호평
두드러
사당
착수
09
발효
토너먼트
금강
플라스
문화유산
내내
종로
번주
봉사
피렌
관념
당사자
마쳤
기단
랭킹
그랜드
분지
심한
코너
스크린
##클린
들어와
관습
호르
##란트
1896
##브스
존경
문인
대한제국
플루
흔들
신전
판매량
식사
옛날
물러나
개수
지각
구동
산타
지주
125
판타지
변동
파동
##대문
Ed
가쓰
##old
검증
서독
##리케이션
믿음
##bert
주행
피렌체
시상식
퇴각
##orn
수수
호남
광역
El
과일
##어로
발현
라이벌
143
매개
취약
사망자
바오
동전
살펴
##ale
교향곡
히어로
못해
사르
시체
여신
한나라
디즈니
벌어지
중독
대령
##레드
과제
저기압
Ac
우지
All
한나라당
셋째
팽창
피난
발족
충족
감지
기종
긴급
##ON
##토미
hPa
노비
착륙
하드웨어
거인
서서
##스부르크
참가자
알바니아
08
It
삼각
일관
혜성
##가시
스카이
1895
제주도
상하이
자사
항일
민속
상상
투명
##yl
거슬러
자면
친척
##악기
예배
제의
연주자
우르
103
히데요시
성벽
입사
임상
##ance
##ome
귀환
루터
직장
미네
찾아가
부흥
여동생
렌즈
받침
정벌
##외선
동영상
이정
전남
##세스
##널드
등장인물
사로잡
중국어
태어났으며
##문학
호환
비즈니스
실용
번식
##PS
138
상영
##회의
##가스
궁정
말라
문하
전임
마스
자고
##폴리스
좋아하
상임
상류
진흥
알렉산더
합작
토머스
몰락
커피
서열
인자
1916
격렬
##me
##하르트
이토
##아지
##oph
상부
##로디
신비
##슬라
하버드
미얀
아크
왕족
SC
비극
사라졌
부통령
붙이
점유
빌헬
##타카
반경
스트리트
버그
정자
생명체
입문
바그
##럼비아
##트니
긴장
별개
중점
종족
127
없애
회수
에스토
##결승
SM
부자
수명
105
128
링크
토착
##트롤
##잡이
센트럴
끼리
아리스
관장
모으
자손
전장
정사
콩고
서북
유닛
중재
카페
석탄
##터스
5000
수비수
01
떠난
##조선
연루
현종
힌두
##멘터리
아이스
북동부
바티
스릴
##ree
에스토니아
ST
됐으며
향토
위주
자회사
떨어졌
외무
##ma
로맨스
##어트
서서히
와카
정류
##ica
부산광역시
Ge
강연
공략
환원
##크래프트
136
바이올린
사직
항목
협의회
반격
장편
향한
##산물
애플리케이션
급행
부착
특급
##유키
135
디비
배수
##러미
노드
수면
or
부리
이루어진다
친정
뛰어나
##식물
합법
##tt
아군
용량
난민
최적
천문학
기차
동등
사물
관찰사
특유
이명박
와인
유성
장사
##어리
요크
##토시
142
대주교
원하
##받침
가르침
MVP
동아시아
유격
유가
##AS
짜리
스마트폰
빌헬름
소금
##랑이
응답
##ose
다큐멘터리
최소한
구제
전류
폭스
곳곳
지목
##oci
##iel
##나카
동경
부시
사사
서브
주립
##ix
##IC
금액
약한
Mus
##OR
노무현
##마사
사이클
내지
108
아틀레
PD
애국
무신
조국
##ork
남인
노동조합
데이터베이스
리투아니아
기재
인과
하노
인산
주한
폴리스
드럼
주어졌
이어져
무인
뱅크
공전
법령
##수수
술탄
##카오
중국인
고원
##혁명
3000
04
프로세스
보전
최신
학명
회견
아미노
니아
비로
시정
신용
무효
게재
아비
전북
##OC
##티움
메디
조용
오다
##교육
CE
기다리
명목
묘지
미쳤
바흐
사면
식별
프랜
하이드
##ism
끊임
매력
브라이언
수신
추격
월간
따위
##eth
영광
참판
Intern
섭취
준우
페스티
스케이
페스티벌
##시온
마케팅
소니
텍스트
해인
DS
유출
우주선
자마자
피스
흥행
경선
장인
전도
강사
지나치
스틸
전진
외곽
위장
차관
Tr
##균관
토니
##ts
사명
클린
해설
후일
Gre
끌어
주권
##문관
On
소나
악마
초연
##tor
스릴러
각기
도어
##나마
소지
성전
명종
스테이지
로고
보충
##소스
##ina
상자
카자흐
성공회
청와
일찍이
버튼
전례
##상스
어릴
자민
자발
자율
인격
##경기
아우구
어두운
테오
##루미
청와대
도리
아케
지분
##rans
동구
자바
편곡
부과
손가락
알라
##마치
기금
##플러
기상청
계수
사절
시라
일족
주파수
일렉
정점
한데
가져왔
교단
컨트롤
벨라루스
MP
마라
무라
체육관
이민자
행진
##ke
선사
앨런
여겼
존중
##엘라
137
중도
진군
PS
나미
정밀
DJ
책봉
가라
목포
방침
##ox
University
공과
Fran
고사
돌연
촉구
##데이트
보드
브라우
수평
업데이트
수상자
아울러
러브
건너가
발트
지름
담배
메타
스쿨
원나라
탈환
##ign
자전거
그동안
성균관
문제점
Go
사다
정찰
준공
캠페인
##tis
양상
##트랙
준우승
구미
##oth
단기
세례
승무원
##가루
건축가
ex
테스
환상
##che
##칠리아
갑작
마친
선원
이리
사범
푸른
##우옌
라이온
소설가
이슬람교
##ystem
근접
매주
부재
사거리
원산
전두
하인리히
##공사
르네상스
죽였
##수아
102
아베
포장
명백
##레이터
##gr
##모니
상대방
##are
도왔
##ons
여진
준결승
주머니
청사
##페이
CPU
고발
전이
##즈키
수용체
하부
포괄
무거운
수학자
숭배
이슈
##스토
영장
회화
비아
백신
가장자리
##라이터
남긴
사인
엄마
팔레스
평행
##보살
대처
할리
회계
##동물
##메르
도메인
고무
패스
일어난다
레이다
드래곤
메가
보스니아
며칠
천문학자
동남아시아
트레
##TC
배정
국어
성모
에릭
엔지
오타
미얀마
세션
인텔
동년
암시
화살
##야수
##oll
민국
초창
일어날
둘러싼
##페이지
sp
매사
구마
달린
카이사르
객관
##ola
##무네
상당수
Comp
공인
기습
바치
AS
물자
슬라
옥스
진리
공격수
이복
트위
개업
니스
유연
즐기
홈페이지
##지마
##올리
건의
버린
우연히
보통학교
다이아
겸임
윌슨
적자
식당
이종
주지사
박탈
알코
1894
##아리
불편
마찰
121
버려
착공
패하
##ES
멈추
제트
##석기
협조
##로프
##예프
에이스
지바
포수
북서부
중장
여겨졌
베이스볼
단원
서일본
유언
이틀
타카
호칭
홍수
##차례
순조
일식
친선
표명
넘어가
모이
가벼
모방
블루스
유해
팔레스타인
유교
응우옌
##리티
포도주
드라이브
직책
총사
##란다
서울시
게이트
암석
##그라드
RNA
관현
성씨
오렌
##킨스
수용소
가르쳤
And
전문학교
초창기
기아
원했
문과
하트
사슬
우울
##att
스러
07
경북
동로
드림
물러났
관통
##서양
리오
섭정
연인
우편
창업
통행
센서
##나와
상세
첨가
후방
상무
전함
쫓겨
보잉
속성
대위
신칸
무려
##IT
둥근
소총
해전
##커스
##델피아
필라델피아
사바
소실
송라이터
연애
총대
규격
한쪽
##서리
##런트
거느리
고체
단점
야간
##츠키
벗어
휴전
제작자
원자로
트럼프
누군
향후
치세
광해군
##ene
지나가
배신
서사
교외
앞면
통근
##tu
인플
추모
##안군
에스파냐
엔지니어
장려
전지
##사전
##악단
우정
타마
1890
급격히
좌상
쇼핑
##ai
##자와
##하면
계몽
도주
오디오
대답
캐스팅
나리
든지
좌절
##own
동력
마운
몰려
탐지
##네이
번영
트윈
한동안
후대
보완
소닉
수동
##카르
##int
자유당
척추
책임자
법무
들어온
신칸센
피에르
##대군
112
여지
내려가
크리스토
##리크
디젤
부른
함유
실종
써서
원반
점프
포격
##생활
ar
오클
탐구
하우
##ild
과목
따뜻
쉬운
주축
##ET
묘소
평야
##pp
##져서
비잔티움
DC
버린다
끌려
목조
할지
공의회
교장
민영
신세
한양
중순
품종
입체
중구
제네바
눈물
허리
##카드
맥스
##디스
정말
이어받
스파르타
프로토콜
06
글씨
기인
날짜
로빈
장성
제휴
자기장
당일
용산
투르크
낙선
차기
##주의자
퍼시픽
선구
자책점
아즈
추상
충실
##부인
깨달
리어
실린
풀려
휴식
디스플레이
##고속도로
종결
##ime
111
관리자
이에야스
위임
사회학
매카
삼진
의상
키프
앙리
풍경
##길이
##anc
계절
의뢰
캄보
반박
왜성
##mer
음원
치아
카시
매출
출구
공용
신속
우즈
##lo
MC
동독
저하
대교
서해
전성기
창시
축적
##ake
리버풀
성숙
즈음
진나라
Ab
대포
마비
미하
분광
##리즘
시드니
미토
해역
##전자
다운로드
고민
도호쿠
제후
평범
생일
##지스
스페셜
마약
조달
폐위
##의자
이이
편리
##구장
에다
연패
가미
경부
냉각
원내
한강
##일드
부르크
부채
남한
장난
환영
껍질
저명
하얀
증후
격퇴
파스
##제프
로프
패전
1902
스파이
의거
분비
진도
en
강경
고베
세미
안티
미분
병역
송나라
출입구
왜냐
파업
##양군
NBA
노란색
몸길이
소통
##개골
##다드
수군
아바
##주곡
중심부
돌리
문양
박해
추출
인형
##erv
126
117
다중
정전
총괄
몰아
109
소재지
바라보
대역
리얼
미스터
봉쇄
부적
취지
##베이터
For
콜라
##enn
시청자
김해
만세
머신
빠졌
118
그랑
수령
치열
##다고
들어왔
NHK
생식
이긴
인천광역시
잡아
다스리
리메
입지
주차
호기
십자가
123
크리스마스
05
어울
원고
카탈
##니치
승차
협동
오렌지
마리오
북방
시칠리아
지능
차남
초과
확신
히가시
##스케
스페인어
스트레스
금성
다녀
억압
##ction
고백
되게
부도
소환
수산
영리
안드로이드
모른다
사리
쓰인
조반
지장
파장
초상화
증후군
기요
한족
김영삼
좌표
104
공자
컬러
##원숭이
1898
연고지
겸하
신학교
혈통
대군
주말
깨닫
창고
IT
신학자
전념
카타
근로자
상담
연수
육체
타르
광년
도르
재미
견제
대외
디비전
이순
자아
크리스티
Bla
이사장
Pla
브래
에우
투르
후지와
독립운동가
##ology
간호
무죄
열대
하락
##ley
궁극
두산
##OM
106
캄보디아
테일러
해소
##느러미
생산량
가즈
이를
스케이팅
ne
공천
롤링
##ii
언제나
신생
이노
컬럼비아
여의
육지
최저
하마
동위
두개골
붙였
##ven
1901
배터리
나가사키
문재인
루프
채무
침몰
미주
##ans
유니폼
게르만
발해
오빠
케이스
##람회
항공모
Qu
심의
힘입
##크리트
스피드
내린
##자스
북극
숨겨
우세
##화점
지냈으며
발원
##MS
정류장
께서
펑크
두루
마산
여당
염기
우위
사우디아
리우스
비문
슈트
1899
일요일
##AT
##노부
황태자
요르
고가
113
노부나가
떨어
유소년
##수엘라
##모어
##row
그렸
신념
어업
프레스
##은색
다양체
마인
탱크
엘리베이터
##de
물리학자
생전
스핀
치명
순회
아폴
132
Tra
133
케네
##드리아
구조물
시선
베네수엘라
왜냐하면
바실
지자
트루
Amer
대제
맥락
무제
축하
##iam
강과
매입
별칭
샘플
##릴라
360
아예
받아들였
항소
슬로바키아
누군가
백색
양도
증대
##gh
1903
그날
보일
공모
보인
직면
별다른
성취
124
동점
자랐
진짜
현저
119
고래
레논
카트
Mo
시골
역설
##ML
세계관
결혼식
No
어드
히라
매달
상공
129
업계
적당
International
소유자
단단
모았
제독
토리
병행
##ius
극히
이빨
이사회
라트비아
낭만
일자리
결코
친왕
탈당
효력
구호
스터
신규
재현
페어
전두환
기질
한지
합창
1897
관람
빈곤
안양
열정
사우디아라비아
공민
민법
이산화
조르
천도
추세
시내버스
테이프
나이지
지혜
레이저
시나리오
염색체
나이지리아
볼리
항공모함
조리
##노리
지폐
차종
청하
테니스
폭동
골프
신중
곡인
갑작스
목재
석가
공산주의자
Ste
후세
카자흐스탄
거론
공습
에티오
이식
##라미
107
분명히
에티오피아
바퀴
피고
허브
원로원
침투
##추세
개찰구
중성자
내보
시오
도루
쇼트
##라이트
네이션
어휘
전했
매사추세
매사추세츠
배틀
별자리
시공
##란히
##Hz
바닷
내외
##무기
현금
중량
##중국
통치자
개종
몸무
통증
통칭
후안
몸무게
개미
박영
설탕
인연
전압
최악
해수
##way
##사기
##ife
우루과이
불명
링컨
서재
해준다
객체
교원
유죄
##리니
규범
뒤집
병조
쓴다
혈관
##키지
여파
콘크리트
115
134
몰래
##행위
총선거
신탁
천사
##태우
02
Will
을지
해병대
SP
라파
레바
태생
뜨거운
인재
출토
##네스코
##ta
자치체
늘어났
광학
복장
서남
양측
조종사
CC
Her
빌려
성체
중위
코프
트위터
막내
경보
선종
오해
작센
청원
##IM
1884
가죽
거행
광물
오키나와
한성부
연세대
프랭크
고수
칭찬
##라리
강수
세속
실리
카나
호프
휴스턴
##enc
우라늄
##ark
알코올
닛폰
이원
입당
##다이라
물려받
범인
우루스
케네디
사가
수습
장거리
최대한
창건
해변
감리
사헌
중합
회고
아랍어
증진
##어버
소매
사이버
미소
시초
왜곡
122
드러났
가짜
반감
##토모
아이템
태양계
그만두
봉해졌
중소
결함
고소
관해
극심
나고
성사
##가타
경연
관해서
기수
언더
갤럭
성주
잔류
토스
외국어
##그로
모스
##산군
##셰비
장학
표적
##선스
등재
수성
순교
퍼센트
##푸스
물리치
350
왔으며
전대
투옥
교황청
시위대
남서부
사헌부
실려
제재
##und
일조
실체
##트릭
그루
황실
##르기
가마쿠라
담긴
즉각
협박
오세
갤럭시
Op
구도
구출
베드
유수
태수
실시간
리메이크
EC
기어
본국
위쪽
힘든
서울대
번뇌
빠진
아과
라이선스
페르디
남동부
03
Ag
데모
마디
평원
##바다
마하
운하
유네스코
언론인
루시
상장
김동
누이
해고
근교
평의회
##언스
제곱
철회
한화
호위
##스기
나고야
Sou
한인
##ress
마이너
GDP
남극
대폭
신기
##리에
##대신
달했
방패
욕구
주름
외교관
제압
화해
##케이션
이인
##선거
##ins
뒷받침
시즈
온천
윌리엄스
그로
##규모
le
몬트리
토마
연합국
모니터
몬트리올
##바지
III
단식
##타고
##말라
##붙이
황해
##AP
##승부
##시피
Pe
산란
상단
임용
디비시온
브라우저
##라이더
안장
유동
##팩트
드문
정렬
누가
면허
##ward
새겨져
이화
##장히
패키지
내주
에버
지출
##TS
전라도
먼지
타당
##co
##포스
##ise
EU
북위
입원
##tiv
진상
##톨레
생겨났
##먼드
차이점
그램
에디
##ink
기장
벌금
일방
##푸르트
희생자
담겨
만일
용병
통틀
블랙홀
알프스
AR
봉건
전자기
가면
고장
부당
대피
##우라
데이비스
가동
미세
서정
내려오
채권
##대기
독일인
이어진다
Gu
존속
##소수
아이슬
애틀
##시티
페널
수렴
충전
개관
거울
도장
##벌레
##omys
복선
첼시
석탑
양키스
##차기
BC
우호
천장
##수소
##은이
##브리지
스티브
Cla
규명
리뷰
못할
주주
토성
##집합
114
공백
공직
소규모
1871
아이슬란드
뒤쪽
보리
송시
할머니
##바이잔
일화
해적
Cor
지류
아인슈타인
보석
실장
날씨
비유
시외
##ail
##회장
아제르
##승지
찾아볼
래퍼
아제르바이잔
As
군중
도스
국무총리
상서
##항공
프랑수아
플랫폼
고고학
로열
사육
수색
시베리아
##리케인
비로소
고치
곤란
만남
키우
늘리
심해
확실히
CH
Har
Je
LP
허리케인
##실록
##ash
장안
##오리
##데시
구릉
대거
종착
피츠
##래스카
##연합
##글리
스페이스
브라더스
합스부르크
해운
##시로
Bar
날카
##양함
플랜
##나리
격투
끌어들
소관
신흥
용이
우유
정무
조연
구해
상점
리비아
산림
##yc
스타크래프트
##rop
멜로디
축출
##퍼니
아이디
정한
지선
치안
##도바
1800
커지
해명
채워
##TO
동아일보
갈릴
믹스
일러
##루션
##노프
영남
영의정
토크
##ble
1860
냉전
바리
배구
종속
이글
전년
처녀
사본
연쇄
1885
총독부
가축
공수
취재
어려워
모친
석조
수축
탐사선
기다
단절
반해
대학생
National
메커
붙인
성운
음료
인문
추증
플라이
아사히
파인
펜실
##고쿠
스튜어트
##베이니아
펜실베이니아
글루
종래
##fer
테이블
지자체
##셰비키
김수
나트
주어지
흔한
##다지
##ener
이끈
조선일보
총사령
뒷면
무상
컨셉
퍼지
##일으
##운서
불러일으
교과서
애틀랜
브로드
주가
헤라
아나운서
다이아몬드
Ass
선비
풍자
##lic
아리스토
학업
바깥쪽
전한
##포트
##마드
##랑카
더글
실망
어원
##EN
나올
마력
발라
부제
성별
호세
IBM
그냥
극동
살아가
오바
진공
##ater
마쓰다이라
치즈
화자
##치오
##블로
덧붙여
##마이오스
빨간색
과반
역명
##ition
폭행
##ey
Ins
미생물
승자
촉매
혜택
예능
횡단
##누엘
미나미
키프로스
배후
상반
들어간다
계정
주역
메커니즘
피에
하워드
쌍둥이
포병
드레스
아랫
탐색
바른
소나타
관절
근원
밀집
상용
스톡
알루미
무승부
시그
약자
은데
학계
귀중
서신
원숭이
조부
##ata
일반인
1870
옹립
페널티
Pa
나르
문구
##조부
라이브러리
살리
염증
사업자
사상자
경신
국사
##조건
##속기
명령어
김용
백화점
변이
사토
숙청
1880
Kore
민감
트래
문예
발병
시바
개막전
어스
이광
반도체
To
카리브
승점
창출
패한
분당
위탁
춘추
헤비
##ower
중추원
둥지
팔라
CS
아타
호랑이
가벼운
IM
신선
응원
##거진
##교도
체코슬로
체코슬로바키아
가신
바이오
소셜
연이
왕복
##레기
##red
AD
미즈
수련
이영
일으킬
드라이버
구절
악단
##바닥
##나스
비자
우측
매니저
##ank
##ames
끼쳤
비시
진급
칼라
퇴적
##ult
세이브
스캔
신약
양주
영국인
피신
드러머
그치
이남
일컬
집계
##덩이
프톨레
프톨레마이오스
관세
뇌물
##we
힌두교
레일
자선
바티칸
앵글
초월
시립
신민
##박쥐
##테르부르크
블라디미르
Res
루타
미루
후사
흔하
숙주
##enti
후쿠시마
성단
실전
야쿠
오비
컴퍼니
파이어
be
답변
지평
감행
기증
컴파
패했
기적
누나
효종
Char
거북
요동
요건
만성
설교
일생
펠리
##제리
가져온
대패
클라우드
드라
소모
신시
여주
##아이
지식인
매카트니
생체
속했
언니
이단
정세
카롤
##기지
##que
유로파
김재
나스
바스
벽돌
지침
송시열
서유럽
허위
##올라
방사선
윤치호
말리
시어
연도
우파
플라스틱
끊임없이
NG
돌격
is
교정
일가
한테
동정
몰리
예조
##OP
알루미늄
Ind
머무르
희곡
##위원
##eter
프랑크푸르트
루이지
시가지
제갈
폭넓
##ream
Colle
대변인
거쳤
박람회
요하
통보
##AL
팔리
내정
네스
경상도
One
들이
밀양
앞쪽
영동
장미
청산
토양
문학상
캐시
장례식
다발
마야
특권
합계
고령
어렸
인체
차가
##스틴
제수
##기업
부여받
민간인
Per
상표
승계
유년
평정
한스
##II
##itt
아미노산
##ye
##oup
장기간
필사
116
명제
신조
##hel
GP
상해
지인
징계
체류
키보드
##베니아
##코딩
이겼
##페르
삼촌
판본
강희
연승
재선
전방
쾌속
##ler
폭격기
공명
사모
쥐과
네이버
레전
보복
질소
슬로베니아
So
군정
나갈
던져
명의
보증
재상
##줄기
##변이
가까워
돌연변이
옆면
##비나
##ald
각도
걸렸
더니
워드
채우
##시타
##마루
그래미
그레고
터치
바오로
그랑프리
모서리
예시
제치
기술자
스트리
오프닝
갈리아
대출
베스
줄무늬
입국
자택
젊은이
후궁
성문
외모
##카가
경찰관
최상위
항쟁
차장
지도부
Sm
말미
유저
포획
##법인
공감
##vel
##타주
##포드
치러진
성도
##마쓰
우승자
할리우드
고쳐
공단
수분
오노
침체
발렌시아
법무부
소원
케임
##끼리
##공신
Can
블로그
입각
토요일
혼동
레바논
이드
필터
##타이드
성리학
장벽
제대
##베트남
정치가
SD
였음
이고
##단체
게스트
물품
##문트
##고래
동행
불린
애덤
유방
히사
히메
베네딕
승부차기
체크
포럼
괴롭
보트
희극
1600
정적
줄여서
##port
##즈카
리틀
행적
##ican
ac
광대
헌신
##내셔널
##구르
사회당
인터내셔널
갈수록
비리
##to
아시카가
동조
왼손
이소
잡혀
스위치
동국
신한
의자
이윤
운동장
초신
호출
##먼스
트리플
##ky
##샤바
School
으려고
살펴보
날아
불신
핵무기
파이널
공방
로이
외관
하프
131
CN
con
검출
카디
##lex
남양
파란색
사용자
1868
화장실
NC
색채
추론
가루
수법
왕세
일리노
조립
나비
발리
보헤
선배
인질
재혼
감자
맥주
아부
이진
절단
타임스
테레
평일
##들리
러시아어
브리튼
도요토미
로베르
예고
코믹스
##롤라이나
들어갈
1889
일리노이
학기
해밀
##테인
곡물
몰아내
상사
요정
조세
레전드
동래
원전
러시아군
단축
양반
지미
경찰청
야마토
바빌
서진
연꽃
벨트
아담
체르
##저지
더욱이
모로코
격차
고인
수확
시킴
자비
중의원
페르난
옥스퍼드
리라
무지
바꾼
북아프리카
오크
##린스
##람쥐
대표작
대두
라이너
연합회
구축함
이용자
TH
연호
정변
티스
헌정
War
기각
뉴저지
복용
부를
상역
원본
##타리오
##IP
호르몬
갱신
공익
괴물
무어
서경
암흑
적도
##닐라
파산
구경
혐오
바이킹
레온
차르
정해진
따온
베니
에미
영문
잘라
##ini
SE
간신
감수
리보
어미
학대
제국주의
그다지
선동
선행
속주
시코
전위
##로이
총대주교
SA
노바
역량
##벨트
클라이
##지붕
커뮤니케이션
ph
가려
쌓았
마츠
무너지
이세
주조
희귀
아래쪽
보위
사위
어른
응시
##타민
##수리
##RA
슬라브
농림
뉴턴
조승
나주
면제
이케
패널
##시즘
프로게이
필리프
프로게이머
감안
미르
입성
##form
나타낼
당한다
발기
분출
##무스
##LS
##ane
돌기
만료
방송사
관제
꼭대기
디렉
브리지
핸드
##미사
##대원군
##개미
##갈색
천문대
저주
기사단
강풍
경관
부가
비르
##레타
##더슨
사지
서류
웨스턴
정립
표방
##야시
##텔레스
Don
동당
밝기
아카데미상
넘기
적혀
좌측
채소
초록
종로구
농부
산출
제프
건륭
두꺼
서자
실재
워너
중산
##블리
수년
의약
이관
##컨대
니콜라
되돌아
둔다
벌인
슈팅
취업
한층
케임브리지
남작
진사
##피어
##inc
시켰으며
알렉산드리아
공민왕
아리스토텔레스
견인
권장
시범
우회
페니
형조
##화물
가져오
카를로스
공적
기숙
소시
어류
저렴
이순신
다름
아돌프
적군
청장
태그
##크라
##니카
##틱스
간토
러시
CF
la
동상
본문
상트
##ps
##포구
##짓점
이글스
꼭짓점
추종
화강
##oss
공황
연봉
원천
조수
천재
체스
컴백
##ner
사이토
##irl
득표율
리프
맞붙
헬리
아미타
가열
게이지
국내외
Black
광부
너비
느리
알제리
확고
with
방화
하단
가드
대치
타석
안테
요르단
공조
난다
리우
회피
난징
마블
##하루
트로이
누적
대부
중생
캔자스
커널
핑크
막시
무슨
##세기
페르디난
아라비아
칼뱅
##디나
세이부
선도
오를
잃어버
ISO
부작용
sh
택시
데르
##황후
##드르
새로이
Sa
SU
미라
반군
##두리
극대
바나
기르
돌출
명분
##브르
부피
서민
##클레스
##올로
방사성
부드러운
Fl
감마
국영
로우
발급
중복
황족
##TP
##브레
미시시피
빌라
지녔
였으므로
##ella
폭포
강대
나눌
독성
매수
매매
다니엘
거처
##프레
##펜하
아이즈
트윈스
세라
임관
케냐
퇴임
##테리아
고속도
트로피
ID
뮤지션
열심
타협
##지르
병기
파벌
헬륨
##프레스
Day
개화
극도
서머
연대기
##퍼런스
군함
##사이드
된다면
바르샤바
간단히
동맥
둘레
릴리
베어스
석회
온타리오
##카타
1883
갈래
고아
포터
구형
티코
유대교
양성자
프란츠
Rock
강변
대명
비뉴
전구
해진다
##be
Rec
미키
분량
여운
##그레이드
야구장
올라간다
발령
수녀
신주
아닐
카우
화상
간선
김진
라오스
종점
220
업그레이드
오피스
언어학
점성술
Mon
교양
당수
데카
이브
토모
##ings
기분
로비
모은
목판
바우
부설
폭로
함선
Mag
##ger
##페테르부르크
##ros
거주지
전염병
상트페테르부르크
낮추
달아
명하
빈도
이데
중형
첨단
##츠크
능선
돌입
벨리
보강
볼셰비키
카스티
##산면
그리스인
비행장
살려
지옥
찬사
포도당
새겨진
친일파
강간
손꼽
구스타
김상
남미
빈번
순천
유체
유라
##토르
로그
성폭
접수
그랜
등용
인프라
포식
1882
각색
검열
경작
농사
시야
여수
민사
심화
퀘벡
1848
des
도카이
밝힌
이지
##으니
그렇지만
마오둥
HT
이동하
보수당
대관
반공
봉안
싸워
어려서
Gra
구스
나열
도청
임원
해부
##창군
의결
##idae
파이프
동성애자
연평
크롬
라이언
그레이트
연예인
미노
아치
축물
평민
하르
##na
##우트
##뜨렸
분기점
CEO
관행
불타
브뤼
안방
총칭
파병
##AF
##타로
##질러
##평군
중앙아시아
경성부
안토니오
김태
부스
사살
진전
나란히
민회
##충류
나눈
사간
##sch
아나키
아리아
##기니
지방산
제조업
빙하
시가
워크
자오
옮겨졌
##폴리
상대식
1888
권총
당연히
즐겨
경제학자
아폴로
깃발
동네
미들
주부
그려진
번성
시흥
피오
붙여진
CR
무조건
역사가
삼성전자
검찰청
경과
당주
사업가
뉴욕주
플래시
공고
양육
##의장
복합체
Med
발칸
상경
보헤미아
Gl
기니
취항
협주곡
이타
컨트리
##아웃
미하일
구할
버마
비주
##AD
기병대
나노
미션
자형
중령
호의
쳐들
홈구장
화력
##나우
아이오
ATP
고산
스폰
##바시
뉴클
니코
대본
청소
페미
##고스
##erm
무함
센티
자작
호응
sc
부회장
어뢰
원료
이북
체력
회상
##군다
콘스탄티노폴리스
쓰시마
휴가
로마인
신원
##iti
개인전
구와
러셀
비석
쓰레기
태극
AK
가옥
김기
음향
Of
##GA
전시회
김규
모호
부조
서문
신축
유권자
집정
코끼리
일부분
일렉트로
엘리트
일파
프론
흉노
##그라
##브리아
가가
불꽃
인명
전속
리더십
450
se
갑옷
내면
오라
제인
광둥
도라
실무
클라이언
##자르
클라이언트
산다
상연
소령
헬기
다를
불행
수료
##테이션
우즈베
그레고리오
맹세
##타임
##파르
살라
##ject
거짓말
골격
정화
커스
구이
려던
시레이션
전복
다케다
마운트
모인
무명
발각
습지
어요
자르
하고
반지름
게릴라
김포
드로
들려
마스크
맞대
소생
##도스
이성계
겐지
반전
종말
##ole
생겨나
국소
당내
장제
퍼스
##역학
동학
실적
옥수수
자결
함정
##하키
##퀘어
스칼
홍문관
##MI
이주하
##ike
다크
룩셈
아레나
요법
입양
청색
치른
특색
룩셈부르크
교량
물가
앞장
에는
자음
징병
창문
##yd
##어질
예수회
선보이
구약
벤치
벽화
지우
##바른
1893
통틀어
고트
섹스
수중
포스터
활주
##티넘
##반구
플래티넘
생계
1892
미네소
가계
반역
지켰
함부르크
##박스
스크립
둘러싸여
도마뱀붙이
결선
내성
버클리
볼프
왕정
퇴장
호족
##bo
브란
에밀
이룩
철폐
흥선
##살이
어려웠
오른손
스리랑카
대문
서초
직결
회관
##빌라이
System
me
동유럽
여래
이점
##소통
프로덕
경쟁력
남동생
Dav
동참
용서
##OL
후반기
익스프레스
잡아먹
포착
##pt
##ode
의사소통
Pl
대손
따랐
천하
피로
두려움
동치
오로지
입상
자칭
짐작
##rist
##ana
1866
Fe
국유
단선
북경
소말
연산군
남매
대서양
배양
약하
코카
크레이
향했
##ral
##텍처
는다면
아키텍처
농경
대니
제로
##파이어
##캐롤라이나
반란군
개개
밀란
사슴
자크
패밀리
퍼포
##able
강수량
줄어
투항
##퍼슨
at
원종
이준
##글라
관광지
퍼포먼스
레즈
##그리
##축구
넘어갔
염소
증손
카프
아무것
투자자
총사령관
광무
궁중
해져
##ual
##테르담
다룬다
두께
설화
후한
정부군
설립자
조반니
개소
독창
마녀
불어
장원
##uk
##하시
자세히
LA
루카
이득
쿠빌라이
합당
##렉스
Life
개교
교대
최강
세비
##ele
교도소
GS
un
체조
퇴역
##기구
뉴클레오
te
게리
줄리
탄도
항원
##res
낙하
집결
##쟁이
올랐으며
극작
소대
입수
##카미
충청도
시달리
개항
사쿠라
포고
단의
덮여
민정
워터
칙령
프롤
이탈리아어
동시대
타이거즈
스트라이크
감동
타일
##니까
##공산
##헌영
##ino
기념비
사무총장
##titu
Ber
Pol
중공
하차
##부르
##ouse
감금
독서
열도
온갖
우물
의의
##inal
복음서
보이스
Ele
##백과
##enter
페이스북
맥도
실존
온다
준주
##렉션
203
창원시
가야
둥글
코스타
기관총
##chn
도우
돌보
주입
탁월
프란체
Comm
디트로
약혼
충남
##사우
마르티
마르크스주의
디트로이트
High
분수
세키
Do
감싸
예하
카사
토미
플러스
##링턴
240
계열사
카를로
무함마드
다투
스턴
유니버
만주국
Wal
걸린
외야수
형법
##원장
##밀히
##elf
유치원
대합
몸통
무로
선장
태권
##사관학교
내무부
소나무
우상
유진
##보기
만장
생략
스퀘어
연립
예컨대
BS
로저
평택
##도리
##그래
지지율
본성
양호
정성
토기
팔레
플라톤
시외버스
At
각성
개원
유목
입주
파라과이
##로우
유격수
흥선대원군
전날
초원
히타
나타냈
##urn
station
AG
##uro
NASA
묘역
상응
지성
진료
처하
코무네
현감
##모스
br
박헌영
배운
싸이
중상
그림자
동문
##삭스
데스크
마우
성지
아날
정문
출석
아스널
MTV
끼치
미친
부천
아데
엔딩
이겨
크리스토퍼
공예
터보
비밀리
강철
공표
라디
총무
취했
CON
계시
방글라
어리
춘천
친분
현행
방글라데시
끝났
남용
느린
대웅
마니
안치
후작
##멘스
위키백과
소행성
블러
어로
원격
찰리
체중
##ren
##럴드
##out
아름답
갈리
개그
도피
법조
정유
코코
프로덕션
경질
위스
대사헌
미군정
따왔
반하
해저
##히토
1887
등극
브레이크
하류
##urus
편집자
연못
익숙
종양
하치
##난성
때려
산호
토끼
##산맥
##토랑
레스토랑
창시자
he
냐는
상기
연정
##노미야
##헤이
붙여졌
이뤄지
Sci
볼리비아
해밀턴
무성
세네
제리
줄여
차용
향교
후진
##바흐
쓰여진
루돌프
무스
올바른
##ave
##ator
더글러스
아소
위생
절정
종파
알렉산드르
준결승전
주지
테무르
다나카
막스
무술
인테르
줄거리
##라기
방어선
오리콘
당연
이반
일간
직경
케플러
##가르
아마존
활발히
##ield
도사
발라드
재해
##루냐
소수자
강렬
부의장
수심
오오
LC
단면
실버
요약
티켓
William
와의
파우
##UC
델라
제노
축조
##치기
1865
1876
피아니스트
거래소
배려
마닐라
오락
제동
하리
삼국사기
도네
왕권
광도
모리스
반성
스님
울프
##MP
1861
열심히
라오
림프
마가
시합
에디션
중공업
파문
1891
1886
모용
성령
솔루션
##크로
##illa
시국
조형
주임
캐서
복식
윤보
작물
초빙
라이온즈
말년
시종
제니
피치
##네시
고토
따른다
악보
총애
##루아
경시
충주
클러
아이스하키
##DA
간신히
기성
기저
메릴
자제
콘솔
향년
나우
보행
비늘
올드
전전
파손
호모
##RI
##해튼
##나드
##ital
에도르
피고인
ad
마땅
##아일랜드
크리스티안
공손
아벨
종식
##ior
궁궐
애리
열강
효고
##그룹
##ows
맞춘
빛나
주된
해리슨
참의
분류군
이뤄졌
강해
러서
모티브
미상
푸르
황도
##스카르
놀라운
네오
스텔
중원
하타
똑같이
비타민
잇따
복권
위그
정제
화약
달한다
부각
상고
스즈키
온대
형질
교육부
왕세자
공약
리프트
증인
##mun
American
CM
정동
채취
켈트
##들여
기관지
스토어
Your
가산
마당
색소
섬세
수락
와일드
타지
평평
##ara
활주로
이경
##으로
대지진
Air
머스
1850
자유민주당
##ade
인디애나
후속작
애틀랜타
듀오
바디
져서
현직
##ym
1863
1864
청동기
Sec
격리
너머
정국
한신
제주특별
##자치도
제주특별자치도
Li
가의
마차
방치
세바
##번스
드러냈
##ensis
가네
그저
낙동
넘치
리조
실권
어나
유닉스
의과
올라갔
1881
서리
오쿠
이모
##ety
마르코
MB
Up
노보
소극
창의
호른
##포로
##히트
##콘드리아
아름다움
미토콘드리아
장학금
Night
격자
연동
원더
GN
공리
누렸
울리
조인
투여
하비
Time
이완
처지
푸에르
##ull
Nor
러스
죽인
김정일
관음
노론
다저스
보낸다
케라
타우
##벤처
어드벤처
일러스트
CJ
무실
버드
왜구
케빈
##산성
##지능
대장군
인공지능
Live
다윈
북구
카타르
콜레
통용
신문사
경영자
미주리
SL
무척
우아
##테쓰
고쿠
구실
다항
쿠퍼
트릭
팔렸
항체
##관계
알렉산드로스
##공산당
Girl
루크
저격
프레드
히어로즈
IV
가혹
모색
분파
선천
장자
##사업
에이즈
Mc
피겨
나트륨
관구
상급
영예
주화
튀르크
##거래
라서
모욕
욕망
##파리
배우자
니콜라이
메틸
서장
유령
정작
##로쿠
##러지
클린턴
광저우
김현
모금
스로
야드
노동력
찾아내
화강암
고생
노이
매거진
벌여
글래
만년
몬스터
일산
일당
##ution
대성당
GO
공채
꼽힌다
대국
마천
아종
영유
재질
직통
해독
##air
##레슬링
실험실
아케이드
초신성
센고쿠
시네
코믹
평판
부르고
1873
관동
끝날
대대로
소자
을까
재활
콘테
표기법
1592
의약품
공존
배속
실정
이븐
프로레슬링
프랑스인
레이더
대전광역시
마르틴
세워져
선구자
서재필
Mic
겹쳐
김홍
신발
징수
##거지
정치학
내려졌
Bro
남원
여권
##구역
##쿠버
스타리그
##ange
아나톨
대리인
스크립트
내걸
니카
스태
약해
##려서
아날로그
비엔
소음
이송
하행
검은색
맨해튼
송신
시애
제퍼슨
##덴부르크
Geor
부르고뉴
속편
정관
정경
Eng
타이거스
윤보선
김경
노태우
민요
상가
양보
적외선
타케
##포터
명확히
고성
은거
##타니
파이터
신정
카바
파충류
##ement
관청
도널드
사카이
이양
제왕
켈리
타수
##유행
Music
마우스
모의
세습
이우
##ll
1200
##ott
히로시
프라하
Robert
오바마
국보
##IL
가져다
메디치
긴테쓰
나아
비대
어항
취미
힘썼
##어내
격추
리모
메소
코시
애리조
시애틀
봉해
성실
이건
절망
파도
##erson
애정
학설
걸어
단과
메일
비준
여유
안성
업자
##MC
마르쿠스
프랭클린
가토
경호
말단
사각형
상행
스칸
예명
제물
관계없이
야마구치
가로지르
말미암
카스티야
극한
리터
친위대
##홀름
안테나
몽고
출가
카미
지배자
ES
블리
요제프
이방
임정
졌으나
##미트
선우
자란
중서
진수
총통
개헌
박테리아
방대
사탕
유료
총기
##산리
##위성
예약
조광
##ati
바이트
듀얼
생선
##린지
##버러
1872
인플레이션
대웅전
NE
가늘
나인
어찌
통역
페로
##고비나
##체고비나
강서
관례
로라
설문
차출
총격
칸국
토시
##EE
##RT
##HO
구두
김옥
대영
드디어
수복
안산
특집
Star
국한
기전
라기
무작
서임
키예프
##망디
생존자
하노이
후지와라노
집정관
더비
레슬링
수인
알래스카
압둘
장시
전래
타락
제작사
1878
IN
가이드
내무
리히
모나
실증
씨앗
찬양
침묵
타스
토스카
피드
##그레
##uck
나간다
조이
편견
타이어
시코쿠
리옹
##any
##isc
수염
연한
준수
##타나
##바오
##티시
##ision
일으킨다
그래도
헤르체고비나
수로
주계
카니
허드
##FL
##히코
1869
강령
문고
요충
##워하
##십자
마다가
동맹국
동요
삼림
접어들
##ille
갤러리
화기
##대표
##페스트
프랑스령
330
김창
안경
원심
인칭
##ze
##테면
이를테면
목회
상어
천천
시켜서
1830
GB
가했
램프
로키
워치
의류
로렌스
로페
마카
제너
탄약
##무소
##합성
달라지
고딕
기해
불참
용암
케인
편향
확진
##에미
##ics
뛰어들
1867
오사카부
도래
무궁
분과
수다
야전
결제
사쓰
제위
##프랑크
##매매
군사력
꼽히
문종
앨리스
영산
후배
##틀리
기념관
Str
##가와현
극장판
##ura
거지
관문
외치
유스
주선
천왕
탑신
##방울
러시아인
중앙부
가브리
대의원
메뉴
부다
상금
수양
수위
카테
카툰
##바이트
##푸르
공용어
헬리터
스폰서
Mac
par
모라
소외
악어
우림
이의
##창호
영화배우
라인업
너무나
카탈루냐
감상
노면
떠올
마카오
재난
중엽
카터
칼럼
파나마
폭파
##EM
##정원
방사능
부드럽
기숙사
급증
도교
맡기
모세
오로
##플로
사라진
가닥
극우
루키
절벽
호크
호스
##ors
예선전
연말
출처
플랑크
PR
장대
피할
##LA
아니하
프란치
안드레아
바그너
게끔
배아
##면체
대법관
선진국
캐서린
법관
비추
함량
리조트
국외
스가
우왕
적분
절감
아이폰
사설
사적
심문
염려
위함
위구르
즐길
철종
항우
##맥스
AN
Cent
복종
시중
제우스
조교
초안
##처스
케이프
쳐들어
IA
Ke
라그
천거
최선
톱니
형편
##식성
##워서
클라크
텍사스주
천천히
급여
막판
민병대
스노
커플
토요
##환경
글로브
대단히
마다가스카르
가타
국철
넷째
유의
척도
커리어
협업
##사상
##메스
저지대
SNS
사서
이장
평형
레드삭스
오클랜드
구금
어울리
감찰
국교
황소
히브리
##리코
##ited
컴퓨팅
해상도
내세우
스톡홀름
리비
전담
퇴직
##통일
##교통
##말로
ABC
Good
간사
난이
닫힌
박지
벤처
사방
우월
유혹
일리
전무
조계
##니시
나타날
나타낸
보여준
생긴다
간첩
굴절
기량
중퇴
하반
##제품
##ki
##uth
College
북군
삽화
운수
장단
참사
##나갔
레오폴
대합실
Jo
Tour
떠오르
라자
모모
바울
세손
지쿠
쿠니
고의
구니
보낼
부합
피라미
##hem
Kn
종자
헬싱
210
1875
가도
결별
동형
메라
바트
양심
정거
증폭
합치
##지오
날카로운
김규식
고든
도둑
마키
봉인
블레
이렇
##미스
##다르
1862
Out
공성
그릴
무언
잠정
전격
조례
##메다
연장전
불량
순종
##라고
##레시
##풀이
Park
소말리아
글러
당할
사민
소피아
제명
테라
##아키
우울증
관용
반기
보로
성곽
##니지
주차장
객차
원통
##부로
검거
과실
델타
자생
파편
##IG
##라이어
부르주
공화정
강남구
Des
GT
Wind
나간
세련
율리우스
##OD
##aster
정의당
사운드트랙
comp
미스터리
든다
모범
신상
알베르
이태
잔인
접한
프레이
문화방송
담보
밀러
샌디
영등
접합
정인
종군
정착지
고양시
단행본
다듬
다람쥐
덩어리
포털
##EG
부상자
Club
거세
남군
선봉
수필
##ux
##ony
노르망디
프랜차
슬램
앞선
은혜
콜럼
격려
놓인
웹툰
허블
##lin
##여래
패러디
프란체스코
Song
국수
문단
왕건
재편
추첨
태백
##신문
레이트
알아보
무쓰
용액
전락
##마르크
숙부
자서
최진
##화학
조승우
프랜차이즈
정형
치유
키워
표정
형벌
황색
##부리
줄기세포
Korea
ro
도박
로리
로크
모셔
비정
##ations
기이
옥타
위로
정맥
테리
피지
##ka
사이다
걸쳐서
대성전
로트
신종
증오
파나
헬레
호쿠
결과물
농산물
부교
비야
수교
해리스
##사리
##치히
##다운
##마리
조지프
아라곤
무실점
Em
대북
루비
베트
산시
조문
지로
한미
##CC
으려는
NP
규탄
그대
매리
소울
여배우
콤팩트
통영
##디나비아
스칸디나비아
Red
교부
볼로
위나라
점포
청춘
##칼리
스트로
국공
와라
이병
##융합
##rac
카메룬
우즈베키스탄
모국
범행
볼트
샌드
조롱
주심
해치
##원수
##ena
이사벨
동맹군
오리온
피라미드
Er
RP
윗부분
주창
핵융합
##불교
Super
하노버
Cal
가군
감성
노사
대원군
토리노
퍼스트
##ough
지켜보
LED
가맹
거제
단결
도출
마술
부총리
숨기
프렌
##sp
##bur
##OU
##피언
개체군
그라운드
프로그래머
qu
강행
경희
계주
고온
국당
월요일
페트로
##함수
##테이너
##나미
##들이
280
320
##berg
복음주의
JT
KIA
고추
부왕
지극
치하
비주얼
가중
과시
세군다
온난
전단
패럴
##수스
Trans
군벌
반동
발목
사림
옮긴
유정
코소
##업자
앤더슨
웨인
취해
흥분
대표자
극작가
고노
실록
워커
특화
플리
##osa
평안북도
거성
다테
리믹스
서태
##EL
##우회
##곡리
해결책
알렉스
솔로몬
스카우트
경전철
마라톤
낙동강
AV
메스
아브
펠트
하시
동물원
둘러싸인
가락
공양
아드
원군
해왕
휘말
베이시스트
EX
보라
선명
성화
습관
철강
##tr
비해서
마이크로
영원히
동적
##sy
##덕왕
##진군
견디
겹치
남해
모빌
산둥
생리학
샤프
씨족
오하이
카스트
##지부
THE
오하이오
건전
드루
르노
##gan
다스렸
##도르프
정거장
바젤
여사
유러
천주
치환
탄자
항로
##블랜드
국제법
4000
급속히
다마
무네
바지
불변
시부
어시스트
저조
절제
##ha
##yp
생도
소중
이언
촉발
파시즘
휴게
##파이
##유예
클리블랜드
교실
도자기
모어
무르
아빠
재앙
허정
헤일
올림피아
교통국
서사시
덴쇼
모하
마이어
펠리페
높였
단정
외래
자카
카피
항만
프린스턴
스트리밍
각료
내분
번갈
산물
선대
야외
요격
초고
단체전
아키라
##위원회
달아났
유러피언
오미
##cess
##str
생겨난
센티미터
세비야
단속
병자
북아일랜드
##사고
거주자
가오
남하
높여
애초
온건
모터스
미야자키
군청
부름
브루스
신지
전보
탈취
##tain
##끄러운
아랍에미
가라앉
Associ
주계열
아랍에미리트
Pri
Sw
et
달랐
우체
플러
피핀
하동
돌아다니
기원후
에이전
Open
콘테스트
Met
정종
클레이
경계선
지붕돌
Po
Val
경복
교의
물결
순례
았었
요양
유선
유생
점거
지오
진해
해안가
유적지
상관없이
결사
당황
받들
속력
시몬
중수
트렌
펜싱
스타트
다이쇼
연기자
메이커
1874
후원자
삼국지
방위군
폐기물
고집
러일
어군
요절
친족
##uch
##지아
Mer
컬렉션
##por
##상어
##캐슬
관현악단
ML
Ser
금요일
녹화
동대문
북유럽
산스크
시멘트
##세유
##푸아
산스크리트
거란
안개
이규
Heart
컨트롤러
요충지
다우
메카
사역
엔드
재래
접종
종신
##eng
두각
뒤이
리코
매트
매킨
성원
슈테
조병
지층
카즈
##익스
1840
클라우
Bra
브레이
여도
원활
토트
##사와
##화문
##헤드
##ari
음악원
결핵
니혼
대접
떠난다
모차
아브라
코리
헌장
회귀
##레반
##코토
프린스
뉴캐슬
라카
반포
신곡
음절
스트라이커
by
눈치
무수
연회
위조
포토
대상자
농지
니키
진로
피크
##로이드
API
우에스기
King
금전
발상
야시
재차
아무리
철저히
루이지애나
노후
상국
시노
일각
요시다
민영화
CBS
개구리
광명
귀속
몰두
셀레
추리
##네그로
##행성
##꿈치
라이더
자치주
기세
마에
배달
상정
심부
엔트리
족보
취한
하급
##EP
##국사
진행자
Rh
번창
부류
서스
테일
티아
피우
##바야시
비서관
갖춰
랴오
로버
요지
장래
충렬
평지
##work
##ila
BM
검정
구내
밴쿠버
보성
산성
위력
표창
##바나
##놀이
열린다
마르세유
헤이안
Institu
무궁화
과잉
분단
우연
전학
학장
##가미
역사학
중소기업
750
백악
백악기
셰익스
슈타
초콜
##나오
사회민주당
대표단
##tif
통신사
셰익스피어
Center
Mor
Tri
광자
닉슨
사안
전세
##의사
##메니
보수주의
국정원
##ular
브룩
외무부
이메
특사
해냈
후예
유전학
뛰어났
Ang
플로리다주
가브리엘
Ver
가솔
견고
앙골
Reg
신세계
DD
등기
몰랐
었었
지리학
헤로
##기념
##ret
##eck
두려워하
trans
놓이
묘비
미야기
삼중
송도
시속
아쿠
칭송
카지
시켜야
1877
우치
자메이
평안남도
네이션스
자메이카
딜런
안티오
터지
활기
AI
Let
글꼴
네티
사학
왔으나
이스탄
익명
입헌
정했
##ax
카르타고
잃어버린
이스탄불
반주
브랜
심야
싸운
암스
퍼졌
바람직
스캔들
경위
배기
주니치
캐롤
미칠
분사
약점
정주
테네시
##ative
##mus
맞춤
매직
부원군
신입
천국
한문
스테파
왕궁
치과
##트르
##걸이
빅토르
야쿠르트
장제스
능동
리만
보름
##li
##버리
교통부
뛰어넘
City
김원
어파
우두
기업인
다이어
떠돌
사치
순차
화랑
##티모어
들어섰
Christ
올리브
유능
인스
점진
한큐
##케이
반대파
##rag
바로크
프랜시스
AL
간략
거미
습득
제단
지이
코펜하
국제선
230
자서전
코펜하겐
다치
대인
양대
차선
하야
##OV
장로교
무작위
프란치스코
도키
본작
소동
송출
연희
온화
##용차
프로리그
260
1879
연산자
David
가우
롬바르
서대문
여타
재발
호리
##산동
레이싱
##amb
오스트리
Thom
마법사
군데
김유
면모
수차례
##사태
##웨이트
만난다
발동
착취
카세
후유
활동가
덧붙였
몬테네그로
신동
호스트
##rid
아키타
유기체
함경남도
MHz
kt
관목
정월
쥐속
Cap
Fri
공소
군세
대마
독수리
마누엘
머리카
편안
##할시
연구회
##라이드
포켓몬스터
두꺼운
머리카락
들리
크라이
하의
##애미
##타마
##ates
마이애미
대중교통
두드러지
##올로기
이데올로기
무언가
나름
발포
스루
아산
오만
의례
케르
##비크
##슈타
##센스
남방
달아나
도약
생리
침례
캐리
쿠웨이트
파란
전반기
선제골
배척
사수
산요
어의
예종
전권
##con
##af
생성물
해안선
1859
주어진다
라파엘
IOC
수량
은신
필연
흡사
인해서
육군사관학교
근거지
탄자니아
스런
전산
##cus
미나모토
마셜
미성
저해
트리오
합친
Inter
IMF
Dream
교직
배역
##BI
선거법
급수
급히
바쳤
수하
외형
유족
자립
필립스
아세틸
메릴랜드
San
res
우의정
퇴위
평창
##gy
서해안
Ev
베어
집착
청주시
포탄
##대사
##클레
270
##ody
구마모토
구획
이례
장덕
##자루
가부
강동
대도
대각
뒤따
비토
자진
##거나
다시금
밝혀진
김옥균
Bre
구독
드레
안무
응급
중개
짐승
출자
특전
##네임
도망치
그만큼
Paul
모차르트
가쿠
새긴
시크
켄트
##러진
##민스터
##셀러
사상가
Phil
기고
유서
장병
죄수
카네
황폐
##란토
알아내
Gener
문무
실각
적료
칭기
카카오
패권
##호란
따라가
독도
동진
목욕
브르타
재팬
조공
항생
##쇼프
##추부사
레이크
사절단
그랜트
포식자
브르타뉴
공영
등등
미미
아메
재일
조슈
지르
추력
Af
마켓
치카
친밀
##bs
##변속기
토마토
해부학
von
단말
무서
이현
제창
즐거
환관
##쓰기
ref
스탠드
Min
갈아
갔으며
대차
병마
스콜
할인
평안도
낭만주의
브뤼셀
대좌
배분
에로
출동
태후
피리
##타입
이용객
사쓰마
드미
무단
유희
재결
좌의정
합하
럭비
준장
쿼크
##그마
스포르
Hol
Vol
per
굴복
불경
선율
열렬
컨테이너
도로는
NT
기밀
나루
남베트남
류큐
볼넷
섞여
송환
순양함
외과
장애물
고쳤
대주
뒤늦
리바
자수
축성
풍습
가로질러
USS
경매
긴밀
남조
맡겼
본체
소프
애인
침대
투하
노스캐롤라이나
대나무
도상
백과
열려
##미즈
##za
##어사
##천사
프레데
귀신
김지
내린다
블로
용의자
##US
볼로냐
고로
노미야
버터
수력
오하
점검
##브로
체인지
from
거꾸
백두
유머
정예
측량
판소리
흘리
경쟁자
##CAF
##ization
장난감
사간원
Tw
다행
리즈
리마
애칭
완수
외환
##관리
650
James
아유
전수
픽셀
휴양
##대장
##파크
##its
부르주아
경무
깃털
끝냈
논리학
로마자
Stud
Chris
Rev
앤드루
금나라
오디
지면
처방
##제이
##프턴
권역
끝난다
복소수
소용
아이언
Stre
웨스트민스터
벗어난
초콜릿
김병
매진
별장
외상
지청
##der
##곡동
타이베이
특별자치
대공국
허드슨
특별자치시
밀레
사쿠
이터
펠로
##온다
아우구스
시네마
코소보
떠날
인산화
자행
진한
하구
##ram
움직일
나카무라
Ju
Mi
감추
새우
월터
주고
튀니지
##ype
##석탑
##층석탑
##솔리니
##tical
Bab
객원
배트
으리
증식
학력
계승자
참모총장
가솔린
OST
간혹
라바
란트
모건
살짝
신진
자릿
재고
체내
코네
##지기
목적지
단군
단조
유포
프루
##las
보조금
네티즌
RS
사내
성악
앞세
원유
응하
잔디
줄리아
직속
흐루
##상시
##ero
기와
대담
리베
명소
사변
##니파
##워스
갈라져
클레멘스
App
dis
동포
죽여
피사
##히사
##atch
방송인
개정안
관우
도카이도
두어
##스트리
근사
라흐
알맞
어는
조나라
청룡
충북
##번에
##raph
요리토모
부다페스트
군산
나마
니켈
루체
비싼
짐바
참의원
한창
##마귀
다가오
교구장
성남시
광선
근래
꺼내
동향
마구
사비
생모
추존
함흥
내보내
소작
식스
야심
용해
죽임
코사
페스
황자
##국적
##플린
##ated
지상파
카운트
변모
보너스
암모
에른
조니
증세
태우
현미
##ling
##RNA
##두르
아닌가
달라진다
암스테르담
거꾸로
DM
보정
왕관
천수
치우
한림
##로니아
##서스
##질렀
교향악단
TC
가두
거칠
고마
낙양
데일리
랭크
포화
필두
여성주의
Institute
DF
Mod
간직
경건
레트
마테
수목
자재
자외선
타도
##ci
##에스
김정은
##클리드
유니버설
글래스
di
관성
양조
오아
왕성
지탱
커서
커졌
##라니
로스쿨
과반수
Soci
공안
국악
다목
대청
라즈
머무
밀가루
빌바오
연달
자궁
처한
헌납
##열차
대전차
치러졌
세네갈
무솔리니
소아
직관
차세대
타구
##매김
보좌관
꿈꾸
독주
반항
위시
폼페이
##ael
##효소
중앙은행
유전체
UC
불분
여호
충당
##타리
인공위성
브루클린
가나가와현
게시판
AE
과테
무자
쇠고기
이황
지경
태아
##른베르크
프랑코
데이브
##iew
기차역
효고현
과테말라
라르
모던
시비
얼룩
접전
직계
##tin
##토프
이어주
NGC
앙골라
무형
아님
정선
##oman
문자열
범죄자
가비
구청
미수
병단
세븐
이회
##aj
##포타
##홍색
프로모
자리매김
Bus
OB
던졌
산기
생화학
성매매
큐브
##분열
##lay
운전자
위안부
아틀레틱
연평균
아우구스투스
남구
리본
버티
성기
일지
정몽
##eb
##브웨
칭기즈
반죽
유부
잡히
줄일
하코
##레스트
##천리
##olf
거쳐서
관심사
스테인
메소포타
메소포타미아
KO
걸작
맥아
여건
인위
잔해
진흙
피의자
행방
흑백
이뤄진
데스크톱
550
과격
라가
빅뱅
전과
채굴
취향
형용
##으면
다이빙
##ops
HP
경인
도제
무과
물류
심포
우산
채색
펀드
##성경
교육자
저지른
탐험가
김제
도성
도발
##of
cont
가환
금호
긴키
복위
파기
팔린
##나파
여진족
경도
그나마
극찬
남송
내재
뉴런
발톱
에반
이봉
징집
처해
##루엔
전해졌
##app
##ney
브리티시
스탠리
Great
베네딕토
냐고
단서
라리
박종
손녀
열릴
자명
정령
조소
발전기
재판부
##very
재단법인
테오도
헤라클레스
마요
베풀
양력
오메
일명
직사
화엄
##슬레
##짜기
##atus
##uss
강화도
가해자
감리교
iOS
강당
과연
당과
로만
수식
직물
트램
폐렴
에스페
유라시아
무로마치
Hen
리카
미친다
섬기
장녀
증발
톰슨
해태
##대교
##라호
##IST
정보원
가면라이더
내포
스모
운임
피처
##에고
Group
MA
나빠
로드리
무안
손잡이
오자
첼로
하임
##내리
##데라
재판관
공통점
Rich
만날
슈고
유다
참패
코스트
##EA
##셔주
관련자
하이브리
녹색당
이메일
리트
베일
아어
자코
정박
조심
##프로
다항식
불분명
극락
웃음
출혈
화학자
##태평
##둘기
##tics
무사히
주고받
기스
넬슨
농축
묻혔
변질
아편
유학자
음운
정정
주저
표출
##카리
##히드
##토리코
PA
구한
군관
배지
불사
산티아
서주
아츠
팔꿈치
퍼즐
##RS
아이콘
##uman
공방전
백악관
짐바브웨
라미
별세
부추
성가
저축
증강
##ek
##콘신
노르드
USB
발기인
중공군
위스콘신
하이브리드
Cr
Rad
관상
국호
논하
스윙
슬하
앞둔
위촉
장전
주먹
##거스
기념일
강력히
경영학
수비대
TBS
고스
볼티모어
앤디
포츠
하키
##동자
##야누스
##tian
집행유예
Blue
차가운
그럴
대의
대종
라니
약사
음주
##000
불가피
트라야누스
화장품
제갈량
대명사
Association
Euro
가독
공대
컴필
토유
튼튼
##몰로지
##olution
Techn
Record
푸에르토리코
컴필레이션
Best
몸돌
버러
브릿
악명
여학생
##쿠르
가와사키
Ap
숙련
스투
엘런
일설
자판
정황
파시스트
##유사
오클라호
시즈오카
아나톨리아
오클라호마
구슬
조셉
##10
##철수
##네트
들어올
하이퍼
가르쳐
노르만
갈라지
Kar
SV
노프
원동
절도사
회유
##go
프리미엄
레인저스
무신론
Sun
국력
넘겼
사교
습윤
승정원
압록
역도
월트
의용
전교
집어
청계
최성기
##BL
인지도
지닌다
출입문
리퍼
봉우리
서면
신봉
오일
워즈
이니
전멸
독립군
대리석
더블린
더러
양파
유클리드
패해
한번
합금
흡연
카이로
보살상
Mich
백업
아카이
유태
주성
토목
획기
##BT
##코타
고려사
CG
GM
교제
구부
란스
마트
몰도바
삭스
신석기
##오르크
내려와
발사체
데카르트
Lou
Sal
김형
시안
아다
아와
예의
이력
종업
컨설
혼혈
##by
##duc
##테랑
##독립
Way
wh
거룩
바비
사천
상선
세분
악곡
완만
이거
중용
코퍼
토로
##oot
##일치
##자원
찾아와
as
발산
삭감
승용차
조장
증조부
##시노
##irst
케이크
6000
도망쳤
비단털
일리노이주
스칼라
업로드
중등
현도
홈즈
부적절
요하네스
비단털쥐
Serv
능가
도선
묻혀
보루
서산
위계
흐른다
사이먼
오스틴
그레고리
##레타리아
프롤레타리아
Fre
만점
양수
이바지
페오
필하
##amm
##ural
연주회
##ency
황해도
RT
모반
보류
샤이
전리
파직
##뜨려
프랑스와
지방선
야마가타
편집장
애덤스
계엄
까마귀
도이
무고
유망
이누
적발
##광성
##끄러
축구팀
합창단
Wii
##너드
1700
1856
유엔군
라이프치히
줄어든
우체국
자릿수
바스크
배드
수나라
재벌
탈레반
프리스
##lor
##버른
트레이닝
경복궁
der
비지
##폭탄
Ger
sub
레버
모조
사소
야망
용품
조개
영화상
수도회
Si
부실
빈민
시문
입히
지법
헌병
활자
##로니
##탄올
##ocial
Mark
유아기
로빈슨
납부
라시
로타르
세간
이아
자처
잔존
주세
직행
행해졌
일부러
가리켜
광주광역시
니콜라스
종착역
Net
기운
뽑혔
정려
피셔
##미니
##미디어
지질학
다마스
미학
부에
연행
##미쓰
##들러
##몬트
공연장
야마모토
1858
내세워
여의도
코스타리카
흐루쇼프
길드
반점
발의
부풀
북대
삼층석탑
열쇠
이야
추억
탄산
황산
##ule
원자핵
1812
수백만
강대국
토트넘
분경
세단
수시로
원한
함양
히토
##르바
##식간
조선소
제작진
입법부
루스벨트
미네소타
휴게소
Big
가방
데미
도하
상한
선양
파열
판명
##암동
##참찬
##urch
유니버스
후쿠오카현
건륭제
규율
나일
남산
도르트
명인
변증
심정
알폰
온실
타임즈
미나모토노
Cro
몰타
을사
접해
포탑
##세다
조각상
1801
보안법
##earch
건널
국부
덮개
멜버른
모함
비스타
시르
액세스
호대
##yr
제조사
이주민
청년회
1815
와이번스
용인시
산티아고
대타
마타
범유행
초전
헤겔
##ball
##공주
심리학자
함경북도
공무
농성
당파
복직
숙소
염두
우시
##oo
##테이
##림픽
Ear
늘려
당당
반입
청자
칭했
##로움
##리안
집단군
##CACAF
CONCACAF
경량
공판
과다
애완
유화
페트
##혈구
조선왕
사단장
완결
창녕
취할
대구광역시
8000
후세인
Pre
네모
발가락
열악
이범
작년
절약
조현
##동맹
##티에
##GM
Arm
Hot
게오르크
매스
복역
산책
서한
친화
평했
##티노
##비츠
##전선
게임기
##act
각본가
단거리
레프
생길
순식간
정반
청문
환율
##의식
##펠러
머물러
마그네
PL
del
다량
싸울
칸트
##젤로
프로테
이성질
신도비
초록색
길러
김인
내야수
북조선
스몰
판례
해병
포르노
언론사
관현악
Charles
페르디난트
고국
광업
메츠
식용
어우
유우
코린
토이
필명
항문
##rich
##보내
##NG
1854
##ublic
석가모니
##루엔자
종업원
AA
결여
김민
대류
매립
슈타인
진언
청각
피질
##수지
##번뇌
고생물
공법
열전
체하
타로
통찰
패트릭
포대
화음
##tra
##파니아
에스페란토
강세
계보
종사자
폐허
##타케
##루이스
담당자
출판물
inter
패럴림픽
꾸며
데드
벌레
신대
에트
원상
축산
컨텐츠
##부아르
##eder
인플루엔자
브로드웨이
신주쿠
GNU
TS
Win
가명
간판
걸음
도산
막강
바투
버펄
부두
일괄
중일
휘발
##ano
크리에이
급성
노아
독살
맡겨
매도
몸체
미식
민심
와세다
호크스
##리아누스
고등학생
올라오
1839
프레임워크
영유권
에른스트
가역
간사이
명부
서포터
이브스
터빈
티저
##net
##르카
##RC
##협회
돌아갈
다면서
##ific
아나키스트
구강
무가
카마
카슈
통지
##지로
포르투갈어
베스트셀러
기조
면담
에프
오우
이산
착각
켄터
행보
향신
##ese
수원시
##ission
숨겨진
니케
박수
입술
재화
최장
트란
해트
##DS
##하임
고속버스
1857
박영효
경지
대금
불쾌
새겼
시찰
사이타마
베르나르
1855
물려주
브래드
컴파일러
였음을
페르난도
cc
구문
돌렸
바야
보어
소사
외면
일진
조준
참수
컵스
토사
트림
##클라
##께끼
수수께끼
변종
캐피
토라
해남
##드레
##xt
지나친
만화가
예언자
원산지
##태평양
애착
옥시
요괴
유공
중견
##프랑
억제제
호소카와
내세웠
비스마르크
tra
농가
다국적
봉하
수레
시원
페라
##수원
1789
난이도
LS
경종
공상
관악
근방
모피
수만
아지
야수
유무
지그
##OW
##루크
오르간
항생제
Bu
Jose
군자
승상
아델
위패
임하
혈압
##기념물
동탁
로니
미츠
서예
송파
썼으며
펠릭스
피카
##합중국
온타리오주
반정부
법전
상의
엇갈
자정
타선
펼친
##세우스
##넌트
고등교육
사라져
피츠버그
수급
의복
인승
일선
제르
지체
취직
침식
코모
통폐
튜브
페더
혼잡
##사화
##어류
##위안
프란시스코
바닷물
회고록
경의
구타
균일
로큰
서위
선인
오대
율법
##보리
프레슬리
NATO
흔들리
개화파
AU
고모
기묘
바시
상파
쇼크
작중
홈경기
##바리
일본식
##attle
Die
강성
거스
경마
기미
마린
맹활
아쉬
유골
평탄
현과
홀리
##인명
중생대
고찰
부양
우한
유영
처치
##수단
204
대승불교
Free
공관
미지
소학교
저우
케이트
타리
판관
##ning
##휴일
##els
법원장
##ther
380
켄터키
로큰롤
맹활약
금고
배리
석권
승지
야권
어웨이
에치
용감
제철
조영
후드
##디슨
울산광역시
클러스터
결말
구치
내란
노브
미합중국
사귀
서거
양면
인코딩
##ness
##에몽
##디언
일본국
치료법
쿠르드
Street
농어
단자
복부
산수
아자
외척
위도
자루
자질
피닉스
해질
기업가
Che
경주시
방탄
보직
복속
빨라
손님
출격
호아
##itch
못했으며
프론트
제너럴
Back
객실
나사
다닌
당병
루즈
서바이
영미
이목
차림
추후
충동
파커
해시
##몽골
명성황후
두드러진
통폐합
XP
am
다자
우간다
##가르트
스트림
페르미
스테이트
##aceae
강희제
Mil
그란
내릴
동이
발자
사보이
상이
준다는
차명
파랑
##보르
##게스
##놀드
레이디
반대편
빼앗기
갈릴레오
Mat
불로
에겐
요직
유식
임계
##바도르
ng
다닐
되풀이
버크
생생
수증
아흐
열세
잠입
행군
현판
##och
##리드
텔레콤
뉴클레오타이드
Award
Tom
고난
납작
느슨
도적
되살
방공
서점
실렸
안녕
철자
투신
##친왕
교통사고
가졌으며
안토니우스
시달렸
압록강
광양
러닝
무능
변혁
사생활
안나
오릭스
이별
자취
재회
정진
조서
추축
축전
헤어
##네오
340
##ipp
연예계
필사본
서스펜
Off
골절
날리
동창
입시
잉크
항아리
##ya
조선공산당
##ope
창립자
천연기념물
##ship
서초구
콜럼버스
CIA
김명
로이드
소포
양서
여고
요즘
이질
일삼
절충
청량
쳐서
##자네이
##데자네이
아이젠
##itz
시마즈
Exp
Jean
현미경
도르트문트
교관
그물
다룰
동산
손목
저질렀
천지
푸아
하층
확충
가져가
당선자
교파
올릴
질투
후면
##우에
##클럽
##tein
자본가
대항전
결장
놓치
머니
문체
변해
안겨
예금
찌르
크메르
편제
##르산
##비언
##ert
NHL
리사
발착
불려
신해
자란다
충무
허목
##ien
##천동
작품상
공식전
브란덴부르크
낭비
본거지
부군
사대부
아목
영사
왕래
울루
자존
출세
##방군
밝혀져
슬로건
##mann
##크라테스
리우데자네이
리우데자네이루
Fr
부평
상식
여정
전미
제지
표절
횡령
##이에
Inc
This
신기록
구스타프
우두머리
Thomas
Bad
Sing
계좌
골짜기
베오
부관
섹션
양극
##사유
##zy
##구나
고려대
펼쳐져
간결
무도
불복
비옥
종묘
침범
카레
패스트
픽처스
핵분열
협곡
##vin
##OT
##다보
##절도사
혼합물
클레오
구아
댄서
명상
미아
민물
북벌
앙투
쫓아
첩보
타밀
##oma
유니언
하얀색
SH
강인
강우
계량
교훈
구르
김윤
라드
모신
아끼
포자
호투
1814
좌표계
카디널
모체
문집
쌍성
출국
테두리
파푸아
팔작
패망
스케치
친일인명
고분자
스파이더
##사우루스
맥아더
친일인명사전
관내
리키
소아시아
의정
지아
진원
푸틴
풀리
한중
##OK
베이비
1849
친선경기
바빌로니아
게오르
라크
심상
외할
향수
##뜨린
항공편
삼국유사
떠올랐
렉스
리에
모사
묶여
불태
성품
소박
온두
파파
패자
플랑
국민회
이론가
관찰자
아우르
고인돌
온두라스
Bel
Light
가고
공휴일
라치오
어선
어부
위너스
이바라
출품
화순
##바인
##RE
##티컷
##다오
##리아스
레닌주의
드미트리
코네티컷
Dis
거사
배워
은폐
자부
바이마르
마르셀
1798
정해져
김성수
모자이크
Gold
거머
끔찍
데니스
이바
조비
조어
지문
##정리
##느리
##let
사무국
라면서
보컬리스트
스케이트
플루토
ft
교인
구시
기판
몰수
실상
토록
##쿠니
데이트
도미니카
Lu
불릴
상록
스기
신병
중고
피어
베르나
학술지
이즈미
후지와라
에이전트
Ca
꽃차례
면직
슈투
영수
##ility
##nder
로맨틱
국세
어지
이길
튀어나
##정보
##더링
함경도
풀려났
불러일으켰
플러그
배반
선체
연해
왕당
하수
##니코
##방향
운동량
교육청
United
노벨상
Soul
가세
격하
군복
기한
동군
맞물
성행
악당
안창호
와이드
적정
##ham
##현동
1400
##unction
##선거구
레아
문경
사주
입혔
종영
##ush
프리츠
교황령
찾아오
외교부
일렉트릭
펜실베이니아주
컴파일
매킨토시
Act
BL
RA
mod
구세
김준
도도
잔혹
친한
키르
페인
##무장
##나기
##HC
##ett
치료제
해석학
스코어
여객기
만장일치
Dan
Tim
기공
망치
변광성
사학자
지린
추장
친환경
칼륨
토키
혼다
##즐리
##둘러
1820
기울이
날려
대목
모티
선별
승하
애기
왜군
유타
춘계
타타르
##흥군
리스본
기생충
NS
ind
rec
김치
대혁명
삼존
세레
아디
아놀드
줄곧
키로
하스
##할린
##ality
베이커
1853
메트로폴리
천도교
South
Society
조선왕조
메트로폴리탄
공시
김광
마모
서아프리카
하남
##비안
##코르
##플레
합성어
대관식
George
충렬왕
백과사전
알폰소
광배
마레
맹렬
미인
사나
용사
효모
가르시아
1846
세미나
기마
솔라
스킬
에마
오트
오지
일차
정에
##구니
##알라
삼각주
AF
Sil
가령
공석
대강
릴레이
발판
성동
위헌
이다
최하
키릴
현무
##니티
##세르
205
책임지
봉화
승률
예식
죽일
해킹
##비오
라이베리아
올리버
선제후
감당
걸프
두뇌
등단
라다
마스코
번개
용수
##꼬리
##ection
스피커
7000
유년기
글러브
AB
곧이어
석기
슬리
실명
우표
초음
##발트
1851
갑작스럽
##르기스
하반기
프로모션
팔작지붕
감축
걸린다
김연
뉘른베르크
라벨
마티
베다
서약
시니어
오보
장신
퇴치
##내티
##천면
##링겐
##열대
바이어
받침돌
신시내티
##ittle
고을
고층
금산
떨쳤
로브
산문
서체
순항
영락
워킹
##빌리
##니크
##자동
##본부
##QL
파라오
CoA
끌려가
마천루
Sk
Wil
노골
놓였
도야마
모멘트
병렬
서귀
신의
절친
통솔
##두사
교육학
시트콤
Elect
최진실
갑각
넓혀
니까
##세키
235
##ters
결의안
PP
금색
베라
붕어
비둘기
실은
쓰루
으러
지기
##니오
##데기
Island
간호사
손꼽히
기통
뒤덮
백조
사하라
에바
위법
전조
처장
타파
##리쿠
##해살이
사이즈
한국군
알아차
루체른
Are
매듭
애호
열역학
원점
위크
유충
청중
청취
총생
콘라트
툴루
허베이
희미
사무라이
Kh
라라
숙박
엄밀
파고
해지
후미
##쿠사
선거인
아키텐
카디널스
고이
네임
레코딩
이항
최영
캐스트
했으므로
판매고
올라와
지하철역
1793
콘스탄티누스
Du
SO
뉴멕
범람
부전
송진
아뢰
영정
원사
하강
##게임
##HD
##들였
스테판
그린란드
AKB
뉴멕시코
gr
겸직
곡식
군림
바인
바쳐
비긴
세토
순찰
앞바다
원제
위축
잔여
적십자
후견
##주크
##양이
##레이트
도망쳐
향신료
동종
루도
마흐
문맥
쓰일
이은
키르기스
##ks
##마디
개개인
히타치
Pop
교서
바덴
소량
윤휴
킹스
##찬성
##스타인
장로회
미카엘
상환
용지
집사
최남
추운
##인산
##킨슨
방문객
세웠으며
나치오
스케일
기울였
재미있
##그래피
bl
억울
유림
##사카
전해져
떨어진다
1792
제이슨
North
두르
따돌
라이스
반론
성대
율리
의주
지령
평방
물리쳤
후반전
베르타
다카라
1795
##sych
도파
만류
문관
버섯
선상
조제
하중
##부대
##정동
##oul
pl
루피
바쿠
오도
올레
이달
이베리아
제방
택하
##서니
스러워
매사추세츠주
신한은행
석회암
재결합
형용사
su
system
거병
비료
아연
에세이
코뮌
탄수
##보당
##렌스
##블릿
##ird
##angu
What
용산구
Sur
West
가든
강호
겨루
결전
근위
시제
인대
잡힌
256
1847
1844
1852
경희대
Michael
RC
골라
배타
스에
아킬
엄지
에리
정실
즉흥
처칠
콜드
합체
##나들
##든가
CA
How
거시
과자
단수
마나
박자
셀주크
시발
양현
저그
진심
카와
표제
##왕후
##디부아르
당했으며
크루즈
코트디부아르
가고시마
루나
사산
텍스
형주
화소
시간대
##ita
익스플로
레지스터
익스플로러
Mad
경합
안기
역동
온전
##EST
##날레
##바이러스
KTX
성폭행
God
kW
구전
엘라
클랜
퇴출
##해방군
인민해방군
페르시
물러난
나리타
막시밀리
모나코
넘버
노랑
문물
바늘
상층
이룰
정재
젠더
개척자
코퍼레이션
고다이
교감
끼친
소론
예멘
용맹
잡혔
콜린스
티모
##oy
##바퀴
##빨리
인류학
1776
되돌려
제노바
Europe
가곡
강했
과감
리자
사탄
서품
셔틀
전열
클릭
홀딩
##타스
##포시
##선언
세계유산
##lass
KA
NL
강습
딱딱
린다
법규
부락
트레일
##입자
1836
##aint
프라이즈
주거지
북대서양
Hist
깊숙
넓히
비키
실효
카리스
컨퍼런스
키트
##티야
##소문
지배했
Champ
오프라인
Franc
여운형
즐거움
닉스
대덕
받치
북측
사부
세가
오름
자네
조율
호화
화염
##스레
##산부
##ration
##ental
1803
가로막
독재자
HTML
병자호란
플랑드르
왕당파
교지
방울
세무
워낙
자위
후회
##심원
##단지
알프레드
크라운
실린더
마스코트
근세
동거
목요일
새뮤
스톰
승낙
잉카
지킬
천마
퇴진
행선
##나시
##네프
한다며
중앙선
Road
오카야마
금강산
총생산
Part
YG
네이트
매복
사드
염화
옹주
외삼
투사
##IF
##iness
고제
규합
레티
미망
예일
잠실
진이
##니언
##북구
##펙트
대사간
병원체
Roy
외계인
날아가
능숙
두터
리브
이끼
코난
##ute
206
이루어질
타이탄
군주제
엄청나
TR
du
갈비
경화
로잔
보리스
세울
수당
의논
익히
함장
##gen
##20
휴대폰
모니터링
격투기
일렉트로닉
도네츠크
MIT
col
강국
격전
광합성
수표
앞뒤
축복
한민
이유로
목표물
보유자
장갑차
와카야마
권익
귀인
미트라
볼록
압수
천상
코마
현악
호적
##진보당
정치국
##iter
데뷔작
잠재력
협동조합
Nat
She
고갈
과세
모란
변한다
위트
차수
축일
##제비
##방스
수도사
##rim
##슬라프
Company
CV
Pat
Sound
도끼
며느리
베테랑
사할린
상회
스택
아노
어사
윤곽
즐겼
지남
출정
쿠라
##sc
##메드
##ME
##던트
##arm
Alb
아오모리
##rown
헬레니즘
Tre
굳이
뉴잉
단국
사생
앵커
에다가
연중
자백
구단주
가치관
베르사유
넘어서
고지대
USA
다비
레비
베르트
산신
양군
엘비스
자각
점토
카펠
커브
헤센
##히데
##ague
받아들일
오리엔
저널리스트
법제
빅터
오즈
이호
재물
적힌
통감
품목
##돌이
세인트루이스
브루크
이시카와
기동전
글로브상
##프랑스
DB
뉴기니
다비드
당장
따지
리크
목장
무정부
선단
왕좌
월남
임종
채권자
출사
특기
##lat
태어날
소송법
White
순교자
바보
반달
어학
##ars
레이건
부르봉
##ady
엑스포
다카라즈카
NBC
경내
사각
에두
접미사
체로
포인
향기
##컬레이터
스테이
에스컬레이터
원정대
맞대결
Science
Cup
FK
Im
근간
서안
석불
실책
쌍대
외손
주포
투기
##동원
##ason
청문회
co
공문
넥센
발진
센다이
야만
여포
우마
##토크
대한항공
게이초
바그다드
새뮤얼
End
it
교란
논평
뉴올리
만연
박진
반향
복소
생원
요도
울릉
죄인
중남
##기아
##신보
##정사
##단위
480
1791
파르티아
뉴잉글랜드
Luc
가창
건네
겨냥
당상
등산
마애
무색
복싱
비싸
수열
에페
##날드
1837
Long
Pet
내기
무찌
미켈
변성
봉수
빨강
사악
알칼리
에노
천자
코로
유럽연합
370
오아시스
날렸
수역
여관
탐정
페드로
헤더
##플렉스
자연수
이주한
##ude
후임자
광복군
대니얼
균열
농담
매디슨
볼드
사커
상동
쿠로
##당류
##중추부사
##간지
##워즈
프리드
기념장
##ally
Beat
웨이브
요금소
몽고메리
지극히
고생물학
미망인
Di
너스
로시
매끄러운
발광
수은
##나주
##alth
##oung
광둥성
Land
내림
던진
민원
박원
산조
섞인
영사관
유구
인문학
정언
채집
카보
형광
##우주
##과학
##lation
헤르만
Project
레닌그라드
대교구
MLB
Sum
강타
관군
사키
사병
성산
엘레
인계
잉여
제프리
조석
통킹
페스트
현황
##고로드
참전하
##로그램
트로트
Boy
해수면
셀레우
군기
규약
꽃잎
도안
리차
리시
매기
버밍
승단
##황색
##연구
##더지
여행자
닛산
모였
배당
시시
안톤
쿼터
타시
타쿠
터너
폐하
##구스
##린트
올라왔
스케줄
급속도
이바라키
Alex
Sam
명왕
상법
세관
소인
슈트라
아스카
애드
열망
제천
허물
헌터
황위
##대전
##TE
##버터
오스카
국방군
프라임
고고학자
이노우에
WC
도읍
슈미트
체질
커리
##ense
특별법
##adem
브레멘
적절히
미시간
슈트라우스
House
박성
선과
수마
앤서니
호전
히노
##수염
##화당
##IR
##누마
##변수
돌아올
멀티미디어
붙잡혀
Windows
직사각
갑각류
EBS
관개
나토
남단
대진
동자
무패
붉은색
사투
성수
실사
의제
자석
조봉
족장
탄력
##어냈
##범죄
드러난다
접근성
사법부
오토바이
데려가
쇼핑몰
해운대
Ben
Vir
곡면
냈으며
노란
논증
라울
로디
롤플레
병풍
서클
자갈
주나라
피살
##트가르트
##형제
##출력
##큐어
통계학
동남쪽
지바현
반감기
조연상
슈투트가르트
롤플레잉
Power
강좌
고관
마늘
메드
모션
본존
부화
사와
정명
조회
치마
##러져
##다임
##LE
그러다가
##tim
중심핵
피드백
General
플루토늄
넷플
단발
모치
에탄올
전범
카로
탈피
하라
휴일
어려울
AMD
패러다임
조용히
넷플릭스
Over
Ter
길거리
본능
불능
세제
시력
애슬레
워스
작자
첫날
카야
##정변
##위치
들어선
시킨다는
기획사
펼쳐진
호기심
Play
바나나
애슬레틱스
MT
구가
부파
여대
오슬로
전봉
주군
충칭
흐트
##박사
##록대부
##초프
국내선
조각가
게이오
경부선
성폭력
MD
구루
내일
뷰티
시의
안철수
호그
테크놀
다녀왔
사이타마현
내몽골
눌러
래리
리바이
세일
##시게
##ION
환승역
Adv
Research
폼페이우스
IUC
굴욕
레크
북인
원문
직렬
##일체
프로그레시
##ander
생물학자
선보인
##방송공사
조광조
프로그레시브
Jack
Rem
그간
멜라
방학
유자
을수록
중신
처마
해피
##PA
세르게이
##ological
이마가와
IUCN
Dr
MM
남아
대등
디바
라프
무겁
보그
사체
에볼
철기
콘티
화승
##로트
##비에
돌아간다
이어질
##rad
Cons
영장류
상반기
Aut
IR
Not
Top
레몬
모태
장강
코호
##VA
##핵생물
프로이트
통신망
오메가
Get
개경
봉헌
쓰성
오시
입찰
지크
##데냐
세포막
1841
MSL
##IDS
사르데냐
여주인
토요타
With
깨지
달린다
라쿠
문건
미러
사하
세스
앨버트
유틸
정오
텐서
##oid
##처럼
209
##ones
225
##ople
1842
실리콘
끌어들이
공성전
유틸리티
나투
네브
모교
변함
용역
접목
추계
케리
탄광
##뛰기
내려갔
알렉산데르
만주족
레인저
여우원숭이
막시밀리안
pol
공학자
광서
문정
방호
부식
빌드
셔츠
악의
연화
옥사
요가
조우
테살
표트르
피쳐
해커
비행사
Church
저지르
747
쫓겨나
채무자
미성년
Hy
남아시아
렌더링
산재
솔직
술집
유세
중랑
출병
커져
##신저
##엽수
211
310
트로츠키
Enter
Grand
Cre
Pi
격화
공경
미트
시온
오인
오일러
충고
키드
항전
현생
##ga
##GB
##재판
동아리
대제학
개축
기교
김선
대여
동호
봉황
정해졌
줄였
증축
##민당
##운다
##alk
돌아와서
다마스쿠스
Bri
IF
op
기악
루손
버진
변론
병과
소진
중거리
증류
테트라
효용
훈족
흡입
##피카
사이언스
방법론
폴란드인
나왔으며
앤드류
감마선
850
Hel
SR
가결
가변
경순
글렌
발작
불평
생포
앨리
척수
라이센스
사업소
1794
바닷가
로버츠
모잠
변한
정량
청도
총영
타나
패치
헌종
##이상
##현실
##조류
부분군
Max
호흡기
돼지고기
모잠비크
Little
국인
기린
불길
싱크
에레
영암
영월
위태
조경
청군
초석
페레
포상
풍요
##ee
생산자
고승
돌고래
미완
베크
아람
인먼
장차
재빨리
치사
2500
##ama
자격증
합쳐져
카롤루스
바빌론
다행히
WHO
관원
니트
동급
디나
라임
미자
발터
변했
보령
앨라
핑계
흉내
##히메
##퇴근
##팩스
420
##에이고
샌디에이고
홀딩스
ag
견습
구애
델리
라지
로컬
목동
서지
세밀
스킴
안식
오우치
왕명
유익
창구
틈타
함부로
##징어
##umb
1832
1796
천안시
안티오키아
Battle
ha
귀순
기피
느라
동체
매니아
사영
센다
안건
원만
퀘이
연구실
##amil
동일시
##노스아이
엔지니어링
서태지
부에노스아이
부에노스아이레스
Bas
York
경멸
공파
군량
꼬마
다윗
도봉
레스터
본당
수퍼
아레
의령
책정
카파
푸젠
할양
##태자
##든지
프로방스
토론회
440
Arch
가이아
금기
늘렸
다채
됐으나
버스터
블랑
성자
스펜
암수
융기
한꺼
호로
##그램
##가하라
##조사
가져갔
이광수
수증기
추축국
한꺼번에
BB
로사
메모
자장
진하
출항
침수
한복
##ij
##80
##린저
##활성
자동변속기
1831
예비역
vs
마취
엉덩이
영성
영천
예프
타일러
##시험
##구멍
유명세
항공대
기본법
보였으나
슈퍼컵
건너편
후유증
man
강가
다이스
만물
보국
분별
비기
소노
인제
출퇴근
타고
##시아키
요시쓰
1835
도망가
탄수화물
갑신
과부
금동
끼워
더빙
불문
소양
양념
양위
옹정
인성
추밀
코일
풀이
하지
화교
##led
##ograph
APG
행해진
자오선
FBI
Hell
금리
나기
레반
벗겨
아드리아
안심
에픽
오와
유창
장정
적법
총감
특공
허구
환기
##라르
##북면
##벤션
##ider
부사장
트라이아
시공간
mi
로보
생장
쇠약
유독
초판
현은
##티지
##섬유
1300
모델링
올라온
공군기지
##이치로
윤치영
예배당
##other
맥스웰
콜라보
곱셈
나날
로망
아열대
정직
평의원
푸드
##작전
##불명
1790
세키가하라
루키우스
아브라함
Pap
교재
도형
문중
설리
소라
속국
양분
우디
의대
폐차
##이다
##라는
##레도
##모닉
받아들인
나와서
무너졌
nm
pre
결단
공병
구비
닌자
매춘
버트
수족
슈바
은지
케이드
트레인
폭주
학당
##의금
##츠부르크
##시대
##배마
##토쿠
##끄럽
##예술
##til
준다고
스태프
앨라배마
lo
관대
관저
기근
독신
명중
박상
아칸
애매
웨어
직권
치루
쿠마
파주
##도감
##무지
Art
법정동
안드로메다
이와테
DOS
걸맞
독소
루가
상설
선회
오니
키웠
현관
##고사
##학파
##건설
지방관
뉴올리언스
강자
결렬
국면
나바
무예
발열
사다리
소탕
수문
숙명
예문관
오른다
태블릿
행한
향한다
##ues
##무실
##lam
야구단
내려온
합병증
격침
노르트
망가
삼척
석재
일면
##노르
##플라
Like
htt
pr
고독
권하
금관
김승
꾸미
손쉽
억류
치밀
포섭
##반정
##샤오
전시관
감염자
오토모
글리코
베오그라드
트라이아스기
FS
cell
거품
국문
막아내
베컴
양원
이강
정읍
증원
필로
##베인
##바드
##도라
##자락
변호인
유물론
단말기
선거인단
셀레우코스
걸치
결투
결집
교묘
급사
다쓰
윤석
##화경
##큐슈
돌아간
스트라
비엔나
강서구
가선
가극
국무부
내시
달력
성교
스플
습니까
승전
오랑
절대로
콘셉
클리어
폴라
##러드
##네소스
##ely
플로이드
개막식
Joseph
김두
너희
려다
사조
이국
한겨
할로
##ni
##니츠
##지스터
##주석
##길준
이해관계
##ions
원정군
1821
빠져나가
송진우
기형
비참
안데스
얼터
위즈
중건
지느러미
티무르
##쳐서
##욕장
아르바이트
올라갈
Bur
CT
KS
tv
보육
부기
서당
서프랑크
센타
시편
완비
친히
카인
혼돈
화풍
##타라
##렐라
State
후쿠이
클라리
트랜지스터
지리산
1623
연습생
디렉터
모조리
서스펜션
거머쥐
Oper
동아프리카
본진
블룸
슐레
안중
에코
잠비아
핵산
##티보
##악산
이케다
이성질체
Rain
car
you
견지
결실
고해
심플
오차
정중
조동
차차
청일
패퇴
##ets
연방군
가까웠
Christian
조봉암
내구
담론
대용
안주
어인
지검
지요
쫓아내
충신
튜링
평신
##리언
##바꿈
##라과
##완다
중앙일보
드러난
우에노
후쿠시마현
##타나베
Richard
한겨레
Les
Na
군비
면하
미묘
백지
사파
생쥐
쇼팽
수주
영덕
풀백
호찌
##거성
##세서
아이작
데이빗
보호법
마음대로
블루어
##ather
클라이맥스
러서는
Peter
공평
김희
머큐
브렌
비방
셰퍼드
양지
인척
종주
짝수
행운
##공화당
민주공화당
혁명가
1843
라이온스
격상
난쟁이
농작
롤러
부치
이랜드
팔려
##ves
##파트라
##ford
##탄두
오스트로
바로잡
연대장
가요제
크레타
지평선
모국어
클레오파트라
Bill
mus
리안
배향
빛깔
우대
인노
재보
##DI
##하우스
207
자유형
민족주의자
니카라과
암모니아
DA
Del
공보
교명
담수
미첼
바니
사미
여긴다
예보
외가
유길준
이카
재주
재계
접시
##프스
##inus
430
쇼트트랙
HMS
그늘
노엘
담임
마른
몸집
살피
소주
알마
오구
월경
장지
청했
탁구
##va
##nal
##ump
부여군
야마다
1806
대대장
천연가스
로페스
JTBC
랴오닝
Rob
Sn
군집
나시
노마
브리스
콜린
클럭
탄두
포니
표했
하순
힘쓰
이오니아
##이즈미
갑작스런
롬바르디아
cl
당분
도보
벤츠
손수
스팀
오나라
유미
제고
템플
현명
##로아
##일기
##ges
##패드
영화관
그리스도인
무너져
연금술
고분군
파스칼
스테파노
Mel
SG
mac
관아
무비
백자
안면
알로
유보
자막
지석
켈빈
후추
##ca
##uter
##FS
##스트림
국가원수
쓰여졌
루터교
Baby
필하모닉
Cat
Law
Port
과달
기네스
성조
수렵
템포
특위
허난성
상대론
진정한
클레어
Green
KB
self
각광
간파
강진
니체
르완다
말려
분장
산술
언젠
오마
요나라
원생
이홍
좌천
징후
클라인
흑색
##금속
사라진다
한자어
깨달음
잇따라
사탕수수
미야기현
Down
감명
고요
달콤
봉분
서역
성찬
영위
유감
일주
코민
테헤
한하
홀수
##텐셜
##era
##ulti
##apan
빼앗겼
지켜야
##irect
##velop
##그라운드
First
구석
기민
록히드
맞배
매번
성형
장조
조시
키즈
트론
특명
하후
##oft
##스트리트
##ents
League
엑스박스
모터쇼
기부금
경비대
테크놀로지
ele
fl
과업
새기
심근
아쉽
열기
콤비
키리
퍼텐셜
호국
##루리아
##서기
Stand
예수교
##ount
대수학
스와프
##gram
Human
구명
무위
수요일
열람
웅장
하카타
##암리
독립선언
##ada
##rip
정확도
주제가
Int
불렀으며
공화주의
NAD
프로토타입
##formation
라쿠텐
머큐리
Home
im
고취
리온
멘토
반정
북상
소크라테스
어쿠스
와타나베
전극
전액
직함
집전
총체
토바
게임즈
221
선언문
주둔지
파르마
그레이엄
항소심
##라이어티
어쿠스틱
Jour
가모
감탄
나탈
노카
버라이어티
상피
수프
앙상
의인
잇달
컨디션
토의
##다스
##여지
##데오
네덜란드어
Inf
1810
농민군
대법원장
로널드
먼로
변장
수강
슬퍼
완장
원곡
전란
찬탈
추궁
캠벨
##디우스
##arch
여러분
Show
사다하루
로베르토
GPS
Run
김천
노무라
문어
실베
양양
원한다
저스틴
정승
차역
펜스
##메랄
##ister
##omb
아르테
##idd
ICBM
양서류
Lab
괴멸
레저
멘델
배설
승선
열광
이문
포교
##기야
##크리
##다발
##레앙
##가요
##흐트
정착민
조기어류
미식축구
Div
ab
가디언
네바다
니치
소피
영문학
육박
장서
코크
탄원
터스
##vis
##스퍼
##피크
##폰네소스
한국방송공사
212
290
737
돌려주
네이션스컵
##conom
펠로폰네소스
교내
당사
동대
스텐
스쿼
안락
알베르트
엔젤
우니
착안
총살
틀림
피어스
##니에
##팔렌
##자드
로드리게스
집어넣
급습
남경
로제
사흘
성부
수질
입안
자성
전서
정글
주유
춘향
치중
##AE
##광선
##UI
##능력
##ida
후반부
1845
##oney
시에라
배상금
바실리
LCD
미시간주
개간
경원
달마
모를
보우
비어
소르
여긴
유카
제이스
지반
컨벤션
##황제
##질량
1100
항공우주
1799
이리하여
안티고
옥타비아
가전
개전
권세
비올라
사나이
수류
와이어
요셉
율령
으론
총수
카불
평상시
##ico
행정관
##anger
1813
보행자
산둥성
골수
습도
엔리케
옥상
재외
직교
치킨
표결
혈청
##고트
##화산
##코스트
사우디
음식점
1809
겨울철
오이라트
##중국해
낙하산
유목민
##의금부사
DO
Fil
Que
Wr
Young
리지
명륜
변조
새턴
수아
악역
안산시
참배
해머
홍성
##CO
##르노
혁명군
사무엘
##order
아이디얼
카리브해
타지키스탄
KN
고압
궁내
녹말
단호
미혼
변방
산체
에나
윗면
제헌
킬러
##ery
그래픽스
수영장
시아파
Dem
Tor
광시
데일
리타
버거
비호
샤르
육식
접착
처했
틈새
피자
학도
##박이
##테른
##더니즘
등록금
예비군
아세트
서바이벌
##정보부
언젠가
Ros
Sy
Sim
광경
미숙
손바닥
아민
와해
##ware
##fic
중앙아메리카
다카하시
어도비
무사시
Party
Class
Vic
계투
김우
남로
남반구
노화
민권
북송
분쇄
빌미
위배
이설
이선
주이
##대비
##대주의
##30
##갱이
스타드
언어학자
기독교인
합쳐서
떨어뜨리
일진회
농작물
cor
광동
디에고
매질
베티
분담
우기
태워
트롤
희박
힐베르트
##bor
보호자
가까스로
##리오스
##unk
1805
Spec
유격대
버려진
테헤란
광화문
노현
논설
로저스
세요
음역
이견
지회
직각
참정
파피
포진
혈연
효능
##에쓰
그리드
서로마
슈퍼스타
##ional
1804
오리건
그리스도교
앙상블
공직자
구인
구토
까다
노총
마조
보나파
산인
서둘러
술라
열거
영종
왕릉
이만
추위
팀장
프록
한가
##후이
##운전
##ray
야구부
공사관
일제히
권위주의
##하마드
퇴적물
보나파르트
po
낙태
누에
니가타
단역
도부
드레이크
루드
마코토
성간
속보
정촌
카일
타트
##YP
자신감
독립국
다리우스
365
갑신정변
교주
규장
기권
바랐
석상
암스트
완투
캐논
캐스터
해자
허버트
황하
##싸움
아시리아
대항해
통계청
연출가
아우구스트
조르주
Corpor
ED
GR
계룡
북반구
생년
압송
역모
요시아키
웨슬리
윤리학
카다
캔터
캔디
콜론
쿠루
##크트
##여객
포위망
##ible
부위원장
창업자
리서
벌어들
북해
사목
새해
선지
소켓
이가
토프
##uf
##세데스
##ington
재정난
학년도
남북조
펼쳐지
참모장
메르세데스
지장보살
도라에몽
Service
건널목
송파구
버밍엄
Aug
균등
라테
설과
열풍
오딘
월북
코이
헤엄
##NT
##부미
##던스
태양광
알렉세이
동의어
샘플링
여주인공
귀양
길버트
루머
몽케
무공
바사
보아
북베트남
사중
신궁
약품
오징어
원효
이심
인신
잔치
존엄
총액
캐슬
타블로
##vi
##ture
231
Station
찾아왔
에이브
가입자
조합원
서기관
노트북
미주리주
##burg
CL
Mem
다지
려다가
루카스
바타
변속기
사죄
시우
양궁
용매
점하
클로드
하모니
208
들어와서
스틸러스
컨설팅
EMI
가온
감기
광택
도표
마포구
비슈
스레드
쌓여
에든
정청
파격
해일
회부
##하이드
##월드
##너티브
다시피
중앙정보부
프린터
얼터너티브
에든버러
국고
들러
아로
이크
재원
종가
직류
코딩
평하
표상
효자
후난
##오세
##원형
##락부
##담회
지도력
자연주의
세운다
가이우스
어리석
정몽주
코호몰로지
DR
Ha
HS
Hall
Ig
NX
공물
공지
군도
도식
도난
두스
북마
불황
소란
시역
오산
윈드
음색
지워
천구
트리스
한참
화요일
##모프
##하우
##하워
히로부미
1833
정말로
토스카나
아이젠하워
Pan
버니
분홍색
설사
성채
소드
어기
유민
쟁점
지치
진위
최순
코넬
혹독
##우어
##랭크
##블릭
##센터
은하단
1834
성명서
갈릴레이
영등포구
카지노
mo
간디
국과
납품
내게
대정
로지
로스트
망루
시차
식이
액수
운석
전주시
종단
주치
치가
코니
탄화
터뜨리
페인트
후루
##ny
##시카
##뉴기니
##트로피
폴리네시아
상세히
리차드
Fire
tr
고하
로어
만기
민생
베드로
부녀
수구
연임
이씨
지카
체임
쿠페
##스크림
분류학
사무관
권력자
모여서
엑스선
수수료
그래미상
보라색
UF
경이
국산
궤멸
낙타
노회
박재
배울
인삼
제비
체첸
치수
쿠릴
탈라
하산
히브
##line
##타니아
##피에르
##씨식물
##oud
보호구역
전기장
가져와
노동자당
1824
아테나
이치현
외무성
단기간
남한산성
무지개
Sl
Sol
Ul
귀여
그람
근연
느다
당명
대열
동차
떠올리
랜덤
몰입
발송
소홀
엠블
육아
적재
추월
쾌락
현수
##ex
##장군
##테롤
##즈미
##득점
라이드
행정동
교차점
생태학
걸로
결탁
내쫓
대머리
마피아
산정
상계
스맥
원치
찬스
퀸스
##기둥
하이든
건너갔
That
UTC
강유
경덕왕
고성군
도자
독실
라벤
맞섰
문교
시료
앨버
어든
외벽
좌랑
친절
콘스
콘퍼런스
틀리
##ures
동인도
쓰러져
Jul
mg
명장
무당
버릴
보디
빈센트
엔트로피
응력
학급
화이
##인구
##레토
##돈나
##데하이드
214
알려졌으며
마그마
트루먼
볼프강
DFB
포인터
Year
강판
강압
고후
군마
노라
달라이
산탄
이색
첨부
키아
탄성
회차
##리야
##니쿠스
##산업
##for
##어하
##ines
아이치
##use
지난해
여객선
디아스
안동시
고조선
시게루
리치먼드
법조인
공해
궁수
셀룰
후시
##체어
##캐스트
스타인
##umber
그려지
시나노
비잔틴
Frank
명백히
아미타불
변증법
Dig
mon
고바야시
권투
마태
무진
미요시
범용
상시
전곡
제식
타라
필리스
헨드
##산염
##소득
전년도
남양주시
태극기
스맥다운
DL
Dark
SW
거물
끊이
대뇌
세탁
숙고
읍성
종친
준하
태세
핵탄두
화북
##살바도르
##등식
##슐린
제품군
요시카
하이델
로렌초
황태후
취약점
Records
암스트롱
갑판
국문학
더구나
두껍
미모
분개
브람
신익
자폐
좀처럼
청송
초당
헬스
##시간
##TF
##은사
##려야
##디드
215
다이노스
##ape
Commun
1593
정사각형
중서부
사생아
TA
유폐
재심
창씨
츠카
티오
함자
##cle
##xy
##스톤
##zo
##매기
##lad
포위전
서기장
열렸으며
##obal
화성시
의병장
토착종
수마트라
강구
낙인
내수
담장
도핑
모후
미팅
부트
스완
실태
앙드레
인슐린
친숙
트인
홍익
화원
##스티안
주교좌
1783
브루나이
받아들여졌
아나키즘
배트맨
괴뢰
누락
돼서
말소
벽면
보주
스틱
습성
신관
아약
예속
지터
청교도
초계
태화
##lish
##노동
사이공
캐나다인
강화군
Sport
브루노
##ondon
좋아했
델라웨어
이완용
BO
Japan
PH
기주
들였
모식
모닝
베버
본디
속이
여생
총알
238
390
Lee
브릿지
OK
net
곤살
국명
난자
박찬
반열
보카
수스
연하
키치
톨킨
포천
회중
후신
히말라
##uel
##레우스
##모습
##osp
보냈으며
앞장섰
스텔스
자카르타
Fer
OH
TG
und
니스트
대세
도색
바하
변천
스톨
앙주
지브
포틀랜드
대학살
반대쪽
네덜란드인
이치로
어드밴
반공주의
Ho
KD
May
Old
PK
교화
국화
국무원
군국
마자
메신저
선서
수뇌
슬롯
실습
어딘
연유
자키
전집
테이크
트러
포즈
##레트
##토바
리그컵
기타큐슈
##agement
크리스티나
사가미
간청
경감
바바
박동
반유
보궐
시미즈
아요
알현
원단
익산
중학
천명
카노
후베이
##울루
##코인
##계사
##ering
요시노부
찾아온
1802
1597
페이퍼
황도대
이회창
Louis
니케아
아약스
Hill
YM
med
up
교동
던전
득실
법상
스킨
인테
주스
패주
포브스
헤임
호감
흥원
##전쟁
##cher
계약금
공주시
목격자
해수욕장
오비탈
조교수
콘셉트
Bet
괴팅
급기야
낭독
독려
디펜
레퍼
매슈
무소
미디
브론
서보
세베
수선
실크
제보
총학생
파주시
퍼플
편하
##평가
독립성
플레이트
Rep
전동기
마운틴
Moon
일간지
총학생회
River
고질
달렸
도화
도량
두부
못지
밀어
유상
은둔
이교도
점심
정약
조력
출진
치른다
편모
##베를린
##가키
지원자
222
Child
1808
테러리스트
1775
계몽주의
소용돌이
최하위
히말라야
950
거액
구했
나한
다뉴
도나우
바레인
손책
시타
엘리스
정강
차오
창덕
취한다
할수록
히코
##제철
##지먼트
##마타
##마을
##겐슈타인
경영진
가져올
비트겐슈타인
매니지먼트
점성가
끊임없
비대칭
맞배지붕
Imp
걸릴
교포
데인
랜디
본초
사일
상투
수메르
스팅
엄정
영연
제학
준위
합장
##min
##백색
##래시
##분투
##높이
엘리엇
증명서
결론지
내세운
보르도
원내대표
에트루리아
외삼촌
대소
데포르
마초
분양
상감
수배
수생
잠복
조참
중첩
집약
타키
학창
##면적
##천국
보이즈
Stad
시트르산
상류층
브래들리
Tur
Under
가니
간소
대면
동족
목화
소도
안재
약제
코우
특혜
한도
현악기
##티우스
##는점
생산력
세포질
Mach
무너뜨리
Carl
##ference
레퍼토리
MW
고작
더라
마신
베가
수의
양손
에인
욕설
출루
풍토
##니발
##onic
저작물
1636
아타리
수류탄
AIDS
Sant
da
거문
교학
금화
로코
마도
모기
버퍼
여가
이트
이코
지단
최용
퍼진
페라리
##ias
##pm
##신경
##모음
아니아
중앙아프리카
아닌지
재판장
레오나르
##슬라브
레오폴트
교직원
##해살이풀
GL
IG
갤러
건안
당기
독단
루지
미우라
본기
봉사자
성직
예견
전륜
진구
카츠
테드
헤지
화신
##사회
경기력
자유민주
올랐으나
757
한정판
East
London
RF
구어
금정
마틸
민가
밀어내
불계
안시
음양
출근
캐치
콩쿠르
퍼부
현령
##스텐
##민정
##훈련
그러면
베이직
스테레오
1818
공기업
전망대
기다렸
앵글로
Gar
Master
개표
결속
대적
마돈나
무루
문수
생제르
슬러
아말
역행
오닐
음경
이게
장경
장크트
창세기
청정
##호르
##바스
##티드
##omen
보였으며
##소년단
연극배우
1787
무궁화호
생제르맹
교착
명동
살상
섬멸
아드리
장택
철제
##11
##영향
##구미
##게이트
정보국
학생회
1807
전철역
스탠퍼드
비지니스
농어촌
미성년자
스펜서
다뉴브
Bal
Cra
Now
UK
가우스
대입
면접
발부
부응
불태우
성제
욕심
이학
저압
콜레스
투영
호날
##대성
##식스
##데일
아이스크림
통신부
필리포스
출장소
등지느러미
플래닛
늘어난
동북부
1392
백두산
추밀원
호날두
계파
골자
관위
남짓
놓쳤
능하
듀스
막혀
바란다
박용
사멸
소마
스쿠
신예
아루
자급
키타
##cil
##보라
##60
##itor
720
자이언트
김종직
원동력
인테리어
갑오
고증
디스코
몬태
베를
볼륨
산청
쓸모
안달
열등
이희
파사
패드
해왔
현청
##고양이
##진구
베이컨
쓰러지
앞장서
하시모토
주세페
European
코민테른
ME
리노
목걸이
미로
미약
반증
사보
샤오
선방
에스터
절멸
정년
직할시
타가
후이
##uz
##라이스
연장선
후쿠다
1817
고문서
Never
Academ
리서치
Every
XX
구석기
노원
데메
리언
박격
사옥
시암
오목
웅진
진주시
커티스
환초
##gin
##회원
##색슨
##메네스
태평천국
갈라진
Pres
관음보살
모티프
후견인
아칸소
앵글로색슨
VS
경구
누워
드롭
벤피카
상체
세도
숙성
역습
예리
유실
쿠사
파드
형무소
히치
##실험
##연료
개최지
시티즌
노스케
다운타운
##ART
Who
테크노
콘스탄티노플
배수량
크리에이티브
신익희
Camp
로바
리저
마거
반납
버락
빈약
소망
시술
약학
어음
여과
원망
이삭
차분
초식
##ied
##개혁
##팽이
1819
Henry
데포르티보
콜레스테롤
Dou
Mont
고스트
김장
다쿠
메사
무거
실로
와트
음란
주어
촌락
케도
##IX
##노세키
##커우
##처리
301
##aven
수감자
끌어올
에버턴
시그마
트래픽
조병옥
Network
네브래스카
Gen
IL
견딜
논산
도기
말린
미녀
뿌려
완도
이구
이브라
주상
칼레
코디
탈리
풍기
핸들
##드라마
##임수
##더릭
##블린
##ester
기념식
크리스탈
##티아누스
근본번뇌
버지니아주
서북쪽
농경지
무서운
개리
구운
균류
낙랑
대파
머피
미에
비세
빅토리
수라
안다
이부
후백
##ba
##스탕
##모자
라고도
##als
아리랑
구례
도합
만찬
맨틀
바이스
봉작
아역
올랭
인출
출소
호박
##ring
##남동
##HS
서비스업
다이나
여겨져
나카노
헤이그
안드레
경학
노획
성년
앞부분
예편
웨일
직제
코인
픽업
##lan
##스테
##하르
##건적
움직여
오브젝트
불법행위
간행물
1763
포항시
방탄소년단
옥타비아누스
Vf
구라
동률
산동
생김
아누
애프
애벌레
우사
유관
즐겁
지뢰
타국
##로세서
##파스
##웨스트
프로파
베르너
1838
신고식
쫓겨났
언더그라운드
비정규
Game
가한
귀향
김도
김덕
도나
로타
로젠
송이
울트라
쟁취
조엘
참호
청탁
친다
택지
퇴화
##남면
##재란
##네르
다가가
##ating
520
부활절
##rick
벗어났
정유재란
원통형
파푸아뉴기니
Bi
구식
넓혔
뇌졸
라스트
루소
미신
번번
아랑
엄밀히
여태
자력
조던
##NS
##경찰
##댄스
##ato
레이어
게이츠
Leg
460
수송기
가속기
알레르기
김종필
압둘라
애기박쥐
허베이성
고다이고
Cur
Fin
Feder
Ol
각오
느려
대양
버시
어필
잔당
정파
투니
향로
호골
##oom
##복음
##마트
##ona
산업단지
프리큐어
예정자
660
America
현저히
소시에
대주주
글래스고
불계승
OEC
각별
갑상
김시
남조선
도승지
리하르트
만국
실라
이면
조제프
주둥이
폴로
회기
##무트
##방식
개인주의
비트코인
글리세
플라스마
디렉터리
헬싱키
병마절도사
간염
갔으나
경치
계략
김학
다방
매료
몰라
미겔
밑면
보두
소변
어종
영세
장이
장엄
주술
커넥
크세
클루
투고
핵연료
야구팀
찾아보
에드먼드
설득력
카스텔
Mal
강물
교우
넥스트
닷컴
망막
사구
언약
연마
접경
칠성
퀘스트
투병
##파니
##BN
##암사
##량체
##ury
스위프트
이스마
1816
유가족
투르크메니
카테고리
키르기스스탄
투르크메니스탄
Ga
각인
고창
노숙
봉승
불순
수화
신빙
장령
제이크
페티
흰개미
##장조
##퍼트
##양구
##림사
217
223
233
스위트
정규군
아랍인
아파치
미카사
최적화
카리스마
장택상
Da
Dist
ON
경색
기치
모질
버즈
부결
시동
암초
염료
항모
##지대
##행파
우승컵
내각총리
중대장
돌아온다
알레산
##하이머
무라카미
Andre
서남쪽
조선왕조실록
Corporation
소시에다드
내각총리대신
Miss
감히
기만
내역
다라
베아
북진
식료
약수
연좌
영도
온전히
장타
컬링
코레
필적
##라나
##테일
##코비치
##쿠치
##행사
생산물
1828
물리학상
피스톤
콘티넨
안티고노스
가파
길목
동티
로움
미타
상권
색조
서강
에렌
연어
장론
지루
창안
탈바꿈
투과
효성
##레미
##볼트
Real
640
진보당
빠져나
엄격히
스톤스
몰아넣
뇌졸중
Mur
are
강박
개년
거장
그로스
금광
니즘
라티
마는
방조
베리아
부윤
야코
에이지
옆구리
우랄
일보
자락
짝짓
철근
친목
파룬
혹평
##전차
##마뉴
##평리
플래그
중합효소
파룬궁
Pal
Saint
게일
광종
도독
릴리스
메이트
비약
서던
세브
슬럼
승마
앞당
우이
임업
주청
취락
침전
콘월
퇴사
튀르
특례
해구
##오밍
##비우스
##asc
통합진보당
1797
##ava
1598
부사관
1453
Korean
구스타브
마에다
이범석
노브고로드
미완성
OECD
Line
gl
관방
다기
멜론
불펜
살림
올바르
장흥
제각
케니
후천
##eg
##EX
##장사
##슐리
바이든
미술가
##aker
세이버
코미디언
가시광선
오를레앙
시부야
##anguage
마거릿
PM
ROM
귀이
깔끔
때리
열중
외세
우도
이륙
체세포
친하
통사
헤이스
##오드
##카라
##링크
##ora
Union
특이점
김해시
부제학
무척추
스포르팅
타고난
Fall
Jac
낙엽
도리어
도치기
로베르트
배럴
수온
약국
응고
이로
조만
주시
착오
크릭
호러
##메데스
##여왕
##링거
##lav
보호관
지휘봉
빼앗긴
코르테스
남겨진
고르바
사이클론
오렌지색
레즈비언
사천왕
TO
my
결부
궁지
농협
도매
박경
세타
시로
요아
우쓰
임박
코다
쿼드
키워드
테베
합산
홀드
##보스
##전하
##HL
##lar
생물체
매일신보
플루트
리얼리티
피에트로
핸드볼
태그팀
오하이오주
클라리넷
RD
Sti
we
공생
교배
기시
난입
농노
리츠
발화
비닐
성찰
숭실
엘살바도르
유혈
지어
최북
카토
쿠시
토고
폐교
합천
호지
호엔
황궁
휘두르
##브산
리그전
인터랙
Dev
본다면
밀려나
과도기
풀려나
##타고라스
고르바초프
Ep
Hard
Sub
고이즈미
국지
로스터
리포트
사연
소정
아토
액티브
원술
이세이
제반
중학생
체온
추서
탐욕
트랩
호시
호송
##하늘
움직인다
취임식
전반전
1780
Conc
동북쪽
플랜트
유태인
갖가지
금천
누각
능통
동백
색슨
색인
서드
속씨식물
울음
원가
인솔
피루
##티어
##시엄
##왕국
##자유
##젤란
조직원
시켰으나
##프리드
안양시
다름없
나눈다
Plan
앞세워
EM
MR
Mill
Vo
명맥
무왕
무방
보츠
사계
소치
실화
오두
제법
퇴계
판다
하세
후생
##mas
##우며
##즐랜드
선거관리
##rib
##ucle
Space
무형문화재
다닌다
반유대주의
선거관리위원회
덩굴
미코
보니파
비명
솔트
실드
쓰리
유이
자의
천적
퀸즐랜드
패미
##wood
##ville
##레프
사이키
##ince
근본주의
수호자
글리제
원종공신
제니퍼
관동군
무찌르
Dec
EV
name
간편
경은
냉동
듀크
마한
북북
상향
에린
이석
익사
인장
전폭
찬드라
코바
타오
하향
환산
##asy
소유주
가부장
안중근
참정권
캔터베리
창덕궁
Cry
간간
냉방
반려
시영
시주
실물
재야
코페르
파헤
필기
하디
해주
해류
##장자
##거루
##메오
##하스
##콘티
##껍질
##estiv
##스티누스
초등학생
1788
신인왕
비스콘티
알베르토
브람스
걸스
국물
다뤄
번복
잔기
포구
학비
후각
##UN
##어난
##버거
사회단체
##ison
만화책
카이저
Web
Edward
##브레히트
페미니스트
징병제
심포니
대식
레르
막바지
박중
반일
송금
스나이
알카
양정
에리트
연작
영재
유모
이보
인더스
입출력
체격
컨소
탈수소
폐단
포러
##오린
##바람
##재기
##살라
##데사
##컨드
##tit
311
발행인
에이커
제주시
가나자와
주머니쥐
불러일으키
컨소시엄
Aust
DP
EF
FF
no
교두
난방
단련
렀고
로로
만리
보답
생사
알론
연골
우타
율곡
의성
일례
장구
즐거운
학제
혼용
##제사
##WC
##개석
##GS
##코바
##연맹
전투력
##elle
계약서
스트라스
표준어
초대칭
1826
요코스카
유가행파
시라카와
캔자스시티
Royal
관철
드니
디디
만석
면화
묘호
반민
발주
세컨드
소선거구
신작
심신
지날
진성
천태
쿠리
하카
호이
##지리
##벌리
##aria
여름철
군단장
410
영지주의
무너진
술탄국
리바운드
디나모
올랭피크
Band
XML
구자
단성
덕수
랭커
리카르
문부
시판
오에
울타리
유예
이지스
져야
처단
추이
카잔
폐간
화전
##gu
##이츠
##사병
##도체
##시프
##개발
##카테
##ani
##hed
239
##une
크리스틴
1825
reg
all
시에라리
불명예
시어터
시에라리온
계란
극성
기함
동두
매너
박차
어진
유원
윤회
이족
전황
칸타
하츠
호가
##ira
##ker
##비어
##메이트
##ful
##연대
##막염
##사이클
충실히
블러드
NO
가메
기일
도지사
양동
월급
의향
전령
정역
코팅
타현
##상도
##성이
##천년
타이밍
랜드마크
스러웠
##velopment
박격포
fe
non
관사
놀랍
매튜
물의
미움
배송
불멸
심소
웨이트
적성
절연
페가
페데
페레스
##ios
##무드
베르디
유학생
마쓰모토
##리어스
합쳐진
달려가
이오시프
블리자드
pe
가봉
개회
고어
구급
궤간
도금
로런
마고
메트
몰살
무주
바예
반야
반가
섭씨
양당
장항
조식
탄환
픽션
헬렌
회랑
##WA
교육감
전체주의
점령지
자치령
##uction
게이머
아쿠아
##슈타트
이야말로
프로테스탄
사보이아
오와리
가인
골목
관서
꾸려
로워
망상
방황
사표
서아시아
신변
씨름
윤선
정여
중주
차질
품계
한니발
##vir
##소네
##메트
##젠더
Ann
카운터
게이밍
that
매개변수
해설자
서대문구
But
Os
TOP
imp
공덕
구워
라사
메우
방비
북조
셰이
안데르
알브레히트
열반
종과
주살
증직
포스코
해럴드
후두
##가쿠
232
출발점
일어났으며
워싱턴주
GPU
페미니즘
외할아버지
기물
눈부
단념
맛보
밤중
산간
살롱
삼부
슈뢰
신명
안후이
이철
쥐라기
커트
토드
폭우
한라
허들
형이상
##bit
##우마
##경궁
교회법
인도인
우리나라
연주가
분화구
샤를마뉴
아즈마
Radio
Found
NK
새천년
생몰
선왕
유승
은사
입적
전소
페터
휘트
##보냈
##더기
부대원
1784
콘스탄티노스
산화물
였음에도
교복
궁주
다의
덤불
디온
따를
떨치
만력
매표
방전
빌리지
생후
정설
조그
초보
##루트
##사랑
##물질
##아져
##케스
전쟁터
마을버스
밝혀냈
사회주의자
토착민
브라이언트
미네소타주
JP
KC
min
담화
만능
밀스
뱀파이어
소서
쌍용
위문
이교
이따
집시
침착
태상
흡혈
##간드
##HA
##돼지
게임스
넘어섰
나카소네
모여들
##ffect
다다요시
교섭단체
플루오린
괴롭히
노스캐롤라이나주
log
sec
국채
노년
누설
돌이
동결
레미
레일리
레너드
루르
상과
생가
심혈
아구
양산시
위니
전갈
제스
집적
퍼레이드
피그
합방
후버
##br
##스틱
##거슨
##acter
비행대
알렉시
천문단위
1620
에르빈
전임자
불어넣
라그랑
정반대
게오르기
어드밴스
OP
Ra
Roll
cons
고즈
급부
범하
브리트
수난
신숙
의종
자객
정병
테슬라
한마디
향리
##니우스
##아졌
##삼문
##난히
##던지기
베르그
나카모리
560
크리켓
경사면
발트해
괴팅겐
Liv
Vi
귀납
기혼
김나
누명
달래
래스
버나드
비크
슐레스
연례
위클리
의금
종실
차리
치를
하체
##상가
##재단
제작비
이끌어냈
바울로
공양왕
어딘가
레오나르도
lb
결점
몰렸
벨로
보훈
부원
빠진다
사극
승천
유추
인턴
천리
타다
판별
페론
호라
##트론
##누아
##눌프
프로필
아이파크
아르눌프
##르트르
차량기지
시설물
루이즈
서양식
540
모아서
브레인
떨어질
경작지
증손자
휴양지
Hz
Mnet
광석
돌풍
매월
베일리
비활성
순치
원화
유재
일수록
지드
해져서
현안
활력
##less
##레이스
기념사업
스코트
전사자
드래건
알아냈
피난민
샌드위치
규장각
무척추동물
코페르니쿠스
CI
Raw
met
당도
드나들
리나
밑부분
부탄
산마
상쇄
성충
스퍼
유르
유린
젤리
졸라
천정
칠곡
파노
프런트
홍명
##hav
##노신
##덜랜드
국민회의
##ids
설계자
거주민
##vers
모리슨
1689
##ahn
진동수
유망주
지린성
에인절
Doc
pH
김주
냉정
들판
매드
민의원
밀착
선데이
세실
수유
심슨
야채
여전
위엄
응축
이효
장승
주필
총지
케스
탄탄
##타야
##40
##unt
카이두
음식물
세르비아인
오이타
트레이너
아가씨
People
상파울루
연해주
##민정음
HE
Hor
RCA
ass
가자
다짐
메로
밀교
사스
산불
서군
습기
쌓이
아코
애도
액정
총신
핵폭탄
핵실험
##ua
##차크
기술력
마이니치
Martin
Book
트랜스젠더
카네기
에반스
유공자
서귀포시
에두아르
명륜당
산체스
Hal
뜨겁
라부
매겨
문성
미화
보임
북단
세세
수서
아의
우화
유장
작인
정연
채운
카톨릭
케로
크라스
폰트
##ror
그려졌
불안감
합법화
가야금
사림파
시즈오카현
이와테현
YMCA
Dom
Sem
VV
도코
세그
수찬
순천시
음소
이스턴
전횡
청렴
츠나
텐트
하쿠
지원금
밝혔으며
하이웨이
식물원
마이크로프
학부모
흘러가
1624
1610
프라이스
마이크로프로세서
TP
격분
나니
덴분
로런스
루아
뽑히
살균
성왕
셀러
양부
웰스
유품
자위대
적시타
착한
항저우
화친
황갈색
회합
##르모
##가슴
##쿠젠
인도양
1811
1590
알파인
대문자
RPG
구독자
애호가
브루크너
인터랙티브
##estival
슐레스비히
IB
나시오
미안
아저
안구
양치
왜적
외동
윈난성
육류
인회
저수지
정공
파트리
펠레
포워드
표어
피시
하밤
훈민정음
##에리
##어놓
##곡면
##패스
##넬라
영화사
지원군
클라라
아틀라스
9000
모른다는
CCTV
아랫부분
천주교회
나시오날
Cer
Jan
Lin
궁예
기틀
당부
바일
복고
소각
수개
수능
신간
안상
에히메
여장
연사
옥천
요네
으라고
초능력
필살
호치
##atic
##시설
##뿌리
이탈리아인
##actor
요리사
완성도
번역본
출생지
Def
교토부
발명가
저널리즘
MPEG
소시지
수녀원
남아공
세그먼트
Bay
간장
거창
급하
람보
밀수
분투
서간
성층
순정
신겐
육식성
종일
지토
체리
코러스
포티
표류
플뢰
헬라
휴먼
##개명
##레마
##봉사
##그란
##궐선거
##idge
찾아갔
안타깝
해산물
##IVE
1680
히로시마현
문하시
org
중견수
에볼라
재보궐선거
최북단
피루브산
ER
Just
MI
노던
마제
마의
만지
부러
비무장
스커
시성
종용
처우
타사
티르
팩토리
##win
##ique
대해선
213
##ette
theory
방문자
표준궤
평화상
옮겨져
1604
모터사이클
사카모토
Fried
생김새
길가
높일
라코
레그
리허
박태
부록
성희
수훈
완충
외젠
윈터
이형
잎자루
재조합
저온
전광
총상
춤추
카오
쿠키
토비
페름
##미치
자연사
플레이스
가져야
다카시
1822
홀로코스트
강릉시
실종자
목판본
매트릭스
호찌민
보두앵
아저씨
RE
Ray
선풍
수에
신천
유약
인피
제타
총력
키라
##피오
##버라
##케라
##ales
218
##ria
1827
str
Princ
##ulture
페니키아
Call
Ur
누벨
다각형
동태
본회의
수계
순사
시구
요안
원추
이덕
임베
정시
조나
집현
파가
히다
##전기
##빼미
한국독립
군사령
##니다드
문학사
트리니다드
경향신문
1603
1648
드래곤즈
크롬웰
개그맨
Technology
요시쓰네
문교부
임베디드
한국독립당
FTA
Ob
난간
덧셈
도노
목축
방랑
백운
성추
소감
실황
심층
유시
적혈구
정칙
친근
친교
클론
퓨전
한류
헌제
회군
##오버
##사우스
##WS
##시우스
##하나
아이유
지원병
플라자
상륙작전
주간지
1644
해인사
Again
최남단
창씨개명
Dance
EA
es
sch
데시
우트
편수
합천군
##wa
##da
##기군
##우병
##니엄
##함대
##KA
문화사
라이터
##mph
내려지
Johann
##ethod
옥타브
Bon
EL
Econom
Fred
Gro
ap
time
고군
골반
괴로
나방
더미
데니
도정
라몬
머릿
사네
석학
성상
성현
신구
심했
알렌
양천
은색
입교
정과
청조
치이
펄스
피타고라스
학점
##zi
##레알
##fess
##톱스
나가토
##ift
하드리아누스
1777
프라이드
신약성경
카롤링거
##케라톱스
Gh
Ple
Social
간통
겸손
군현
뒤지
라운
릭스
명절
밀턴
발단
스벤
아방
용접
은평
음극
일레
타코
판도
팔각
펀치
포탈
홍무
흑자
##상부
Story
오리올
자라나
스토리지
680
프린세스
오카다
끌어내
컨셉트
마우리아
Foot
UP
do
er
김문
내비
노미
눈앞
데쓰
멤피스
성내
수험
승패
양제
영하
의리
이발
자가
정일
정태
처남
파탄
##장식
##바타
##니히
##해져
##투르
##생명
프로펠러
프리랜
스파이크
##ender
기울기
라우터
##ronic
경부고속도로
카세트
자존심
알론소
Ast
고운
리빙
바크
병리
부총
성급
속박
수이
슬픈
신파
악영향
야로
오경
울주군
원성
익주
장준
체스터
토토
편차
허무
##호프
##소니
##펠트
감독상
2023
내려왔
스테로이드
터키어
1823
아프간
1660
진흥왕
호프만
우쓰노미야
Pier
Ta
em
간척
관공
구나
군무
금하
낙향
남측
드릴
땅콩
라야
로미
몬트
미추
병영
셔먼
소단
아그
어간
이을
이한
이레
이공
주황색
카멜
판권
##je
##비노
##정대부
##승람
보이저
관리국
401
어려우
추진력
708
스티븐스
대각선
line
not
강아지
노다
돌궐
분대
살레
성행위
속죄
어이
예우
의화
이근
정육
주방
지에
차드
침실
통도사
패트리
해면
행했
##ww
##rol
##르템
##두스
##그러
편의점
확고히
BMW
스파이더맨
##르템베르크
GA
고는
곤도
구보
그린다
근거리
다승
단양
동식물
레트로
병인
보사
선적
습한
승소
시경
정순
쫓기
포사
호나우
##노지
##증권
##슈티
##스트로
수행원
##리오카
1786
Contr
##ARD
배포판
푸른색
Bern
ob
구균
그립
그걸
기류
김은
돌진
반칙
불허
사성
상학
설법
셀프
아퀴
어가
업종
연필
차후
퍼거슨
환생
##주사
##얼빈
219
사고방식
개혁주의
기울여
에르난
940
News
신비주의
장시간
가파른
스트라스부르
Il
간성
괴테
근심
노이즈
디시
미스트
성범죄
오호
외피
우동
증서
홍대
##대왕
##워키
##iction
유니온
##iff
1770
완벽히
말라리아
##스토크
날카롭
무신론자
영연방
성추행
Fa
Tu
근친
나크
녹스
뉴사우스
두더지
레나
마로
면은
명주
반구
슬라이드
쌍방
양평
예카테
오퍼
옮길
와다
전군
정철
지망
행태
헤딩
##oon
##gar
##스카이
##치카
##페리
##자재
##웨일스
228
264
어린아이
정신병
메이어
프레더릭
전환점
386
다섯째
비상사태
제사장
Engine
도파민
뉴사우스웨일스
FL
Festival
공회
공훈
김보
껍데기
노시
노름
도고
린치
무마
범퍼
수혈
압승
얼스터
요세
의왕
증설
지병
총동원
키루스
팀원
##cc
##러기
##선교
##field
227
맥도날드
Ba
Bor
FR
Pass
각운동
개폐
김석
나자
로자
밀워키
버림
부이
상온
에타
에센
올빼미
외출
우문
이베이
인맥
절개
정장
카렐
파멸
한서
항거
##well
##드랑이
##평면
환경부
득점자
헤이세이
##에이터
매장량
1519
명목상
아즈치
new
마인드
Global
후백제
BP
Cir
가석
개역
경직
궁금
아픈
오기
우참찬
운문
의외
이서
이분
장직
좌완
파면
후스
##lus
##야르
##ja
##주니어
##나비
##들인
##플리
아르마
에스테
파이브
프레디
몽골어
유니코드
1778
##rome
밀리미터
##거래소
모모야마
당분간
이스마일
Far
JS
Kill
Lib
Us
out
격돌
고드
구한다
놀란
마네
방한
벌리
비오
상보
수작
양평군
에리크
유색
특파
하녀
##12
##부치
##실론
##국민당
##림동
##틸렌
##컬럼비아
int
라인강
##베이거스
감염증
보병대
건국대
작사가
라스베이거스
위안스카이
로열스
불신임
브리티시컬럼비아
안기부
의금부
Brown
pop
계책
고주
구파
극소수
낙관
리부
매핑
미일
북제
분실
비장
식년
약체
엠마
오거
욕계
원뿔
원주시
위아
일류
장력
지소
진핵생물
철광
케어
콜리
크래프트
하얼빈
함의
##den
##마침
##HT
##권력
경제력
계획안
지나간다
드러낸
보수파
808
광주시
올렸으며
512
1829
민속문화재
UFO
Emp
Lim
Last
계면
구국
꺼려
노팅
덩샤오
될지
딸린
레게
민자
방수
사세
상석
섬겼
소토
써야
약어
였었
외쳤
유즈
일직
장부
전경
준동
책상
친형
케이지
파샤
포리
##bus
##러니
스타즈
혁명당
수사학
와이오밍
못한다는
##코프스키
exp
이준용
페더레이션
현무암
형이상학
집현전
덩샤오핑
SI
굴곡
극좌
금주
기꺼
동프랑크
명실
베레
분립
빌레
산토
수잔
신디
신촌
양주군
여류
정현
제례
중류
체구
코라
판독
##어머니
##농사
못했으나
보인다고
##vern
헤이장
코르도바
중합체
공예품
트렌드
브리트니
ver
강탈
군용
나팔
넘긴
린네
부혀
비고
서커스
쇼니
영해
예거
용문
윈스턴
유병
은화
이창
자그레
잡음
정나라
코지
킬로그램
퇴학
파니
폐막
푸시
##테아
##마켓
선수상
집합체
Health
테크닉
오카자키
케이블카
가쓰라
색소폰
문무왕
맞물려
각운동량
자그레브
Water
겸했
망하
모레
모계
미처
반투
부계
산사태
센스
약정
어퍼
울림
월리스
웰링턴
유계
이프
재가
전법
조짐
카쿠
토우
편대
피력
회생
흑사병
##바노
##요크
##atory
다이라노
화학식
이주해
화물선
유기물
트라키아
1774
가나안
이뤄지지
##OVE
김유신
프리랜서
UR
mem
가위
감속
경수
그중
다원
도체
방계
베인
연선
임사
조산
좌찬성
채팅
총합
취입
평온
현내
##day
##미드
##카쓰
##궤도
##ats
시스템즈
아르카
검사장
세르비
Council
쓰여져
벗어날
아소카
##tainment
Business
Earth
휘발유
Journal
리허설
TF
갈레
고부
노섬
대검
덴버
뒷다리
말러
민첩
본드
송병
심취
어라
어니스트
엘프
참봉
최치
칼날
토피
파월
한방
해동
##val
##칼라
##lace
2600
325
Head
보르네오
아르메니아인
칼리파
차가타이
사모아
CNN
구약성경
Angel
아오모리현
달팽이
도감
린턴
명망
미쳐
밀정
야후
완봉
우등
이젠
차라리
파블로
##프리트
##노헤
##저기
##버려
나이아가
연기력
inf
상상력
페널티을
스포르차
서보장
비정규직
나이아가라
남포
라비
미오
박인
버블
법학자
산투스
속임수
수공업
시연
아일
아슈
엽록
일신
조커
조로아
지났
프롬
힐스
##기술
##yt
##시계
##적으로
##룩스
스타스
##inger
275
다면체
Dep
파르티
Blood
Work
시모노세키
##osaurus
김원봉
Cam
RAM
겐로쿠
레흐
말엽
민진
버몬트
비츠
선덕
성북구
실격
어셈
정우회
지파
커크
피노
합세
행차
후왕
##dy
##에다
##귀비
##글러
이동한
스웨덴어
Death
아케메네스
애틀랜틱
영등포
식료품
가석방
각계
거센
경쾌
나포
나바라
노렸
당진
때마침
래드
백국
블레이드
쉬워
앞다리
연나라
유례
전근
증산
직구
차인
총파
추크
휘그
##mon
##오스트
##루시아
##다녔
##연수원
여기저기
요시히로
사법연수원
1605
1618
공모전
관람객
조계종
알레산드로
이따금
총파업
##오스트레일리아
군락
라플
만두
밀로
본따
수월
앙코르
에런
오고
융희
진폭
질의
키요
태정
터진
티니
퍼펙트
후학
##고르
##공격
##뉴스
##alis
226
교통량
내려진
에이로쿠
재정부
고용주
콘스탄틴
징역형
프렌치
발자국
##여지승람
프로테스탄트
기꺼이
www
간담회
고타
궁녀
꽃받침
녀석
니콘
대축
라나
라데
로이스
민선
불의
순응
신보
업소
위선
유주
유위
입힌
정랑
태클
함포
환호
##스프
##아노
##테론
##블던
1750
216
##ellow
##upp
대동맥
사로잡혀
정찰기
전자기파
##가르드
초고층
여호와
가환환
Karl
수뇌부
에리트레아
Right
SAR
니즈
따내
망설
벨레
슈가
억지로
오미야
원판
조밀
택했
혼재
##조치
##갈렌
동남아
COM
가속도
거둔다
아닐까
소프라노
특공대
장크트갈렌
Cast
Jr
Mob
SB
att
가용
다키
단량체
대방
덩치
도맡
벌써
변주
부마
섹터
암벽
양방향
이연
쟁탈
철로
충주시
투데이
판문
페퍼
화사
##uff
##벌린
그러다
인기가요
분리주의
스키타이
동반자
안드레이
##미사일
파이프라인
플러그인
오스트로네시아
교두보
Fi
Sky
Wild
깔려
누마
마왕
명료
묵시
뱅크스
비니
성호
셰프
식단
아워
역병
완행
우키
잡스
지세
진과
천억
청진
치타
평단
##바겐
##케인
##슬론
##ask
레이터
지배층
부산물
##rie
브리즈
Dead
헤이케
청구인
960
자유주의자
이와키
목포시
해적단
Smith
무안타
자부심
슈바벤
최치원
Direct
Ir
SQL
각서
계모
교신
근소
농악
리누스
박기
배영
브롱
사춘
삼위
서라
서하
얼리
여순
원예
위세
유복
장보
카카
칼빈
탈옥
페드
포레스트
표범
##리가
##뿔소
시간표
나가노
마리우스
밝혀내
Maria
클리프
기장군
괴롭힘
버펄로스
두터운
RO
고야
글쓰기
대간
등대
부역
브란트
야자
에테르
외직
##밍고
##슬란
공격자
##ould
##바이크
베른하르트
아폴론
강우량
오보에
항공우주국
Fore
Swe
내통
눈길
맞먹
문항
반년
버틀러
삼거리
상아
아문
앵무
완산
일축
장본
전처
전량
절터
철교
캄파니아
코베인
해금
##루프
##uit
##전력
##DC
브라만
##urs
요시타카
아우렐
Arts
명명법
콜로라도
##ynam
증권거래소
유성구
리히텐
카스트로
의용군
비키니
##amily
IEC
LL
Mind
kHz
mag
val
고우
뒤편
랭스
리포
만수
문란
문답
밤하늘
셀라
시련
올린다
응집
접대
질감
파머
평시
포에
##영화
##처분
##분별
알려준다
dep
소방관
다녀온
손꼽힌다
줄어드
프레드릭
플랑크톤
블레어
통찰력
켄터키주
소선거구제
삼위일체
CB
격노
고단
공론
광원
구락부
넓적
뒤섞
레고
롤리
만과
미그
벌어져
쌓인
아포
안트
안세이
이변
존상
주정
철원
파급
##내려
##레르
##본다
##조약
##훈장
인도주의
관광업
1781
Beau
달라질
레인지
라이프니츠
마땅히
애리조나주
무자비
미켈란
Bud
Es
Men
OC
app
nd
기복
만호
미용
본대
비우
생부
쇼펜하
아모
야인
원거리
유미르
찬송
추앙
춘천시
키보
히포
##제곱
##포화
##를로
##경제
##itte
진행할
##ume
정규직
제시카
##ube
트라우마
980
이시다
Organ
할지라도
카슈미르
사춘기
쇼펜하우어
Fly
Want
el
가만
고보
고금
노역
누드
돈녕
메노
반혁명
배합
서계
선주
였으니
외화
진왕
처해졌
클랩
타악기
트립
포체
포메이션
피했
##ho
##깨비
##조프
##셔스
##tice
시리우스
##tery
선발전
크리스천
파이터스
전해진
아우구스티누스
크레이그
카를로만
으리라
Summer
총영사관
거문고
신숙주
Cop
Fort
TBC
go
김응
남만
단가
도저
레프트
리간드
북로
사사키
섹시
송광
아령
양구
연체
우미
월등
은총
입회
재기
지온
차려
탁발
터뜨렸
학식
한눈
##치니
##테크
##교동
##tist
253
지하수
헝가리인
클라우스
안타까
1609
1785
610
마인츠
광무제
계엄령
울릉도
Entertainment
에인절스
Games
Ka
Sar
Type
계명
디어
라타
레슬리
마드
무적
빼내
서광
야르
잔재
재량
주공
총탄
출제
쿠프
키는
팬클럽
혼슈
희소
##ience
##자브
##버드
##쿼이
224
반대자
##ots
요시노
관측자
국경선
Anton
마쓰다
레인보
시라쿠사
카탈로그
불명확
##그래프
로망스
아세트산
Pic
Sat
겸비
기행
김세
박제
반장
번사
변명
심볼
야행성
옥고
이안
최경
태사
##화가
form
305
대통령령
중앙당
보호령
올라간
교통수단
슈퍼주니어
Count
보상금
Train
##ities
주계열성
루즈벨트
생몰년
Bank
Rail
mar
고귀
권했
누릴
도조
두만
뒷부분
로동
말갈
매운
신년
쓰가
악용
완강
유흥
은밀
정산
제패
직역
책자
초회
총관
타개
트크
펀자브
페테르
##트리아
##다람쥐
##무덤
##래곤
##ature
조사단
노동부
다이너
작용기
##pha
510
530
880
느냐는
007
미켈란젤로
Der
GE
OF
VL
가시마
동과
러더
레베
베니스
부등식
속출
수완
신격
역인
역법
역적
완패
종반
중문
집게
차내
티나
한옥
황보
##애자
##슈나
독립당
아르타
개정판
폭발물
데려오
척추뼈
신생아
Rou
Wall
건지
꼭두
노먼
단판
뒷날
보손
사족
송강
수니파
스무
아핀
엄중
요나
웨이크
이계
이등
잠들
진법
코노
키나
탈선
피르
흘려
##vent
##타바
제작소
255
Cha
트리니티
멕시코시티
청년단
470
비서실
911
이영호
하코다
그쳐
넘쳐
대광
미시마
방형
번가
범어사
본가
부차
세나
쌍방울
악한
암술
우여
윤영
인내
임차
정열
조예
테너
특진
포병대
##iro
##mar
##요리
레이아웃
보급품
1614
그라나다
돌려보내
되돌리
바꾼다
간사장
프렌즈
프레데리크
중등학교
갈비뼈
RX
김부
끈질
단락
도당
도큐
리스크
아호
에니
오존
왕전
윈저
유파
입선
정할
체사
촌의
##별초
##럭스
사실주의
249
262
기업체
대사성
훈련소
복잡도
다케시
영양분
폭스바겐
카트리지
유의미
신대륙
August
사중주
리저브
Cas
Post
id
구덩이
남코
냉장
대일
돌핀
막말
만네
명지
물량
병참
비춰
시급
심복
압류
용법
우부
잡종
장량
저당
절지
접두사
중년
티치
편광
현충
횡포
##고백
##체인
##테리
차이나
신앙고백
흔들림
제후국
원더러스
수양대군
조로아스터
Son
갈망
결절
도에이
동복
명기
상도
승화
어귀
영내
위급
임팩트
전각
죄책
중흥
채플린
초나라
티타
퍼블릭
포용
프시
학무
행각
##ko
##no
##니컬
##GC
##메로스
##유철도
##달마
##ination
##icus
##tions
##vement
내려다
의사당
비행선
발사대
대륙군
Thr
rep
헤르베르트
최우선
소방서
Know
호쿠리쿠
일본국유철도
정약용
가출
고착
까치
나잎
라피
린드
링네임
모면
무굴
미끄
박혀
반다이
비핵
석호
선승
수첩
수혜
수탈
숨졌
심왕
알린
엘튼
영아
육사
장방
재림
중창
처참
추도
크레인
투아
홍준
##고시
아이패드
##osh
관측소
##ysis
수집가
1607
도쿠시마
1637
1570
세워졌으며
파트너십
지표면
플레어
강경파
박지원
포츠머스
Happ
근해
니더
대례
레노
리오스
메콩
무오
바드
비탈
서곡
석실
속곡
수차
수륙
시녀
아펜
암반
유람
찬가
허영
호메로스
황성
##부패
##지움
##구동
##정책
##조작
##쿠로
265
자연히
문학가
부정부패
찾아냈
공급원
집합론
공학부
LGBT
아사쿠라
1582
우크라이나인
spec
Francis
감형
과대
군소
글라스
급감
기절
나주시
로테이션
맞선
메탄
병장
속기
수세기
심법
에워
요트
인두
집대성
차우
초인
편이
하일
호스팅
화의
확증
##혜석
##젠베르크
##inary
##oli
234
##iae
오가사와
충성심
유키오
히스파니아
몰려들
NGO
행방불명
청계천
tvN
Academy
로런츠
비핵화
오가사와라
Field
Hand
Public
chem
감영
다각
데루
마티아
맛있
묶음
방목
산세
서상
소현
수자원
아보
아만
우성
잘츠부르크
축약
티노
해충
환각
훈구
흑연
##yan
##지방
##뜨릴
기관사
회의소
하이젠베르크
이집트인
말레이어
알렉산드라
1759
##ING
수신기
무라야마
브룩스
super
후시미
리히텐슈타인
POS
간지
난해
내사
더더
도민
로도스
마운드
묵살
벤저
보단
수기
스물
오성
옥중
이각
이매
저소득
족제비
지라
친필
카도
헤아
##발라
스피어스
1762
1580
영양소
법무관
저압부
벤저민
Pac
bo
계비
금품
남해군
니코스
리소스
면치
박승
버금
보른
산발
살린
실링
유랑
유스티
최충
치앙
칼데라
후륜
##yle
##주제
##orum
시작점
##ication
메이크
방어력
##ulus
인조반정
승부조작
Team
역전승
탄화수소
마틸다
김나지움
파르티잔
DE
ed
ser
내밀
뒤셀
디랙
복건
비웃
슈만
신드
양사
엄호
제향
주안
중진
팬덤
##포리
##정신
음악상
레이드
노선도
다이요
에너지원
수사관
1506
구로다
내보냈
2030
허정숙
disorder
Times
근연종
엠블럼
보니파시오
뒤셀도르프
UI
게양
고비
공제
마누
만루
무녀
부스터
오드
용납
원류
작화
장현
주법
진통
체이
코나미
투라
티미
편평
##청정
##곡절
##roph
더욱더
스코프
몽골족
저술가
1627
면역계
수십만
상속인
Muse
아미타여래
미시시피주
마르티네스
외래어
버펄로
산마리노
우여곡절
Gal
bas
cap
고품
구면
끝낸
두아
루빈
만행
비스트
상나라
수모
수조
시세
애너
이권
접견
정희
충선
테츠
파올로
해법
##보레
##보스토크
##hr
##에타
##PN
##코어
레이테
거쳐야
스트로스
##스타파
분석가
머리장식
##ago
1615
느냐고
마주치
부드러
쓰러졌
블라디보스토크
나가사키현
돌출부
코린토스
초음파
장신구
슬퍼하
Kim
More
UAE
Wolf
Ze
fr
rad
고라
공구
기쿠치
논산시
마포
만슈
미케
미뤄
벌인다
병세
부히
손오
스털
신안군
알트
예장
예민
이요
저마
징발
찬반
통학
협연
##my
##본주의
사이고
음악회
나가지
움직였
귀족원
마사무네
1782
말라위
바티스타
매출액
피에로
HTTP
BSD
콜레라
툴루즈
설리번
라벤나
홍준표
국자
금방
김한
나혜석
단테
더듬
리버스
뼈대
세차
속명
신재
애버
양재
쿠르트
키케
타계
포지
합중국
호우
흐른
##티니
##옹주
##하치
##혈병
##적분
##연의
돌아보
스포트
요시오
은행나무
브리핑
이뤄져
ISIL
Educ
##ences
소작농
다이스케
LD
MO
Mu
게스
과천
마라도
모더니즘
베티스
보현
봉토
블레이크
소급
에그
온몸
윤봉
자켓
접할
지의
지국
창법
클립
허지
힘써
##리프
##70
##통감
##샘프턴
##레이즈
##aly
##ument
저항성
건너온
이제동
붙여서
570
구매자
1758
가와치
SUV
시흥시
야마구치현
History
조그만
Id
NCA
Some
sur
고환
기득
노우
달인
떠오
리티
망라
미카와
발문
방직
법대
벤자
보천
볼라
북면
선무
신식
야노
에밀리
워런
점막
좌참찬
증여
카베
칼로
회동
##RO
##NC
##메라
##자나
##코더
##가야
##운수
##환국
##더드
##esis
공격력
국민학교
인사이드
소장품
##iph
그레이스
무용가
쓰러진
##anna
인산염
여수시
인디애나주
Girls
옹정제
레인보우
Drag
From
LOVE
ep
교위
군산시
기침
나침
누출
담양
보가
부천시
서훈
소신
스이
스메
신승
아난
야오
위드
장막
체액
충숙
캐럴
포경
했다
허나
홋스퍼
##yth
##박해
##클랜드
##연장
유리수
고구마
Come
표지판
비로자나
제트기
더글라스
스턴스
Friend
박원순
도저히
충숙왕
Dar
one
굴착
노토
미달
밝힌다
사담
세일러
소국
아쓰
역관
연성
외야
외전
전업
정대
출하
큼직
포프
풍미
풍화
한산
홍주
##마당
##롤터
##촌동
위해선
생산지
고려인
##osis
내려놓
브리타니아
##iana
Boys
크로스오버
긴장감
기요모리
앙투안
Album
지브롤터
조나단
레트로바이러스
위아래
can
경련
공녀
나츠
독학
동질
삼가
쉬르
시어도
양태
염분
완주
유괴
잉태
저승
총국
치부
크누
터져
팔로
피델
하르트
함인
##수사
##모비치
##버린
##슈빌
##딩턴
조선조
316
금지령
해졌으며
조언자
Soft
연꽃무늬
동대문구
디바이스
Queen
대식세포
시어도어
Cle
곰이
구레
꾸민
낙원
낙농
데크
데프
독감
보문
볼가
선더
소경
속초
숙의
오피
윤상
자상
지으
진평
하토
회자
히나
##cy
##스름
프로페
중국식
##니아누스
이동해
##odon
다카마쓰
헤르메스
모자라
모노이드
하우젠
콜라보레이션
가선대부
군악
굳건
근절
기제
니나
라빈
명창
무분별
민다
밀크
바레
박주
변제
석등
신춘
어근
역간
은유
재귀
접했
주앙
최면
추석
토후
혼마루
훌린
##get
##zer
##투어
##출마
1650
중앙유럽
아무르
오사무
참석자
대학원생
1701
되돌아가
안보리
아가미
우르바노
Micro
밀레니엄
비슈누
스털링
Aven
Low
Lord
MG
Russ
over
기로
남문
니르
덮인
볼레
브이
비버
심도
아속
아산시
왼발
위정
초순
캐넌
퇴거
페달
프릴
피토
한탄
##DR
##와라
##저리
##변사
##tid
아래턱
문학부
Mary
마쓰이
580
1572
기동성
페르난데스
레버쿠젠
Cross
수족관
Digital
플뢰레
손오공
Nic
Van
검문
곧장
교각
군역
나나
도플러
불포화
빌럼
시진
애스턴
양질
우가
이랑
저상
적시
주동
진무
참새
참으로
채웠
초거성
혈전
홍백
##box
##인자
##직할시
에이미
##베르데
탐험대
관중석
Airport
AEK
gre
sy
간극
남궁
능률
말버러
복도
상거래
쇼난
쓰시
야산
여종
왕녀
윤지
징시
체의
함축
##부스
##들랜드
##뉴얼
##ota
편집기
예비치
미야코
강연회
동구권
헤비급
밀양시
스턴트
라디칼
라디에이터
더더욱
Fla
Town
dec
국권
급유
남중국해
노량
늦추
마두
모기업
미티
배재
분가
시왕
아수
어면
연일
오수
유루
유유
익산시
인방
인현
일약
장터
정액
주당
주둥
키미
키움
포천시
##숭아
##eld
##osoph
지하실
States
아일랜드어
공포증
공로자
1521
비스듬
1492
트랜스포
##olar
끌어들였
캐롤라
Two
성동구
Lar
MX
Ret
Say
고케
레니
마세
벤투
성녀
쇄도
신데
알토
익혔
장진
주미
중사
진양
참관
척탄
크리스트
클락
풍조
혼수
##eh
##수산부
##아보
##코니
##첼로
##폭스
하나하나
인구수
아이누
현대식
501
313
이동식
받아들인다
1530
유배지
레지스탕
개찰기
이슬람교도
포터블
플리머스
아카이브
청량리
의정서
Daniel
에노모토
의화단
나침반
레지스탕스
간절
교세
노나라
동면
두른
문리
발데
본점
에리히
연천군
웅변
적국
절실
진천
채식
취역
피레
##동맥
##nes
##포츠
##도어
##페라
##토피아
##누르
바이런
323
가르친
신경망
##ogle
기후현
아라키
합격자
1760
1536
매개체
김홍집
안드레아스
랭커스터
Control
고케닌
Wi
end
개기
공범
난폭
다진
동관
랜더
민병
봉급
양모
음계
추봉
퀴즈
파벨
풀럼
하대
황무지
##타기
241
244
705
번역가
860
1613
##메이슨
1526
우익수
이방인
휘말리
페라라
에치젠
안재홍
박중양
유스티니아누스
JC
NM
Psych
가노
김순
김좌
뉴햄
니노
도운
드론
마젤란
바르트
본받
산국
성역
야유
영창
오쓰
우레
원대
음표
이도
제복
침팬
칸나
케네스
티탄
파스타
풍력
현자
##자위대
##진법
##천후
##춘추
지배력
넘어선
999
Phys
Management
아비달마
히타이트
하동군
트레일러
평신도
Special
궁수자리
뉴햄프
침팬지
BA
HM
Oh
function
과소
글라
노포
노려
다나
다거나
단추
막론
만경
미코토
불도
비사
사브르
소공
손잡
쇄신
수미
수어
악몽
양시
영제
임지
정구
조모
죄목
주경
죽인다
칙서
키노
탈영
토막
피플
혜종
##베다
##바야
##러햄
##성장
존재감
##cha
Stra
아일랜드인
의료진
금메달리스트
##바르드
##ova
Paris
유력자
나선다
끌어들여
평택시
모하메드
메릴랜드주
마요르카
영락제
레반트
http
페가수스
드래건스
클랩튼
죄책감
Mov
Squ
gener
구룡
노린
눈금
돼야
마마
배교
백혈구
성시
여학교
옹기
우방
윤원형
일일
입방
정토
주루
중군
탈리아
특질
판화
핵미사일
호종
##포도
##란도
##초지
##anth
고전주의
Conn
황금기
도요타
플레밍
경호원
오로라
위스콘신주
신해철
Bob
FDA
Got
If
PV
런타임
말초
미흡
비관
비겼
수고
수산화
오코
왕망
육안
윤종
임실
잠자리
즉석
진중
총명
투척
판의금부사
한일
##일라
##베스트
##바니아
##SI
##거북
##헌대부
##군주제
##렌츠
##발디
##퓨터
303
연합체
##ocal
런던탑
원작자
620
##라이언스
1649
이즈모
달마티아
체임벌린
웨일즈
매표소
Hom
LM
Mr
VR
고차
고레
고졸
괄호
납득
내슈빌
단언
막히
삼남
색계
석축
선산
소부
옥개석
외장
울라
원호
원균
의열
지프
질책
출몰
컴포
터리
##신기
##모트
##춘다
##룬디
##라이즈
형태학
요한네스
아나스타
프란시스
으려면
도전자
Maj
##ideo
무한히
의석수
적당히
호위함
스텔라
오쿠보
실증주의
테네시주
초전도체
사투리
앨라배마주
윤선도
Ak
Dog
GC
UM
남진
네온
로랑
마름
명작
모성
바친
봉천
셜록
쓰쿠
에베
이천
자파
제군
최국
캄포
콜트
항법
히바
##병원
##촌리
감독관
정치범
아이비
스트립
메이슨
##스코리아
세웠으나
운전사
아바스
지그문트
슬럼프
절지동물
충선왕
Cour
GUI
HR
Kiss
거동
결번
기노
기력
내선
두목
뒤쫓
만회
멈춰
법당
상작
섭동
아계
엑스트라
염전
용융
의전
의탁
조망
초본
##치산
##무진
##tish
##esc
아이러니
##rab
아르민
##irit
평화통일
에드워즈
Marie
나카지마
1772
마스터스
부적합
대국민
온건파
삼국지연의
곤살레스
패미컴
라그랑주
관공서
키케로
Mass
OL
Som
내해
라브
레기
버디
법치
부코바
사노
사철
소가
시한
와도
워터스
전태
팬아
펴낸
할까
##전서
##즈버그
##와르
##예보
##디스트
따라잡
##enz
245
403
##urity
다이라
치렀으며
사우스캐롤라이나
석가여래
ARM
부조리
Songs
에마누엘
에나쓰
귀여운
알카에다
벤자민
BR
DT
가압
건반
권영
근위대
꼽혔
내연
닛코
다호
도깨비
동역학
로베스
뮤즈
반탁
백금
베로나
변할
불우
붙인다
생육
순방
식읍
알림
예기
오귀
오펜
은밀히
이대
자임
코칭
크랭크
튜버
흑해
##미츠
##기름
##face
##마니
##토닌
##하트
##렉트
263
유도탄
1602
코르넬
1757
증기선
코카인
위그노
나아갔
Design
시크릿
군자금
에이브러햄
하이델베르크
로베스피에르
Gard
mic
각하
견과
군의
대시
더운
삼별초
신정부
오레
옹진군
원어
진봉
처자
콘클라
태안
푸코
한두
해마
흥덕
##bon
##off
##gg
##론자
##사장
##ergy
##orld
##시아드
##itan
##osph
군주국
1601
1720
거느린
유니버시아드
세바스
노후화
루도비
안달루시아
애프터
이로쿼이
##havior
라플라스
콘클라베
Gala
Sin
WK
깨어나
남대문
당면
동천
레몽
마일스
만인
면도
묵인
수전
식수
연명
유황
은닉
음수
익룡
인목
절도
진남
판각
한학
한해서
헬로
호놀
회선
휴지
##ten
##VF
##TR
##어링
##랴쿠
##룰루
1450
##리스타
사업비
단체장
##ident
404
연속극
미술품
주택지
스크롤
1630
밀려났
와이파이
몰아냈
테레사
칼뱅주의
##ydro
목욕탕
화순군
파피루스
장본인
호놀룰루
Wood
관립
기뢰
다졌
매크로
묻힌
배심원
불운
선분
스즈
앤트
양공
외양
유임
융성
자니
주동자
케토
키시
통가
하랄
한진
합전
휘트니
힐러리
##사촌
##룸푸르
##멘토
국제기구
##이스터
타이포
마사코
##베르토
스피릿
도망친
학술원
Sea
670
840
해발고
어두워
파울리
스러움
쫓겨난
사바나
##ential
로트링겐
해왕성
Bell
Gun
과당
그분
기약
김만
납북
단부
레위
문묘
방역
보일러
본위
산후
살포
슈바르
스톱
시일
쌍극
알콜
양립
외로움
용모
유타카
초급
하야시
한기
해탈
호분
##시효
##90
##각시
##chen
데이먼
스포츠카
오스본
이승훈
Deut
평양성
##ques
1520
##onder
쓰러뜨리
칼리프
붙잡혔
이복동생
캔자스주
하비에르
남해안
스타트업
Sand
kn
골대
군위
다트
메네스
명은
방과
번진
변주곡
비안
사타
석굴
세드
신당
영공
존호
청해
청두
청천
최재
친동생
칭다오
패소
페놀
편도
혈류
회남
##이동
##지우
##지도
##복지부
##징금
251
다이애나
802
Development
수도원장
순환선
##ize
1560
930
실업자
콜로니
퍼져나갔
통근열차
크리스토프
모른다고
##르기니
##EEE
청취자
람보르기니
두만강
기즈
노히트
망토
사시
선례
셰르
속인
수제
순국
슬라이
시나이
아론
일광
정은
조너
질산
철권
측실
##kin
##지원군
##클로
##UT
##털루
중심가
306
##리스토
인민지원군
다이렉트
351
바르바로
##ief
크로노스
체육회
##iano
미쓰나리
동인지
아바타
##III
이데아
전리품
체로키
수에즈
Ball
고상
구드
난사
남수단
네프
도일
마산시
묘법
변의
병약
보비
부득
신영
안료
얼라이언스
위스키
음파
인부
자영
조그마
중증
질타
질레
짝사랑
추수
치소
푸트
핀치
##ms
##아비
##네세
##버섯
##폭력
조선족
237
아우디
암살자
##iance
630
1567
복사본
문인석
애국심
Micros
이사벨라
발상지
은신처
HC
Ram
us
공위
군체
드레이
머레이
물어
물병
소이
신토
아달
에지
워털루
입궁
전가
정한다
주니
참된
철갑
카가
터졌
토레
토레스
펜타
프티
##험자
따라야
관리인
프리메이슨
312
금지법
식물학
##ston
Albert
히데키
감사원
1683
##사이저
요크셔
하이드로
Peace
신시사이저
뉴저지주
휘말려
틀림없
성희롱
민다나오
TTC
구소
남태평양
노령
노블
단사
레디
메이드
문맹
봉투
상비
셔터
속옷
순절
신랑
영일
임오
정운
차베스
초토
카오스
킬리
포세이
##레슈티
##inae
조선어
출연진
협력자
1608
주둔군
1779
1617
기동대
모음곡
에미상
재래식
페름기
포세이돈
IEEE
Nav
갈대
납세
니제르
랄프
브록
순진
알비
알자스
염원
외조부
유쾌
재빠
청혼
최단
통수
헤스
회가
후군
##지드
##등기
##뮤직
##뚜기
기록물
302
공작원
스티커
Anim
보관소
이자겸
777
1527
대동강
1080
Google
옥스포드
끌려갔
베니토
빈번히
걸어서
경순왕
Sup
Tele
간택
경당
누비
드가
말살
무모
물음
민스크
벤조
상전
성혼
소학
순무
아밀
전치
제석
조미
지와
찰나
커맨
타치
퇴단
##이나
##장성
##서면
##도토스
##비시
##컴퓨터
문화원
생활비
##머니즘
작업장
다이오드
inc
정복자
수송선
실력자
1585
가와카미
SNK
매달려
아이오딘
Secret
네바다주
Football
특파원
고뇌
관부
굴리
급식
내버려
록펠러
맹자
무안군
백마
병상
분신
성탄
송준
앞섰
어터
응모
자모
작별
저희
종위
짜여
천성
티어
펜티
##tus
##오피스
##yo
##찰사
지방도
##ili
##otor
드러낸다
요시미쓰
베르니
즉위년
##elli
운전석
1619
크리슈나
필라멘트
골프장
춘추관
공고히
아유타야
구청장
group
미에현
눈부신
일일이
펜티엄
DX
His
Mk
경산
경국
구심
그게
근신
남학생
뉴펀
듀란
리쿠
메디아
미스코리아
민스
베릴
부끄러
빌린
사피
숙적
승무
어마
왕상
우의
장마
카렌
특산
해골
헌팅
##미코
##시니
##팽창
프랑켄
특징지
스트링
자본금
노스웨스트
미나토
1640
배웠으며
직선제
피난처
카나리아
하행선
오리온스
오두막
뉴펀들랜드
Fut
long
고쿠라
공교
마더
백범
빈혈
세심
수납
스매
안젤
육조
적갈색
주원장
청화
폐업
폰티
풍선
##UM
##롤라
##평대군
아니한
대표부
242
##iger
경영난
불가침
나갔으며
보험료
##ector
중립국
Exper
process
맥도널드
카니발
포츠담
들어올렸
아쉬움
갑상선
호나우두
러더퍼드
AW
CAF
Take
UD
Woman
계림
나설
대월
도킹
레터
루블
박세
분교
분분
샤크
열병
울창
의기
이걸
일찌
임해
장영
저속
코먼
피폐
헌트
황조
##bre
##르담
##탐정
##배엽
##학사
##KO
##혈압
##푸라
세기말
이용해
라이즈
라이히
##ado
바르톨
방어전
전해질
투수진
하드코어
일으켰으며
1606
##노스케
스탠더드
1764
1728
노트르담
주자학
##tivity
마이크로파
TCP
마라도나
Sir
Syn
social
가처분
걸림
고루
교민
꽃가루
끊기
다로
레우
만을
매화
방벽
사색
산모
속현
수려
시프트
아그리
암묵
옷감
육신
이과
이극
최규
카밀
켈러
터전
통째
평창군
##길동
##디트
##너리
##외과
##컨트리
229
아르키
##iforn
해양수산부
1612
1583
수호신
##anced
Ern
대마초
Foundation
수개월
조너선
Code
Women
web
공비
네빌
도트
동선
또래
몸값
무아
백군
병리학
볼턴
부령
비신
사향
서무
셀틱스
슬라이더
애용
양해
엘베
우메다
유난히
이숙
전편
존스턴
진시
칭한다
커진다
토번
핀다
헤어지
회송
후금
힘러
##ef
##IE
여러해살이풀
음악인
304
353
하이데
사라예보
##aph
Anti
헤이시
1591
클레르
사유지
크로스컨트리
1740
레지옹
프레스코
CHF
야전군
Christmas
불태워
Champion
신간회
슈바르츠
아르키메데스
BJ
Here
Jer
RFC
Wes
bar
vir
간언
거둘
고다
고심
국판
규소
데어
도총
멜리
명품
바루
방망
병부
부츠
오언
재촉
종별
지낸다
초선
털어놓
퍼트
폭락
휴고
##yes
##차일드
##시드
##GE
##민관
##흥사
##혀진
247
##rive
자주포
고속철도
달성군
에드윈
Prot
프라이부르크
고기압
네이티브
누리꾼
드리블
게시물
구미시
Computer
신조어
슬라브족
되돌아왔
진사시
페르미온
여고생
공문서
Stadium
Sweet
Born
Mys
검소
관인
금욕
나베
뒤떨
보소
복숭아
볼링
생동
선량
숨진
앤젤
엘렌
오베르
유량
육로
일절
지낼
진다는
질주
차일드
충절
충적
커밍
쾌적
패닉
흥국
##aff
##ju
##츠만
##강원
##메데
##UR
##첼리
사이코
보인다는
비행단
수출국
스피어
흘러들
도와준다
1565
Prince
자작곡
아데노신
Liber
피어슨
##연구소
더라면
고품질
Four
Hu
가트
낸시
눈동자
대작
데라
동궁
루브
리호
물색
봉산
선덜랜드
아강
유표
의성군
인트
지네
태즈
한수
허적
허셜
##ple
##트리스
##지느러미
##카쿠
##정지
##군트
##긴스
##반응
##놀즈
발매될
부르군트
##acy
마사유키
신호장
There
1568
1651
미즈노
구이저우
순례자
대마도
관악구
macOS
휘그당
Lady
PE
과립
대권
런닝
몸소
무례
분전
빗대
빗물
사토시
산도
상술
연경
오정
이쪽
잉어
쟁이
좌초
찬미
통설
한결
한시
##세서리
##신론
##무역
##와트
##글로
##런드
연구관
레이놀즈
스페인인
올라섰
유리창
남북한
오랜만
청소년기
581
사마의
1755
1653
1398
패러데이
나미비아
미하엘
세미놀
헨드릭스
가니메데
척탄병
간과
경미
군내
기선
랑고
문의
보크
북주
북두
비구
사샤
산개
성유
수산물
일문
저런
제자리
출고
치매
캘빈
쾌거
퍼드
호부
후송
##ving
##rum
##빌라
##OCA
##프슨
##무관
##연화경
##넬리
참가국
##edia
321
야마노
예산군
PCR
490
달라붙
펼쳐진다
COV
유한회사
1555
밀리언
중성자별
오세아니아
헤일로
트랜스포머
랑고바르드
Key
MK
Tar
ll
pri
고영
군축
김소
도살
딸기
모리오카
바벨
부쿠
부룬디
서베를린
선교회
설파
셰필드
스스
시보
신수
잠금
조운
증보
참나무
캐머
통풍
티토
풍성
##cer
##PG
##페어
##전위
##민턴
##와프
##누이
##델라
자연법
##osition
사령탑
크로마
핀란드어
시킨다고
조지아주
Adam
이재명
살펴볼
고생대
Philip
노원구
하코다테
NCAA
신데렐라
부쿠레슈티
AH
Gi
OVA
mRNA
금발
기려
김택
노고
노키아
놀랐
대연
도바
럭키
리토
마우리
명곡
무학
박준
새만
서부터
선법
성토
수세
수없이
신심
악성
액면
양명
에비
오시마
올랜
왜건
전도사
정다
진척
집요
첨탑
친부
캐스
크렘
표식
풀타임
피임
##바트
##raft
##ective
파이낸
1504
하이드록
소대장
이규완
상층부
로미오
새만금
Roman
ge
나돌
매혹
비와
사암
샤먼
슈베르트
스탄
양각
어룡
어촌
언행
오위
이괄
창사
창자
커튼
코토
퀴리
탄창
##iet
##ious
##와서
중심주의
표현주의
폴란드어
훈련장
다카사키
알아볼
신뢰도
1765
1632
870
제이미
1674
1455
로고스
파이어폭스
마츠모토
Central
배드민턴
Victor
오고타이
Hans
work
강론
강착
격납
구지
난소
넥슨
닐스
데릭
면세
반짝
벌일
변태
본과
소품
에토
연전
완승
우로
위층
채찍
철원군
초간
쿠알라
쿼리
폐비
후크
희석
##사쿠
##티엔
##판윤
##공원
##단조
##걸스
##쿠프
##블러
그리핀
그리피스
285
시행령
Alf
인디펜
재건축
1494
한성부판윤
산호초
하리마
안성시
마술사
Break
시발점
통감부
중랑장
케로로
쿠알라룸푸르
FP
Gab
다인
로슈
막사
모회사
무령
물산
받쳐
봉고
순화
순전히
실바
악행
역경
워크스
재통일
제청
증조
철새
코흐
플롯
행상
화평
##일점
##아먹
##카인
##묘지
236
부산시
법률가
트리케라톱스
1629
화산재
1588
크라쿠프
신속히
##브리아기
서태후
브레이커
다방면
꼭두각시
올랜도
EN
GHz
Tel
Vis
right
was
도면
두들
라메
록과
미끄러
보닌
비운
스며
시구르
아머
야나기
엘람
올슨
우발
인어
인스트
전초
정광
풍수
홍진
황기
##문왕
##루치
##의지
##게르
##계선
273
##tex
마르코스
베르가
##thur
양성소
카메오
나타났으며
스탠포드
1587
1589
혈액형
PSP
Hero
미소녀
팔레르모
노이만
퀘이사
시구르드
MGM
class
gu
과선교
광기
괴로움
기예
루벤
마자르
말투
백혈병
변위
양광
여흥
음각
의관
임수
잉글리
조위
칸토
타니
폐포
학관
행세
호구
화형
화족
회개
##야구
##ken
##아과
##아네트
##시안
##무로
##전설
##가치
##링스
##omy
##르크세스
##tional
나가오카
카이퍼
달라졌
USD
신고전
1545
문하생
사육신
알아차리
클랜시
이홍장
elect
크세르크세스
Education
바르바로사
Av
Ham
POP
Sel
개요
공저
데바
부쳐
불발
비변사
석고
성안
시치
아스트
자일
종인
지멘스
포이
호에
##리니스트
##장어
##호텔
##라켄
##레흐트
##언군
미국식
1550
국민정부
인터라켄
마르키
마리나
표시기
보냈으나
알려졌으나
Spe
990
펼쳐졌
1643
1635
1573
파티마
##ulation
##MAP
바이올리니스트
제네시스
비야레알
##tiful
침례교
Apple
스테인리스
줄어든다
##로니키
네모난
앙투아네트
신의주
가창력
테살로니키
예카테리나
Rap
Rose
강민
굳혔
금당
노자
단숨
맞아들
비축
선한
성결
성하
세아
야나
요사
워프
좌안
지킨
직할
팽팽
허스트
혈장
호황
##보쿠
##리우드
##장이
##나물
##inn
이나바
##tia
252
파이퍼
권위자
소득세
아리마
970
경사각
옹호자
무제한
드레스덴
김포시
아킬레스
위트레흐트
당상관
엄정화
새천년민주당
Friedrich
단숨에
RIA
TNA
person
귀한
금산군
늘릴
딱히
라싱
레슬러
로테르담
봉신
성금
숨지
어차
우메
은언군
인포
젤다
징용
탱화
튀김
헌병대
험프리
효시
##iber
##gi
##팔로
##시기
##정맥
##istic
블랙번
1595
스탠다드
1616
거듭제곱
스티븐슨
공백기
Media
헤로도토스
조소앙
카다피
은평구
토후국
가꾸
금과
남대
담양군
랍비
메기
모유
몰린
밑바닥
반원
배격
베키
벤젠
석물
소하
승문
시랑
심실
에가와
여느
우량
원죄
유두
이두
작풍
장공
처한다
천식
촉한
크래
파치
페소
폴드
하숙
헬베
##로니카
##티스트
##정기
##실린
##착륙
##셔츠
##랄라
민주자유
마이너스
아래층
표준시
##apy
은하수
계산기
카르타
NADP
1018
스쿼드
오리건주
전륜구동
해왔으며
아퀴나스
저마다
송준길
민주자유당
Test
개천
거류
교조
궁도
기내
리뉴
무종
미우
민수
바주
반미
봉행
비드
서동
소제
수재
승탑
싸여
약소
양안
어판
원안
위화
잎겨
장유
차고
천인
천진
초승
커질
폐암
##ji
##사람
##관총
##태후
##워했
##조각
##anus
##ito
##ouch
과학부
내용물
286
프리덤
올라서
##rix
베르겐
파이리
라인란트
올렸으나
에어컨
Program
885
막대기
Indust
반역자
스콜라
외손자
총감독
트러스트
Machine
##사회당
잎겨드랑이
Hon
Ill
MBA
Side
가평
고음
노이드
독보
브라이트
사라이
아헨
완고
일깨
임했
자화
재키
재적
쥐아과
진자
치켜
크론
테이트
포어
표고
한명
헬름
##원사
##호크
##비르
##임새
##터슨
##록색
##몬테
##ript
3500
주제곡
##aka
보건복지부
1768
1584
1540
테크니컬
회색빛
디오니
인텔리
##카르노
단단히
분당선
중남미
이브라힘
브리즈번
Data
Los
Od
고른
군장
노런
대홍
도울
딱정
뜻밖
라든가
리야
마실
머지
목수
민방
배위
본연
부토
분구
비누
서산시
송수
쇼토쿠
스펠
신안
아센
양기
엑소
장주
재치
진부
틀린
회절
##war
##렌트
266
라디오헤드
지상군
아우크스
집행부
드래그
1645
식별자
오키나와현
시바타
전교조
콘티넨털
자가용
프로페셔널
묘법연화경
아우크스부르크
syn
기거
꺼리
네로
누아
도내
마니아
분말
비나
사복
사돈
송영
식생
안국
양이
용골
지난다
카누
컬럼
콘도
파지
폭정
폴더
항변
향유
##ih
##임자
##실바니아
##가이
##저트
##oria
##alysis
교육법
##어진다
상대편
페르세우스
하이라이트
미술사
편집국
Anth
1594
살인범
710
Temp
1745
거느렸
여서는
트란실바니아
코네티컷주
전봉준
아칸소주
KM
Mun
psych
개구
검지
겐나
고함
고릴라
김호
김익
남오세
노련
녹훈
대함
란다
루앙
명군
물방울
미제
반출
방광
산학
소독
악수
야영
에이드
역수
우생
익혀
임영
전출
차갑
칭화
키가
티그
퍼킨스
페넌트
폭설
협공
##키리
##키르
##누키
##엔드
##콜라
아니한다
우주국
지휘권
올라프
자동차도
보수주의자
##ello
대장경
후지타
두려워한
배수체
끌어올리
산책로
라치오주
카보베르데
팬아메리칸
##글로빈
캐머런
남오세티야
Fant
Log
cr
sm
골문
극소
기라
기흥
난류
뉴딜
도지
레토
박희
반월
분주
사문
석좌
속칭
시무
에콜
완구
이여
자퇴
전람회
캐리어
케톤
태위
편년
피코
협소
##티르
##토키
##heim
서울역
##chan
Stan
Information
Deep
##seud
에어백
1621
##메이커
고조부
1694
체르노
경시청
클러치
로리타
매리너스
비토리오
리베라
Single
봉수대
지석묘
철광석
초승달
딱정벌레
Ever
Mid
rpm
가택
각류
객사
공허
낙점
날조
남명
동리
루브르
명회
문공
산군
상형
서른
역무원
원초
웹스터
이비
절하
정우
진관
청대
파타
펀딩
플레인
해달
행법
홍건적
##SS
##86
##패닉
##럽트
##막이
개혁가
메이든
조건부
케이시
감염병
알렉산드로
후쿠치
421
대장균
사마르
ICT
1525
고위급
생겼으며
1670
부유층
히스패닉
대역폭
생식기
카트린
로그인
하타모토
McC
영산회
장덕수
프리스타
##테이프
KAIST
Standard
필살기
Rub
감도
굴러
근현
금수
네우스
뜨거
레브
모러
벌목
사선
상주시
섞이
안수
양복
엠파이어
왔었
위인
이쿠
제회
중경
질식
코아
코비
특무
학군
항암
현세
후주
후량
##wer
##itive
##lu
##보인다
##에어
##지상
##추얼
##겔스
지나갈
##ogen
불러오
##obe
Produc
1561
When
1675
Only
Feel
Commission
English
깊숙이
중남부
na
ve
그야
낙후
남우
대격
더그
듀이
똑똑
링스
발하
서고트
원지
원당
유현
제논
제미니
창극
태운
파비아
하한
혹시
황주
##sa
##야식
##에나
##테로
##테우스
한국전력
사망률
인터럽트
288
브라흐
##르트헤
기독교도
상징물
고위직
마오리
받침대
에디슨
Magic
고트하르트
아와지
Cy
bre
건기
경장
굴드
권선
노장
드와
디노
랜스
모씨
발움
배서
뽑혀
사별
선군
앙카라
완주군
입석
정묘
졸리
천공
초이스
카고
페닐
필즈
허니
혈당
후부
힘줄
##gor
##성사
##메인
##카레
##카즈
##연사
##텍스
272
마사히로
##ource
진주성
티베리우스
소문자
군부대
카자크
싸웠으나
스케이프
구릉지
로이터
공손찬
Californ
광명시
Afric
고스란히
루도비코
격변
군왕
다산
답습
룰라
링고
명승
미개
백상
세터
시메
앉히
액세서리
연비
오마르
인버터
장동
재거
지친
치프
콤플렉스
타바
파이트
폭도
함안군
##vard
##MO
##네즈
##더미
##급수
사업체
##린다는
##emb
야마시타
384
인류학자
메모리얼
740
1633
1756
##rict
1715
1413
페르디난드
세라믹
고아원
주성분
카펠라
어셈블리
장방형
By
Corn
Mas
cal
si
거침
고택
고창군
공언
기오
김남
꾸란
난부
내심
닥치
도인
루니
리턴
리디아
멸시
바하마
박철
부검
빈스
뽑힌
산리쿠
서천
속속
신랄
애비
용자
청풍
특산물
핑거
하퍼
해짐
협찬
호드
환멸
황토
##td
##리치
##산역
##회로
##자카
##가나
##하리
##erve
자유로이
2025
##amin
수행자
405
다카쓰
해방전선
아라카와
갈라타
1707
Press
두려워했
프레이저
클라우디우스
한림원
마테오
적십자사
보호관찰
판문점
가만히
KP
Pala
Sac
mph
검교
고명
군법
귀박
귀부
기강
난항
도립
둘렀
라키
리소
모른
밤낮
번안
볼거리
부안
설가
손톱
시럽
실세
심방
알란
암행
야훼
양강
유제품
육계
재경기
조강
초의
치욕
토가
화법
##크루스
##준호
##rik
장애인
415
전화기
스토크
아리크
폭풍우
호르헤
호남선
행진곡
상무위원
##helm
소행성대
국세청
키르케
일레븐
컴포넌트
부득이
FX
Ly
LNG
LTE
OM
hy
type
결증
곤경
공진
금환
기입
꼭지
대유행
로버스
루주
리포터
머드
문선
민코프스키
부팅
생합
샤프트
성황
스틴
스필
식도
신증
영묘
울리히
재조
친위
코즈
큰곰
토와
파수
합해
해답
형세
휴즈
##바위
##ICA
##희재
##노니아
##곡선
##쿠마
##망원경
한국은행
문제삼
##ices
##usion
248
프리즘
차례차례
정상부
여행객
전시실
광주군
아시모프
불러들여
세이프
Three
유도체
##tica
수출입
아파르트헤
진보신
코르시카
1528
하인츠
클로즈
1559
1469
다녔으며
모노레일
북극해
SEED
Days
Second
상록수
오랑캐
독립선언서
Pierre
Museum
Microsoft
COVID
아파르트헤이트
Bou
Hug
KF
고흥
교습
내막
로카
맞은
목과
못함
배차
베츠
봉선
불기
소명
슬립
알스
알릴
양준
어벤
에메랄
외측
워렌
유프라
작정
잠식
재방송
진종
찍혀
초조
칼초
퀴어
테라스
퇴폐
특검
팬터
펴냈
##사항
##소나
##키치
##감치
##워진
##aty
도로망
##ulf
구속력
##타르코스
1628
810
알레포
어울려
오세훈
Asia
유원지
하토야마
에메랄드
유프라테스
Form
HK
Jon
RB
거창군
검진
레슨
레시
로지스
모하마드
문호
베텔
봉지
분견
불림
상공업
소질
수르
시해
시추
쓰키
야고
양왕
에라스
우먼
육영
참회
출원
케미
테디
함양군
혈중
홍천
황화
##이시
##다코
##IO
##여겨
##록스
##잭션
문화부
257
254
라이플
##olo
메이플
오른팔
불러들였
모리셔스
일대기
트랜잭션
1688
780
법무법인
리얼리즘
##의사당
테오도시우스
뉴멕시코주
영암군
니가타현
부총재
브롱크스
##ittee
쌍극자
그야말로
##다코타주
Att
Sav
TT
aut
김안
네발
네버
다임
덕양구
두통
롬멜
리피
목관
배움
부주석
비앙
비디아
빈부
신령
신혼
아탈
어제
어색
원세
인왕
입혀
적립
조안
줄지
황룡
후아
##sk
##po
##문제
##dom
##사슬
##비지
##당기
##디시
##디비시
아이다
우주망원경
지나간
아프리카인
생명력
스파크
좋아한다
쓰였으며
안토니누스
캐피탈
에레디비시
간간히
문하시중
조로아스터교
프리스타일
JYP
MLS
cur
관입
구교
국령
네안
대내
대첩
람다
마현
바서
보성군
불출마
슈마
와시
음부
이왕
일회
전등
지롱
튀링겐
트빌리
플리트
호퍼
호두
##sen
##트린
##카시
##UP
##모노
##셀라
##히라
출신자
마르텔
에스테르
문화재청
세종실록
후원회
헤르츠
##oke
아리우스
##레인지
역전사
아오이
외무대신
acid
파우스트
이방원
갖춰진
입헌군주제
따돌리
타이포그래피
트빌리시
Fun
Km
mat
가칭
갤리
낭트
라모
모독
무정
바를
법의
벤트
부총장
불거
빈터
사르트르
여분
이그
자꾸
정릉
조속
최승
컬트
코발트
페트라
합한
해온
행주
행할
히에
##EF
##nam
##시리
##시장
##공연
##케르
독립신문
타이타
243
지휘부
태양풍
가리킬
##BSD
치료사
##aya
##스코샤
사진가
야마자키
모리타니
중력장
아리안
1642
리처즈
디아블로
리아스
##vention
순회공연
인문주의
ADHD
들려주
고트족
마르티노
중원소
Revolution
##ography
맞은편
경리
귀결
기아나
김천시
날로
농상
딜러
라세
멸치
무의
박명
백스
빙판
사울
식욕
신채
실외
아실
안도
에크
연천
우와
잡식성
점액
조업
중임
질수록
참파
코언
테베스
하청
형평
##베그
##사위
##삼각형
##중앙
##코이
발표회
258
246
교수진
국회의사당
개혁파
유사시
Marc
Leon
998
카라코
1517
##데르탈
샤를로트
구로구
미네르바
노바스코샤
전구체
거제시
가고시마현
Alexander
솔트레이크
리카르도
버금가
네안데르탈
HBO
Kr
Mir
NR
dist
red
개울
굳히
그친
금석
급한
뇌샤
다정
레자
로쿠
로더
린스
마린스
만다
메시아
메소드
몸담
무렀
미구
번트
붕당
씨방
연개
읍내
일전
접점
정미
조이스
체형
투성이
파베
파도바
환수
##ois
##관광
##즈다
##어붙
##슈바이크
프로메
274
402
경쟁사
마사키
##iant
Heaven
레오니
대공포
수영복
브라운슈바이크
1534
char
##epend
모니카
##아지에
##네이터
하마마쓰
카디프
EXO
아키타현
##으면서
오클라호마주
초음속
오리엔트
까다로운
Sports
라부아지에
노팅엄
뇌샤텔
Aud
Bat
Jim
KL
LIVE
ca
가람
건재
김혜
내력
노심
니어
떠들
메토
목초지
변국
빨치산
선화
성소
심경
에이트
오무
왕사
원외
월계
잡이
장한
주오
체이스
푸이
할레
해로운
환대
##르겐
##개토
##실산
##주림
##예트
##샤르
대한축구
##onment
한국일보
태어난다
철도선
열린집합
315
##ache
아카시
##uct
##ountain
1626
산화제
1575
1513
830
1712
데려왔
좌익수
아오야마
Orig
Acc
들어온다
##프레임
빙하기
갈아타
대한축구협회
ET
Multi
lib
광우병
답사
르망
마커
미적분
비견
뽑아내
새마을
설상가
섭외
송곳
쇄국
수보
스캐
어다
어법
에머
예니
요란
원담
입건
정략
천민
체신
코피
키츠
파섹
판자
##문예
##임관
##틸라
##같이
##orth
설계도
##oper
동부승지
1596
로버트슨
동작구
1646
테마파크
통행료
숨겨져
After
불태웠
아뢰야식
마흐무드
에히메현
설상가상
Matt
Rod
Villa
test
경서
곡률
광개토
괴산군
금세
긴꼬리
대불
도가
돌방
두건
리니
매시
방아
방재
비소
비비
비각
사재
사들였
소다
시전
역부
일국
제제
주종
주범
차이스
총열
코브라
퇴원
파시
험준
황국
흔치
##이행
공격기
##rey
시스터
바이너리
달리기
##opter
331
에드거
Ant
이기붕
1563
1659
##프라데시
마가렛
저격수
걸어가
가이드라인
무수히
해남군
고해상도
요아힘
URL
신춘문예
Money
NFL
WA
각막
데비
둔화
본떠
불쌍
소추
아전
으신
임성
장충
정평
줄인
카포
커비
토큰
헤모
헤럴드
혜왕
화구
##ient
##타다
##사의
##fect
##공간
##어마
##가라
##워프
사용법
후보자
##rog
295
##oster
변경백
이동성
성장기
소비량
##anda
승강기
노르딕
오스카르
스피너
일으켰으나
베스트팔렌
보건부
스토아
1769
시마네
1542
1661
부재자
에릭슨
수동변속기
연수구
살라딘
다이어그램
뒤따라
이니셜
튀어나온
동호회
아람어
Simon
송광사
일찌감치
Ah
Face
가례
결산
귀도
도굴
들인
로직
마수
목도
바바라
반음
발성
발루아
병용
아메리
야사
얼어붙
영가
용두
월스트리트
전영
지간
집무실
징조
초소
트릴
플란
헬레나
화포
활화산
흑점
##men
##이익
##암면
##져야
##딩거
##뮤지스
293
##action
마음먹
베르베르
아카드
수출품
플라잉
신청서
1611
1634
세자빈
1721
마그나
STX
##혁명당
발원문
피에몬테
비엔날레
나인뮤지스
스노우
갈아탈
Electric
Film
셀룰로스
Avenue
어마어마
승문원
새마을호
IQ
Pu
UFC
걸러
과열
교점
국학
기화
닐슨
말레
뮌스터
미란다
백련
비가
사나다
상좌
성심
수트
순결
신나
실학
실비아
애슐리
연약
연면적
열성
이음
일격
장내
적진
조프
조군
죄악
충정
티투스
##대륙
##사포
##벨라
##HF
##알데하이드
진출권
판매자
통일부
요시마사
슈퍼마켓
4500
525
브레스트
블루투스
인쇄물
경전차
1546
WWF
성전환
버려졌
피오나
태권도
상행선
가중치
다치바나
따돌림
글리세롤
정여립
Beautiful
체르노빌
California
Java
MY
Ton
건넌
게코
경악
계측
고신
군신
귀의
김화
레빈
로터리
루시아
리디
박현
빙상
석관
세율
소조
신광
신이치
에덴
원각
재검
천호
충만
친해
카산
토구
통달
파로
품위
피폭
필러
형량
##ote
##장치
##치현
##봉산
##마에
##위크
##순환
수용액
1622
1702
무한대
경비원
Board
장로교회
메디컬
루이지애나주
대축일
서라벌
키보디스트
비로자나불
Dor
GH
Ty
WS
tw
가운
광의
광구
귀가
끼칠
남침
내년
눈여겨
도이치
매겼
미비
법사
북문
셰리
실형
약관
양주시
예테
우당
일개미
전립
촉탁
칭한
타결
탈린
파출
페아노
평점
푸가
행장
##동기
##토리아
##델릭
##버시
현대인
##ndrome
고속철
디지몬
스티어링
공공연
도망갔
1599
##ension
1547
배급사
도르곤
Steph
언더우드
공명당
시흥군
황소자리
리에주
어지럽
재계약
시우바
사이키델릭
예테보리
OR
equ
vol
관복
내국
당근
리의
베넷
변절
불연
빠짐
사공
석영
성관
쇠락
수번뇌
스컬
습작
실러
에라
예매
오븐
음정
일소
자회
장화
종성
차륜
천둥
펄프
퓨처스
피격
항등
혈증
흉년
히우
히젠
##경사
##네일
##롭스
##분리
관리법
레이첼
284
자연석
원자재
크리스털
크리스티아
베트남어
기계어
편집인
##스티스
우선시
애플렉
벌였으나
기울어져
실내악
주사위
PSV
충실하
카시니
Force
미노루
눈치채
Express
model
##수염박쥐
군국주의
불순물
아방가르드
마티아스
걸림돌
Language
Mos
강기
계양
끊겼
단풍
담자
등반
라구
러너
만민
머라이어
모지
목공
반목
범종
법황
브라이
산산
셀타
시책
애쉬
연접
영흥
예과
자우
전패
준용
최익
캘리
태반
통정대부
투리
판교
편마
폐번
호몰로지
화분
후술
##파고스
##터우
##돌리드
##열왕
##슈트
##cht
최고점
레이더스
268
다르마
##ocol
##ages
공급자
##ability
살아온
아사노
사냥개
Hein
730
거듭나
미야모토
1722
페루자
##ISC
##소수점
나아갈
구마모토현
바야돌리드
경마장
누에바
도치기현
크누트
바르톨로
폐번치현
day
가할
건수
낙성
닉네임
단죄
도원
도리아
돌림
동주
라싸
북중
서영
서유
서얼
섭입
수체
신교
암세포
액자
에일리
열흘
영속
온게임
원구
윗수염박쥐
자포
조스
징벌
채광
청어
컨버터
퍼블리
퓨처
했으니
회령
##ces
##zen
##도전
##벌랜드
사용량
##onia
지정학
##드리치
333
박물학
히로히토
코스닥
아라우
1625
프라이버시
군부인
대성공
발레리
못한다고
1730
거북이
퀘벡주
에밀리아
코시모
하시바
control
어우러져
북중미
온게임넷
감면
강진군
개점
고흐
고메스
권신
남도
남긴다
드레드
몽테
무스타파
바운드
반자동
벌집
불그
브룬
생강
서이
서화
수운
승수
시황제
신다
오웰
우스터
일인
작은
접선
조중
조간
주향
체급
칭하이
티라노
판노니아
혼례
흑기군
##투른
##커녕
##음기
##닝스
307
##리스크
269
지나갔
나이키
페르소나
##una
떨어져서
PCI
##ized
876
1577
1711
1456
김종서
아오키
##azine
관습법
Internet
발원지
와일드카드
톱니바퀴
부교수
데미지
슈뢰딩거
Lud
but
van
감격
게토
경공
남강
다당
대잠
루치아
메이스
메테인
묶인
미공
방편
버팔로
별동
삼도
석판
선악
성욕
셋쓰
융프라
주현
출옥
포클랜드
피복
함안
합주
화차
화단
희종
##pa
##고원
##리처
##그너
##태영
##디니
자연환경
점령군
베이루트
상승세
충격파
천연두
590
760
경전선
1586
게르마니아
1662
상속자
1718
이와쿠라
지부장
월간지
두루마리
GPL
바우어
벨리즈
제철소
융프라우
JA
SIM
길렀
김효
나흘
녹지
니컬
당인
대림
더럽
러쉬
마장
맥라
배추
변칙
별거
보타
보필
분동
불공
설날
솔리드
쇼어
아스타
아토스
예절
이스터
익스트림
조앤
중수소
지은
집산
초라
코보
코메
탐라
토속
푸앵
해내
협궤
홍조
화질
황동
휘둘
히파르
##mond
##드니
##순양함
##참배
평가전
프리마
분류법
회의실
건축학
평화주의
마사토
사우론
스크리
신분증
770
신사참배
부동소수점
클로버
주니어스
우편물
휴식기
진도군
##ways
##대표제
부교리
창녕군
급성장
하남시
##엽수림
NXT
못지않
갑오개혁
서강대
히파르코스
ICA
갈고리
감미
강직
개창
교호
낭인
더러운
땅볼
마이트
미우스
박문
백석
보은
셀틱
손발
앙겔
에레이터
예천
위업
응징
임산부
잘려
저고리
제하
주형
지산
치뤄
친서
튀코
티셔츠
하양
허파
홀랜드
후국
힌덴부르크
##아스
##게니
##esh
최고봉
자연스레
이사야
건너간
스키피오
나치스
전용선
state
임진강
니시노
음성군
1725
포항제철
1471
유인원
오다큐
정밀도
메가데스
오타쿠
##ycl
채워져
관절염
들이닥
릴리즈
로페즈
전보국
강동구
경의선
다비트
디오니소스
암행어사
GD
Sor
bit
high
ste
광릉
구주
군영
김봉
드골
만토바
미크로
바카
방탕
병설
비공
빙그레
알선
약초
외인
요로
원회
유압
으라는
인화
임직
장판
장민
존자
축삭
트러스
포커
행의
호도
##리팩스
##무니
##가리오
##들레
사회부
형태소
2024
276
세포벽
406
지하역
확장팩
요시노리
기계식
335
385
그려진다
공화제
건국훈장
클레멘
##augh
1512
1515
주체사상
1415
응답자
막내아들
behavior
크리에이터
심상정
##현실주의
Championship
Bir
Gran
Lon
NF
Non
간질
간다는
너구리
노기
도다
로메
맹주
명탐정
묻히
박순
사포
산장
산현
알타이
양말
왜소
칼데
팔츠
팔랑
패터슨
하도
행실
호군
휘장
휴학
##vo
##아제
##폴리오
##코지
##커만
##킹엄
프로스
들어맞
##olic
##osm
밝혔으나
##unn
요시모토
사라센
##라인베스트
엘리사
475
아미르
살아간다
수리남
미쓰이
1741
지주회사
미네랄
볼리바르
영동군
히메지
볼프스부르크
선인장
노르트라인베스트
접착제
마도카
VVVF
헤모글로빈
노르트라인베스트팔렌
Bul
Chem
sn
검역
검술
겸한
공청
그라드
급팽창
김신
난바
다당류
당산
도회
리암
머스크
미워하
반다
사외
삼보
생방송
선망
어획
오동
오공
올뮤직
이더
자강
자랄
적설
전능
절기
주모자
택배
홍타
회심
##van
##드로스
##대상
##토록
##계리
##커버리
능력자
485
375
Marsh
선보여
갈라진다
1703
세로토닌
##데이터
음모론
Brand
##tual
탐지기
막시무스
니코니코
Committee
안티오코스
윤석열
갤러거
천태종
페드루
체사레
미크로네시아
이더넷
홍타이지
Dam
Ru
Ven
광교
깨우
나체
당쟁
돌린
뛰쳐
방파
배쪽
부아
사경
상복
성군
슈리
스푸
아덴
아라이
위서
윤활
일라이
장도
전우
제호
중턱
찍힌
타진
폐해
표피
풀밭
하북
##tz
##소프
##중심
##충제
##tig
자유자재
중앙역
##omp
##ross
회의장
##oto
페르마
신경전
위기감
스키장
나카가와
포트폴리오
남겼으며
알레만
France
메타데이터
서정시
사이토카인
잃어버렸
게릴라전
Broad
화엄경
Wilhelm
조만식
Gall
sk
강해졌
교령
구술
기우
넬리
달빛
더한
던스
도니
매뉴얼
발흥
봉했
불가지
사저
섬인
성신
신오
아악
외성
울려
원경
웨딩
자경
조희
최루
칸다
코돈
크롤
탈주
탈북
토치
퇴근
풍물
플렉스
해낼
행크
환공
흐리
##ban
##티나무
##내기
##레즈
##벨리
##국영
##토니오
##은하
##혈증
##reg
생산품
Inn
사라질
395
이루어져야
신앙심
##라노스
넘어간
Arthur
평양직할시
자라났
그레그
1524
##토스테론
##ternal
1553
테스토스테론
어려워졌
간선도로
남해고속도로
맞춤법
트리오스
Modern
온실가스
구치소
Awards
금정구
스나이퍼
플루오린화
크렘린
신채호
맥라렌
Cd
CW
Wel
Wash
ma
tri
갑과
공여
교미
구력
권능
끈다
남면
내건
민트
봄바
북태평양
빼어난
상냥
앙헬
역내
예부
옷자락
입소
잡아내
장학생
주례
카펜
통나무
하네
##기스
##라비
##13
##LR
##전지
##겨운
##웨시
##엔젤레스
##널리
##찰청
##턴트
이상재
##iting
목적물
태양신
China
로스엔젤레스
자주색
야마우치
군수품
개신교도
리버럴
1522
820
1564
Blues
김성근
Bridge
Orch
다녀오
유방암
커플링
British
동급생
술라웨시
부녀자
완도군
직제학
칠곡군
전광판
대검찰청
의열단
Lake
교편
나요
단맛
락스
매국
매점
밀림
방진
백남
베시
별시
부카
비티
빼돌
석패
수포
신창
아길
양녀
위독
이직
장모
절강
정판
제럴드
청백
초유
최창
홍가
히라이
##레로
##노비치
##손가락
행정학
시리얼
종교인
작곡자
이사국
322
Cho
Inv
즉위식
451
기억력
전용도로
헨리크
부지사
1761
1767
발명품
1658
덧붙여서
메탈리카
아세안
에디터
괴롭혔
이세민
##군다나
Greatest
컨설턴트
김연아
주유소
Austral
Disc
cond
hom
겐신
공증
관보
관작
광속
국책
국조
기무라
나세르
네츠
대미
더해져
더군다나
매상
무임
백합
보부
비파
서두
수페르
안지
양전자
왜관
전분
젊음
제라드
차녀
창제
초구
촌은
최값
테무
판시
플립
학내
헤즈
홍성군
##lie
##보전
##미어
##포이
##자료
##그림
##행전
##젤로스
##ides
##iga
에스메랄
파이크
ins
피아트
남북국
##istry
운전대
갈라파고스
폐쇄성
롯데월드
니시무라
1578
무한도전
1516
무용수
세례명
아즈텍
제곱미터
베니젤로스
페르디난도
니코틴
모셔져
JTWC
네브래스카주
번번이
덕수궁
동두천
쟁탈전
찬송가
훈구파
방망이
RIAA
Dol
Lor
Mak
게으
고봉
과수원
내과
니야
다드
다쳤
마노
마담
미덕
미연
밀폐
발신
방주
샤흐
성좌
수크
수각
아고
아체
야코프
약재
잠겨
저음
창가
클로스
테루
템스
포커스
##rary
##bra
##서구
##무이
##전리
##UB
##델리
##뜨린다
일본서기
경제성장
조직법
현대사
물리량
이사금
이라도
328
##ima
346
삼성그룹
##ellig
파라디
여단장
Sex
공로상
각본상
1654
단층대
조리법
테레지아
우즈베크
반역죄
Army
Office
외할머니
##자동차
행선지
만리장성
Doctor
브리티시컬럼비아주
Den
Lie
Rog
Ye
교유
귀위크
끝마
뒷산
법화경
비화
세인
심청
야곱
양털
연역
연단
열혈
오티스
온양
유향
익힌
전생
지쳐
진산
키운
트윗
트렉
티크
필치
한영
햄버거
황사
훌라
##back
##금니
##밍턴
##자족
##권법
##슬레이
##밴드
활동전위
308
##ouble
보여진다
시험관
사라고사
밝혀진다
필리포
공공연히
996
벌어진다
늘어날
1682
사도행전
동해안
1656
트레이시
Clar
##AFTA
MiG
양조장
되살리
구세주
아킬레우스
청도군
세베루스
##vironment
Please
베릴륨
Civ
Jones
Mons
Wa
multi
감로
격식
고선
괴한
느티나무
레진
리놀
면회
명랑
미이
박힌
배선
보덕
색출
서대
속어
악사
압수수
양민
어거
영접
완치
웨버
임재
첨사
측도
킹스턴
토호
티티
호자
##yer
##16
##용수
##히만
##평동
##ites
##itect
국민은행
289
299
324
대하드라마
##aga
707
포르투갈인
주택가
갈라졌
1773
618
침략자
##메이터
다케오
돌려받
1754
1510
페리클레스
부수찬
하치노헤
세바스티안
DDR
아메바
수아레스
산청군
페데리코
에르난데스
명실상부
탈북자
압수수색
Final
YOU
가느
가평군
갈매기
고배
고액
고이치
교목
네팔
닫혀
렀으며
리기
북청
분권
브렛
비합
비등
삼색
선반
앗딘
야즈
양아버지
유종
육각형
정력
제과
제레미
주고쿠
질러
체가
토종
툴라
팩터
한발
확연히
흘렸
##산읍
##지엔
##청년
##참모
##ante
의미론
##leg
돌아섰
사업장
스페인령
스트롱
##ager
이주자
오히라
마쓰야마
흘러드
크리크
속한다고
이시영
1529
1748
1558
명문가
리오넬
처녀자리
바나흐
temp
Golden
매춘부
슐레지엔
Santa
양치식물
키르케고르
강림
구기
그제
금연
깨졌
대박
대운
박창
성배
순열
시이다
악재
알자
어택
에딘
엔리코
여백
육수
진안
처소
침탈
키를
타슈
탱고
피날레
##aurus
##동면
##OX
##크롬
##키나파
##후보
##하타
##디크
스타킹
바이닐
현대그룹
부르키나파
Theory
나이츠
이끌려
전기철도
애니메이터
베이더
오른발
인천시
수정안
668
1571
1655
시모쓰
시라크
ASC
매카시
오피스텔
가네다
케인스
을사조약
스몰렌
케리건
구례군
군사령관
우생학
역부족
시마네현
부르키나파소
LE
MAC
OG
TE
WN
가교
강선
고니시
관박쥐
괴인
균주
근동
노하
단당류
덩이
로커
료마
무심
미쿠
반송
분고
브레스
성무
소종
손견
솔리
쇼가쿠
스핑
신현
실기
알린다
양화
여제
유타주
융자
조난
추징금
퇴행
평영
포물
플리니
허약
황교
효행
##cal
##애폴리스
##uis
##포인트
##YS
##규어
##통신
##십리
일본공산당
요구사항
318
유사점
##토리우스
불가사의
396
스프린트
미니애폴리스
메인보드
인증서
프랑크족
Seoul
ATC
피터슨
1665
1668
1664
디오클레
##tto
트레블
##blem
거쳤으며
베네딕트
방화벽
Medic
통영시
오디세우스
아흐마드
대용량
SARS
냉장고
Dragon
Software
디오클레티아누스
Fish
Hold
가다
공역
군공
기발
낙마
났으며
낮춰
넘어지
노크
능히
니조
로주
룬드
만하임
맡아보
반시
사루
삼매
성삼문
셰이크
소상
송구
쇼인
수해
숭상
시파
시들
아명
오야마
윙스
유탄
저리
조아
중정
칭해
쿨라
크라이나
텔로
통곡
피쉬
항속
혼성
##hard
##PC
##라티
##청사
##DM
##노자
##웰스
조선임
기관포
317
##카이치
343
##abeth
다카오
##phal
이시이
1713
1498
1388
최신형
테오도르
로열티
시어머니
##yeong
되돌아갔
Flor
뉴클레오사이드
일러스트레이터
오디세이
German
수문장
아드리안
후이족
선덕여왕
Pacific
불기소
Base
BAFTA
OEM
Tay
견주
극진
기보
깨진
노모
단총
로베
면부
몽구스
박은
벨라스
소백
수형
숭정
스네
실학자
에일
월화
이륜
이스타
일까
장석
재처리
제원
지리지
참혹
책략
코요
토네이
틀어
##par
##동사
##트만
##결핵
##처치
##디푸스
##극장
##척사
##온지
##젠테이션
##lag
##isk
역사관
축구장
##itter
277
294
다이어트
##ips
예산안
한자음
살아갈
임대료
1638
오이디푸스
도호부
삽입곡
1420
시그널
해치백
백조자리
앨리슨
김장생
라운지
토네이도
Fel
Tod
rd
계신
국을
굴지
길림
냐며
뉴타운
닛타
대모
두정
뒤바
레코
류지
멀린
봉합
분트
술부
식초
엑셀
오치
오마이
이징
인준
쟁의
적위
정법
제련
초중
최인
최윤
카복
파슨
파키
풍년
피오르
홍길동
##din
##차오
##UL
##절로
##양요
##랜즈
세계사
##itary
##leep
1002
261
279
동물학자
##ema
연장자
발사기
야마나시
마사요시
555
551
1562
라우팅
1543
1531
Ext
베른주
애국자
##gress
대위법
자랐으며
진공관
남원시
resp
김제시
충무공
오리엔탈
글리코젠
군악대
경국대전
무령왕
차이스키
수페르리가
Away
Din
Hi
Kenn
VI
Vers
ev
각급
광활
난파
네리
당직
드리스
드웨이
뚜이
랩퍼
록맨
리세
모종
미끼
방산
백기
사대
송정
신제
앨프리드
양인
어구
억양
얼티
영안
외아들
요요
원론
유조
접영
친자
카푸
태동
특보
파마
향사
헬무트
협시
힐드
##미도
##텐디크
##배상
##추리
##곡사
##웅렬
음악제
들어올리
결정짓
자유시
특별상
요시히사
시위자
케이티
겨울잠
##estra
399
645
보안관
대화재
1771
Cont
달라진
910
##idea
가진다고
1652
##rise
1714
1457
번식기
그로텐디크
플랜테이션
영남대
코카서스
알래스카주
형편없
라시드
AAA
마애불
Beatles
에픽하이
토바고
PHP
자급자족
Still
도코로
김좌진
스몰렌스크
Az
Burn
FN
Gon
Mess
Sign
Word
sl
관등
김필
노하우
논어
니우
달해
동강
레가
로웠
맥베스
목종
미남
백서
사해
소호
쇼나
수일
실례
어순
연변
오데사
요일
자구
장연
정혜
제강
조폐
진경
천일
코친
코브
코뿔소
튜닝
한상
함재기
헌금
헤밍
휴직
힐데
힐튼
##타자
##SQL
##싸였
##예스
##텔라
레이먼드
409
전국구
마르스
355
##스턴트
334
세르히
아키나
트랙터
히데타
디스커버리
살인죄
선전관
달라서
Look
미쓰히데
1666
데려와
맞춰서
1697
정전기
가드너
크레이지
##ridge
안무가
볼드모트
##iddle
Memor
키치너
팬터그래프
Fair
Make
Our
will
구연
극본
난동
단번에
동편
류성
맞닥
무의식
미도리
밀약
볼츠만
사티
생디
셰어
수박
스나
시운전
연군
운남
유송
작아지
저질러
적개
정호
정석
정위
지참
처사
철군
청국
카티
카가미
펜더
펠라
학적
험한
헨더슨
호숫
획책
흉부
##ws
##로마
##서관
##무사
##TN
##하탄
##디브
##단백질
##orph
로마네
라이징
최고령
off
예술품
마르코프
아스파
이어졌으며
1681
수십억
클로로
##annel
탑승자
1440
안드레스
급진파
아크로
응원가
포에니
에워싸
사우스캐롤라이나주
코먼웰스
플리니우스
호숫가
BD
Jud
Ring
가경
고법
너클
다빈
당겨
대당
띄우
마유
변인
부국
비결
샤토
쇼헤이
수병
실축
실직
에리스
연원
외조
웨스
을미사
이피
입항
자드
재수
재력
제나라
조원
중무장
지안
최동
쿠지
폐질
피보
허균
##CE
##동리
##야샤
##노미
##여대
##데나
##군란
##글라트
##순절
##혀졌
##픽션
아이히만
발견자
271
공산군
스테이크
베르토
그림책
찾아다니
분자량
Report
스카웃
995
920
1569
동해선
이복형
Jeff
김재규
날아다니
발칸반도
하타케
중등교육
이누야샤
도봉구
자유민주연합
다이나믹
Engineering
이분법
코르넬리우스
군의관
임오군란
신고전주의
최익현
을미사변
Ban
Dest
PF
Rom
ZARD
단막
더럼
라만
무하마드
박연
반쪽
범한
베링
복당
분업
불빛
붙일
선관
소보
시프
신통
아웅
알탄
약해졌
여중
우암
유속
윤웅렬
이응
장명
전야
전연
제소
천보
카제
캄차
파킨슨
하진
흥업
##don
##장구
##바사
##사무소
##개음
##erapy
연구가
이동은
작용소
##rier
##cep
요시키
##thers
크리스찬
크로우
나치즘
도미니코
베니테스
하야토
뒤따르
##ification
아자이
보령시
궁내부
자유민주주의
김보름
보르네오섬
후쿠치야마
쇼가쿠칸
파슨스
Hosp
Ko
Person
TNT
Viv
hyp
가제
계율
관전
군제
나그
난립
너바나
녹여
다져
단바
단파
대프랑스
동단
두리
디나르
뜻대로
랑선
렉싱턴
박규
비법
상군
성터
스바
알버트
어용
엄숙
의안
전매
중선거구
타자기
토륨
파비
폐선
한랭
해요
흉터
##애플
##수트
##자매
##안토니오
##경원
##나항공
##헨글라트
국가주의
##arc
부분집합
##edy
물리친
마르타
##unch
아시아나항공
##스코프
공작령
여행기
338
히로유키
폭발력
서울특별시장
후원금
아프로디
벌였으며
누르하치
1523
모토나리
사과문
소화기
박스오피스
Common
Walk
Walter
조슈아
Studio
수식어
와카야마현
신천지
고단샤
커맨드
에스메랄다
##헨글라트바흐
아프로디테
DNS
KV
Ltd
sign
다도
매몰
면책
명대
몰디브
무득점
바스티
버킹엄
불선
비노
비엘
서포트
소우
속여
시제품
역원
오너
용담
일로
자자
지모
터프
투나
폐수
할례
행랑
환국
##노이드
##투리
##양동
그리니치
도시락
스타덤
297
502
##ogni
라인하르트
DeNA
##sson
파르테
1641
918
690
부서지
스탈린그라드
DSM
##key
풀려난
리라는
벨리댄스
아다치
매립지
툴루이
##재판소
흡혈귀
Core
PI
STA
Video
계발
관영
관악기
그라스
남이
냉소
다분
당권
딜레마
렀을
론도
말다
말린스
몬티
무속
물길
병증
분청
샤쿠
소성
손질
암각
암트랙
에러
영인
영생
영변
오군
우거진
울스턴
위신
유착
유토피아
이너
인품
재실
적기
참지
최성
칠드
크루스
탁자
파테
판무관
폐사
피우스
하목
호시노
효령
##mb
##len
##에라
##신산
##카날
##잎식물
스타워즈
287
목적어
연방제
나이토
도로시
##vey
교통망
베이시
##ando
투표자
훈련기
하루카
Arena
##artment
관료제
동남동
1631
1669
지중추부사
돌파구
Cloud
STS
##스토폴
객관적으로
Samu
Systems
게리온
오로치
산시성
앞당겨
제각기
하세가와
푸앵카레
##ognitive
울스턴크래프트
Lost
dem
law
가급
거위
결석
과언
그건
기년
노니
녹는점
달릴
당간지
도의
문지
바란
보나
부러지
비올
삼엽
섬네일
수꽃
순행
숭고
심재
심양
십시오
엔도
원폭
이창호
인스턴트
제닝스
지노
직영
페란
흑표
##미나
##절제사
##나귀
##음악
##언라이
##매이
##벤토
세계인
알려짐
데이비
282
졸업식
다수당
은행가
영상물
베네벤토
대기근
진다고
방면군
건조물
##ival
사마소
1533
1724
지질학자
으니까
메르켈
1418
출산율
세바스토폴
장시성
스테파니
베어링
정선군
KOF
저우언라이
호그와트
과달카날
Freder
고군분투
##지상주의
당간지주
Ash
Cri
Han
bra
개작
격문
곱하
국전
꼬리지
단형
랄리
링거
마쿠
밤새
배스
본보기
부신
북원
산대
송가
슈프
실감
악취
여공
우현
접어
중편
직종
직급
철조
튜더
피조
할애
함평
##cid
##체계
##탱크
##테리오
##투리아스
259
##uri
사무처
현상금
프레시
332
##나이더
서양인
아스투리아스
혼란기
985
참모부
1544
1710
1467
1735
두드러졌
이정표
그로브
공수부대
이소룡
##uthor
보름달
Model
철자법
콜론타이
지드래곤
호치민
의왕시
Forever
저소득층
구소련
로마네스크
꼬리지느러미
Card
Hits
Ten
die
권기
근년
기모노
김무
도처
동공
루디
리무진
맞출
바얀
발길
비바
사행
상산
상충
섬서
순경
스켈
시옹
식인
심해졌
없다
우안
원부
카구
콘트라
쿠즈
티거
펼친다
포카
허준
호노
##동설
##리시
##에너지
##도우
##ND
##왕도
##복고
##롭스크
##분해
기술원
298
아닌데
##cean
야마나
##utt
##ione
의학부
1509
김정희
1766
일단락
수호이
##ANG
1690
두드러진다
플루타르코스
배신자
Place
왕정복고
총격전
PROD
에이전시
##프로이센
브래드퍼드
퀘이커
NADH
물병자리
Future
PRODUC
Bos
Cu
Full
Lat
like
pres
tre
강주
게티
다락
담가
램지
레테
맹인
메뚜기
멘탈
반승
본원
빠질
사타케
사누키
송사
알데하이드
예지
올가
옮긴다
용군
유코
육전
의구
이충
자청
잘린
장작
전계
종시
좌도
중입자
초지
충원
측선
캘러
콩트
파묻
페네
포크스
호성
혼전
흑태자
##울림
##결사
##화음
##다코타
##무시
##여름
##통치
러시아워
레이지
스테드
345
비밀결사
##ours
##ians
Spirit
유행어
수익금
1685
세자르
1402
935
1549
보르자
스탈린주의
스펙터
이재민
체인점
노비타
드래곤볼
리라고
SLBM
Point
그레고리력
엇갈린
뉴기니섬
의령군
지요다
VfL
에마누엘레
황교안
다빈치
Rud
ret
갈루아
값비
급등
다낭
단명
도프
동떨
두마
디럭스
로토
로체스터
리미
리다
매독
명복
모가미
반신
베냉
불륜
산전
세공
수공
식구
심성
쌍계사
약했
어장
예제
왼편
윌리스
인양
재무부
지스
채석
청서
총연장
침강
태초
팔코
포우
플린
형체
환도
히키
##동국
##아데스
##한나
##페레
##fe
##재해
##토끼
전투단
자유도
국민주
정의역
나가시마
스트레이트
가리발디
326
그런지
후쿠자와
카를루스
레드불
Profess
765
시나트라
1576
1548
오카모토
1672
1747
판타스틱
1470
유키나가
##INE
Centre
음운론
정명훈
급부상
장보고
최충헌
애너하임
Pur
free
계유
고흥군
공변
권상
난조
노즐
다무라
도수
뒷발
막심
모을
민란
북키
분절
사칭
생소
선착
속령
슐츠
실루
아톰
애들
에닉스
예이츠
외도
응오
잔지
정각
척하
층군
치요
카시오
커드
쿠어
태산
판과
향료
혼간지
후경
##bi
##마리아
##플러스
##램프
##omet
계약자
602
당했으나
홈런왕
425
절대다수
허가서
프린트
리버티
1667
1678
1717
anti
1433
수군절도사
수성구
맞춘다
싸운다
도이체
가극단
인피니티
##오스트레일리아주
윤봉길
홍백가
BE
Equ
KR
Lad
Ross
Sab
Term
gra
ter
간수
김책
꾸리
남사
냉대
노랫
녹차
달렉
뒤틀
라베
리베리
망각
백부
불시
사부로
산골
셀린
수대
수피
수액
슈나이더
시브
오모
우노
위르겐
유스케
을과
응교
이센
전상
정창
제플린
조진
코만
쿠엔
해령
해파리
후카
##hib
##사다
##티콘
##소송
##소녀
##부쿠로
##나트
##계약
##요스
##환자
##oni
##ali
가진다는
291
찾아온다
하루히
코스모스
스미토모
바이에른주
늘어놓
1566
아케치
봉건제
배기량
사쿠라이
Advanced
외동딸
스커트
뉴사우스웨일스주
해발고도
Ath
EB
Eric
Family
Ow
nucle
감실
값싼
강태
걸즈
경공업
고농
기염
당나귀
덕흥
덴진
득세
리전
리어스
마미
만만
메흐
면했
명신
발아
배관
본교
봉양
승승
아낙
어빙
억지
엘렉
엘레나
오슈
외신
잡초
주돌
중핵
지협
직감
최연
코타
코멘트
큰아버지
토카
티비
틸라
판테
하로
홍영
히고
힌트
##ster
##cast
##루이
##다이스
##42
##게우스
##가사키
한국사
##time
407
아시아인
베르톨
형제자매
대륙성
476
지켜본
1709
늘어난다
1574
1723
데려다
메타크리
분비물
분당구
Medical
림프구
Review
자코모
매도인
앵무새
캄파니아주
삼엽충
메타크리틱
AZ
Est
Iron
gen
가재
각주
냈으나
노파
두드리
드렸
떠받
라켓
물줄기
박병
백관
병법
사피어
산천
산양
석성
선내
송대
어와
예르
오션
온돌
우후
워리어스
유류
장손
정방
정답
파국
할복
항고
허술
히가
##cl
##보트
##인지
##ners
##uce
##기성
##바탕
##스만
##팔트
##화기
##실히
##가드
##조림
##셔티브
##받이
##hema
2100
281
자연재해
##edom
전문의
지배인
마리안
훈련원
번호판
342
##ipe
427
##iki
767
1752
1537
넘겨졌
About
신생대
이화여대
CSS
쳐들어오
일리리아
테일즈
Juan
이니셔티브
나일강
에치고
신해혁명
스플릿
배설물
유위법
생동감
프로메테우스
Ts
cent
effect
과민
궤적
근면
남정
남연
노여
다코타
둔갑
래피
마커스
무연
반수
반트
밝힐
변두리
비열
사들여
샤워
스오
스도
시화
신유
실추
알류
암기
양고기
어금니
언해
용구
입점
재규어
조에쓰
참신
초현실주의
커진
포그
학예
해학
힌디어
##oe
##미분
##덕면
##삼국
##격기
##잔디
##칠성
된다며
사이비
이나마
문화상
309
##itar
자유민
올림포스
교회사
##ete
292
##ader
부산항
자치통감
나무껍질
형제단
##stant
후쿠야마
카르텔
바라볼
마쓰마에
심장병
비례대표제
블록체인
동북아
이와타
동지중추부사
1466
칼리닌
ext
기요마사
라파예트
트로이아
줄리안
러서야
선천성
하반신
갖춰져
크라이슬러
https
##하우젠
Children
Happy
분견대
다당제
Cong
Eug
NI
Nam
Nov
TBN
Zone
est
골고
권속
균질
덴무
리파
매끄럽
맹목
발차
벨린
벽파
병무
빅스
샌안토니오
세이지
시디
식탁
악천후
연남
오송
오지오
우고
우드로
우분투
원광
이티
이간
인선
잠자
재연
정윤
조왕
중층
진천군
창경궁
쿠타
태고
터무니
통한다
파와
파천
햄릿
화보
후처
히카리
##body
##라덴
##소프트
##러시
##투라
##링기아
##촌면
##숭록대부
발생학
바이크
아르고스
전통문화
다이내
나오미
##ries
자치현
바다거북
인천항
윌리암
터키인
불가르
1503
##iffer
생겨서
떠났으며
살인자
사정거리
##athan
돌려보냈
네이처
합리주의
1535
1390
적대감
고사기
##othing
이원론
그루브
약혼자
Williams
떠돌이
성악가
엇갈리
Silver
하지메
로타링기아
제스처
일직선
파이낸셜
Bac
PT
Ron
Talk
거니
국원
군가
나하
농약
다네
단신
단양군
단시간
당구
도함수
됐었
디제이
리한나
명과
문왕
바베이
병음
부안군
비족
비너스
선의
실생활
십육
안도라
예후
외자
우다
위저
음대
일경
정준
주희
지으며
참찬
첨지
축음기
컬리지
타히
토스트
풍류
한식
합자
혜제
호민관
##고에
##바바
##소총
##도치
##프레드
##면증
##센테
##퇴르
##anti
##omer
##chi
296
교수법
무역로
##ember
통제력
옮겨진
진보주의
시리아군
네이선
기동력
안내서
##azz
Edition
무인역
화살표
북극성
염기쌍
바실리카
파인애플
조승희
이케부쿠로
크레이머
고의로
법상종
아루바
엽록체
칼로리
신증동국
이그나
값비싼
신증동국여지승람
건주
계위
고밀
공권력
괴링
급변
김자
낙서
다득점
디저트
딱지
루쿠
문민
미량
밀렸
반부
부어
부케
북양
사오
숨겼
쉬웠
암꽃
양키
에번스
영천시
우구
원서
이춘
이바르
인동
일용
자폭
조피
주보
진형
찬란
채드
최명
칼리스토
캄브리아기
풀러
현물
##lis
##타페
##칸트
##발덴
##병전
##엄경
##onse
##last
생활상
267
아르슬란
가까우며
소유스
수용기
336
슈퍼맨
광고주
##ista
아스팔트
생겨난다
코스프레
Conf
1581
1657
1468
시게오
임상시험
계절풍
싸이월드
원더걸스
Georg
##struction
침례교회
앨버타
묵시록
위정척사
파출소
가느다란
캄차카
Bow
Mountain
QS
Wonder
sing
검단
고값
금오
남안
넘나들
노반
단다이
들렸
디미
래쉬
버추얼
빨랐
상봉
새크라
서프
서력
세입
술어
시지
양감
와우
요람
위수
윤두
이석기
정간
조훈
주격
처인구
천부
초속
탈수
했어
현주
##드기
##호쿠
##비트
##비사우
##레라
##자이
##진흥
##쿠츠크
프로비
이름난
##arum
들어설
##eta
이르쿠츠크
전문직
동맹회
마리우
가르친다
가졌으나
에어리어
헤르타
그만둔
1687
시나가와
1541
1699
창간호
사로잡혔
파스퇴르
남양주
기니비사우
미야자키현
부평구
muscle
당사국
피그미
고즈케
메이크업
칠드런
새크라멘토
HA
MIM
Vel
구정
논박
높인
단연
도브
뒤흔
루마
멘셰비키
몸짓
민담
방북
백선
병변
복리
성비
수론
습곡
아몬드
알츠
알랭
약식
양친
어조
연두
오파
오데르
유마
이찬
일탈
저절로
전입
철인
쿠도
타투
파블
퍼뜨리
해미
호중
히든
##ved
##house
##타우
##리얼
##호흡
##티늄
##메탈
##가족
##핸드
##버지니아
연합함대
수도자
319
소프트볼
통일민주당
701
아카디아
413
##ucture
모르고스
431
웨스트버지니아
상관없
##메이니아
1684
1394
리아노
페니실린
오라클
마니교
Sciences
지쿠젠
비토리아
DMB
Hotel
소인수
본존불
정읍시
트롤리
소홀히
아이치현
김덕령
미추홀
태즈메이니아
머지않
폐질환
알츠하이머
Ale
Aff
BN
Bang
Jung
Nations
Obs
Sus
Well
난관
남색
내의
넥서스
동중
띄워
롤라
마군
바움
배임
베스타
본류
부혔
분홍
분묘
샤론
서녀
성북
순창
시몽
실과
심령
안사
열연
예송
왜국
위관
위령
은수
의술
이대로
인심
임피
제전
진열
츠빙
타령
톨레도
통조림
해직
홍역
##애슬론
##르니아
##우르
##TION
##HR
##ores
##mum
##ithe
프리뷰
314
작업자
소비재
Reich
알아채
스미요시
메인스트림
ISS
1751
생태계
달려들
1676
1743
1746
##ASS
Abb
인제군
산탄데르
한라산
요네자와
시진핑
애들레이드
츠빙글리
DK
factor
mark
감무
감청
경교
고슴
고혈압
골망
과산화
끝낼
덤블
덴포
덴지
도학
딕슨
라보
롱스트리트
멸하
박트리아
보시
복판
분모
서도
석비
소고
소바
슈비츠
아바르
아스트라
악령
양봉
오족
원근
정돈
체외
치바
카브
키티
태프트
편승
포시
##med
##포크
##시키
##부진
##배추
##콜로
인터프리
지구당
전자쌍
태어났으나
##rial
해군기지
중간자
세르지오
마사노리
자격정지
백작령
확률론
965
Block
1749
브로커
포유류
##트니크
##ether
믹스테이프
가져온다
율리우스력
헤로데
롬바르드
HPV
구한말
오대호
그란데
지기스
Division
상비군
진시황
김택용
잉글리시
편집국장
스푸트니크
봄바디어
의구심
고슴도치
인터프리터
BGM
Haw
Lam
back
강정
거버
경례
고열
대보
동도
디모
로건
루아르
멈출
명암
목제
분국
삼지
상습
스베
실론
아슬
안착
영주시
예스
오구리
웨식스
유피
음질
읽히
제롬
제천시
조총
준급
천막
청약
체재
카게
캐번
틸리
파운데
학풍
홀란트
힘차
##vision
##베쓰
##프로스
##45
##어짐
##콜리
##iner
##alt
##head
자유지상주의
철도망
전문지
도입부
비교적
원자량
수용성
수정주의
def
##angel
국방위원회
창설자
히데오
FAD
1705
##aux
스프링필드
우에다
검출기
Magn
어뢰정
심부름
음주운전
축전기
love
사계절
애버딘
진평왕
재빠르
큰곰자리
불그스레
하타케야마
지기스문트
파운데이션
Aqu
JD
RM
Ti
ml
간이
기슈
독촉
로비치
망고
바가
세레스
순도
아교
아레스
야말로
어째
에브
에틸렌
이착륙
존립
주박
주영
직간
총책
칠리
칼리아
탐페레
토아
폐색
풀랑크
플렉
피침
하바
현인
홍차
##aut
##hi
##hip
##바니
##St
##반트
한국학
##ische
자유국
##roc
유명무실
##uma
책임감
지대공
화학공업
339
불가결
고문관
나카쓰
Conference
사형수
이치조
1704
##rison
Week
중시조
들여온
##ACK
몬테카
중독자
1389
말라야
애국가
묘지명
요르요스
조부모
이뤄지는
조형물
버드나무
Series
이산해
용수철
루가노
라테라노
마태오
몬태나
장준하
신격화
바베이도스
Jun
Kon
NME
Oct
Pen
TW
world
괴수
귀비
깨이
나프
논픽션
놀도르
동갑
등교
디프
레와
로터
뤼순
막달
몰로
백호
삭탈
서핑
십진법
안겼
오더
외경
용왕
인파
일루
일개
재흡
지번
창궐
치웠
카브레
타미
태원
틀렸
해초
홀름
황당
##법자
##주머니
##하드
사이온지
담당관
연속체
알렉상
##iment
장애자
##ieve
사우드
플로피
수소폭탄
보험금
니콜로
크리올
731
자전축
##BOL
1419
1732
시에나
루카코
Poly
이뤄지고
슈테판
나일론
Duke
생원시
프록시마
출루율
전태일
Alfred
Washington
PRODUCE
재흡수
Pot
VM
dia
그렉
금상
김철
끼친다
대남
대계
대궐
동역
동고트
들으며
디카
로르
벨파
벼농사
불응
샌더스
서편
승조
신미
신단
여비
연의
오현
우러
움브리아
유후
이코스
익살
자필
전의
정영
중후
체감
체전
촌장
카페인
캔버스
트롬
티에리
포신
##iod
##pl
##gn
##포동
##라키아
##달리
##렐리
##엑스
포르테
359
시험장
411
나카야마
글로리아
##iov
집권당
1686
975
1727
1742
발렌타인
관념론
1368
수산업
카타니아
연수원
왼손잡이
아담스
가맹국
자코뱅
사다리꼴
##minist
티라노사우루스
벨파스트
Fox
Hop
number
power
가래
갑자
거친다
곡예
급상
나로
낙찰
내몰
데빌
도원수
두바이
리도
막상
반명
반자
변속
부성
비인
성주군
세린
소파
스폴
시복
아귀
앞발
육종
임치
장계
장가
종택
주해
진여
진력
챔프
춘분
페메니
편파
혈족
호앙
황정
흑룡
히카
##야카
##수선
##포라
##라카
##파인
##내면
##성인
##무제
##LV
##VB
##코스터
##그로스
##버렸
##병희
##질서
따라갔
프리즈
경찰대
그래피
가까울
식민주의
무역항
프레젠테이션
383
장기하
리스토
모리츠
Mart
##iform
공중전
787
1729
1679
데려갔
##orning
보스니아인
군정청
매수인
의결권
도네강
개헌안
클라우디오
Operation
롤러코스터
선지자
군마현
VfB
커넥터
정육면체
전근대
윤종신
정묘호란
원세훈
Main
fil
iP
가무
고공
네그리
다미
독트린
될수록
레벤
매칭
배다른
백양
법흥
법체계
변덕
불전
세츠
셜리
아커만
액화
양양군
에인트
울진
유려
잘리
잠기
재지
젤라
중련
집터
차등
착하
채프
첫해
첫머리
촉각
포리즘
허수아
##호테
##아치
##차림
##NO
##LO
##LD
##테루
##후미
##UE
##여행
##학당
##생긴
##매장
라이어
##aser
고등관
대구시
##ogn
907
455
집중력
소수성
신학회
##iller
Next
플라워
499
콘스탄스
그레인
올려져
크리티
Scott
APEC
##awa
나섰으나
1460
하와이주
STER
설교자
내분비
극락전
군관구
CGV
광양시
텍스처
모란봉
프리드먼
안락사
에인트호
허수아비
검수
구당
근왕
김조
난시
뉴먼
니티
닫히
데브
돈다
동봉
로웰
링겐
못해서
무이
방관
방응
번들
번화가
보광
볼스터
비꼬
빈라덴
사채
산길
산적
상량
소천
시토
연민
용호
음영
이무
인센
장문
장형
점근
정난
주어져
첨정
청담
카본
코르크
토포
펼칠
포부
푸에
필레
홍천군
##Cl
##니버스
##아주
##구로
##투사
##천장
##렌부르크
##콜린
##리아나
278
505
현상학
베르거
다카다
1501
주기율
무시무시
코르티
가상현실
Season
단편집
피부색
선호도
Enc
890
##olas
신중도
Barb
공대공
어우러진
피카소
쫓아냈
Virgin
스플리트
비스듬히
##비르스크
베텔게우스
재검토
승승장구
인센티브
FE
NN
PG
Ren
key
ur
개동
결백
골동
그토록
네르바
노로
명정
모라비아
무브
문희
박보
반세기
백설
버뮤
봉군
브로스
빼놓
서호
선댄스
세뇌
숙부인
시학
안젤로
애썼
오반
우애
우군
으라
의숙
입맛
자야
장만
적과
좌부
준말
증광
착상
초각
카간
쿠파
필자
한나
한단
행궁
##rin
##을리
##시다
##지에
##헤르
##칼레
##itation
283
##opy
사단법인
트리톤
337
349
424
했었으나
435
판결문
stud
브레시아
희생양
Hey
니시노미야
사마시
천주교인
001
무라타
슬라우
##ression
네스토리우스
Security
오쿠마
##클레어
Champions
오카야마현
Devil
비행대대
이효리
총지휘
경수로
콜로라도주
카펜터
버뮤다
Jos
Ped
Six
TD
VC
가짐
겐무
광운
나셈
노리오
다포
다신
다친
당은
던질
된장
라덴
레딩
롤프
말리크
망주석
문익
바누아
병들
살충제
삼키
삼인산
상왕
성병
소래
아처
암사
역참
원순
인덕
자른
잔잔
재구
저감
점원
접사
정족
조혈
종회
종손
첨예
최정
측천
판디아
팔다리
팩스
폴스
합사
항산
해프
햄프턴
향약
활로
황혼
흘렀
##sche
##play
##ced
##라다
##아문
##아민
##화사
##FP
##총통
##나간
1350
최고재판소
전문점
활약상
예술인
352
356
부정확
488
##eller
바라본
Arc
아라시
살아나
가와고에
alb
손해배상
##ASP
유언장
1260
##줄기세포
IDOL
스폰지
배아줄기세포
종신형
프레데릭
MMOR
할로젠
현충원
차이나타운
북키프로스
골고루
CER
Gil
WR
che
method
pass
sa
sup
강계
괴담
근일점
농심
대충
덕성
도농
두문
뒤쳐
라토
레리
린트
미호
미하라
반한
발랄
버틸
법리
부력
석주
수거
수안
아네
양가
영과
윤기
윤정
전인
즉사
지마
질렀
차마
초식성
추토
치치
치닫
표수
해곡
휴스
흥천사
##si
##gra
##영장
##왕묘
##노바
##두더지
##걸음
##릭트
##슈비츠
##허가
##iny
한국식
##mur
전투원
일어서
데이지
프리깃
##urt
히로사키
저항군
다카기
아우슈비츠
가로채
758
가슴지느러미
부지런
1708
##바라기
CoV
노리치
##eptor
양산박
부시장
Govern
##ENT
add
칼럼니스트
파열음
무도회
동군연합
RAW
서귀포
##네프린
Hello
스쿼시
point
District
오귀스트
##아비브
인디펜던트
set
sem
감쇠
게슈타
광전
괴벨
권좌
기문
다와
다키아
대퇴
독사
등각
디리
랜딩
맥길
명수
무반
물망
미즈키
벤더
보금
부우
비제
비음
소산
소연
수발
순양
스네이
신권
악셀
에스트
예문
용적
우금
위턱
의창
이신
접두
정회
주교회
처가
탄식
텔아비브
행한다
호펜
황진
황녀
##CF
##기사
##피린
##큐브
##블라
##딩크
프로시
##inity
발생기
구조대
327
측정기
416
보급선
하늘색
인조잔디
알아낼
향해서
영업소
625
666
##ments
Box
1556
##ancy
기요하라
산란기
기다려
파인만
테레비
##OUR
티아라
캐롤라인
타쿠미
##ledge
폐막식
아우렐리우스
월등히
신드롬
신승훈
무의미
조훈현
알렉상드르
게슈타포
보금자리
주교회의
Ker
PB
Tok
oper
감비아
갖출
경조
고쇼
고경
광천
군구
길잡이
남길
뉴포트
다르크
당적
도대
도통
라모스
로티
망자
먹여
문벌
바브
반디
백병전
병석
부로
비센테
상면
선역
선국
선하
송치
스틱스
심벌
원환
원기둥
종대
책판
천궁
청학
축사
캔버라
톨스토
펠로우
편중
포피
플린트
피선
환희
##티머스
##소판
##한자
##심판
##교구
##icy
민주국민당
##omm
2200
나오키
##umer
아마고
아마이드
오르페
행성상
378
플로우
고양군
주간고속도로
1204
##iverse
침입자
마르크스주의자
와이즈
1552
도미티아누스
마그누스
1495
1493
크림슨
##자치단체
산타나
창업주
총대장
갑작스레
##ycle
Collection
영동고속도로
아이오와
가부키
UCLA
노르만족
세일즈
순치제
메콩강
에인트호번
주기율표
해프닝
톨스토이
ADP
ITV
Ku
Pra
maj
post
간경
거들
격멸
경산시
고학
교로
교만
그렌
꺾이
남유럽
니라
대호
대들
도관
도태
디즈
디스트
리구
리엘
메클
면죄
바츠
백일
벌거
비보
비씨
빈틈
삼청
상궁
성난
소뇌
실마리
야율
예천군
오소
오테
완다
요령
저울
정안
주회
진안군
차입
체증
첼리
카셀
코오
퀸시
크립
타타
탑비
텐데
페예
피카르
항행
해바라기
화문
후나
##르나
##치료
##VE
##글라스
##혀져
##켄지
##asi
표현식
경찰국
다이시
개혁자
스포일러
##verse
정상급
법률안
##니어스
항성풍
642
정체불명
##이어티
메인프레임
Mah
패션쇼
1744
스프링스틴
1551
동반성
글루코스
돌격대
체크카드
드로잉
약해진
Christoph
유희열
이누이트
최남선
Nature
편마암
노르트라인베스트팔렌주
괴벨스
디스트릭트
메클렌부르크
Cin
Ice
Jes
Jus
Jane
Ox
Sig
Turn
VHS
geck
pat
가업
강소
궤양
네루
높인다
늘린
다라니
단상
대흥
레츠
마정
마귀
만유
메두사
미어
복개
분만
분극
브롬
사발
섬진
아까
아대륙
양승
영진
외우
운율
워크래프트
위암
윈난
유어
이파
이본
인들
지녀
초가
초파리
키바
태실
툴롱
폐역
헤매
협성
호헌
##야구장
##대국
##SC
##치슨
##15
##통합
##갈이
##충분
1001
레이프
아르다
보호국
605
##ayer
공작부인
대구경
##트리히
플로렌스
내렸으며
538
##ARC
1647
1579
1538
항해사
정교수
1435
1360
마라타
빈곤층
상장군
Too
리보니아
sex
SLR
Valley
암모늄
부추겼
캐피털
기묘사화
Treaty
poly
open
금기시
퀸즐랜드주
구급차
패트리어트
타이타닉
미적분학
스네이크
세르히오
Eyes
IRA
Sen
kr
갈레아
강팀
검시
고바야
노략
농수
당위
더위
따름
리엄
민제
밀직
병진
본회
볼테르
북스
불임
브렉
비라
빈치
사액
선후
수압
슈에이
신일본
여길
연지
월성
윤증
이지만
일구
임창
장고
장생
조의
주왕
주춤
차폐
천신
철퇴
최전선
치장
코자
파송
폭군
프래
픽사
합헌
해경
헌혈
혜공
호사
홈스
황희
회맹
후비
휘종
흥사
##강하
##구비
##텐베르크
##빈객
##웨인
##례문
##뷔르템베르크
##런즈
그리움
##arp
##ties
행동주의
가르칠
486
에드먼
394
##ants
나갔으나
자이나
페르시아만
1673
1677
크라수스
웨일스어
PDF
돌기둥
##book
포토맥
Philosoph
소사이어티
이목구비
하층민
바덴뷔르템베르크
볼드윈
Jackson
Papa
syndrome
에일리언
임직원
슈에이샤
Fab
Self
Tro
WTO
pla
가릴
강북구
급강하
기괴
김관
꼴찌
난수
노정
동파
디버
디트리히
따져
럼블
로아
르베그
리콜
마칠
반스
방추
번거
번데기
병주
보노
섬광
소거
소액
수달
신형
심의회
양배추
외지
이혜
자헌대부
장성군
저스티스
정덕
조감
지저
진드기
철판
총서
출두
커터
탁지부
택한
텐더
풍산
헤어진
획일
훈도
히피
##bps
##다닌
##피리
##피탈
##캐피탈
##orf
1250
이용한
타이지
최고위
509
모양새
나오토
지하도
357
추진제
Alt
372
스티스
브리크
534
출입국
기상학
1639
879
Scot
게르하르트
리처드슨
Johnson
##AMP
수신자
1170
채워진
공감대
acc
니콜라우스
NTT
일지라도
Build
무색계
영월군
도화선
이코마
특산품
Dynam
EOS
FT
Gang
KOR
Ocean
so
감화
내측
노국
늘어져
등분
레시피
르바
리볼
멍청
모타운
몸매
미발
방부
본루
산로
석장
세수
수관
숙제
슈워
신센
양전하
왕인
은근
일렬
저빌
조음
좌승지
주산
죽전
중략
증시
지괴
진회
진달
치만
평산
푸리에
피소
하자
한센
홍해
후설
흐를
흡착
##드프랑스
##체육
##사건
##레톤
##게이션
##코이드
##발성
##벌식
지역민
도시바
상대국
돌아서
생활사
1004
현대캐피탈
베이즈
하이난
오르티스
##ardo
기지국
코스모
에어로
망명자
메인주
그라츠
구매력
영구히
ACE
가해진
Sund
압축기
##ACE
좌석버스
1482
휴전선
제곱근
기다려야
칼라브리아
##entific
마야어
퍼스널
마가다
Michel
정인홍
치우쳐
Henri
대종교
미트라교
이바라키현
시온주의
내비게이션
아수라
Western
히카루
신센구미
Py
가금
가차
가파르
고카
공집합
극비
길리
낙수
도용
목마
문도
반비
발바닥
법회
불매
뿔뿔
살육
색다른
선공
선녀
소책
쇄골
수시
연혁
와전
왕도
외질
울진군
웅덩이
원용
위고
유심
조련
종국
중전차
청양
초은하
카발
터득
토탈
투시
피로스
피콜로
한경
혈소판
화공
후조
##인간
##스존
##티티
##현진
##처마
##단층
##뱅이
##ori
##iser
##eland
##omyc
잉글랜드인
329
381
불러들이
아키코
기대감
392
마리아나
417
414
테러리즘
전면전
체코어
661
1518
구리시
Alliance
영광군
에우제
갑작스러운
글루탐
김태원
배운다
머스테인
수필가
뒤따랐
삼척시
월경지
멘델스존
가메야마
돌핀스
영산회상
스켈레톤
초은하단
Aer
Dre
MF
Mother
NEC
Ober
VIP
cir
data
거실
건드리
견도
결손
과천시
괴사
구진
급작
급료
데본
라발
레겐
렸으나
리엔
무량
무난
물감
미도
번스타인
복스
복실
본산
봉착
블라인
산중
살로
샤우
서천군
소그
에비스
영릉
오명
외르
월동
의경
일요
적출
철분
첩자
컴팩트
키울
태연
토코
파슈
패인
표차
호저
홍군
홍국영
히딩크
##ech
##ras
##미디아
##스쿠
##소닉
##를리
##부시
##세움
##강도
##귀족
##빈스키
##려고
##빙거
구조주의
상대역
고등고시
Stone
363
388
불렀으나
스파이스
Need
531
천연자원
1480
무인기
가즈히로
벌금형
스노보드
레오폴드
도야마현
김두한
메로빙거
아펜첼
노량진
Taylor
Samuel
무브먼트
바누아투
소책자
Hun
Mission
Rac
coun
각처
거든
과보
난형
단청
단골
도버
레어
매클
매김
모병
물들
밀라
바구니
발디
법주사
벗기
병결
부석
사초
산부
생업
소과
안현
에우리
여명
오진
외주
유순
융통
은상
자만
자와
장창
조효소
중급
지양
쫓아가
차축
청양군
체학
카슨
팽대
폴링
하이트
행체
혼노지
회당
후불
희빈
##bour
##kh
##가부
##outh
자유의지
지냈으나
파괴력
수용자
##agen
방어사
식민지화
개선문
사우샘프턴
코드네임
432
의존도
스피노자
살아왔
오프사이드
이치카
시사회
1753
정통파
발레단
남겨둔
1478
상수도
말라카
##슬라바
한양대
가즈사
LPG
상반신
##atio
Joe
가쿠인
대전차포
글리코사이드
Republic
파노라마
Mobile
##포도주
성탄절
대홍수
Hospital
노여움
MMORPG
Cell
Ges
Kind
Ni
Nik
Name
TB
견학
광진구
규산염
김이
남위
납입
내진
넥스
단열
더프
덕종
동그
동프로이센
럭스
마스트
면장
문대
발암
보울
본의
봉은사
불거지
사분
선용
섭리
식기
식세포
역어
오행
오무라
용례
원핵생물
윤용
일드프랑스
저변
제분
진작
총포
최전
치리
콘돔
태안군
하역
허난
##put
##light
##OO
##팔라
##전도
##집행
##집권
##출산
경기병
조선귀족
##icle
##omon
시스테인
철도청
##ily
후보지
기념품
조지타운
트리폴리
얼마간
##stra
현실주의
스티비
연료전지
532
방지법
파크스
조종석
685
632
Coll
파티션
아크릴
에버렛
##ropol
갈리시아
라그나
태백산
피지배
연금술사
아르테미스
경원선
노회찬
프로파일
번번히
미케네
뉴햄프셔
Cand
Eu
ESA
JK
LT
Mom
Rel
jp
life
prim
term
감싼
계류
군민
굴하
김근
꽃피
녹조류
도토리
동고
될까
든든
란츠
러드
리유
명산
무니
바칠
번스
범고래
벨러
빌트
사파리
양곤
온다는
우바
유요
육교
음서
음독
인본주의
장흥군
정숙
졸로
증득
지군
초명
패튼
평성
한용
홍경
화정
화목
##치쿠
##파뉴
##한기
##마라
##토무
##네스트
##켄트
##탈리아
##mund
사업단
프리부르
이동휘
태양질량
354
요시무네
무기력
Think
대장장이
Lew
파라다이스
거듭났
SSD
this
##ugg
Add
1395
역전패
주재소
1475
유가증권
아데닌
소중히
하모니카
청송군
Federation
삼부작
미끄러지
양이온
근현대
양준혁
야고보
전립선
BF
Bol
Camb
Ess
Fac
JAP
MID
Pink
Tal
Wo
dom
good
가덕
간기
건원
겸용
고초
김미
낙천
남다른
넘나드
다년
대야
대초
돌릴
따와
무더기
배고
보즈
복병
불모
불온
비탄
사들이
서수
서성
손흥
수부
싸인
안남
열사
예주
오작
와그너
원피스
위례
윈체스터
장중
정후
정쟁
진골
차도
체벌
카비
토에이
팬더
풍족
프랫
흡기
##sung
##드려
##사드
##사토
##파티아
##세프
##가우
##새우
##예비치
##분자
여성부
확장자
Stop
하이킹
북한산
조성민
다카토
376
429
Reb
##rane
##avir
물러날
히데아키
합쳐졌
742
가마터
알프레도
지부티
##마이야
모집단
1444
아세톤
IPv
Eliz
1380
청원서
Asian
고령군
비주류
요양원
아세틸콜린
타밀어
Advent
테살리아
기네스북
Years
Andrew
알렉시오스
김부식
드와이트
류성룡
##통치령
자이나교
HU
KG
Morning
TM
VII
간식
결재
경술
계로
고균
관선
금자
나진
나투스
냉담
노상
능했
다층
단세포
대련
동판
링가
마호
몬순
문전
민경
부비
분봉
분점
뷔르템베르크
빌더
사에
선위
승기
시물
신스
심오
애제
언양
연제
연휴
윤일
일월
자의식
장과
적벽
조양
종명
종지부
지갑
참작
초프
초성
치타스
콜먼
패티
포춘
합참
호에이
##iac
##타루
##에서
##시비르스크
##게티
##헌스
##평장사
##isch
타이머
브라티
##acty
과거사
선택지
대사전
제조법
고속화
367
카르멘
소식통
인종주의
하위헌스
기울어진
##lymp
925
내셔널스
극단주의
1663
1532
안토니우
1557
모험가
organ
DSP
열대성
치명상
CCD
관세음
싸워야
노보시비르스크
가오루
무정부주의
여대생
안식일
카라코룸
가급적
Dia
Fu
IX
Por
SHO
Was
가주
공교육
깃대
깨뜨리
남발
남획
느진다
단교
대추
던진다
동음
듀공
랑스
매그
모술
모략
사량
소소
쇼치쿠
스탁
시군
식자
신태
심기
암울
어시
에로스
우어
은어
이불
일군
입조
잡아들
주디
직설
크나
키어
탈세
팔찌
햄스터
호세이
홍범
화관
회양
후렴
후아나
##오티아
##kins
##장수
##22
##도프
##푸드
##첸차
##리아노
들어야
2300
보이오티아
레이나
연결선
마지못
##ading
크로이츠
##베르펜
391
398
남동구
선보인다
폴리머
흘러내리
711
피터스
1396
ang
클리닉
벼슬길
놓여져
광산구
쿠르스크
이정희
클린스만
arch
의뢰인
냉각재
의자왕
실재론
코코아
아나톨리
ESPN
우월주의
매리너
앞세운
줄리아노
안드로메다자리
폴라리스
Symph
아랑전설
안트베르펜
세바스찬
Lonely
청백리
직간접
BT
Bird
Tell
YTN
ke
감바
강건
국산화
금서
긴자
누계
돌봄
동재
두세
모디
몸싸움
미라이
범선
불면증
뷰트
비이
서늘
소고기
손아
송전
아성
아틸라
앉혔
암산
양무
억누르
오르트
옥살
옥천군
외투
유제
유곽
이럴
작문
장호
조도
조처
지즈
착좌
창녀
총동맹
총면적
코더
특출
파종
포라
피험자
학동
헨델
혁파
홀트
후커
##vate
##rent
##bol
##mit
##타노
##night
##gal
##루즈
##작센
##클레이
##총사
##계영
##돌라
##돌고래
##급시
##레이저
산업체
공사비
스포글리
입장료
바르디
지명도
사진기
둘러보
세이코
412
조합장
넘어오
사자상
창작물
미야자와
노리쇠
티베트어
1719
1452
1554
광역권
##yll
1356
인형극
부도덕
전자기학
이고르
태백시
PAOK
Prem
찌르레기
경화증
야만인
나바호
Labor
방조제
잔지바르
호중구
유피테르
Ari
Dir
Nord
Pep
Sla
his
wid
게을리
교무
교행
국서
궐기
나지
남중
노신
동무
동지사
로모
로번
록스
루퍼트
르투
머시아
몰다
박계
볼펜
불스
비범
사의
세레나
소묘
수초
슬릿
시약
신료
언쟁
엉망
에즈
영춘
유급
인드라
정가
주무
총학
취조
커먼
키토
통고
폐결핵
피나
피탈
항이
##wan
##wick
##rus
##ding
##PO
##물쇠
##도총
##게일
##마차
##엔트
##셰비치
##XT
##펄스
연구생
로마노
바이저
지지부진
주의력
361
슈퍼컴퓨터
아카기
불러서
인디아
아우토
스파다
아라고
브루어스
아사쿠사
ISU
동북아시아
1671
데려온
드리머
##anni
이수영
사로잡힌
##로디언
PDA
True
##스토세
센서스
##부인과
프레스턴
낭만파
플라이스토세
팔라우
리보스
농림부
정성공
증폭기
Prim
화엄종
봉화군
반달족
수마트라섬
Double
금천구
히다카
양천구
밀로셰비치
끈질기
우레탄
구이저우성
크리스티아누
별동대
BK
Cab
Ky
Vinc
감량
개연
경동
고니
고궁
구찌
극명
끝자락
남파
늦춰
단색
도리스
민시
밍크
삭발
속리
손병희
수림
악티늄
안네
암자
야요
에조
외숙
외침
운트
위건
음높이
자하
장합
장년
정이
제문
증자
창춘
책무
천석
캐니언
키네
타츠
파쿠
파평
행인
허수
현손
활강
황새
##do
##상훈
##덕사
##부수
##지엄
##워져
##발루
##독일
대회전
국민주의
마이어스
공동묘지
##raw
선언서
올리비에
단위계
비밀리에
##스티니
##illus
1508
전용기
내리막
파라미터
보스토크
니시오
718
Energy
놀이터
최상급
실용주의
분광학
##isease
전자기장
##lication
외관상
conc
태백산맥
절제술
아메데오
심포지엄
영미법
승하차
브리스톨
Democ
트러블
지날수록
칸타타
Economic
저당권
영창대군
연개소문
오무타
방응모
에우제니오
AAC
Bour
Lind
Pers
TI
가증
가가와현
구들
군상
귀금속
김사
네기
다재
도포
두족
등식
떠이
로케
마중
명도
묘청
물레
바랑
보태
분관
불씨
사국
삼단
서평
석류
세페
식성
실권자
아리오
연석
엽서
영빈
오모리
완파
외대
원역
유조선
장종
저수
점자
제라르
주노
주점
주코프
준거
진승
진가
짜증
총서기
춘원
카디스
칼케
판윤
화두
후연
히드라
##루가
##수용
##남북
##실기
##HI
##디스크
##연수
세계무역
다가올
하이츠
지명타자
그린우드
진화론
423
Bey
relation
Prote
882
888
인도네시아어
장수군
815
인원수
1736
평행선
날아오
수확량
##board
배기가스
으리라고
AESA
사교계
매스컴
기공식
커리럼
양원제
디아스포라
모닝구
다뉴브강
Jacob
파헤치
Ghost
Organization
니더작센
하이드록시기
##ependent
베르톨트
크나큰
칼케돈
Culture
Giov
Jay
NY
Olymp
bi
강북
고변
곡성군
극회
글라이더
기탁
김개
난투
누아르
덕택
돈독
돈바스
동제
라로
랜돌프
루미
마진
마재
밀렵
바닐라
바너드
벌어질
베사
빗장
상완
색칠
서운
서슴
셔서
수경
순시
스구
실레
어난다
없앨
연다
열량
염불
오데
우장
이감
자아내
지독
채울
카리아
켈라
코헨
클링
킹덤
투치
하오
학병
허덕
형수
혜화
화천
##met
##제동
##보그
##xi
##츠카
##비데오
##GL
##자야
##즈베리
##어쓰기
##그리트
##시아스
중앙집권
Theod
나이프
반응물
이라든가
내려서
마르그리트
오른편
찾아낸
전환기
판단력
347
마사지
##elly
##ranch
433
후지모토
심리치료
그라우
그라프
Teen
Carol
중종반정
국기원
1443
몬테비데오
정류소
전지훈련
로빈스
조르조
퇴적암
##ultural
클라이드
##축구연맹
Berlin
머스탱
리비우
드루이드
공소시효
타타르족
파고들
레반테
탄원서
츠카사
제각각
school
노섬브리아
서광범
단막극
##cidura
급상승
Ki
KK
Nob
WBC
first
강산
경정
고현
나코
노멀
대산
더리
라일리
맥동
문동
문해
문턱
삼프
선점
설도
승합
시소
식판
실어
심원
싱하
안영
안드라
여담
여력
역류
연초
영명
오광
옥새
왕태자
워릭
원명
유월
이낙
제라
척후
철십자
크레스
편협
폭언
표도르
헤게
헤일리
현전
홍종
##rit
##can
##드릭
##라야
##도리아
##83
##레온
##카도
##싸이
##공학
##들린
##갈로
##롤드
##교사
##직물
##녕대군
결정지
아르곤
기념탑
##otte
##ays
대륙회의
454
아키야마
덴마크어
##ifer
스피리
고유어
콘스탄츠
Beach
신청자
Process
USL
스토리보드
936
Where
945
경유지
1474
015
1377
1370
침체기
예고편
철폐령
로키츠
신봉자
트란스
박진영
명왕성
멜라닌
나날이
최용건
Library
보천보
네안데르탈인
ASCII
효령대군
IDOLM
손흥민
아우토반
삼프도리아
BEST
Dip
Made
Number
Pub
part
게르트
고미
근력
까진
당무
똑바로
레옹
메구미
모항
밴더
베나
별관
빨려
석벽
송림
수몰
순이익
쓰쓰
앞날
애원
엄하
옥외
용질
우제
인단
자물쇠
직격
척화
체니
초동
친아버지
켄지
큐어
클수록
키퍼
통념
파상
편익
##ove
##cular
##파람
##프스키
##색체
##키타
##카노
##전함
##월일
##멜로
##reen
레이아
프리스트
요구르트
##로스톤
피해액
교통카드
603
Chin
369
371
가스펠
제어기
Shad
##ika
비상시
느냐며
소방대
티베트족
1464
복제품
1414
함유량
1241
Magazine
리모컨
제물포
지쿠호
마키노
Transport
불변량
전산망
수목원
불복종
맹렬히
몬태나주
레베카
흥덕구
불거졌
불공정
FPS
IK
Method
SAM
Ve
XL
mil
간에이
건대
과로
교상
군포시
권수
그레이드
낸다는
뇌터
는커녕
다부
동중국해
딜리
랜더스
마기
모트
몽둥이
문사
문필
미궁
베즈
사만
서용
성협
숙이
스지
슬프
아두
아란
알갱이
어레이
여산
열녀
오야
왕윤
요점
웨이드
의친왕
전유
정훈
찰스턴
측지
치적
컨템
팔달
하데스
한조
헤미
환불
황우
히혼
히토시
##bye
##바토
##라크
##임금
##섹스
##전트
##친구
##어파
##염색체
##좌파
사회봉사
과학사
Chic
유로존
348
Alice
해방군
373
소장본
Anne
넘어갈
오토마타
태국어
브루투스
886
스토커
페이팔
카라바흐
Parad
Environment
동서남북
센트랄
1695
사직서
몰리에르
필터링
핸드폰
피로인산
림프절
내무성
Freedom
브렌트
소도시
끌어올렸
게일어
Living
홍무제
사세보
가용성
Antonio
Railway
박규수
글루탐산
JAPAN
Diam
EE
ka
link
가히
곤궁
국비
권제
금박
김집
김건
넥타이
누대
데스티니
덴노지
마코
마하라
맡긴
발코니
방책
부고
부티
부종
석신산
성진
수순
시효
심대
심박
에베르
역기
외설
우라노스
원양
줄줄
즐긴다
지론
지탄
총량
쿠에
풍수지
하달
호안
혼계영
화주
황선
히터
##bow
##울제
##uation
##날도
##시강원
##무공
##페스
##fore
##DB
##배기
##나타
##월동
##플라이
##슈코
기준점
##atre
로마법
기관장
내려간
가정부
하이네
456
크로네
고전기
헝가리어
온도계
수입원
가스통
428
397
589
그레코
사마귀
야스다
이마이
구사론
ACL
사관생
1447
사이클링
남인도
사리탑
카트라이더
히라가나
광둥어
Stars
올리브유
Studies
프루스트
러닝메이트
인신매매
object
쓰쿠바
어째서
야요이
##수용소
풍수지리
ETF
Kin
Vision
mer
pi
객석
계원
고랑
글귀
기립
기축
긴축
남향
너트
담아
동란
록키
룬트
르니
립스
면사무소
모가
문루
미확
배꼽
베커
보에몽
비수
빨아들
뽑아
산부인과
속구
순직
슬림
쌍발
쓰치
야우
양치기
역정
오심
옷차림
우찬성
윤임
응수
저층
정씨
조일
존칭
종수
챔버
철사
초목
추문
통속
트뤼
티레
패시
평장사
피파
피커
필선
학번
항주
회도
##pi
##바스티안
##의동
##zz
##키우
##노소
##케이크
##할아버지
올림푸스
##roid
자치제
##oche
607
##eme
362
366
옮겨서
신호기
아키하
잡지사
##베르투
게이힌
553
465
992
586
자이르
612
멀리서
See
대지주
therapy
주석서
검색어
상속권
도미니크
트랜스퍼
상소문
1488
전두엽
타카시
카타리나
Steve
김수항
Canada
두꺼비
나노미터
케이프타운
정주영
Simp
Crocidura
아흐메드
문경시
흉내내
도량형
장타율
Garden
최규하
헬베티아
송곳니
에머슨
##리처상
아길레라
코오롱
Age
Esp
Esc
Kle
Rand
TL
TOUR
Wat
nh
구게
난무
놓친
달서구
답답
동승
뒤처
마부
마전
마빈
미조
미림
박카스
부렸
선입
수탁
앙심
에세
에요
우베
윤동
일인산
제빵
차크
체어
콜렉션
키레
투약
평강
피티
피곤
호라이
홀슈타인
홍순
##wig
##view
##bl
##atis
##GP
##모아
##천왕
##운사
프로코
따라다니
다가와
아이리스
선거일
건설업
노래방
아르투
##active
소비세
FIBA
601
병원균
아키히토
인상주의
994
정해진다
사마리아
골드윈
발렌티
1691
1485
가쓰야
1274
피스톨
풍경화
고치현
동래구
다름슈타트
시가전
송신기
카니예
가타리나
지쿠고
니키타
Dreams
열렬히
부추기
상한선
명부전
튀어나와
지치부
휘트먼
집적회로
티타늄
에베레스트
본위제
오위도총
기흥구
헤게모니
오위도총부
Soc
cat
home
language
var
갑사
강병
경운
계회
골란
광신
구포
국상
권문
난보쿠
냉혹
도비
도롱
라멘
리플
마이스터
매긴
모텔
몽트
무디
묵주
밀린
반찬
발랑
벼랑
변색
보람
부끄럽
불국사
삼총사
서포
서피스
설악산
신항
어영
에데사
영부인
우마이야
이난
임제
임경
지조
지열
직분
초엽
컬처
타크
특구
페노
한남
형부
호반
화천군
후소
##mes
##ault
##수나
##에로
##jo
##파시아
##개구리
##세나
##쓰카
##렉틱
프로스트
사이보그
2400
##etta
Stage
무기고
801
387
오사수나
##스카야
고유종
기도문
713
조카딸
1401
Columb
클로제
이마트
1399
브로크
##데이라
싸웠으며
붙잡히
산타페
1431
긴급조치
소지자
##gramm
eng
추출물
베스파시아
conf
통역관
항우울제
브랜디
로드리고
구부러진
무정부주의자
심플렉틱
춘향전
괴로워
Friends
Deutsch
hyper
에라스무스
포물선
적개심
채프먼
골동품
마지못해
몰다비아
마재윤
베스파시아누스
BW
Dal
Dur
Hab
NTV
SJ
hist
sw
가해졌
고료
기의
단치히
렉터
로데
마투
망간
모로나
미영
벌칙
부주
선문
소심
시미
시아버지
신야
악인
야포
어민
엘사
와일
외식
인다
일출
일람
자해
재소
적이
적장
제해
조디
주서
줄루
콘웨이
태인
페렌츠
함풍
해로
허시
휘파람
##bach
##crip
##lia
##루초
##무레
##VM
##국수
##쿠지
##행정
##요르
##헤임
아니다
##change
레이서
내려다보
Change
은행장
수입국
카르티에
카메론
포로수용소
아라파
화물차
순서수
다스린
사마천
마법소녀
676
다케시타
875
세자시강원
야스쿠니
다다랐
하사관
produc
1490
1692
알바니아인
STAR
##ground
유언비어
공모자
신민회
아브루초
어사대부
트로츠키주의
계룡산
Crazy
크라스노
재조명
타슈켄트
타히티
접두어
DOC
Fight
Jam
mA
갈기
거만
견문
결가부
고별
과수
대천
란타
러프
렉서스
로엔
루틴
마키아
만부
무혈
미행성
바텐
박형
벌채
법명
변전
복복
본서
본전
분추
뷰어
빈티지
산서
샘물
소강
수속
신법
신무
야금
역삼
오색
오갔
이냐
일몰
자인
지공
직인
총궐
최유
타니아
테리어
테티스
토폴
편액
피피
허비
헤타페
호킹
##ui
##트반
##PER
##fl
##케르크
마이티
건축사
해군력
##ogue
야마시로
##토리현
344
마사오
554
479
스피처
포도상
다스릴
스프레이
클레망
니시모토
877
Color
1539
1716
1454
레지오
Brit
하버드대
##OCK
이슈트반
드림스
하락세
루시엔
대피선
하르키우
쳐들어와
올림피아드
카카오톡
Earl
서바이버
##연구원
브리스틀
ONE
진통제
micro
Galaxy
지롱드
Heinrich
시모쓰케
Elizabeth
결가부좌
총궐기
Ce
ISA
MRI
den
ray
게릭
공창
곽사
구천
군경
권근
낙오
내항
누어
덮쳐
동베를린
로물
루베
르비
리수
번졌
복통
본상
부강
분큐
비만
선각
설욕
섬모
쇼텐
슈토
시루
에딩턴
영점
예법
왕기
용성
위연
위너
자지
장윤
전고
정민
정회원
참소
케른
투석
티칼
퍼싱
편한
포박
피네
한약
할라
해머스
험난
헤시오
호킨스
회칙
흔드
##worth
##kel
##루야
##바토르
##비행사
##다능
##복야
##종이
##랑드
##워졌
##교섭
##분계선
##alo
아이린
중앙동
##oly
##ilis
군사분계선
##tegr
##otus
고대사
Cham
통일성
702
364
##ards
장기수
마사아키
오브라이언
플로레스
1507
창조주
Arg
529
인공어
star
Sher
585
681
855
927
1458
콜로세움
로렌츠
요금제
대원수
1476
Order
우르비노
허리띠
산림청
##무스메
미라클
카우보이
카사바
head
잇따른
송신소
모라바
이언적
수하물
약사여래
다자이
발자크
Samsung
논설위원
주치의
무방비
장항선
홍명희
모레노
Return
Court
슬라이딩
워크스테이션
two
텔로미어
다재다능
모닝구무스메
해머스미스
AJ
Ble
Cath
Fem
Food
Had
Kir
MUS
nat
간석
개벽
괴상
근정
기나
나경원
네드
네코
노리스
담겼
데오
동심원
맥북
메테
무혐
밀사
박살
버르
병든
복강
볼모
부견
비밥
스강
시너지
식전
신서
아함
연가
열화
오손
옥신
우거
원두
중전
축퇴
크시
크류
크랜
타비
토하
파비오
포로스
피안
핵자
헤어졌
홍색
흉상
##han
##상간
##베크
##금융
##지야
##피온
##여우
##은희
##디치
##inite
##olk
출전권
506
우주비행사
##acc
통합민주당
##odes
Chap
905
핀란드인
모리뉴
418
647
CDMA
예비대
667
미나스
수업료
1409
오카야
제이컵
1497
Universal
붙잡힌
자책골
플레잉
글루코
총사령부
Poli
CONME
잇따랐
푸에르토
김홍도
Brothers
구세계
원생생물
Doug
동두천시
리빙스턴
근친상간
임실군
스며들
블라인드
브라티슬라바
CONMEBOL
List
PO
Set
sel
sol
구배
그라이
급전
기나이
뉴델리
단오
담아내
답장
당간
당계
도광
도료
도너
드린
랜즈
맥시
명감
모테
목가
목련
배면
백정
성만
성한
섹슈
신망
쓰요시
엘바
오영
윤진
입영
자프
장상
조타
참상
청원군
카림
퇴로
파르크
푸리
품격
항균
해라
형국
흥남
##CS
##로이트
##르토
##호부
##다비
##강목
##DF
##는데
##풍군
##워커
##슬란트
##냐크
##tier
바이로이트
고등어
프리슬란트
브라보
504
408
##rian
요시미
로스차일드
803
태평기
올리고
수비진
마사카
Another
넘어온
바라프
494
대리점
하우스도르프
받아들여져
임대차
멀리뛰기
득표수
동북동
펼쳤으나
1698
교과목
1737
스카이워커
1270
차관보
드림캐스트
경보기
앵글리아
가까워졌
불꽃놀이
불행히
줄리언
정동영
박지성
가맹점
스트라빈스키
network
SBB
WKBL
스매시
커밍아웃
야마노테
용골자리
판테온
법흥왕
major
섹슈얼
050
Bund
Have
Lang
Tak
UA
UV
cognitive
serv
게인
국체
국교회
권태
김범
당론
대저
도드라
떨림
막혔
매회
무참
베이트
부곡
수종
수놓
신판
실레시
아깝
안코
야크
오순절
옥산
용대
율리아
음전하
이휘
인주
자당
장재
중매
찌그
촉수
최현
카모
통장
포옹
프펜
항력
현급시
홍문
##ben
##bal
##르디
##파티
##임당
##키오
##방위
##네리
##멤논
경기자
사이언
##cho
507
세포이
기타노
동물학
가정폭력
조각품
작성자
강의실
Any
643
552
대수도
535
492
이뤄냈
사냥감
845
1407
신사임당
놀라움
중계소
계단식
노조미
아가멤논
Allen
SMS
카우나스
김상헌
오오쿠
경시제
##ymn
닫힌집합
정인지
국수전
키르히
Southern
Area
티모시
Brian
영덕군
쓸모없
색슨족
고주파
군용기
스바루
반비례
Moh
fre
war
가등기
건무
겁니다
경각
기암
깨어난
논밭
능한
다그
당혹
도평
들린다
라곤
레조
로하스
루덴
르누
멈춘
면한
몰라도
몽펠
무결
문책
민화
발육
번의
번져
복호
복주
부업
분카
산토스
상신
숙영
스니
슬래시
신계
아롱
안두
알케인
엔카
엘레아
여하
연보
요는
용혈
우경
원기
은빛
절묘
조판
조재
조인트
좌지우
증편
진저
케일리
태릉
톰프슨
통통
포포
풍만
헤라트
##wang
##her
##일동
##에시
##아르트
##화과
##현리
##어크
##창동
##버스터
##급식
##급히
##앙스
##붙였
##때기
##aro
지도층
503
보내왔
내려간다
해군사관학교
외교통
대륙붕
453
481
모리타
넘어간다
443
헤이우드
528
대리청정
887
엑스맨
이시하라
commun
지중해성
1479
1445
##ophil
##ICE
메디나
떨어뜨렸
떨어뜨려
SPD
Harry
배구단
무상급식
Smile
최강전
GSM
아데나
RPM
Prize
샤이니
코모로
쿠르드족
어지러
WCW
Snow
헤엄치
나니와
머릿돌
보은군
하네다
리구리아
뿔뿔이
두족류
란타넘
좌지우지
AO
Et
Five
Gone
Kid
Lock
Mount
OFC
aw
간세이
군포
귀엽
낙방
남장
다구
단두
마데이라
말벌
망누스
몰트
무코
미해
밀고
밀매
방류
배너
보례
부황
산분
살바도르
서측
선미
설령
손익
송유
수취
수건
아일리
압구
애쓰
외로운
원색
유노
일변
제구
죽산
죽림
준준
착시
충혜
팽배
페이트
하울
하가
학산
함몰
햄프
황건적
후당
##로즈
##보네
##here
##금지
##치우
##산소
##지구
##레른
##처제
##효과
##완전
##샤드
는다며
##ami
604
가톨릭교도
식물체
발사관
국경일
양성애자
인상파
754
495
626
727
926
늘어선
##ugar
크로스비
Cold
덧붙이
우크라이나어
경사진
1499
파울루
점성학
1733
1734
##ched
그루지야
개화기
height
차용어
기성회
Knight
모빌리티
Holly
카운트다운
DMZ
나빠졌
성가대
베르나르도
진원지
에볼루션
후쿠이현
이심률
나한상
향로석
호엔레른
memory
Department
Route
우부승지
펜타곤
제석천
피침형
나로호
복복선
준준결승
충혜왕
Fren
Ia
Pseud
UDP
강둑
개진
경축
계부
공가
구류
구혼
나발
노구치
녹봉
대물
두광
디킨슨
때린
리리
리슐리
무치
바운
방기
벼룩
생합성
샤아
서학
선다
섭식
성리
성미
아멘
액트
앤티
얻어
예복
유허
의천
인라인
일병
장춘
전일
정남
정양
제니스
중역
진균
착색
치어리
텔라
페타
한왕
호비
훈령
##over
##스베르크
##RAM
##시나
##시앵
##자살
##모나
##모더니즘
##토나
##토가
##출혈
그리고리
일반직
독립영화
돌아다녔
행정청
##osc
전자파
내려져
가르드
요리법
여행사
내각부
##iper
Ref
브레즈
스마일
흘러나
864
원형질
##ovir
포스트모더니즘
알프레트
1010
Cool
오가타
##MAX
ACT
AMP
1425
트루아
##그로브
techn
온난화
아이언맨
KDE
유람선
Francisco
불연속
##elligence
Medicine
메흐메트
스폴레토
width
몽펠리에
리슐리외
Gord
Gene
KGB
Nu
Nothing
Pack
il
가넷
경외
고를
곤잘
논점
둥그
든가
리알
막차
무협
박선
박멸
백수
부귀
불완전
아모리
아스키
아페르
암브로
양전
연발
울란
윤허
잠적
종북
종아리
진앙
치크
친지
캄파
커닝
테이스
튀니스
트이
티보
파형
합숙
허공
현진
횡성군
##ook
##이인
##이아
##uer
##그루
##먼지
##류왕
##교차
##슈테
##캐넌
민주진보당
물질대사
애니멀
마르첼로
##ules
이스즈
##utes
히로키
크로퍼드
수입품
Thin
상품명
절대주의
울산시
빠져들
슬로프
에어쇼
496
889
마이클스
자국민
825
Ent
광복절
시마바라
바둑왕
김성일
대동법
카시우스
고래자리
이원화
페르디카스
Agency
음료수
베네딕도
차르국
SAO
산호세
러스킨
IATA
라그나르
보름스
미성숙
Holy
아지트
패스트푸드
전조등
콜드플레이
트리스탄
유시민
아나스타시
아탈란
Stephen
아이오와주
Danger
Fear
IW
KBL
Mini
Otto
TN
pot
간대
건장
경극
고프
괴짜
글린
낮출
능지
댄싱
덴표
도축
라일
래스터
마토
매미
무섭
미마
미각
박테리오
방심
보원
부용
부려
산역
색감
세척
소야
소견
쇼지
수임
슬링
심미
아라스
악센트
압제
양귀비
에레이션
연타
옥구
완두
우토
인건
입궐
정례
진명
척박
쿄코
탈레스
탐탁
탕평
편미분
푸딩
학통
호선
후리
힐리
##ru
##rig
##관부
##소설
##청색
##벡스
##가로
##심사
##발전
##셰스쿠
##렐루야
##샤인
##inson
중심인물
게임큐브
우승지
다이얼
다이에이
자료실
##ried
##opus
하이패스
베트남인
지대석
452
베네토
422
만주어
##sey
Unit
포도밭
저작권법
627
누르스름
면역학
아리엘
##ERT
Why
1465
1461
가쓰요리
중재자
가라테
트레버
하트퍼드
사바스
Abd
경보병
되돌아오
가져다주
##tific
제르맹
엄지손가락
학도병
타키투스
Concert
Empire
차우셰스쿠
더듬이
참새목
general
수크로스
한용운
관세음보살
프로코피
Author
Det
KE
각부
간도
갱단
곧잘
관도
국빈
급락
끊어졌
나데
남제
내직
농서
대자
데몬
동수
레러
마번
말치
매해
맹장
명석
모진
목자
법부
베푸
봉송
부투
비위
서터
서두르
석면
성표
성읍
세팅
속아
수채
승병
시론
시탄
심수
심심
쓰가루
아몬
어소
엄연히
우계
원탁
위어
을로
의빈
이키
잠잠
적격
전할
조윤
좁혀
주피
주직
착의
충효
코볼
쾌감
쿠치
터로
판임관
펴내
하크
##타이어
##수도
##호스
##물관
##비체
##MM
##실라
##투수
##모로
##래도
##홀츠
##튀르크
1050
##ising
2700
높이뛰기
##ecu
신문왕
세워서
인천부
특수전
가로지
478
불렸으나
663
576
김정호
사마염
768
1706
915
개척민
마주쳤
다다미
토벌군
1477
Edge
1434
수평선
구마노
막내딸
##리에이션
이인제
이브닝
에밀리오
분수령
##bury
카세르타
아쉬운
푸아티에
##omatic
강습소
레크리에이션
총영사
김도연
북북동
송병구
based
Major
열병식
격납고
파킨슨병
덕흥대원군
BY
Bap
Das
Eth
Give
Sie
XI
갱스터
구불
극지방
기색
끌리
나부
나아지
농학
뉴어크
당악
리교
리벤
마셔
마푸
맞설
매키
메오
무토
미크
미유키
병동
부건
뿌렸
산봉
선불
선곡
식객
안부
압델
어치
에틸
에펠
연옥
열의
영자
영단
용강
운산
재령
적의
정견
존왕
지포스
친가
코번
키카
틱톡
파내
페기
피니
하안
호서
호법
효공
##iot
##san
##bar
##타네
##장소
##Sc
##라시
##라지
##소토
##14
##감사
##노트
##불사
##경비
##경부
##복스
##네이션
##던지
##꺼풀
사이판
시스코
스타크
##eting
##iden
세포내
부산진
결승선
선발대
마르카
마르케
전라선
아무개
오사마
항상성
보급로
로드스터
수원지
다스려
브레드
##ffic
##mance
983
1405
838
도미노
크레용
IPTV
와카마쓰
##cheon
가즈오
##under
트래비스
Saf
GSL
유진산
세네카
스태튼
모터스포츠
Frances
대덕구
유관순
프로파간다
스나이더
##니히스베르크
오호츠크
대방광
Country
법치주의
공청회
대운하
gecko
세페이드
Chicago
기나긴
존왕양이
BI
Beck
EFL
Hipp
Ok
SAT
Wanna
Yellow
Zh
af
감람
강재
검은
고참
곡성
골조
곽재
교활
구민
남곤
내피
내레이션
논법
논술
닝보
당숙
도검
도팽
도밍고
린킨
마쉬
망원
머문
물범
미불
벼락
부쳤
비에
빠뜨리
사브
생드니
성의
소친구
수물
숙원
숙모
쉬프
심이
아제
아른
아조
압하스
오월
외방
요제
윌버
재목
제다이
조신
종탑
진선
차크라
초서
초도
캐러
콘라드
쿠보
타동사
토어
티온
패왕
포린
풍덕
헤세
황야
휴머니즘
##장교
##세균
##YO
##72
##TT
##주쿠
##김없이
##런타인
##쓸려
연합뉴스
최대치
작업실
설명서
회의주의
포르모
머리뼈
민주주의자
파이팅
주의보
##stand
382
389
계기판
458
은하핵
379
스티나
회전수
공유지
한계선
869
입법권
923
동명이인
1511
골드만
알레한
남녀노소
시모어
파울루스
1417
Ital
마스다
1280
전도성
##ESS
첨가물
이이첨
1185
1180
소매상
아랫면
암흑기
서초동
진료소
상고심
##RTI
헬레네
카즈야
Kingdom
슈타이너
대주자
관상동맥
Winter
솔라리스
로디지아
리바이벌
사파비
구어체
심소법
유승민
이발사
유색인
나츠미
오코너
최루탄
jpg
로물루스
HN
Mix
Ori
Pas
RGB
mol
pa
path
play
under
가소
가림
가필드
게레로
계피
고린
공터
관구장
구설
극화
기누
늑골
니이
대분
독약
드나
들렀
마즈
마룬
말경
맨션
명량
묘표
병환
부영
부커
붕소
빗살
사창
성혈
약진
양로
에티엔
여졌
여몽
여군
열에너지
윤원
이섬
이릉
이튼
임씨
장양
정삼각형
조흥
종조
처할
천계
청부
총참모
최병
캐딜
타노
테제
토니아
통괄
툰드라
페페
표층
풍차
피란
호빗
홍예
회보
흘린
##otis
##보감
##OH
##옥사
##티푸스
##물산
##산도
##국가
##골격
##커리
##델발트
##조어
##너구리
##arn
다가왔
중심축
서로소
도로공사
부산대
태양열
Chang
그린델발트
베네치
공업화
후지이
527
스토니
717
창작자
동양인
추기경단
부서진
1393
간다고
##ething
아베노
장성택
투르크멘
문예지
아타튀르크
테레즈
아치형
양육자
##resh
England
시크교
블로거
코사크
게오르그
지크프리트
타블로이드
흥국생명
두들겨
분청사기
면죄부
Christopher
루덴도르프
미해결
인건비
총참모장
캐딜락
Body
Eye
GTP
Io
MAN
Nick
NET
bel
ball
field
경차
괴리
권법
권말
귀하
극렬
김양
김흥
꺼지
남남
노턴
논고
대서
데커
데런
등애
떨쳐
레소토
로튼
마들
명함
명반
무에
바소
바부
바꿈
박신
버스트
비속
사그라
상리
서생
성정
세크
센추리
수궁
숨긴
시당
악극
양곡
여리
영호
예브
오치아
웹진
위버
음량
일수
재청
주철
줄임
직립
직항
천경
청력
체직
칸막이
케일
켄드릭
코랄
틈틈
폭약
피스트
하딩
함평군
향락
헤카
현의
##로신
##인사
##루시
##장난
##내린
##피나
##주린
##브룩
##속도
한국과학
영화인
조선사
이상주의
문화관광
##lement
##asure
행정가
우주인
##ido
##ece
##cept
베르누이
철학사
공작위
트리엔트
901
아카마쓰
다카야마
419
클래시
522
651
지급시
684
호주제
Seven
돌아왔으며
ATM
고위층
소방차
##BMS
1459
브로이
미스테리
납치범
샤를로
Laur
1731
1484
쿠르베
1430
석탄기
드래곤스
카시야스
팔라비
칼라일
Flow
Plus
반기문
Metal
Rhin
으리라는
니켈로디언
소작인
MAX
LSD
에두아르트
김두봉
나탈리
벌어들였
조력자
카렐리야
굳건히
내선일체
세드나
스필버그
항등원
로메로
불가지론자
Orchestra
아키하바라
오치아이
문화관광부
LAN
Mike
PAL
VIA
fer
nig
경식
경왕
군항
근섬유
기가
기항
동우회
마릴
마티스
메세
메데
모굴
물라
벌링턴
봉납
뷰캐넌
비워
뿌린
삼투
상추
소운
술회
아관
아발
아멜
안목
양단
양턱
어수선
에리카
엔랴쿠
오푸스
우윤
웃도
원진
유작
이운
제러미
존치
주중
증정
창백
척결
청결
카날
커녕
콩코드
패니
하미
함석
했어도
호상
효장
##pr
##오동
##스톱
##PL
##아진
##선동
##세즈
##노우치
##어쓰
##와나
##립자
##립니다
##브러
그러니까
##enberg
행정원
레이티
##rot
이동욱
기념행사
머리털
투표수
요시테루
바르바
457
유니콘
전반부
비밀경찰
374
Things
카르나
641
524
아라비
Spring
628
나타난다는
아티스
인쇄소
762
675
도요하시
1514
글리세르
행렬식
레지스트리
Suica
1410
1449
나이트클럽
부호군
플레브스
Action
##ONG
지침서
고트프리트
프란체스카
LCK
리히터
영산강
저해제
소아과
FreeBSD
산수화
##formance
기혼자
스커드
군법회의
케미컬
스캐너
상좌부
GHQ
칼데론
선관위
선착장
윤두수
섬진강
노략질
모로나오
브레즈네프
틈틈이
글리세르알데하이드
CAD
Gam
Hur
Math
Pon
ta
top
가연
간레이
강단
걸출
견갑
경륜
계양구
골리
길상
내준
니오
더치
드뷔
딸려
떠다니
린지
멕스
명판
몽환
묶이
문병
미행
반제국
발키리
보니
빨래
샤넬
서빙
셰일
숭례문
심히
알력
앙고
어버
우린
움베르토
율리아누스
음형
일과
임천
자미
잠긴
장린
창왕
천룡
체자
출감
친아들
캐노
캐롤라이나
키사
타드
페테르부르크
프랙
픽스
후치
##lich
##타오
##파지
##즈브러
##마이트
##KE
##충사
##텍스트
##올랐
##팅스
##스트처치
##eless
##lem
국민정신
교회당
지지층
다이토
대사마
Cher
358
아무래도
복귀전
야마하
올리비아
341
Alive
다카히로
426
393
카르노
이성애자
536
565
한계점
715
NAS
산화수
아웃사이
Tex
아틀란
알레고리
남겨졌
동화사
운반체
1693
1481
중도좌파
##ancer
그렸으며
아부다비
연평도
미들즈브러
골격근
BSC
이태원
삼중주
크라이스트처치
프레데터
경인선
대종상
필하모니
에레라
서지학
고질라
Princip
국자감
Protocol
어차피
Tonight
Frederick
MIDI
아데나워
드뷔시
반제국주의
아웃사이더
GDI
Kids
Mes
NTS
Tab
fac
light
가타카
고강
고다르
구양
군권
궁성
그르
기왕
김중
내관
네르
노점
논스톱
농기구
다쳐
단고
데코
데파르
되새
라우스
뢰프
리브스
리브레
막연
미정
바순
복서
선스
속담
수뢰
스패
시레이터
신일
썼으나
알몸
영당
영통
예감
요산
원비
월산
적장자
절박
정봉
차범
출중
카빈
커미
쿨리
크랩
키비
터뜨려
통기
패잔
포레
푸저우
홍석
회덕
흐릿
##로비
##영동
##테라스
##fr
##게인
##데우스
##데부르크
##누크
##펠드
##eni
##ict
##omo
데이즈
##ente
베이브
Start
##ococ
가정제
요시유키
오래가
전시장
유니세프
블랙리스트
알아본
경주마
real
뿌리치
올려놓
635
599
인쇄술
바둑판
##awn
김대건
야스히로
790
마그데부르크
맞춰져
Brun
테오필
슬라보
1066
1328
Movement
스터링
면허증
파이어니어
text
모용수
IAEA
바트당
헤로인
패스트볼
Islands
깊숙히
해운대구
기악곡
TGV
이코노미
이구아나
이브라히
Voice
삼부회
홍명보
크리스트교
소가노
Ernst
엘렉트라
졸로투른
박테리오파지
Fern
Mol
NSA
Prom
cre
human
rem
sens
가학
각역
강상
강학
경춘
과오
교집합
나물
노주
느니
니버
다프
단검
덕목
레볼
로치
만요
매버
무타
미역
번이
벌린
범했
비프
비구니
사동
상심
수진
슈거
승급
신타로
심영
안공
양용
옌안
입힐
자를
좌전
짝별
차노
참살
체흐
출애
킬링
텔러
패총
평북
포비
포메라
항시
##stein
##PR
##거렸
##명령
##무후
##안경
##모델
##뉘엘
##예멘
##디노
##평야
##딜로
##lah
아니메
리그베다
라이카
타이시
국민대표
Theological
전자책
나가마사
내려온다
요시토모
다수파
기자단
우선권
436
마쓰시마
542
539
맞이해
613
평등주의
득표자
Maur
843
1406
1308
수호성인
Care
전염성
부호화
가쓰이에
1438
1382
1428
##ollow
총사퇴
서남아시아
상점가
아부쿠마
지녔으며
봉해져
천왕성
##기념일
불사조
관상용
석가모니불
베이비복스
남만주
야나가와
NADPH
측천무후
흥사단
단두대
어버이
포메라니아
Lil
가성
거트
겨누
격주
곡도
관능
국익
귀주
급파
기요시
나즈
나약
네타
노환
뉘앙스
다게
다얀
단주
데번
도국
돌프
동교동
디오스
때렸
류자
맹약
모더
사예
살필
숭덕
시현
식견
신공
신평
알루
애시
양견
여울
염수
염산
엽기
요의
운구
위증
입센
잇키
장산
장료
장검
조헌
주색
중이
지제
지킨다
차익
찰방
척식
쳐다보
최태
추숭
칠면
킴벌리
편재
헤리
홍사
##미안
##포러리
##날리
##폴라
##준경
##DD
##DOS
##재료
##토리오
##데프
##쓰키
##블랑
##잇감
일본사회당
1150
한국명
정치부
##heel
아이드
##isa
##char
수상기
##uring
부대장
상당구
성장세
이사오
3200
##agn
##uls
상징주의
삼성물산
카르파티아
저장고
운전실
후지오
마쓰우라
흡수선
주전자
545
디스커스
포트리스
615
575
579
밝혀졌으며
SSR
가공업
모토시
중기관총
가와구치
동해시
펼쳤으며
1696
##ungs
트레이딩
히스톤
1439
친정아버지
Truth
이리저리
space
매달리
수렴청정
김수환
수련자
화강석
오라토리오
Highway
이건희
베트콩
Capital
receptor
뒤덮여
Natural
Architect
하후연
유카탄
Planet
구보타
간절히
하랄드
킬리키아
아그리파
하이데거
김안로
다임러
퍼블리싱
Ladies
컨템포러리
ABA
Dick
Tog
rate
가잔
가오리
개보
계간
고출력
곱한
광안
괴산
구데
금문
금단
기했
노성
노즈
녹이
농공
누운
누룩
단구
달할
담그
도랑
도토
돌발
들통
라루스
로키스
마친다
메밀
메텔
미곡
박대
발롱
배편
볼란
빈발
사워
상여
샤리아
서연
선재
성회
쇠사슬
순자
술잔
신덕
알킬
연식
열후
용천
읍지
이채
일사
자색
제중
젠트리
조칙
종소
종지
중인
진귀
찌꺼
초시
축척
컴벌랜드
쿠스코
테타
퇴색
특채
파시아
폐합
포악
폰토스
풀린
핀인
해롤드
핵전쟁
호루스
혼천
황인
흉기
흑갈색
##rough
##bell
##동진
##옥시리
##우파
##아차
##구름
##TI
##노이
##버들
##탕카
##혀서
##훼손
##lac
연구비
##레이라
라이오
국민운동
회사원
선발투수
여겨진
##tha
부인회
공작물
연맹전
지진파
초대질량
에이리크
양자수
스케르
664
617
가담자
이시애
##ECT
크루프
매니토바
1441
010
1422
Trust
중도우파
게이트웨이
경부고속
파스텔
소매점
피츠제
제갈탄
상표명
쾌속선
Graph
대본영
김경수
원심력
아브라모비치
활기찬
거미줄
콘티넨탈
양구군
다이너마이트
Fantasy
진달래
최전방
Giovanni
발롱도르
찌꺼기
ASA
Bib
Dae
Tower
jo
que
건달
국법
급류
나성
니오스
단합
달한
대감
대곡
도솔
동법
동류
떠맡
레만
루프트
무해
문현
미온
바자
바리케
박막
부레
분향
붙들
비젠
사군
상락
상생
선속
선라이즈
숙식
식충
심폐
아첨
아티아
안변
알테
어메이
외향
우진
원복
의역
적중
전재
차자
찰소
충의
캐드
타란
타오르
탐독
프러
프럭
플랩
피상
피라
향할
현혹
호밀
혼선
효명
후고
##imus
##rh
##kt
##우기
##날린
##다카
##키트
##채플
##누리
##블랑카
##독성
2050
##orrow
그리워하
시대극
지구촌
브라더
다이카
다이버
##otal
스테롤
사령선
아마가사키
아마테라스
부정기
하루노부
Alan
다카모리
아키노
가스미
장식품
Reform
Anna
449
CDC
511
498
621
665
955
카라치
928
Room
화이트채플
천주교도
698
Administ
간섭계
들여왔
이오리
KTF
##AME
1483
1489
부자연
급행열차
끌어당기
냉각수
몰아낸
이인임
오노레
Davis
도우미
CMOS
타케시
스트로크
메카닉
드레싱
##대장경
알로사우루스
안시성
군사령부
아르마딜로
리부트
당진시
망설이
에니그마
떠오른
루벤스
슈마허
시스터즈
홍가권
십육국
칼리아리
도대체
이낙연
예브게니
스케르초
루프트한자
바리케이드
프럭토스
Ec
Fame
Hit
HTV
KH
Pay
Ric
SIG
down
ol
squ
강역
계사
궁리
긴박
네거
능격
대천사
데즈카
들린
등가
디우
로울
메티스
면할
명물
명당
밀봉
바탄
발도
방통
복심
부젠
뿌요
상성
소의
스목
시터
양잠
어르
오닌
옷깃
와키
웃돌
유경
은가
의한다
조목
초장
치경
켈로그
폐출
피선거
화나
휴업
히비
##로오스
##보호
##스컵
##사사
##청자
##공부
##마인
##엔스
##예산
##넌스
##콘서트
한다거나
로마누스
##uster
##rod
나이다
성장률
이해찬
국립대
오르가슴
챔피언스컵
아서스
368
903
안전성
단위체
태평양전쟁
명예훼손
##ticle
대기압
463
515
655
프라우
562
입법회
장수왕
597
712
안토노프
동방신기
이웃집
루마니아어
정수환
1451
이스트우드
시게노부
파울리스타
수지상
1739
직장인
1378
오타니
마산합
이화학당
동행자
미들급
고쿠진
Goodbye
대도시
친밀감
마모루
명중률
현수막
낙랑군
##ribution
찬드라타
음극선
엽록소
끈질긴
에그맨
양명학
산산조각
캐번디시
카브레라
Diamond
아라파트
르누아르
##ecutive
Cel
PDP
SAS
air
dig
zoom
강왕
고코
과외
굴레
금군
금빛
기정
난리
내한
넘길
노도
노농
니그로
닥친
동헌
들키
디옥시리
땅다람쥐
러버
묘갈
문산
방첩
부연
빗발
사택
살라미
삼한
상지
서봉
석공
손호
시금
심연
십계
억만
여아
연암
오환
온스
월미도
유문
은의
이갑
일임
절규
조잡
집성
청라
초저
초고속
큐티
탕롱
태만
트린
평남
피디
헤브
호산
환전
히라노
히에이
##bility
##mi
##만화
##거시
##해협
##성당
##민화
##절요
##ZA
##하수
##톨라
##망카
##할트
##덴티티
프랑세즈
사회생활
아이덴티티
구성주의
바이오스
레이커
변화구
프리먼
인지질
포르타
##ocus
##가리타
Thing
가로수
자금난
March
756
516
stand
549
기하급수
올려서
라이트닝
Youth
이시노
연락선
클로비스
로즈월
와카사
Franz
고사리
정찰대
중순양함
Perfect
후진국
림프종
우월성
신세계원숭이
Generation
거스르
사나운
티모르
우디네세
알마티
가전제품
까다롭
디펜스
구자라트
안데르센
슈뢰더
연체동물
군위군
데라우치
티그리스
삼색기
조폐국
채석장
유월절
French
이브라히모비치
피츠제럴드
디옥시리보
Arab
Dun
Fat
Gust
Kra
LU
au
have
spe
가말
갑술
강설
개복
거상
건져
견본
경배
고물
고막
궁인
기포
꽃자루
내열
내삼문
뉴브
닐센
두근
디테일
라몽
레밍
로군
마개
만스
만재
메서
무덕
문회
문안
베로니카
병마사
브린
브릭
산줄기
섬겨
순제
야학
야쓰
영친왕
오제
용소
유증
윤사
윤관
이임
일거
임야
임자
장티푸스
제록스
주원
즐비
직시
참치
창원군
천시
체면
추미
추행
캄피
타살
타깃
터브
튀기
판인
패리스
피서
해박
화답
후위
##bes
##cell
##오루
##미에시
##이식
##우펜
##시에
##덕동
##부카
##방진
##종합
##가짐
##적외선
##필름
##벌이
##점프
일본화물
경기만
##omic
타이핑
행정법
항공전
아르고
아르투르
예술단
올라타
로스토프
##thing
##uli
스웨덴인
일정량
##apon
902
히로오카
에이다
##esta
1502
649
434
447
523
##obacter
끝나갈
말레이인
577
흘러나오
황금색
Amb
의문점
농장주
마루야마
code
##ormal
재무장
도심지
1275
조용필
가르쳤으며
이원익
드라라
대관령
수인선
Hearts
뛰어났으며
우치다
갈아입
빈민가
벌어들인
자폐증
개회식
카오루
요세푸스
검문소
사마르칸트
대내외
코메디
피조물
웨스트버지니아주
상량문
패잔병
뉴브런즈
일본화물철도
Link
Nich
Sleep
body
갈락
고적
과두
교계
금식
기명
기값
깔때기
끊어진
놀랄
뇌하수
대경
데마
동광
동축
등불
디안
루어
모데나
문학자
박노
반원형
발안
뱀목
본처
사략
삼양
상순
서우
선영
성룡
소굴
슈페어
시클
시저
신아
쓸데
안병
애팔
애슬론
야지
여세
오갈
온의
우오
우터
이투
임권
자딘
조호르
지보
지현
지닐
진노
찍혔
차렸
척준경
청록색
최시
출반
치오
친권
패혈증
페냐
평왕
포퍼
품행
피버
하성
홀더
확연
히긴스
##리르
##르스
##사체
##광장
##회전
##레키
##데레
##하부
##조개
##혜진
##할머니
##ening
학교장
타이가
바이아
유일무이
Style
경험치
여겨질
into
신경증
플로어
Arn
548
544
현지인
533
672
가나가와
##ERS
시상하부
937
재생성
종사관
MySQL
대칭군
헤드라인
유키치
090
플라스미드
주행성
아미노기
입체감
아즈사
투르쿠
기수법
미세먼지
동국여지승람
석회석
살라망카
후한서
맥도넬
제니트
고토바
잇따르
기관지염
파나소닉
요시쓰구
GRB
쿠릴타이
스완지
음란물
##스테드
이철승
Bernard
반투명
발데마르
##chaft
테크니컬러
마오리족
Baseball
지참금
노랫말
프로비던스
임피던스
거버넌스
승조원
다신교
갈레아초
Lewis
줄줄이
미확인
피선거권
뇌하수체
애팔래
ABS
Bed
DI
Ib
Kong
Mul
Nar
Sud
XY
disc
nerve
she
갈로
고화
고형
고갱
곤봉
교시
궁재
꼬이
난의
내다보
노천
노쇠
노리히
뉴트
닷넷
떠내려
라돈
레다
렴구
론가
린이
마쳐
만취
말산
모는
무화과
물권
박석
반인
반석
부심
비천
사약
산노미야
살릴
서치
성양
수억
수막염
쓸쓸
알키
열기구
와구
원재료
윤선거
장렬
저출산
조방
증원군
총인구
최원
큐레이터
타법
튜턴
판석
판중추부사
팝스
표하
피칭
한독
할렐루야
해조류
현시
형기
호장
##rat
##aft
##보아
##RP
##소니언
##메아
##메이드
##초나
##할라
##텔링
정치권력
음악사
레이철
지하드
##iral
내려갈
행사장
Chi
마리야
측정값
##esse
물러가
수송량
빠져나갔
브레히트
트라프
726
중력파
면역력
716
스토리텔링
브라운관
벡터장
895
훌륭히
베리야
탑승객
사르코지
우르스
격렬히
1363
브라우닝
1024
매달린
스터디
020
늘어났으며
시즈카
Index
고령화
이타가키
서장관
리비에르
##haus
야마가타현
불쾌감
서예가
김윤식
민원식
농어촌버스
아누라다
커넥션
투과성
Jacques
Budd
티치노
Anthony
어벤저스
미공개
헤시오도스
레볼루션
Flo
HB
RISC
hel
겹친
곡창
난제
넘어져
더디
도슨
도계
들인다
디도
메자
메티오
모드리치
무주군
무전기
바베
범상
베그
벤슨
병목
부랑
비타
비체
사출
산해
삼정
서너
수카르노
슈터
시엘
야트
양형
어형
어긴
언리얼
없앤
요서
용정
우열
임요
작과
재의
절값
조림
족인
증감
진제
진서
진국
착지
채플
책망
치직
쿠오
튀겨
튀긴
함교
허헌
험악
화도
화백
황충
후삼국
흉악
##티즘
##NET
##VC
##92
##실리
##실조
##통수
##천읍
##립간
##디안
##쿠엔
##분지
##폭격기
##스트럭
공격진
라이닝
상대주의
운영비
바이브
인도유럽
##oce
아마미
스키마
편집부
세이초
터미네이터
464
##ains
654
6500
567
582
Prop
741
연설문
좋아해
영양실조
카스피
problem
OSS
AMG
크레디트
히스토리아
신용카드
##ethyl
트레비
분광기
투르키스탄
프레스토
Track
##어버리
ECW
토마호크
Indian
히사시
Wars
호스피스
Brad
머무를
정몽준
명인전
princ
말려들
생년월일
헤이스팅스
수작업
앤트워프
칸토어
에이드리언
갤리선
스핑크스
다분히
CERN
리볼버
알레한드로
메티오닌
임요환
인도유럽조어
CIT
Drive
KCC
Middle
Round
Vas
her
low
water
강석
건드
고철
공족
관헌
군종
군웅
김춘추
꽃무늬
끝없이
날라
날린
대별
덕행
덕망
덩크
도공
디언
러스트
레예스
마소
맹금
메티
배낭
베이지
벤허
보선
북독일
불합
블럭
빈객
생트
설로
소로
속설
송어
실탄
안가
알레스
액상
언명
여체
영전
왜행성
위병
유호
자단
저먼
전회
전병
제관
조충
종조부
질리
질려
출강
케말
코널리
통령
파레
푸치니
풍랑
피웠
핸디
허씨
허리스
혹사
혹자
##aS
##보국
##박물관
##당선
##표범
##토니
##릴리
##텔로
##슈인
##랄로
##ining
##tition
##itas
##eton
##스크린
다이어리
나오코
문학관
분석기
Stor
Stock
아마데우스
806
신경절
전차선
##니스와프
둘러쌓
포르투갈령
보장왕
무리수
슬로우
해양성
568
884
683
863
페이즈
1416
시달려
포크볼
유비소프트
1259
사로잡히
1423
위임통치령
을지로
이인좌
CSKA
동정심
날아갔
아리아인
버마어
청소부
스칼렛
카사블랑카
전단지
진해구
아카이아
Offic
심플론
하츠네
여순항
임차인
구심점
오베르뉴
방아쇠
아크로폴리스
벨린초나
디리클레
비씨카드
칠면조
마산합포구
대도시권
FOR
Kre
Om
Touch
VB
act
kV
li
public
가린
개의
경대
고행
공출
군들
귀네
그을
난초
늘어진
데칸
동우
두상
류리크
마계
맥기
면밀히
무급
무열왕
미란
바하이
변용
보렐
복각
복족
비친
산품
소기
속일
수두
식생활
안과
알람
알바로
양녕대군
여간
완간
위튼
윤성
은자
이입
익공
잔다
장어
절인
접힘
정초
제적
조홍
주마
증비
직공
짜임새
채점
처신
첨자
체적
측두
치도
케트
코쿠
콘코
타갈
태황
테네리
토했
투족
팬티
혼영
회답
훈육
흥국사
##일관
##미온
##에프
##체크
##형법
##클롭스
##키라
##중력
##FF
##양성
##은정
##갑판
##입상
##송이
##먹이
##틀란
##atter
계획서
스타니스와프
레이비크
2800
508
보호구
지나쳐
다이호
부산진구
##eca
##opp
오르반
에스프레
파이살
트리니
482
공공사업
##avy
Lep
543
##SAT
634
924
912
광복회
나타낸다고
Whit
영양군
들여오
포크송
크림색
1436
무효화
타카하시
Guy
##글리세
피지컬
가쿠슈인
라흐만
Services
바투타
세레소
Wilson
이항복
카펠로
루손섬
폭주족
Legend
소정방
병인양요
빠짐없이
파르테논
게티즈버그
마리우폴
SHOW
종소명
타갈로그
테네리페
Dong
JF
LX
Other
Put
VA
WASP
Zero
div
mes
ra
고마쓰
곤지
광인
구의
금은
김갑
깨어
끊겨
놀리
농과
누수
단아
도토미
독극
동탄
디브
라누스
랑그
루자
먹잇감
메들리
미산
미뉴
미련
밀랍
바륨
박팽
방일
방청
베닝
봉직
비동맹
산염
새러
샤리
석수
선험
선돌
성물
성례
세프
순탄
슈렉
시켈
신포
심바
쓰토무
아반
역점
온조
온순
요기
용의
우투
유하
이즘
자며
장황
정결
조주
지략
참주
청바지
최서
최민
친수
카라스
카스카
쿠션
특설
판도라
포환
품사
피가로
할구
합집합
향악
향나무
혐기성
호미
호머
활짝
##tm
##로비치
##미즘
##장기
##사지
##시엔
##자전
##정난
##중기
##노브
##공단
##학규
##쓰바시
##몰이
사이프
레이너
##roduc
아르놀
브라헤
다이고
혁명기
요시토키
805
찾아간다
아무렇
아카사카
그린차
청년층
기획부
648
수출액
437
후지코
556
755
7500
442
445
448
내렸으나
만족도
노르웨이어
639
유치선
SKY
919
1403
야스시
이와미
1397
이즈음
적대시
IPC
흔들렸
유성우
위장관
세례자
동력차
용산역
기요스
1333
1348
서남서
바리톤
헤비메탈
고성능
봉해진
장대석
샌디에고
##racy
휘말렸
삼중수소
피사로
박종철
공대지
승정원일기
과감히
리시버
광서제
중랑구
싱크탱크
혈연관계
##HTML
##기술원
레이테섬
페가수스자리
헌팅턴
약소국
리소좀
일회용
Matthe
칭하이성
Civil
암각화
포우하탄
계유정난
mAh
울란바토르
한국과학기술원
박팽년
Hong
Honey
bla
간분
거무스
계동
공교회
관모
길모어
깔린
날인
날렵
눈꺼풀
대업
돌비
둔전
랜서
로딩
메건
미니어
민관
박광
배심
불활성
상제
상륜
설서
셰인
슈피
스윈
신맛
심우
아식
아차
알데
어게인
에큐
역풍
오용
외채
우스타
울버
이몽
인빈
임페리
죄송
주워
천변
투지
투투
페트리
포리스트
폴리아
표해
피켓
허트
허우
호실
황현
##울프
##원회
##베가스
##대포
##티온
##식론
##차원
##형무소
##DE
##느질
##달물질
##킨트
##손실
##접원
##anne
##tie
아이레스
형태론
바이칼
##osed
스트레인지
베르망
704
떨어진다는
멕시코인
소수점
##allen
보조원
466
마크롱
아름다워
PCB
폴리타이드
게르마
소위원회
라스베가스
Cooper
소방방
다다마사
콜롬보
파울로
산타크루스
Access
감지기
1424
exper
마찰력
끌려간
##enny
카탈리나
1320
전자기력
응원단
영동선
바우하우스
달아난
원심분리
##슈타우펜
자궁경부
워즈워스
Mathema
솔라나스
에마뉘엘
중학부
콘월리스
호엔슈타우펜
스이타
인목대비
한결같이
임수혁
장주기
신경전달물질
생디칼
철조망
갑자사화
몽트뢰
미니어처
원심분리기
CAN
Did
Mg
MQ
Mut
Sang
Xbox
ber
cla
disease
tel
견줄
고호
골편
끈끈
누미디아
단도
답례
대했
대평
대놓
독부
레짐
루커스
리네
말렸
무바라
묵묵
민립
백동
버들
베들레
비국
빙산
삼군
세거
소윤
송아지
신석
아를
아난다
아널드
안서
안위
약력
엘레오
여남
오상
왕통
워홀
원도
은광
이샤
인비
인순
일리아스
장담
전성
총검
탈무드
티에르
파리스
펠릿
평전
헤아리
협화
홍채
환송
##side
##oS
##체역
##포루스
##차저
##숙청
##즈루
##유리
##용지
##버니
##난방
##플레이션
##슈카
##팅게일
##ention
감독원
##reme
보이드
브라반트
지휘소
##oco
승강제
무역상
형제간
포르투나
수비력
484
Thank
오리너구리
후지무라
557
751
창조자
##ateg
583
588
587
트라키
빼앗겨
614
##izer
719
뮤지엄
동서양
미야케
물고기자리
1726
들여와
용기병
사카키
플레처
상영관
1279
1429
클린트
1376
몰아치
1130
1240
Glory
Evolution
이봉창
테오도어
샤이엔
최장수
외손녀
경순양함
종주국
Better
사일런트
second
전갈자리
군현제
Astron
우키타
홍진호
마키아벨리
외교통상부
슬라보니아
임페리얼
무바라크
Aw
BLS
Hyp
Kl
Kan
TOK
doc
les
mind
가디
개부
곡사포
공금
과하
구걸
궁의
기산
꼬치
나위
남섬
노샘프턴
높낮
누층
대숙청
동회
둥베이
뒤통수
드린다
라코타
로에
리플리
릴라
매끈
발걸음
방석
변희재
부랴
부흐
브램
서고
선경
숙빈
신극
쓰다
아당
연공
영서
왕부
유카리
이택
이디
이타이
인촌
장바
장건
정목
제때
종정
좌대
줄인다
중파
창호
천혜
총계
치어
카린
카푸아
퀴논
크산
탕진
태학
파조
파브리
팬택
함태영
해이
해리어
효수
히지
##타령
##gative
##yg
##18
##프레이즈
##구조
##안먼
##노르트
##통과
##릴란드
##폭발
라이츠
보이보
##oda
Storm
다수결
업무상
트리거
##aps
조치원
##ists
이제현
이승엽
Lev
폴리에
622
629
학회지
페이스트
858
SSG
대왕대비
ATS
블록버스터
896
못한다면
장갑순양함
메르키트
##ONE
제의했
서북서
1364
애국주의
바실리오스
세속주의
기다린다
페르난두
SUPER
소말릴란드
불어오
Century
라미레스
활자본
축산업
질투심
배워야
뒤덮인
양현석
Imag
단발령
Remix
로사리오
우니온
태화강
사피엔스
리야드
African
빈터투어
Original
휘둘렀
ICAO
투나잇
다이내믹
페예노르트
레겐스부르크
오작동
Symphony
발렌티누스
변전소
얻어맞
Dangerous
구데리안
Hay
LIG
Pin
SET
card
ear
lim
mass
ppm
soft
강현
격동
계장
공의
과중
관향
근린
급경사
김삼
나도
농단
데비안
땅속
뚜옌
레타
롱아
린든
막힌
맨슨
메꾸
본적
불단
삼바
삼공
선암사
세벌식
수춘
심배
약용
엉치
오벨
요망
요컨대
우창
울불
의연
일라
장세
저메인
주진
준이치로
지신
채결
최무
최첨
톰스
픽쳐
해낸다
화씨
##CP
##har
##루카
##수무
##대회
##스태
##시페
##부전
##코트
##마레
##네사
##창자
##플렛
##칼리포
##렉터
음악학
##elin
타이트
##etes
다이앤
609
804
전해들
909
크로이
수정체
5500
##orex
493
656
기울었
치러진다
그레이터
##inder
775
여섯째
오버플로
만든다고
잠수정
나섰으며
김성주
사관후보
1412
1738
대단위
DSLR
이이다
여의주
고가교
박영선
1340
복선화
phys
가려져
약혼녀
이모티콘
이병철
변함없이
상피세포
바하칼리포
Faith
Limited
고차원
know
브라흐마
신오사카
다락방
코만도
병무청
김자점
##타우로스
총책임자
Gordon
불합격
최첨단
픽쳐스
사관후보생
바하칼리포르니아
EG
Gott
Kun
Ot
VT
WH
dr
mach
ois
pos
pub
sti
가바
가조
가린다
간무
거함
고름
관자
교종
교권
권오
금제
김교
나디
놀런
놓인다
당함
던다스
도급
독가스
두루미
디그
르미
리베르
맹그로브
명가
믹서
박하
발루
삼미
샤머니즘
서가
손학규
송악
수오
슐리
신차
신국
알딘
염오
영현
오역
오륜
오초
옥션
왕십리
월리
의형제
잘생긴
재사
쟁기
전말
좌장
중의
증이
진찰
추돌
키클롭스
통리
평리
피비
핑클
하권
한의사
황귀비
##come
##보로
##gs
##gie
##라하라
##소르
##아슬
##덕리
##안면
##코타이
##어먹
##맞춤
##옌데
##발리에
##튀르
위원단
##라이버
결정체
행정자치
##etz
거리낌
판매원
스트롬
최종회
요시토시
오스티아
이주영
Always
dev
체육부
요한복음
518
법인세
노스다코타주
Short
노부시게
569
관료주의
Convention
578
아티카
865
합쳐져서
가시두더지
SSE
813
1408
불가리아인
전주곡
align
1210
##TSD
##ycter
야쿠자
서경덕
에미레이트
동치류
마카베
매킨리
김유정
Believe
김준연
과달라하라
DOHC
단호히
코이네
곤살로
대세지
침전물
Linux
성유식론
Gabri
시메온
공증인
레코즈
행랑채
남연군
아슬아슬
몬테카를로
페메니나
곽재우
아누라다푸라
에스프레소
행정자치부
CBC
Hem
LF
Ny
SOS
Va
VH
WGS
Ya
Yak
game
sum
가섭
강영
겨드
경골
고친
공설
구엘
구족
꾸렸
논공
논객
농토
단음
돌턴
동석
두기
두렵
라티움
만도
매부
맹공
먹히
모에
몽키
바냐
반독
베유
복학
봉래
불협
뷔르
비언
사통
사려
사디
사토미
사파이어
선현
쇼스타
숙달
신플라
실에
안휘
알크
억불
연감
연회장
욱일
울브
웅대
원병
원할
응했
잔학
재통합
정소
조몬
주몽
주발
즈베
직진
진취
쪽지
창신
타마르
투레
트와
풍양
함성
##iaceae
##ski
##col
##서야
##라프
##시위
##락스
##진스키
##여성
##갈퀴
##압기
##푸리
##홀트
##eness
##itus
국민혁명
고려조
수도승
마이드
##ede
이동과
##urg
피해야
경험주의
##vere
고전파
##illy
##ified
나카타
883
722
입법원
심장부
ICE
오버헤드
972
일기장
야스오
진실로
카자마
1496
들여다보
헤드폰
시집보내
1361
유격전
분광법
1330
빌려서
정무직
청산리
성문법
Libert
진수부
사탕무
국공립
마이크로미터
Metropol
피우수트
테오도라
리퍼블릭
무가베
충무로
colle
프리드만
Alexand
동대구
잠복기
정여창
Object
데쓰야
수혜자
무오사화
불도저
Connection
드레이퍼
지네딘
란다우
아이다호
Marshall
나그네
바스티유
원환면
대들보
떠이선
케른텐
주피터
가타카나
겨드랑
쇼스타코비치
신플라톤
국민혁명군
피우수트스키
BIG
CU
Lyn
OA
SMAP
WOR
if
os
rot
tar
가브
굳어졌
기현
기품
긴밀히
내동
네무로
노노
논했
누시
덤프
디케이
루츠
루흐
리족
만사
망한
맥밀
바즈
박두
반파
배부
벌판
베노
벨레스
병살
병아리
복엽
봉환
부음
사증
산증
산울림
삼종
상례
섭렵
세디
스탕
아해
아옌데
어록
언역
에식스
영결
오장
외각
우나
위지
유덕
유나
윤년
이시스
자다
장릉
재봉
저급
전비
제바스티안
주리
주우
지고
지야
진우
천추
초밥
코닥
코에이
탄다
테우
통할
피워
##ez
##로왕
##기기
##대간
##츠와프
##니움
##지리지
##무치
##총련
##헌금
##군데
##탄당
##런던
##젠드
한국예술
여러해살이
문화예술
역사책
로마노프
중앙고속도로
조직체
생활관
지구대
##rap
국립은행
아마루
슈퍼볼
수비병
국방헌금
금융업
블랙베리
대기실
게이샤
438
462
마크업
519
알아낸
658
993
997
725
721
파르네세
인용문
이시야마
822
828
814
842
841
ATI
알바레스
소형차
792
브로츠와프
Clin
디오니시
1427
##IME
발병률
보증금
부가티
중서성
정인숙
리코더
백두대간
경인고속도로
강자성
Community
Federal
와이오밍주
고라쿠엔
과소평가
다트머스
Hugh
single
바덴뷔르템베르크주
손아귀
속리산
세계무역기구
터브먼
##종합학교
한국예술종합학교
Lic
MOS
Var
WM
Watch
ly
rh
vi
가호
가한다
강장
검도
격한
고저
귀상어
그네
그단
끼어들
나당
날뛰
내디
노구
뇌출혈
답신
동민
드네프
라슨
만한
매머
명조
명쾌
모발
묵상
미노스
박애
반상
배리어
별궁
부단
부농
브랑
브룸
삼켜
서파
서단
소코
순상
신립
안마
에듀
에렉
역서
연세
예레반
오드리
왼팔
욕실
원운동
유홍
은전
이고리
자축
장외
쟁쟁
조후
진의
참선
창기
처절
쳐내
콜키스
테아
퇴레
펀트
평해
하태
허세
회항
##bat
##oti
##down
##제도
##다닐
##명부
##클러
##레브
##구이
##구석
##총액
##천하
##돌포
##쉬르
##업소
##더르
##더스트
지역주의
##ications
##lete
바이애슬론
##astic
레이던
플레이메이커
머리칼
표준형
철학박사
크리스타
제시부
히로미
알리제
오리진
후지사
513
진입로
플라타
플라구
546
도망친다
537
991
연출자
아사미
나타난다고
638
화성암
##브리튼
##ovi
817
소방본부
893
MSC
마루노우치
주재료
1472
마쳤으며
소금물
##tism
arg
고소득
LPGA
실망감
##ween
Resp
Charl
시가총액
노보루
##ought
심부전
군데군데
아유미
위법성
Howard
Sounds
뷰티르산
틀림없이
마조레
파사드
파트리키
미끄럼
한명회
Ludwig
토치우드
가다듬
연석회의
성만찬
마릴린
독극물
드네프르
매머드
GW
Hau
RAF
Vin
bro
lab
vers
각섬
광상
군형법
근우회
낙산
낭송
내친왕
네즈
논조
뇌진
델포이
도진
동몽
동업
매지
무릉
물개
박한
방금
분란
불라
불후
블래
블레이즈
삼강
샌타
샌즈
서관
설인
순흥
실의
애당
양씨
언문
언관
얼스
오부치
와치
와타루
완안
원국
위만
위사
유메
자스
적통
전민
점퍼
조민
족하
찬동
캐비
코엑스
태부
평문
풀렸
한대
홈피
황푸
회갈색
##이루
##루페
##uan
##크네
##한국
##다노
##종려
##길도
##발리
##척수
##슈어
##elph
중요도
스타니
고등문관
##aca
동맹자
야마사키
##stal
국방과학
플로라
에드가
1505
##aves
526
동원령
541
이뤄질
619
흘러간다
황금종려
595
598
여왕개미
714
976
##클리프
찬성표
comm
발레주
메달리스트
호남고속도로
일어난다는
식당차
Instit
SDK
phil
유라실
프론티어
이준석
리비우스
결사대
DDT
카지미에시
신동아
유머러스
요하네스버그
당당히
구아닌
견습생
##플라워
music
과달루페
아시리아인
Everything
귀납법
머릿속
emo
완강히
데루모토
저상버스
정다각형
헬름홀츠
로베레
Today
Memorial
최연소
고밀도
안두희
네거티브
오벨리스크
신플라톤주의
그단스크
고등문관시험
국방과학연구소
황금종려상
CFA
Dub
Emer
Hart
Ja
Mit
Mot
MCA
Nas
Nucle
Pear
VP
bus
rock
갈림
감춰
게자리
겨자
견당
고결
교하
굳어지
귀두
금마
금곡
낭중
니미츠
담담
도령
도킨스
등방
떠도
라슬로
라든지
만구
무등
무법자
미테랑
바알
박윤
반문
반봉
반값
방배
범천
법통
벽지
복면
볼보
부메
북간
산등
선가
손길
실롱
암송
앙카
얼라
엄폐
에스트로
예레
오자키
왕징
우인
울렸
이청
저부
저촉
저궤도
절리
조규
지울
착역
초크
친했
칠정
침엽수
테바
텔리
토해
토산
피타
피한
하전
함상
해선
헤븐
헤테로
현기
호인
홍강
홍계
환웅
황초
훼철
휴면
##craft
##니샤드
##치마
##NN
##명왕
##레코드
##VD
##현궁
##염기
##군인
##엉이
##틀린
##캠프
따라오
##ench
선수촌
경제사
최고신
##rost
국내법
스트레
##agon
오르내리
가져간
##utch
공급량
청년기
483
487
##aking
금융조합
공공시설
CDU
이중성
611
682
##ibus
교향시
939
차단제
1011
897
1486
Active
알바니아어
요크타운
Complex
##ervation
우파니샤드
##hell
Small
Smart
선동열
응시자
모호크
마르티니크
소극장
쳐들어왔
나루토
신진대사
출혈열
포르노그래피
코모도어
바인딩
일면통과
보육원
후루카와
캐치프레이즈
area
돌이킬
호라산
아그네스
카멜레온
임사홍
넓적다리
히나타
반짝이
컨버터블
동떨어진
응오딘
불시착
데본기
차범근
경춘선
제중원
에스트로겐
Fra
Lem
Tree
av
culture
sil
격언
경음
골판
골재
군직
길주
남계
눈빛
눈보라
담요
도스토
로세
루바
마립간
머금
무크
무식
민단
바버라
반고
발맞
블레이저
상명
석대
선충
선샤인
세정
세모
소린
소콜
손색
쇼카
쇼코
시라이
쓸개
아피아
아조프
앨비언
어전
에브리
엑시
역방향
염주
예물
외드
외증
외견
운현궁
이롭
전갱이
조고
조창
좁히
징크스
체득
추악
캐터
콘체
콤프턴
크뤼
택해
테트리스
토파
토박이
트릭스
특임
판지
포르트
풍월
합본
활엽수
효정
후식
##ser
##rys
##rell
##OG
##티마
##세계
##불화
##과이어
##별곡
##걸리
##녹스
##던가
##칼레도
사용료
독일제국
작품집
##eli
아르노
They
##entation
유일신
소유물
언론계
베르케
부정행위
크로커
수비군
유니터리
489
카르보
주전충
플라비우스
올려졌
라이트급
고지마
마무리지
##스트라다
929
##onde
소방청
839
비틀림
발레리나
1437
루시드
정무관
##aterial
중추원사
들이받
design
##boy
Plant
IAAF
페트로그라드
취해야
아드레
클라우디아
영수증
알아차렸
두터웠
Benj
Seminary
누벨칼레도
마름모
도총관
바르톨로메오
헤밍웨이
##ithecus
Justice
허덕이
피커링
권문세
수채화
누벨칼레도니
AIM
Fund
Gn
GF
Jazz
Pret
Row
UL
UTF
Wish
double
obs
개주
격벽
계성
곤드
곽광
구구
그어
급조
기풍
끼쳐
나콘
남당
뉘우치
다용
다습
당밀
디마
디킨스
떨친
뜨득
러블
렀으나
레네
르페
멘데스
면체
면밀
목책
박소
박춘
반소
벌려
봉상
빚어졌
사크
상행위
석현
선집
섬나라
성선
소체
순창군
슈어
스자
식육
압바스
약리학
엉터리
외레
외적
윤형
자두
작호
잠든
장리
재향
종중
준설
지력
진스
참깨
창부
청과
촉망
추인
추녀
칼집
칼라인
캄비
코지마
콘도르
쿠티
쿠다
토오루
통견
패딩턴
폐모
폰테
행량
황량
휘문
##bahn
##du
##거름
##라치
##작용
##페지오
##클립
##키우스
##전증
##주얼
##칸스
##분수
##분석
##쓰나
##홀슈타인
##뚜라미
한다든지
##erc
##oral
##orem
사회상
사회과
##icip
##chester
군사용
연결기
마이아
아르덴
계약직
나가요시
##adi
##temp
스위칭
입장권
에스티
녹음실
904
##stone
양식장
에이벡스
루이제
리스프
동의서
514
노부유키
624
코르디
공정거래
987
745
신부전
766
보살피
Cook
경사지
오케이
크루거
주문모
테마주
MSN
##rish
크라테스
이와사키
교도관
1491
1462
행해져
1473
##lands
사르마
1374
홍수전
누군지
대포동
케이스케
1220
담겨져
Guard
##entity
지우개
실정법
한림학사
스테인드
##opsis
시찰단
발자취
소포체
어학회
소양왕
슐레스비히홀슈타인
Rights
Castle
카도카와
##ehicle
납세자
Speed
솔트레이크시티
미이라
벨라스케스
젤라틴
Government
그라우덴
심박수
호라이즌
부건빌
즈베즈다
캄비세스
공정거래위
Fal
Pil
PAC
Vul
god
가내
강신
경추
구황
군무원
귀뚜라미
기승
긴팔
끝마치
나이스
나레이션
남종
남양군
냉철
노른
느졌
닛포
도카
도순
동그란
레라
로넌
린츠
바커
바클리
발드
발설
배회
벽체
변란
보온
블론
비린
빈소
산록
산다는
성고
순록
슈바이
슬래
식재
엄한
연강
옥포
우변
움켜
윈필드
육우
윤희
윤창
율동
음직
음낭
의학자
이펙트
입금
잡화
차라
추성
치성
풍문
하소
하즈
하마스
한사
한총련
했을
행시
허먼
혈구
화로
회식
##set
##서인
##호아
##jection
##체프
##거미
##파노
##당동
##카토
##진화
##재주
##나두
##각색
##가오리
##처원
##연산
##브루크
##입술
##캐처원
조직력
##eto
전기차
물리칠
##othe
##스타운
경계심
신호등
증거물
계급장
플로트
대기록
이성애
652
기도서
그레나다
662
616
##ended
686
631
세르비아어
페이로드
에르미트
화산섬
733
이시카리
SKT
878
총회장
818
781
시계열
prop
천안문
존경심
1362
중장비
물러났으며
##ancing
을지라도
심해져
사모라
SDS
조수석
카프카
Atlan
쿠니오
NPC
다테야마
무르시아
라파엘로
블로킹
앞세우
과격파
호아킨
Tomorrow
PPP
바쳐진
Virtual
유자광
flow
수구파
JPEG
Lives
완행선
Copa
오펜하이머
전치사
personality
Midnight
Roger
선입견
히비야
태황태후
르페브르
Ain
DW
Gy
Junction
Ken
PJ
Pad
가발
개탄
건즈
경칭
고은
고칠
교보
구직
군론
김완
낙담
날씬
남역
낭시
노가
논거
다움
담판
더스트
델로스
동업자
로카르노
말콤
망신
미혹
변기
병정
병실
부러진
불곰
불어나
블런트
비글
상근
새미
서의
서현
선부
선취
순다
슈이치
스퍼드
시버
신림
악순환
애스
야욕
영합
온수
욕조
용광
우완
월시
이탄
일리아
자양
저드
적수
전정
전모
점박이
제초
조순
지행
참담
창군
초강
촉성
최기
캐주얼
코나
쿠소
탐방
텐디
투숙
트레스
파츠
판막
페나
폐회
푸마
학보
해빙
혜경궁
호한
호메이
환인
황급히
획정
휴교
##rup
##문자
##car
##니트
##팔츠
##페론
##카트
##모세포
##마비
##초리
##매스
##블레
경제난
##amer
인터페론
아르디
플레이보이
문학회
내려앉
찾아낼
미사키
Alpha
스키점프
Than
노예주
운전기사
창조물
##네스쿠
547
Beast
동기생
정원사
623
636
866
Meg
미나리
771
ICC
늘어남
연락처
##shire
##ired
실업축구
발렌슈타인
Universit
의정부시
아오바
1448
걸려서
스카이라인
Greg
정찰위성
주머니고양이
버려서
하우저
##enna
조리개
오크니
SATA
오락실
가산점
무서워
친화력
맡겨졌
타밀나두
Histor
성산구
Remember
아레강
아드리아노
고해성사
Imper
##호르스트
타오위안
파헤쳐
Princess
내비쳤
치앙마이
주안점
일깨워
송수신
틀어박
좌부승지
Jesus
에드먼턴
아탈란타
어메이징
높낮이
애당초
Cit
Eag
Ful
Glass
Mine
Must
Tan
cle
ide
ten
개도
개각
경진
구법
구종
궁을
극점
급박
기를
기룡
긴코
깃들
나전
나운
남악
낭야
다물
담황색
대이
대참
덮쳤
도그마
독스
동오
동덕
등성
로다
마일리
맡긴다
맹수
모녀
물갈퀴
민유
반제
배팅
법계
변압기
본업
비협
석양
소일
솔즈베리
시강
시공사
신강
안소
압살
앞니
애첩
액티
어윤
언드라
영관
와디
외롭
용언
울부
은진
입출
자간
작도
절판
제발
제이드
종심
중관
중금속
진현
총각
축대
취사
치역
칙명
카루
탄로
터커
토인
통진
티파니
퍼트리
평상
평준
포보스
한역
한적
한량
해룡
허쉬
호키
환속
후발
힘찬
##so
##hood
##드름
##세어
##지트
##메른
##자크
##두근
##하기
##위키
##릉군
##orp
프로도
##aling
인물상
분석법
809
##시코드
의견서
Margar
753
마쓰시타
467
페르시아인
571
673
679
알바니
1307
독점권
콜로부스
analysis
protein
Johnny
도메니코
##ophus
1276
1371
ITU
한테서
하프시코드
Monte
ALL
친화성
참수형
튀어나오
구세군
Hyper
블룸버그
장타력
통사론
만력제
데시데
학무국
비사야
임영신
김개남
투치족
언드라시
Cant
Cass
GI
LH
Lau
Wave
cis
della
fal
hydro
갈증
갑주
겐키
경솔
곤돌라
과밀
관망
광섬유
궁이
근황
근저
꽃줄기
난중
더우
동소
드베르
등뼈
딸림
렐라
른슈테
리케
리쌍
링구
말사
맞히
맥킨
머스트
먹거리
멜로
모랄
박시
방제
부칙
분로쿠
비차
비망
비텔
빈농
산만
삼신
속삭
손등
송인
슈티르
시맨
신후
악귀
안노
어목
옌스
온통
우천
운모
위약
위즐리
으르
이디스
적임자
정용
종횡
지물
천산
퍼디
펜리르
프락
필진
합기
허점
홀로그램
효도
##bird
##미노
##xis
##수영
##대리
##비엔
##키디
##메틸
##feld
##배인
##모르
##유국
##나방
##향민
##캐시
##녕군
그리워
프로젝
타이난
회사법
군사학
드라마틱
##로스코프
도로변
스테아
에스키
706
알렉시스
체포영장
저항력
공공재
439
Dear
444
469
Shar
논리식
올려진
유행병
새겨졌
김정남
지켜냈
Amaz
968
1404
중지하
클로이
무너뜨렸
무용단
구사쓰
##레아스
미카일
나이트로
유신회
1271
1351
Plat
에우로
재현부
감리회
##aily
바스켓
1310
사이토신
scale
절정기
쳐들어가
국수주의
원활히
서스캐처원
체인지업
프로모터
을사사화
Military
서스펜스
셔틀버스
예일대
울릉군
도읍지
Without
Opera
무거워
아랑곳
GABA
뉴햄프셔주
비합리
참지정사
몰로토프
조혈모세포
Building
Sunday
보울비
ThinQ
장바티스트
아드레날린
##진화론
비협조
른슈테른베르크
슈티르너
Ala
Dri
Dim
Easy
HAL
LR
MN
PAS
VF
View
band
stem
tRNA
ul
view
year
가망
갔었
건졌
건준
고황후
광야
괴로운
귀걸이
그라비아
기트
기녀
김여
너리
노루
다린
대석
드보르
떠올라
라군
럭셔
렌스
메탄올
모일
미관
반나
버팀
비요크
샤인
성냥
세보
세카
소절
수화물
스노리
아낌
아가리
안희
알칼
애자
약세
약효
연등
운서
위자료
육중
음유
작명
적선
정암
제막
차상
차린
칙허
크러
타순
탈모
테란
투게
포졸
합일
홀극
황석
##sky
##rd
##rer
##pan
##mark
##동산
##야오
##미딘
##yang
##관음
##회관
##터널
##감각
##규칙
##즈음
##쿠로스
##닫이
대학자
프로시노
문화인
라이팅
여성학
국민대
##ingen
출연자
마이닝
##idence
이동녕
##igi
이사키
Channel
##agan
국립중앙
오르도스
나무과
에스더
나온다는
##eman
녹음기
발사장
카이펑
수정란
전개부
회전축
472
플라테
연료봉
에피쿠로스
그리스도론
497
653
774
##auer
근육질
Blu
MSX
이와쿠니
정서법
들여다
증기압
트라이얼
##iley
아울렛
1487
1258
청사진
##스토르
내보낸다
그로테
충전기
페널티으로
레온하르트
요르단강
시종일관
Brook
IAU
피리미딘
테오도로스
덮개돌
이바노비치
쓰루오카
구루메
KNN
엠블렘
people
Boule
홍영식
Columbia
보이보디나
불협화음
럭셔리
알칼로이드
프로시노네
BV
CIC
JMA
Mik
Most
Pter
Past
RAD
Sid
UH
direct
hand
kcal
ps
tu
겐조
결행
곡조
곡류
광각
괴델
구부리
기총
김전
끝맺
니얼
데브스
도겸
독해
독발
동침
래브
령부
맥키
몰리나
문창
미실
미보살
바스코
바느질
박리
박민
방도
백야
버벌
법도
복간
브릭스
산티
살렸
상병
새김
소승
시끄러운
식서
싱클레어
쓰임
안인
야경
어설
오베
오물
오승
우중
운봉
윤하
윤잉
으시
이페이
이클립
인멸
일합
임레
자무
재종
적나라
정죄
졌었
조끼
조가
천년
초년
충장
치천
침습
크다
키오스
키무라
타루
통문
팔마
폰투스
피구
행과
헌공
화양
회인
희롱
##wart
##rence
##the
##제트
##상태
##인민당
##미리
##미에르
##호리
##라바
##산기
##fa
##정역
##방아
##징계
##천역
##데토
##네크
##엔츠
##검사
##올림
##앵글
가지런
##라이히
##asp
관리원
레이몬드
##rob
현대건설
프리트
아르파
아르세
세포주
##ige
시민군
책임졌
703
필리피
옮겨가
##abe
##스티드
브리엔츠
Mars
스카니아
561
Spin
729
724
스토우
여야만
68000
기울어지
치러야
592
프린시페
피부염
854
##바라밀
연습장
되돌릴
달려갔
정수장
892
구름무늬
794
1391
아르메니아어
명사구
트라이앵글
1421
1189
마츠다
싸워서
일렉트로닉스
##titution
개그콘서트
강해져
타지크
NEW
서대문형무소
머무른
부풀려
BLACK
plan
NLL
변성암
알로이스
수의학
베아트리스
영도구
짝짓기
지어서
신명기
돈녕부
선주민
##페라토
Square
Something
쿠즈네
은근히
와일더
MUSIC
Hollywood
Benjamin
래브라도
이클립스
BH
HTC
Mand
Nation
SCA
Syl
UT
cry
your
건초
경안
구위
군나르
깨져
꾸이
남평
너그
네비
놀림
다모
덮치
돌변
레모
로선
르포
막걸리
메아리
메아차
모비
문주
바토
번외
범부
보초
보야르
복상
북안
불감
산사
삼포
삼계
시커
신음
악질
알메
애절
양행
어문
언동
영신
예성
예학
오창
오에이
왕따
위더스
윌스
유야
익찬
적남
조향
중리
지판
지가
지묘
진대
착실
찬의
청불
치우치
침하
컷오프
쿠트
크비
퇴보
팝업
패거리
포타
폭염
하렘
학구
한전
현정
호랑
홍위
흑체
힐링
##vet
##tes
##prise
##고로
##more
##hof
##리크스
##gang
##uv
##트릭스
##포밍
##도키아
##시르
##법률
##지엠
##벨린
##철학
##질소
##알프
그리어
조선말
전투복
발전함
스타터
수도권
프리티
아르미니
브라스
계약법
특정인
설계안
공사장
포르토
##ocy
텔레비
득점력
그린버그
##stad
범죄인
신학생
근대식
일어났으나
초등학교
644
##uda
헤이즐
보험자
균형발전
862
황금시대
##izard
913
오버레이
디아라
선제공격
##마이신
특허청
1446
##iled
진흥회
##터스쿨
1369
##페이아
서사하라
1246
Steel
사가현
황해북도
상용차
비자금
바스쿠
잘라서
phase
univers
만년필
겹쳐서
약해져
치환기
Evangel
가쿠에이
##rama
로만슈어
카슈가르
Matter
버크셔
카파도키아
춘향가
모식종
브론즈
애프터스쿨
천리마
문하시랑
괴로워하
##그러들
book
Movie
수제자
초토화
크로마토
대연정
직할지
농상공부
금석문
칸다하르
##mbH
카시오페이아
대퇴골
순양전함
Tokyo
후나바시
트란스발
황우석
engine
Authority
princip
영결식
응오딘지엠
호메이니
홍위병
아르미니우스
Cav
Fast
Gib
GIF
GmbH
MOU
Motor
Sala
XS
aff
bal
case
가희
격감
고두
곽회
기다란
김복
김충
꼬집
남창
느렸
덩컨
덮친
독선
독백
동슬라브
들소
떠안
라에
라플라
로케이션
르메이
모렐
묘정
물린
미포
부감
부원장
붙박이
비루
비테르
비커스
생필
샤른
서법
서막
선캄
섬너
속세
송상
신우
실신
쓰라
아모스
알가르
야습
엘시
열수
오그
오하라
오자와
워리어
의아
이합
일스
임해군
정탐
주병
주급
증국
진야
진에어
철골
체카
초사
추사
치워
쿠이
크레아
투우
틸팅
퍼프
편람
하메스
한빛
혹성
황종
효경
흔했
히즈
##oi
##보험
##드래곤
##기관
##스러운
##차이나
##부림
##DN
##게네
##격자
##데스크
##데킨트
##말리
##뷔지에
##블스
##펀지
##atum
##rem
스타더스트
##astern
##urb
##루스코니
물리쳐
##umn
대사산물
##스타일
통일호
요시프
요시사다
아무튼
상업시설
기자조선
불러올
근대주의
명예직
붙여져
신성모
아미앵
해양경찰
신분당선
분해능
김일손
해리엇
951
954
이치하라
사제단
824
매장지
812
Mala
사우스다코타주
일어난다고
알코르
병역법
가려움
두꺼워
IDE
Month
모은다
미친다는
##owski
메틸화
가락국
진해시
시몬스
전산학
경무국
김형욱
애완견
미지수
민물고기
쿼터백
동호인
간파쿠
로제타
존엄성
포즈난
데인인
IGN
베를루스코니
총지배인
OLED
조미료
육영수
원각사
조감독
파슈툰
치어리더
조흥은행
비테르보
생필품
샤른호르스트
CTS
Dy
DEC
Effect
GAR
Kat
Late
Nak
WD
cri
core
rel
wr
간암
강관
거름
고충
공서
공분
과태
괄목
광란
굳혀
귀부인
김의
꼬임
낭청
니즈니
닷새
대통
도야
두령
디버거
러요시
뤼미에르
맡길
맥심
머독
메구로
면석
모수
무표
무증
미니스
민망
밑돌
바친다
베베
블링
산실
삼천리
세지
스레
쌍잎식물
씨티
알칸
어보
연탄
열왕
영천군
왕지
왕안
왕경
외연
월나라
음차
응해
이쓰
이축
이베르
이천시
임파
임화
저금
전나무
정본
정란
젠틀
조복
좌명
채록
처용
쳐부수
캘거리
탄천
태음
특종
페텔
평주
포이어
풍이
해사
해식
혈우병
활달
황상
흐지부
##wald
##pc
##hal
##PP
##파이스
##비니
##다라
##부아
##봉낙
##어낸
##통첩
이후락
라고스
##elson
중앙지
생활고
레이턴
배우체
자기력
졸업장
##igo
인지라
마음속
사무직
##드리지
가톨릭교
지진계
전차포
윌리엄슨
루이빌
전하량
646
559
물러서
471
477
코스피
부장품
문헌학
동남구
아사카
689
요코야마
도요코
골드버그
836
잠재우
최후통첩
마스터즈
수천만
위키리크스
카리알라
1442
스와힐
하이드리히
도리이
마찰음
우정사업
카타리
바리새
퇴적층
였음이
Flight
mechan
블러디
카바레
Keep
샌드박스
클라우디
Brain
Study
##cious
가독성
히토쓰바시
Electronic
격전지
Patrick
베르트랑
오시리스
과부하
원한다면
이등분
대광보국
POSIX
##일라잇
한기총
신당서
양기탁
거침없이
위정척사파
측두엽
대놓고
트와일라잇
흐지부지
##봉낙타
우정사업본부
Cosm
Fir
Jar
SY
Tet
TCA
WE
fla
family
rou
wind
가란
강문
강체
갖은
개코
고티
곽상훈
광견
굳힌
김육
나병
논할
느와르
답안
등정
루안
마성
만프레
말나
말장난
묘한
문다
박서
백산
뱅킹
보체
복관
부소
불이행
빠뜨렸
사교육
삭과
삼니움
셀림
속수무
쇼타
슨푸
안종
애써
양장
어겼
에티
연무
열하
왕수
요술
우간
울레
원공
월식
이존
장헌
재인
재분
적어지
접안
정어리
종기
종간
좌승
주호
지롤라
창달
초심
캠핑
쿨리지
키니
투철
특촬
퍼뜨렸
페레이라
폰세
푸엔
품안
플럭스
피막
피랍
하학
하연
항등식
헌상
혁혁
현란
현풍
화현
횡행
흔쾌
##bc
##문안
##cia
##이끼
##장암
##기리
##포어
##NI
##프만
##지물
##레시아스
##주부
##렌산
##십국
##닷컴
##onn
##ario
현대시
자동사
어느새
사고기
하이테크
표면적
마사노부
삼성동
계산법
민간단체
##akes
고용인
558
Lear
759
금속제
준다면
노부카쓰
화물기
##antum
Prov
해리성
Search
SSC
922
921
근육통
846
일으켜서
라우렌
692
안내판
취리히주
쿠스쿠스
수지구
광역철도
order
소나기
가라쓰
원했으나
신세기
Trade
탐색기
기증자
리보르노
##schaft
끝났으며
메틸기
헤일런
코리안
세단뛰기
오대십국
천자문
Auto
변함없
Rainbow
유보트
아로마
상계군
위니펙
Urban
##페리온
암술대
나베시마
인왕산
클레멘테
고농도
Affair
동그라미
마들렌
Together
에렉투스
과태료
광견병
속수무책
지롤라모
ATV
BAS
Bible
CAS
JST
Lac
PGA
SAC
TK
Tol
Wir
Yes
px
각축
건넨
격심
결박
골치
공납
교와
교잡
근시
금사
기폭
김득
깃든
끼우
남월
늘이
단대
당중
대현
두류
라팔
라킨
레거시
렌트
르마
망우
메나
면목
명세
모카
무하
문터
문간
미진
민항
박남
박공
반바지
발론
번리
부스트
분식
사숙
사운
살생
상중
서풍
서병
소풍
소폭
송익
아단
아족
악평
양회
에투
엘스
엘체
영포
와야
왜인
왜란
원스
위체
육단
음률
인경
인더
입소문
자시
자빛
잔액
전거
전일본
조쉬
줄다리
중미
중징계
지유
짐머
첫눈
초거
최석
추안
취주
컴플렉스
코임
탄전
탐닉
통렬
퇴식
트루스
티로신
파타고
파비안
페피
한우
합포
해관
핵종
후편
##bin
##cod
##hu
##니르
##세례
##강병
##구불
##국치
##공수
##토슬라프
##데드
##렐레
##평균
##존자
##eri
사이러스
도시이에
자유인
2026
과학관
수도교
##rain
아르망
연방주
정신력
마르가리타
스포르트
공항철도
##star
이집트어
당선인
##anga
플로베르
회전자
카르발
세종문화
아프리
687
대공습
순환고
돌아왔으나
사자자리
APC
932
수치심
정수리
도미닉
머물렀으며
광역자치단체
1385
1273
자민련
알라딘
도왔으며
회계사
1127
부채꼴
1261
1232
승차감
글루타
나르바
무어인
쓰시마섬
실무자
팔레트
림프관
세바스티
사적지
complex
브레이브
간략히
하야오
which
그레고리우스
바쳐야
산신도
메드베
영성체
Paper
헨드릭
금주법
뒤섞여
아모레
안타까운
Ernest
월계수
카산드라
앙겔라
리놀렌산
부국강병
거니와
하바롭스크
슈워츠
경술국치
사관생도
구불구불
함석헌
애팔래치아
Matthew
퇴레게네
부메랑
슈바이처
증국번
송익필
전일본공수
파타고니아
세종문화회관
Bry
Bart
CAP
Fle
Grow
HL
Las
OPS
Pt
Rot
Sens
SIV
Vent
eth
mL
rest
가를
가너
간본
그쪽
근관
급서
길항
꺼렸
나드
남십자
녹조
누메
드비
띄어쓰기
러키
레퀴
르보
리브르
만노
만담
맨발
명문화
몽타주
무조
뮤온
므앙
미결
박달
반듯
밥상
배색
범수
봉입
비강
빈자리
빌렸
빙자
사벌
사은사
산행
산초
섬머
성성
세노
스사
스쳐
시빅
신카이
실연
쓴맛
암군
애퍼
야키
야담
에페이
여실히
연판
예요
오조
유휴
은제
을미
음핵
입니까
자나
전답
정학
정단
조한
종려
좌담회
주봉
주천
죽도
지관
지학
진에
집의
차대
천관
초평
최홍
추시
치는
치달
카사르
칼라스
캐츠
케랄라
태울
투박
팔라스
퍼니
페어리
포일
할릴
홍산
황비
훈제
히토미
##pin
##드문
##거세
##회색
##성대
##전환
##승호
##복싱
##투스트라
##랑어
##디스탄
##달프
##축제
경기관총
##니아스
라이덴
##ament
##idi
##ecom
##rium
마르부르크
스포팅
608
기사환국
부정맥
천황제
대장성
Universe
마쓰자카
461
합성효소
CDM
해상자위대
만족감
Before
박정현
방위대
986
959
732
##oven
김영환
암호명
의문사
사우스다코타
1012
835
카스틸
##anning
쿠르디스탄
금강경
1234
대제사장
유수프
level
드문드문
가면극
웨스턴오스트레일리아주
short
시가현
실존주의
파우사
고추장
Transit
자코바이트
CGI
프리스틀리
탄산염
쿠르드인
##vince
리에티
이바노프
Classic
마신다
해왔으나
빠져나온
상도동
헤아릴
자영업
훌라구
히가시오
다게스탄
##스태프
반봉건
투게더
Boulevard
에페이로스
FB
Iss
Kit
Rick
call
광록대부
교본
궁술
김하
김달
날다람쥐
노수
다장조
달기
당김
동평
롤스터
롭스
루킨
마농
망국
메워
물종
물새
보불
산파
산본
성보
성민
소농
손씨
송지
쉬우
알짜
암리
앞잡이
약산
양피
어트랙
에델
연화문
오선
오재
오컬
우하
월지
윤미
이귀
인후
잠그
주신
증평군
초산
총점
취안
취학
쿠폰
테스타
통의
특강
파빌리
펑키
하기
합쳤
항명
화난
환시
황권
휘둘러
힐즈
##ctive
##hol
##트어
##팔이
##탱화
##성서
##무도
##클스
##자오
##노기
##피데스
##싸인
##모양
##악골
##룡사
##싱크
##앤캐시
프로야구
여러모로
국민장
##asse
##ilia
출연료
형식주의
연기군
##oca
투표소
요시히데
아마노
생성기
##aper
야마나카
전시물
대륙법
에이쇼
마사미
마사시
의료인
교환기
프로세싱
브레다
##enstein
세인트폴
사원수
743
735
이치노미야
COR
816
002
Coast
Works
오가키
##ierra
중도파
고사하
1266
조반나
상담소
트래퍼드
사모스
SoC
동조자
러시앤캐시
들려오
동시대인
파우더
내무대신
Region
이현상
지청천
이산가족
Japanese
Carlos
IGBT
조만간
Miller
절연체
송병준
##tidae
석굴암
니컬러스
끝마쳤
Monster
카복실산
김무성
Douglas
삼투압
묵묵히
글루타티온
어트랙션
파빌리온
Case
Gim
KGC
MOV
OZ
Sr
Zoom
nov
pal
run
가감
가메이
교국
귀감
길들여
꼬투리
끝단
난색
난창
내인
농후
다성
닥쳐
당색
대번
독고
독차
돌스
뒤진
떠서
리거
만달
모스트
반불
베카
봄철
북촌
불탄
브릴
블뤼
사견
사야카
삼손
생시
성광
승복
시데
아질
악연
알락
알반
알리스
어니
엔시스
여소
역주
음가
잠겼
장백
저본
저개발
정격
주라
직조
진기
천과
추탈
카트리
커져서
케모
쿨롱
타지마
테세우스
티민
펜로즈
편암
평활
폐제
피케
필승
해성
향가
화첩
휴간
흥망
##로켓
##오키
##gus
##베타
##PI
##라면
##프리오
##구사
##정운
##게네스
##군단
##발스
##플란
##흘리
##onna
조선업
##tio
정치사
##리카와
##reement
후보작
레이븐
대전시
##aci
태양력
교통편
투표율
스테고
##agg
Initi
하루하루
##ession
수정구
옮겨와
사우나
377
그려냈
활성제
Leop
나카마
446
어린이집
##obia
Cond
574
받아들여야
대공세
772
동양학
973
네이마르
common
크라프트
HDMI
미스틱
타원체
##슬라우
1352
1375
러브크래프트
spect
관통력
남한강
로프스
ent
에버랜드
Baron
신흥사
NCT
클라이브
Donald
릴리프
벨리사
이타미
증손녀
포고령
단면적
튀르크족
선봉장
라즈베리
극락보전
오대산
해시계
화염병
야만족
솔직히
##조사국
친목회
##그란지
짜여진
관입암
Broadcast
어거스틴
했어야
아바르족
디카프리오
벌거벗
Beyond
Chinese
역삼동
출애기
억만장자
포이어바흐
흔쾌히
줄다리기
누메노르
블뤼허
Cut
Coh
Hann
Kent
Ngu
UCC
Won
XM
bet
econom
fran
men
mel
강해서
개과
건평
게라
겹처마
계금
곤장
골다
국시
길다란
김방
논지
니옹
다급
단다
듀폰
등부
등신
랜섬
롯카쿠
리딩
리들리
머나
명승지
몬페라토
무더
물살
밑거름
버고
부일
비통
빚어지
산삼
산마르
상목
생수
선심
설경
셀로
셀렉
셔플
속지
손대
시슈
신군
안태
알무
양자리
어신
어질
에보
엘로
역세
연직
영분
오각형
와이트
요스
운집
원흉
원줄기
유이치
의태
이필
인평대군
저물
전세기
정함
정감
주국
중환자
초여름
칼루
키튼
킬라
태봉
털리
편애
포테
퓨어
하빌
하하
하필
험하
호암
화요
회안
##roll
##ted
##로렌스
##SE
##개지
##ITA
##강왕
##테티엔
##노키
##불위
##국화
##통제
##돈산
##데부
##균등
##운모
##셔너
##번트
##혼타스
##erat
##orb
한국프로
행정소송
종교학
##adian
중화기
709
히로세
건너왔
Ali
##가와라
아키모토
카르마
대장암
장악원
Artist
보안국
스크래
허가증
살인마
세인트로렌스
코르뷔지에
572
진정서
로켓포
부담감
962
연습곡
674
독재관
943
894
796
남겨져
마그레브
시집갔
이재선
1282
수신료
내보낼
대피소
CRH
가네코
메소아메리카
조광윤
제너레이션
자생지
모셔진
셀레늄
브랜치
화엄사
조준경
관악산
축전지
Belle
베라크루스
북인도
내시경
엔젤스
마태복음
밀어붙이
인피니트
후스파
Foreign
웨이크필드
아라키돈산
글라우
아리크부카
Version
포카혼타스
Rudolf
참찬관
첨지중추부사
동갑내기
circ
에우리피데스
도드라지
곤잘레스
구설수
캐노피
커미셔너
매버릭스
구엘프
견당사
##불화엄경
프로젝터
크로마토그래피
파우사니아스
머나먼
한국프로축구연맹
FOX
Hunt
Lip
Mig
Qt
Sad
Tam
gal
갤런
거역
내치
농락
대아
대약
도동
도강
동예
랑데부
램버트
레너
로터스
롱비치
뤄양
릿쿄
마상
마론
만이
무전
문득
물기
미워
미셀
반올림
방우
베개
병서
보보
봉준호
부슈
불미
브라마
비그
사천시
산상
산속
살모
색이
생테티엔
서소문
선유
선혜
선술
세입자
수자
슬기
습하
시끄럽
쌍안경
씨네
안평대군
양진
양저우
어식
엘리아스
예인
오신
월면
윌란
유금
윤택
이궁
자그마
전농
좌윤
진덕
진범
청초
치히로
카오리
컬쳐
켄시로
콘트
타군
탄피
탈리스
풀어내
퓨리
프롱
프스코프
하옥
하자르
해먼드
화훼
환심
훈계
흥부
##where
##com
##low
##원전
##르도
##호우
##대광
##대첩
##사이트
##니클
##zh
##도비스
##아부
##비다
##비탈
##신왕
##키드
##메트르
##테오
##벨레
##TER
##봉기
##실트
##절기
##마이드
##돌궐
##요건
##독증
##독수리
##푸틴
##젠트
##늑약
참여연대
방송법
건설사
자연어
민족정기
프리웨어
프리기아
판매점
연방주의
국회법
오르도비스
intern
프레지
906
아카시아
세르베
강제집행
토지개혁
의학박사
집안일
521
시킨다면
갈라놓
657
564
723
637
763
914
돌려서
라스푸틴
섬유질
마스터링
##onto
SNCF
메르스
부수차
##INC
우지야스
080
미네이루
1386
1357
040
성전사
art
가미카와
어울린다
하마다
바퀴벌레
아이슬란드어
Corp
아타나시
드라비다
조세프
제노아
CMB
공리주의
케인즈
정예병
획기적으로
을사늑약
유영복
베오울프
율리시스
이달고
Help
조동사
박찬호
북북서
바예카노
중주단
벨로루시
미끄러져
Cyber
어벤져
광개토대왕
스크리닝
도다이지
히라이즈미
condition
그제서야
야마나시현
트롬본
고화질
##ycteris
오컬트
독차지
GAT
IE
KFC
PTSD
REM
Via
civ
om
ox
pers
감돌
강용
결구
구산
구생
귀리
내쉬
뇌척수
님프
달구
덮이
데로
독과
동왕
동하
들으면
등유
디페
디드로
때론
래디
랩스
로소
르메트르
맥마
모인다
문상
바질
바코드
박식
벌컨
베렌
부루
부경
부집
북섬
분원
분규
불하
비선
비에르
사니
산드로
세법
소좌
쇼우
수칙
승산
실향민
심즈
십이지
싱크로
알곤
애서
야라
양관
양초
언데드
에고
역효과
연거
오펠
위나
육손
은은
의서
이콘
장하
장순
정내
졸음
좌현
중병
차구
청명
카키
코비치
터틀
토정
톡톡
파프
팬케이크
푸조
피레아스
필그림
학우
홍도
화동
후문
후광
흐린
흐려
희끄
##rest
##tory
##lock
##로카드
##치병
##BE
##당겨
##주리
##종양
##토류
##샌드
프로디
전투함
기관구
레이시
우리말
나가타
##aders
##리오즈
평화민주당
오르시니
바다뱀
인사동
3600
##트로프
집중호우
장기전
옮겨온
에이리언
스키너
아우라
##berry
이란인
모르핀
스파게티
473
스카프
이자성
669
##quency
당초문
백만장자
잭슨빌
826
785
than
고위험
##ontal
스프링스
ann
EPL
Bruce
트라이던트
우루무치
##ISE
1367
토니상
Online
리오네
1116
1349
Harvard
채워졌
Toy
개화당
김진표
도우며
Walker
##바흐체
##uther
NPB
Server
떠돌아
라바울
찾아와서
푸아송
Disco
block
카보닐
사와무라
분별기
승전국
베를리오즈
빠져나왔
에두아르도
##ictionary
Working
아쓰시
Deutsche
하숙집
필즈상
Professional
백선엽
이휘소
유허비
십계명
갈락토스
임권택
노른자
말나식
알곤킨
연거푸
희끄무레
Bit
Buck
Frid
IFC
JU
Kam
Kap
Pir
Sz
Vari
Yang
fa
ster
side
괴임
구과
급급
기러기
노지
당단백질
더한다
도해
라젤
라호르
록산
료스케
루테
린오
만델라
매케인
매켄지
몬드
몰레
무근
민무늬
백화
복시
본즈
산면
상민
소돔
양어
어떨
엄벌
엘론
역본
영선
예안
오온
오소리
왕대비
울주
위켄
윌킨스
윤여
음보
이체
이월
임전
자초
정왕
정범
정향
조폭
족자
주대
진태
천축
철산
초한
총구
치비
치노
콤바인
콩데
쾌활
타닌
타나카
텐진
토렌트
통교
티사
파쇄
패서
퓨마
핵합성
현경
협판
희토류
##iers
##mo
##di
##르지
##스테인
##YA
##키나
##싸여
##풍이
##저항
##브란트
##입국
##반지
##플링
##헤어
##꼭지
아이크
##asa
##스터스
##로스미스
주변인
##umin
출판업자
베이츠
FIS
807
##베이어
이승환
알아사드
에어로스미스
584
기울인
988
984
749
Seb
ICD
비상계
916
불가리아어
신사동
##away
833
정통주의
898
899
##ologies
오키타
우에하라
1463
광역버스
1054
##reek
수면제
보드게임
여겨졌으나
Andr
Anderson
arm
브래그
최저임금
신규식
베드타운
수색대
Inside
트래블
CRT
버마족
가가린
사쿠라기
프롤로그
콜레주
타케루
감찰관
은신군
사비니
맞물리
군량미
나탈리아
소피스트
루드비히
바타비아
Communication
낙인찍
로코코
부응교
도매상
성층권
Against
부총관
인내심
도쿠시마현
사향고양이
##가치세
야영지
항암제
황룡사
반음계
치뤄진
외조카
지모도
터무니없
Abbey
프로시저
##다닌다
KOREA
아함경
경각심
아틀란티스
카르발류
스테고사우루스
벨리사리우스
Cad
Father
Kal
LI
Nap
Tap
Um
Wol
bur
hor
rob
sin
tet
가논
개사
개금
골지
과녁
금부
끈기
나달
나훈
내어
네크로
네스토르
노치
누린
단경
던컨
데지
돌담
드이
람스
로텐
륙부
리페
마멸
무경
미타카
방효
법문
블린
빈첸
산계
성덕
센세
속행
수회
써니
암만
애석
앨릭스
양종
어림
엔시
역의
염군
영민
오원
와가
원왕
위팔
의흥
의정원
이곡
자어
적인
절구
절경
점핑
종리
쥐라
즈이
즉결
지눌
진두
취록
케식
테세
투바
파루
포서
학연
해악
험버
호연
화수
황지
##iat
##lon
##로만
##타가와
##인력
##gel
##사가
##티안
##다양
##중독
##피질
##투표
##마른
##커트
##래드
##XA
##히아
##반경
##펑크
##독서
##퀘스트
발매기
중앙군
##olis
고려청자
노동법
플레이아데스
Theatre
이동국
다이키
나이팅게일
##unes
요시나가
베르티
움직인
제조자
추진기
information
소리치
##uto
Alone
아우른
##aki
카르탕
체육공원
스피츠
도망칠
문장가
카라얀
암호문
가이아나
827
811
844
934
골든글러
NHN
003
연예대상
Blanc
개척지
1301
사격장
944
스톤월
대조영
Ground
Gramm
일으킨다는
호르스트
1257
아우구스타
보드카
통근자
동력원
1122
민영익
타르투
##ATH
1295
바닷속
BCI
거북선
돌격포
Grace
양육권
Berg
카사노
창의력
고쿠다카
McG
신상옥
이태리
##racle
프렌드
브레이킹
경무대
얼룩말
칭기즈칸
##로니무스
김광석
Player
군집단
앨버타주
사일로
끌어올려
문부성
도노반
이서우
마네토
희소성
스포트라이트
청량리역
대시보드
청천강
프랑켄슈타인
고다마
Victoria
알스톰
비앙카
이왕직
조속히
히에로니무스
술라웨시섬
##actylus
##바토레
##gramming
IoT
집성촌
포환던지기
아프리칸스
위켄드
센세이션
골든글러브
CIS
Gla
Hub
MU
MHC
RV
Rhe
VE
ir
간곡
간병
갈문왕
감퇴
갑부
골거리
과육
구결
극저
내키
눌려
단인
단초
등속
라마르
락지
루푸스
뤼스
리제
마슈
매제
매코
맹비
머서
명필
묘기
바스타
베셀
베너
산리
샤푸르
서량
선처
설하
성천
세마
소왕국
쇼타로
쉽사리
시강원
식산
악부
안악
압착
엑토르
연로
연막
우석
운주
울분
유디트
육경
인세이
재탈
적병
주쿄
중유
직례
천역
청개구리
최린
칠해져
카프리
테노
톱스타
통례
튀빙
파카
페시
펠프스
평년
항진
허경
혈맹
혜주
호신
회백색
휴머
히스티
##bro
##문드
##광수
##시왕도
##영희
##실로프
##가을
##맞이
##착오
##반야
##tium
시대상
국제통
레이디스
##amine
스페이드
지구력
마이즈루
산업은행
자동화
메이오
Chronic
요시코
##agu
경계인
##ulum
무기명
오스미
대구부
미사곡
이스파
측정치
시행착오
마사루
마사토시
불러야
Level
금속판
441
474
아스테
평양부
스코틀랜드인
468
직업훈련
노부야스
로드니
화물역
566
##oker
당국자
오프셋
에르제
대공비
크로아티아어
##izz
##ovich
##ARA
964
자국어
오버로드
블라우스
무한소
949
무너질
돌아갔으며
부속지
Orth
1383
CEP
미쳤으며
소지품
알라닌
MCU
1099
지장시왕도
1190
1347
Herbert
장례식장
혐오감
적군파
빌라르
중상주의
계시록
NEWS
PRO
김병로
지경연사
##티에로
홀리데이
Crew
벌어들이
초계기
학제간
살레르노
칸나바로
진중권
기노시타
폰티액
Experience
문선명
히우그란지
매국노
response
떠받치
뒤흔들
##파인더
스네이더르
동파키스탄
하이난섬
황선홍
그레코로만
몰트케
아발론
##ococcus
라이오넬
실롱스크
대광보국숭록대부
오르도비스기
극저온
재탈환
튀빙겐
히스티딘
Ay
File
JO
Jord
Pray
RR
Rising
Tony
bes
cross
dB
pan
way
감압
개론
건과
고세이
곤트
공짜
과인
구본
노을
노라고
논한
니다
다단
당조
뒤쥐
드높
라산
랍토르
로우스
룸메이트
리강
리요
린데
메트리
묵서
문치
방임
보들
부폰
부천군
붉은
사륜
산노
석경
스펀지
시다
시테
시독
식감
심시티
십니까
알약
알링턴
앙금
양일
양희
언뜻
엔히
용궁
우자
웅천
위닝
유훈
윤덕
응결
이금
장훈
장궁
장축
절삭
제실
젠도
지킴
착발
춤곡
컨스
탈카
태묘
톤즈
통관
통주
팀파니
페디
포미
피언
한없이
해녀
헨트
호동
호건
환온
훌리오
휘도
희천
##iation
##pes
##인동
##비둘기
##개비
##후무
##DL
##노래
##불탱
##여진
##코끼리
##가든
##네베
##쿠리
##림리
##반니
##풀로스
##딱지
##잠자리
사이안
##mut
##리스탄
##chus
그래핀
##iaz
오르막
유형원
전략가
주목적
에이치
이슬람주의
deg
종목별
블랙모어
Analysis
카르스트
플라밍고
방사형
##quis
748
744
956
##ivid
그라피
967
조차장
677
오버란트
모터헤드
되돌렸
695
1101
쓰였으나
아가타
1365
바흐람
PSR
이복형제
Android
출구조사
##ennis
##OME
Motion
토리당
사육제
갈릴리
기다릴
김수현
요동성
동정녀
Independent
잡혀가
보헤미안
체르니
이세돌
고토쿠
이뤄졌으며
IND
Strong
전무후무
샤프하우젠
캐리비안
응급실
Volume
죽여야
Market
사산조
KAI
외삼문
management
Journey
문수보살
매드맨
##그란데
선풍기
이레네
value
Physics
글라루스
소이탄
이과인
Heroes
집산지
Congress
서프라이즈
Pepper
베사라비아
한독당
최서단
긴팔원숭이
도카치
코임브라
맹비난
엔히크
Ford
GG
Gay
IUP
KI
Kur
Lion
Ryan
flo
list
max
가회
각의
간달프
강지
강속
개머리
검독수리
겸한다
고메
곡산
공복
공병대
관령
괴이
구울
귀화
꾸러미
납골
뇌파
뇌염
닷지
던가
덜레스
도가니
독식
디파
라리아
레더
로리스
롤스로
류노스케
리진
마작
만안
맥코
메가와
문형
물거
발할라
방어진
배란
백미
백낙
베누
부포
북지
불설
불충분
빵집
상현
서황
세움
송덕
쇄빙
수드
수묵
순번
스치
시단
신갈
아원
안마당
앙가
여미
영희
오삼
욕장
우스키
위압
육해군
윤호
인디오
장발
재창
저스트
접지
제신
조전
조령
주물
중농
증결
진루
징세
참칭
창세
천군
체호프
초퍼
초코
초두
추자
축합
크로나
키오
터파
테그라
패디
펜슬
평결
플록
피혁
한동
한해살이풀
헤수스
헬리오
호명
홀츠
화투
황단
후마
##won
##mel
##dam
##으리
##트럭
##영역
##레티
##구려
##테쿠스
##피테쿠스
##민지
##공로
##나루
##렌즈
##브뤼
##브라이트
##행기
##케르트
##블루
대한독립
일부다
이용구
역사박물관
축구공
레이시온
##ratic
##eds
전국연합
##진다는
가리온
고대인
Staff
안정복
세워야
부인과
경영인
고속공로
은행원
아카바
연극인
메시나
##ategy
스크루
이자벨
633
##quin
594
8500
678
고기잡이
933
가와바타
타운젠드
##레인저
수호천사
카스토르
들어서야
발렌티니
시게모리
증권사
몬테레이
플레임
블라디미
1432
1030
1387
1355
환상곡
할리파
그랑제
여의치
1291
페어뱅
ART
Asp
돌격소총
고쳐서
science
후진타오
김현정
카미유
도키마사
김지태
청룡사
Front
사하구
오구라
김학규
associ
안상수
##야르스크
래드클리프
유례없
Thriller
기로소
Visual
한명숙
콘도티에로
Africa
##embly
피보험자
Cambridge
##xiety
크라스노야르스크
Bundes
미뉴에트
아이다호주
무증상
강속구
롤스로이스
물거품
오삼계
AHL
Bull
Cos
Cost
Dra
MBS
NES
PU
Pit
Pow
Vit
gene
land
mill
mode
sep
vo
강군
격년
경포
경빈
고여
곱슬
교살
교분
구월
그르노
네거리
노베
능원
니모
닝샤
다문
다변
달링
담합
답했
데릴
도재
도그
도위
돈대
라노스
령기
리원
리즐
매병
맥과이어
모턴
모기지
목호
바렌
박흥
뱀장어
북행
블리스
서국
선린
선다발
선글라스
소타
소청
송체
순순
스퀴
스드래곤
식음
식중독
신치
쌀밥
아형
어윈
에오
에브라
오간
와룡
용마
운운
월인
이배
임마
입식
장용
조관
종편
주크
준가
중궁
창동
천박
첼레스
추국
축재
축산물
취체역
츠치
치였
카버
켄타우로스
키플링
터트
턴테이
토티
트롯
페네르
포석
하군
하저
핸슨
험자
호베르투
휘어진
흉작
흥청
##울리
##타미
##오른
##원동
##루빈
##체트
##성단
##코늄
##유석
##데로
##석희
##근수
##KI
##조노
##셰핑
##랴빈
##쓰네
##협상
##첸코
##arian
##tial
##alog
로마냐
라이엇
시스티나
타이슨
##idel
##igan
theorem
효과음
메이시스
요시무라
훈련도감
inhib
##imal
아카리
##베이라
무장봉기
단일팀
##ourt
공포심
창조성
##다리야
헨리에타
브레니
헤르미온
기도회
1206
레오네
688
##quest
857
ISP
823
Scar
978
977
004
전주부
사기업
찬성사
941
##ahl
여우상
윤치왕
대행사
알렉산더르
1281
스러우
리오그란데
스파르타쿠스
패전국
energy
히라타
1290
터치스크린
국유지
Command
주창자
조현우
꾸며져
울루그
CVT
리지웨이
각별히
용문사
본따서
완산구
추수감사
Television
북두칠성
액면가
박은식
막달레나
부석사
승합차
Paradise
Texas
메자닌
대세지보살
Nguy
그르노블
턴테이블
헤르미온느
추수감사절
Daily
Fuck
Gri
HQ
RN
Source
Tang
UHF
VOCA
WF
ill
nom
감광
감방
강약
객가
견혹
고담
공력
국선
국새
기착
내신
내벽
노중
논제
단백
담백
델레
동장
동신
동여
동격
뒤스부르크
드류
드나드
라거나
랩터
롤랑
롤랜드
맥박
멜라니
몽크
무교
묶였
미시아
박홍
박람
받드
발루치
비류
상드
성불
성어
송석
스판
심전
쓰네
알사
야부
양세
언사
에스코
영회
옆집
오방
와리오
와타리
와타라
왕공
우젠
웰빙
위메이드
융단
의암
자낭
잡다
재흥
저버리
전관
접이식
주빌리
중배엽
지운
진강
질런
천제
체칠리아
축생
충치
취량
카심
케렌
코티
코타로
쿠우
쿠란
텔루
토러스
하등
핵폭발
헬리오스
현덕
호위대
황강
효창
##ril
##los
##일레
##야자
##uj
##내동
##zomys
##부트
##회암
##지뉴
##키엘
##밀라
##fried
##벨로
##홍철
##계통
##와타
##브이
##틀란드
##툴라
##붕어
##oro
대학가
사람됨
조선공
##레이만
개발비
##etti
반대표
세포핵
기타카미
주변기기
인기상
시민운동
메이플라워
##iah
##ceae
Chan
상호군
찾아간
인사이트
##uta
건너뛰
Marine
마쓰야
마크로스
빠져서
심리전
브레슬라우
브루스터
코르셋
아동기
보건소
##endo
573
받아들여진
복수심
##ived
YouT
안토네스쿠
밀려난
931
빌리루빈
Myotis
시계탑
797
##anny
스타디온
마일즈
##acher
헤드램프
Orange
이재용
민속놀이
1277
1366
1215
##ESCO
좌절감
글씨체
1230
시칠리아섬
Plas
상공부
미라주
살라흐
야전포
이의방
ANSI
선봉대
매리언
조병창
가우크
오클라호마시티
##actory
이성질화
리키니우스
하수도
금산사
조제핀
위태천
BBK
실베스터
상투메
데메테르
쿠사나기
Butter
셰이더
유재하
Raymond
Johannes
어이없
Circ
식년시
갈레노스
기행문
팔로군
속초시
면세점
봉고레
##opterus
아스파라
매클레인
Adventure
아르투로
쓸데없
##노브고로드
SETI
맥밀런
위만조선
초강대국
레퀴엠
대약진
나훈아
고메즈
질런홀
##일레븐
DH
Dave
DMC
Fan
Gate
Hope
Ps
Ran
hard
other
py
가경제
간음
감별
개중
경애
관조
구개
극지
급약
기유
길재
난로
난처
내향
노소
노실
당해서
대오
대범
더부
덴메이
델로
도데
드워프
라스카
랜턴
마황
망언
멜빌
못가
무드
무리지
미대
밀과
밀반
배틀러
범어
변비
본고
본영
본심
봉제
부축
북평
분방
비다
사옹
삼랑
셀리
손주
송화
수와
수갑
수효
수의사
쉬우며
암소
어중
엘더
연줄
영농
오톤
외사촌
유소
유제프
윤필
정심
제본
조두
주어질
중식
지서
지쇼
지동설
진물
질린
찰턴
철령
최문
퀴니
퀴라
탐관
텐센트
파코
패리
팽나무
포은
표충사
풀뿌리
풍광
프릭
피체
형산
힘겨운
##vy
##EAN
##제네
##이삭
##트마
##바르트
##니차
##소디
##결혼
##17
##부기
##페타민
##구락부
##메시
##DNA
##불이행
##재그
##주나
##습기
##새김
##갈리
##넬로
##음속
##슈탈
##앗간
##mul
아들러
레이버
세포독성
동일인
치료비
부상병
606
제안서
준비금
##agne
##imo
##NAL
여행지
이주노
기자실
아시가라
증거인
플로지스
가로등
모리야마
Deb
752
Around
517
노스요크
알아듣
Shock
방사상
보스포루스
프라다
기상대
재배치
##inding
873
골든디스크
기부자
696
694
대가야
오키나
쓰러진다
들여놓
히스테리
1384
1285
이종찬
1219
우정국
Forest
1236
북극곰
1323
Travel
1346
끌어들인
카롤리
신한청년
벨트란
구와나
피치포크
김현철
페로몬
Strange
수필집
신지학
Merc
Philipp
코사인
지그재그
나사렛
어부지리
표제어
윤곽선
청했으나
이가라시
아말감
노팅힐
Flying
미뤄졌
코칭스태프
Animal
안젤라
라인란트팔츠
Stanley
하한선
Jonathan
##화기금
##ophilus
앤티가
포르모소
최시형
새러토가
관입암체
빈첸초
국제통화기금
플로지스톤
신한청년당
Au
AST
Ci
Cart
Fur
Mbps
Pos
PBS
PET
Try
cycle
don
tree
vis
가천
가라스
간국
갑석
겹친다
고동
고다드
국의
급체
김숙
나보
내이
네요
뉴타입
단핵
당첨
덴트
드보
라살
랑가
론알프
마스트리
면해
묘향
무훈
무악
밑바탕
바키
박모
버치
별빛
본청
부크
부턴
비터
비셀
산당
샤리프
서전
석과
세니
소류
소림
손기
수혹
슈와
스즈카
신불
신실
신풍
신찬
안디
앵라
어플
에파
엘란
역장
예찬
옥천사
옹진
외기
외선
원삼
윌킨슨
유안
유채
이파리
정론
조대
최형
최항
카르트
큐리
통덕
특약
티야
티푸스
파렐
폴란
플릿
해칠
호령
홍살
환급
휘감
힐라
힘겹
##sel
##brid
##oen
##gon
##기무
##론산
##PD
##판사
##zar
##도서관
##아떨
##85
##레츠
##구라
##VS
##승차
##코마
##모닝
##커키
##위프
##속인
##분방
##얼기
대한체육
아이코
선거전
##oms
경찰력
사상구
##igen
정신대
##리오네
방어구
신경얼기
중간체
Alm
다카요시
플로린
불가분
생겨날
원주율
플라시
아사마
불상사
867
변환기
페이서
크리드
갈색빛
736
593
이치고
콘스탄티우스
969
포스팅
주력군
829
##타이거
APS
음성학
디아루가
795
##anner
Extra
prot
PrEP
레지나
기름진
최상층
배신감
##ETF
금성대군
사리원
하마드
생겨났으며
용이성
동아일보사
사토루
CNG
Policy
MBN
관구검
힘썼으며
##uration
접합부
사치품
##대장공주
사비성
관성계
고려사절요
RTL
아델라이드
Northern
##로트론
정중부
Intelligence
에나멜
프록시
앨버커키
사가미하라
Everybody
목축업
히포크라테스
특진관
species
급유기
뒤떨어지
Attack
조프루아
감미료
##yclop
뒤바뀌
Words
Boston
##나트륨
합자회사
문민정부
알츠하이머병
경조윤
오르페우스
오호츠크해
대방광불화엄경
카르나타카
혼천의
black
도스토스키
알메리아
내어주
마스트리흐트
통덕랑
대한체육회
Ach
Crow
HH
Hang
IH
JB
NOR
RH
Rab
WB
fis
full
los
pp
word
가후
가좌
각층
간여
감호
감응
게바라
겐타
계자
계집
고순
고된
공릉
광희
교고쿠
구덕
권지
근적외선
기른
뇌실
눌렀
대낮
대극장
도예
동식
두레
디니
라츠
람세스
랩소디
마냥
마흔
망월
맥헤
명계
몽블랑
무극
발린
백골
법화
법가
보네
부등
비두
살바토레
서니
선창
세고
세너
센카쿠
속사
송달
수저
숨길
신이치로
쌍곡선
아순
악파
엄금
엄선
에사
엔투스
염장
올렉
외톨
원희
위작
윌크스
융해
은나라
인습
일등
임병
입김
자공
장장
장송
정군
좌군
줄리오
중항
챔버스
천칭
청교
첼라
코스터
타림
탐침
태영
티라
파보
파이스
파가니
파미르
파비우스
편법
푸둥
하만
핵반응
핸들러
향촌
허황
홍인
홍원
환태평양
황가
##vest
##호른
##치레
##역사
##LL
##마킹
##플랜
##덩어리
##넘기
인구학
##ici
자유분방
지구전
보여서
인물화
나이저
보내온
##teen
가리켰
경험론
통일로
요시나리
프레리
합류점
기회주의
크로니클
에이프
소수파
그려서
Third
신앙인
브리태
전화선
계통학
미니밴
스탠딩
페이스트리
황금빛
인쇄기
764
852
가이다
마주친
오이겐
안드로겐
재임명
Clos
클리퍼드
쇠퇴기
리치몬드
##ISS
민속자료
아크레
사라졌으며
미분기
카트먼
그로세
벤치마킹
##헤이라
Yours
Kevin
##osaur
메스꺼
OpenGL
Metro
Evil
마요라나
배지느러미
##yrus
코린트
최장기
Electron
grand
이호준
들어선다
again
flu
Wright
미혼모
셀룰러
DLL
Ferdin
빠져나간다
정다면체
성황리
외인부대
접어든
트롤리버스
Observ
디프테리아
푸에블로
문익환
한센병
Dipl
Shadow
Soccer
남남서
베렌가리오
비상계엄
순순히
YouTube
세너터스
Cris
FRS
Has
LB
NV
OBS
PMC
Rank
SEC
Use
city
hp
ori
감식
겐코
경회
고준
공갈
구수
구좌
나카이
남남동
너지
노어
뇌종양
누른
당고
독방
디치
디키
디종
라네
라구나
렀는데
무난히
미하이
버넷
복자
빗추
사들인
상디
송기
수코타이
술자리
슈니
시베
실비오
안우
알부
애로
앵거스
억눌
엉성
에카
에조치
엘리아
영면
오판
왕준
원위
위각
일동
자태
재협상
절의
점재
정역학
주네
즈시
진장
진희
천한
치전
침울
칭제
카론
카논
컴퍼스
쿠노
크릴
키친
토치카
통첩
티키
파흐
폭죽
푸치
하물
화서
휴렛
##CR
##cent
##cop
##kn
##베린
##에크
##스톡
##노사
##철호
##용량
##염소
##예르
##쿠초
##혜원
##온도
##센드
##푸레
이나리
정치력
문화어
타이토
##chin
##한다는
프리크
스트래
애니플러스
사무원
내려야
요시이에
바르다
병원장
Alc
마사시게
##illo
집행자
Left
이민족
플라토
김일엽
장수풍이
탐사대
기호학
872
결의문
Sche
848
경비병
##ahr
Adobe
799
only
마일리지
김종수
program
내장재
시달린
필름스
1251
유성음
1426
스틸리코
벨라루스인
Going
1218
추모비
1264
마산회원
모았으며
제곱수
미생물학
쌍둥이자리
##로이카
구스노키
미하일로비치
경호실
Joint
Trip
스루가
수하르토
외과의사
소아마비
라리사
유우키
골절상
blue
바쿠닌
유창혁
cortex
북마리아나
Ultra
마자랭
코디네이터
##스테네스
minor
불신임안
다나베
스스무
바주카
자화상
황토색
Audio
##프라데시주
Welcome
무연탄
흑룡강
Francesco
사그라들
프랙탈
philosoph
시맨틱
니즈니노브고로드
Learning
Bag
Bio
Eastern
Git
IETF
Jak
Pel
QR
Sold
Soph
Ted
Tiger
Ut
UX
Und
VGA
Wit
hem
its
lat
sac
sty
간하
갈렸
결연
경문
고글
고야마
고가루
교련
구만
구개음
균사
근막
긴즈버그
김환
김활
났으나
내민
녹두
들으면서
들국화
랑드
렌치
루갈
뤼크
린덴
마드라
맥그리
메갈로
모도
모린
물든
민어
바삭
박치기
버무
변별
보제
비겁
상벌
서덜랜드
송창
수풀
순한
신검
아궁
안소니
안첼로
애견
연표
오에스
유건
유업
육각
윤태
이류
장완
재로
저고
적산
정충
제설
찍히
칼리오
캠코더
코튼
크노
클라스
타조
탄저
토핑
파행
퍼듀
편력
폐광
품류
피낭
피니언
혜원
호보
황홀
후사르
휘두
##iy
##var
##tures
##pace
##빌트
##미넨
##루루
##사실
##사슴
##티스타
##을새김
##니케
##성동
##구간
##fish
##린드
##린더
##경연사
##게리
##모필
##나토
##케나
##좌석
##칠라
##칠란트
##orus
##스트리나
라이노
1009
대상물
항공자위대
3100
기독론
##ocation
Chief
요시시게
발달시키
베르첼리
서부극
##emy
야마가
브라질인
촬영장
올리베이라
둘러져
전사인자
신호탄
소장파
##bers
꼬리표
소년단
헤이조
중부고속도로
알아낸다
노부요시
미터법
유기농
659
1207
포트란
스토브
851
웨이보
821
##athy
849
타운센드
Bloom
Phill
크루저
놀라울
1411
사사로운
무라사키
화살촉
원반던지기
ITX
북극점
1329
1332
1294
CCM
오세르
이인산
나르시
몰리브
체르멜로
수확물
여래상
팔레스트리나
AGM
현행법
heart
인디애나폴리스
MBTA
나아간다
이의민
Swing
랴오둥
아쿠타가와
구부러지
도이칠란트
코모도
Explor
근위병
Partners
석불입상
방호순양함
벗겨지
스트라우스
##atherine
키리바시
원한다고
궁내청
MWt
최용신
##사회주의
미로슬라프
크세노
##ariable
북제주군
박인덕
박주영
다호메이
Australian
비합법
코요테
신유박해
정족수
의창구
만유인력
밴더빌트
이냐시오
WGSN
뷔르츠부르크
설인귀
예레미야
Atlantic
데시데리우스
그로테스크
마드라사
안첼로티
BU
Differ
FTP
Gent
GTO
HF
Kor
Lay
Map
MIL
Sony
Sugar
Tax
dol
pseud
가물
간천
겔리
과르디
관비
군령
그은
극치
글쇠
나탄
내다
내실
내습
네바
능인
대무
대말
대졸
대런
도법
디엔
로블
뤼네
류트
마를
마속
만조
맞아떨
목구멍
무세
문짝
민비
밀모자
박학
밤나무
방시
방실
방종
배석
버너
번방
벤담
봉림
부디
부주의
불거진
비금속
비바람
빈지
빗나가
빗자루
서출
선묘
세태
쉬페르
슈엘
신월
쌍곡
쓰루미
아그라
악동
양팔
어번
염류
옆줄
오금
옥토
완곡
완제품
이면체
인광
인판
입스
자토
장음
적지
전석
점착
접힌
조파
중과
진체
차임
참족
척신
초자
최준
층수
친킴
칠보
칠기
카판
카란
카발라
케노
코페
코플
코바야시
투모
판형
폴타바
표음
프타
하브
하슬리
하치오
한남동
향시
호지스
화파
황신
휘석
휴이
흑석
흥성
히미
##CD
##cin
##빌로
##야나
##우레
##체리
##니커
##관절
##마츠
##워터
##행상
##순위
##좌상
##헤딘
경기전
정치사상
방송학
##ils
데이턴
아르센
증가세
사랑채
중화학
Stri
Challen
투표용지
바르바라
파이버
신경질
해안경비
##ellite
구축전차
집행관
고문단
해양학
블루아
591
암호학
수영구
979
네이밍
잠수부
루마니아인
블라스터
시나위
주소지
크라우스
798
염색질
레지던트
모래시계
문인협회
1287
평행봉
1095
간호학
Steven
이단자
phot
섹스투스
뉴클레오티드
공손연
중서령
안산선
카테리나
경희궁
Regional
아메드
주저앉
엇갈렸
조석력
하후돈
계룡시
후루타
그람시
현수교
테베레
동백나무
세실리아
김석주
민자당
만수르
수미산
부끄러움
퍼트넘
Industrial
ICTY
비가역
##unnel
Clark
##auty
Pedro
햄프셔
완두콩
Gabriel
논공행상
제초제
스사노
뇌척수액
페네르바흐체
어플리케이션
김활란
하치오지
해안경비대
AES
AOL
BRT
Dictionary
Lag
OO
Ost
WIN
occ
pen
가법
간세포
감복
거금
고했
고잔
공후
구트
궤조
규암
금요
기신
나자르
남상
남가
뉴에
다세포
단전
당직자
데우
돌린다
땅굴
람베르토
로한
로린
리니지
릴레
릿지
막후
만자
매물
매형
박범
박건
베로
벨마레
별표
본이
봉오리
봉오동
부세
북적
붕대
브리오
비빈
삼형제
상훈
석인
성게
속히
순안
슈바인
시노부
신가
심형
아류
암투
압사
애슈
얀센
에츠
역외
예순
예년
와프
완급
왕유
우면
인세
인망
일급
자웅
장일
장암
장목
저어
저력
전교회
정품
제언
주작
중하
증액
지타
지게
지의금부사
차석
천불
청순
최지
취합
친칠라
칭할
카말라
커머스
토브
투폴
파토
페우스
페타르
페헤이라
포아
폭사
푸슈
하북면
헤쳐
헤어져
호타
호각
회골
효왕
훈독
흉갑
##water
##aDOS
##hl
##ng
##nie
##사무
##티틀란
##내렸
##무즈
##하오
##약자
##돌기
##갈비
##찰음
##찬석
##랍니다
##law
아이보리
기준치
관리사
경찰차
##ador
스트릿
예정일
마르탱
마르가
Instr
무기물
찾아낸다
##imi
459
가로세
시각화
Leo
소년기
마침표
요한슨
이기주의
도망자
아사드
클레멘트
Sep
##izing
773
주최자
조카마치
하인즈
내셔널리즘
조지아어
834
소화관
드리프트
HDTV
진동자
놓여졌
UNESCO
이재학
아리스타
1372
1020
스러울
성숙도
Forum
들어왔으며
Quad
관람석
신중히
Hermann
해적판
Canadian
갈리치아
##으로써
GNP
고쿠시
비엔티안
김창완
떠올렸
이장하
Joy
불량배
프레이야
Emb
다우닝
등기부
하야테
치우친
숙련도
Salv
되살아
절충장군
Khan
후미오
에페소스
하라다
올라갈수록
Memory
GLaDOS
##esterday
사구체
노년층
호라즘
살균제
Defense
길가메시
정일권
오퍼레이션
다원주의
조산대
##ythm
오코넬
Honor
일깨우
기우제
OGLE
윤용태
연제구
Protection
프로코피예프
견갑골
Architecture
machine
풍월주
##연산자
이스파한
케렌스키
탐관오리
마산회원구
투폴레프
Bahn
Cou
Gor
Gur
Lis
Ng
PFC
Sonic
Wer
more
night
ss
some
zone
간노
감세
감경
개학
고간
광채
구봉
구태
권정
근기
근지
근엄
금년
급선
긍지
기국
길들이
끝점
나잇
나나오
난공
남국
넬라
녹사
누마루
대백
덴엔
독설
동철
두둔
라텐
라브라
랄라
래시
랭글리
레메
레하
리신
말름
망이
매설
맹방
먼즈
모우
몽땅
무차
무스카
미간
미할
바랍니다
밝힘
방자
변계
병졸
볼루
불식
불독
붙임
빙의
살수
서랍
석남
숙위
술사
식장
신페인
아하
아스티
알하이
액틴
앨빈
양덕
양근
에번
와츠
외몽골
요스케
요오드
우심
입맞춤
잇몸
장해
재세례
정홍
제츠
제나
주구
지는
철공
체절
초평면
최수
축축
취수
츠네
치제
치약
커세어
크랙
키위
타빈
타르타
탈착
턱없이
툴리
틀어지
티롤
파즈
파두
파혼
페치
플램
하륜
함길도
행패
향미
험프
호관
홍유
홍조류
황통
후타바
##die
##보였
##상제
##장면
##기계
##베어
##우탄
##스필드
##PM
##광록대부
##치티틀란
##아트
##비용
##개자리
##무열왕
##페로
##DX
##봉오리
##재지
##그린
##쿨레스
##용성
##저버
##조화
##훈대부
##벤투라
##덜미
##inter
##tile
##tique
이상민
알려준
구성요건
관련지
라이먼
##asia
단체교섭
##ulu
은행업
근무자
특수강
입학생
지상주의
출발지
Ther
나와야
덴마크인
Neo
창조론
인공호흡
Beh
Pros
728
스탠턴
989
피부병
859
프라이팬
##대부인
화이트헤드
태종무열왕
반사경
946
##cker
봉기군
크라위프
chain
비하르
압박감
광산업
바이올렛
테르모필
파울라
트라이글리세
퍼시벌
살펴본
민속학
사이클로트론
##othy
1125
가미노
1268
##ATE
1335
1343
번뇌장
Agric
달했으며
Guide
불러일으킨
미시시피강
쓰레기통
오라비
국소환
위그너
어나더
무르시
트렌트
이규보
신입생
가우디
사쿠마
이터널
기와집
세븐일레븐
슈고다이
계엄군
꾸며진
페인팅
슬리브
알아차린
넘버원
오랑우탄
총살형
히코네
다쿠미
갑상샘
김시진
요아킴
최경환
Zeit
스이코
베르니니
virus
거류지
거류민
뜻밖에
character
마수드
백남준
길림성
요요기
칼리닌그라드
Eugene
위저드
김조순
프러시아
Administration
시금치
그라우덴주
국립중앙도서관
테노치티틀란
묘향산
알하이삼
재세례파
트라이글리세라이드
DES
Him
Hate
Mw
PN
Pent
Rio
WBS
Were
Wake
bu
graph
press
경세
경강
곡사
골랐
귀천
그달
금니
김립
나태
난장
난다고
납언
낮춘
녹권
누트
누를
다지마
닥쳤
담비
대란
대총통
도레미
두품
뒷문
들일
라비아
레퍼런스
료타
마아
마적
망령
맥퍼슨
메지
멸문
명한다
몬족
물소
발군
백발
법성
본다는
부회
부나
부침
분대장
살코
색은
샤피
소무
소키
소냐
손괴
송산
수덕사
스탑
실비
심할
애런
에아
에리코
염도
와쿠
외골격
요우
요노
우보
원금
월정사
위청
윈터스
유인물
이일
이시아
일장기
자타
장모음
전천후
조역
주강
줄리어스
지민
지자기
천동
청빈
첼리스트
추동
캘린더
콤소
쿠팩스
쿨러
탈러
태형
테인
특선
팬서
표도
피습
핑둥
하모
한와
항량
행크스
헤이지
혈투
호문
홀어머니
황록색
효무제
휘어지
휴리스
##ming
##리너스
##kes
##바키
##스킹
##아라
##시네
##회계
##페투스
##텐블로
##불락
##불린
##투합
##그렌
##그리스
##태스킹
##데텐
##려는
##합니다
##갑사
##입구역
##앵무
##몰라
다시마
아이티
방송망
라이언스
스타쉽
이어폰
아르가우
그래머
가리킨
FIA
하이다
하이에크
##thy
불교도
##imb
슈퍼카
특수부대
다카야
다카오카
다카노부
인디라
가로쓰기
보조정리
소년원
##anta
##SAR
rev
##ohn
881
스프레
에르하르트
롯데마트
##iva
니시키
사마라
853
776
더블리너스
와서야
938
소멸시효
1014
경제학상
데스테
942
832
마스터플랜
891
크라머
멀티태스킹
코트니
윤치소
재무관
급진주의
1254
##mail
1354
사사로이
가져왔으며
하우프
아바나
잡아당기
부도심
심의겸
떨어뜨린
1296
페어팩스
배틀로
사가라
##tives
가까워질
access
이세사키
##AFF
CROW
일러스트레이션
정경부인
ESP
카탈루냐어
시노다
검정고시
Ministry
Studios
부추겨
white
부풀리
데미우르
record
마취제
cells
원생동물
슈퍼스타즈
가져와서
상파울루주
요세프
버몬트주
채식주의자
흘러들어
Terminal
고경명
Moment
Vincent
##cription
피피노
지롱드파
호비뉴
뇌진탕
사르마티아
링구아
세바스티앙
IUPAC
콤소몰
휴리스틱
데미우르고스
Bh
Bass
GCC
Hou
HOT
KAD
Mort
MRT
RK
Sis
VOD
가액
갈루스
격정
경증
경품
곤양
구아르
권순
기토
김계
나니아
남천
낭자
내금
뇌우
다코
다공
덕진구
데나
독직
뒤져
뒷좌석
류이치
리예
막료
멜빈
모살
모젤
목도리
민호
민공
발로
발호
발파
베코
보습
볼라드
북풍
불사르
브르노
브라이스
삼론
삼화
색법
샤라
석간
성학
소젠
속격
속사포
수플
스라
시싱
쌍방향
쓰임새
아히
안대
안진
앤틀
약방
여주군
연년
예탈
옥계
온다고
와코
왕대
우티
원령
위중
유양
유혁
유겐
윤달
자다르
전간
전몰
점술
종계
중풍
진인
진창
집박쥐
차로
착생
참위
참언
창수
최흥
층층
칼튼
테페
통천
투이
파하
팔마스
팽이
퍼진다
표문
표백
풍운
플라이트
피연산자
하심
하교
한승
할미
햄튼
현가
호마
활엽
흉배
흑운모
##포항
##식민지
##도메
##도코이
##화이
##다우
##무쌍
##전동
##DO
##피코
##국단
##마키
##적봉
##히르
##매질
##eral
##eros
##리아키
##enia
##arius
로마서
##olophus
국민군
##스터드
아르페지오
##odox
연기대상
이라든지
출판인
Stay
투표인
하이에나
마리노스
만화상
3300
카이엔
대응책
장식물
카르틀리
진다면
##rant
마쓰라
##ianus
##오프라야
아름다웠
남서아프리카
프라모델
Province
##mania
##ibility
981
김정숙
USC
958
##ives
그라쿠스
671
디아도코이
크루제이
마루뼈
구로사와
토르프
트레이서
##INY
##문학상
지름길
오타와
1216
총사직
통행금지
일조량
고장나
국무총리실
연쇄상
역명판
SDRAM
phosph
트로이군
워터게이트
유진오
Georges
무작정
외래종
Braun
Captain
Jump
용해도
여호수아
나빠져
이력서
Buff
페더러
##알라닌
석불좌상
##토크롬
타쿠야
agent
Lawrence
##archy
델라웨어주
후베이성
열등감
칸타브리아
아이유브
Circle
우키요
탈영병
부끄러워
Mystery
알렉산드로비치
페닐알라닌
카산드로스
마이트너
최창익
사에키
상완골
양로원
야쓰시
Metropolitan
왕징웨이
좌명공신
임마누엘
급체포
앤틀러스
예탈란드
크루제이루
Boss
Fellow
HIP
Liter
Ral
Sph
WTA
XT
center
dog
hal
가현
가에타
갑종
겁쟁이
고한
고덕
고란
구유
금구
기른다
김서
김귀
내배엽
넘긴다
누크
다바
다메
다육
량강도
료코
루차
루블린
맞바
맥거
명덕
몰이
바짝
반중
배율
백강
백토
법과
베틀
별정
부순
불가리
비푸리
빙기
사두
삼세
상평
서툴
성묘
수봉
슬레이
시거
시자
실지
아득
액슬
에포
여량
연차
영채
옛부터
옥류
외접원
요이치
원숙
원봉
유광
유숙
이큐
일연
임페라
장징
전중
전증
정찬
종만
즐라
지맥
질질
차저
채층
천차
체념
총제
코키
쿨름
크레이터
태웠
테사
파당
팔관
페러
평원군
푸라나
하현
하멜
핵물
현아
현왕
혈육
호광
혼조
홍정
화개
화웨이
황재
흥덕왕
힐다
##제라이스
##상부르
##타워
##니온
##신수
##카나
##밀리아
##VER
##fly
##불도
##경장
##즈만
##절사
##나이트
##태저
##가면
##균류
##담보
##빙기
##뢰즈
일본제
지방세
교육대
유지비
반대론
마이오세
건설비
##idal
다이크
전자전
##teg
##스타민
영어사전
멤버십
포르피린
유전병
식민화
사진술
세워질
바다사자
등록증
유대감
인디고
강제력
빠르기
Ready
Relation
불가사리
주교구
출생률
보조군
플라미니
에피네프린
웨스트포인트
Shin
모여든
수소문
1205
Loving
868
두려운
596
리버사이드
도요다
917
보살도
나온다고
오이시
적응력
브로디
발렌틴
토벌대
아도니스
호남고속
삼각산
번식지
몰려오
1126
1174
채무불이행
페어차일드
Jew
플랜태저
미즈호
연꽃잎
가려진
러시안
미들랜드
신축성
sequ
이겨야
##아일랜드주
김창룡
사적비
전격전
태백선
삼중대광
Revol
Technical
길러졌
김인식
화승총
Autom
대항해시대
헤엄쳐
합장묘
갑오경장
베아트리
오이타현
Domin
양부모
간척지
Circus
꺼려했
브라만교
Through
떠오른다
green
오쓰카
기예르모
헬베티
위화감
만다라
돌방무덤
서유기
어획량
##중심설
비티니아
극진히
온돌방
춘분점
미나스제라이스
갑술환국
Pretty
에스키모
알가르브
알칸타라
route
구생기
메스꺼움
임페라토르
플랜태저넷
CX
Crown
Drop
GK
Gas
GMP
LV
Mond
PW
Pure
Syd
ZF
cere
emp
song
각개
각질
간조
강창
강권
거취
게이스
고바
고목
고슈
광계
광독
교문
구텐베르크
귀빈
귀스타
금남
금령
기무
김국
꽃다발
네마
노릴
놀러
니사
다보
다말
달라스
당헌
대농
도날드
둔황
땅딸
레카
뤼트
마방진
머플러
명해
무구
무허가
문지기
바버
배비지
번사이드
변변
별법
본죄
비산
상암동
서대전
세친
수긍
스스카
스래시
신족
싸구려
쌍벽
알펜
에클스
영력
오룡
오클리
외판
요식
운다
원평
윌트
인바
입산
입부
자넷
잔틴
재클린
점철
줄타기
중론
중선
중처
총본
코츠
코란
타르트
탄강
탈장
터트리
테미
토킹
팀버
펑더
페일
학령
향연
현측
홋타
홍봉
화환
휴런
##culus
##gio
##바움
##광대
##결연
##다누스
##선인
##테라
##자영
##정성
##DER
##공히
##토판
##윤리
##던져
##따구리
##틸리스
##놀음
##enzo
##aris
이상훈
아이카
국제금융
바이어스
수도관
##eda
##osus
이동의
나오스케
##ads
공산품
가리야
사무장
Stu
버스커
요시하루
하이메
마리노
##aye
##sta
유니크
development
##ighter
합의체
세이난
Anto
마리아노
상품권
##endi
##STER
공정성
데이비드슨
니시다
##민주주의
761
779
819
참고래
##ERO
786
무한궤도
Schm
정통성
Tech
Tears
유배형
크라우
하버마스
Carn
HDR
목격담
자매결연
테르니
##erner
태자비
라마르크
연령군
히스토리
히스파니
실용음악
1086
Trouble
보충역
계수기
가벼워
몰려와
##ancial
콜라겐
1331
슬로바키아어
합창곡
라파스
합스부르크가
바이오매스
나스닥
동국통감
조수미
구와타
프론탈
재편집
추첨식
트렌턴
충렬사
브랜든
RSS
리베로
피사체
무자헤딘
의용병
who
Early
방공호
동창회
index
RCS
에리다누스
유구르타
##amilton
설리반
팔려나갔
Billy
열람실
##ufact
아로요
true
Hills
도나우강
페티트
Murder
덩굴무늬
진성여왕
바예지드
IBK
어려우나
명실공히
LLC
트립토판
타치바나
의기투합
아리우스파
Gonz
아스파르트
구당서
Laboratory
통기타
타르타로스
귀스타브
펑더화이
히스파니올라
Bod
BMP
BANG
Cub
EQ
Even
Mis
PAR
PNG
Sym
XIII
Zen
asp
ba
cole
has
가키
가습기
고척
광궤
구메
국위
국난
김춘
난전
네스트
다툰
다연장
당서
데펜
데데킨트
들쥐
등석
런드
레마
롤스
리퍼스
매이
맥퀸
맨스필드
머시
머슴
메그
명언
모루
무러
무라트
문초
물동
민태
발한
배알
백포도주
버클
벤제
별호
브리아
블라드
비룡
사반
삼문
서번트
손지
숭정대부
시빌
식습
암갈색
양항
여로
영녕
예관
옥살이
왕원
외잎식물
용주사
우전
울름
위용
응전
의론
임펄스
자대
재취
제다
조호
종소리
중석기
직능
진아
질산염
집들이
차일
청운
체불
총성
추스
춘다
치석
캘커
커짐
코폴라
크란
탐진
트웨인
특장
패리시
하찬석
해와
행수
호트
호걸
황민화
히카르
##문서
##상륙
##루드
##SP
##33
##포면
##니얼
##아레스
##아진다
##화나
##암마인
##자임
##편차
##현면
##취안
##길레프
##렌더
##케시
##멜라
##뷔르
##낙스
##겐부르크
##ania
##het
운동사
결정학
결정력
##olia
##asis
연결망
기능주의
공동생활
부르고스
특징짓
##tech
##rio
이라클
연대표
가정교사
하이쿠
하이픈
마리화나
오스트리아인
##ogy
트리어
스코네
옮겨간
##abil
알렉산다르
Thunder
루이사
모리안
구체제
헤이즈
신성시
포도원
건조림
노부마사
Spect
방위선
가슴막
사마사
778
추방령
##바라타
874
돌려보
788
##shine
1019
##ugh
1302
1303
1306
골드코스트
947
서술자
1107
##irection
앤드루스
프로토케라톱스
글리신
Isa
고립어
SNP
크레티
모노클
시아노
상임위
추격전
1235
연수생
크리스티앙
바실레
1292
모았으나
마하바라타
남극점
구해야
파인더
조선일보사
일컬으며
사이토크롬
그레이트풀
Broken
설문지
지르코늄
Juice
##테이커
상이다
##zyme
마르셀린
범람원
에페소
IRBM
print
롬바르디아주
무위법
의인화
세탁기
##스프링스
김응용
테츠야
상전이
Temple
레오니트
광개토왕
윤활유
Invest
흥업구락부
NIH
MIMO
경교장
세츠나
Oxford
니더작센주
부티크
근정전
대자보
Nicholas
나운규
주병진
쇄빙선
맥그리거
데펜디
식습관
캘커타
##상륙함
Bott
Cob
Crim
DEST
Eg
EEC
Erik
FD
GX
GEN
Hav
Horn
MAR
Mack
MAD
Ry
XV
base
file
ib
sym
well
xx
가에이
갑산
강부
격발
경청
관학
광해
괴력
그윈
기층
기이치
기벨린
길동
남지
노틸
뇌전증
당포
당세
던져서
데이스
도경
로체
룰루
릴로
막지
면천
멸족
물대포
미소년
밑씨
박장
박닌
발차기
배턴
법철학
베지
베터
볼셰비
부끄러운
비데
비쳐
빌렘
사린
성작
소광
소해
소임
속할
스호
시레
신노스케
악구
안강
앞머리
애치슨
오주
오태
오산시
옥좌
용상
용장
용재
원저
월마트
위자
위격
응진
이당
일심
임선
자보
정궁
좌경
주바
증평
채병
처제
철봉
출납
층위
치진
침구
칼마르
캄푸
콩쿨
퀘이크
타주
타네
탄신
토템
투키디
트베리
파탈
팔머
팝송
포머
하회
한당
합명
헤인
헤리티
현영
화남
##rel
##rate
##제공
##오레
##gre
##서버
##스럽
##사코프
##비고
##지수
##TH
##불라
##채기
##재상
##북동
##송리
##케이트
##랭이
##랴나
##런치
는데도
##orh
사이렌
##tius
force
지방분
생각나
해서웨이
레이맨
노동절
오스트랄로
지지대
그래스
지하자원
예술제
명령서
메이테
스포티
뛰어든
하이포
로스앨
사진관
마사히코
피아첸차
##elling
비트레이트
엘리야
기대치
시청각
Mario
바라본다
반도핑
노스다코타
Ship
아라한
떠났으나
563
자이로스코프
Heat
##ends
어깨뼈
김정우
##ected
프라이머
영양학
서술어
오이마치
원시림
실업가
브로민
ant
콜롬비
##annon
접속자
김종인
prote
강남역
모래사장
메르센
애국지사
Once
알라리크
##ITE
리어드
1115
1040
1336
언더테이커
제재소
페르디낭
030
김동인
그램퍼스
Guer
Guitar
제갈각
Performance
히메네스
희극인
동래부
동래군
가려내
중형차
Graham
이타쿠라
습지대
분수대
스태그
기해야
쳐들어갔
스트로마
가라앉히
Valent
신동엽
##관리본부
라흐마니
스모그
되살려
NLP
세무서
color
##scape
헤센주
##lated
##timate
Rosen
야코비
전폭기
원추형
병리학자
감속재
노렸으나
##ynamic
Pictures
선더버드
LMX
Innov
최명길
캄차카반도
위례성
민경욱
윤일선
에즈라
홍종우
쓰쓰이
윤동주
이난영
엔랴쿠지
영통구
두근두근
에투알
카스틸리오네
통의부
메가와트
Ferdinand
노틸러스
투키디데스
헤리티지
오스트랄로피테쿠스
라흐마니노프
Baker
Cow
FV
NU
Pod
Pix
Ride
Sau
Sierra
Wed
Wald
WOW
camp
det
eX
house
main
sal
sche
가함
가렸
가레
가코
고달
곤두
과금
구회
굳어진
끊긴
끼니
노츠
노병
녹아들
놓쳐
니타
당지
대과
델파이
두에
둘리
뒤러
들여서
등거리
라주
래프
레파
레우스
로호
로니아
롯폰
룸바
말포이
망구
망은
먹혀
모네
목탑
무원
문덕
바토리
반데
발란
방덕
방열
베테
베젤
벨루
보신
볼튼
북관
불굴
브러시
비애
빨갱이
빨아먹
산꼭
상납
세사르
소름
소세키
쇼기
숙정
실마
싱에
쌓였
쓰지
쓰보네
아아
안근
알랑
애창
얀스
양홍
언서
에오세
엔셀라
역성
엽병
영중추부사
오각
온과
올랑드
와스
와이스
요즈음
용제
용화
용선
용명
용병대
원빈
원씨
웨이스
육질
을해
이긴다
일색
잇단
잘랐
장날
장개석
저예산
젠지
조구
족적
주다스
중북
증과
참군
천녀
초리
최호
치코
카치
켈레
코크스
타의
토회
토픽
파자
파레토
패기
폐장
포치
폴크
풍향
피망
하니
함박
합판
행전
헤마
현성
현격
호바
호브
호혜
호러스
호레키
홍삼
화중
황간
황열
회비
흰자
##CL
##mod
##lit
##nik
##크루즈
##만탄
##니니
##니노
##비사
##82
##GR
##폴스
##Te
##학회
##와크
##심장
##슈타이거
##덩굴
##외스터
##십면체
세계시
영화판
아니타
아이맥
##isse
음악중심
민주사회주의
타이라
다르푸르
방어율
Into
Integr
908
촬영상
오사키
신학문
##istance
자라난
오토봇
노부타다
491
건국동맹
콘서트홀
폴리곤
861
화성군
Mex
952
Sevent
프린팅
ICOCA
871
##ECH
카스미
##MAS
칼리만탄
그쳤으나
1381
##ophy
떨어졌으며
준공식
구미호
근접전
하마사키
Step
Stein
1224
마하티르
leg
##asha
beat
보증인
##icana
전위차
타협안
토모코
터보프
##헤이븐
마가트
푸르카
AND
알베르티
하야부사
크라이시스
##에스테
이회영
SHA
순찰사
앵커리지
키드먼
치사율
다쓰오
스쿠터
President
김문기
피노체트
Picture
박제가
오존층
Russian
great
Flash
UMNO
원어민
슈바르츠실트
브라이턴
아웅산
Ronald
움브리아주
청담동
선후배
Relig
불모지
정이십면체
개복치
##릴리온
산등성이
권문세족
GARNET
김방경
스크래치
슈바인슈타이거
베아트리체
팀버레이크
국제금융센터
아스파르트산
롯폰기
산꼭대기
실마릴리온
엔셀라두스
##외스터라이히
CK
Fresh
Hum
Hung
Ian
Kau
NW
Rest
SDP
Vehicle
XF
Yesterday
box
fin
fem
local
ms
node
port
sat
tor
갈륨
건양
검장
고길
공선
관노
광사
교바시
근초
나티
나단
내자
누웠
단령
덕산
따오
란도
로레
료타로
맥케이
메리트
명심
명월
묘제
묘도
물렸
민머리
배전
베델
보티
보테
보데
봉호
부원수
북학파
블랜
비막
사아
사졸
삼산
생로
서시
석문
세경
속였
쇼무
수연
술수
슈스터
슬론
신건
실온
실랑이
쓴다는
아후
아넬
안평
암문
야리
약실
양익
엔스
엘보
역공
염포
예서
오포
오연
오샤
오레스
옮김
외제
요강
윤도
익선동
조휴
주아
주익
주막
직도
초이
최자
추려
측우기
치상
친어머니
칠판
케손
타잔
태왕
턱뼈
티끌
파소
페레스트
평이
호무
황윤
흐로
흐라
희화
##oir
##고지
##고왕
##루틴
##수열
##에피
##SPA
##티넨
##러모스
##다졸
##BP
##지인
##지어
##면서
##마음
##쿠시마
##브로스
##분포
##플랭
##몰래
##anz
##arium
문화축제
관계식
##eler
독립기념일
##lee
offic
##ract
아르누
우주관
Theology
##aco
지배권
도쿄대
공산화
에너지부
Store
처리장
표준편차
성적표
해결사
무기질
알렉사
노르에피
투자가
분자식
##illes
카르니
알리바바
운전수
##스키스
아스텍
아스피린
인공섬
Coming
질병관리본부
Sho
브루넬
학술회의
Heavy
스토쿠
##enda
방위청
982
기소유예
웨이퍼
사우스오스트레일리아주
네이비
소문난
대우그룹
Pharm
948
831
프랭키
데려간다
대동단
발렌스
파울러
크레모나
이토이
STM
서브루틴
단원제
070
1172
부적응
1231
1135
1337
1298
ECHL
거울상
모친상
프랑크푸르트암마인
이윤열
막시모프
Flower
김진규
김기덕
김기영
불어났
최강희
##elease
올드필드
상급자
블리츠
일리야
quad
마이크로폰
Trib
인스브루크
생리학자
Interface
에로틱
나루터
류큐국
얼룩무늬
스투디
스칼라장
김인후
식용유
서거정
슬리퍼
고이케
증류주
타나크
로보트
바실리데스
화이자
아말테아
Presby
특례법
미코얀
안후이성
Horse
오경석
병인박해
화사석
Russell
##break
FPGA
뜨거워
헤르츠스프
Village
게으름
장명등
Personal
연남생
동중서
원근법
간이역
대구경북
가차없이
실어증
안공근
Reformed
하소연
난중일기
비망록
맥헤일
스포티파이
로스앨러모스
근초고왕
페레스트로이카
노르에피네프린
Aj
DBMS
Hil
Hamilton
Jenn
Josh
Lamb
LIF
Nelson
Ory
Pain
REC
SAP
UBS
Wing
iM
layer
make
national
pra
um
가필
간공
감점
강감
거푸
걸이
겨드랑이
격구
계관
계백
계축
고본
괴기
굳어져
굴림
글라이
기안
김단
꽃봉오리
끝장
낙차
낙안
남몰래
내서
넷마
녹아웃
능묘
니마
다작
대할
도티
도양
도트리
돈키
둔하
뒤로
따듯
라신
라조
레빗
례지
로테르
루미아
류경
류블
린스키
만월
말려서
맥그로
맹호
물물
바론
바넷
배소
배화
백질
번잡
벤쳐
보먼
복어
볼린
분체
불자
비게
비취
비네
비델라
사류
사비나
새장
생매장
서에
서창
소구
소목
쇼호
슈즈
심프슨
씨스타
아스코
앙시앵
애들러
야성
역무
영돈
오감
옥개
왕령
용주
우다드
원더스
월권
이차
이블
일률
자호
자족
절로
절편
정물
정두
정합
조자
조숙
좌변
주비
차액
창던지기
철마
청평
총공격
최동원
캐런
쿠미코
탈의
템페스트
통전
통혼
통훈대부
파네스
포루
포곡
포데
폰타나
품성
프립
한어
핵력
헌강왕
호류
혼고
화근
황장
휘호
히츠
##mission
##오케
##수정
##의학
##52
##판매기
##아칸
[...]
