[PAD]
[UNK]
[CLS]
[SEP]
[MASK]
"
'
0
1
2
3
4
5
6
7
8
9
A
B
C
D
E
F
G
H
I
J
K
L
M
N
O
P
Q
R
S
T
U
V
W
X
Y
Z
a
b
c
d
e
f
g
h
i
j
k
l
m
n
o
p
q
r
s
t
u
v
w
x
y
z
가
각
간
갈
감
갑
값
갔
강
갖
같
개
객
갤
갱
거
건
걸
검
것
게
겐
겔
겠
겨
격
겪
견
결
겸
겹
겼
경
계
고
곡
곤
곧
골
곱
곳
공
과
곽
관
괄
광
괴
교
구
국
군
굴
궁
권
궐
궤
귀
규
균
그
극
근
글
금
급
긍
기
긴
길
김
깃
깅
깊
까
깔
깥
깨
꺼
꺾
께
꼬
꼭
꼴
꼽
꽃
꾸
꾼
꿈
뀌
끄
끈
끊
끌
끔
끝
끼
낌
나
낙
난
날
남
납
났
낭
낮
낳
내
낸
낼
냅
냈
냉
냐
냥
너
넌
널
넓
넘
넣
네
넥
넬
넷
녀
년
념
녔
녕
노
녹
논
놀
농
높
놓
뇌
누
눈
눌
뉘
뉴
늄
느
는
늘
능
늦
늬
니
닉
닌
닐
님
닛
닝
다
닥
단
닫
달
담
답
닷
당
대
댄
댑
더
덕
던
덜
덤
덧
덩
덮
데
덱
덴
델
도
독
돈
돌
돔
돕
동
돼
됐
되
된
될
됨
됩
두
둑
둔
둘
둥
뒤
뒷
듀
듈
드
득
든
듣
들
듬
듭
듯
등
디
딕
딘
딜
딩
따
딱
딸
땅
때
떠
떤
떨
떻
또
똑
뚜
뛰
뜨
뜻
띄
띠
라
락
란
랄
람
랍
랐
랑
래
랙
랜
램
랩
랫
랭
략
량
러
럭
런
럴
럼
럽
럿
렀
렇
레
렉
렌
렐
렘
렛
려
력
련
렬
렴
렵
렸
령
례
로
록
론
롤
롬
롭
롯
롱
뢰
료
룡
루
룩
룬
룰
룸
룹
뤄
뤼
류
륙
륜
률
륨
륭
르
른
를
름
릉
리
릭
린
릴
림
립
릿
링
마
막
만
많
말
맛
망
맞
맡
매
맥
맨
맵
맷
맹
맺
머
먹
먼
멀
멍
메
멕
멘
멜
멤
며
면
멸
명
몇
모
목
몬
몰
몸
못
몽
묘
무
묵
묶
문
묻
물
뮌
뮤
뮬
므
미
믹
민
믿
밀
밍
및
밑
바
박
밖
반
받
발
밝
밤
밥
방
배
백
밴
밸
뱀
뱅
버
번
벌
범
법
벗
베
벡
벤
벨
벼
벽
변
별
병
보
복
본
볼
봄
봇
봉
부
북
분
불
붉
붕
붙
뷔
뷰
브
븐
블
비
빅
빈
빌
빗
빙
빛
빠
빨
빼
뼈
뽑
뿌
뿐
사
삭
산
살
삶
삼
삽
상
새
색
샌
샘
생
샤
서
석
섞
선
설
섬
섭
섯
섰
성
세
섹
센
셀
셈
셉
셋
셔
션
셜
셰
소
속
손
솔
송
쇄
쇠
쇼
수
숙
순
술
숨
숫
숭
숲
쉬
쉽
슈
슐
스
슨
슬
슴
습
슷
승
시
식
신
실
심
십
싱
싶
싸
싼
쌍
쌓
써
썼
쏘
쓰
쓴
쓸
씨
씩
씬
아
악
안
앉
않
알
암
압
앗
았
앙
앞
애
액
앤
앨
앱
앵
야
약
얀
양
어
억
언
얻
얼
엄
업
없
엇
었
에
엑
엔
엘
엠
여
역
연
열
염
엽
였
영
옆
예
옌
옛
오
옥
온
올
옮
옴
옵
옷
옹
와
완
왔
왕
왜
외
왼
요
욕
용
우
욱
운
울
움
웃
웅
워
웍
원
월
웠
웨
웰
웹
위
윈
윌
윗
윙
유
육
윤
율
융
으
은
을
음
읍
응
의
이
익
인
일
읽
잃
임
입
잇
있
잉
잎
자
작
잔
잘
잠
잡
장
재
잭
쟁
저
적
전
절
젊
점
접
정
제
젝
젠
젤
져
졌
조
족
존
졸
좀
좁
종
좋
좌
죄
주
죽
준
줄
줌
줍
중
쥐
즈
즉
즌
즐
즘
증
지
직
진
질
짐
집
짓
징
짜
짝
짧
째
쪽
쫓
찌
찍
차
착
찬
찰
참
창
찾
채
책
챔
처
척
천
철
첨
첩
첫
청
체
첸
첼
쳐
쳤
초
촉
촌
총
촬
최
추
축
춘
출
춤
충
춰
취
츠
측
층
치
칙
친
칠
침
칩
칭
카
칸
칼
캄
캐
캔
캘
캠
캡
커
컨
컬
컴
컵
컷
케
켄
켈
켓
켜
켰
코
콘
콜
콤
콩
쾌
쿄
쿠
쿨
쿼
퀘
퀴
퀸
큐
크
큰
클
큼
키
킨
킬
킴
킷
킹
타
탁
탄
탈
탐
탑
탕
태
택
탠
탭
탱
터
턱
턴
털
테
텍
텐
텔
템
토
톤
톨
톰
톱
통
퇴
투
툴
튀
튜
트
특
튼
틀
틈
티
틱
틴
틸
팀
팅
파
판
팔
팝
패
팩
팬
팽
퍼
펀
펑
페
펙
펜
펠
펴
편
펼
평
폐
포
폭
폰
폴
폼
표
푸
풀
품
풍
퓨
프
픈
플
피
픽
핀
필
핑
하
학
한
할
함
합
항
해
핵
핸
햄
했
행
향
허
헌
험
헝
헤
헨
헬
혀
혁
현
혈
혐
협
혔
형
혜
호
혹
혼
홀
홈
홍
화
확
환
활
황
회
획
횟
횡
효
후
훈
훌
훗
훨
훼
휘
휴
흉
흐
흑
흔
흘
흡
흥
희
흰
히
힌
힐
힘
##R
##A
##D
##현
##애
##영
##희
##W
##F
##O
##L
##S
##r
##p
##석
##권
##1
##4
##7
##2
##6
##9
##0
##e
##t
##i
##n
##a
##g
##s
##o
##m
##b
##X
##M
##c
##u
##k
##f
##홍
##규
##y
##d
##v
##I
##땅
##이
##l
##U
##N
##T
##P
##V
##병
##호
##8
##르
##디
##흐
##j
##촌
##w
##데
##로
##h
##5
##코
##타
##니
##자
##B
##Y
##E
##x
##C
##전
##K
##G
##Z
##인
##버
##그
##H
##청
##지
##축
##냈
##의
##네
##테
##트
##서
##가
##3
##리
##원
##주
##풀
##레
##라
##재
##광
##모
##q
##Q
##링
##쿠
##안
##도
##체
##바
##드
##하
##고
##제
##사
##중
##왜
##수
##용
##간
##스
##부
##크
##릴
##어
##져
##념
##상
##관
##톨
##아
##활
##산
##성
##J
##투
##치
##군
##살
##신
##태
##백
##차
##티
##블
##카
##키
##프
##격
##금
##준
##혁
##정
##과
##클
##야
##첨
##소
##건
##웅
##한
##나
##우
##문
##일
##냐
##z
##센
##항
##합
##교
##기
##틀
##더
##플
##례
##갑
##판
##물
##윤
##섭
##종
##민
##섬
##유
##증
##노
##망
##킹
##엄
##미
##충
##환
##워
##진
##다
##마
##빌
##오
##방
##담
##장
##튜
##즈
##구
##범
##날
##름
##학
##비
##화
##솔
##에
##력
##후
##피
##잠
##핀
##계
##배
##연
##누
##브
##반
##터
##페
##돌
##린
##류
##음
##끄
##러
##운
##낼
##까
##약
##헤
##경
##시
##케
##좌
##밥
##동
##명
##선
##각
##분
##펜
##두
##암
##조
##열
##새
##패
##율
##통
##뼈
##커
##셔
##여
##식
##겨
##맥
##혈
##춘
##는
##견
##출
##젤
##닌
##며
##베
##근
##룡
##봉
##극
##욱
##악
##세
##메
##개
##토
##허
##탁
##납
##실
##보
##포
##락
##래
##탑
##습
##객
##셰
##랑
##잔
##푸
##막
##법
##량
##너
##랜
##뤼
##를
##곳
##앵
##위
##할
##필
##줄
##을
##침
##죽
##찬
##엠
##렸
##거
##생
##회
##떨
##표
##행
##짐
##목
##놀
##택
##몬
##불
##창
##단
##처
##슴
##무
##채
##파
##샤
##발
##릭
##강
##예
##역
##죄
##칠
##언
##츠
##델
##슨
##넷
##적
##히
##읍
##벼
##등
##숙
##함
##굴
##퍼
##덕
##였
##궁
##탈
##삼
##대
##벨
##와
##송
##국
##승
##헌
##달
##천
##젠
##팽
##쳐
##것
##묵
##찰
##업
##딘
##루
##당
##난
##외
##공
##훼
##늘
##론
##맹
##감
##술
##겐
##년
##직
##귀
##품
##훈
##흔
##액
##매
##즘
##완
##흥
##월
##초
##란
##탄
##순
##몰
##른
##빈
##꽃
##색
##형
##왔
##번
##낸
##들
##춤
##립
##령
##뷰
##림
##온
##려
##럭
##듬
##따
##뚜
##철
##엑
##저
##집
##빗
##렌
##팅
##첩
##울
##칼
##요
##녹
##은
##쓰
##글
##말
##게
##욕
##륜
##빠
##벽
##결
##염
##옌
##웃
##빙
##왕
##폭
##밀
##평
##끝
##뉴
##록
##쇠
##임
##잘
##질
##길
##손
##머
##면
##남
##해
##큐
##착
##박
##쥐
##탐
##본
##텔
##닉
##올
##셀
##혼
##탕
##심
##즌
##슐
##숭
##붕
##복
##균
##층
##곡
##턴
##으
##핵
##켄
##벡
##척
##편
##얀
##둑
##존
##료
##친
##꼬
##작
##족
##값
##엔
##입
##잉
##곤
##먹
##틱
##슈
##내
##첸
##압
##틴
##슬
##롤
##느
##속
##덧
##널
##덤
##효
##께
##킨
##콘
##켓
##랭
##폴
##급
##몸
##풍
##큼
##듭
##짓
##갈
##양
##쇄
##옥
##튼
##책
##북
##렐
##만
##농
##삭
##짜
##향
##벌
##앤
##캐
##켜
##쪽
##측
##룩
##롬
##릿
##룰
##딸
##황
##설
##섯
##랍
##갔
##넬
##륭
##람
##묘
##녀
##절
##칸
##알
##움
##험
##멘
##뱀
##혜
##녔
##엽
##템
##싱
##흡
##덴
##추
##답
##쌓
##꿈
##휴
##뱅
##또
##던
##뜻
##툴
##밍
##변
##밤
##겔
##된
##끌
##런
##겸
##쉬
##킷
##렉
##독
##촉
##톤
##팬
##웨
##잎
##롯
##륙
##징
##볼
##눌
##텐
##띠
##긴
##렴
##돈
##총
##롱
##논
##든
##잡
##릉
##킬
##벤
##뿌
##확
##닥
##휘
##닛
##접
##걸
##븐
##둥
##뉘
##꾸
##콤
##펠
##칭
##콜
##십
##골
##응
##램
##했
##랐
##김
##낙
##칩
##익
##률
##련
##빼
##딜
##탠
##즐
##랩
##점
##억
##뢰
##잇
##득
##융
##꼽
##봄
##덩
##늬
##졌
##끼
##뜨
##렘
##큰
##곱
##맞
##앙
##육
##웠
##롭
##흑
##얼
##났
##궤
##같
##렬
##털
##능
##획
##룸
##밸
##몽
##룹
##힌
##떤
##넓
##엘
##므
##션
##퀴
##취
##닝
##곽
##뇌
##옹
##찍
##홀
##즉
##겼
##흘
##먼
##쿼
##틸
##혀
##헝
##넘
##받
##렀
##킴
##뤄
##참
##럴
##뷔
##쿨
##옆
##넌
##앉
##맨
##픈
##팔
##댄
##씨
##낭
##컨
##펀
##협
##캄
##옮
##없
##딕
##딩
##멍
##높
##붙
##었
##웰
##렵
##봇
##핸
##쾌
##럼
##괴
##옴
##별
##째
##싸
##흉
##앗
##빅
##폐
##쿄
##펴
##빛
##냅
##윗
##윙
##둘
##줌
##훨
##텍
##닷
##쓸
##퇴
##핑
##햄
##쳤
##떻
##쇼
##엇
##믹
##랙
##춰
##덱
##꺼
##렛
##눈
##냉
##잭
##칙
##돔
##샘
##팀
##촬
##륨
##첼
##특
##못
##최
##폰
##써
##뮬
##되
##윈
##멀
##뮤
##랫
##략
##앨
##샌
##셜
##꼴
##힐
##졸
##혹
##때
##찌
##닐
##컴
##퓨
##훌
##옛
##혐
##캡
##녕
##깨
##팩
##님
##좀
##옷
##튀
##쟁
##톱
##혔
##깃
##퀸
##섰
##갱
##깥
##럽
##셋
##켈
##룬
##밑
##컬
##넥
##둔
##랄
##헨
##픽
##탱
##맛
##넣
##듯
##럿
##뛰
##괄
##검
##끔
##냥
##끈
##펙
##홈
##셈
##놓
##켰
##긍
##헬
##맡
##웹
##짝
##섹
##궐
##멸
##듣
##팝
##낌
##콩
##떠
##뮌
##묻
##듀
##싼
##쓴
##돼
##겹
##삽
##턱
##쏘
##옵
##멜
##뒤
##컵
##앞
##젝
##싶
##읽
##깔
##았
##펑
##꾼
##퀘
##밴
##썼
##힘
##웍
##늄
##빨
##곧
##멕
##흰
##숫
##셉
##낮
##캠
##뿐
##톰
##있
##얻
##맺
##쌍
##닫
##딱
##않
##챔
##캔
##뀌
##씬
##깊
##듈
##꼭
##탭
##됨
##윌
##렇
##맷
##횡
##덜
##맵
##뒷
##폼
##덮
##벗
##뽑
##섞
##밝
##및
##숨
##늦
##겠
##씩
##숲
##좋
##깅
##슷
##컷
##밖
##됩
##훗
##찾
##갖
##돕
##띄
##첫
##겪
##많
##똑
##쫓
##틈
##캘
##될
##끊
##붉
##앱
##쉽
##줍
##갤
##믿
##좁
##삶
##횟
##댑
##젊
##낳
##멤
##짧
##몇
##꺾
##묶
##잃
##왼
##er
##he
##on
##at
##in
##es
the
##or
##ion
##en
##an
##ed
##le
으로
##ing
에서
##ro
##al
in
##ic
##ct
##st
##it
##ar
to
##ou
##re
##et
##ent
an
##ation
##am
##ag
of
20
##se
##om
and
th
##ess
##is
##ac
is
##ll
re
for
##ut
19
한다
##ue
##ow
##ri
##as
##pl
##ab
##ect
##ver
##ec
##el
##pt
##il
##ot
사용
##ur
##age
on
con
pro
##ate
you
##ig
st
The
##ce
정보
##od
##니다
##nt
시스
##ment
관리
시스템
##em
##her
com
be
##00
us
##ad
##id
that
##ol
##all
201
or
##if
##ul
##ame
##ers
ex
##ist
##oc
##ve
MQ
##ort
de
대한
##im
##un
##ith
프로
##ile
200
##for
##and
##ata
##um
with
are
##ction
as
##ch
##ication
##이터
##ple
##ay
##up
##est
can
In
##ter
##eb
경우
데이터
##able
##ir
##cess
10
cl
##erver
##us
##스트
##form
##비스
##per
##og
##port
##ject
##ity
se
ch
개발
서비스
##ppl
##ain
에게
by
##erv
##ption
##pe
##art
it
##qu
##ust
##ure
not
DB
##ER
##ase
Con
##ub
Web
까지
##gr
##ult
Pro
##yst
##tr
으며
this
12
##ystem
##here
##ly
기능
파일
된다
##ew
sp
##essage
val
처리
##이스
en
##AI
##rom
##pplication
업무
##ice
##ail
set
Th
서버
##op
##ueue
지원
##ap
지만
11
name
##ies
제공
##ran
data
ad
##iz
##anag
##fer
##ode
##ack
##ine
Re
기술
comm
구성
##llow
##ass
##cri
합니다
from
##ace
사업
##te
at
##bject
위해
##nect
##ON
##av
sh
##ated
확인
운영
##ype
##AT
##end
##ory
18
또는
##ire
통합
inst
def
##ecif
인터
부터
wh
res
##ive
##ork
이후
##our
가능
##BM
file
따라
##fig
##rans
cont
This
수행
면서
##ST
라는
##Sp
EAI
use
Int
설정
습니다
##anager
##ang
queue
위한
기관
##os
Ad
##ime
필요
If
IBM
ID
라고
##ind
##iv
##ore
##ard
는데
연계
al
Ex
##ition
##Sphere
발생
결과
AP
##act
##hen
message
시작
15
##formation
변경
##ib
WebSphere
##ill
##ervice
통해
보안
##ex
관련
##OR
##ht
Or
지역
##으며
fo
your
if
##pon
미국
##lect
구축
199
다른
##MS
system
application
##rr
##IN
16
##vel
For
specif
##ber
Server
follow
##are
##ave
page
##LE
##nd
Cl
##ample
##ant
##acle
##atab
##ient
해당
조회
command
##out
도록
일본
등록
때문
문서
value
내용
다고
##ost
기록
ac
테스트
선택
이용
분석
object
le
St
##apt
##페이스
cre
포함
##ial
##ach
requ
그리
14
##ide
사이
이름
##min
환경
##aram
add
설치
##ther
Oracle
dis
인터페이스
요청
server
##ord
Se
##atabase
##ich
all
De
form
##ava
##ance
information
str
user
13
사항
시간
00
##put
log
##rib
##ak
##so
다음
im
##ary
##ribut
대상
##uct
##ud
전문
17
##ME
##cl
하나
추가
##ser
현재
int
##int
또한
Com
##figur
using
사람
##aramet
following
##urn
##ersion
화면
코드
작업
IN
##ld
함께
##unction
process
type
ret
RE
##ows
##icro
그러
적용
자료
표준
대학
##Str
Ch
which
프로그
대해
경기
정의
##ateg
##AR
used
have
모든
##리아
위치
계획
##ence
##apter
이상
이나
Micro
You
##rror
##escri
상태
##ight
inter
자신
##AP
##irect
connect
01
To
한국
trans
##ally
기준
install
번호
##ey
##ick
연구
설명
##gram
가지
call
##umber
##TE
##AN
met
##ments
프로그램
do
##th
##ault
##ry
per
will
국가
##부터
가장
##QL
##pert
##CT
##vent
##ied
fil
방법
get
##젝트
##ast
정부
##ource
##ft
list
loc
교육
##ages
세계
문제
198
수신
활동
다는
##이션
##ress
요구
의해
##AS
un
입력
기반
up
ab
##ign
API
##oo
##20
att
Data
##ount
##roup
##upport
##iew
진행
##AL
##ann
has
when
##pp
거나
##ax
must
개인
생성
one
##ategy
##eld
manager
프로젝트
##abl
##ob
##ator
아니
작성
##ck
new
##ues
##라이
##etw
id
select
유지
##ield
전송
##yn
당시
function
##action
계약
그러나
##ext
##ML
##iness
sub
##Strategy
##ET
##EN
구분
sc
out
MicroStrategy
100
해야
##usiness
실행
메시
example
지정
##pen
담당
time
방안
database
일반
prov
만들
##시아
any
only
25
option
보다
##tt
##clud
##ating
##ual
run
##ould
##ip
##ms
##ubl
su
Inte
도시
고객
##ting
##hod
##ome
저장
사회
##ION
##RO
##ES
paramet
##ux
##ations
##ener
장애
설계
##ware
기본
메시지
tr
평가
##oad
30
ne
주요
##own
return
여러
pr
##ates
그리고
##ug
다시
##세스
##ari
조직
number
단계
SQL
##nter
so
항목
수정
rec
Str
##주의
000
대표
##ID
##민국
다양
##프트
pl
##ions
방식
자동
197
##ock
more
##use
##IS
defin
start
see
##figuration
선수
기간
default
##gent
mod
그룹
##이블
Res
aut
전자
##heck
##AC
거래
##ite
error
영화
includ
oper
##itor
##레이
##TP
other
##ff
An
아이
client
class
ar
##으나
연결
제품
##IC
contain
모두
Wind
##play
On
##ere
##ize
##ink
ind
21
대한민국
모니
##ument
나타
direct
sec
프랑
##ote
##ause
로그
det
일부
모니터
기업
는다
새로
전체
Application
##이지
##annel
##urr
실시
동안
존재
##der
##웨어
구조
조선
활용
##IT
유형
##ull
key
관계
보호
클릭
##oint
support
프로세스
attribut
CO
##rig
part
OS
통신
로서
##ical
no
System
196
service
char
목록
files
Windows
##ath
결정
##read
##ced
여부
col
##ices
##face
24
descri
관리자
##ix
##atch
테이블
method
but
으나
create
##ange
##ys
IP
##ces
부분
pre
access
위원
##ead
정책
리그
level
공유
man
propert
행정
현황
여야
String
group
참여
##get
field
##rok
단위
영향
이전
##ep
기타
영국
Inter
##minist
프랑스
이러
##DB
모니터링
doc
완료
report
중국
과정
제안
rem
기존
mess
work
also
##ics
형태
Java
##ponent
센터
Sp
194
program
En
need
File
모델
이루
인증
##opy
##ility
provid
서울
제작
성능
로부터
then
##urity
상황
each
시즌
중심
publ
내부
소프트
송신
ST
##oot
Cont
##ier
카드
독일
##atic
##ml
검증
시대
##ous
request
##UT
Service
##ong
##yp
display
라이
##ustom
##gration
##ecut
23
체계
표시
전쟁
##vir
##ache
상세
다가
생산
정상
22
처음
Message
##케이션
##oy
입니다
Connect
bu
java
was
##rol
table
Un
삭제
##low
Gu
##etwork
오류
It
##ook
##viron
감독
##랜드
지방
Version
##ception
code
##pri
##ose
##ministr
개선
Trans
##res
검색
##ula
구현
##roker
##ree
##ttp
##ake
comp
##라우
##10
##ection
시키
새로운
폴더
string
나라
we
어야
Us
##ning
##ND
정도
##ables
알려
문화
Manager
##ge
##플리
formula
Inst
32
##ule
##row
##ss
version
같이
ass
##ask
##one
##ert
parameter
act
IT
##워크
##over
av
##플리케이션
경제
중요
messages
였으며
아래
195
##RI
중앙
perform
고려
##inux
접근
정치
영역
click
same
인구
SS
state
pass
##ponse
##ploy
##UB
##ound
##tern
성공
pri
세기
국제
US
02
보수
XML
목적
Man
channel
Process
may
##fore
##ATE
내역
##urrent
##부분
##Con
HT
##cc
##루션
back
의미
##MP
specified
솔루션
##IX
2008
이미
http
2019
Table
values
승인
네트
추진
발견
how
2013
암호
됩니다
##sion
LO
Guide
##스크
##DE
버튼
주장
Business
##ervices
##iffer
외부
DE
IS
PC
Linux
##이트
When
품질
##onitor
산업
역할
공격
##스터
these
동일
들어
일정
hand
대회
qu
##ov
##MQ
해서
ident
사건
배치
조건
directory
Object
comple
소프트웨어
학교
transaction
##ger
버전
##Name
시장
##vironment
TO
SE
OR
검토
wr
했으며
##ftware
vari
2010
대부분
##word
nam
##RE
응답
대학교
통한
event
Set
##라인
##ble
ent
어서
lib
##ailable
Comm
##eng
직접
connection
조사
##LL
##ccess
최초
시험
종료
User
km
발표
과제
All
##ify
게임
gener
ed
따른
Al
##OS
는지
##ild
configuration
##PT
check
should
193
26
수립
##ke
##ference
##cript
into
app
##ired
its
execut
운동
작품
이동
담당자
Integration
Name
##NT
line
으로써
계속
NO
회사
See
does
점검
도입
인해
네트워크
CD
권한
end
##str
##이드
초기
특히
역사
분야
##ove
50
prod
##iver
##ia
UN
음악
bas
##plement
AS
##ulti
27
요소
##ted
result
##ength
28
about
than
mem
charact
init
##US
##니아
mq
##통령
Cre
attribute
방송
exp
##uster
db
differ
##CP
절차
##umn
Agent
##PE
출력
open
read
fail
##ery
##12
분류
모듈
##ten
##CH
FI
##wo
allow
2014
##ox
위하
want
rep
2015
Adapter
보고
##ization
플랫
##irst
##ech
ES
신청
사실
특정
##우스
##xt
축구
##AB
available
view
over
ele
관한
페이지
40
##val
top
typ
##che
##ED
cor
명령
##ures
대통령
specify
been
독립
2009
소스
##AME
계정
2011
상대
document
Enter
node
발매
위원회
전투
##지만
me
exist
##ucture
current
호출
##로드
such
유럽
objects
음반
전달
component
채널
##ible
그림
클라우
장비
##PS
자리
port
함수
CS
2012
##agement
동시
안정
29
format
방향
선거
바이
installation
으로서
없이
접속
실제
업체
SW
국민
조치
##ower
test
범위
##ond
##란드
발전
2007
##fter
##리스
SY
연동
SO
applications
Program
##arget
생각
참조
민주
부서
local
##AD
클라우드
확장
우승
where
공동
##RL
am
##way
공개
Add
증가
하지만
자유
reg
##scri
##sg
아들
목표
으면
##ric
Im
일어
##rid
공통
two
##ession
##ely
최대
describ
마이
31
Descri
TR
bl
Chapter
public
environment
일자
대응
반영
Install
설립
ap
Use
address
##리오
##und
제국
##igure
백업
##ING
##arch
Val
##화국
예정
Pl
Copy
rel
project
메뉴
소속
각각
##니스
규모
변화
em
러시아
stor
##ugh
회의
##UE
different
인력
Sec
므로
통계
##CS
Client
PL
source
##file
##app
##ish
시설
CH
매우
주로
Rec
64
inte
의한
우리
이것
스타
자원
sim
제시
##ade
cons
##EM
신규
Mod
MI
##ark
dri
##리카
##어진
host
Def
HTTP
interface
bec
Database
##its
처럼
##rough
Specif
point
##마트
EX
192
rece
Queue
fl
효과
보여
국내
전환
##ative
책임
##버지
리포
로마
##CO
최종
pos
##prise
##rap
##fo
xml
Type
business
##디오
##nder
Figure
Inc
금융
과학
##11
##atus
03
send
경로
there
ER
first
참가
여성
##eader
지식
##ermin
##sp
2000
##uction
CL
MS
접수
표현
그녀
Expl
text
따라서
선정
##St
created
Dis
##나라
Description
##con
제한
##IG
##PL
변환
규정
따르
제외
스마트
##ma
size
보이
협의
인터넷
공간
Log
으로부터
CP
network
security
column
Note
사망
효율
dev
디렉
##atform
확보
##date
아키
이유
##ash
Using
장소
시기
task
##50
메모
##In
이탈
AD
##sert
제출
custom
##icate
include
chang
org
위험
##olic
web
못하
대해서
문자
defined
##rary
2006
valid
pack
Aut
##ingle
##omain
some
Ar
##AG
##cept
비용
control
필드
##RC
As
##par
##een
컴퓨
수준
온라인
instance
##학교
최고
##eat
through
##not
definition
before
they
##ner
##ron
properties
##right
Tr
rest
제도
des
enc
setting
##text
2016
gt
001
크기
검사
response
multi
##ym
##Ex
required
appl
자체
##FA
Ed
속성
Class
options
단체
bin
타이
contains
So
차지
생활
detail
토리
Sh
CON
Select
property
lt
##etween
path
##let
PRO
사고
acc
##velop
의견
돌아
전략
##por
step
실패
2003
##AM
users
언어
부문
##ater
이행
##21
##LT
고자
위해서
철도
안전
다운
2005
비즈
product
##60
판매
응용
##andard
경찰
change
별도
지속
##르크
이어
enter
based
트리
트랜
ag
대신
dec
inv
비교
No
보험
between
현대
거의
TP
##사항
인지
수집
많이
인정
형식
HO
input
마지
아닌
##ases
해결
MQC
##NS
아버지
대하
리포트
사용자
이탈리아
TCP
output
에러
Le
Administr
Back
##UP
그래
par
상품
##LO
산출
올림
요구사항
length
Copyright
등장
config
##DS
MB
였으나
##oci
UI
section
교통
##ool
조정
##raph
##ply
통제
이력
강화
##UM
implement
2018
노동
within
spec
마지막
##라이언
결국
##istribut
가진
대전
##roll
인민
##베이스
종류
후보
인간
실시간
##hor
Work
names
500
인도
사전
bot
금액
연합
##ise
분리
태어
은행
특별
##line
SAP
데이터베이스
##lease
건설
##ents
비밀
80
inc
##ized
##리즈
down
##ven
2017
running
의하
애플리케이션
어떤
##대로
Cor
record
2020
유명
##소드
tool
##IP
Act
JMS
##ines
##ra
물리
##벤트
##한다
##inal
##olut
##ification
order
한편
##ffer
under
지도
35
##40
main
import
Open
Requ
##echn
이벤트
여기
##운데
right
Up
##ens
레이
cannot
called
출연
##uring
요건
공식
##mis
##ors
cert
By
통하
그리스
MD
앨범
반대
##ans
준비
혹은
300
List
서로
Be
##ither
##BS
가상
능력
##90
Met
##red
Configuration
password
##pend
cluster
subscri
sche
##시오
투자
복구
print
60
##elp
##ination
가운데
세부
proble
##view
systems
##ities
##ever
MQS
영업
Not
##TT
single
##oll
prot
출신
mode
구간
##enter
완전
##erved
제어
형성
them
##mit
##omatic
공급
UNIX
기원
올림픽
action
Monitor
의사
Ret
데뷔
because
##80
ph
법률
##net
이르
provides
군사
##30
Broker
character
교회
Sub
mach
structure
공공
모습
최소
##que
parameters
##레스
go
개요
라인
##CE
initial
URL
case
How
##ular
long
##name
의원
배포
QM
시행
##페인
Enterprise
occ
FOR
특징
지구
시리즈
##RM
Page
iss
Error
identif
make
##비아
##라이언트
load
##ESS
##Id
##YPE
비즈니스
대외
##ql
경험
##CA
190
##old
##itional
script
발급
항공
개월
191
specific
##므로
시켰
##ivity
deploy
MTE
max
클래
##ources
##MD
GB
agent
types
컴퓨터
성장
##oud
##리지
software
##odes
영상
시나
클라이언트
##urs
부여
way
##OL
##ABLE
주민
##hent
model
이론
Click
도구
Bu
보고서
##ocol
dele
로그인
측정
their
수도
##ENT
##ell
##iles
자연
##oper
lang
##ared
broker
ESB
tem
##eries
LG
바로
dyn
box
장치
administr
##race
after
##ider
ow
root
##ful
옵션
Per
##enu
MO
target
##mpt
상호
might
보증
##ason
2004
그것
Transaction
엔진
non
종합
services
##AX
속도
##ets
Interface
이미지
Pr
대책
규칙
이해
승리
거리
정확
arg
출전
디자
sign
##load
commands
사업자
##CI
appro
##ream
프리
##attern
##DBC
off
여자
했으나
차량
##imum
보유
manag
associ
##ton
사이트
열린
##imit
고등
체크
##edo
Sc
require
IF
link
SSL
Time
향상
thread
uses
##orm
지급
지시
Action
임명
확대
어플리케이션
##by
Paramet
##other
second
##pos
제거
priv
지금
월드
##ern
handl
##70
WMQ
memory
RF
multiple
인수
sup
##잭션
Reference
##pro
attributes
##ATION
트랜잭션
경영
both
바탕
메소드
방문
##rect
개념
건물
##ational
##SP
insert
특성
공사
36
##hether
either
##igh
element
et
##ability
##mary
##omm
li
불리
##ai
domain
보내
려면
차이
##tes
가이드
##야기
##머니
##ef
##ampl
시나리오
##인다
주기
##vi
진출
block
수상
Security
개정
static
item
대체
##enc
##SE
CPU
비롯
전기
##uments
Report
Ap
변수
Bms
Wh
보통
##rame
체제
한다는
tables
Direct
##olog
최근
Management
스위
##러스
##너지
##ATA
index
USER
자기
configur
원인
마다
인식
Check
##oid
refer
wind
##lection
##UR
##apping
##ORT
33
회원
##ules
행위
민족
보장
##Cl
##erm
##anation
투입
학생
##aces
##itory
마을
편집
플로
동작
배우
##어지
##io
가져
##ually
역시
프레
conver
##nal
del
사무
##max
tp
functions
달리
II
파악
스크
##라마
이야기
다이
평균
##텍처
아키텍처
variable
##igr
Propert
##olicy
십시오
노래
bit
feat
클래스
Support
##sible
true
예상
시민
거쳐
원래
##veloper
Port
##ffect
피해
##ero
Test
34
success
ww
App
과거
##운드
리스트
경쟁
Custom
space
disk
##프라
Services
계산
Option
Pre
Col
행동
심사
오른
부족
400
##gine
만든
msg
##VE
Out
개최
Event
도로
www
시켜
출시
##llig
시도
##ULL
##List
Network
null
일으
도움
##gin
아르
속하
automatic
##til
플레이
New
교수
스페인
Rem
##ara
remote
어려
알려져
필수
모바
whether
##CL
dest
시절
##ars
명칭
지지
디스크
HP
##back
Software
전국
Run
결혼
##ank
put
Explanation
There
equ
하드
min
오스트
##IST
operation
machine
RO
##ale
displayed
90
2002
##oin
##Data
현상
06
shown
##amples
count
노드
##학자
Project
모바일
주소
exception
##24
writ
디자인
유사
WAS
##키지
repl
##ynt
SH
사례
platform
Form
My
##99
판단
우주
이관
arch
협력
방지
개체
패키지
제조
스토
결재
TE
수용
부르
Command
지나
##ales
standard
ERR
못했
38
졸업
statement
임시
##Link
45
이사
모양
사상
NAME
여권
전통
##ateway
Start
##Type
Qu
Part
##IME
동기
##unt
provide
repres
다운로드
##rray
Group
이하
흐름
70
Tool
##ie
노선
bel
##ential
copy
look
##uage
산출물
giv
stop
활성
나오
conf
most
개발자
##ended
Function
어느
##lob
another
##ense
header
Over
##22
에너지
드라마
건수
황제
installed
topic
Prod
이때
##MO
어댑
어댑터
##aster
##Time
##hentication
타입
##itect
가치
being
고도
Source
달러
resource
supported
without
07
exit
Control
의회
소유
위반
다면
대비
밴드
performance
세력
스트
##Pro
##ait
허용
메일
##MM
신용
##tain
세포
Intellig
##uxedo
활약
etc
##sh
대기
##cedure
sw
브라
distribut
cd
##vious
취소
인프라
마련
full
associated
HOME
pan
Des
2001
session
나타나
##overy
##DI
추정
보관
shows
These
window
##ync
컬럼
##TH
공화국
##워드
##amic
changes
37
소련
가입
pers
status
described
비판
오픈
감사
##icates
##irt
높이
훈련
금지
Right
next
작용
details
시킨
04
##rypt
드라이
##거리
location
depend
##디어
##VER
FC
NULL
monitor
서식
##ok
인물
provided
연방
사유
메모리
정리
Arch
Example
##sole
num
##very
연속
장관
WS
실적
Tuxedo
kn
##NO
##ression
filter
usr
부대
싱글
종교
##yntax
군대
부산
용어
Return
##mq
##nara
during
SP
existing
author
backup
참고
develop
자세
returns
##olution
상당
##oose
##ived
불가
TV
포트
##String
본부
##프리카
##roller
home
common
##남도
발행
##edi
소비
##EC
취약
co
prompt
##ging
Number
해외
processing
##Re
한다고
등급
sample
gre
지배
##GR
buffer
Comp
##PTION
공연
context
지휘
기초
예산
Value
가족
성과
hard
각종
자치
Connection
55
지하
디지
유일
인사
기원전
##세대
PD
주변
ON
##anced
##aly
건축
이런
components
선언
SI
48
Corpor
나이
나가
##르트
43
##어져
단순
핵심
운행
##로스
Information
driver
##FI
steps
AND
##sc
고용
selected
handle
사진
시티
협회
##Exception
cm
Administration
Ass
전사
행사
cond
##ouse
find
비슷
##abled
획득
define
이끌
##ole
write
##rie
안내
전화
update
관심
what
##obile
소개
##bers
소설
ob
##UN
##FS
##db
자격
Get
오늘
##aging
삼성
##older
ib
Doc
##point
결합
##ocket
pres
에이
지점
개별
que
Ind
##MT
Corporation
다르
Lib
##lobal
##ialog
returned
자동차
flow
Access
자산
으므로
##untime
Loc
help
발주
##MI
image
동물
own
##OP
many
##oard
like
교황
while
객체
##set
혁명
automatically
39
##인트
남쪽
모드
##itions
complete
디지털
북쪽
1990
##rop
인한
체결
기동
##SC
주도
problem
식별
##텐츠
매핑
국회
##ming
기독
야구
##sure
Default
##ected
지침
41
Developer
SC
WH
##코드
대로
##mission
##Service
correct
design
my
##rit
Model
BP
##be
예술
##hell
사랑
SUB
Prot
구매
비고
##oug
더욱
View
다수
단말
lay
##BA
근거
commun
fact
Call
INT
##LECT
제목
조성
allows
반응
red
가격
profile
##루스
최적
정당
##UI
speci
##FT
BE
이슈
configure
어머니
차단
Result
partic
스키
중단
##als
active
려는
##tion
구역
RC
인민공
We
외국
date
물질
공정
dat
##stant
termin
Cause
cache
시점
인민공화국
가까
중화
운용
##icense
LD
appe
Create
Dyn
ibm
##irtual
FILE
PM
##NE
certif
comput
Att
##34
인기
기독교
Bl
jar
계좌
those
characters
EN
남부
reason
노력
우선
TB
##고리
가정
걸쳐
##드시
차례
##soft
직원
build
##Or
##레이드
기념
##ences
menu
match
복사
확정
FTP
mqm
SET
##ts
멤버
previous
08
separ
Active
CSQ
tim
단일
##나다
description
device
Id
disc
Det
var
Apache
팝업
열차
ref
생명
reference
Key
매출
##ATH
##보드
would
##ps
##lean
신고
##15
미래
mm
도쿄
차세대
##plate
감소
려고
반드시
불구
##ings
1999
DATA
건강
##넌트
##hed
AC
Component
SELECT
lock
경상
##ved
stored
##STEM
연기
부하
어린
ext
##진다
entry
하이
공산
왕국
교체
로드
##less
패턴
근무
methods
일어나
##ready
올라
민원
##가지
regist
##ology
pattern
##iag
작곡
대사
##AY
동쪽
classes
fields
##vanced
이외
##ued
문학
##ision
However
could
태양
용량
189
분산
가리
정기
##ody
##북도
파라
DBMS
장기
eai
contin
##empt
##른다
package
flag
다만
protocol
버스
Response
양식
job
##ross
button
already
46
언급
치료
##DL
작가
헤더
##렇게
##린다
하위
identifier
management
##ough
expl
##ency
현장
##rigger
길이
추출
PLC
스크립
ver
서쪽
below
향후
account
측면
SV
먼저
42
Field
프로토
mail
again
내려
모코
##flow
resources
##oding
##alse
processes
순서
map
constr
달성
NET
고등학교
additional
Red
##스타
추적
Reserved
Request
##ward
필터
청구
Format
라이브
SYSTEM
##LS
수익
44
last
content
possible
TS
appropri
##NAME
##라도
기록물
##ph
시각
전산
tab
집단
Channel
WE
역임
컴포
##INE
들어가
##14
영어
집중
차트
정신
Reg
보존
Tmax
클럽
47
주제
05
DS
##ROM
row
including
Node
sent
부정
컴포넌트
오른쪽
애니
el
##난다
법원
##ique
query
대중
settings
주식
캐나다
가수
할당
연주
##work
첨부
차원
card
원칙
elements
DO
Installation
now
비해
library
##quence
delete
스크립트
Center
기기
중간
비트
오브
##MC
##Set
##미터
##ram
비율
Also
eas
월드컵
servers
##BC
##전자
보인다
##ternal
뉴욕
lar
##000
##ified
Setting
아직
견적
데이
##ernel
operating
given
개혁
Connector
found
TIME
마음
1980
##FO
HUB
##카이
만큼
수요
예측
증권
해제
태어났
조약
##pond
당사
출판
sets
Library
정규
TH
이라
BI
150
##ume
1998
SM
작전
그대로
일치
서명
##reen
정지
Microsoft
86
FROM
북부
##uc
순위
##ERE
ERROR
수록
##머지
Monitoring
##스탄
신속
머리
나머지
UP
sm
generated
techn
dialog
Ste
대화
##ynch
appropriate
##itch
SD
증명
Gener
##IB
윈도
##rod
authentication
도메
거부
stat
구동
JDBC
##istics
Backup
동의
gu
아서
schema
made
TYPE
##아들
sum
고대
188
calls
메트
그런
지난
재정
나타내
##ically
SER
법인
events
##mer
repos
##akes
SOAP
Pack
육군
JE
발송
LOG
destination
거주
TABLE
Mem
면적
외교
upd
폴란드
PO
만족
실험
밝혔
##enari
업로드
적절
전용
SA
친구
##ches
SN
선발
메이
LDAP
##31
반환
End
민간
Bad
execution
병원
operations
파트
기사
##Message
##웨이
오늘날
ht
##round
POS
begin
이중
스포
##ecess
Prov
기여
남자
Creating
Oper
##ALL
단어
보완
##ian
void
부상
의료
##Connect
비행
아시아
베이
당하
해석
##ires
통과
통일
TM
Mess
헌법
metric
export
마스터
결승
storage
AN
세션
shared
##은행
뛰어
원자
점령
기획
attempt
56
도착
75
byte
trace
##En
assign
후반
레코드
프레임
array
enable
##pace
includes
limit
##board
represent
##ICS
연구소
재판
##ASE
##ynchron
자금
신뢰
OK
he
드라이브
포르
Gateway
Publ
managers
협업
policy
SYS
실제로
특수
##MENT
##ACK
Load
false
retrie
완전히
##sions
##ince
LIG
every
##역시
페르
##alys
Configur
약점
대장
##itle
Files
well
해군
관점
인데
##ermine
경계
권리
##izard
수입
started
##ART
results
CT
경기도
Perform
적합
site
particular
대리
beh
##anc
연락
57
원격
cap
1997
base
##메이션
GS
강력
Send
Stor
##SQL
procedure
rout
99
NE
MQI
choose
조지
진단
Cluster
자주
논리
선출
brow
에스
챔피
AIX
마르
1000
전반
비디오
연대
복잡
##alysis
기대
반복
반면
글로
##File
Sever
orig
maximum
Rights
구단
스테
sys
동맹
##ily
queues
##VO
편성
##글랜드
Implement
bytes
입장
try
집합
도메인
language
##Ware
final
가문
##스로
##tal
##raw
subscription
플로우
만약
high
재산
##xy
Code
wid
알려진
##ASS
바이러스
통치
reports
일시
소요
XA
##데이트
도출
연장
업데이트
네덜
네덜란드
search
##ervlet
DIS
완성
텔레
유통
일종
사단
show
just
##무원
주관
##LD
##mp
002
소재
mark
SK
migr
1995
Manag
##AST
opt
Specify
##ACE
sql
##ries
instr
##oss
이적
module
보낸
Deploy
세대
##yle
APP
링크
##PORT
드러
zero
확산
충분
지적
##자리
적극
1996
학자
MQRC
##트남
고속
After
Method
파리
표기
##valid
##레이션
were
folder
만나
찾아
Link
##ilt
Next
국립
##19
From
Do
##rc
이내
LOB
공항
Rel
1970
인쇄
necess
##Path
graph
info
implementation
##sel
Internet
Sym
민주주의
움직
##ames
투표
##ename
대구
언론
윈도우
Architect
##AGE
Intelligence
경력
Techn
sl
공장
##ope
마찬
마찬가지
AT
폐기
주인
##Server
파괴
hardware
struct
09
발달
Exception
##18
잉글랜드
지연
configured
유효
Properties
54
혁신
주의
본인
애니메이션
186
뷰트
신문
##메리카
65
##ators
pa
requests
120
거두
kr
##드리
정권
ke
Document
##aris
메타
COR
##MB
##ULT
로써
##ibility
##16
##istent
Pass
DT
성격
##erc
##러리
계열
##rics
##Log
##JB
오래
##ways
##ffic
take
기회
##ances
규격
지명
throw
##ories
##erby
##ively
##23
##스코
##hip
장군
##AIL
MQP
자본
programs
shell
기계
##grade
숫자
##gre
##umer
Dec
Su
cal
스스로
##ched
##amp
통해서
##aw
##13
위협
##resh
Ver
Parameters
통보
##ished
##Info
주체
##ramework
방어
Read
조합
##Ch
는가
준수
지냈
받아들
레벨
##edia
##25
errors
명시
성적
##ategory
JEUS
라우
##ves
140
송수
Attribut
##inst
##sw
53
Advanced
means
배경
사라
Pri
강제
2021
형상
인가
vis
store
아마
deliver
##DATE
BMS
##af
인천
private
리스
simple
제기
features
##의원
구체
PG
day
매니
mat
##Trace
무역
determine
더불
1994
영토
City
합의
케이스
dynamic
Dri
Thread
##STR
바꾸
Each
여겨
생물
##On
transfer
나온
범죄
##ANG
마이크
failed
동부
present
폐지
화학
Objects
바르
블록
He
널리
Level
아무
##라스
Ab
##dd
187
##abel
##ouble
마케
Bas
With
Mail
three
mqs
전문가
연관
올랐
commit
설비
requirements
##Code
##power
consider
repository
Flow
FIFA
마리
식민
북한
취득
사령
added
승강
##페이지
입찰
adapter
Bus
##tility
##Manager
홈페이지
의무
베르
tasks
프로토콜
평화
##ERT
##XT
송수신
##ives
release
포맷
Target
유출
Sim
워크
##pect
ORD
총리
76
named
시킬
panel
##Res
incre
##undle
예외
긴급
세워
kernel
DD
수사
##mb
One
mapping
Mobile
##FF
##ape
Db
나무
##atal
인원
고유
공원
인하
출입
HTML
remove
NOT
Ident
##ee
개수
Host
이곳
스포츠
중복
의식
160
##UX
전시
결제
Off
##CTION
##CTV
이익
##emon
##메달
##Cont
enabled
##ele
어떻
Engine
NT
sales
##17
1992
later
groups
##56
로스
Configuring
런던
State
요시
##28
계층
재난
파견
PDF
MON
##ior
amp
WEB
오르
아이디
아야
##그레이드
업그레이드
미디어
UT
integration
##ls
신한
이주
글로벌
아프리카
##준다
restart
바뀌
남성
지표
철학
##세서
메인
매체
Display
##rag
creating
alloc
CCTV
기구
unt
##mgr
chapter
##etter
110
스케
서부
modify
dum
가르
necessary
AR
위성
describes
follows
certificate
빠르
Fail
##aus
180
인증서
Parameter
Multi
행성
BusinessWare
부인
##ru
CM
##kt
챔피언
RES
나중
일련
ensure
엠시
회계
##respond
GET
##adata
49
recovery
1960
##tract
##일랜드
스위스
현실
##iss
베트남
정식
##48
edit
콘텐츠
패치
무기
##로그
계획서
above
Design
##ications
1991
##gn
left
##oop
감시
상자
작동
이듬
specifies
예방
sever
하드웨어
고정
IE
여행
도서
internal
EJB
Fl
pur
패배
##RIPTION
range
##user
상위
홍보
과장
이스
prior
##UST
Ph
template
물론
분기
##oke
스타일
##sd
RFC
Ant
##53
010
Exp
못한
산정
왕조
##atabases
ED
##Val
written
엔터
관광
correspond
묘사
displays
크리스
압축
apply
Co
nodes
Main
파이
민주당
탐색
handler
tag
바다
즉시
##27
##ysical
STR
norm
신경
주연
1993
날짜
##시마
##ivers
당했
ll
DR
##orer
이렇게
58
effect
수많
Socket
SOA
listed
포털
##ont
SUP
##리트
프린
코어
Real
나누
이듬해
정비
얼마
중지
무대
스토리지
만드
onnara
유래
DES
##비전
사후
##회사
권력
boot
our
광주
MQSeries
##CC
항상
##side
근처
충청
bms
VM
잘못
##atrace
전개
편의
always
밝혀
신호
##ERS
##les
복지
##cul
조각
타임
execute
book
##ism
wait
복귀
AUT
area
일괄
회장
Ma
total
성명
##urred
deployment
req
##26
even
##ube
##DR
128
Develop
VAL
##전히
소리
##소스
수출
connections
descript
sequence
stream
##ivid
스웨
패스
OP
분포
Any
Hand
Non
전부
박사
RP
##ixed
MQe
ORA
위기
##ately
SSO
Config
알렉
until
SF
스턴
variables
included
Task
##ias
Specifies
Product
screen
rights
##alyt
승강장
REQ
Max
##버스
##ley
부장
##bound
Transfer
우수
Count
신라
##ered
##endor
최신
##톨릭
suppl
qual
노르
제정
bind
Local
##aring
partition
게시
불교
득점
Rule
해도
가용
다리
##WS
알고리
tools
수단
expression
##이너
관찰
##ICE
##ler
매니저
##isk
AMQ
보도
##uf
클러
computer
지대
activity
integr
전해
결성
공작
virtual
##120
##icated
##omet
login
determin
##파일
수학
식물
알고리즘
##스턴
관측
CICS
##ONG
스튜
##cho
Net
##ear
integer
특이
requires
supports
Severity
##SS
Acc
사양
syntax
##ilar
기재
미치
59
##UTE
이루어진
Directory
##stand
부담
지도자
Me
remov
포인트
관제
WHERE
제주
##areh
clients
##ns
ALL
너무
환자
그래프
##enario
Par
88
privile
지진
Cloud
녹음
##BO
##ci
##니어
수수
close
place
##imal
columns
sure
지능
##ilities
충돌
강조
스웨덴
256
보급
##istory
primary
PATH
한글
##ges
##ktop
일제
그렇
##aries
요리
스코
현행
##부르크
설계서
저작
##ring
html
rules
고급
대량
##AV
Batch
매개
related
상용
명령어
Go
oracle
번역
반란
##78
dig
Yes
이루어지
오스
전력
UX
상업
##road
소수
호스트
sn
##ITY
빠른
##icit
촬영
다루
exten
비상
연맹
containing
종목
Other
초대
1989
컨트
Date
##led
어떻게
trigger
instead
귀족
##ursor
협상
real
1988
클러스터
##arning
Build
##ARD
receive
가톨릭
떠나
감염
unit
근로
CRE
오스트리아
Core
##EY
Is
##CK
하루
DM
PK
##orld
rule
drop
브라우
전라
간주
##aTrace
behav
베이스
needs
##wise
백만
결함
Cons
##NA
Storage
Explorer
증거
##레일
COL
failure
indicates
##ully
보였
본선
부모
컨설
##터리
그린
방화
documentation
텍스트
channels
##self
unique
취급
##install
MAX
참석
리턴
large
connector
차별
아일랜드
교환
know
Memory
able
광고
95
save
##faces
external
올리
SMS
미술
쓰이
명확
At
슈퍼
Implementation
initi
CA
유대
accept
PROC
정하
집계
몇몇
here
더라도
##JE
UE
미사
logs
여름
Dele
LQ
##어나
argument
##ilter
dynaTrace
##ouch
경기장
##FILE
Input
Appl
Platform
GW
Performance
instruction
##vant
pages
pool
inf
수량
logical
Sol
여전히
##md
Editor
STAT
runtime
diag
##ierarch
정착
전하
투수
##INT
Vis
아이콘
유도
클레
##ashboard
66
발사
##ict
##oolean
공단
decl
형제
##야마
Ac
해안
products
##any
체포
Your
지위
바람
##urther
68
OUT
RQ
학위
Bundle
##ged
IC
이번
##ined
meas
batch
REC
##76
명명
복합
EE
short
만화
est
clause
떨어진
유로
캐릭
##me
util
마우스
##atalog
Sw
##나무
총괄
##valu
##시코
Execut
감지
SUBSC
유리
special
##ather
Unit
용역
시킨다
What
Touch
several
comb
net
주목
MQG
##46
시청
주택
##avig
은퇴
집행
스턴스
안사
분할
입단
##ality
죽음
documents
브라질
##aced
AG
##로나
##33
식민지
Output
준다
기자
##기업
중계
파라미터
listener
Detail
130
라디오
UEFA
head
##log
타이틀
보조
CHAR
items
Lay
exe
Rece
##없이
DATE
##주시
transactions
캐릭터
Sun
eb
도중
Init
plug
직후
채택
body
재무
취약점
MSG
##29
임의
definitions
연산
Overview
왼쪽
##actory
누르
미리
동생
recomm
라면
원본
Import
addition
로컬
주문
600
needed
Step
tree
카메
##ifest
1950
공무원
global
총선
멀티
박물
이제
ERP
중소
databases
##IVE
##ridge
##END
출장
제안서
##fully
회복
organ
라이브러리
Top
problems
Integr
RD
compil
필리
##lement
국왕
야마
학습
박스
상징
reserved
interval
Options
브라우저
Disk
##뉴얼
방영
Update
마케팅
이라고
세웠
합병
엘리
아카
rele
##간다
##티아
전망
##itive
Post
공부
Release
##arehouse
ATT
허가
BO
mi
##소년
Ag
RM
으면서
Property
내각
문제점
강한
유니
free
농업
sym
매뉴얼
불만
아내
style
##idd
직업
ISO
Bak
복원
Map
contents
예선
스위치
##36
##ointer
이래
원정
거대
Conf
BW
800
member
received
초과
DC
container
less
PS
directly
allowed
Common
SUPPORT
##ceed
계기
##JECT
예수
개시
FA
END
요인
##전트
양자
##uch
갖추
전임
유연
스키마
tri
changed
platforms
##iod
가까운
##mt
##Object
es
진다
side
administrator
트래
Section
##reak
가공
Programming
개통
1945
보냈
##cle
feature
템플
core
PR
##FOR
Standard
카이
##pository
파워
##44
##IZ
양성
activ
##러운
납품
노출
CR
국방
SUBSCRIPTION
대형
currently
책임자
still
const
국경
##98
conc
invok
##Util
저항
합계
##아웃
##ryption
세상
##gment
태평
sv
가로
복제
development
CORBA
여객
이슬
점차
Dynatrace
진화
editor
계승
DEF
시위
##met
##To
78
##동안
##Com
MDPS
utility
구성원
##ering
인근
용도
리소스
##특별
불러
전역
옮겨
열람
85
Prg
간단
커뮤
download
뱅킹
점수
공업
편지
Derby
서류
##cel
1987
Char
논란
##RIB
Bakup
뉴스
draw
##change
##Cloud
커뮤니
포르투
icon
##sl
임무
amount
현금
##요일
BM
Base
via
뮤직
##가리
##pose
echo
Resource
KT
examples
합류
대출
윌리
exists
stand
Installing
##gor
role
Edition
Sm
YY
개국
후기
쿼리
Session
done
약간
조작
word
오후
##quent
ILink
단지
##아가
encoding
separate
미군
이집
customer
천황
이집트
##자치
HA
Line
##96
##95
98
회전
본래
탑재
operator
즉위
##001
방화벽
##IM
당선
Fin
1986
가스
표면
console
인공
Univers
컨트롤
##광역시
archive
distribution
##osed
종종
96
##레일리아
##files
청년
77
대륙
상담
수동
멕시코
텔레비전
DV
MCA
rows
condition
Subscri
##medi
Notes
에이전트
Unix
홈런
##alle
##IV
심리
RCV
동료
오사
##DP
invalid
온도
##관리
오프
##티브
Before
##모토
토지
##cp
timeout
심각
##uration
br
Remote
eG
optional
Em
크로
보건
sit
히로
layout
003
병력
의해서
##ital
마치
##uce
performed
physical
대용
descriptor
##rite
##lear
who
원장
vol
박물관
##rast
discus
논문
별로
Manifest
obtain
##ides
##OB
connected
Status
##erial
double
Repository
##어졌
밀도
취임
건너
주간
##EP
Ber
very
eGov
Dev
확실
##pre
문명
##izing
원소
##User
일어난
수급
##ral
##ush
supplied
##Value
은하
터미
gran
fin
예제
ET
둘러
전차
else
important
혐의
사회주의
##41
부처
##admin
##greg
pop
강의
engine
##백질
Sup
##aa
Tem
collection
화재
제약
##처리
metrics
ISM
Mode
##acy
출발
##ng
개방
지하철
##Paramet
PH
라운드
음식
entire
MONTH
카운
기법
##랍니다
lists
##rastr
바랍니다
behavior
cases
eGovCloud
Av
##aving
250
Console
Syntax
##ONE
의존
identify
CF
##no
스튜디오
ODBC
인터뷰
승격
수비
fails
사우
resol
Values
Sum
노동자
GUI
입학
##gorith
widget
useful
##ature
개편
Customer
재직
전파
similar
##onth
Applications
calcul
지상
매년
construct
기억
small
터미널
Repl
MAN
예시
##IL
EV
##OU
complex
문자열
오스트레일리아
Pers
##ience
독자
Online
records
RT
전원
Valid
##ading
삽입
넘어
##eo
instances
요약
궤도
##udio
신학
Jan
issued
주인공
##OT
##PR
##35
이용자
license
부근
publish
##echan
병사
1985
COM
관할
##ured
creates
across
affect
##아시아
대행
포탈
1984
Protocol
불법
마사
##missions
사원
LU
HD
ign
keep
이슬람
BPM
cursor
결승전
##alytics
몽골
##lex
parent
passed
무렵
Sample
Typ
발매되
Administrator
고전
ALT
세르
individ
##fix
##verage
창조
호환
피아
컨설팅
개봉
로직
##교회
##rastructure
corresponding
Content
조금
종이
##47
##Connection
Returns
##allel
ear
Script
연구원
##ench
군인
Help
경향
keyword
statements
붙여
drivers
단백질
License
MM
cr
무선
Index
versions
times
##JT
차장
학문
Brow
ps
극장
하계
윌리엄
##VM
액세스
##ends
성립
수원
instructions
mount
지자
대용량
##가와
대상자
Text
since
아시
original
어떠
분자
알리
INST
우크
변동
##UEUE
##37
sched
112
##ront
appears
Header
67
##urance
least
어려움
Solaris
손해
이루어져
SND
##OM
NH
Defin
드래
사법
가졌
##aps
manage
계급
js
fac
무엇
further
##ains
APPL
연금
협조
Adapt
다중
##system
TRAN
color
ENV
general
급여
다카
##vironments
나왔
switch
Mpower
라도
##버트
##어들
restric
51
Power
COMM
의도
##anning
xls
소장
DW
감정
CREATE
제대로
er
##Script
label
학년
##ARE
실현
Attribute
토론
강원
reply
caus
##Queue
그해
천문
##of
##Event
버리
##디아
cause
##eed
##IA
Change
EC
베네
아우
포르투갈
rc
##도로
##quest
분쟁
##ird
old
스파
헝가리
##소시
부품
질량
interfaces
Environment
master
남북
고지
충족
##rel
##ocation
appear
복수
empt
도달
##AIN
붕괴
executed
IMS
hierarch
statistics
Record
dt
numbers
아파
공학
##ationship
Controller
##iving
Module
용이
##ken
##Onnara
UPDATE
앞서
cop
##host
그레
Production
케이
##ane
52
completed
전선
Enc
Lang
해방
NUM
roll
BY
eGovCloudOnnara
교사
촉진
various
provider
다니
ls
문장
DESC
##com
알렉산
##ROUP
한계
AUTH
logging
person
일원
얼굴
홍콩
##UAL
1982
이란
join
mult
Migr
##IR
enables
##38
위원장
수수료
101
txt
블랙
##ored
카메라
그래서
아주
조절
##TA
지자체
폭발
Driver
empty
DCT
##45
checks
도서관
그곳
서브
Edit
##동기
손실
논의
무장
변호
working
xx
Basic
##Parameter
185
child
src
enterprise
##venue
##Msg
교차
##Qu
XX
터키
cur
##마크
그려
##리포
issue
지내
IV
기후
##to
Plug
마감
영문
##bed
points
중소기업
##man
Specification
##스티
침입
반도
정산
move
해양
후쿠
##피아
생기
SCH
세트
프레임워크
파티
##roduction
##특별시
채용
국정
CC
der
##ynchronous
successfully
FL
정해
태그
##Im
서울특별시
신설
본사
이타
경고
##mitted
lines
엑셀
##zon
72
And
##나이
##aking
MP
##endix
drive
Framework
##YS
##임스
공군
이기
##uing
##토리
문화재
일관
불과
INFO
인디
Deployment
sect
명예
여신
Global
sort
알림
##eus
##hes
컨소시
컨소시엄
예비
협정
##oute
##ival
TA
디스
공지
세이
CODE
국회의원
REG
SEQ
본격
사용량
침해
ef
브랜드
원활
리더
Comple
##oles
arguments
태평양
훨씬
##kit
##RIBUTE
##eam
TEST
채권
##97
모르
정렬
침공
##iance
잡지
MONTHS
grep
Only
가용성
##aun
진입
Now
전혀
다섯
어렵
browser
남편
Managed
##스카
에게서
나와
metadata
keys
##FC
대학원
##alth
cho
##otal
규제
##트로
bar
##43
1983
##oh
##keley
장면
구별
Hat
online
da
##Request
겨울
법령
갱신
검출
##ling
built
occurred
합성
##티나
bean
HE
codes
조제
절감
##porary
이자
##카드
성인
hold
##ded
패스워드
individual
press
respon
##소리
##AND
Sales
High
##heet
##raries
Column
외국인
##ember
Pattern
turn
##ogn
Berkeley
근대
##DC
certain
브로
공산당
업자
핀란드
장식
Query
pointer
##ipse
##시스
les
##antec
period
뛰어난
admin
일어났
selection
##Ord
기상
절대
Runtime
97
휴대
상관
세종
세우
대대
##주교
itself
ATTRIBUTE
적정
AV
starting
against
##Factory
impro
임금
탐색기
라틴
Rest
known
미사일
don
##Comm
Min
##ters
마크
예약
##CHAR
정치인
현지
BIP
##SA
초등
##합성
복호
devices
오브젝트
mys
검찰
하도
messaging
상단
##ung
Messages
소송
alias
COLUM
화물
##ists
##누스
이스라
datas
##OW
constant
1979
entries
연극
##oms
##32
무상
검수
상하
Distribut
Graph
mechan
제임스
easy
라며
캘리포
##UNT
고양
항성
##트리
communication
1981
이스라엘
센서
맞추
알아
ALTER
err
basic
##tenance
Architecture
위탁
##지션
반출
투어
Cert
Del
monitoring
JAV
Point
당사자
symb
고시
증상
GP
1973
PJT
Mapping
루이
##아프리카
캘리포니아
MEM
기지
AM
OL
보전
불렀
##ipp
LL
상승
usage
장착
군단
##ONN
post
서양
BS
유전자
##Rec
Ent
##tp
Vari
이끄
모리
##키아
##ograph
PUT
architect
Some
dist
##Int
##ailability
운전
##ustr
배열
Inv
Job
actions
1972
##chema
대립
에드
prin
##베르
기호
나타난다
solution
87
코스
##LK
##다리
##queLink
중심지
sharing
동적
##clipse
##active
의학
음력
편리
##arn
##dbc
거절
군주
트래픽
OB
통화
코치
국토
MCI
occurs
살해
원주
효소
##izes
wizard
횟수
INS
##베이
해상
##ycle
takes
정체
seconds
보상
##테르
Grid
iter
KEY
grid
SequeLink
역량
ord
700
1920
Filter
##92
##air
uns
우려
나치
유기
##idential
##LETE
Regist
Symantec
##센스
파트너
jsp
JS
Author
직무
##ested
administration
Related
아랍
함대
##Bu
##BOL
##cent
##드로
귀국
##IF
functionality
WSDL
algorith
잠시
무시
##elf
ORAC
HOST
NP
##타인
돌아가
Intelligent
노예
##ean
##cat
subscribe
인계
EXEC
KBS
##ORD
Dynamic
시범
경찰청
자율
1940
바라
##철도
중반
취하
##ector
나폴
Bec
부른다
오전
약속
##alyz
Delete
##ially
longer
Lab
였을
모스크
판결
하우스
##Key
170
##ty
##낸다
JAVA
초반
##uced
착수
오사카
Analysis
꼬리
마리아
유전
오히
BR
더블
##ferred
entity
형사
##hing
1974
남동
카르
주교
pane
달라
트랙
LIGon
projects
normal
탐지
했었
주석
##라비아
1930
##aaS
generate
발굴
체육
Make
crit
물품
##itri
떨어져
편입
오랜
통지
priority
BC
Save
conversion
tb
시내
추천
DTT
Stop
ORACLE
evalu
hig
COMP
Vendor
##리티
BEA
Nam
인상
RET
출생
EA
연간
청소년
##upl
Insert
##94
징수
establ
중대
##df
스리
##ving
##고기
lat
전후
##먼트
maintain
once
이어지
catalog
의장
SHA
우편
매일
전공
much
식품
손상
##레드
Language
세요
bound
대항
가사
##perty
납부
##KE
libraries
ter
지키
간격
게이
##바이
LINE
Tools
신앙
아웃
프롬
##ah
청나라
##abilities
MA
programming
융합
##though
BMW
##MIN
##pload
모형
environments
##cket
##pr
SDK
유엔
impl
ini
##itut
한다면
specifying
Once
이승
Spec
MQPUT
REST
EMP
LIST
TX
공기
소년
managed
##FH
알려졌
occur
프로그래
마법
numer
대시
##FORM
나뉘
장점
교류
Address
##llustr
SL
##LOG
아메리카
Initial
직전
stack
고종
라우팅
재단
고서
선고
transmission
Portal
아름
신체
Cal
VAR
어린이
완벽
대가
특허
position
지리
사이버
LEN
스피
##ae
sem
권고
shut
##틀랜드
COLUMN
회수
세금
에도
SERVER
COBOL
mean
few
permissions
이민
해체
보병
왕위
라이센스
Ama
ms
스터
프라이
##선스
Require
##down
conditions
개설
Under
도면
열리
라이선스
##By
연도
Comput
플레이어
setup
runs
QUEUE
usually
Then
##각형
오리
페이
정복
Commun
1978
##aterial
mov
올렸
##Out
##테이너
apache
단독
migration
sections
미들
TUX
gr
하도급
에선
blank
1975
##마스
Visual
이메
opens
시인
represents
서기
##aining
dir
Office
upgrade
Optional
AL
MV
샘플
권장
증대
보여준다
PASS
마침
Created
Wait
컴퓨팅
소비자
소득
JD
##irm
##acing
discuss
소방
통신망
cost
갈등
##QM
flags
JSP
mysql
1969
일으키
##ordin
Users
비난
##ik
주식회사
##Flow
contact
오토
고문
##ifier
##entral
KB
활발
explicit
입금
영향력
##ilder
119
abroad
IO
인정받
변형
1976
VALUE
Reply
태어난
##IO
필리핀
CHAN
receiver
재해
추측
1971
오히려
##다가
후지
Domain
vi
Order
defines
통상
##반도
신화
후속
Because
소식
pred
컨테이너
구입
처분
##Controller
Amazon
당해
고구
만주
concept
금속
MT
ip
조기
내리
continue
##데미
##ORY
Account
First
Sign
언제
Examples
Wizard
누구
TC
##리히
threads
62
비록
Stand
2003120
실질
Down
##터스
재료
##IE
analysis
starts
포기
Development
무리
요새
distributed
울산
III
WW
질병
철수
조달
표준어
Assurance
##네시아
assigned
dump
DVD
Appendix
##connect
region
접촉
중세
Functions
1963
가시
유학
강점
색상
이성
##무부
privileges
answ
ve
##리스트
북미
good
점점
directories
스티
##NEL
178
창설
수송
##arrow
농협
topics
혼란
cred
인덱
##오카
##BER
공주
공포
Inf
##lock
##ground
그래픽
Profile
verify
##수록
XS
남양
마드리
replace
이메일
##Count
##ene
progr
지향
경상북도
컴파일
산맥
제일
주전
understand
본문
greater
Chang
##cedures
Policy
express
##ium
##wd
makes
동원
사거리
##fficient
break
proxy
About
한정
아카데미
갖춘
AA
##URL
##요시
##ARY
음성
입자
수치
시트
전담
1968
op
ADD
MOD
##ercise
boolean
요원
대금
아스
덴마크
주위
issues
분명
구하
63
##FIG
ack
EP
중학교
마드리드
Settings
방면
스캔
대처
유비
61
솔로
암살
원리
##55
track
##오스
##ployee
extension
None
요한
qmgr
저지
1948
정합성
power
나타났
##lier
located
Toolkit
Package
임대
Analytics
Length
Introduction
Admin
서울시
##직자
GROUP
sk
호텔
##ica
und
addresses
모아
태어나
버퍼
희망
sav
세운
Manual
scripts
updated
강하
컨텐츠
Item
##49
authority
선조
흡수
정수
1977
Master
내장
밖에
##emo
Export
글자
생존
출마
creation
Messaging
선생
탄생
##ais
프롬프트
문서함
except
CUR
LAST
로운
의뢰
항복
Mac
롯데
##GW
terminal
장악
##Date
mac
물러
however
안내서
PHP
호수
cell
##를린
##ipher
processed
php
메이저
플랫폼
IM
rather
우스
플래
getParameter
fre
대수
상당히
Simple
##iers
DAT
ways
주행
##Source
방출
indicate
##라노
Configure
sender
인권
인류
하늘
##rupt
연합군
email
##Se
filesystem
항공기
된다는
##VICE
공산주의
보정
BIN
MQMD
탄소
INTER
servlet
경상남도
Sync
범주
seq
relationship
##Env
대시보드
##esh
북동
best
##42
Mark
전설
##box
transl
SEC
어려운
막대
##ourse
그리드
segment
administrative
사령관
Put
북서
스케줄
논쟁
머물
requested
detect
확립
##Hand
인종
풍부
미만
##아메리카
흔히
##110
Virtual
나카
##리어
##BMS
constrain
notification
이중화
cover
Public
고향
selector
어디
##ific
##TEM
manual
Case
Msg
Refer
invol
DRM
마쓰
correctly
성당
immedi
신분
##aut
often
Summary
##osing
##ret
연료
TRI
rev
DBA
scenario
##bench
포위
오버
어도
Here
제고
##obe
##icens
##ANCE
자바
collect
카를
##unc
gateway
내렸
레드
으려
중부
##etch
##피스
CHANNEL
태풍
Auto
사태
##ife
맞춤
encryption
deleted
too
##now
터널
해졌
##national
유닛
대내
그런데
스마트폰
Category
생겨
compat
##Spher
General
##UND
1946
updates
mte
RAC
##AF
Procedure
##my
고구려
순환
지니
코미
죽이
completion
수신자
##네스
##Size
MQSC
ebSpher
hosts
구속
https
loop
재생
layer
역대
Confidential
Title
질문
로봇
1964
overrid
##EE
vo
PAR
플라
Path
시정
부가
지사
투쟁
##az
별첨
Found
인조
center
##바르
removed
후손
proper
##shot
GM
공화
가리키
Kore
otherwise
수리
신원
##wall
헤이
스코틀랜드
감리
EDI
##Length
심의
게이트
##olutions
prevent
추구
한도
pi
Conver
equival
수여
평양
earlier
##CF
##Hz
four
이른
token
테크
1967
시설물
MBC
아르헨
경비
작성자
저하
총독
successful
REPL
##BI
기술자
성경
품목
새롭
아나
Priv
지닌
폭력
##문화
들어갔
##RT
##jt
works
단말기
Layer
Mid
##RS
행정자치
행정자치부
##cast
##이크
lower
medi
집안
##uman
배출
안타
##운동
##space
##LY
열렸
##CD
변호사
일체
Disc
ned
미터
전면
secure
ins
DTTM
jeus
Technical
USB
스프
혼합
cp
가동
금메달
아르헨티나
forward
##ACH
YN
신성
QMGR
##스키
dim
스러운
installing
simply
measure
Total
##방향
DELETE
navig
명성
유관
하단
##93
##apshot
##에르
##ino
##URE
##entials
루트
건조
견해
##SO
168
binary
후원
retrieve
포지션
##oded
인덱스
진보
일으켰
Ensure
유재
한때
##SM
Password
Feb
share
Contain
##ATCH
연고
##ending
##HT
They
1962
데스크
애플
CE
명세서
강원도
manually
공인
이뤄
##브리
교토
스카
의심
유무
점유
aggreg
방사
방해
##oli
##GTH
##iddle
##iff
계약서
assum
900
슬로
명세
OF
Running
에어
LIC
VP
##rl
##ideo
클레임
점포
빠져
exact
OC
대외비
105
packages
물건
scope
속한
##GER
##ins
진압
1949
확률
##abling
Reason
tar
tmp
##sequent
창립
##iction
불린다
DNS
##uture
##퍼스
1965
창출
##싱턴
농민
영구
##정부
1966
분열
##VAL
우측
##nost
대략
DL
끝나
MQH
공동체
##CAL
##GE
명단
보컬
##ks
embed
따로
158
Integer
bus
media
somet
스럽
##part
WT
실수
##ension
quot
##셔널
노르웨이
매입
생태
##eople
장교
##Cmd
Systems
학술
단가
포도
방법론
altern
art
상주
##acter
let
startup
콘솔
##자기
##orial
Adobe
녹색
blocks
사물
##ites
유용
Leg
저서
모스크바
clear
베를린
LE
사장
146
applied
코미디
사운드
##다는
initialization
KH
##Query
처벌
low
자라
가져오
##Ad
156
avoid
encrypt
##Impl
##Inter
ma
도전
말기
Suite
quick
해산
배정
GR
##변수
73
WMB
게시판
optim
Tom
Usage
노스
CONNE
구름
합격
히데
121
헨리
아파트
##WN
##semb
JVM
프라
##니즘
선교
천만
std
##Up
작곡가
Provider
param
letter
반발
SU
##itria
움직임
복호화
근본
한자
gov
INF
INSERT
균형
##Card
accord
depending
LIN
Diag
Protection
모여
박쥐
miss
문의
경쟁력
신청서
throws
성질
압력
capabilities
산하
NONE
거기
종사
##Context
Cache
멸망
로고
filename
Desktop
수술
##ained
하나님
전라남도
천체
철저
##aken
##FAULT
당한
상륙
경성
##75
액션
typically
막부
ORG
##HO
##트라
Null
폐쇄
Activity
히트
자녀
프란
고리
분해
members
줄이
정원
##reat
##gate
ENT
지불
plan
DNA
결론
지수
2022
fix
##cs
Mach
##Sh
##원군
##ITION
detailed
광범
Secure
국무
도망
선보
브리
에피
토대
##ased
Instance
incom
유적
부활
체험
004
아미
pair
Solution
Receive
##abor
Can
서술
아침
INTE
BLO
축소
웨스트
단축
Publish
불렸
시뮬
PER
##ident
된다고
철도역
삼국
##ention
131
Schema
diagram
##Doc
125
관계자
MySQL
But
비중
일상
1961
GIS
spe
목사
진흥
##pens
노트
접하
##일보
조립
##ays
생긴
##ulation
##apped
title
육상
탈출
직위
문헌
연습
##irewall
##path
요양
START
커뮤니티
그리스도
백작
시리아
경주
hierarchy
순간
volume
catch
lit
##reshold
원작
##ift
stopp
폴리
유치
Sched
RDBMS
69
##epend
일대
kg
병합
Am
답변
워싱턴
##co
##tle
xsd
flo
법칙
경유
THE
matches
ESQL
EZ
tx
Workflow
ITEM
##오프
##TER
아동
##하라
##andom
피아노
##ably
specification
mobile
계통
복무
시사
##ledge
에서부터
동향
전철
hap
##Stream
actual
##Config
순수
요금
Dest
베이징
##ooting
Block
equivalent
Track
NM
dd
AI
물체
Constant
equal
unless
엔지
건립
Differ
PA
차종
포로
##udit
최상
minimum
SAN
교부
라이프
중화민국
##기에
한국어
Free
매개변수
비동기
흥원
prob
quest
1944
##ocus
STE
선진
##izations
십자
tell
수소
calling
localhost
프로그래밍
Book
도와
상실
##병대
성향
##사키
env
노부
##ventory
BACK
아름다
DEFAULT
##다이
OLAP
Element
모델링
상기
재배
##yb
##ety
충청남도
Every
##roubl
##atis
procedures
엄청
##rient
permission
아테
owner
##PLAY
모음
##jor
장르
원사
##ICATION
흑인
trim
third
경보
끝난
##ORK
lookup
##aunch
tmax
##77
exper
1941
군수
흐르
분배
##card
SEND
##ln
개입
##ached
듯이
CNS
zip
기하
writing
##pth
##bar
##igned
대법
expand
##퍼드
학부
##thing
광범위
Mar
##에트
잠재
organization
route
요청서
태국
CRM
제자
drawing
##TR
스페이스
CLI
108
남서
Recovery
회선
악화
다스
수석
올려
##일러
namespace
##OLD
TPS
유재윤
autom
numeric
Que
Adaptor
Cube
Dashboard
바닥
협약
alter
빌딩
양산
restore
떨어지
92
베스트
사업장
offset
That
respect
디퍼
fr
PROCESS
##TY
algorithm
브레
transport
Current
사외
##oom
delivery
car
건국
##머스
initialize
독특
콘스탄
##비드
references
광장
느끼
##39
선박
Commit
NUMBER
승진
달하
TRUE
Full
탈퇴
Region
오스만
사정
illustr
##아버지
들어오
엔지니어
좌우
##tra
벗어나
운송
탈락
떠났
구글
##서트
미들웨어
배상
MQM
나아가
블루
parser
1919
네이
sending
situ
의지
입법
스펙
SILK
amq
로버트
placed
##Input
간행
##usters
had
나갔
자문
도모
임계
할지
먹이
modules
DISPLAY
서면
훗날
##utorial
부부
##tom
충분히
due
망명
Smart
영입
동양
previously
structures
##Get
Window
법정
71
양쪽
Servers
##anner
strings
자식
Upgrade
1234
material
TD
machines
authorization
벨기에
카운티
자살
##키스탄
toget
TMAX
가속
mechanism
CW
month
together
갈라
유저
invoke
김영
dead
원천
향하
##타임
Ora
사무실
파크
106
웨어
##reate
분위
Automatic
Runner
pg
pdf
인접
초점
##nk
##여금
Processing
1939
보스
이온
김정
원가
CCS
LENGTH
architecture
앞두
삼성전자
처형
##Root
super
석유
##dn
SVC
invoked
##roublesh
##RCE
맞이
항구
다소
지붕
동계
중점
##니까
wide
##head
무결
전형
Authentication
terms
레지
Pure
상속
개조
그레이
Fed
광역시
자극
##Agent
기울
둘째
native
향해
화성
##세이
##라이나
Rational
관직
bat
Trigger
##Pl
##irection
levels
contained
Allow
NAS
applies
기도
핸들
symbol
살아
##BG
##GIN
##포르
인도네시아
eml
1958
MC
176
recommended
higher
Foundation
println
소녀
##영상
판서
##킨다
images
나타낸다
temporary
den
##overn
taken
##릭스
declar
sens
살인
강점기
대삭
진정
endpoint
학회
수납
##공사
PROJECT
implemented
HM
STATUS
persistent
review
헤르
VERS
INSTALL
##데스
##pm
202
indic
부동
뿌리
선전
adding
CN
opened
본다
부진
버렸
살펴
##듀서
프로듀서
recover
regard
콘서트
##Map
inside
연안
충격
replication
##룬다
ATMI
Device
아라
compl
PCF
주둔
##LONG
의거
프로세서
##View
소비에트
호주
##ek
123
##ENSE
links
##Form
Inform
깊이
Revenue
마침내
##무라
자사
발언
1947
Image
sources
개신
Context
MQGET
##cut
##ivoli
선행
identity
prop
등지
메세
둘러싸
퇴직
기에
Comment
uninstall
박정
한반도
##ender
VERSION
callback
과업
대개
재고
동남
having
치렀
Excel
##TED
우크라
최적화
다며
좌측
jdbc
기체
##ently
관료
싸움
무료
양방향
warehouse
연재
Size
##inary
##enced
##이어
정확히
신인
World
Ext
##clus
loaded
커버
1956
origin
84
연출
학원
AB
##fs
Methods
describe
pci
합리
derived
Container
##APP
플레이오프
##alk
##URN
영지
부임
MQR
prefix
74
일찍
MODE
선물
convert
소통
모임
불량
참전
부착
daemon
부사
유물
##imes
오페
operate
##tem
희생
##EMA
Feat
##라드
##카와
Trace
give
Win
가맹
타격
드라이버
immediately
미니
근로자
미국인
추산
##uces
Single
제휴
엑스
##Error
목소리
원형
마일
##OC
JDK
220
세인트
말레이
138
##De
Universal
##타르
일본군
팀장
Dom
##유럽
102
BASE
Sam
방위
##ike
##AID
Home
비전
##연히
company
font
AMD
빼앗
ct
##Node
사무소
올해
views
극대
##ollabor
Biz
Tivoli
리스크
according
조종
수도원
스탠
##Trans
Let
hour
여객철도
ignored
nm
억제
82
Last
##bat
##쿠라
Switch
싸우
브루
직장
타인
Structure
사령부
CONT
validation
오염
자이
커넥
##OK
##ural
Requirements
bridge
들여
수령
캠퍼스
태도
El
##CODE
Tele
동영상
##force
분위기
Subscription
Midas
집권
EZis
socket
bread
마무
255
##afe
OPEN
rate
UNIT
minut
주력
##link
READ
메이지
재위
team
Game
질환
코로나
fully
당국
81
물리학
니콜
headers
512
체코
##trl
1959
학과
Since
백제
오랫
전제
누리
외환
##bs
시카
선호
##ZE
거치
아프
출처
deb
Br
부과
##lying
공수
동성
승객
트로
내전
피하
별명
최다
출간
##ITH
평등
독일군
therefore
육성
##Client
사내
LP
Print
가을
주차
whose
바깥
##BE
주어진
005
SR
심지
일단
마이클
93
148
listen
Managing
dupl
ora
Getting
390
History
절반
username
Health
patterns
Fo
가구
전임자
사임
##USE
customers
##olicies
CUST
MQLONG
빌보드
가진다
공급자
curl
OCI
handling
Therefore
matching
UTF
CALL
한지
cmd
better
##mail
유발
잠금
##ORE
##DEX
##DIR
LICENSE
expected
급격
대역
macro
되돌
subsequent
dashboard
트레이
이승만
Korea
움직이
##plit
##메리
##eta
오랫동안
페르시아
축제
코르
testing
결의
당초
아사
technology
saved
명나라
sur
##FL
LIB
스미
##plest
1942
Technology
rw
##노스
##atively
Reports
Vuser
79
국장
레스
##uning
밝히
disable
##list
printf
##eter
지켜
카탈
tablespace
##rokers
##NDI
Long
기둥
예전
desktop
Find
공용
##oto
Proxy
introd
아티
프리미
선임
1954
공백
사냥
지낸
는다는
그렇게
##station
Iss
재건
followed
cs
등판
경과
incor
SNMP
infrastructure
Mult
디바
마시
##atory
선거구
실무
##vention
바이트
cloud
라이트
pars
창단
subt
김일
##vis
Buffer
부재
preced
##EDO
긍정
비평
흘러
sol
부적
serial
SERVICE
일본인
pay
TOE
과목
받아들여
compiler
구원
주년
##ISS
매장
regular
Remove
JNDI
패킷
##ump
modified
##OLDER
YES
크레
DI
Joh
조항
year
인자
profiles
breadth
category
신탁
##Text
타이완
Required
재개
##버그
##icable
만료
정형
주최
typed
depends
SDS
관여
##Att
alert
javax
##Ind
Are
그때
workflow
##나이티
International
##arks
테러
판사
extract
Autom
브로커
Info
history
Byte
deployed
공중
유행
Additional
94
출범
클라
Prof
##ESSION
Supported
moc
유나이티
Big
알파
##SG
마르크
##buf
SCHEMA
징역
APIs
bal
Warehouse
capt
고위
전신
Rout
Execution
ppt
권위
Pc
REF
TUXEDO
89
Vol
입증
hd
##72
##config
flows
##소통
ROM
Components
타자
개막
##ANT
Character
EIS
디렉터리
자전
##light
서구
Stat
formats
왕자
케이블
의사소통
##문화재
화산
synchron
수시
##Org
##App
##td
악기
rm
##거운
##INFO
##jb
##치아
##런스
스토리
이라크
bits
1952
##우리
##LED
Details
restrict
##UC
ADT
##카이도
정한
##조합
1955
남겼
##투스
아시안
##Power
transformation
Pos
소멸
합쳐
Look
현역
대우
마무리
1953
Io
불상
각지
Write
##세포
##DA
머신
##ited
##Common
did
눌러
1943
136
fixed
##fg
무덤
Search
percent
##PY
상원
코딩
투명
심지어
CNT
허브
Names
함락
##come
이닝
##데이터
##aven
forms
단순히
More
##디션
침략
트라
에피소드
캐시
never
레오
166
visual
Adding
Fix
eld
공고
External
사실상
DA
여론
중기
CV
백신
불안
##alloc
인용
메리
ME
VPN
여서
##해서
포스
판정
outside
##OSE
회담
##산화
개신교
메타데이터
##르타
##fl
단기
Scenario
시행령
Verify
controller
관하
설득
##MA
103
bucket
Types
백성
##Item
Review
##OUT
임기
TOP
Http
checking
Qual
장수
##58
Mon
pract
Pur
벌였
Enable
오페라
성분
##Session
respons
May
연체
generic
warning
월간
비스
##틀러
고통
발발
후계
embedded
actually
URI
멀리
피해자
BRO
##ili
FOLDER
알렉산드
improve
dataset
과학자
최소한
##PH
메세지
오퍼
Setup
png
채무
##바로
##젤레스
Contents
시각화
NFS
Programmer
요코
위상
천연
1957
LOT
시드
##Group
Jun
Where
##map
83
공모
지형
##라클
explicitly
TLS
가량
허락
저술
##NC
note
clicking
##Inst
020
물류
Choose
##essions
routing
registered
##ne
어깨
밝혀졌
SQ
Tag
SB
사형
카테
##eler
Gl
fill
새겨
추후
io
공헌
Altern
간접
##하마
offer
계곡
바이오
타워
Of
상수
snapshot
피부
##roubleshooting
Dig
파르
##add
DataPower
일자리
올라가
세르비아
가설
##질랜드
맞춰
종속
fam
sync
sil
선도
MQX
routine
MQRFH
Studio
완공
##plements
nd
거듭
뉴질랜드
왕실
##pare
closed
Sch
비례
91
##ranch
hash
Replication
테마
도쿠
로켓
약물
크로스
##해졌
탐사
사이즈
붙임
오직
원하
Attributes
원년
총회
##istence
beginning
ACL
Browser
##Class
##ops
along
##레옹
##State
ICT
무게
익스
##이센
len
단편
편찬
PORT
360
신부
analyz
binding
clean
Constr
극복
##omes
영화제
gives
데이비드
Informix
tcp
현종
##DT
##uages
causes
나폴레옹
학사
repe
accessed
1938
PP
미드
##Col
1024
##quis
independ
Apply
남기
돌려
대공
shall
DbEnv
부지
encount
##609
현업
화석
증설
trad
cation
광역
protected
pe
신자
본질
rst
에르
NB
Parallel
가슴
도덕
황금
crypt
기금
기소
##플레이
Bot
EM
파생
소문
Exit
Gent
루스
exits
equals
디바이스
두려
이어졌
날개
엄청난
118
가까이
maintenance
making
##gl
위주
Opt
1936
van
##ons
production
최대한
SBS
모집
오프라인
Multiple
고양이
1910
끝내
볼륨
독립운동
만든다
해리
라틴어
AWS
ftp
윤리
당일
##ora
##emand
크리
register
그만
##Result
##학생
##ologies
##RY
##저우
configuring
Please
##사스
김대
Modify
사기
retrieved
임진
조차
##day
116
transform
##cher
취업
PRE
여단
대안
제니
tra
비서
그라
##민주
통산
리가
심장
유입
##베스
꾸준
중력
cir
exceptions
상대방
INIT
그러므로
Define
approach
auto
하여금
background
필터링
Acro
WIN
NEW
BU
dummy
1937
guration
Transform
늘어
inher
front
107
치러
소셜
표출
##Tr
영웅
subject
버그
##enef
disabled
Recv
추세
##PI
detected
drill
rollback
AUTHOR
135
Begin
Tables
실업
factory
걸친
학살
무한
designed
면역
OT
고기
Exchange
프랑크
Endpoint
펼쳐
##env
졌으며
##로지
##ips
루이스
##어스
Hard
MSTR
리드
찰스
##더스
##란색
999
누락
해소
수백
플랜
화합
##아티아
크로아티아
성우
coordin
become
1918
생물학
##omsys
무사
play
identified
self
산화
##사이
samples
url
가담
소집
##ante
##ibero
##tf
MQCF
MOCO
ws
갈색
업계
111
retry
BT
KO
Dat
코파
##reement
느낌
WITH
엄격
##LES
AGENT
signific
연령
부채
이치
훼손
##용차
ORDER
tier
1914
HW
##yper
##포구
SG
##Logic
ACT
##Aut
ability
시카고
원시
요망
##ii
##천시
##총리
내보
trust
webs
##어도
##mqm
TAS
줄어들
alph
동아
유가
upper
변하
손자
VL
방송국
공로
##icle
##xis
210
major
미나
mer
병행
아도
주사
POST
티베
벡터
jms
##mar
지출
##가락
imp
엔드
Arg
tests
sends
소모
여왕
applicable
expressions
Follow
##gg
Person
ADDR
PurePath
부위
underlying
Exten
넘겨
실력
THEN
##nown
allocated
pc
바위
전동
골든
역학
소형
relevant
neg
iterator
수업
줄기
텍사스
1935
골드
산소
캠페인
##앤젤레스
로스앤젤레스
115
폭탄
##eria
복음
포스트
Async
속한다
수십
행하
##에이
스트리
Acrobat
유고
days
XP
선형
##Add
경전
민중
USE
와서
doesn
고장
##KI
분노
콘스탄티
넓이
##erve
Show
돌아와
창작
아이디어
5000
While
240
노인
생략
자국
해지
##atisf
##len
ONL
cnt
Spring
벌이
##mas
126
enough
PRI
##닉스
프로이센
MQGMO
안티
Ke
사제
##Number
subscriptions
티티
돌아왔
Occ
##우드
165
parts
Domino
따위
김성
IPv
호소
노벨
느냐
##GT
easily
HH
전라북도
ejb
병렬
드리
reset
2003120110
Lock
연설
##크스
recogn
licens
sale
질서
MQHA
적재
정정
Fc
3000
축적
##91
##코스
Express
국도
Workbench
LI
순차
##riented
consum
1933
##USTER
frame
##relation
뮤지
learn
nx
힘들
Day
담보
bottom
determines
설문
대법원
FN
적응
##rist
implements
##스트라
사마
##gan
##ina
##MDD
RUN
보물
보편
1951
Sets
승용차
위대
ISP
시계
고속도로
제재
threshold
signal
받아들이
게다가
INDEX
강남
진척
models
VARCHAR
맞서
페이스
##ulate
화장
##Mod
##이프
주일
temp
Transactions
소유자
발음
IoT
focus
방침
창업
JavaScript
DEFINE
##aching
REP
Quick
아리
대선
재학
Shared
나열
Naming
언스
레알
웨이
CURL
Site
지체
초래
Ins
queries
##scdn
파티션
출동
##de
##프리
Sl
상표
authent
가입자
동사
추방
Builder
Pres
Migration
기안
특급
Rules
상환
Machine
승부
##vantage
상장
##arm
determined
작사
기밀
DOM
dimension
Cost
부친
Dist
수영
##아내
##Order
##쿠스
Eclipse
안토
평론
##aim
personal
타당
Pool
폭격
심판
##omp
공제
##yles
불편
진영
Ltd
발간
숙종
kind
Although
수직
units
농구
certificates
around
최우
hostname
CAS
위임
##rix
Internal
플레
handles
싱가
싱가포르
첨단
각본
안드로
카라
Maximum
Certif
##반기
Color
parallel
관세
한국인
##마니아
##ises
정밀
1900
##clude
##ictionary
교리
포괄
refresh
##납니다
독점
##CON
Proble
전투기
특별히
##DM
대지
##API
Collect
IEC
조별
여겨진다
availability
레이블
belong
명사
행복
##ba
logic
가나
화이트
Store
naming
MESS
세로
자는
발휘
Space
stores
##드리히
강도
배제
참모
##에른
RMM
dbo
사자
하원
defaults
구상
부동산
roles
발명
##onym
activities
이수
##에도
TRANS
performs
시뮬레이션
업적
overview
dll
175
Definition
동반
##71
##otus
다케
사명
exceed
협의회
##systems
저자
CLUSTER
쓰여
감각
리버
상인
옮겼
##TO
##다수
qmgrs
##바라
controll
동해
##gers
프리드리히
RAM
scan
JOB
전주
##OO
##비치
원주민
니시
##estamp
##son
Topic
IA
하인
미쓰
SID
기부
Standby
과도
합동
20120
CONNECT
재외
REM
후임
LOCAL
실천
##다란
의혹
이시
ready
phase
리처
##emonstr
##uous
ETL
KHUB
20100
갑자기
편집기
##za
stopped
표지
표본
Started
##olders
입구
OPTION
mill
모토
##천군
##oring
party
##Process
증명서
Operation
소켓
006
consists
credentials
속해
조상
IG
벌어진
이혼
1932
##bone
chart
일본어
Average
##isher
invocation
propag
걸리
줍니다
대체로
LS
RS
relative
##지능
##STATE
ports
lik
인공지능
latest
국적
##레이터
##used
나온다
가이
jobs
purpose
selecting
guid
copies
none
##산시
normally
블로그
잭슨
트레
Invalid
prompts
##ancing
사용법
##scape
##enarios
취합
석사
width
레인
interaction
SIZE
박정희
debug
아트
##이치
National
##outer
##plestory
XM
의문
##ration
Maplestory
Gr
뜻한다
##ood
##나가
interpre
거짓
매매
유동
##하여
ask
formatting
printer
upload
도요
동서
APM
바이에른
전술
##Work
constructor
여섯
Documents
##yl
아니하
soap
##chie
##대부
정통
차로
PROP
동방
##info
Exercise
에드워드
RA
##order
Metric
##pared
world
True
diff
##iqu
Routing
Bind
진주
만났
나타납니다
detection
concepts
##Call
Ele
grant
필요시
##Constant
FUN
Tutorial
히틀러
1934
DH
실내
인텔
Navig
aw
Rep
##ivery
조카
entered
Shell
제반
unable
receives
##property
resolve
##ello
진격
##OPT
leg
보드
부탁
본명
providing
Most
신사
잔액
##quire
쿠데
fast
people
##ners
limited
후계자
Servlet
브라운
정보원
104
농촌
##the
GN
Mat
결산
으니
##토스
코리아
##공항
##poses
##metry
DSN
Ref
Gentran
지문
registry
##증권
CONTE
toolbar
##grading
건축물
사우루스
구멍
할인
개량
약화
혼인
combination
##밀리
007
significant
공관
대칭
왕비
선포
TEXT
increase
카테고리
##icast
framework
태조
##just
##ogle
##pers
executable
Statement
즉각
##opt
##UID
회로
바르셀
Roll
micro
그럼
교차로
바르셀로나
가마
완화
목차
스탈
약자
Maple
##ufact
단점
145
디스플레이
런타임
화폐
##Series
receiving
standby
PI
OFF
drag
개척
##mc
제사
섹션
##ky
프린터
##RES
##의회
SaaS
scale
득표
DOC
schedule
320
이웃
##erval
##ferences
소관
언덕
정차
##도르
1928
shutdown
##ollaboration
Ne
LAN
근육
창원
프랑스어
뮤지컬
내셔널
쇼핑
##menu
##plates
NV
국군
마법사
단추
##key
##verse
반사
FD
pot
리얼
시상
우라
발탁
##체스터
programmer
내세
api
controls
FAL
##타이
TMS
메커
무관
##센트
copied
선로
설치류
Cap
JR
청약
타운
datat
이명
##Table
##모리
HANG
SCA
##pc
1924
독재
Legacy
##Center
밀려
Displays
찬성
쿠데타
filters
대국
프린트
Array
자재
University
소화
말레이시아
vendor
upon
백인
##직원
패션
이른바
덧붙
시공
입출
충청북도
밀리
developer
Second
simpl
##land
##메이
signature
게이트웨이
허리
확장자
##data
광복
마르크스
동화
내놓
부속
소위
##PUT
##extended
커뮤니케이션
김일성
호기
교향
대왕
정조
##pin
addextended
디자이너
addextendedproperty
프랑스군
인디언
누적
아름다운
TER
WAR
##일리
매출액
부호
##코딩
반려
세자
용인
identifies
Ctrl
좋아
publication
BmsCommon
조지아
객관
수산
policies
기아
standards
나들
Infrastructure
sa
dependent
##arter
JM
오피스
##IEW
연합회
Destination
##thernet
prec
becomes
장남
달려
##MMDD
상대자
Soft
스크린
비행기
섬유
Processes
Logging
첫째
continued
Hub
RUM
##Port
메커니즘
Vitria
자본주의
화려
총장
##ACT
CONFIG
NIC
ge
languages
##숭이
##AGER
추기
바둑
##지사
못한다
일환
desired
리아
WebLogic
##슬러
meaning
아테네
Termin
특화
satisf
##LI
##UD
##unk
Narrow
##의정
127
가져온
태종
##MSYS
protocols
주거
탄압
해킹
그리스어
SFR
가질
플러
executing
ld
##exp
##Char
cat
대다수
센트
scal
Starting
schedul
##istic
building
choice
거점
순번
cn
RETURN
##스팅
DF
보험료
MQCONN
ARCH
나들목
방정
시마
쓰인다
재처리
국내외
##Field
실습
음악가
subscriber
##OPEN
facility
JSON
random
전직
##메리칸
mocomsys
##ETA
돌아오
words
future
게르
##dk
missing
course
##IAL
##CII
Bar
FLO
PUB
350
세미
흰색
109
FW
IR
##ifications
1931
speed
UCS
생겼
Depend
극단
히스
##무르
abs
reading
John
사우스
수명
##code
155
동명
시조
영주
om
번지
영양
advanced
manip
유한
OBJECT
문법
진학
남아프리카
서약
1921
승려
##ea
Working
가와
랜드
##Header
ess
분화
considered
pol
궁전
County
Building
KR
Modeling
##Handler
용지
delivered
Two
대만
사도
잠수
호흡
##왜란
비치
임진왜란
##imits
changing
conn
강요
FEP
격파
Provides
곡선
전년
개칭
##머리
1923
Handle
계수
##너스
yes
##ren
FAI
이어진
##acity
mapped
sb
##Option
MOCOMSYS
SCS
오케
##pat
##고속
##독부
waiting
##생물
불가리아
others
COPY
referenced
##Web
보호법
루마니아
사본
1929
privilege
사이드
미야
##BK
당대
ens
당나라
YYMMDD
아티스트
PART
천주교
패널
##리우스
##친다
라스
##Version
##슈타인
가이드라인
Reporting
안쪽
##mod
Events
집회
가리킨다
Sn
사업비
조조
fore
얼마나
Ge
solutions
wrap
WHEN
1925
유형문화재
친일
법안
서원
Patterns
원수
##86
경제학
RFID
##Constants
PT
series
추기경
ss
resulting
Fact
평안
##일스
expect
FM
ASCII
데스
포켓
Sens
수반
인수인
수표
해발
덕분
##cated
간섭
미시
아인
임원
converted
HJ
조명
혈액
##case
일으켜
wc
properly
각국
블라
##Index
derby
당원
보살
##alf
##ournal
연예
Listener
김현
무력
회색
매각
알바
WebDB
도마
이어서
##VC
FORM
구문
아이템
다이어
discussed
급제
빅토
습격
충전
##Th
준공
BACKUP
항의
answer
세리
Pa
##니스탄
Backbone
demonstr
Used
INTEGER
attach
COUNT
상황실
extended
initiator
extends
something
리처드
기종
##AMP
##efined
남겨
황후
##bps
##inations
##asing
firewall
##립니다
##MSG
1922
##Response
Identity
##NING
achie
디아
##EL
방언
signed
원자력
JB
경사
왕후
##ness
##aged
##imited
graphical
재즈
REPLACE
적어도
Close
SNA
제니퍼
알프
유해
##stitut
Cond
반납
##vr
##place
cross
433
NC
가맹점
care
interact
Don
STOP
big
##roid
##perties
는다고
runmq
##ROP
packet
효력
yet
attempts
이념
줄여
##대장
##ffers
Bank
though
오퍼레이션
Contin
풍속
환승
지칭
##유산
interrupt
아무런
Queues
ADMIN
MDX
Lotus
##ribute
consumer
영감
transactional
##IES
gets
트랜스
리모
##Sc
##바키아
##클리
##ypes
##Status
##lette
Meas
digital
국방부
일기
Fixed
조인
앤드
유산
마운
vs
누스
##orn
EU
재능
칭호
logged
조선총
##Buffer
Drag
bug
##umeric
APPLICATION
establish
가난
빌드
조선총독부
서방
액체
정교회
국제공항
동북
혼자
##이즈
DATAB
각자
특별시
008
방정식
급속
김종
Patch
기다리
철거
cod
EVENT
summary
증언
Activ
실용
##ographic
Tim
indicated
화살
선수단
LLM
Programm
FAIL
대변
exam
generates
tux
developers
NS
인수인계
기한
창당
intended
ENTER
드릴
포항
보르
purposes
unsigned
사격
##원경
늘어나
마주
사과
Private
부합
1500
Installer
제조사
##VR
MIB
looks
Less
average
가요
마저
##book
##마르
토론토
BLOB
##ERP
독일어
RMAN
##erequis
EXCE
레이아웃
Middle
안보
영조
지분
central
increment
주류
##Direct
MESSAGE
튜닝
컨트롤러
##cip
Template
화합물
Notice
CTR
야당
프리미어
Certificate
오가
things
supply
incoming
MES
색인
consistent
평면
Amer
대성
Metrics
browse
똑같
guide
훌륭
RPC
빨간
소음
물고기
Transport
NOTE
arri
CARD
지중
훈장
VAT
##rm
secondary
중추
##73
lead
replaced
질의
항해
##쿼터스
##VEL
유비쿼터스
노리
workspace
published
1927
incorrect
Box
OU
Resources
operators
HEAD
Stream
##No
##sembly
개성
종전
##가스
##ADE
Listing
군부
중립
식량
크루
##ta
programm
##79
##미르
meet
사퇴
좌표
##call
workload
##bit
최후
킬로
Otherwise
lost
글꼴
수호
##오르
Tab
안건
adapt
Syn
관객
##andatory
tape
렀다
착용
반도체
신장
##lectron
사라지
스트리밍
cc
간부
닥터
시신
선제
##Main
reb
##stract
농장
##인수
##UCT
1917
나섰
encrypted
GHz
정립
Writ
흔적
카스
차주
##cond
경찰서
minutes
LED
교구
Subject
Partition
Plan
돌아온
대조
쉬운
피터
asynchronous
HR
tm
##비히
##init
1926
AQ
Hot
##성군
##란다
옮기
저널
whole
114
아이돌
이른다
##plet
##민주당
베드
경남
기리
##GET
defining
##iper
##시스코
MIN
주주
본관
##dir
WaitTime
이룬다
멸종
paths
Serial
배송
Ethernet
인생
larger
override
스탈린
수평
##미야
팩스
##EAI
##으므로
봉사
토큰
화제
##standing
민감
chain
비하
오이
##opp
우크라이나
ye
초청
플러그
TFT
미흡
##orth
Hash
split
중동
transmit
HTTPS
1907
SVR
Bal
소지
정해진
나서
PW
새벽
##74
신한은행
MGR
주파
##MQM
제이
저축
##eral
compression
진료
##encies
##uspend
ESX
Occurred
벨라
RESOU
수지
유선
##Servlet
##Not
##IZED
자이언
뮌헨
##뜨리
INPUT
스프링
ea
도쿠가와
아메리칸
타점
접근성
experience
TASK
zone
submit
20150
빌리
천안
##we
##anti
processor
##izer
항공사
Location
강사
아카이
암컷
Cent
지주
IDs
창구
법학
CAP
감안
구독
통행
목성
클로
critical
likely
vt
청주
compile
consist
representation
안동
헤드
Live
공문
ANN
진술
최저
##Dele
##테이션
##leep
베네치아
지부
재판소
본토
출금
##oph
SendTime
RecvTime
Registry
Optim
놀라
365
communicate
MY
VR
연수
##베르크
DATABASE
빠지
plugin
BFILE
가끔
나타난
Watch
상암
##베리아
동인
반지
유배
##For
Validation
FLAG
FF
주재
logger
comparis
인치
##Off
MULT
Tibero
term
야스
Testing
Dim
생애
진실
communications
Distribution
티베트
tre
유력
##KER
##ifies
FALSE
##무늬
performing
자랑
##earch
Microsystems
Deb
이스트
##리학
occurr
후쿠오카
nested
serv
운항
##StringUtil
constraint
bw
ssl
원고
프랭
progress
sal
노동당
verb
PACK
커다란
branch
##Occ
지역구
1911
##RIA
단층
드물
##성기
약탈
Intel
reporting
운반
partitions
참가자
quickly
##야스
스테이션
MAC
총재
탄핵
##퀘어
exactly
plus
우드
##istant
Tomcat
##precated
SAL
출현
행렬
##ats
1912
cou
vector
조화
##ASTER
무인
BmsCommonStringUtil
##ror
피드
separated
유대인
TT
스톤
패러
##FM
ns
노무
치르
spaces
##known
상이
전적
integrity
세월
CCSID
스미스
benef
압도
부패
시킴
포장
Sequence
중성
Deferred
양국
주자
부수
야간
##group
123456
여우
지질
Formats
매수
##동생
카탈로그
오카
##OINT
##SSL
##Par
피트
정교
##Def
##Fl
TEMP
##NG
accessible
1905
드래프트
물려
market
할아버지
##ulated
세워졌
성직자
펼쳤
Flash
sessions
석방
confirm
Integrity
발전소
Car
원산
폭풍
데몬
원조
정면
resolution
결과물
부당
##레오
야기
ROUND
##idden
살펴보
030
Consider
EL
휘하
Low
그럼에도
going
증기
철학자
여유
##ees
##elines
비틀
스퀘어
오라클
past
CLASS
인민군
##ybase
키보드
mqsi
##PHERE
lets
밀접
LOBs
integrated
Joint
국세
후퇴
113
##pective
필름
Retrie
##XML
enh
SEED
살아남
봉기
현존
subsystem
visible
체인
alternative
Narrowcast
Best
나선
##100
##ategories
independent
Jul
모자
SMTP
##sect
꾸준히
Math
publications
이즈
##ministering
파운드
Planning
##shop
locations
##go
Nextro
최상위
공시
나다
DRBG
기압
##공업
interest
아틀
투스
STRING
마루
아울
##position
particip
digit
고조
지휘관
eclipse
쓰였
##베르트
인재
임상
##과이
##olt
##ubes
checked
트리거
남녀
올린
##ookie
releases
ABC
sensitive
xa
알레
토록
기상청
impact
Ow
증서
remain
Tree
장례
##XA
임신
partner
미스
##olation
QA
법무부
수천
Partner
돌파
로맨
이지
##텍스트
공룡
키워드
##구리
identi
ev
suit
swap
레닌
부드
파키스탄
VMS
고안
보안관
조성윤
스티븐
Elements
이날
locale
Availability
rd
간다
작위
parse
indicating
descriptions
장로
타율
해설
Built
recommend
관서
교과
sites
xxx
mut
##gments
따른다
벤치
부유
빨리
DEPT
svc
안토니
goto
역전
이재
##티스
컬러
하천
##fc
EXIT
타이거
선두
HIV
감옥
동력
주니어
##긴다
##힌다
caller
대리인
bank
월별
피스
230
입사
프로파일
교역
시오
이종
##nostics
정적
##거래
아프가
##IH
산지
##iable
자유주의
MANAGER
Bit
1908
가중
구사
La
Pe
reduce
Documentation
CB
낸다
##mpty
FML
동등
무너
##uro
대표자
다다
##Element
##하이
##arante
redo
트레이드
ROW
고개
종로
다이묘
메탈
캠프
개장
상시
해영
드러나
##공단
##ingu
clusters
migrate
입대
청사
##드라
Failed
##Occurs
김동
데리
진동
audit
emp
동성애
이와
CSS
Symb
발레
클리
그리하여
개명
에디
##idget
Associ
flex
##vert
##mark
##UL
duplicate
##BACK
결심
기병
##raft
성종
##ster
decimal
농도
레이어
push
때로
무늬
##adm
Both
kill
만일
##anel
represented
##퍼런스
##partment
HDD
동지
든지
행정부
Available
Year
목숨
##sphere
동메달
prompted
Google
GNU
wild
마포구
alone
employ
자치구
BL
Love
공세
재임
흥미
Collection
news
##ANGE
rpm
고고
연상
평생
float
대결
배웠
은메달
##bj
Fran
마그
콜로
adds
compress
사료
시연
접한다
통로
Many
플로리
progrm
detects
Concept
엘리자
##Output
정서
HQ
cube
pat
글리
중재
##Start
FAILED
도미
##Exit
Menu
빈도
오키
위안
##aff
##ragment
##print
##AUT
##AK
##velope
기온
수컷
특권
##ament
이루어진다
##grad
중시
connecting
##ISE
##vl
disconnect
마스
무용
서식지
declaration
During
##저스
교도
단장
##러지
선교사
FR
Timeout
별지
어두
보스턴
영혼
CLUS
fetch
##사르
데려
##돌프
##queue
서적
##End
1906
심리학
거친
로렌
성서
##oS
##보험
inventory
신여
용기
comes
primit
criteria
라트
퍼시
클래식
Human
북서쪽
##ACF
trimString
공국
매치
맨체스터
##Bean
##브라
##LP
locks
accessing
하버
부도
##마이
probably
##agent
아프가니스탄
NAT
페리
##DATA
연락처
##제국
기입
성남
쿠바
##sdl
명확히
영원
##ENCE
Scale
내지
##레이크
도심
traffic
offers
terminated
FUNCTION
전남
installations
포켓몬
Ro
rad
##스트리
커서
ASP
TSF
수렴
해진
##시저
##DO
Errors
##ancial
##ecimal
xmlns
메트로
제네
르네
locate
곧바로
##레나
Operations
DMZ
Double
pjt
사막
0001
##다른
deal
TAR
UC
##vc
ca
유인
Tri
##erce
##nowledge
onto
사이클
가하
증빙
올스타
증진
유아
세조
##테스
##시스트
걸려
compare
easier
bo
##ULE
##spec
베르크
와이
silent
scenarios
fte
강등
video
##하우
obj
1414
JN
areas
##ipient
mon
국번
산림
buffers
콜롬
##폴트
MQTT
댄스
영리
Distributed
direction
종결
##ashlet
Had
Warning
집필
펀드
keywords
쇠퇴
##At
CI
Central
염색
우에
이진
기록관
AUTHORIZED
SIG
당신
홀로
##Pass
delet
grow
installer
Primary
##All
BEGIN
Operating
refers
탑승
리뷰
요미
진도
테스
proc
##Listener
Media
검진
반입
##ustry
poss
무효
업종
##슬라비아
MQF
capability
유고슬라비아
연소
##write
대원
재현
##Of
##타입
칼리지
공신
##bl
fs
employee
lnk
PROD
##Connector
IMP
뱅크
중도
행해
doing
recon
들어서
append
MQCC
Email
##gle
##ocial
why
자세히
지장
##미아
Decl
TRIP
compatible
실명
하와
캘리포니아주
cpp
메신
베리
조언
##져서
##ECK
목격
타원
구로
thus
Demo
##NET
Execute
##arily
Tel
사찰
취리히
돌아갔
놓여
##해군
comment
buf
VMware
자전거
GC
크라
addr
주파수
patch
대동
사관
상처
##PA
##틸리티
##idth
reads
부작
유틸리티
사립
아이스
컨텍스트
Digital
광산
국어
매주
별개
##Le
##Sub
Tuning
Troubleshooting
가해
Mo
망원경
일곱
chos
Added
Pol
한성
##필더
exchange
남동쪽
북동쪽
미드필더
마틴
좌파
핸드
##Create
comments
depth
##oving
고가
트럭
efc
적색
동굴
양도
스타디
손쉽
하사
##카오
brokers
difference
Sender
Press
risk
##Run
##oft
##자키
열기
BIZ
editing
svn
RSA
문구
위키
납치
ds
내외
압박
##fm
##EX
implementations
Discover
Lat
인코딩
국민당
mysqli
수장
##ots
교통부
새끼
전표
##SH
UJ
모래
외계
포유
Medi
놀이
비정
지중해
fd
Inbound
연구자
mediation
Row
##멘트
##ASSP
예금
##Loc
##paring
Migrating
##Check
##ants
discard
강릉
##산물
고립
Layout
상무
직선
inser
Role
Employee
Sk
옹호
우회
유스
인라인
SKT
모험
포드
di
장갑
established
수감
##노이
QMgr
차이점
concurrent
BB
##ycl
Indicates
Download
Success
코트
although
들어온
도마뱀
유역
##Array
##iry
##class
히로시마
MED
다큐
전염
칼럼
rect
유지관리
Instead
밀라노
##type
Logic
obtained
Sybase
판타
xlsx
스레드
추상
MQOPEN
자매
Integrator
던지
음모
필라
##RID
BPE
States
regardless
slow
대국민
CG
117
subd
평론가
Body
중종
토마스
##ius
투구
extra
##ServiceImpl
##NEW
Boolean
단원
카자
protect
일으킨
WWE
사신
하느
MQeGW
하느님
금리
##where
##oses
Groups
우익
rcv
벼슬
among
Login
초상
##즈니
닌텐
식사
청주시
ends
닌텐도
난수
##메니아
##ddpin
efcddpin
WORK
모터
situation
BROKER
요코하마
tion
발렌
palette
compatibility
Mag
Lar
Life
XQ
거느
신도
##ipping
circ
슬라이
backups
allocate
##ining
maps
DN
그랜드
하부
Logical
typedef
아르메니아
172
SQLJ
Completion
배급
베타
웨일스
이노
reflect
Special
해준다
Will
두드
자회사
전당
지침서
FB
limits
##Page
Changes
칠레
##STAT
Another
직책
사로
UDP
평소
##구치
IPS
indexes
충성
reasons
##Per
가르치
플로리다
040
규슈
변조
의정부
분실
존스
Maintenance
question
##Act
Automation
AFC
FE
Kernel
내륙
배분
차관
##cing
come
GPKI
하우
##ordination
BMT
서인
정계
##데르
내보내
양호
토벌
ACC
RESOURCE
wmq
추이
substitut
가득
각기
##Login
탐험
##Ret
##니스트
##HD
linked
RESULT
mouse
겨우
추대
XC
단종
##Base
20140
민족주의
계산서
Utility
없애
NODE
베토
##코프
##AIT
전동차
Cipher
해협
##ifec
appliance
quality
DOS
문신
성실
쇼군
이정
드러내
배수
Fedora
##iques
킬로미터
WAP
강전
게재
북아메리카
advantage
##ious
MDW
임직원
##avel
리투
색깔
##그램
거둔
습니까
Outbound
신임
Organ
interactive
실점
FISS
발신
141
reported
ACK
DROP
보좌
바이올
Encoding
Evalu
MR
이조
##br
Month
##제르
##래프트
Subscribe
sap
국기
정제
##rv
아울러
KS
Corp
Wire
이마
ActiveX
Keep
FS
Mer
인명
자마
포인
되찾
버지
셋째
133
들어간
샤를
##추어
prof
FIX
상상
##Num
122
decision
붙이
accounts
##pi
권유
##위원
챔피언십
Acceler
구리
구제
MQD
respond
삼각형
좌석
##배우
##olf
Transformation
extensions
스타디움
##대문
##hem
Issue
##키스
판매량
제주도
성숙
스테이지
주의자
SYSDATE
프라이즈
##cipal
로즈
시모
실증
호조
환원
##주군
기갑
보임
##au
##바른
round
##다니
MASTER
fb
고민
Features
EQ
CSA
##UEST
##Property
operateCmd
GL
##GM
##필드
##믹스
RPM
Norm
기용
메달
팀원
##gist
##IZE
관장
##둥이
counter
RECORD
rais
개찰
원로
##54
테일
##도사
dynamically
involved
##ison
timestamp
되게
산악
마운트
발효
##press
메신저
관중
면제
함경
##프로
132
예술가
Card
개소
도호
Commands
Entity
mpower
커널
Rev
trying
##expected
잠수함
BBC
Si
끼리
왕가
##레아
기관차
##ucing
##clusive
variety
4000
sun
두려워
카리
##fers
Problem
단행
쿠스
관광객
happens
시달
LINUX
Est
베토벤
요크
증감
##페이
##위대
United
남서쪽
force
1904
Handler
미술관
못할
##Pa
##hat
queuing
Purpose
반송
전장
펼치
guarante
hex
전북
##도니아
Prompt
Cred
Final
##Action
TOPIC
##yth
정류
좌익
클린
유상
stud
EMC
feed
보강
신상
의석
테르
설명서
기생
박근
최우수
CSM
Emb
RLY
무산
창고
타사
filtering
##Update
Take
bag
##oken
김대중
Bi
dct
출산
비평가
Hadoop
미세
##enn
csect
리듬
스틸
홍수
##길동
leave
##MODE
필립
##튜브
FTE
다녔
시게
Fac
270
로우
약칭
Market
connectivity
중국어
##Internal
##hel
implicit
파울
콘스탄티노
his
생체
포크
황태
Drop
대단
메르
미정
이오
JT
회원국
ADDRESS
안드로이드
유튜브
##방송
Alert
윤치
##most
##로운
##리그
##ands
고령
##프란
Thus
트럼
arrow
Contact
Archiver
iP
모로
토너
Callback
벤처
##olute
구장
일행
##ifecycle
Fire
노조
심하
화가
##어질
notes
세워진
measures
human
13112
고교
키스
basis
typical
VIEW
오리지
운동가
div
보충
124
고분
Delivery
진지
##Sep
##ores
전승
NEO
please
테이프
전류
##posed
##아르
authorized
타임아웃
Communication
전향
json
codice
Finish
Ter
어워드
왕립
##isions
RENEW
나폴리
##슬리
agents
ASM
요미우리
##ASSPATH
공과
Administering
조선인
강연
공립
아오
##애나
260
CURR
ec
유격
비단
##urrency
delimit
Sil
올바른
칭하
comparison
RENEWAL
AF
IX
자발
##oice
##사관
십자군
EXCEPTION
SUM
고르
##데이
##alone
caused
기점
##분류
segments
Schedul
Ster
SNS
우위
##As
대승
면허
싱어
큐브
판독
FIPS
자이언츠
LT
기름
협동
##arator
OutputRoot
encountered
곤충
##68
##Spec
configurations
소매
하락
##OD
Static
##인물
great
못해
아기
중급
스트라이
세팅
송시
중독
##els
restrictions
##LIN
##elcome
Maven
Team
국외
존슨
##Tem
들어와
pt
문재
지우
트라이
KC
모순
shortcut
일리
ing
evaluated
와중
칼리
##Des
아마추어
Defining
xs
##ros
##imate
메시징
에스파
Statistics
AMT
VI
곤란
태자
styles
aspect
Play
Alternatively
버지니아
시집
generation
팔레
Assistant
동일본
wsdl
가게
돼지
세균
##Pre
불화
포인터
디비
CONTRO
정성
터치
Draw
무슬
변신
granted
RAID
스와
약정
##교육
##평균
responsible
piec
Volume
데모
declared
교전
##트럼
##Attribute
UD
dr
루프
##베리
##chang
Unable
스승
주권
플라스
transition
아마도
450
oriented
남아메리카
##타운
##아니아
모시
ant
notice
기다
Da
sleep
##iant
PKI
ARCHIVE
크림
합법
domains
MQIA
계단
드림
실장
##sung
##슬로
align
280
붙잡
##키퍼
가톨릭교회
골키퍼
129
USING
1909
연산자
오케스트라
상부
자손
현저
##oun
Changing
하와이
nition
##ocker
문화유산
무슬림
김구
adjust
법무
##etary
UK
후자
##icode
produced
1915
CASE
사촌
실체
abort
부산광역시
국무총리
리치
싸웠
안함
해임
혜택
states
compos
produce
##살렘
205
Cross
fault
##rs
##루살렘
라마
사카
happen
nvl
관습
력사
시그
축구단
스펙트럼
##받침
navigation
Move
aware
##ulk
144
##리나
##슬링
##umes
투자자
##히로
##aneous
wrapper
물자
REMO
CLASSPATH
Developing
거버
technical
purch
오리지널
사인
아님
조류
토르
protection
출판사
끊임
위장
launch
산타
자면
그려져
##nostic
미카
기타리스트
referred
선보였
GMT
디오
identical
bad
명백
입지
beans
Collaboration
그램
정전
##활성
Impro
지지자
height
Based
COMMIT
Analyz
llm
ANNUAL
출구
##USER
##OrdCard
슈트
아세
우루
넘어가
JMX
##총장
tps
박근혜
다를
##외선
몬테
찾아가
BIND
DET
소행
##라트
war
시에
유의
##생활
마케도니아
루트비히
narrow
워드
퍼져
330
서열
의약
충실
##stream
Loader
마오
mstr
정자
##때로
##ools
wish
correlation
QAF
poll
Construct
근접
나이트
의병
비잔
complet
##Separator
제동
issuing
상소
파기
##lt
affected
입출력
내내
별칭
보류
Notification
sz
교섭
시호
얼음
저기
음원
이체
이터
##qual
TOT
랭킹
우정
직급
CMS
금주
니스
적대
##ones
plot
writes
mk
공략
반경
장려
종업
##olid
relationships
명의
유키
파스
think
1913
##greSQL
기하학
CUSTOM
demand
govern
때때로
메가
차체
일지
generally
피드백
Clear
administrators
머물렀
드롭
Word
보일
심한
##Be
executes
BPEL
모으
예루살렘
##elist
Results
레이스
신하
여인
##RAY
##TPUT
marked
야생
이에
직관
##Ed
digits
2012053
BUS
cfg
room
점성
Hardware
negative
mask
구미
모노
베른
지각
페루
##FACE
recent
thrown
chosen
la
만난
대사관
PostgreSQL
코너
##카스
##몬드
extend
##Format
networks
##Box
administ
##ESB
##Channel
##visor
##랑크
운명
인과
적당
##Task
##ropp
keyst
##Interval
동전
렌즈
마트
CHECK
취지
구조물
windows
calculated
Air
jp
플라이
##HR
빅토리아
흔들
##iding
GT
oc
##READ
little
##블릿
Engl
portal
marks
성별
아가
151
KBO
명문
택시
allowing
analyze
콜롬비아
사당
208
Enabling
고원
벌어졌
##cell
##ENC
packets
Oct
노후
차기
카페
respectively
자책
##란트
건담
예언
추락
해시
호남
##undament
사망자
12345678
Nov
이원
##Net
encl
##ANK
failover
Formatting
Po
ic
샌프란
외곽
143
prepare
topology
Sensor
샌프란시스코
홍길동
##cv
Suppl
PIC
알렸
인트
##커스
brows
소나
즐겨
##나르
Upd
loading
마쳤
존중
##query
200812
convers
##Control
경북
instanti
PROPERT
tele
##xx
Exceptions
전지
FST
역과
##oub
imported
전해진다
안드
유신
loader
highlight
Browse
Launch
발현
DECL
일어날
years
주말
##time
Restart
efficient
sheet
그쳤
자고
exercise
Match
POP
MK
급진
상임
heap
ML
신전
오디션
한화
STATE
Schedule
엘리자베스
positive
Designer
KTF
열매
합작
##hicle
##모니
Metadata
커피
##일본
assume
Short
Mount
학파
프로토타입
한데
##Point
disks
믿음
분당
저택
OUTPUT
Embed
종업원
iSeries
금강
삼각
시아
NLS
아크
##RST
##Pack
fe
near
remaining
linear
Programs
Jolt
의결
##apan
단절
서서
##보이
Bean
continues
휴대폰
발족
세분
손가락
기념물
##entation
BATCH
Codes
folders
stan
Through
passwords
자마자
격차
사슬
옛날
##ests
WR
숨겨
패밀리
##rief
관념
##PRO
##아지
##antics
CompCode
helps
OM
handled
호평
##ye
##ENER
##Admin
명목
##oco
지휘자
수원시
과일
루수
스페
창간
호르
developed
Authorization
OPT
WPS
팽창
Style
delay
Identification
miuser
포럼
##paces
##ISH
Blue
임용
전이
##ki
310
Catalog
gl
전작
쿠르
##mx
contract
LOCK
Agreement
수면
##Line
석탄
악장
휴가
폐기물
입주
존경
측근
##부사
매력
오렌
##ares
##api
VIP
김해
부자
1896
비틀즈
토너먼트
께서
sequ
managing
BmsOrg
SCM
Fields
지나치
블라디
rs
그동안
법규
##chk
##oriz
1916
커넥터
Course
NW
##잡이
##roy
PCI
스카이
뛰어나
tags
궁극
기단
##ana
##고속도로
공조
##ishes
분지
정사
##ights
customize
Util
디즈니
문인
여의
트위
wildcard
##브스
Institut
xsl
번주
유성
파동
러닝
벌어지
부흥
피렌
##off
templates
북동부
VS
PGM
상류
seen
보관함
Company
브로드
유조
피난
회보
sugg
cle
광학
무제
오디오
##CM
##클린
Manage
ORB
구인
week
ANS
Govern
인문
##etime
스트림
finished
BK
##게이
##bert
resolved
##브리드
저기압
raw
법제
Manufact
SAS
nex
플루
##aq
##Pr
conven
147
desc
물러나
Lesson
대한제국
##PTYPE
SECUR
시상식
상영
입문
Physical
VAN
착륙
GDB
끌어
암시
##Dir
##회의
##oul
War
bindings
##conds
##Options
판타지
##comm
Complete
일방
장사
##어로
##냅니다
받침
보낼
서독
##Home
영장
제의
##urable
REL
##chestr
PMO
이송
TPE
yy
##ctl
009
technologies
DLL
가쓰
디폴트
메디
시체
약한
정점
IDL
라이벌
tw
병역
##aches
completely
쓰러
히어로
##WE
##irus
한나라
피렌체
DP
##우치
##환경
발주자
번식
벗어
퇴각
혜성
Classes
Personal
동경
민속
connects
바오
위함
1895
한나라당
미얀
Aggreg
Native
QSG
짜리
cancel
관계없이
constants
마친
향한
Transformer
duration
대령
적체
테일러
##문자
tells
Sterling
사르
전진
지목
한쪽
recipient
SSH
##TTS
교향곡
##specially
##COM
상하이
친척
subdirect
비활성
우지
##ised
listing
Modeler
CMP
Apple
knowledge
영동
##식물
목적지
거인
##aset
tracing
사라졌
알바니아
CUB
hPa
중순
Root
revenue
##aily
소재지
##ipped
Japan
거슬러
사직
committed
Variable
life
CAT
노비
외주
입체
채우
##WARE
stock
동구
##토미
Share
연주자
linux
##inet
미네
예배
조용
##스부르크
##악기
노동조합
사로잡
곳곳
항일
Expression
aggregation
CLIENT
Binary
전도
##조건
subset
foreign
CBC
등기
##넌스
137
기어
##KEY
Concepts
귀환
느린
됐으며
성벽
buttons
checksum
##ography
##Document
##InternalID
llmInternalID
Tier
vary
우르
suc
스트리트
거버넌스
jav
양상
회신
##isms
MQIN
##CTL
Prin
really
techniques
MVP
히데요시
Front
##Token
##폴리스
Creation
좋아하
win
영광
##iring
DECLARE
GE
난민
중구
##가시
dept
Projects
questions
농림
루터
##XX
##체인
inode
Struct
XXX
##Runner
ng
##88
##52
Self
긴장
말라
치명
##널드
##aint
등장인물
발령
승무원
여동생
##ABLED
정벌
adv
Segment
에스토
수식
장성
presentation
CURRENT
기차
달아
안양
채워
entering
태어났으며
하버드
lot
신비
위쪽
그룹웨어
##prietary
식별자
체육관
서서히
업명
##러미
134
가장자리
characteristics
Hyper
주한
침투
ignore
플리
##writ
DJ
문하
MQRCCF
Label
say
궁정
ASS
154
Collector
몰락
MQQueue
알렉산더
네이버
##Ent
Conc
auth
##Stop
##rypto
HttpServlet
격렬
representing
##opsis
에스토니아
RMS
서북
##Al
##두리
이토
전압
토머스
고발
적자
##riggers
Tasks
Variables
KPI
배터리
특유
ra
수주
커스
portion
보증금
INTO
Area
떨어졌
##하르트
IIB
begins
Accept
suitable
인격
##DN
##room
attr
자격증
SUSE
부시
사사
온다
종족
BIT
##ony
initialized
징계
Place
생명체
holds
왕족
향토
작업자
NG
부통령
센트럴
held
비극
##의자
##라브
ou
바인
##자부
##균관
연루
##ancel
DTD
다이어그램
SECURITY
Zone
대폭
##Put
trunc
XSL
빌헬
##ython
qm
##ATIONAL
constraints
소니
PUBL
KIC
hours
KST
바그
도장
##일드
dsp
dictionary
떠난
##트니
##시스템
illustrates
##Mem
completes
ACTION
cent
착공
##레기
inform
206
attack
캐스팅
RAW
Fre
빈번
외무
##결승
checkpoint
faster
부리
토착
휴지
##Un
구매자
Replace
다룬
아리스
행진
inbound
담당관
MBean
requirement
assumes
급격히
검정
##usic
quant
동아시아
드럼
스쿨
RECE
Transmission
DISK
IIS
아닐
UnitFlow
콩고
퍼센트
플러스
reject
실종
##iller
오렌지
categories
##Frame
##토시
AE
eX
비로
preceding
Middleware
주어졌
Black
수비수
TNS
allocation
Telemetry
각도
치열
##TYPE
##로디
##멘터리
panels
간호
철회
힌두
##antage
strategy
Determin
바티
소금
스릴
추격
##COUNT
도어
반격
프랜
REQUEST
Cr
어음
##Auth
선사
장편
주가
##프레
##vers
getting
CJ
대답
로맨스
관람
tel
폭스
REIN
급행
decide
Capt
MMS
mention
won
교정
와인
장인
proceed
IFS
계열사
바이올린
스파이
remains
천문학
JO
especially
##수수
OO
아비
주립
##LEN
RFQ
가르침
##iliar
TARGET
journal
노란색
아군
##Mode
drives
##유키
갑작
##Met
212
Workstation
Limit
공전
드래그
MVS
coll
여지
폴리스
##alyst
통신사
answers
이명박
MRM
정말
친정
snd
촉구
##루미
computers
사면
와카
청와
묘지
Upload
wrong
accur
##CCESS
##reet
경관
일렉
스토어
middle
suspend
대교
목포
##화점
IDE
제품군
가져왔
timer
totalmenu
청와대
워터
##ha
CIS
WMS
기인
##람회
foo
Pop
고사
성균관
##PER
##제품
invest
관찰사
invokes
navigate
cast
아케
헬스
OEM
미쳤
섭취
exec
Computer
ensures
대주교
애국
Chart
anything
workstation
##랑이
##otion
담배
##복지
axis
인산
중국인
Correct
smaller
빌헬름
선원
회견
MQB
identifiers
다큐멘터리
김기
조국
##xr
##나카
##ilit
##istor
용이성
Tracking
##서명
transfers
Bo
DIR
abstract
##msg
노무현
##sive
##hest
##terator
##TEAI
attached
MQPMO
GDP
상공
pairs
responses
JCL
무신
미주
modes
##orph
##rant
##101
Specifying
COMMAND
리투아니아
가벼
격리
수작
응급
트윈
MQZ
##ports
precision
정류장
Mc
os
##타카
##나마
##마사
##ventions
백본
이어져
args
AES
지름
허위
##규모
Parser
아틀레
Video
습득
전자서명
신시
##UES
##att
Large
OD
경선
고무
불명
창의
첨가
총액
##etail
JAR
서해
1200
passes
Incre
FAX
vCenter
니아
플러그인
어두운
게스트
전례
libc
학명
하이드
##혁명
다이아
아미노
부팅
술탄
controlled
계절
부록
여진
페스티
ctx
succeed
페스티벌
Selector
가변
##정보
##경기
##런트
상당수
사범
이를
##하면
Research
overall
Hello
SESSION
##PEG
Programmable
Crit
한강
##TN
vert
debugging
벌금
이윤
일생
흥행
##티움
##Instance
BA
figure
식당
오다
##erg
CLOB
encaps
Diagram
##위원회
UB
바흐
htm
KMS
loss
확신
##iation
MIME
cipher
내린
만기
우주선
오타
직면
해인
후일
##NP
MAIN
대두
푸른
경찰관
##quently
CEO
Accelerator
며칠
참판
Tip
신세
준우
##Load
011
##ATEG
##mediate
건의
마라
##시온
fi
글씨
##onts
1899
classpath
incident
Boot
장난
##상스
##베이터
##Password
##utton
Throw
##Component
나노
토니
##행위
IIP
Instr
Tracker
모의
테오
##ka
##hib
annot
Packages
Temporary
카자흐
어릴
카트
##권자
##entially
presented
situations
tradem
Symbolic
750
##une
##illa
union
빨간색
FIN
outbound
일어난다
sd
과금
##onymous
성전
##Dis
##문관
passwd
기술력
colors
Receiver
capture
해운
##vider
ONS
악마
초연
표명
SOU
persistence
블록체인
둘러싼
일찍이
다름
마찰
Unicode
Decision
이민자
도리
사절
된다면
looking
스릴러
어업
이점
품종
성공회
English
HAN
고딕
컨셉
sear
strong
명종
모방
스러
##이도
Webt
위험관리
와의
을지
##ifact
symbolic
버려
알라
에버
##LEx
##itories
원자로
mis
##RR
불가피
자민
편곡
##마치
##string
Finally
소실
recorded
바라보
WTF
Aug
Turn
ZZ
평행
accounting
STEP
스트레스
##66
##iam
Actions
강수
남인
문과
앞면
Plus
이사회
내려가
나미
소규모
##MAL
IDS
IDT
perspective
비대
distributions
아우구
의약품
누군
무라
whenever
이어받
Just
Orig
mag
td
러브
즐기
##iases
##lib
##항공
RH
교단
unexpected
##STATEMENT
가라
여파
정찰
하트
yourself
VO
VT
manner
plain
제작자
Good
DESCRIPTION
벨라루스
iOS
이리
일족
##XP
EDITION
HMAC
TI
겸임
냉각
##serv
##창기
수상자
제조업
mappings
percentage
safe
산재
##엘라
##icult
printed
LINK
EI
마비
무거운
비아
여겼
prepared
##Store
##Stamp
qualified
사양서
##Command
Speci
대위
앨런
Art
Panel
관해
##ITOR
CONTROL
규명
외화
환상
##Param
Assign
##Rece
##bi
파일럿
PV
날씨
남긴
도주
진군
휴식
MQT
153
Tax
caching
생일
초급
Euro
청탁
203
8080
cycle
ts
민영
에티
이틀
142
##ASH
routines
gs
222
225
##REE
medium
리모트
가산
리오
책봉
##wards
LoadRunner
Authority
핸들러
MER
관해서
돌연
회화
EML
모이
##mi
potential
Dialog
관통
##WER
##aby
라이온
EXTE
##process
르네상스
별다른
용산
확충
##From
##url
regions
driven
건축가
제로
##bo
Transl
건너가
발트
탈환
##ca
Customizing
미얀마
아베
millise
Refresh
실태
##아리
1234567890
김태
등재
##차례
2141
MDM
CURLOPT
EB
hidden
마인
원나라
정량
##Pjt
##strap
공익
여건
152
회의록
아카이브
house
박탈
레이다
MST
사다
왜냐
평문
##ptor
대통령령
어려워
measurement
REINSTATEMENT
누가
파싱
##pass
##LM
Forms
준우승
세례
준용
소설가
XPath
매달
전두
##트랙
##ury
Appro
Stored
HEADER
MAPP
긴밀
##abet
PMS
주머니
중장
##gmt
##version
guidelines
세미나
absolute
경부
달린
수료
##칠리아
##APTER
moved
수배
##올리
reached
##urer
아래쪽
시켜야
Mean
버린
심화
에이스
이슬람교
동남아시아
df
##우옌
unl
applet
하인리히
380
마약
20090
트위터
대피
everything
##ossier
간략
후처리
204
capacity
introduced
맥스
에릭
죽였
중량
##동물
00010
AVAIL
far
개업
써서
우연히
##Dct
planning
상관없이
관현
도왔
##reme
Handling
Solutions
WBI
자택
초창기
##수아
수용체
##Flag
rt
일요일
price
Identifier
Either
무조건
##iler
외교부
준결승
한양
민국
재발
##udo
국정원
SAM
pm
나리
저렴
순조
쓴다
엄마
##즈키
바람직
덧붙여
성모
욕구
주축
퍼시픽
550
숭배
scanning
ANY
STEW
수학자
진리
함유
호칭
##NL
##endar
검색어
마당
페어
Generate
INTERFACE
동년
학력
후방
##Sec
##플러
##ided
SALES
엘리베이터
Understanding
매사
할리
Stud
sufficient
지나가
원했
드래곤
NAM
hot
수탁
##pling
인천광역시
팔레스
##och
sometimes
broad
신중
Child
places
224
facilities
백서
##보살
##ican
발생기
UNI
보스니아
##Transaction
알코
##조선
primitive
keystore
옥스
##Ar
174
생산량
레지스트리
Park
단속
##라이터
##메르
##RITE
overhead
sbin
Measure
LANG
구마
도청
둥근
회피
카운트
천문학자
언제나
SOURCE
나올
노하우
제트
Archive
재미
##Db
##GB
##케인
formatted
Meta
##ifying
Flag
Widget
brief
고체
바치
수협
##YN
##idents
Poll
영수
##야수
귀속
이복
포수
##Filter
##리크
Join
lst
effective
노트북
ub
환영
##FER
1894
미팅
##안군
들어왔
schemas
기습
##ecast
Spoke
외국어
카이사르
MQINQ
GERP
##무네
Like
부설
tom
analytics
공격수
Fam
dual
sizes
배부
버린다
인플
##석기
##크로
translation
북서부
무려
지바
##사업
VER
간편
따뜻
TRACE
로드맵
Android
Compute
employees
능동
돌리
bash
FDC
ect
저명
##레인
Commerce
모비스
caches
Phase
LEVEL
괴롭
선별
이식
주지사
통근
파장
보통학교
verification
##Level
윌슨
스피드
hdisk
우울
RMI
일식
잘라
##크래프트
015
##erequisites
Evaluation
Ob
Whether
##예프
UID
ten
쓰레기
Uninstall
출입구
Factory
암석
##WORD
통신부
여겨졌
커넥션
유언
총사
친선
열정
트루
##ority
나타냅니다
매월
패하
game
시라
용접
초안
##Test
##악단
##stat
전문학교
unknown
mounted
Depending
몰려
##uck
예정일
validate
confl
##Attr
wa
연인
하이퍼
RNA
번영
유교
타카
##ipt
optionally
##Environment
fit
교원
동로
롤링
서일본
##GL
##aler
enabling
Heart
베이스볼
포도주
rot
로빈
보인
161
CONTEXT
demo
hmc
점프
##서양
backed
BSDS
Bridge
블루스
##gm
##서리
DEST
Restric
inserted
특장
##TV
##은색
1800
팔레스타인
JC
가계
골프
탐구
##사전
##킨스
isn
##LOB
가르쳤
vm
그냥
성씨
응우옌
왜냐하면
rename
납입
리자
수용소
utilities
achieve
AAS
Future
김재
시군
전함
##HOME
범인
원내
##렉션
1890
보잉
추돌
행자부
##가루
NEXT
Super
공감
모른다
##전송
김수
요르
힘든
Stack
NPIB
gscdn
맥락
보행
콜라
##나와
conform
ssh
교외
##NAL
exported
ARIA
NBA
ZETA
증후
해수
트럼프
고성
##gs
##beat
functional
물러났
Extended
주차장
LC
이이
ones
familiar
뒷받침
리어
쫓겨
##anned
Connectivity
Button
섭정
거래소
redirect
considerations
moving
Pars
미분
적시
##activ
소총
한동안
화상
##TIME
##그라
##다드
MQCHAR
Break
디젤
커지
##otype
##SPACE
layers
showing
연애
##85
509
Trust
Terminal
늘리
선구
신칸
존속
##바다
##델피아
FIRST
Profit
필라델피아
실린
힘입
##Us
연고지
거느리
eff
사바
요하
치안
해전
##Len
##62
기본법
수요자
소닉
송라이터
##크리트
HttpServletRequest
MAP
사설
opening
해상도
계몽
극히
서사
신생
##chen
##Interface
JP
QU
sais
에다
좌절
해역
휴전
##rno
##훈련
##outh
Similar
구도
추모
httpd
자기장
하이브리드
dw
김상
아바
중개
프로시저
상반기
습니
##츠키
doub
lab
배신
어울
여도
##names
##디스
##omic
##essional
Cubes
NIS
너비
배당
치세
159
nexon
ce
Creates
광해군
좌상
타마
userid
Clients
레이저
척추
##어트
Audit
Folder
트렌
##Del
##HQ
##JMS
leading
외교관
trusted
Extension
무단
파손
Christ
atr
봉쇄
민원인
MFT
Router
##자와
민법
##ried
교육청
내부망
에스파냐
JRE
PID
아예
이순
##imin
meta
syn
연평균
입수
##lectronic
후대
##System
differences
간단히
Encryption
공표
로딩
모색
##지마
211
Implementing
부른
##미디어
scroll
EXPR
##RESH
이의
파산
피에르
##cd
compiled
Light
OLE
교장
깨달
목조
한하
family
미수
치아
##카르
수습
##Gen
older
boost
벤더
의상
##spection
크리스토
국세청
스페셜
CUBRID
구호
terminate
Argument
Writing
두루
우즈
전수
##PATH
Pay
오클
파업
Clusters
자유당
Clusterware
TF
왔으며
차수
##isco
시청자
Mart
담겨
원반
factor
신칸센
050
Hierarch
네이션
눈물
시선
제곱
피고
##nel
##보기
##대군
Institute
WB
매도
일별
포격
Does
끌려
횡단
Drill
매카
연세대
##anies
Stock
는다면
##Content
제네바
가미
규범
묘소
백화점
평범
풀려
##Lib
Imq
이사장
BRK
증후군
##gu
감사원
평야
##LoginVO
비잔티움
ded
캄보
##heets
Resol
experi
기성
대포
이인
통칭
##artment
transferred
ACCESS
누군가
##HS
공의회
##합니다
##단체
사회학
Agents
GO
af
gz
mandatory
아즈
인체
자정
체류
풍경
datatype
Try
둔다
박해
예고
##59
attempting
천재
투르크
##부인
구축함
Kit
dam
##Empty
summar
##Enc
5724
MHz
##너리
##Ident
1902
coordination
스파르타
국유
##81
returning
Ann
스페인어
Failure
전한
##start
SOFT
파이프
Samsung
XQuery
삼진
창시
##관계
Cho
stops
ETTS
cut
성취
##주의자
five
낙선
쓰레드
즈음
하얀
connectors
restarted
분명히
Feature
자책점
수작업
반박
##opic
RPG
결코
나타낼
Bytes
시드니
TG
kit
분광
분비
전방
전성기
키프
폭넓
##길이
boxes
tracking
INSTALLATION
이에야스
light
공자
앙리
##pad
Cell
동독
두산
빠졌
##reads
비자
카시
시내버스
부적절
과반
표제
##Dept
Binding
Green
##ATOR
expr
장기간
부스
성시
왜성
##사고
##ebel
board
담긴
먼지
재전송
Connections
로프
인형
장학
practice
CRL
시큐
##LIST
##Pool
##ERR
locally
##MPLE
사우디아
리버풀
잡아
Trade
UM
깨닫
##구장
implementing
Party
community
turned
Risk
WBS
국문
순회
이산화
중임
진나라
##server
MQOO
##range
적절히
미토
전념
판교
##CAD
dc
강경
원문
제후
##inct
도호쿠
남한
쓰인
assembly
개발비
Websphere
1901
승차
신흥
##den
##트로피
Und
모호
##bu
서울대
calculation
CVS
도래
폐위
##page
stest
##plete
Alias
commonly
AMS
BAT
Op
마켓
알아보
hscdn
미스터
연패
학기
##ott
650
Dav
김용
사리
축하
##상부
##업자
DataSource
라이언
Kas
cout
나갈
엔트로피
우대
프레스
##Send
중심부
고베
콘크리트
##ISP
covered
SQLEx
triggers
오해
Push
sense
박람회
부르크
##어리
Repe
band
마산
소환
신념
##Provider
Requests
문양
##EAR
Selection
##106
Spe
광물
생식
육체
총무
inet
십자가
IB
##맥스
1898
inherit
격퇴
신기
장벽
quite
GID
서초
실리
약어
##ris
##YM
갑작스
vitria
리메
만세
패전
##gest
spring
Font
VW
그날
어드
조세
주입
크리스마스
MAPPING
견제
PaaS
UML
몰아
송나라
157
cryptographic
다녀
토양
CSV
ROLL
Sem
급증
동점
탱크
##시간
##개골
ATTRIBUTEFORM
atrb
pk
누설
몸길이
수군
였음
claim
139
RFP
WEBS
보낸다
combined
엔지니어링
##Dri
##주곡
##usion
김경
##턴트
upgrad
NHK
Tech
겸하
금성
station
triggered
컨설턴트
다스리
6000
감수
도스
미하
열대
육지
은데
##aves
340
신주
##PP
##enus
MOM
peer
치수
하마
Der
TGT
발원
진짜
##ISC
RFH
Preparing
그랑
마리오
이긴
카타
##uware
##LEMENT
##Statement
dropp
왜곡
##Names
##니치
na
나눌
표적
##이팅
공격자
대학생
##ADM
080
기요
생년
##Host
goes
tper
유수
자아
혈통
locked
유니폼
북방
##아이
김영삼
ldap
송부
억압
줄일
##frame
##Back
IDC
##DEF
캄보디아
NA
pending
sq
상금
##집합
부여받
사우디아라비아
우세
자명
클립
히가시
##ipe
##교통
관련자
공직
미칠
브래
스핀
조리
차남
침체
타르
##norm
comma
passing
discussion
대군
동위
시칠리아
##isting
assumed
Rad
Sur
입원
전대
침몰
News
Synopsis
초상화
func
고백
뒷면
어휘
트릭
ISS
이화
조반
publisher
백색
병조
성주
한족
##erson
162
JBoss
뷰어
서재
235
standalone
FEE
Mari
믹스
신학교
최선
##원숭이
##ompl
##spect
BLOCK
빌려
실정
##WORK
##platform
고수
모서리
무죄
최악
##Custom
##란히
children
stub
183
기수
붙였
신학자
##그라드
Failover
OLD
언더
##elper
nothing
perman
parsing
귀중
디비전
양측
인건
파란색
하반기
IPC
Adapters
nor
광년
도르
목재
지혜
통틀
##바지
마이너
크리스티
TAB
가축
today
독립운동가
delimiter
2008121
520
DQ
견본
비문
투르
##OG
##ELD
SITE
LA
에우
##느러미
스케이팅
boundary
후지와
012
##endors
##ills
dynatrace
선진국
가즈
근원
DBIO
Exper
1600
221
가져올
컬럼비아
health
510
박영
오빠
폭동
MQCA
printing
datasets
인계인수
Head
공천
동행
209
intro
technique
070
학계
##atio
##available
문재인
갤럭
두개골
방범
이영
##iability
##ze
##aph
나가사키
transmitter
발해
염기
##노부
Lists
ACCE
pfm
뇌물
북극
항소
확실히
게르만
여당
토스
016
역설
장거리
토크
215
##ADMIN
항공모
delegate
principal
데스크톱
바퀴
해고
milliseconds
TDS
단단
비주
빠진
수성
일간
idea
secret
1903
##UIRE
##ercial
declare
##comp
고치
상점
펑크
##다고
들어갈
지냈으며
Integrated
Sort
리우스
유소년
이경
Stopp
그렸
ODS
People
지폐
##수엘라
##vey
480
Firewall
Side
유실
##으로
스타트
IEEE
Invok
아폴
##ibly
컴파일러
황태자
갤럭시
배양
왕복
STRUC
노부나가
빈곤
칭찬
환급
##모어
물리학자
슬로바키아
인건비
##NK
##xim
operational
구할
##어버
다양체
전자기
생전
시골
실사
##patcher
고소
기장
케네
##ude
dependencies
베네수엘라
ANSI
pick
미션
##자스
강남구
NOR
##adow
Entry
PERS
RATIONAL
live
선종
##드리아
##icating
Usher
VLDB
바리
세계관
STOR
노동부
결혼식
SymbolicName
고래
잔류
지로
테니스
School
강과
대제
바실
##New
retained
blocked
modifying
LONG
Licens
Wi
WAIT
모았
청원
##러진
177
supporting
타임스
신차
##릴라
받아들였
구해
Member
mqsich
##Bytes
파인
##Report
RECV
artifact
Diagnostics
조종사
거론
솔리
재원
##라이트
##ockets
highest
VC
##leg
arbit
typing
mentioned
건전
Processor
tpcall
##orizon
UDB
Preferences
predefined
자랐
##박스
들어간다
sizeof
##persky
볼리
천사
출자
히라
permitted
공민
물가
중위
##yond
##Title
##블리
exclusive
일반인
apps
BINARY
레논
인연
##61
##encing
Rollback
KE
##uid
##단지
distingu
Europe
김진
데드
수법
Even
QS
1897
MET
나이지
##std
##umb
##itionally
Answ
SHAR
늘어났
나이지리아
수년
시니다
owners
aggregate
MODEL
전두환
providers
##ABLES
라트비아
기질
비시
전했
프로덕
eng
몸무
바닷
제독
Scope
Declar
stanza
몸무게
tick
토요일
하고
algorithms
카자흐스탄
NON
nn
드립니다
이빨
탈당
newly
migrated
Cast
낭만
석가
휴지통
CK
ro
가짜
밀집
이드
친왕
184
일부분
MANAGE
mar
뒤집
##Access
beyond
염색체
420
Further
구비
마디
호프
##Monitor
##BT
##rip
LOOK
throughput
Embedded
SPE
합창
CMN
removes
FP
유죄
유닉스
천도
총대
##GA
##오피아
XMIT
원산지
에티오피아
HS
indication
partial
produces
costs
Lookup
Cogn
밸리
설탕
조르
청하
협박
호의
##sec
사업단
Effect
##COVER
플래그
항공모함
단의
sendmail
과실
혈관
232
ping
공습
몰래
쇼트
##중국
Interactive
Shift
358
maxOccurs
AUTO
##SACTION
태생
후세
##추세
BOO
FX
배틀
주어지
INV
##ipment
customized
Conversion
곡인
뜨거운
해병대
공산주의자
effort
구청
서남
##포트
171
Unique
continuous
##ometric
걸린
재설
통증
almost
149
workbench
##ENTER
Generic
상암동
중성자
DIST
로열
접목
recv
##1946
출석
3970
##60921
서약서
매사추세
매사추세츠
진상
##트릭
Think
Steps
1884
licenses
원로원
SCO
##RP
compliant
개찰구
극심
##무기
theory
라우터
KM
금품
##pack
##ARCH
suite
텔레콤
organizations
우루과이
Har
도루
반해
별표
별자리
복장
적립
ResultSet
mechanisms
모스
성사
Clustering
찾아볼
WEBSPHERE
vers
대치
디버
만성
미소
크롬
##피탈
Enh
NonStop
raised
Kaspersky
링컨
자수
##네스코
MANUAL
enhance
370
##ultaneous
Connecting
Its
paper
EDW
undo
AK
개미
TPNO
Consumer
##QMgr
JAX
국사
##라리
Shut
concern
FLOAT
FORMAT
비유
익숙
##Detail
##사기
##연합
partners
ASE
scheme
locking
BUFF
알코올
가죽
넘기
후안
angle
통치자
concat
12160921
SUCCESS
##6091946
20081216091946
개종
일조
키로
해변
##양군
##INESS
terminates
daychk
Baseline
바스
반감
thing
displaying
destinations
restricted
ECM
##Record
아랍어
출토
환율
군청
AutoCAD
상해
일수
회고
##퍼니
##acs
Recomm
##cons
Perl
multip
남동부
DAY
Fast
GD
레바
PMR
removing
released
숨기
##82
relation
시초
평원
##소수
Enforce
accompl
서브시스템
우라늄
Has
바란다
성체
카나
##장히
##러스트
총선거
pipe
Siebel
Equ
Frame
GQ
Pages
영남
청장
discover
po
국고
막내
##YP
##ograp
216
자치체
엘리먼트
bool
기각
평일
##store
transpar
##ISA
squ
라파
토마
화해
##팩트
끊임없이
Family
ok
격자
나눈
입국
exclud
물려받
그루
떨어
못함
점진
##노리
reverse
contr
오키나와
거행
견인
사안
신선
오세
올바르
휴스턴
##rase
드러났
payload
프랭크
사가
시립
작센
##gree
##iration
BIE
그만두
##Properties
Appliance
TRANSACTION
090
결번
경연
만남
##Soft
##CONN
identification
Expand
파이어
남서부
tomcat
나고
시외
##말라
##rew
##TimeStamp
mqsic
한성부
폭행
합산
##VMS
##토모
IDENT
endl
accepted
FAQ
treated
중합
추론
##DIC
##Bind
convention
해결책
Viewer
Caliper
방사선
케네디
mir
mind
들이
서정
세속
음료
입당
대부
본국
장안
##check
닛폰
드문
스택
운하
호위
멀티미디어
##다이라
Insight
ptr
송금
우루스
##구역
inner
##adecimal
MQCMD
Qmgr
Safe
ft
ko
구출
복선
실려
연봉
entities
subscribers
Keyword
tail
매트
창건
황실
##산군
##ibern
facts
Fr
그로
사헌
##르기
Quest
quotes
bi
브라이언
##eness
soft
남극
승계
##OKE
163
##conn
SYSCS
repeated
##ATEGORY
청소
##pa
##mount
태양계
##icture
te
달했
문단
손익
키우
프록
##Ref
syslog
RACF
XAT
봉해졌
merge
##ographer
##가타
##osh
weight
Relationship
Presentation
Loss
wire
부천
바이너리
Consult
MQCONNX
##집니다
231
물리치
##AUTH
개관
주름
234
WRITE
ir
관행
온천
##푸스
384
가벼운
Welcome
수색
우유
유네스코
aliases
이동하
플래시
LM
fc
gdb
tns
살리
시흥
##셰비
Defined
swit
tperrno
wolf
용자
##ref
archived
마스크
순교
천장
##51
assist
언론인
audio
lu
투옥
keyboard
blocking
교황청
Products
시위대
사헌부
근교
내주
바꾼
방패
부를
goal
교과서
마하
안장
##gw
toString
ism
upgrading
##selves
Quality
BUSINESS
SMP
hyper
태수
한인
##Pri
##inger
내려오
아마존
listeners
telnet
KDE
유료
종래
코프
##plex
가마쿠라
composite
ICA
OTP
루시
이거
##ZZ
181
새로이
희생자
ren
갈수록
##태우
##rames
나고야
수분
VALUES
icons
programmatic
mutex
리메이크
느리
범용
사육
##ids
##ught
Brokers
pull
간소
과세
그치
번뇌
팩토리
고속도
Calcul
종사자
##Plan
synchronous
산란
아과
##ese
FIELD
SVRC
activate
difficult
aspects
waits
공직자
원전
##그로
LOAD
throughout
페르디
HIST
##법인
decre
알람
평의회
학업
일으킬
##changed
Ca
Ev
age
누이
정무
제압
주고
##rome
Organization
jpg
##ball
플라스틱
래퍼
몬트리
연쇄
충북
몬트리올
Bug
Pat
거울
고의
뒤쪽
황해
##SD
##시티
##시피
##ulating
182
Chore
Contains
widgets
OPTIONS
비로소
붙인
통장
##스기
##붙이
##icator
##ANY
pathname
신속히
대거
##다지
##선거
DBJ
WebService
suff
encoded
tpm
Cann
우호
잔여
퍼지
##around
owned
전시회
TOTAL
Ess
시즈
절약
##Nm
##라미
윌리엄스
미생물
##블로
##대기
Compaq
바깥쪽
슬라이드
당기
수당
지선
##수소
생겨났
취재
cached
네스
##STAMP
DEC
연합국
synchronization
니다
비지
상사
였으므로
입각
지류
혼동
1521
164
SPACE
다발
##OOL
CONNECTION
단식
##oe
##타고
##은이
Scan
Compuware
마이크로
FLD
동네
민사
서신
신약
안테
##Cache
##언스
##틱스
conj
ITS
##ATED
##NODE
visualization
부제
##client
preferred
preferences
compared
sound
고품
도우
출하
티스
##승부
Upgrading
WESB
보리
북위
전라도
항만
##gress
소나타
심해
외관
crt
Everyplace
DETAIL
실전
INFORM
디비시온
컴퍼니
handlers
DOMAIN
##sterisk
조연
##uccess
##톨레
department
아니한
226
elimin
##Builder
바른
##슬라
REPORT
XMLNS
##auses
literal
MG
소자
industry
##metric
수시로
이어진다
##Desc
uid
시가지
진공
한층
##푸르트
EXT
diagnostic
새겨져
강구
보석
폰트
prom
167
##Shield
스티브
알루미
양수
예보
##ILD
registration
블랙홀
semantics
SQLException
Previous
increasing
SLA
blanks
종로구
BME
tv
금전
반별
##데시
##포스
##RECT
Alt
Typically
##ACHE
runmqsc
관절
분량
사모
오바
페널
##먼드
##plus
wants
경영자
##Timeout
multicast
DML
cf
단면
텐트
화자
STAND
deploying
##Utils
##IMIT
촉매
##uation
아이슬
여서는
알프스
끌어들
봉건
부각
세무
conventions
destroy
SHOW
##Address
American
SALT
Owner
용병
키를
##portun
abnorm
##LOCK
WO
가면
군중
대손
애틀
역명
이고
청산
축출
##aft
##rem
SYN
repositories
MATCH
vendors
노사
##우라
DEV
determination
다이아몬드
TL
과다
일화
##rt
독일인
##operability
데이비스
1871
dom
초월
##회장
Removing
explains
collected
fonts
미루
바우
수축
##408
0810
##ercises
411
날카
충남
loads
이기종
##Adapter
practices
ssw
##벌레
##era
XSLT
무결성
배후
##web
##평가
##ulates
아이슬란드
Hi
걸렸
석탑
음향
치환
할머니
1860
대중교통
##바이잔
frequently
토성
평정
회관
notify
selectors
Why
EF
divid
첼시
##차기
##브리지
##amb
##ulations
##inder
상세히
involves
od
양키스
집니다
흔한
##노프
부서장
omitted
rob
프론
##ao
218
386
##ibernate
수련
신축
워킹
##Over
##기지
FIXED
Gre
bundle
등등
아제르
원료
의자
##ILE
##GS
trail
ATM
Rich
##Policy
simultaneous
Retrieve
가중치
아제르바이잔
biz
응하
이광
해적
##ACS
200312011
화장실
아인슈타인
##플로
##승지
##ONFIG
EXP
orders
동아일보
TERM
SVRCONN
eth
Operator
maintained
##oppy
고고학
LAB
lo
기적
아랫
타스
피에
한테
세이브
Register
허리케인
전염병
EO
해명
phone
브라더스
높여
변이
Separ
선거관리
circum
선거관리위원회
BF
Gig
가액
고쳐
구릉
테두리
##width
##실록
prefer
Cancel
HY
낮추
양주
주임
##속기
나타날
스타크래프트
termination
1885
powerful
상서
시베리아
절단
##BL
##일으
Deprecated
불러일으
CIA
GA
분과
피츠
##글리
프랑수아
##Events
상거래
진수
통찰
##래스카
조선일보
partitioned
authenticate
tries
분담
종착
##나리
1880
##aker
##abler
219
##Child
Detailed
##ConnectionFactory
검찰청
Databases
math
몰리
배구
##리에
associate
##ucation
Latency
hexadecimal
난이도
남용
냉전
실망
##먼스
dspmq
8000
월요일
척도
표현식
##Req
router
리비아
불능
Struc
QMgrName
Parsing
격투
관용
합스부르크
##회계
계약자
Retry
adapters
SRC
dot
연이
이글
자선
차입
##양함
##ulf
228
Defines
Important
Records
멜로디
성운
탁월
ARM
FULL
이니
이끈
outer
##ropy
대역폭
Series
글루
친환경
##57
##iling
##ADDR
Numeric
개개
종별
회귀
저작물
amqs
201205311
POL
갈릴
더니
선비
##도바
Provide
을까
##Media
##IFT
white
targets
volumes
Daemon
CERT
WML
nat
발병
상응
승자
응시
238
바코드
어스
지인
##ael
##Cert
##컨대
등록대장
리더십
balancing
asterisk
pad
살아가
영의정
처녀
seem
##IGHT
HI
ND
경신
나트
정관
##어링
Which
bring
##거진
##REC
configurable
Checking
particularly
automated
아사히
Ren
어원
조부
초록
##대신
총독부
MEDIA
Bel
석조
##And
##inc
##ourcing
Financial
EMPTY
알루미늄
Need
모친
응원
탐사선
House
VSE
극동
용성
stage
Inventory
getB
puts
LISTENER
기증
분장
##미사
##quency
##apid
##사이클
LIKE
Jdk
##리즘
MQPS
Statements
Repeat
마력
베스
주역
징후
##Database
##랑카
inSet
staff
Interfaces
Multiplatform
애틀랜
PRM
문예
추증
펜실
##nov
스튜어트
##베이니아
examine
펜실베이니아
Social
UUID
bt
tt
구직
반기
쿠키
경영진
사상자
understanding
satisfy
연말
예능
##ga
##운서
##ista
1870
webapp
Severe
quotation
##셰비키
Range
맞춘
제대
##ini
179
아나운서
풍자
##ightly
철저히
총사령
CMD
hw
md
나르
더글
왼손
##GN
##jection
escape
무슨
301
popular
싸이
앞쪽
##Obj
##itivity
intern
아리스토
trademarks
##Ag
##LTYPE
extent
LIBR
ROLLBACK
Hour
바디
치즈
호세
##마드
alternate
AU
국산
충당
포병
##치오
internet
신청자
찾아내
MQCFIN
Capture
##Open
##wxr
##려서
##uge
20080
failures
symbols
##Offset
드레스
진급
deferred
마쓰다이라
구절
일컬
Administrative
MONITOR
SCSI
줄여서
##마이오스
끼쳤
방대
볼트
여주
우체
이남
##바닥
290
Percent
WARNING
reconnect
##STATUS
560
교대
레일
줄어
##VID
Includ
USA
SOC
##Exp
recording
DDoS
##Handle
ELEMENT
pix
간선
국한
발라
비리
서유럽
213
intellig
##rapper
smart
Mi
무명
쌍둥이
잡혀
##ray
##NR
##누엘
##운다
VLAN
키프로스
durable
iv
하워드
evaluation
페널티
Vu
이룬
펠리
STD
##Init
던져
207
214
agreement
##Method
도표
##na
reuse
Forward
UTC
sam
##창군
Token
가져와
직업훈련
페이스북
scheduled
Sys
tuning
모범
##조부
##olio
materialized
부작용
##orizontal
프로덕션
MAIL
드라
벽돌
사토
수락
안심
염증
##ITE
##erber
anonymous
nature
원숭이
##arb
MQQ
skip
fixes
요르단
BAS
다룬다
무승부
##WL
##제리
tested
Asynchronous
DDL
Our
흔하
tpmC
Mor
리프
머무르
수위
야쿠
일가
재활
패한
APPC
Passport
Again
으려고
LF
Pred
감행
구두
나주
시바
옹립
##PRISE
reboot
신조
퇴적
##본부
##umul
ITSO
운동장
Pract
minim
Declaration
arr
동정
##doc
##디드
##오리
PLAN
qualification
Communications
060
Num
아날
##KMC
##het
EXPS
December
Cognos
숙청
장미
춘추
헤비
##agram
submitted
LOC
SHARE
developing
incremental
##Delegate
EST
명제
여수
Div
lp
말리
수확
정세
Remember
Viewing
InfoSphere
개막전
430
WM
Orchestr
##Search
미나미
##CharSet
대변인
카리브
MUST
둥지
브리지
##rec
LLMC
Distiller
내성
승점
재질
호랑이
##II
##zz
ESM
Compat
Ra
ax
누출
당연히
미즈
아타
지평
캡쳐
##si
##교도
visibility
revision
중추원
CUSTOMER
Fe
Fort
GPS
unavailable
##CSP
retrieves
MQIACF
가져온다
가신
##세자
##덩이
##UTION
relational
Cannot
##AE
##patch
matched
체코슬로
체코슬로바키아
TTA
Vi
독성
inno
UEM
동조
악단
이득
재선
Compar
0002
배우자
분기점
되돌아
rank
준하
##Lnk
##LEX
converts
REFRESH
Route
도난
오비
##DF
##mn
부적합
거쳤
이브
확고
##ursors
570
ser
앵글
처방
팔리
##angle
169
영국인
companies
deleting
가까워
##vantages
대내외
synchronized
Multiplatforms
MN
fn
감자
휴일
244
Persistent
Band
West
kt
나스
말미
숙주
신민
피신
belongs
거북
성단
포착
##omb
heart
드러머
##flows
광대
맥주
비정형
YM
보복
색채
프톨레
##듭니다
DEL
cards
후쿠시마
##olesaler
부가세
장례식
프톨레마이오스
Flex
체납
파이터
##ancy
breakpoint
힌두교
동국
304
downloaded
occurrence
바티칸
Road
돌격
밝기
시어
약서
후사
##IANCE
##박쥐
modification
corrupt
지식인
##Stat
Auth
블라디미르
민자
consult
CONNAME
distinct
##테르부르크
달라지
##Local
게이지
드로
루타
소시
수질
열려
카카오
##니카
##월일
가공비
benefits
##going
낙찰
제수
##eck
Reader
Drive
참석자
distance
deletes
누나
듀얼
설교
요동
질소
희곡
로그아웃
Tra
##ensions
THREAD
선배
##Button
contribut
CONN
themselves
강희
실재
제명
패했
clock
remember
더욱이
Possible
VE
두께
면담
차가
효종
ide
##porate
association
brack
Bill
성문
속했
경상도
doubt
대패
언니
이단
자르
##지스
##올라
ADS
교재
##li
setmq
##izable
CRAB
covers
repeat
프랑크푸르트
강서
와일드
242
방송사
민간인
유로파
##ILITY
매카트니
HBA
Illustr
불신
제갈
카롤
희귀
##level
##eline
아무것
BSD
밀양
##내셔널
인터내셔널
윤치호
송시열
동래
우파
거주지
블로
슈팅
어렸
제치
주된
##omys
자동화
corner
monitored
보조금
CONTENT
내정
유방
해진다
TEL
PASSWORD
mp
곡물
그다지
포획
플롯
MSCS
POC
예조
하수
##riend
intercept
getMessage
##IGN
RCVR
Professional
nt
공명
군정
루이지
이규
이준
013
##Stack
문학상
Credit
미러
재상
전위
##DEPT
ended
corresponds
PostScript
시사점
REMOTE
Fi
pub
난다
완수
하프
STL
TRIG
Normal
필사
##ising
##ilters
MANAGEMENT
내재
마야
연승
장단
##UPT
##베니아
behalf
automation
SUN
발기
진전
##스케
compet
Complex
아미노산
440
ep
nl
외장
Enabler
CLOSE
미완
부실
##AA
##astic
구형
대여
유년
축물
DECODE
SAMPLE
concaten
Dictionary
border
강대
규약
삼촌
한스
##VS
##줄기
exclude
Dead
외교통
슬로베니아
리라
작물
줄무늬
카디
티켓
해독
##INIT
광부
날아
arrays
ee
gather
벨트
사간
젊은이
##나스
idle
attempted
Scheduler
레전
옆면
Shipping
급체
외모
총칭
##페르
workshop
instrument
coded
이겼
쾌속
판본
항쟁
##asc
남미
##bes
##토르
##ERVER
POWER
highly
accepts
Definitions
폭격기
goms
달력
소원
행적
##마루
##포드
사무관
CAPRI
North
성도
운전자
쥐과
law
##비나
##변이
letters
돌연변이
##atives
##ada
ROOT
세워져
그레고
헌신
아니한다
223
Workshop
MQCFST
degree
##DBA
러시아어
capable
오프닝
Draft
Old
aff
교량
리틀
CONVER
그래미
BDS
무지
##zilla
Accessing
choosing
flexibility
바오로
그랑프리
Sap
시가
육안
주조
##uk
##타이드
##으니
completing
BIG
Rob
갈리아
##타주
MQCH
지도부
##NOME
integrate
##OURC
msi
XATMI
강소
김포
후궁
deprecated
specifications
selects
DEP
conditional
##erberos
False
가루
보트
docs
invoking
calculate
이순신
강풍
배달
##카가
stopping
recognized
Association
AJ
coding
가드
공방
이소
히메
Selecting
치러진
할리우드
ICAO
hom
복용
세라
순천
##쓰기
HL
불린
##ez
반전
의의
정화
카니
히사
##마쓰
##uss
soon
우승자
Sal
bulk
mint
겸직
금요일
보이스
오노
케임
##끼리
Existing
접속기
SYNC
레바논
Knowledge
이뤄지
##VALID
발렌시아
eXt
BD
대주
서민
##공신
threaded
recommends
기숙
루틴
DBT
##ICY
정치가
SEL
compressed
어른
적혀
채소
##can
FLOW
비주얼
OTH
ii
대문자
서문
성리학
시리
##베트남
floppy
트리플
감동
고인
의류
##Cd
##고래
##ICAL
4096
CHLTYPE
CONC
Views
1868
choices
cycl
##문트
##lling
1100
BmsOrdCard
##return
EXPRESSION
외교통상부
발리
애덤
중형
표방
희극
##eploy
베네딕
##FLAG
승부차기
Fore
lifecycle
서진
Controll
piece
통틀어
납기
돌출
##샤바
복잡도
matter
트로이
RUNNING
호르몬
강변
구경
기분
러시
신입
자비
오른손
conjunction
##구르
1889
출입국
LIBRARY
PE
San
체력
포터
##베디드
##iders
사회당
migrating
vehicle
##umulative
기일
임베디드
취해
툴바
학대
##멘스
가져다
파이널
아시카가
이세
training
SWHOME
Determine
일리노이
매칭
종점
초신
핵무기
##Application
##즈카
##anumeric
설계자
incidents
specifically
근로복지
APPLIANCE
traditional
압입
폭포
##exec
Signature
##Module
VuGen
요정
태블릿
chall
활발히
조달청
근로복지공단
720
CBS
나비
복권
어미
저해
정유
칼라
테레
##lor
교통사고
##Works
troubleshooting
간사
김형
사각형
서경
아부
연호
인질
재혼
한신
libcurl
귀사
급기
아담
추종
##gen
교육부
edu
시켰으며
dossier
가열
모빌
배지
캐쉬
한가
해밀
##LIB
##크라
##저지
OpenVMS
Prevention
동의어
Deploying
옥스퍼드
아날로그
half
거처
낭비
정변
조수
227
Specific
Offset
테크놀
브리튼
Mediation
Meaning
레전드
다량
상역
적도
코믹스
##롤라이나
##ETABLES
updating
Persistence
Axis
Music
il
보헤
부피
시야
INC
DHCP
쇼핑몰
her
혐오
##테인
Include
##quired
과학부
copying
Standards
optimization
도요토미
subdirectory
Polling
Dashlet
Gbps
가려
로베르
열심
##린스
자료실
SOL
##HTML
sOrd
두꺼
무어
별송
resides
OSS
black
##program
몰아내
지미
환수
##UV
##GROUP
##스틴
##마리
##uts
##PLO
모로코
Tue
air
기전
북아프리카
아산
양반
연꽃
위생
##da
##iform
subs
어려웠
Confirm
Plugin
EXPSOURC
EXPSOURCETABLES
뉴저지
##벨트
러시아군
Selected
야마토
팔레트
UDDI
dedicated
Experience
평택
##WR
라이너
관광지
administer
Mov
바빌
영등
일산
중의원
체르
형법
##aur
##dt
##타민
##타리오
대전광역시
office
Remarks
notifications
som
검거
리보
쌓았
유체
축산
##anger
대표작
페르난
Nex
city
경량
광교
##Dest
##자원
##람쥐
##렉스
PROGR
Attach
Allows
convenient
중산
##프레스
##화물
Den
dp
라서
분출
선동
케냐
248
pointers
Cisco
Miss
공적
노바
레터
헌정
##Cnt
모코코
그렇지만
##Inte
revoke
Samba
CONNECTOR
대명
동상
사지
스폰
암흑
잃어버
저주
ING
storing
cpu
TRANSFER
부드러운
MAPPINGMODE
819
Clean
생계
어요
헬기
##닐라
adm
14020
alphabet
괴물
국영
무너지
아라비아
##ij
unn
WSRR
관인
네임
슬라브
에미
이음
##lines
바이킹
distribute
1883
RESET
RTI
방사성
FT
taking
간신
레온
##SOR
describing
apartment
제국주의
ADV
separately
Arguments
화살표
미비
시코
차르
173
PKCS
농산물
따온
##바이트
Star
접근권
목적물
Descriptions
표기법
LCD
고아
농부
당한다
로비
베니
북경
조례
기르
어류
웨스턴
클라이
타일
##Case
interMedia
Within
vertical
Feed
미르
밝힌
성폭
속주
알제리
##갈색
increased
##ToEmpty
feedback
총대주교
ZIP
마츠
연한
##지붕
그림자
activation
##Column
WAN
대분류
사위
워너
MQRO
##roken
discusses
eXtreme
850
이케
조승
퇴임
퍼포
Comments
Interaction
MSSQL
##Proxy
separator
##ucer
AGD
9000
골격
돌기
엔트리
##node
SOFTWARE
Material
감마
뉴턴
보위
예컨대
헬리
IND
BWM
퍼포먼스
권역
앞장
입성
자릿
적군
##무스
프로게이
443
프로게이머
전구
정문
직결
Envelope
필리프
##lexus
CPS
EAR
꼭대기
부조
컬렉션
MQSI
##Delete
Utilities
디버깅
##더슨
236
mea
640
ADO
천문대
deadlock
oct
오크
##clusion
dashlet
mixed
둘레
명분
모은
임관
##개미
##대원군
MQJMS
기사단
312
Rock
gif
six
나란히
도형
물량
제프
져야
##agraph
Additionally
balance
동당
비르
오를
자제
진사
##야시
##피어
청구서
JPEG
du
끼치
서자
##텔레스
##entdd
copyright
아카데미상
시뮬레이터
fall
병기
타협
##Row
Science
Privile
FK
##시즘
##들리
##stances
MEMO
DLP
YTN
접점
토모
페니
호응
##젠테이션
233
Alph
공동수
assignment
South
건륭
만듭니다
벌인
##Mgr
##수리
charset
Unis
케임브리지
CASS
주부
합당
##레타
##하루
##브레
Inquire
DAE
Lit
가가
극도
모티브
세그
체스
##UNC
부담금
mix
고침
구내
금고
남작
동참
매직
위조
차후
grouping
country
Controls
카를로스
알렉산드리아
반지름
공민왕
아리스토텔레스
EAM
RX
css
공황
수강
유진
형조
decrypt
##Proc
viol
DSP
bed
교양
돌입
마블
명하
주지
퍼스
화강
CHL
Debug
간토
대차
아돌프
##rest
##ogene
argv
dropped
리우
처하
컴백
##PM
##HH
##세기
##짓점
Proprietary
프로그래머
Establ
우체국
꼭짓점
맞붙
빌라
상트
##ds
##로프
아이즈
customization
Navigator
이글스
ty
약관
SDR
Invoke
demonstrates
Ve
ahead
당연
대관
상급
정액
친화
##hone
사이토
득표율
discarded
손꼽
실버
주선
해져
##apters
아이폰
Such
Computing
아미타
alphanumeric
Choreographer
반하
핑크
지원금
##obj
전산망
그려진
##Seq
macros
안테나
Coded
King
개화
난징
타석
해치
##사태
2048
MQW
프로모
264
White
출고
kept
편의점
affects
트로피
러스
음수
포스터
viewing
시켜서
올라간다
Balancing
511
Oriented
treat
녹화
안성
접종
David
바나
정한다
중생
##osure
캔자스
##Change
minute
NF
OID
막시
이창
충주
##테리아
##amed
Contract
401
##apsed
SHARED
Dual
eight
esc
레이트
##지르
##제프
1848
William
페르디난
검열
독창
칼뱅
##리니
##드르
##rier
1882
세이부
유가증권
생년월일
Dupl
석회
화력
##디나
##BU
##avor
Guid
TIMESTAMP
비행장
Hit
데카
이데
체감
##맨드
reader
URLs
routed
bootstrap
vtadmin
데르
##황후
dependency
강수량
Raw
Way
갈래
다크
반군
브레이크
스칼
##ONS
Reset
grouped
##105
txn
##DY
##브르
##올로
stmt
Unl
1888
##UserId
wolfSSL
laun
우물
지녔
피로
241
SEQU
연예인
AH
Ye
동맥
미지
원동
##이익
##POINT
##idae
##upported
미시시피
서머
양육
황족
##iency
##Max
제작사
effectively
books
AAA
Unisys
리터
##fort
##분산
Compos
Scal
green
##cpy
똑같이
JOIN
분수
안방
##nc
##스토
##평군
modem
networking
BmsDct
SERV
complexity
다니엘
강간
불꽃
239
산업단지
generating
DISP
바르샤바
선보이
MQXR
##Thread
분개
온타리오
##Ptr
##004
217
streams
트윈스
트렌드
ATP
OVER
Tw
경작
농사
라오스
명과
파벌
RECOVER
manages
연대기
visit
##legal
무형
뮤지션
익명
##geb
ann
##enda
254
filesystems
청동
##사이드
##oman
##ille
tpreturn
HELP
Geor
ever
김규
헬륨
##aight
asp
##ICES
##CSI
IIOP
##logic
DSC
Zero
##otals
arc
Deleting
PurePaths
Eas
견고
계시
군함
춘천
티코
##갈피
overl
paste
Med
watch
비뉴
스냅
재검
평판
##java
##카타
야구장
Without
제주특별
##자치도
제주특별자치도
wor
당수
베어스
소외
에디션
여운
유라
이북
함정
##LA
international
USAGE
언어학
Feder
핸드폰
스캐
습지
##field
##HUB
offline
스코어
유대교
양성자
rolled
살려
수녀
카우
해부
##RA
anywhere
GRANT
프란츠
인텔리
kitchen
arbitrary
미키
상정
피크
##haps
##헤드
purchase
permanent
MDB
omit
배려
인포
조율
함선
##NER
##oment
reach
##DEV
tabs
찬사
창문
폭로
Sept
Enables
포도당
Cos
ha
래스
장제
특색
판별
##aming
presence
##Model
suffix
410
Filters
각색
센티
유즈
출원
포식
##YANG
##ishing
BYTE
Discovery
점성술
Manufacturer
고품질
bill
그랜
라벨
수중
카스티
##로이
##lege
compilation
hierarchies
Similarly
PQ
공존
목판
전속
중공업
inactive
##acall
CHANGE
##Default
CipherSpec
능선
원화
퇴사
##89
##페테르부르크
##츠크
##Execut
credit
새겨진
propagated
세그먼트
상트페테르부르크
Er
모인
지옥
##uff
##ashed
pref
Encrypt
김현수
주고받
eg
saf
볼셰비키
잔존
##eon
##QU
RESP
그리스인
이룩
##리안
Force
accesses
404
modeling
IFM
친일파
끝났
Identify
activated
opportun
099
DU
Gir
talk
가독
구스타
미라
반공
방치
약하
환산
theor
prints
compliance
ui
자형
퀘벡
##워서
Modules
Filtering
TBS
등용
부회장
전일
책갈피
획기
##uary
##UMENT
PROTO
Prepare
ONLY
Gen
고산
구와
봉안
initiated
복합체
pid
아치
자결
저조
전날
전무
Extract
##Conn
1893
상담원
##Beans
김창
도카이
##ithread
Exam
보수당
어려서
EDT
그레이트
마오둥
aug
fragment
감성
부득
시안
##hp
##군다
##뜨렸
중앙아시아
June
익스프레스
IH
mt
명부
자오
피오
##def
사업가
alive
나타낸
putting
NonXA
##Select
Cy
PDS
구스
단선
브뤼
##Body
##충류
##ager
intermediate
이루어질
Workload
일렉트로
자릿수
깃발
불행
오로지
평민
하르
##Man
여러분
MQCD
동성애자
UND
악의
파병
##지기
ACTIVE
East
미노
에는
팔라
##나우
Third
민회
불타
스로
입양
청색
##more
##YTE
##기니
edition
overwrit
LGE
commons
NPIS
아폴로
독서
동문
사살
상경
아리아
에뮬
하차
##타로
##폴리
246
지방산
reload
경성부
LLMR
안토니오
CAR
대본
수기
활주
##iser
Listen
옮겨졌
INSTANCE
asked
##weight
cron
권익
드론
미친
번성
overwrite
타이어
붙여진
IAAM
Rate
joh
북구
빙하
##uri
img
transmitted
아이오
minor
FACT
생겨나
아나키
##brk
##ogeneous
권총
##Dt
##YC
014
subclass
경제학자
NAMYANG
STORAGE
circumstances
DG
게끔
내면
부의
어로
엘리트
용서
져서
취항
##QUE
##라이더
교도소
Crypt
당주
상대식
TPM
explanation
##ossary
##IZATION
MQFMT
소령
총계
##zis
##OND
acts
뉴욕주
전복
코카
후행
intr
##CHL
Pointer
근간
려던
세탁
중령
##건설
initially
가옥
기니
혼잡
##생명
##adem
역사가
Community
propagation
감싸
현안
회상
##Schema
##고쿠
UNK
Modifying
nh
강령
관청
발칸
법조
##그룹
##바시
302
검사기
MQCNO
##properties
Temp
Merge
일선
레이더
tpget
컨트리
보헤미아
Fundament
pse
vSphere
유권자
협주곡
##84
REPLY
거짓말
Mandatory
Tour
notation
AnyLink
prevents
미하일
Dr
fed
계량
높일
버마
자작
##omy
isolation
개인전
306
Always
approxim
Answer
Mbps
VQ
국소
귀하
기병대
니코
소생
신정
쳐들
태극
퇴장
페미
홈구장
##BN
outcome
두려움
도라
배점
종말
##PAR
##고스
##IND
##라우스
유치원
denot
##Install
exceeds
##Descri
unused
1001
monitors
##Only
possibly
우즈베
뉴클
램프
무자
상연
샌드
오락
제인
##bre
##ndi
behind
RBA
무함
비추
어뢰
짐작
품명
흑백
INQ
descriptors
solve
##istorical
internally
##bor
거주자
실험실
##Resource
UTIL
##TRAN
NASA
콘스탄티노폴리스
Gi
Wide
hit
깨지
러셀
비석
쓰시마
옥수수
우상
##파르
로마인
Invest
에디터
JNI
GNOME
rang
요법
자음
장래
철폐
interested
EXE
Paul
Debian
XMITQ
Demand
Department
암호문
effects
poly
무작
불어
코끼리
##역학
##ani
##ailer
##테르담
CCSP
Japanese
FG
Sheet
일파
입상
지오
1415
##COL
Screen
ENC
PROCED
Synchron
내림
산다
집정
##uer
1850
1892
cells
INTERVAL
피고인
징병
흉노
##ios
##치기
INFOS
7000
WBE
갑옷
맹세
반장
선불
염소
직통
터보
IFRS
둘러싸여
consistency
광둥
당내
동법
동유럽
살라
1866
영수증
Germ
가야
김홍
따랐
지성
##자르
##휴일
containers
YEAR
농경
맞대
임차
초고
취할
환불
Street
ANAL
Delegate
benefit
NN
결선
최강
Domains
창원시
그레고리오
ff
룩셈
버클리
##도스
##atever
##ride
Country
이성계
manipulate
Critical
룩셈부르크
Che
Loop
아레나
체중
##티넘
##질러
TRADE
decisions
redund
전산실
플래티넘
##sembler
다케다
Compatibility
INFOSPHERE
Gold
Sav
운수
지켰
##네이
DataDirect
relating
moves
Mir
pip
게릴라
발각
일명
외부망
TABLESPACE
searches
동치
집결
##count
##그래
##anium
설립자
restored
##NSION
minimal
후반기
interpreted
겹쳐
관례
동학
들려
라디
리조
##artner
Disable
clustered
넘어갔
##erequisite
serve
브란
섹스
적발
채취
##그리
##으면
1605
inetd
겐지
경시
벽화
소계
피보험
ther
잡아먹
Fragment
Her
통용
홍문관
##하키
Environments
스리랑카
ur
레퍼런스
방재
이철
치른
##기구
##반구
##Reply
combine
PUBLIC
OZ
대서양
도약
용품
한미
함부르크
회차
##NOWN
TIMEOUT
이주하
미네소
객사
구약
기저
낙동
문고
엄밀
코소
##kens
##신문
이탈리아어
ordering
queued
registers
Amount
Condition
안기
##살이
##ebook
나타냈
##ampling
Coordin
예수회
AMI
네오
마우
아소
친분
##RET
##토랑
analyt
##ERV
##open
mqe
유니버
들여오
레스토랑
suggest
rend
고트
롤백
반역
아니다
여래
염려
원종
주무
APT
documented
Bucket
Cir
frames
시합
##Read
##mask
4100
Requirement
놀라운
다우
만장
이언
##atures
##ulner
Profiles
ending
Left
##dev
도마뱀붙이
공채
볼프
왕정
호족
##파이어
compound
explained
##OUND
crash
DLQ
interactions
Continue
시외버스
Pub
맞물
에밀
재시
흥선
Learning
사무총장
남동생
regarding
IL
개항
다항
연립
응방
천하
한번
##빌라이
##ansion
편집자
신용카드
CSQX
Minimum
Snapshot
ESXi
enclosed
CAM
sch
낙하
증손
##파리
introduction
locator
##loaded
inherited
시달리
냐는
소말
예탁
장원
전전
ine
flexible
Vector
away
남매
사슴
예하
중공
향했
##LATE
##fox
그래도
partitioning
sorted
##Office
Fil
단과
습관
자칭
commercial
legal
coupling
ELSE
##Template
다투
무척
해저
##ocations
##forward
uncom
##ymm
연산군
altered
게리
궁중
응대
항원
DIRECT
Wed
가의
덮여
박지
온갖
##category
##퍼슨
##캐롤라이나
##ashes
blue
Phil
CURSOR
Fault
공휴일
대니
##ORI
0100
TSAM
increases
반란군
labels
열심히
Mich
개교
광무
밀란
소극
자크
정국
프롤
행방
##mes
측정값
쓰여진
mor
봉인
투항
히타
##WD
##gi
##hy
##축구
##산면
##글라
chmod
Thom
##ibilities
Agentless
Secondary
460
디트로
삼거리
선장
설화
수퍼
적외선
증강
코스타
##ny
ENABLED
충청도
LOTID
디트로이트
레즈
알맞
퇴역
##하시
spool
SALE
아파치
##TS
##MTYPE
소수자
replacement
indicator
uppercase
##Driver
총사령관
갤러리
돌보
마녀
미상
세비
원복
조형
테라
##쟁이
Developers
SCSQ
스트라이크
zeta
후한
##Bl
정부군
modifications
website
조반니
Know
NR
Plexus
tro
끝날
진로
체조
피할
##모스
threat
USS
Prepared
올랐으며
카를로
Robert
PROPERTIES
여의도
개원
루카
맥도
민정
쿠빌라이
##백과
unix
generator
##ological
Packet
diagn
unsuccess
alerts
바인딩
실존
탄도
포고
stab
getString
Subversion
cleanup
공예
단서
둥글
차용
통역
푸르
확약
##다임
##들여
265
기념비
복사본
lowest
Brand
elds
580
Python
gn
ilink
내무부
리비
사쿠라
##imedia
##SEAI
loginVO
January
패러다임
UNKNOWN
뉴클레오
face
sy
소나무
여타
열도
형질
##카미
STO
matrix
MQQueueManager
비지니스
PIN
mnt
극작
블러
임정
중상
##acl
BmsConstants
수인
restriction
months
타이거즈
NORMAL
artifacts
Vista
감금
공약
방글라
불출
불변
##ifiers
##traction
동시대
Price
부하분산
1887
improved
Extensions
방글라데시
서드
종양
칙령
카피
크레이
##uild
##거시
##헌영
##공산
##berg
##ruption
FCP
PAGE
동호
상가
##LOCAL
Supply
NVL
tuxT
프록시
ai
강철
구이
바젤
비씨
준주
취했
노동력
RELATION
SEQUENCE
AX
Days
워치
코코
##vm
기관총
마이닝
retrieval
##hemat
Foot
aa
fine
금형
나우
웍스
카사
##cr
##aste
Week
가시성
복음서
PROCEDURE
Fill
fer
본성
액티브
어리
어나
외래
특례
MQMessage
hosted
GUID
OI
##rehen
##사관학교
RB
water
대합
##사우
249
STAR
POSIX
MTV
Hierarchy
장학금
hwp
610
ment
각성
요율
##XY
##QName
무로
약혼
카프
합치
251
backend
accomp
프란체
legacy
##ergy
Stopping
프로모션
March
opp
성지
신발
이겨
태권
##링턴
##apes
disposition
조건부
Algorith
마르티
REFER
마르크스주의
conversation
세키
하리
##Acc
##osp
tpalloc
predict
ONLINE
interpret
용인시
BZ
Tx
단수
닫힌
몸통
오오
토미
토끼
피치
후진
##tx
##icon
TBL
파라과이
으려는
authenticated
무함마드
LIMIT
Random
수심
스텔
실효
외야수
직경
installs
Small
아름답
만주국
##ybrid
INITIAL
licensed
sr
과부
로저
아데
이모
##bing
##ura
SSD
##taining
Freeform
endpoints
달한다
##Grid
스테이
고양시
##LINK
CFS
FOUND
경감
안산
안경
REAL
someone
Wholesaler
graphics
OBJ
sig
상의
영위
중견
##Vantage
##ISt
비밀리
지지율
ARRAY
organized
##UPTABLE
대웅
복식
울리
현직
호모
휴게
##Target
위키백과
ACCEPT
마땅
메소
연정
유목
축조
토기
##원장
0200
라인업
##odesk
finish
플라톤
Position
essential
SPS
lin
xr
##Rule
##ullet
Imp
311
CSQJ
게시물
##Comp
listening
feel
도피
묘역
악성
초원
##icol
##icip
enforce
manufact
유격수
흥선대원군
Cookie
Pal
Roo
경질
이양
##Rep
##ober
##Iterator
##럴드
explain
IOException
responsibility
크리스토퍼
Nodes
PFM
리프트
##현실
##Free
##omorph
expert
1311
신문사
스파크
SEQNO
제리
증인
코무네
하류
현감
##imation
1010
certified
그저
박헌영
신동
정동
초빙
항체
##icity
JMSException
1865
overrides
Multicast
NL
##삭스
##arc
1876
SUV
carry
##Parser
볼리비아
augment
VF
cable
gen
공무
그릴
안치
양면
엔딩
책자
취미
케어
edge
Sending
아스널
창시자
역서
연못
입시
조체
Inher
Three
##illy
scans
flush
##Logger
calendar
잇따
neither
우리은행
QMNAME
limitations
identifying
LOOKUPTABLE
pwd
yield
갈리
감축
개그
유망
이건
이면
절정
찰리
1886
이뤄졌
간행물
syncpoint
gcc
yymm
무성
분사
산호
종파
후작
modi
Customers
Compile
1861
facilit
coordinate
활주로
관문
넘치
마니
시중
##ws
##네시
##inter
##pts
##ford
시간대
consolid
소행성
hide
강동
강해
걸어
와이드
위스
##대교
##itrix
verbose
divided
PB
Somet
광도
도식
등극
따왔
반성
신종
화약
##상시
factors
Kn
OWN
과태
노면
도사
하치
##lin
##산맥
##Job
275
reliability
대사헌
미군정
Choosing
Cover
cumulative
무궁
안개
전보
향교
##UCH
##전기
##도리
##히토
iso
##Cons
BPC
방어선
Fetch
시국
파우
252
ARS
PVU
해밀턴
EBC
LET
cust
경위
무실
세네
외상
##난성
financial
WINNT
아케이드
Undo
cient
관동
랜덤
서장
센타
이반
줄거리
중원
투여
##oon
##Crypt
##바흐
##노미야
Resolution
minOccurs
helpful
붙여졌
freed
금일
##헤이
Itanium
1891
스케줄링
강렬
무스
##ham
##위성
directive
repair
준결승전
tutorial
러서
루돌프
연회
타지
266
Levels
floating
20200
더글러스
부득이
부의장
dif
막스
무술
소분
요지
잔고
정인
커플
##usable
chk
preference
237
CTS
알렉산드르
Mozilla
AVAILABLE
시큐어
다나카
세스
테무르
토스카
##gt
##Batch
reside
기관지
expired
early
Te
메릴
인테르
입회
화기
##나드
##istical
strength
newer
namelist
20070
1864
오리콘
##Plus
truncated
IZ
발라드
일러스트
총기
케플러
##버리
##가르
##아일랜드
amt
스크롤
##isioning
implicitly
스폰서
hello
ti
미미
은평
제노
##루냐
0010
OSI
Prevent
STANDARD
Rename
내일
넷째
부평
빛나
이렇
처지
카타르
##Api
##라기
##린지
appendix
CDATA
분류군
tpacall
BPR
과태료
HG
TW
싸워
편향
##83
Comb
Units
##BOI
에도르
리조트
LBS
너머
델라
림프
방카
스가
##Sync
SAF
##ometry
solid
131125
MAR
라오
마닐라
섬세
울프
##방울
##ERY
##LOAD
피아니스트
evaluate
latency
dv
노이
레거시
##Lay
##TD
##TM
compact
Incident
Correlation
서기관
Virtualization
도네
스님
재편
ADAPTER
obt
guest
CAO
삼국사기
성남시
POLICY
광명
마가
비타민
성령
앞선
왕권
추첨
파문
##포로
229
joins
Cart
글래
모리스
상고
악보
종식
isEnd
entropy
Mal
Sound
윤보
조문
평평
픽셀
##KS
##진군
##GRP
견적서
Generator
1863
parenthes
Activation
마스타
모용
서리
송출
시종
캐서
##200
##로우
##번에
247
readable
guarantee
simultaneously
Cycle
MIT
접어들
##Location
##iest
##unct
QR
saving
나아
라기
배속
실권
정경
##루아
##econ
College
1881
Initi
Problems
라이온즈
간신히
Jeus
검은색
말년
매거진
머스
상한
애리
요령
이븐
reliable
IFR
applying
Beginning
dimensional
radio
##Edit
October
Supplied
Du
IAM
hp
고토
남원
열강
직종
총애
##해튼
IPTV
Permission
Swing
아이스하키
과반수
오바마
비늘
아벨
잠정
황도
##cape
INVALID
##phone
populated
Mis
px
벌여
영사
주화
거래처
mqrc
EXCL
parsed
Traffic
공손
농어
로이
올드
향년
incons
straight
017
253
Beh
Aust
Citrix
고생
송도
순이익
죽인
효고
##LEVEL
Restore
크리스티안
경호
궁궐
내포
대소
스태
야드
지령
Conference
envelope
##ranches
##Space
Education
agd
##irty
클린턴
TRIGGER
pen
가결
고쿠
델타
스템
의과
일당
shm
Transactional
경쟁사
##Engine
gure
tu
tax
버드
온대
포토
호스
##통일
quote
재정부
integral
diagnostics
exceeded
isEndSeparator
PAY
광저우
군데
극한
내수
##Rem
##함수
##ples
shadow
243
##스카르
rmm
해리슨
대지진
급속히
Peter
참의
##icles
##ascript
closing
##ftp
datagram
CONFIGUR
substitution
Cou
DUAL
모욕
시네
연중
제우스
차선
하타
##reens
recently
##OSS
validator
##iances
Flo
후속작
그라운드
kinds
browsers
sequences
unsuccessful
MRT
RULE
구실
꺼내
릴리스
서임
왕세자
유포
장자
정작
보유자
ACCOUNT
uniquely
니콜라
introduces
soapenv
선구자
LSM
색소
수로
탄약
형편
##ney
##hand
대단히
신세계
거제
스즈키
위그
철강
##SDR
올라갔
1873
##nowled
애틀랜타
jb
menus
성화
포틀
##Tag
##랑스
##eless
usual
##uble
colon
방문자
owns
Blank
##Identifier
GMB
TDR
과시
듀오
선천
오니
우아
자생
288
Korean
아름다움
131128
Ten
감찰
어항
증폭
켈트
trading
tablespaces
인디애나
누계
명회
세바
자란
포스코
##mits
##테크
Exercises
TOUCH
Autodesk
생긴다
subtype
말단
청렴
치유
##산성
##ute
자유민주당
드러냈
Different
PROPERTY
커리어
##연구
##antic
EXIST
Scene
프레드
combinations
PRIV
hh
모금
생길
자립
전세
청동기
측량
##tee
##index
msgflow
카운터
Repres
미주리
Lin
마차
이완
졌으나
타우
##다운
##번스
1830
걸쳐서
ownership
Fundamentals
VIT
외산
##UME
Times
리히
브랜
영유
욕망
원더
차질
퍼티
##65
##rete
##urg
보호관
영업소
Symmet
공영
공리
나간다
노보
오쿠
위촉
콘테
콜레
팔렸
##broker
##테일
seed
dbs
마르코
김정일
숨겨진
Kerberos
때려
맡기
몬스터
운임
이우
##RG
##콘드리아
##ington
303
보호프로
##ssl
backward
instruct
captured
미토콘드리아
보호프로파일
XY
hyp
국공
누렸
더부
메틸
호른
ste
Detection
slightly
probability
Drawing
mqsichange
950
가혹
갖춰
소중
약해
중서
하비
##ithmet
StringUtils
##aha
IMPORT
나트륨
말미암
Broad
ov
spl
탄력
푸에르
##section
##LEAN
에이즈
dimensions
Bat
HIS
Iron
QTY
York
다윈
수필
제물
제너
종자
##어내
##zip
SOCK
비해서
너무나
initiate
Machines
Lo
어찌
즐길
해커
##정원
FORMTYPE
##ommod
GSUV
DISC
사라진
csv
OW
got
관음
노론
다저스
시애
케라
케빈
##urist
##매매
##벤처
##ico
countries
##umeration
programmers
Government
어드벤처
540
꼽힌다
당할
명기
왜구
탈취
특집
deactiv
unchanged
245
열린다
어려울
reduces
대장군
CTRL
우편물
frequency
부드럽
ring
겹치
관구
사서
저격
캐스트
캡슐
쿠퍼
##증기
##inity
##ald
STORE
CHARACT
declarations
MULTI
Vt
가네
양보
책정
캐피탈
##테쓰
##더링
히어로즈
suspended
장난감
PROGRAM
DAS
IQ
내걸
니카
대영
직속
031
##UILD
SMF
##BIOS
알렉산드로스
Glossary
Derived
##공산당
530
cxx
루크
분파
천천
피겨
하행
##라고
##ASON
ITM
##MCATEGORY
##fficiency
##Directory
ABS
동종
두어
영예
##쿠버
spent
IDoc
OracleTimeStamp
지방세
FORMCATEGORY
423
extracted
warnings
daily
sid
감상
공법
김병
내무
로라
브릿
유령
이태
##미트
##enge
Correl
MQSUB
plugins
Topics
##ANDLE
Signal
immediate
awk
America
단행본
Original
기숙사
떠오르
만년
튀르크
##fect
##거지
##곡동
나타남
특별법
NETWORK
##commun
rejected
RHEL
Eai
rb
피의자
기술료
clustering
개정안
아무리
니콜라이
Facility
화강암
Symmetrix
Night
gain
마천
선명
오름
워커
##로쿠
outSet
##REAM
viewed
Prerequisites
Loading
테크놀로지
만점
몽고
편견
##유행
##ITLE
Plot
Soap
Song
cookie
급사
비엔
에코
접합
제왕
조광
##덴부르크
expiration
portable
relay
##Sta
내려졌
Mapper
프리미엄
대성당
무작위
시애틀
aud
dem
ol
김지
대대로
리서
생선
표정
##RK
##With
##타니
1592
가져가
알아내
Initialization
방사능
optimize
KORE
Samples
tun
경희
나인
아종
애정
원통
이병
코믹
파도
##레슬링
substring
258
목표치
Analyze
##Binding
##arbage
초신성
Round
Walk
미성
법관
분양
불참
센고쿠
절망
##64
##십자
정치학
MQCL
부르고
##Prod
서재필
##brevi
##Reader
##uit
305
PDA
SUBSTR
INTEGR
Magic
Throws
Journal
MID
cv
김유
##Bus
프로레슬링
프랑스인
마르틴
Dashboards
mqsicreate
Composite
국보
농지
맨해튼
재화
정맥
톱니
##기술
MQAI
whatever
스타리그
signals
NAMES
찾아보
References
CATAL
인플레이션
EBCDIC
James
SUS
제퍼슨
평형
##free
##홀름
Descriptor
Submit
아나톨
Namespace
Bour
JCA
모모
상행
우월
확진
##vas
##oting
indexed
TXN
Great
OST
각호
드디어
르노
매번
보로
파충류
##JS
android
unlock
TRPTYPE
reduced
테크노
deny
Throughput
Cat
Ign
electronic
hang
메카
민요
속편
토요
##ned
##IGH
POD
necessarily
라이프사이클
부르고뉴
EMS
broken
격려
노태우
더비
비준
세련
인스
카바
켈리
코시
타수
타케
표창
허드
##WAY
Inspection
shape
##ETCH
보여준
invocations
tempor
프라하
소문자
타이거스
Firefox
advice
August
윤보선
Di
가늘
김민
사탕
숙박
키워
##FR
##error
Interval
IDX
Strategy
presents
MATCHED
누른
은거
조이
힘썼
##MARY
##테면
##ena
correl
이를테면
switches
애리조
기해
도널드
동대문
사카이
영산
주계
##말로
Secret
PAS
QMQM
민첩
토시
하노이
학설
##abit
##201
paragraph
Columns
##adding
WOORI
rpc
세습
이장
1300
##ISION
스케일
히로시
메디치
피보험자
Ack
JA
odbc
sso
원심
조교
차출
총통
MQOD
1869
1872
천천히
긴테쓰
씨앗
우림
이방
가로지르
Os
ratio
격추
Exposed
##LOW
Filesystem
1867
webservice
Gb
docker
social
경인
봉해
##산부
##우트
##파이
##arth
##0001
카스티야
mus
개헌
박테리아
##Broker
forth
SQLSTATE
##Regist
slave
통찰력
GLOB
nice
각서
스칸
최진
##Socket
##COPE
지배자
뛰어들
Tablespace
710
Icon
WK
가토
김옥
예명
카지
퍼스트
후배
##Decimal
##IFI
##mental
Advisor
이동식
Workspace
마르쿠스
1878
프랭클린
##프레임
European
fundament
나사
송파
적분
##쉬운
intend
야마구치
entirely
abnormally
##CharSetId
PF
WID
lif
도교
선우
수복
친위대
##에스
closes
processors
27001
Industry
되돌려
CAST
늘려
연혁
정할
출가
카미
페트
##ruct
##omez
Respon
accommod
경계선
Never
로페
사적
요제프
이현
생성기
Specified
이주영
deletion
어울리
알선
압둘
키예프
1700
##Quote
yymmdd
꼽히
보라
수염
재사
헬프
##워하
##ooth
##RIPT
##BOX
마일리지
Navigate
iPhone
dates
교실
다듬
떠올
chunk
DEAD
50097
기념관
graphic
potentially
VRAID
대웅전
경매
모나
사방
숙련
스킬
페로
##버러
##아나
##uel
##AINT
중앙부
인해서
computing
structured
EXECUTE
Dimension
프랜차
##rehensive
가자
덤프
찬양
파나마
flat
OPER
나간
총격
피라미
##체고
##히트
501
Administrators
일으킨다
헬리터
##체고비나
리옹
머니
알래스카
야전
용암
전래
칸국
##IAS
JavaBeans
##rontab
Conditions
Il
동요
문종
요충
전격
침묵
프러
##타나
##풀이
##모닝
Depth
LOOP
MSET
Accounting
생존자
내세우
Bro
가전
든다
장대
##Mapping
##Tree
##망디
##DED
##ensis
grad
후지와라노
집정관
프랜차이즈
horizontal
wtf
레슬링
벨리
본체
취한
타락
##icts
Analyt
STK
다이얼
Remov
신용건
Heap
##Image
REGION
fraction
BmsOrgUtil
시코쿠
Split
hint
광양
분단
##거나
logo
Qualitivity
Mars
NAC
rfc
사생활
외치
이다
Proc
getName
USN
SEG
스트로
케이프
elect
물결
삼림
수다
전액
##han
##부르
clone
수행자
foot
분석가
Quarter
said
가했
인위
인칭
함량
##option
##바오
##성장
##에미
ESA
마다가
##ought
동맹국
Convert
헤르체고비나
bold
과잉
도박
로크
목회
무언
블리
시세
원상
행실
##무소
##히코
##대표
13120
FORCE
BmsLnk
selections
##Attach
Mot
온실
하의
##YNC
##Kit
##페스트
chapters
CORE
investig
##ithmetic
KIA
Squ
오로
치과
형벌
##니지
##버시
##ONT
##inese
OpenSSL
채무자
Dataset
로렌스
Gets
##core
Analyst
프랑스령
중요도
ADM
replaces
관심사
Libert
MTS
공용어
consumers
벗어난
Audio
Sources
friend
남해
돌발
상어
서대문
케인
adj
##IDS
Named
lowercase
OV
pp
가닥
거지
구한
기량
로키
수양
왔으나
용액
##틀리
##화학
analyst
IDM
requiring
그러면
Enabled
##Configuration
##CHILD
CSR
313
오사카부
마카
모하
##ONSE
##TEST
259
##chemas
##HTTP
article
July
summarizes
Duration
NAD
내릴
높였
다목
배아
숙지
심문
조계
##cer
##Pos
MIG
군사력
달라진다
drilling
Speed
경도
구금
복종
블레
카터
##dr
clauses
resume
018
agree
모세
신지
재분류
하노
learning
Who
initiation
Measures
이지스
RECEIVE
서초구
Dump
WF
ij
사쓰
세관
접두
제위
##Files
##Block
##가상
##산리
##프랑크
Priority
##books
BIZPL
ARE
MCO
Soci
릴리
소용
촉발
헬싱
##푸르
tot
부상자
극장판
##가와현
프라이버시
지켜보
ENTERPRISE
CGI
Saf
대의원
마카오
작년
천왕
##Wind
##Label
##Ver
##화문
기준일
저지대
##Entry
MERGE
가브리
모어
병목
부다
절벽
탑신
파편
영화배우
러시아인
importing
예선전
CRT
alpha
Translation
cycles
도둑
라자
배운
스노
스홀름
악어
에프
폭파
##rd
##식성
262
Models
1875
OLTP
660
Gran
collaboration
누른다
산시
옮긴
유량
호크
황색
메이커
sorting
카탈루냐
DCE
대인
유혹
중엽
중퇴
giving
스타트업
EOS
OAuth
PUR
결핵
극우
참사
통영
통관
호스팅
##ental
dispatcher
Manip
Displaying
루키
박종
##Person
stable
INI
323
1862
대법관
UBBC
수하
외형
접한
정주
태백
플랑크
##처스
MQConstants
책임지
333
동물원
maintains
IMF
cleared
FO
고온
고집
국철
굴절
산물
##Meta
##jax
257
장애물
Unknown
국민은행
프란치
##Track
안드레아
바그너
Michael
캐서린
cam
간첩
부교
우왕
CSQC
자본금
Factor
##DOWS
somew
피라미드
RI
농가
사별
삽화
섞여
자서
지극
테이
항우
황소
사이다
dbms
measurements
##persistent
telemetry
trailing
Hold
PU
라그
배기
범례
범행
야외
양심
위구르
정거
##icing
tokens
클라크
WINDOWS
패러디
서해안
Illustrator
tc
발포
번갈
중첩
철종
히브리
##브리아
##htable
상국
정종
조서
항로
##run
##andem
leak
##derr
272
calculations
지상파
September
쳐들어
UBBCONFIG
가타
국교
놓인
덩어리
동형
막판
바트
안녕
Modified
Operational
글로브
텍사스주
Improve
오클랜드
마다가스카르
Dere
jndi
xFF
객차
민병대
반포
승낙
천거
친족
recurs
annotation
tit
ud
규탄
빨라
윗부분
합하
##gres
##103
FILES
incomplete
Instruction
우울증
였음을
대합실
470
KG
Tur
geo
가락
공판
서비
시급
앨리스
##사상
##메스
올림피아
으려면
stdio
BUFFER
Docker
QoS
성원
오라
##Tx
##리코
289
레드삭스
drwxr
클립보드
GLOBAL
ksh
공성
공람
글러
급수
로트
심볼
포상
##RAN
##나갔
403
replicated
edited
Following
줄기세포
Fax
mid
메라
##미스
325
POOL
##arehous
RTSP
interesting
Wireless
PoC
날카로운
CMQ
재차
중등
지쿠
##num
##lqual
toler
neigh
문화방송
COMMON
errno
Je
그대
레버
샌디
완결
위로
일보
특사
하동
##그레
##소싱
Club
1312
274
Works
HPUX
##ancer
연장전
occurrences
김규식
theorem
Lifecycle
구니
북군
쿠니
##Book
##셀러
039
Logs
refres
Technologies
##STRUCT
아웃소싱
HANA
##Customer
Emp
walk
가도
각급
내분
따름
바울
온난
특기
##레시
Sep
TRIM
BIS
Na
NARD
결별
기조
세손
셀프
전락
thlqual
##imo
기업체
translated
respective
수목
순종
직계
편안
##folio
##Pane
##다르
##메다
##LOY
뛰어넘
CLUSSDR
PRODUCT
twice
마라톤
##ulfill
Dream
Gomez
ICS
mc
감추
거세
국수
단결
마키
##FD
stamp
##ulator
##quiry
##iber
permit
##ACC
그만큼
매트릭스
소말리아
CU
lob
mal
고든
니즈
무수
유정
##시설
printers
TrueCrypt
AW
Empty
박성
출국
컨퍼런스
##아키
시스템즈
##UNG
Performing
Visibility
IOC
화장품
##Integer
CodedCharSetId
로리
소피아
우연
파나
판례
해질
##oa
##매김
##칼리
Ang
들어올
InputRoot
둘러싸인
ANALY
Land
농축
밀러
사민
콜럼
##모비스
##브로
현대모비스
graphs
리서치
강행
샤프
성곽
시속
은혜
침수
##house
clos
Instances
471
경유지
subsequently
##그라운드
mv
단정
바운드
율리우스
##irth
##cedural
299
정착지
keeps
scheduling
낙동강
VITRIA
bs
리허
매크로
발목
소울
슬롯
심야
##do
attention
screens
경전철
드레
피지
##PC
##입니다
##라이어
MOVE
##etscape
Typical
hierarchical
upgraded
SPSS
Cop
Water
branches
sourcing
도상
리본
시멘트
sta
따라가
indirect
EXTER
이해관계
부르주
공화정
익스플로
미스터리
익스플로러
bath
선봉
후미
retain
정의당
##PED
corporate
자리매김
triggering
솔로몬
사운드트랙
CHARACTER
CACHE
META
기이
모셔
불분
알베르
잔인
지청
콤팩트
키트
##Is
##산동
##끄러운
##들이
##융합
##oti
salary
Considerations
nes
다람쥐
재래
정중
종군
##부로
한국은행
진행자
plane
##Conf
ISMS
Assembly
802
Permissions
heav
EMPLOY
OUI
루비
리케
서포
텍스
##544
##INVAL
285
인지도
slot
pools
후원자
스카우트
OCR
관세청
우즈베키스탄
Synchronous
YG
나이스
남군
목욕
스마
슬램
야시
웨인
자진
장부
절제
##block
사업소
노르망디
201006
HAC
rapid
tty
무네
테리
##IBM
##부리
Customize
SHIP
Generation
플랜트
김원
놓이
무쓰
파급
허블
##sk
##lu
##여래
Smith
Issues
프란체스코
Cam
tions
간결
대북
베트
숙부
애초
왕건
피처
하급
##Last
276
범죄자
simplify
intelligence
860
기고
네티
딱지
모국
자행
패럴
프레이
##마르크
2500
Recover
SFTP
오리온
dashboards
Recommend
조승우
TAG
UOW
부트
##Head
##의사
Introd
분석기
Compl
연구실
송신자
GH
lack
수교
옥타
종신
핵융합
##발트
##esource
Prop
dbenv
EXPORT
converting
Feedback
CIM
고추
증오
진해
##tc
##원수
##투자
##유예
Flat
busy
##OrderId
Bound
MIS
걸림
마술
부류
주심
쿠폰
프렌
해리스
흥분
##시타
isol
Chinese
requesting
assets
CONF
특별자치
ONE
대성전
특별자치시
CAL
IOP
cursors
광자
상반
생리학
주창
헬레
호쿠
사무국
다이나
조지프
영원히
PROTOCOL
national
pin
견디
목요일
비야
서태
용시
치하
##치히
##itude
1400
환경부
strateg
286
돌아다니
BmsException
아라곤
achieved
##디나비아
무실점
스칸디나비아
LR
MACH
Xm
매리
볼로
조롱
##uj
297
DISABLED
카메룬
brand
study
METHO
센티미터
결여
계주
구획
선대
아빠
여사
여백
여배우
직사
청춘
타행
포화
##112
##링크
1840
##UBUN
동맹군
Validate
publishing
ROWID
BANK
경복
바지
부름
올릴
위나라
##ses
##History
##곡리
보호자
intervals
fewer
##Byte
accurate
가군
매킨
부총리
와라
차년
##불교
async
연구회
263
개체군
scalability
confirmation
bandwidth
KOREA
하노버
열립니다
용의자
토목
통부
##QUEUE
assert
이사벨
479
recognize
정거장
Bag
간혹
원부
원유
전단
##sf
##지오
##우회
stderr
##ards
Deep
호스트명
expressed
Cle
Mechan
pure
거성
내구
당황
대원군
사학
시크
자카
조인트
##GP
##Java
Webs
anyone
국제법
토리노
수입금
REQUIRE
Determines
Thomas
she
국당
모터스
발상
패드
##XS
##NUM
##나미
##피언
##onnect
precedence
arrive
PWD
Maria
RESPONSE
Hibernate
RR
hub
대민
동포
반동
사림
시부
앤더슨
장병
한문
휘말
흡사
##oit
##Mon
Apps
Detect
화물차
복음주의
alignment
리허설
Dem
picture
남하
부왕
북아일랜드
실록
천주
하시
##Profile
비서관
Duplicate
두각
백악
사각
세군다
위배
유족
파란
헌장
##cal
##ILL
##수스
shift
trade
persist
소수점
##installation
이루어져야
Timer
##Loader
##stdc
MX
wbi
군벌
대접
리믹스
보직
아드
음절
재앙
함양
휴양
##Writ
운영비
libstdc
MSA
교통국
##ithreaded
불분명
TIP
TIB
달랐
번창
우치
##manager
##Gu
advert
quies
273
발전기
생겨난
극작가
EUC
lg
고노
기세
도자기
았었
펠트
ITC
알렉스
평안북도
보행자
fair
균일
다테
메스
시노
오하이
조심
296
1874
ManifestVersion
StrucId
오하이오
Pet
pw
비인
원군
해왕
##제표
##국적
사업체
생성자
거쳐서
프린스턴
##hetic
고승
공양
연희
점거
줄리
##MIT
noted
##osis
261
베이시스트
Basics
overridden
소모품
##도르프
Unlike
BAR
Lead
각료
드루
기업인
Compare
SAVE
NX
마티
산둥
속보
스윙
심부
씨족
유능
허정
##look
##덕왕
conse
아닌가
##라이언스
discovery
snapshots
민영화
Comparison
무르
생도
세일
어시스트
의례
충렬
카스트
필연
##Next
##블랜드
##파크
##itz
REASON
##109
281
goals
##Transfer
CentOS
Gartner
다룰
사역
재결
중수
##DAT
##철수
다스렸
CWE
surround
TTL
Peak
KSC
결사
다마
어의
유러
##tab
##dl
##계약
295
Phone
유적지
클리블랜드
가라앉
ell
규율
뒤이
##hi
##sem
##allery
462
causing
Graphics
GRP
wsadmin
Telnet
RELATIONSH
Ps
Pen
나름
눈치
병자
오미
파시즘
헤일
독립성
EDM
아랍에미
optimized
encounter
##marily
히스토리
아랍에미리트
880
Sql
Wild
glob
가부
강성
대각
심포
판명
##cest
##차순
328
마이어
SupportP
CWY
filled
ACTIV
서사시
공여
교의
덴쇼
뒤따
취향
##Function
##pool
##조사
##heast
Lee
##istribution
Initialize
debugger
XMLNSC
펠리페
구시
단자
속력
암스
약사
었었
적법
코펜
##SVC
##온다
##ARC
대표단
packaged
ROI
재무제표
TUXDIR
Infra
iPad
Board
GMS
Tod
보육
북유럽
수차례
요격
일각
정했
학장
합친
##WC
##cus
##걸이
아키라
단체전
Prefix
삼국지
트레이닝
달아났
유러피언
dial
가급
##rich
##폴리오
China
remot
replies
Items
broadcast
##40843
세비야
GI
Nort
TITLE
가오
러일
서스
선처리
양대
온건
##idence
가져야
Returned
SDO
올리브
해안가
pptx
Verifying
inheritance
콘테스트
Caching
Tandem
순례
펜싱
##Xml
hosting
경쟁자
포트폴리오
연기자
SDP
assigns
미야자키
두드러지
conflict
5009740843
브루스
##적으로
##onic
##iger
advantages
Chrome
Networks
375
Calling
involve
주계열
Tor
ae
gp
렌더링
리코
몰두
시몬
어군
인출
전학
조병
평창
피핀
rely
프로필
321
Disconnect
##AGES
기원후
Controlling
요충지
ACE
cb
가비
군산
군구
그럴
모사
부양
유생
초당
평지
헤라클
##framework
##Topic
##사리
다이쇼
6553
CMDS
지붕돌
Aggregation
##abytes
680
Li
니혼
압류
위력
##푸아
##국사
Guests
##strategy
로마자
SMB
controlling
Roles
Wall
강좌
릴리즈
메터
받들
상계
상법
지면
지층
##87
##상어
307
269
Parent
##IFY
CEI
방위군
덧붙였
Structured
MQCLOSE
Xeon
몰랐
복직
산불
생리
싱크
요절
탄자
##영수
##로그램
정해져
유전학
주어진다
DFD
무궁화
park
sOrderId
산성
소량
##MR
##캐슬
Exact
signatures
##FileName
svr
DOCUMENT
meaningful
관현악단
CONVERT
412
Dir
NDS
러너
마에
산스크
스런
추리
##세유
##ama
simulation
Startup
terminals
slide
1877
야쿠르트
산스크리트
개구리
거란
염두
주세
##Way
##tl
##로이드
##레반
##하겐
##기념
##익스
라이더
pieces
brackets
OWNER
TIG
von
떠난다
사소
토트
##Bridge
##놀이
##rea
##using
거래자
국제선
expiry
websphere
수백만
다행
라카
슈테
차감
카즈
피우
##VP
##hn
FileName
BPO
DRI
mo
가솔
근래
대별
아브라
외무부
atmi
음악원
orderid
Quant
##works
SAML
ABAP
DIV
WDB
끝난다
단락
리바
모차
청취
##Min
##사와
operand
##OLI
프린스
pressing
Registration
##InputStream
PRIOR
guidance
무언가
Must
Ser
Vantage
dn
내린다
넘버
뉴캐슬
버터
셀레
##sr
##gression
SPI
qualifications
유전체
maintaining
스트라이커
BAPI
Daily
Nt
han
보성
오만
족보
했으므로
##Services
##ato
선거법
Attempt
Templates
##prises
HANDLE
Tell
Vo
fire
니키
독도
신곡
아쿠
잉크
##ding
##네그로
spin
Adjust
DEAL
292
ROLE
456
retrieving
우에스기
협동조합
Shortcut
Study
Fall
수력
이바지
정령
죽여
친밀
침대
##꿈치
통계청
finds
implies
##Shift
루이지애나
Bash
fiss
로만
마모
항생
Procedures
getC
##PLY
자치주
요시다
성실히
temporarily
단조
로버
불문
##현동
##Lob
##win
##행성
##웨이트
이용객
Uses
BmsLoginVO
Devices
acknowledge
잃어버린
Benef
MH
Ul
ta
강우
경합
대입
들리
열릴
체내
후유
##바야시
##나오
2025
ordered
offic
415
designated
넘어서
두려워하
November
두꺼운
Econ
GMI
LH
거미
삼중
세밀
소정
자메이
티아
##hz
##GO
##바나
Thin
relate
inserts
GPU
지리학
transparent
자메이카
Hy
Same
밴쿠버
보너스
사수
이스탄
재작
해냈
##코토
##Crypto
##클레
1879
출입문
플로리다주
SERVICES
이스탄불
cart
oup
근사
셰익스
슈타
스루
시비
실물
제단
초콜
택하
토픽
파수
호리
화랑
##ERO
##tex
##pename
역사학
knows
authorities
마르세유
헤이안
offered
코펜하겐
셰익스피어
CCI
반주
브룩
열쇠
을수록
집착
##Dec
##가미
##AResource
getConnection
backing
298
Logger
Members
Salesforce
마그네
770
Iterator
dm
닉슨
머리카
백악기
본점
열악
후예
alt
사회민주당
보수주의
##value
314
##RCVR
MQCACF
뛰어났
움직일
머리카락
QLOCAL
Rank
관성
브레이
시동
용해
즐거
총수
출근
쿠웨이트
##FAIL
##YK
DWF
1859
PARAME
satisfied
INVENT
가브리엘
Alex
Wash
금호
보름
비드
앙골
우두
헤로
휴직
scr
자산관리
완성도
princi
enhanced
EXTENSION
Korn
WTA
YOKE
pb
사변
Threshold
293
whereas
레이크
configures
Abstract
인공위성
남양주시
growth
필립스
747
CES
TIV
간판
묘비
미달
미야기
악용
친숙
클레이
arm
SCEN
Postcard
transformations
네이션스
SDL
공안
모라
변모
칭송
크라이
퍼졌
##err
probe
진행할
mqsist
Allowed
Division
Easy
HSM
니까
비싼
터지
##ufficient
##igible
활동가
##oyal
Connectors
backout
SYTEAI
스캔들
평안남도
토마토
JTA
딜런
오일
이질
입헌
지경
카세
캐롤
테네시
##witch
##hal
##면체
leaves
Station
332
ICAP
originally
안티오
administered
Restrict
##novation
MRTD
FTA
광업
상회
융자
천국
##ano
primarily
STATS
카르타고
Banking
heartbeat
누니다
미친다
사치
왕궁
자부
##ocal
들어섰
##COD
acceler
REPOS
체인지
##보험공단
다항식
Upon
거꾸
과연
관내
급히
리만
순찰
주니치
지이
##aro
##Ctx
Chain
getLoginVO
outstanding
##struct
amz
integers
writer
EVNT
unnecess
Bru
UMS
거칠
면모
수취
직렬
##네임
##enames
019
레이싱
유기체
ONLSEAI
profit
EH
SATA
떠돌
배척
변질
복소수
부원군
판촉
SELL
ONET
스테파
Ready
768
스탠드
unlimited
괴롭힘
Kim
vulner
어파
정월
특전
282
##cont
Prototype
acknowled
peak
빅토르
장제스
다치
대마
묶여
배타
자질
##lined
defect
중앙은행
dbp
ACCT
statistic
수출입
채권자
Supplier
Uninstalling
fundamental
뒤늦
착취
##CN
##할시
relatively
정확도
Grouping
기념일
건강보험공단
해안선
샘플링
consumption
natural
리트
무서
##티모어
extern
appended
Simpl
##author
잠재력
Navigation
프랜시스
차입금
TIVOLI
HIGH
가우
남구
당당
제보
최장
한큐
##DU
##애미
##천사
##aints
308
exposed
마이애미
반대파
바로크
도로는
##ynthetic
근거지
Reading
광주광역시
MEMORY
Subscriptions
manipulation
arrives
##Account
자서전
Hen
Law
관목
광선
남방
안무
##Bag
프로리그
다시금
UNION
EOF
490
EBS
OCSP
XSQL
living
mog
덮개
약국
에로
온화
요일
유공
하야
MQDL
Injection
modern
##Reason
전반기
Decimal
determining
acceptable
장로교
Foreign
프란치스코
네티즌
FIS
Moving
남산
도키
만난다
본작
위법
카네
##entry
1048
284
##1213
##DIF
serialized
몬테네그로
롬바르
투기
##uth
##ifer
builds
##OMANY
expanded
Capacity
##Unit
multipart
ul
균등
김제
데일리
매진
애인
전권
청계
캐리
##util
strlen
subquery
TRUNC
##bytes
SPX
SFP
collections
코스닥
FETCH
Redo
Sockets
dh
동진
산기
살짝
성수
정예
조공
##iguous
scmp
Union
decode
경영학
##FIL
SMALL
Operators
quantity
수탁자
Alpha
TMP
cari
국악
마셜
이례
직류
##urch
##aylor
생성물
아키타
POSITION
언론사
Scripts
김성수
포켓몬스터
20140106
함경남도
WRK
달아나
메릴랜드
RELATIONSHI
516
firm
군세
나루
대도
도급
쥐속
##SIZE
##제이
##비크
Keys
Engineering
원활히
msiexec
OTHER
이데올로
##gebra
탄자니아
이데올로기
AUD
독수리
마누엘
산요
스톨
치우
피싱
thin
1606
499
MF
MDS
RISC
불복
유서
짐승
처한
케르
##타마
##Err
##대사
##atial
20110
Prem
밝혀진
XSD
##lectronics
Successful
아세틸
CX
Focus
소동
##슈타
##unately
##kelet
CLWL
Desk
Several
patches
versus
Mil
Sa
bp
tune
virus
미처리
발동
삭감
신의
예종
자판
지르
침례
패권
##ief
##Part
##JO
##inition
WebT
##avior
idx
apple
수요일
육군사관학교
Purch
선제골
라파엘
MISS
가명
미납
비명
빅뱅
어는
외과
은신
관리법
TOOL
406
appearance
NATO
EXTERNAL
ONLSEAISO
산술
으리
장덕
증식
##자루
Forecast
##COMM
Sharing
안전성
geometry
##WEB
##PLOY
Hill
기와
어명
재일
죄수
켄트
훈시
##스톤
다가오
buy
CSI
consume
오스트리
TRANSM
##eterogeneous
미나모토
IGK
교향악단
##Consumer
거꾸로
고로
백과
서블릿
접지
트리오
##vice
##lim
##jo
##타리
##인명
##천리
##1234
##mqi
finally
##Delivery
글래스
시네마
BUILD
SIP
efficiency
nod
배역
자외선
포탄
##marks
scanner
Eng
이뤄진
browsing
tenant
Enhance
RELATIONSHIPTYPE
Cursor
Jose
Ros
느슨
다자
바쳤
백두
성기
앞세
음주
잔디
재팬
##Dyn
##ho
##BLOCK
##그마
##수단
##변속기
ESC
Verification
ATTRIBUTECHILD
collector
independently
coordinator
DUR
Pi
TN
vp
가령
꿈꾸
명소
아메
우의정
정선
퇴위
하구
##erting
##rial
315
CHG
Trad
Background
singleton
900544
##Color
Concurrent
해부학
EMPLOYEE
940
970
YMD
가쿠
공대
과테
레트
쇠고기
잡히
진한
추력
통폐
##mon
##니시
enfor
완료시
Guard
회의체
scripting
designer
사절단
구마모토
corrupted
ONETOMANY
과테말라
SORT
ict
김준
느려
멘토
시의
투하
chip
389
사상가
Reduce
restarts
downloads
Editing
##airs
Question
Mand
김명
랭크
브리티
비토
새긴
성매매
황폐
ERD
MSI
ETRI
부사장
김옥균
프러시저
갈아
리부
문무
사교
아브
완만
이범
쟁점
##status
##char
Suppose
도망치
precise
HISTORY
Sometimes
SUSP
모차르트
Af
Age
render
tibero
대의
세븐
오디
유희
탈피
피리
한눈
##호란
##민스터
persists
LOGIN
##PAH
개개인
그랜트
RTT
버티
소대
원금
##수원
##란토
spreads
logon
variation
Username
##Permission
보좌관
암스테르담
Ben
갔으며
산학
실각
임하
적료
제창
조장
조슈
칭기
휘발
##네트
##RED
279
Datas
##CONFIG
significantly
AASPAH
줄어든
스칼라
포식자
브뤼셀
허드슨
니트
브르타
서산
위계
전재
편차
##lay
##EAD
##블릭
##추부사
##쇼프
##IDE
322
PCB
existence
353
출장소
기울이
##aphore
프론트
재사용
브르타뉴
399
NICE
송환
여정
##oming
##achi
expansion
치료제
Privacy
incorrectly
robust
worth
라미
앞바다
치카
코스트
쿼크
혈압
환관
##Buf
INCL
Scroll
counts
Major
가로질러
##auth
Aggregate
##Layout
LTE
끝냈
드미
스콜
습도
종가
한창
흘리
##WSE
##69
##hood
star
##ogram
STS
Recipe
고위험
유니버설
Liberty
FDP
Kar
si
리마
릴레이
머무
병마
선율
진위
총합
##fte
271
##raz
345
Locator
sysdate
평안도
낭만주의
가급적
WL
경무
고쳤
대좌
럭비
리베
밀레
준장
지워
태후
##Oper
아이언
indexing
##QueueManager
NPA
ReplyTo
##Receiver
Hashtable
사쓰마
통폐합
620
Wal
수혜
신진
우산
좌의정
풍습
##수지
##ady
searching
utilization
920
PCT
bc
ga
gw
malloc
고마
불경
상동
서가
암모
열렬
이견
주성
처해
피사
한꺼
##어사
024
응답자
268
공통점
nonpersistent
스포르
##One
holding
CLUSRCVR
square
pixels
SEGMENT
한꺼번에
Ger
Jav
Sy
굴복
모건
손잡이
커졌
필두
283
INFORMATION
ILE
She
남베트남
니켈
대담
대나무
류큐
맡겼
볼넷
순양함
유머
자궁
정황
증세
태우
흡연
##FIX
설계도
travel
올라오
measured
EPMS
attachment
damaged
johan
feder
가솔린
che
fm
만날
축성
코사
##Bound
checkbox
bitmap
MODULE
노스캐롤라이나
illustrate
##Security
Radio
mogaha
RSS
나마
남조
냐고
동산
리즈
모션
전입
현물
##리아스
보호구역
multipl
confidential
behavi
params
737
강국
다국적
맥아
예의
컨버
##xml
##Cred
##ESC
287
OpenShift
프레데
teams
springframework
PERSIST
Was
XL
귀신
기공
라즈
심층
투신
##Write
##Su
##col
##홍색
##BY
##지아
##arant
operates
0300
BmsSta
논리학
##Valid
SFG
달라질
Bourne
볼로냐
AMP
Kill
노미야
떠날
판소리
형용
##lla
##oder
addressed
translate
PPP
BN
Cur
걸음
능가
애칭
##니우스
##열차
##먼지
expens
##ERIES
##AIS
Ord
2600
compute
digest
사간원
가두
깃털
프루
하중
##Bas
##러져
##rout
교육자
abbrevi
quit
타이베이
BmsS
BmsOrd
archiving
갈라져
##Subscri
Governance
421
Dum
cubes
lv
rich
기판
노브
도성
별장
성동
손쉬운
아유
열거
위변
직물
커맨드
튀니지
하모니
##Vo
##프턴
##ste
##ria
##ORG
subnet
생산자
SEARCH
277
스피커
앤드루
##ophist
부르주아
Ezis
간직
공소
구애
비스타
효성
후면
방문객
replacing
재판부
Migrate
Deliver
saves
##pensation
##Writer
초콜릿
Policies
csh
jre
pom
강세
금나라
단군
매립
한림
##두르
##orrow
##root
산업은행
##LLER
408
pooling
공문서
OMG
UNIQUE
코소보
객원
관악
샤프트
용수
조흥
##fr
2030
##ETIME
ISIR
EXAMP
##CIAL
Checks
웨스트민스터
circle
휴게소
915
Luc
Netscape
ipt
기운
란트
사쿠
산부
새우
선적
저질
##Sample
Alloc
금지법
largest
대구광역시
대공국
923
감면
까마
라바
배트
소아
식스
위시
펠로
행보
효용
##전선
comprehensive
방송인
BmsPjt
mqsire
Subscriber
ORGAN
BROWSE
sequential
아우구스
Sat
마구
오하
위도
인산화
태아
##이행
##Term
##회원
##enges
##ABL
JEONS
발사체
나카무라
demonstrate
Algorithm
JEONSONG
hal
분경
생화학
소진
월터
최하
트램
평상시
##석탑
##서스
##zen
##솔리니
##층석탑
Guest
335
계승자
사법부
CPSE
박상
쌓여
야심
연달
지탱
합금
현미
##Appl
##940
##NM
##루엔
##iter
transitions
Connected
참모총장
concurrently
백악관
개년
나빠
면세
상향
전월
채굴
코네
해태
##미즈
##reg
viewport
바이어
MQSO
##ippet
단기간
Updating
##Expression
accommodate
131206
Ear
mand
yn
국지
김인
부파
왕성
이회
죽임
튼튼
##DOW
##ANC
differential
331
강력히
Links
가르쳐
1802
Finance
constructed
Publishing
##클리드
Nested
gured
성악
양력
줄리아
흐루
##select
##ubun
ISC
보험금
marker
Optimization
가해자
guaranteed
LTD
mkdir
engines
899
Coll
고부
더러
얼룩
오아
증발
청룡
타도
퍼즐
##Vari
##war
##니파
##워스
advis
strict
Unle
ObjectName
클레멘스
incompat
Society
Between
Hconn
무과
사비
세제
소작
장승
짐바
##자동
##패드
##히사
proprietary
adopt
preview
ADK
##608
Legend
SANTA
MQMDE
consuming
670
Cut
Reb
luc
관우
도카이도
라흐
매기
면접
발의
사와
이더
이봉
천수
타구
##AO
##Menu
##holder
##atable
2023
##ota
##usual
##ervation
Styles
Protect
여행자
아우르
부다페스트
이더넷
NIST
ba
tran
생모
서상
앤디
역도
조나라
주정
참의원
팔린
##domain
Seoul
destruct
designing
SNAP
요리토모
취급자
##OWER
김정은
##Travel
##Receive
초록색
424
534
Esc
VB
경건
대청
루체
무방
백분
스모
윤곽
ASC
Incor
##loading
SGA
교구장
recommendations
미세먼지
##Library
ranges
Apri
Err
MW
도제
미아
상식
스에
지법
추존
함흥
##라니
##플린
shipped
따라야
interoperability
안전망
이어주
1801
지닌다
parentheses
FAT
bd
공기업
그나마
데이트
독주
에른
황자
##AMS
##PMS
##로니아
setopt
research
meets
여성주의
Append
PKD
errhp
stylesheet
remotely
Lu
병단
온나라
조니
405
##ashion
Apr
##Click
유니코드
레지스터
MIC
YD
도선
모던
왕관
요즘
은지
일차
주저
호화
##레스트
2540
324
Copying
PLS
Tru
construction
DBJR
Branch
Hive
KNO
낙양
노광
논하
마테
몰타
손님
양조
장전
조현
중고
##DISP
##ita
##agen
univers
Compression
로스쿨
CMYK
Importing
##ILING
기차역
sndbuf
20031201100
세네갈
eM
fet
여호
유보
##search
##ATING
278
Locate
NetBIOS
snmp
고분자
accomplish
MQDLH
뉴런
니케
동급
반항
전과
정박
채색
대전차
스테인
795
RN
paging
가방
대덕
던졌
밀가루
베풀
빌바오
상선
이황
전교
헌납
##RV
##일치
##효소
informational
1002
##REL
Opening
periodically
저지른
머물러
치러졌
convenience
AJAX
Gal
vac
관상
라르
무솔리니
이룰
##WARD
##동자
topmenu
294
414
diagrams
효고현
Unleashed
LNK
XID
리카
무안
부응
역동
원점
청각
폼페이
##RNA
##토프
##른베르크
##내리
##iled
stay
##ributes
perhaps
##Project
757
supplies
RETRY
##rientation
무사히
강서구
630
CAD
eate
hpp
라가
제천
출혈
필하
##aros
getS
abc
approved
소방서
브루클린
가나가와현
Debugging
typename
Washington
##authorized
990
가환
반죽
숙소
접전
코퍼
##트르
##ifold
1812
EAIBK
prerequisites
프랑코
Intercept
##RIM
CDC
402
교통량
Period
데이브
앙골라
HB
도산
산책
행의
##찾기
##iche
fielded
267
Describes
출판물
Regional
NGC
Die
DMI
RDB
강당
그간
도발
란스
잔해
하임
##He
##브웨
##ubble
dba
291
SSLC
sqlj
REGIST
재단법인
위안부
April
고스
소사
우시
청자
편익
##에고
##분열
##포타
1815
##lets
고등교육
385
사우디
SHAFT
boundaries
primitives
고성능
IDENTITY
거시
관명
구부
유부
음운
정몽
집어
MQException
CDs
##ondon
보증서
아틀레틱
아우구스투스
med
과격
닷컴
복위
오대
장표
징집
##Publ
##거성
##히드
##짜기
formed
351
slice
전해졌
더블린
materials
발기인
칭기즈
Elect
Making
crontab
걸작
대종
부추
섬기
입히
첼로
하코
326
337
resolves
##Recv
스탠리
동아리
Launchpad
##compiler
메소포타
메소포타미아
Fri
ia
바야
변종
부에
양파
웃음
전주시
##azon
제어기
다이빙
재판관
766
Charles
##Prefix
##Destination
GATE
HMC
극찬
남경
문항
아어
전출
주먹
##rocess
##ague
former
##ASP
327
##sgroup
optimal
cations
단거리
동이
라리
축척
코리
##서류
##성경
##나파
touch
##ampus
탐험가
QUERY
Bruce
Sessions
농성
명인
손녀
에반
오메
토로
##밴드
출력물
cdrom
uninstallation
fontconfig
대명사
브리티시
Ub
극락
긴키
발톱
앞둔
이야
조소
출납
폐렴
##dom
##슬레
##MES
##Callback
wmqfte
subdirectories
여진족
hl
남송
베일
애완
위축
##DK
##uns
datafile
##LET
##ENAME
일부러
접속자
InstallShield
baseline
Employ
populate
rebuild
차가운
베네딕토
##aurus
NY
bund
구강
기함
도금
마요
바비
보훈
재심
페스
회유
##라호
##태평
##omial
##aser
조선소
Quad
집행유예
coordinated
테오도
유라시아
헤라클레스
CEP
기스
네모
당과
박수
오자
체의
톰슨
풀리
화엄
##object
##MAN
inquire
reaches
##ander
##teer
##serve
##UTIL
Unless
##102
강화도
343
##VERS
JEUSMain
감리교
##hematical
교제
양극
##pw
##ZX
forget
subpart
게임기
돌아갈
preserve
SVI
에스페
Currently
offering
serves
Vehicle
데카르트
무로마치
Care
감당
군집
밸브
장녀
##yt
##LEASE
dispatch
filenames
##ooper
##tty
mailbox
liter
즐겨찾기
가면라이더
은평구
HACMP
Wil
고찰
서주
성가
##ych
##Bar
##둘기
##acent
기업가
336
worksheet
##QMgrName
contrast
gram
바스크
참패
호적
혼재
##데라
##가치
##거스
##본다
##aceae
이동한
366
찾아와
##slt
녹색당
membership
Hypervisor
Flags
대주주
Tro
맡겨
선점
세단
슈고
아편
워즈
원만
유다
파주
하키
화학자
##카리
##셔주
##ilot
20130
회의실
Authent
Ask
Calls
로드리
Certified
##QMGR
##DAO
ArrayList
bb
iost
kh
김승
라니
매스
습윤
자코
적격
철자
##협회
##quer
##401
obvious
가리켜
mococo
Privileges
SOCKET
짐바브웨
Have
SX
군관
넘겼
리퍼
무고
불사
산티아
청문
체로
체하
파랑
팔꿈치
##Yn
아닌지
334
내려와
streaming
Maps
1858
##토리코
PARM
##programs
Examine
Impact
612
690
CMM
CIO
Mb
금번
넬슨
묻혔
부두
비료
아츠
악명
유학자
조개
포츠
폴링
##퇴근
Thu
1856
##ivation
STDL
갈라지
datatypes
##hibit
ocess
국호
대쉬
별세
식용
예규
월트
유클리드
이산
##콘신
inline
##isation
CSCA
Edge
만족도
울산광역시
scheduler
공방전
위스콘신
hist
누수
의용
추계
한중
##Dialog
##디스크
##단위
stated
이어질
상품권
신고자
노르드
participate
중공군
Iter
Serv
대문
발산
버러
삭스
슬하
여학생
트레일
##Wtf
309
고려대
317
##ISTICS
공연장
수비대
Grand
saas
##Return
mqsichangeproperties
Mgmt
계측
모조
병무
볼티모어
압수
탄산
트림
호가
##Null
##로움
##GING
##야누스
complement
Shows
BRM
Ju
OBOI
Ping
구슬
수만
##로니
##ownt
서비스업
407
amazon
CFSTRUCT
트라야누스
magic
제갈량
푸에르토리코
경복궁
611
KISA
ccs
배드
봉우리
사천
스투
신봉
일설
전행
제철
총체
컴필
토유
##Ac
##DD
##몰로지
##뜨려
requester
CPN
타임즈
Automatically
coordinates
licensing
PARTITION
오클라호
컴필레이션
오클라호마
960
bes
hr
노프
독려
몸돌
변혁
셔야
이은
절충
##쿠르
##유사
##탄올
sell
021
phys
##DataSource
케이크
가와사키
##printf
Saved
Wii
노이즈
렉스
몸체
셔틀
엘런
의복
출퇴근
파시스트
##va
##개발
##esb
##ubscri
##TEMP
suf
고려사
Leave
356
지나친
STRUCT
오스틴
tpsvr
margin
시즈오카
아나톨리아
놓치
봉화
수열
승정원
아와
어우
조셉
코팅
패해
##식간
delivers
노르만
페이퍼
140205
Guidelines
VOL
공상
괄호
국력
시문
절도사
##Long
##med
##어쓰
##arms
##format
ConnectionFactory
Steering
대리석
##aution
레인저스
무신론
encapsulates
Widgets
코스타리카
국부
번개
압록
앞뒤
원한
원할
최성기
##TZ
##코타
##산업
##창호
##andid
shar
##START
보여줌
UPPER
고속버스
Editable
violation
careful
##AKOR
Az
리시
세간
전멸
제지
중용
튜브
##Rcv
##Fail
##테랑
##광성
##독립
독립군
ClientVantage
argc
카이로
EVQ
HDFS
evaluates
carried
ONSADMIN
까마귀
422
land
고해
몰도바
배리
아다
악곡
여고
유태
정시
첩보
혼혈
황산
##amma
asc
보안법
pointing
416
slash
VALID
estim
ordinary
surface
보살상
좌표계
Prompts
polling
FLOATING
일리노이주
Hall
Jack
mb
교훈
묻혀
미결
발판
부풀
연차
전리
정진
홈즈
활기
후생
휴사
##Pattern
##ewal
Alter
validated
601
million
로빈슨
BOOLEAN
lifetime
Ilink
finger
경직
계엄
보루
신석기
흐른다
##Use
##오르크
##구니
unx
unre
backsl
differently
extrem
유니버스
Invocation
latter
student
illegal
RRS
utf
거룩
내년
어선
증조부
지킬
##Down
##니언
##anda
사이먼
##TEXT
319
simplest
359
goentdd
SMDS
그레고리
Accounts
농어촌
Tape
도이
문맥
미학
익히
장시
직행
초음
피셔
활자
##FLOW
##LINE
##rise
MQCIH
내세워
요하네스
PERSON
UPS
아지
착오
현도
##wide
##버른
##운전
##onal
##rill
##imeter
discl
TPC
연주회
APPR
사라져
도망쳤
비단털
Player
Girl
AFT
Coding
Rh
Rot
games
sin
건널
동창
미확
샤이
유화
이누
임치
재벌
접미사
지그
##AQ
##bum
##fh
##시노
pointed
validators
고등학생
편집장
원자핵
슬로건
비단털쥐
Bt
BDB
WC
스팅
접해
주유
초전
파직
프리스
##천동
프랑스와
Learn
POINT
Silver
Manufacturing
##processor
황해도
##레타리아
프롤레타리아
Hel
KMC
YP
maven
금합니다
벌레
토사
페오
행해졌
호대
##BR
##AGR
돌아간다
Subcategory
elapsed
1854
합성어
recovered
현저히
GOO
KIS
London
ORI
내국
모반
##전력
##INC
indows
지방선
CHAPTER
Ports
SVN
Regular
##afka
야마가타
유엔군
CWConnector
Normally
애덤스
Param
SNODE
계보
니즘
북대
순식간
신대
없음
USD
축구팀
344
semaphore
유아기
합창단
931
bre
미식
빈민
서지
야망
타로
피어
횡령
##전지
##게임
asks
atomic
Adds
CPUs
##tainer
Publication
라이프치히
Insurance
지질학
비대칭
711
Fig
기미
나일
당장
반점
사식
수나라
애드
이아
자처
집약
추억
탈레반
##copy
##CAT
##너드
확인서
STREAM
316
approval
전용선
스케치
CRS
Replica
PERFORM
입법부
Printing
subtotals
Little
항생제
##루엔자
VA
Ya
bro
조영
토의
판관
펼친
##몬트
##폭탄
1839
0003
영화상
023
우리나라
DESK
준다는
illustrated
YYMMDDHH
흔들리
Ha
Lou
sus
당병
데미
선양
시너지
위급
잠실
정명
카슈
폭주
표절
헌병
##린트
MQE
dep
반대편
수도회
Configurations
니콜라스
iptables
Pac
VAS
WIM
길드
라시
뽑혔
연행
착각
치매
편하
하남
##르바
##prof
메인프레임
CoA
KTX
포르투갈어
##iki
2012053105
Origin
rotation
강대국
nc
로타르
빌더
예기
처치
파열
##Ops
##rp
##sch
##yte
##acks
equir
concurrency
turns
소송법
Matrix
인플루엔자
종착역
서포터
Ki
welcome
교직원
도하
디테일
멜버른
몰수
아끼
정려
차명
##undred
##appy
Trend
suppress
ALLOW
svg
ONLTEAI
Paper
Hitachi
미네소타
jboss
REQUIRED
Today
다각
다마스
불쾌
생생
심정
의정
필명
화요일
##report
thous
intf
제작진
437
이주민
야마모토
심리학자
automate
thresholds
흐루쇼프
DER
구급
김광
막강
삼층석탑
##iet
##alog
##002
##003
##INA
abend
조선왕
referer
##aws
조각상
Island
Atl
consisting
미완료
토트넘
EPS
RATE
bullet
iLink
가트
엇갈
창녕
포자
해병
혼용
히토
##pit
##바리
bypass
CONS
다면서
TBZZ
루스벨트
##Scope
division
BASIC
마타
복역
정재
정반
채팅
칭했
##참찬
등록증
scanned
trap
Idle
symmetric
tried
1857
후쿠오카현
건륭제
동호회
911
Electronic
PAD
계리
넓히
도르트
모함
변증
서한
서점
솔라
알폰
은폐
을사
직권
##SET
##의식
##보내
##essment
EXPL
##BSD
datetime
qualifier
optimizer
Expressions
Discovering
Medium
Licensing
French
TRANSMIT
미나모토노
산티아고
Sports
cook
sudo
sophist
내비
범유행
법전
시르
유영
조준
터빈
툴킷
폐허
포탑
##ev
##세다
##펠러
1814
aren
arithmetic
##straction
Trash
##ularity
Tests
Designing
ebMS
constructors
1855
와이번스
##Memory
RECEI
Cw
교보
당파
대타
로더
스몰
엄지
외면
##혈구
025
##BOUND
청년회
ETC
TRANSFORM
산림청
파스칼
간호사
주무관
다이얼로그
525
Bob
Four
helper
객실
꾸며
되풀이
레프
미적
어부
일진
장문
주당
캡처
헤겔
##Opts
##공주
##paration
종류별
338
SCHED
함경북도
##ILINGUAL
524
Grant
Pot
aux
mg
대면
디버그
##dis
##his
##하임
##림픽
##herence
##ACAF
LOVE
367
introduce
MULTILINGUAL
##Parms
후세인
##Agd
재검토
NOS
무가
##Fs
##금융
replay
##eby
##iven
linking
집단군
포르노
사단장
찾아오
JNAP
##Editor
스파이더
CONCACAF
opportunity
760
경지
발가락
손목
시원
트란
파고
해남
##Url
##ja
##산기
##isible
##asion
strmqm
Partners
reducing
CSQM
improvement
ensuring
영등포구
CBE
Crypto
RGB
Wrap
fml
mot
강인
걸린다
대류
청량
토이
흥국
##MAP
##다보
##udget
worker
viewer
##Prot
individually
ctl
mirr
George
##IStatus
##MetaData
Mut
bz
공석
당분
시찰
인승
##티에
##동맹
##젤로
##iced
stri
022
severity
1789
superuser
Multip
microstrategy
MIBs
스캐너
WISE
검지
게오르크
부관
서보
싸울
평했
해피
##Domain
##지로
##센터
##범죄
##비츠
disables
395
trimToEmpty
각본가
Printer
SupportPac
EXAMPLE
DX
HC
Near
YOU
고난
리사
쇼크
실은
육아
자취
쳐서
피질
프로테
NameValue
BmsCom
authorizations
스테이트
Avg
Variant
MQFB
CMDSCOPE
unnecessary
ALS
Hybrid
MAT
고국
내야수
네이트
띄우
민심
부령
이목
칸트
항문
화음
##yang
##QH
관리관
Training
352
항공편
archives
Channels
워크스
amounts
joined
이성질
Peer
신도비
minimize
FAST
메츠
방호
북조선
유우
패스트
패트릭
페더
평탄
##576
ProFrame
leverage
MQSET
denied
관현악
페르디난트
미성년
SME
SFA
돌렸
배워
서체
티저
페트로
포대
##pled
##anaged
1820
workflows
TBG
치료법
SNDR
Marketing
석가모니
가역
간사이
다닐
산수
선인
수레
슈타인
승하
입술
진언
취직
티어
##번뇌
기관장
396
증권사
descriptive
신주쿠
##ezza
730
BAN
Ga
고생물
곡면
김은
끼친
나요
대강
면직
실상
애착
여럿
와이어
##POR
##부아르
##파니아
##루이스
Modern
342
Makefile
##Print
에스페란토
ONLTEAISO
fa
fig
날리
율법
##eans
##타케
##티노
##합중국
##wood
유럽연합
318
1804
나와서
학술지
베스트셀러
Beginnings
패럴림픽
PNT
UR
넥스
사대부
에트
열세
충동
##Ow
Selectors
373
주거지
Collections
브로드웨이
##태평양
거스
닉스
바투
발자
변해
소포
오우
울릉
중일
침식
홀딩
##recv
outgoing
comprom
329
중앙선
MQCFS
제너럴
에른스트
740
RK
Tcl
경마
근방
길러
노아
독살
상파
석기
와세다
요괴
유자
유골
충무
침범
카마
호크스
화소
##리아누스
##USH
SVG
PRINT
labeled
Synonym
해운대
Furthermore
영유권
##Basic
Rack
favor
김주
넓혀
우한
이브스
커리
켄터
특약
페인
##르카
##니티
rewrite
acquired
addressing
Tracing
태양광
물려주
javascript
strongly
바닷물
아나키스트
HKMC
beta
moment
김윤
에겐
제방
행안
##디언
##agma
thr
MQAT
deep
forwarded
artwork
두드러진
브래드
OH
Pent
dl
걸릴
그물
롤러
모피
문건
보어
어지
향신
홀리
##TING
##께끼
##ROW
##roke
timing
Anti
수수께끼
##Addr
Beta
GJ
TCO
고취
미츠
본청
불로
불려
쓰일
이항
참수
해트
SYSP
Asia
못했으며
keeping
재배치
억제제
FAILURE
박영효
페르난도
DYN
IW
Moc
PX
gm
garbage
xff
구타
구치
새겼
중남
출품
##CR
##소득
##구나
1212
사이타마
361
베르나르
1108
editors
불러오
내세웠
##LINAKOR
일렉트릭
Behavior
##Remote
INTEGRATION
PRIORITY
519
mgmt
nac
가짐
김연
미합중국
붉은색
원제
지남
컵스
##TI
1849
exports
대구은행
혼합물
Alternate
##Temp
upgrades
두뇌
반정부
사주
서예
오차
옥시
우량
케이트
토라
편제
후드
##World
##드레
##북구
##org
##omen
Expert
Forum
프리젠테이션
minus
374
Proto
관찰자
만화가
##ounce
예언자
BOOST
피츠버그
sheets
고갈
단국
마린
박진
발착
봉하
석권
심상
은밀
파파
페라
피카
##trace
Usually
incorpor
비스마르크
호소카와
possibility
용산구
재미있
810
BET
Mass
kW
rates
경의
경종
경주시
골라
날인
도화
로니
루즈
미끄
아델
출사
##Lock
##어짐
##미쓰
##istance
USERID
Optionally
movement
##Buff
##TRACT
Timestamp
recipients
concerned
경희대
930
PFL
말소
범람
야수
원한다
유식
코모
##세우스
##루크
시작점
composed
ITA
##ABILITY
어려우
425
오르간
estimate
compiling
charts
##gister
##Encoding
distinguished
enhancements
Richard
##기념물
TXT
fan
승상
시니어
왕래
위패
장시간
피닉스
##바도르
일본식
##ugg
##queued
지하철역
skills
undefined
governance
BRKR
Gigabit
Restrictions
mism
결말
골절
동탁
썼으며
열전
의제
펠릭스
##보리
##iny
setOrd
##ATURE
HTS
validates
characteristic
equation
0600
replica
##eek
Certification
iteration
interrupts
Matching
카디널
온타리오주
Dereference
Moco
cyl
강습
서위
용감
자루
차림
타선
틀리
하층
##FG
##위안
Locale
CSQU
준다고
프란시스코
지켜야
highlighted
tnsnames
DFS
ks
ln
과감
대등
맹활
명은
목동
문체
복부
영미
유휴
제르
종묘
##어류
##eros
installable
Uns
quarter
Impl
CHK
DOWN
사라진다
PROCESSOR
최우선
##Activity
회고록
870
ease
ham
고모
기묘
되살
로큰
버크
쌓이
작중
천지
홈경기
##First
##에이터
clam
등록금
corruption
Subt
프레슬리
Portable
349
오토바이
BUY
##TitleController
Orchestrator
BmsOrdCardTitleController
개화파
##keleton
Cable
Tog
ak
군자
김치
노랑
레저
바시
세입
쓰루
약품
에치
타리
현과
화순
##섬유
##uming
##overning
운동량
Supports
Preview
주소록
Publisher
##Parameters
gray
credential
microsoft
장로회
Shutdown
##투자증권
맹활약
SAR
고층
기명
내란
무능
미인
방공
선상
앵커
우간다
테러리
##디슨
##비안
##amless
MQENC
scott
classified
##ieve
FCU
CSQUTIL
법원장
Jobs
구독자
중생대
##Window
켄터키
Grow
LV
VOC
fly
다닌
소학교
현판
##UDE
##마디
##허가
orchestr
대한항공
Whenever
GBL
##ruary
constructs
insight
빼앗기
OCILob
##Notification
대승불교
Consulting
ILOG
Jean
fashion
도적
리빙
방탄
서바이
안겨
어웨이
저우
##플레
##담회
##돌리
1853
20160
362
##ECD
##Reference
purge
NHL
크루즈
pkg
로큰롤
Term
nb
zoom
로이드
리에
사귀
성희
승지
야권
자존
재물
커머스
콜드
##영향
##사화
##기준
##icas
RELEASE
354
레이디
4586
appropriately
1506
베이비
오리엔
##OutputStream
실리콘
ticket
2012053117
WIP
lk
경원
서거
이별
전미
조경
파커
호아
##에몽
##icious
##ether
일본국
Contribut
ENABLE
Managers
scalar
쿠르드
840
쌍방
오성
외척
출격
##ui
##fadm
WebConnect
인터랙
substr
limitation
Topology
belonging
attacks
이철하
매킨토시
WOR
그란
모체
복속
오릭스
##SN
Webto
##ckets
##ipboard
CPI
delimited
Compress
RCMS
caliper
당선자
switching
complicated
differs
콜럼버스
현미경
어학
쿼터
##몽골
prox
CSD
positions
페르미
Cloudscape
Applies
COMMENT
명성황후
창립자
##flag
ssn
##opping
fteCreate
##inetd
Instructions
Sites
bene
기피
납작
스텐
아목
잠입
차등
추축
컴플
항아리
환기
##Copy
##가르트
##놀드
DEVICE
이론가
##NECT
Netezza
netstat
easyTravel
Instrument
갈릴레오
강희제
서스펜
우두머리
HASH
Suspend
Vert
군복
김선
너스
사보이
요직
##Found
##보르
##게스
unp
502
348
376
떨어진다
가졌으며
Queuing
Partitioning
remainder
FINAL
##Args
솔리드
브란덴부르크
Cmd
GPL
Sing
mist
무도
실렸
아흐
잡힌
재회
종단
진하
행군
##과학
1011
unauthorized
prerequisite
DEPLOY
CONSTR
couple
시달렸
ODCI
synonym
2012053111
만장일치
CorrelId
dlt
padding
모티
문경
안철수
인성
진원
향수
##mut
##trans
##thread
directed
디렉터
355
368
##CLI
Waiting
forwarding
Blocks
Datat
연예계
필사본
뉴클레오타이드
Inherit
KDB
historical
ny
능률
성산
이호
##EF
##Cor
##클럽
##소문
##친왕
1798
통계학
##SCM
##FORMS
안토니우스
AUDIT
압록강
God
sockets
골짜기
교관
문정
상록
신병
안나
익산
전처
정에
찌르
처장
최영
##base
##데자
##네오
##든지
1846
아이젠
자본가
트래킹
천연기념물
rcvbuf
떠올랐
저질렀
##데자네이
GKMC
xt
결장
레코딩
본거지
울루
퍼블릭
휴먼
##포시
formal
조선공산당
TCPIP
##points
밝혀져
ENTRY
payment
REMOVE
하얀색
4586940
sib
부군
선체
오지
올레
일삼
정함
질투
##둘러
sha
바이더
subscribed
dumps
시마즈
Silent
Federation
비씨카드
직사각
도르트문트
RCA
동거
이길
인감
잉여
푸아
##FP
##Gener
##재현
##벤션
expire
SWIFT
Scenarios
##untu
##issue
crypto
펼쳐져
기부금
Essentials
Fab
Rows
XAResource
교파
명상
성품
춘계
헤어
##황색
0020
Interoperability
MQCFH
로그인한
approaches
364
Functional
대항전
플레이스
급속도
##크라테스
bedroom
GENER
iS
xed
감액
무비
반품
수금
양질
입혔
자란다
출세
크메르
##르산
##제철
##비언
작품상
Should
Director
378
413
WHO
Receiving
Avoid
Positional
모자이크
Symbol
disconnected
Declare
rectangle
리우데자네이
리우데자네이루
hundred
날려
레아
서귀
수문
신해
제원
허목
혼다
##Rows
##Master
##방군
fork
ITBOX
FIU
공식전
올라와
엄청나
Streams
천안시
신기록
inconsistent
JU
fulfill
jdk
sat
구전
라드
용사
우표
카레
픽처스
협곡
##WM
##사유
##iline
##ARIO
Young
##anserv
346
555
specialized
1851
LLMD
도미니카
accuracy
prefixed
최진실
iostream
KD
Mel
TAP
ja
가세
국산화
도안
민물
지요
##이에
##ola
##ranty
unm
##shake
##GRADE
stats
Invoice
구스타프
nacfadm
830
Xmx
도도
리브
발열
베오
보입니다
비옥
사나
승률
아디
온두
지아
진심
파푸아
핵분열
후견
##XC
##iforn
##iveness
outline
3600
counters
지난해
servlets
February
웨이브
##rester
온두라스
cult
xinetd
고을
레티
쫓아
청중
타밀
##Area
##Day
##절도사
##stations
프로세
flash
멤버십
shells
받아들일
전시관
지능화
Consolid
클레오
ICMP
유니언
##QueueName
unsupported
Effective
Eye
OECD
구르
댄서
모신
북벌
수자원
앙투
위너스
##지대
##뜨린
coming
##ONLY
resize
##orea
409
선거인
##AMO
##grees
VARI
소모임
트레이스
친선경기
맥아더
TCS
lc
linet
rar
겨냥
리키
문집
코덱
호투
##lm
prog
0198
USERS
conversions
CTX
스케이트
Pharos
라면서
갑작스럽
브릿지
expensive
불릴
성행
쌍성
외할
천억
팔작
패망
푸틴
##상도
##zone
##흥군
##느리
MQInput
감독원
20190
namespaces
certi
372
##Reg
Prior
1803
친일인명
##help
Constructors
PeopleSoft
##사우루스
##Variable
친일인명사전
Bed
LUN
sampling
고압
남단
딱딱
소박
소아시아
예식
원단
킹스
통솔
패자
희미
##AW
##수산부
acquire
arrange
MQSERIES
417
explore
ARG
pdfmark
trees
Analyzer
LOCATION
SOLAR
바빌로니아
백과사전
514
Hom
WCF
게오르
끔찍
내기
라크
스기
슬리
업장
장신
중식
친한
형광
##Rel
##gy
##든가
valu
1638
Chip
Applet
BmsMem
##ossiers
heading
DESCR
datasource
삼국유사
커버리지
tmadmin
PPT
fld
가고
모멘트
불태
산문
유익
이바
이바라
지기
파지
플랑
하강
##Ogm
##암동
##urt
##레이트
국민회
우리투자증권
마르셀
Threads
assuming
고인돌
Pin
fprintf
gid
jmx
가든
거머
귀책
데니스
라치오
소액
유추
조어
총생
퇴치
##티컷
##무장
지원자
Chall
swing
Asset
음식점
Diagnostic
visualizations
bugs
레닌주의
purchased
efficiently
플루토
concatenation
히타치
드미트리
코네티컷
거사
구세
기산
빨강
시제품
전광
조비
코인
##열대
openssl
바이마르
Notify
341
SPOKE
프라임
Multimedia
Automated
기생충
QSGDISP
approximately
817
Award
sed
거품
격하
교인
대목
모를
부전
에리
치가
##Tool
##aling
retail
##solete
MAXMSG
여객기
보컬리스트
프로세싱
Limited
cst
능숙
미트
정승
##니오
##쿠니
took
##ette
ade
1847
doll
placing
parties
Images
Readme
베르나
스티어링
##Sequence
gateways
illustration
불러일으켰
##communication
형용사
백분율
Mob
소명
연해
줄곧
집적
하향
##tlen
##igo
Progress
1844
Sequ
plans
meant
reasonable
guess
periods
ALC
CWF
##addr
essentially
이즈미
raises
middleware
후지와라
refreshed
Beat
Mad
VDI
wal
꽃차례
슈투
임종
튀어나
포렌
##케이
##access
lever
사이언스
1776
##Close
해석학
##OBJ
postgres
synchronize
로맨틱
INQUIRE
포렌식
Sant
cate
도매
동군
망치
슈바
안창호
위크
체질
##aton
USP
contexts
베이커
배상금
rmi
improvements
함경도
풀려났
pseudo
kdb
금산
루피
묶음
배반
부천시
아연
애기
왕당
유타
잔혹
적십자
전열
추장
##사카
##정리
##펙트
정보망
resp
Advantage
1795
recomp
NOD
##COMP
easiest
SAMS
snap
노벨상
##선거구
SCENARIO
522
Km
says
교감
닫히
시제
악당
칼륨
하스
효모
##BD
##시험
##soap
1792
교육학
감독관
028
Manually
failing
Academ
Graphs
bwadmin
HQCM
##Priority
조선왕조
공평
교포
아자
종영
키릴
##fd
##바퀴
##즐리
##itter
Rele
한국군
3276
Alive
프리츠
교황령
알아차
floor
기울였
EMAIL
EXTEND
실린더
펜실베이니아주
손꼽히
fairly
590
uri
변함
유예
코디
키르
##ien
##Mess
##데기
##니코
##qld
##나기
COLL
expires
expects
메트로폴리
searched
##FLAGS
메트로폴리탄
tmb
기린
김희
대혁명
맹렬
변광성
사학자
세레
증적
지린
코난
토키
##Types
##코르
Stan
usrinc
BODY
1852
교차점
unders
datatools
succeeds
천도교
GATEWAY
780
Could
MPL
TYP
UTP
wss
각광
비기
아놀드
왜군
이달
익일
적힌
죽일
타나
타타르
##elect
##할린
##쳐서
##CPOINT
032
##Export
TimeOut
filtered
everyone
리스본
DAO
Distingu
LiveUpdate
삼각주
Increase
Evolution
GMSH
531
RAD
rdb
곱셈
매듭
버섯
삼존
퇴출
행한
##다오
##천면
##itiz
관리비
전문의
COST
accum
COMPLETE
시공간
seems
German
즐거움
건지
곡식
광배
노골
농작
서아프리카
세울
소홀
영락
위헌
평점
##master
##with
##hm
##Cns
##라르
##알라
1793
score
##PEER
emer
708
GSM
BOM
PowerTerm
결의안
Finding
instantiation
VSAM
대관식
충렬왕
코퍼레이션
알폰소
980
lb
구아
기마
마레
마스코
시시
##래시
##들러
MSL
Offline
가르시아
시계열
simpler
SPEC
송파구
sophisticated
QUI
VG
dirty
갑각
걸프
곧이어
놓였
부식
사산
순항
에마
염화
오트
으러
타파
현무
##Role
##꼬리
shares
1836
classification
라이베리아
503
SPC
398
supplier
MPOOL
quota
가속기
callbacks
엑스포
제이슨
스러워
Semantics
보호관찰
parking
spreadsheet
WebtoB
Cup
SES
교란
비싸
시발
오인
정실
##cf
##우주
##세르
##INST
Forrester
phot
올리버
Centre
Warp
Practices
글러브
Given
Kon
Lines
Pick
bpm
라다
방역
소프
신보
유림
조속
##Dat
##vin
##내티
##stab
LGIT
redeploy
RESTART
선제후
VII
신시내티
유년기
카니발
Jac
Offic
PAT
VD
국채
금색
냉장
뉘른베르크
등단
러블
베다
상층
온전
##Dao
chl
한국전력
##ongo
CDN
SIM
verified
routes
assumption
요금소
Constants
법정동
subtotal
Applying
dealing
Structures
##Entity
distinguish
성폭력
949
EG
Jo
Rain
기통
라라
로브
박원
저희
평방
##니크
##우에
0011
manifest
432
conduct
money
시그널
KMACS
##르기스
MACHINE
팔작지붕
eC
등산
마나
방전
비둘기
여대
인대
초석
투사
하한
##Sys
##Ele
##링겐
##빌리
##비트
##ission
1837
enters
meg
SSLPEER
Books
받침돌
##12138
019812138
Ther
pV
건네
깊숙
당월
떨쳤
성대
애호
열역학
오즈
월일
추운
##Board
extraction
assembler
aligned
1440
2100
Ital
WMQI
거쳐야
파라오
Californ
완벽히
인류학
##Async
끌려가
padded
마천루
extremely
HMS
IY
MPEG
강호
겨루
공보
도야마
뒤덮
발부
백조
비긴
송진
의논
절친
집사
최남
##나들
##해살이
##심원
charge
prem
Shaft
##ampled
Variante
시트콤
Beginner
aborted
충실히
SING
np
붕어
선단
억울
오보
워낙
행선
##400
##930
##세키
1810
compilers
ACLs
participating
Resolved
##그래피
facilitate
라이스
문관
영정
유충
할수록
홀수
##sql
##ams
##ida
##cloud
판매고
Coordination
predicate
KHAN
호흡기
##hibited
Boy
FLEX
Gate
IBK
PY
cbl
과자
똑똑
망가
반향
사하라
에바
이석
클리어
포커스
허물
허베이
회생
##렌스
filesets
SSN
SSP
Objectives
##CHANGE
제어판
369
extents
tracks
바닥글
MQMNAME
동반자
Franc
Ignore
루체른
LW
RCS
결렬
다채
로보
부기
불허
영덕
잉카
재가
카파
콘라트
툴루
##hard
##리쿠
##장치
##odb
canvas
commits
customizing
363
사무라이
조합원
aggregated
sensor
LANGU
kb
mit
pause
군림
반론
발광
변한다
오도
조폐
틀림
핀테크
합체
##rint
##인산
##쿠사
span
manifold
아키텐
APPEND
NBR
Neg
SCOTT
낙찰자
Austral
카디널스
WORD
ut
고이
뉴멕
양재
젠더
짝수
타부
##재산
##들였
##rian
##Stats
357
##CIMAL
세웠으며
CommonUtil
Convers
콘스탄티누스
하우징
무제한
mirror
DUMP
ENCRY
총생산
뉴멕시코
CENTER
UU
YF
lr
도파
아뢰
자위
즉흥
컨벤션
후회
##ushed
##grp
##INP
##UBLE
가치관
##MITED
391
스테판
그린란드
해양수산부
learned
AKB
Coordinator
재결합
820
Merc
XE
걸로
루도
만류
북측
세토
양현
정직
##Sum
##주크
##양이
##Example
347
가로막
Federal
MQZAO
accomplished
assistance
지극히
향신료
Fred
ICC
Mill
꾸미
두르
마흐
싸운
전조
키르기스
##찬성
##킨슨
##빨리
##orum
##INCT
##orders
1791
연구비
##ALLE
20170
자연수
382
전해져
네이티브
awt
호기심
미카엘
SYNCPOINT
MARK
821
Ur
mtes
교서
바덴
윤휴
접대
runner
partially
suppose
SCC
475
DSL
heurist
calculates
재생성
창업자
고령자
##cellent
MLB
NBC
도봉
따지
무색
바늘
신명
의주
재청
치밀
##지먼트
##부대
##던트
바이저
driving
타이핑
Compiler
SCN
varies
매니지먼트
AVG
나치오
Xen
bg
rh
균열
남아
액면
율리
자각
진이
커브
택배
푸시
##EV
inch
PDM
##바이러스
소득세
analyzing
수산물
IRQ
government
##arantine
CIC
Hang
Mask
Zip
경색
해짐
##ians
##JSP
##amps
##ocenter
algebra
504
호출자
물리쳤
394
후반전
베르타
InputStream
다카라
COMPAT
omg
201407
raise
ORIGIN
910
Cock
Dog
Mouse
Nat
됩니
박자
수불
클랜
탄수
##PD
##서니
##스레
##티야
##imize
Story
DataObject
##ROU
compr
Alerting
Describe
Bell
privacy
DSS
병원체
##iana
563
ILinkServer
DISTINCT
매사추세츠주
석회암
overwritten
FDL
느라
동체
리크
린다
바쿠
볼드
아킬
에세이
이베리아
입안
취한다
코뮌
##from
ship
428
##스타인
smb
공모전
transformed
개척자
STOPPED
##방송공사
Criteria
성폭행
AML
Ell
KICS
Russ
ece
lename
거병
결전
스톰
콘티
콜린스
함부로
훈령
##vg
##보당
보안대
getClass
DECIMAL
##REQ
##ovell
overflow
##profiles
381
NAMELIST
DevOps
MsgId
Glance
Bottom
Propag
625
FMT
cour
근위
처칠
##ban
##cfg
##디부아르
##holders
##정동
APS
Alliance
Align
505
MBeans
Worker
339
485
finding
신분증
silently
player
carefully
leader
##Definition
코트디부아르
Updates
suggested
conflicts
ideal
카지노
홀딩스
Soul
eq
hook
경화
메드
목장
미숙
변제
스킴
애매
저그
지반
카와
피쳐
##CNS
##날레
##onical
ang
신청인
computed
427
representative
multithreaded
나리타
가고시마
515
Well
eob
ogram
루나
받치
사부
셀주크
자네
장정
절대로
형주
##위치
##왕후
Claim
leaving
이유로
##Cluster
당했으며
시킨다는
777
Carl
명백히
브로드밴드
Enhanced
Ba
CIP
급변
수역
에다가
청정
화염
##GH
Champ
productivity
outputs
법인세
755
979
Measurement
excluded
California
933
Mq
Paste
banner
hence
lter
강했
두터
식수
엘라
예멘
용맹
전극
타시
티모
##타스
##Cre
##해방군
##INF
Delet
receipt
인민해방군
ers
dao
LIBPATH
crtmqm
막시밀리
모나코
Ni
Voice
가망
만연
문물
방울
요가
잡혔
통사
향기
한다며
조직도
sole
##125
목표물
##PLAT
ROUT
페르시
붙여서
고지서
물러난
심의회
##Fields
제노바
METHOD
ORGANIZATION
CUM
Hide
Wrapper
가곡
갈비
공병
교지
매끄러운
저감
포천
##Sender
##cert
##비오
ONIX
STATISTICS
drawn
PRIMARY
크라운
파이프라인
EXISTS
Introducing
고다이
논평
사탄
서품
선지
소론
수은
옥상
정오
조석
총영
카리스
##클라
##동원
##선언
##atile
Thank
세계유산
webt
##ensity
widely
KBs
선보인
후임자
SIGN
외계인
Trusted
REFERENCE
##semble
Hig
Hidden
Xml
lose
srv
무거
볼록
부락
뷰티
세가
증축
출정
표상
##Sign
##onom
##atter
Probe
dbf
Queries
Override
마음대로
schedules
돌려주
알프레드
아오모리
##PROC
AREA
마스코트
##ALLEL
LAY
SAX
currency
dere
href
국면
근세
까다
서안
하자
##이다
##lan
##VIEW
##셔티브
##inite
1310
endmqm
스마트카드
스위트
지배했
preserved
올라온
Understand
##itespace
clearly
상수도
Frank
이니셔티브
북대서양
MAS
Oh
ple
vice
노란
변성
비키
사드
사생
이끼
##IK
##네프
##대전
Exec
##LTER
Generally
allocates
독재자
OPTS
excluding
여운형
일렉트로닉
몽고메리
##Owner
xv
고제
날아가
단발
박재
사체
안면
요도
천마
##ji
##eliver
comparing
USR
돌아올
신뢰도
##Values
tbl
Canada
##UCN
Continuous
병자호란
플랑드르
왕당파
937
ZONE
광합성
금기
봉수
아반
중랑
출항
코마
퇴진
한민
행태
##tool
377
SCAN
크리에이
auditing
금강산
CARRAY
크리에이티브
Ep
EINVAL
Nor
Ol
RIGHT
규합
바쳐
발진
보리스
새뮤
앨리
예일
자막
축복
코일
클럭
##ecure
##ERIC
uniform
506
TRST
##ensive
##DataSet
스트링
393
Sendmail
semicol
##roubleshoot
오카야마
시그마
destroyed
다행히
521
Bin
강자
검결
미약
밀착
반달
베어
알칼리
옹주
외삼
자갈
탄광
##cm
##길준
##005
dequeue
1020
Those
타이탄
기동전
올라왔
IMAP
accordingly
Snap
France
장갑차
CUS
EAL
Novell
PST
Wat
XNP
fp
도보
며느리
미망
생장
시한
어사
자백
잡음
점심
조향
첫날
친절
페스트
##wind
prev
inputs
phrase
대사간
##ruit
erase
Revision
##복지부
Eric
Lie
WLM
wps
김남
로지
모란
브이
상설
생김
여비
위즈
인턴
점토
채집
쿠라
##Lab
##rive
1841
Seq
조직원
packs
Backing
signing
Customization
SPARC
군주제
인문학
바실리
도네츠크
Compliance
MocoCrypto
844
Catch
River
music
pas
귀인
급부
담수
로잔
베테랑
야만
유독
인척
즐겼
픽업
함장
현악
##Widget
##TC
inspection
##rim
chose
acting
executions
CSE
##Stmt
stdout
SRV
와카야마
불명확
Payment
격투기
청문회
818
xi
결집
관대
구석
매복
바보
셀러
워스
지양
축일
키는
풍요
헤센
호전
##날드
정치국
passport
BIOS
스피어
실무자
Distinguished
CAN
Limits
fcl
holder
late
구가
내시
넷플
다니다
도끼
무진
미트라
법상
풀이
##금속
##진보당
##방스
##메드
##컬레이터
계획안
worked
TPN
데뷔작
에스컬레이터
Protocols
고지대
##RETURN
Tenant
CONSTRAINT
넷플릭스
NMS
넥센
동자
사할린
성형
아노
완비
월남
위트
##Rate
##ni
##users
shr
getValue
Unified
ISA
FIFO
수도사
아르바이트
451
elsewhere
음식물
토론회
##ounc
##슬라프
Includes
##StackTrace
firmware
농작물
Lower
ci
joint
경내
대진
독촉
배선
증원
한라
##Cal
##KEN
##티지
##셉트
387
##NOPS
파트너십
README
Activities
마인드
헬레니즘
hs
농담
뉴잉
베라
빅터
산신
생원
자석
천자
통감
##yes
##you
##돌이
##시게
##토크
383
구단주
베르사유
저널리스트
conversational
오아시스
528
OG
Synthetic
구루
뉴기니
베르트
양군
엘비스
연화
오너
정읍
치마
카펠
##ycat
##히데
##컨드
##rompt
weak
데이콤
DRG
##Objects
세인트루이스
브루크
이시카와
LIF
덮어쓰
조봉
주포
##프랑스
##정사
thought
reused
##allow
##unnel
##TEN
계약금
SYNOPS
국내선
태어날
레이건
내려갔
1208
infocenter
ignores
Trim
##Locale
노후화
denotes
글로브상
SYNOPSIS
Es
FBI
관개
다비드
로시
무정부
쌍대
아요
여관
왕좌
코린
콜론
##기아
newline
Transmit
Networking
원정대
##Collection
AUTHORITY
scalable
순교자
529
EMD
Obs
ODA
던진
박동
부화
사하
섞인
쌍용
여가
##rum
##워즈
inject
excess
##INED
026
##CSID
부르봉
397
communicating
TSO
snippet
소방방
##ANCEL
MEA
다카라즈카
KIT
oid
나날
닛산
다년
복소
시차
에두
절연
죄인
홍성
##nam
##roc
forced
cant
endif
UNS
LGEAI
smtp
대리점
DriverManager
MQDISC
맞대결
토요타
614
OAM
Ring
가창
날렸
냈으며
뉴올리
대검
레비
변론
사병
석불
선금
실책
여포
영사관
오산
외손
우마
줄였
폭우
##fetch
##Boolean
##ati
##uler
MQEnvironment
notified
1842
INH
##20100
Installed
3500
Subsystem
프리드
Packs
VMWare
removal
Brows
Recording
MVC
PARAM
insufficient
CNF
##iliary
##Active
XCube
PUBLISH
collation
launched
성희롱
AXT
BH
Having
Room
곱하
근거리
당상
미켈
세컨드
센다이
소급
솔직
##ptom
392
419
Identifiers
595
grants
Graphical
게이초
radius
바그다드
새뮤얼
rpl
감가상
관원
구한다
기교
망간
시력
에페
영천
토폴
##test
##jms
##Helper
##간지
##신보
##당류
##ala
##alation
userId
DataBase
compares
blog
decomp
371
restarting
1109
curve
파르티아
해수면
Renewal
뉴잉글랜드
감가상각
hoc
김도
내게
마애
방학
복싱
사악
신재
엘레
인테
일일
코로
##Switch
##려야
eventually
453
전년도
MYSQL
판독기
uncommitted
accompany
Analytical
hlq
KN
NCA
RV
Rose
harm
jvm
강타
격화
꽃잎
노원
동대
무찌
벤트
병풍
보령
서클
에노
열망
유구
인제
자간
작자
제프리
직제
청일
탐정
##sn
##burg
##클릭
##방식
##렌토
ence
newsgroup
##rict
CLNT
Provisioning
이주한
펼쳐진
##WEEN
조용히
Survey
8192
대니얼
과부하
incompatible
Dark
GAP
Picture
QL
Sport
걸맞
광화문
굴착
금천
나기
더미
됐으나
매디슨
부치
사옥
선과
솔트
액티
이선
카보
페드로
##tools
##cap
##박사
##급금
##oted
clar
strmq
##Container
meoa
Providers
exporting
Mining
더블클릭
광복군
Children
VoIP
Ghz
Pan
curr
tech
고관
길거리
모였
변한
사커
사다리
산사태
소양
일주
절체
정언
좌수
쿠로
텐서
##중추부사
##나주
##only
forecast
1831
이용한
동일시
appliances
기념장
기획사
qualifying
Glass
ISSUE
instrumentation
광둥성
ACTIVITY
고생물학
갑각류
미망인
890
Lane
OA
URM
XHTML
사키
아스카
키리
푸드
현방
효능
##이동
interoper
Nothing
Retail
##proc
##ATIONS
Preface
capital
manuals
##azy
대교구
Obtain
갑작스런
interceptor
analytic
Hz
KAI
cis
collabor
논증
리차
산조
카로
타쿠
##Save
기술사
OracleB
readme
##999
455
Requester
Hostname
특허청
헤르만
합쳐서
TERMIN
leads
레닌그라드
Christian
Lightweight
adjacent
WD
mes
관군
군기
명왕
버밍
서고
스톱
습기
양분
장차
전범
커져
터너
통킹
헌터
##고로드
##투리
##더지
##처럼
##득점
1796
versioning
CPOS
426
assigning
Expires
OPatch
Counter
국방군
참전하
트로트
TPEV
경부선
끌어들이
Practice
CATALINA
셀레우
NRT
레크
비우
수증기
승단
원거리
장지
청도
테헤
틈새
##yz
##미니
##누마
##예술
seven
1821
acct
Stage
예정자
Beans
##CEAI
Overflow
DDR
##981
improves
hda
asynchronously
Numbers
recursive
병무청
이바라키
dod
본존
본능
심플
안톤
유시
판도
폐하
해왔
혼돈
화교
황위
흡입
##어냈
##구스
depart
PROVID
initializes
체크아웃
701
THIS
Hands
RPA
Linear
브레멘
ARCHITE
Activate
고고학자
붙잡혀
시큐리티
BSTR
도읍
로디
마늘
만물
모태
벗겨
오시
장강
코호
현관
흐트
##GHT
##lett
##acters
##itors
027
##MPO
PROG
QMB
705
오스카
Perspective
이노우에
Yellow
518
Bon
Ham
KIND
RAI
굴욕
끼워
분별
슈미트
앤서니
에탄올
영월
척수
호로
화승
히노
##uum
##제비
##zero
##arse
Prom
strcpy
door
Requires
인수자
431
드러난다
움직여
2010031
미시간
환승역
데려가
슈트라우스
WBRK
repeatedly
바나나
jump
나토
트랩
피살
흉내
##화당
##sto
##chor
chance
seek
상황판
들어선
##archar
##inality
Blind
1809
동남쪽
javac
지바현
globally
BETWEEN
Xms
mart
tips
개축
검역
라울
롤플레
무패
부결
소각
억불
족장
치중
현명
힌트
##MAX
##ua
##want
##atell
##appe
그러다가
프로그레시
amb
저지르
PARALLEL
quoted
misses
김해시
renamed
neighbor
Joseph
플루토늄
tmboot
롤플레잉
프로그레시브
Aud
GU
기민
레몬
선회
오슬로
자장
정년
주나라
착안
충칭
##sys
##home
##트가르트
##형제
inspect
forces
1835
perfect
directives
##ookup
packaging
Generating
CRUD
manageprofiles
나왔으며
Delimit
focused
반감기
조연상
redundant
슈투트가르트
Hon
candid
박용
신영
인장
지터
트론
파주시
##FE
##ya
##일체
##경찰
##stl
중심핵
0101
YYMM
게이오
천연가스
rendering
인테리어
고요
래리
모치
북인
분쇄
액수
처마
##RD
##Red
##재판
##oth
Org
Ens
##501
instanceof
조각가
lesson
resolving
scaling
콜라보
Bor
RW
dmp
mass
공경
능하
라쿠
백지
불평
속국
수의
스펜
애슬레
양지
에나
카야
##LB
##정변
부분군
알려준다
google
referencing
Integrating
보건복지부
Languages
정해졌
loops
evol
바닷가
Synchronization
Purchase
미성년자
애슬레틱스
Brit
EMI
상신
의대
이랜드
자성
전봉
주군
차차
환매
##진구
##초프
##록대부
보여진다
CLH
건너편
돌아와서
##Scan
MULTIP
challenges
worry
scratch
thousands
Bern
Tu
ql
배울
영암
위태
지드
철기
케리
호그
traces
TOC
decryption
realm
Standalone
TMAXDIR
외환은행
다녀왔
##docs
Northeast
backslash
사이타마현
PMQ
Ru
arise
내몽골
라지
로움
리바이
매니아
삼척
셔츠
약제
옥사
커져서
폐차
포승
##패스
Transition
wanted
##316
생물학자
booted
Mini
진정한
udp
폼페이우스
YO
tg
계상
라프
멜라
발작
보그
에볼
영세
인먼
중신
피그
##로트
##체어
intra
##asis
Annot
##DBY
SEE
##NTAX
##USR
accident
소유주
SCRIPT
influ
합쳐져
FFST
Bootstrap
loan
Battle
조광조
ITCEN
IUCN
hop
nine
sIStatus
교내
네비
리지
보국
양사
유창
조강
중거리
쾌적
하라
호에
##draw
##CARD
##idi
업무상
1832
##ensitive
deleg
equipment
지하수
eligible
532
세르게이
survey
preceded
parseInt
이마가와
##stein
오메가
613
Hol
dx
virt
다기
시온
시료
양원
이강
조우
충고
폴라
##iment
##비에
##불명
##만금
APG
OracleJSP
expose
Trading
TPQ
선언문
536
Agenda
PRODU
영장류
Martin
Benefits
mismatch
517
Border
변했
새만금
술집
쓰성
원치
유압
인센
##fa
##지부
##바꿈
##핵생물
프로비
프로이트
Conn
1794
trends
교통카드
세포막
486
Individ
##OMAIN
엄격히
negoti
FNFD
aws
행해진
돼지고기
sleepycat
여주인
Investig
LANGUAGE
인센티브
523
ECC
sock
개경
공학자
국인
권하
네브
다이스
달린다
봉헌
성자
이만
재빨리
증류
지크
킬러
##PO
##르노
##데냐
##교부
##itt
##rance
1790
받아들인
알아볼
Visualization
mteagent
두드러
사르데냐
카트리지
KEEP
Jython
Wr
fax
건별
경순
늘렸
모교
묵시
병과
소주
안식
안산시
앨버트
언젠
유세
치사
키드
페레
##WID
##라는
##게이트
##엽수
##렉트
usable
##through
CSP
보통주
근무자
Providing
commitment
DisplayString
closely
보였으나
레인저
Scheduling
Nexteer
공성전
Bulk
HK
광디스크
나투
남아시아
델리
미신
봉황
오일러
처우
##뛰기
##eting
instant
Adv
Clause
Strings
이동성
relies
##RCV
MODIF
##VELO
부산은행
비행사
CTI
알렉산데르
만주족
##BEGIN
김현동
HashMap
여우원숭이
BINDING
wireless
Angel
후유증
막시밀리안
heterogeneous
ux
광서
마취
불황
스팀
테살
표트르
##MMS
##Http
##끄럽
##aml
workstations
repmgr
##Insert
##DSA
MBR
ENG
eaiap
smooth
guides
##IRON
Locking
쫓겨나
MONITORING
감마선
##aniel
테헤란
FUSE
Unt
dst
rer
sing
고독
자키
출병
항전
##gon
##리케
##조류
1211
makefile
성장세
equations
ERRQ
인원수
privileged
Drivers
트로츠키
consumed
앤드류
##이즈미
dvoid
Hint
ROSE
SZ
관사
라임
반정
버진
살피
소드
융기
의령
천상
테트라
핑계
현생
##An
##itas
Lev
occup
항공우주
폴란드인
저작권
MPOWER
accordance
화성시
Programmatic
대제학
스태프
SAMSUNG
Vir
걸치
견습
모잠
사영
음란
##fx
##qm
##민당
##피카
excellent
ASN
MQSERVER
deployments
444
원자재
placement
비상사태
재무회계
Typed
MQXQH
Streaming
CCSIDs
다마스쿠스
모잠비크
Bur
econ
경미
금동
기악
더빙
독소
루손
명료
아람
안주
차분
한해서
행운
훈족
##이상
##Pad
##자락
degrees
Too
한국방송공사
##iverse
binaries
toolkit
바로잡
가져갔
발행인
내려온
정규직
1805
플래닛
도망쳐
MQCHT
safely
MULTIPLAT
로버츠
636
Geo
Jer
Sent
리전
면하
몰입
미자
비게
생포
육박
터스
힘쓰
DBCA
spot
자동변속기
거래량
Spark
체크카드
올라갈
후반부
1806
예비역
##ordinate
centralized
Credentials
##Flags
이광수
bathroom
Bes
myp
결단
구명
궁금
글렌
꼬마
랜섬
불길
어퍼
접착
카다
쿼드
헌종
##SL
##size
##dy
##의금
##수염
##징어
##팩스
##iley
Inside
##스트림
noti
##SEQU
TELE
Desc
예비군
##Attributes
gzip
strategies
WN
die
ktf
xid
강가
김우
려다
로사
로망
서무
소인
앞부분
에레
청군
초판
케이드
퀘스트
퇴근
##GUI
clicks
QueueManager
##redict
Subprograms
042
MQIIH
CORREL
581
RealType
behaves
involving
originating
가이아
YaST
Mont
경멸
김천
돌고래
베크
석재
센다
앨라
에픽
왕명
우디
조력
지검
키가
프런트
한복
할로
##rus
##Upload
##재료
##구멍
##욕장
##ando
1843
라이드
variant
bottlen
항공대
379
Provided
EDMS
ATTACH
가로등
빠져나가
##에이고
marketing
마스킹
카롤루스
바빌론
##arehousing
샌디에이고
서태지
GlancePlus
RTE
Sin
UNT
김혜
동결
디나
문중
발터
본당
아레
악취
윤석
직교
하지
##고사
##져야
##히메
다이렉트
707
##노스아이
트레인
##ennifer
부에노스아이
amazonaws
부에노스아이레스
ANT
JF
LB
ly
ning
uuid
각별
귀순
담임
박희
암수
오우치
이설
퀘이
타일러
틈타
해일
핵산
##EJB
##플러스
1623
leaf
##intosh
자신감
##ENS
1106
architectures
모아서
##Retry
HANDL
DEPART
DIRECTORY
안티오키아
최하위
##PORTED
rdbms
912
BFH
ODM
ni
skeleton
결실
공파
공해
레스터
블룸
설리
신관
엑시
푸젠
##ju
##Em
##나시
##학파
##러드
프로방스
##esting
Energy
theme
counted
삼성생명
변호인
IMAGE
##azz
드릴링
NATIVE
Alerts
instantiated
자오선
khub
MAXMSGL
7001
ODP
PNODE
군량
다윗
따를
버스터
뿌려
소라
시냅
양념
전점
타고
할양
##Age
##가요
##모닉
##태자
##린저
##ilo
자유형
emacs
interfaceId
돌아간
유명세
coex
418
686
합병증
브레인
denote
APPLICATIONS
Datasets
추축국
시냅스
QIBM
간담회
미묘
블랑
숙명
스킨
윤영
지어
콘퍼런스
택지
투영
허구
##west
##YSTEM
##가하라
##RICT
handshake
타이밍
representations
downloading
SENDER
학부모
PACKAGE
##Execute
RECEIVER
Done
Fa
pH
tms
거액
격상
될지
비방
스틱
여전
영성
이홍
총감
테스터
##Dm
##바드
##악산
##anish
##rot
중앙일보
##conf
Backend
902
SuSE
##STRING
posted
도망가
Money
JBOSS
poor
Quantity
탄수화물
Baby
Cp
Ray
bserv
hy
rk
견지
민생
소노
예프
전법
키웠
학당
한진
현수
##Pay
##작전
procedural
##umin
##CTYPE
452
슈퍼컵
TUXCONFIG
부가가치
CONTIN
xsi
Heartbeat
떨어뜨리
PreparedStatement
암모니아
ARCHITECT
Gap
관저
김두
독신
배설
사채
수렵
쏘렌토
어인
일면
포섭
##ytes
##PF
##지스터
##시로
##무실
##oned
##enger
OracleConnection
##시아키
영화관
게임즈
프레젠테이션
ENGL
476
요시쓰
quali
cpio
Alternative
caught
DemoShield
라이온스
Coupling
applets
PRC
Rather
갑신
금관
기형
박찬
빛깔
수족
시지
양위
옹정
우기
추밀
특공
현은
##서기
##하우스
##북면
##roff
story
##imple
Reverse
1813
mqbrk
toolt
머리글
Abs
UTL
DCM
##FORE
ENVIRON
포항시
mqsichang
surrounding
일일이
AZ
Joe
Rend
국과
국무부
레반
미혼
봉투
수선
아드리아
아열대
오와
퍼블리
필로
후추
##티어
##시대
##렐라
EAIHUB
impos
##ublic
트랜지스터
FORE
INTF
booting
기울여
이와테
fbget
트라이아
예배당
맥스웰
가독성
##Product
##Suite
Ubuntu
언젠가
cics
감기
도지사
버림
소제
쇠약
정병
제비
##업체
ons
1799
reprod
AppServer
388
Independ
##phony
NTFS
Swap
공군기지
TPSVC
안드로메다
##이치로
윤치영
Questions
redundancy
대소문자
아브라함
816
FPS
Pse
bk
dry
ran
교묘
노화
버트
성교
유미
직각
치루
평의원
피자
흑색
##무지
##혜원
Theory
##alls
##ITCH
심사자
SERIAL
666
esb
stands
popup
그려지
지리산
webserver
meeting
Improper
advance
세키가하라
루키우스
1048576
SOLARIS
valuable
618
TLOG
군비
논산
막아내
만수
명중
빼내
이연
##Limit
##ras
##레도
##배마
##월드
commas
whitespace
restoring
encode
Libraries
ICBM
Layers
HOSTNAME
Calendar
uninstalling
Balance
무너졌
Invoker
잇따라
Individual
앨라배마
Known
Roman
samp
가선
기근
눈금
닌자
매춘
사조
소탕
주시
향한다
##동사
##토쿠
##츠부르크
##ctions
InterChange
지방관
602
SHORT
Generated
Received
RTN
amqz
만료일
Recommended
비엔나
ENGLISH
py
로스트
무예
성부
식이
아칸
아쉬
이삭
인허가
카인
쿠마
포니
##대성
Proceed
##ITORY
ITU
enterprises
League
insertion
Badge
드러난
감염자
shorter
SunOS
Points
grained
##ACTIVE
비정규
##PROD
환급금
4119
65535
뉴올리언스
mqbrkrs
PSP
XD
rx
기시
나옴
난방
담장
루가
예문관
진성
파사
편이
행과
흐리
##gage
reusable
##adb
enqueue
acme
Versions
extensive
보상금
들어와서
Principal
##Attrs
Flexible
diagnose
INVENTORY
624
XCF
pem
교착
구직자
너희
노르트
띄워
벤츠
신파
안중
안락
억류
원재료
이국
한겨
흑자
##WAS
##인구
##문서
##노르
##조치
##eth
proof
##icket
야구단
Requested
연장선
Simulation
MEMBER
##ORDER
segmentation
어도비
비서실
webservices
dragging
serious
Bay
Far
Lic
격침
계룡
북상
영종
원곡
응모
이트
책상
코발트
##Width
##플라
##샤오
##큐슈
##젝션
abstraction
507
##Inf
동의서
slider
신경망
##트라넷
917
DMS
Treat
VDC
apt
당진
시편
이문
이율
인젝션
패딩
##svr
##care
##반정
##heel
blg
Shah
prototype
동기식
##tainment
불법행위
오토모
Containers
글리코
끊임없
##DEPTH
friendly
베오그라드
트라이아스기
Dam
Electronics
KP
NI
cos
결투
그늘
리안
머큐
베컴
사일
서당
유감
인트라넷
접시
직함
축약
포워드
학급
##라과
##도감
##베인
##올림
1818
##PTO
중소기업청
Converting
유물론
subtask
KRW
Giga
ParsingException
##Dynaset
서스펜션
선거인단
셀레우코스
Counc
Sand
huge
orientation
급식
다쓰
백운
으론
전량
정품
지느러미
코크
##Wrapper
##LU
##BASE
##크림
##화경
##면적
street
##ubrid
##trc
enum
다시피
454
551
DOUBLE
GSKit
1807
RESERV
ALIAS
대수학
BufferLength
##fortunately
mqsireport
모조리
컴플라이언스
Dossier
mst
가극
고액
박기
비참
수월
승전
아쉽
열풍
오랑
월경
이카
일금
잠비아
좌천
최용
한참
##RF
##tlement
##네소스
##운용
##채권
##unit
##trm
creat
행정동
부여군
플로이드
Particip
CTC
스테레오
Macintosh
articles
클라리
개막식
attachments
MQBYTE
Fontcon
##mni
러서는
Kafka
fbuf
관공
브렌
시일
안데스
##uz
##니츠
##캐피탈
##능력
##update
이제원
원정군
PRICE
그래픽스
Markup
LILO
Donate
국유재산
opposed
송진우
616
IaaS
동아프리카
손수
실황
얼터
중건
키즈
튜링
티무르
필기
##HA
##광선
##완다
##번호
##높이
##lee
2024
chat
1845
##oulder
FILTER
Ship
##301
553
435
##VOKE
입찰자
obtaining
repeating
recognition
Constructor
니카라과
camera
거머쥐
adequ
한겨레
Council
513
TMM
guring
hibernate
wher
사파
서프랑크
쉬프
시책
업소
종주
최성
친목
친히
트롤
특위
페인트
하순
화풍
##63
##타라
##주석
strip
##unks
##STS
MQCFIL
후쿠이
주전산기
연습생
MELA
우에노
challenge
Missing
##Repos
DEPARTMENT
Gallery
MAY
마른
미디
본진
슐레
재주
점하
콤비
풀백
호찌
##oz
##티보
##던스
toward
ename
prt
##123
##olicited
tpset
가까웠
429
##SHOT
##LENGTH
지평선
모빌리티
이케다
집어넣
이성질체
Hell
Len
Mond
sms
간파
니치
달콤
담론
로제
빠짐
여긴다
외가
조시
탁구
태화
패퇴
평신
##코인
##erning
구성도
수신기
trick
0004
보고회
605
##CIM
연방군
483
statistical
LocalEnvironment
ATTR
layouts
BRID
originator
ectory
Predict
후쿠시마현
Cyber
##타나베
모국어
조봉암
Escape
tend
다지
벽면
원생
음영
쫓아내
충신
콜린
표했
##Wait
##리언
##ister
transient
1004
DEM
SHE
timed
behave
ARP
Agency
위탁자
fourth
practical
cni
splitting
MRP
ARC
LHD
OMS
fun
rms
결점
광동
비어
생쥐
쇼팽
승선
심근
적성
초보
출제
##Folder
##비티
##큐어
##ett
##hern
국가원수
getBytes
아이작
classname
ISBN
SHR
Indicator
데이빗
mqside
MCAUSER
implied
revok
블루어
클라이맥스
straightforward
GMIM
BMP
BAD
TMQ
Van
교명
난쟁이
더라
라스트
반올림
배향
셰퍼드
장서
추월
캐치
캐피
폐업
홍종
##크리
##공화당
Church
Intermediate
민주공화당
##Stage
혁명가
DCR
MQMON
쓰여졌
##Character
연수원
FEATURE
Removes
##cestor
876
Mary
nitions
감탄
강진
몸집
바니
사미
설사
원효
자가
저소득
주안
##mm
##MN
##파트라
##탄두
##ifiable
DBN
EAIL
1642
##ategor
이력서
BmsAgd
오스트로
연대장
RETUR
크레타
analyzed
merged
플레인
가요제
모터쇼
Percentage
affili
클레오파트라
EK
Vault
국비
리두
리뉴
몰라
미처
성년
오구
유길준
인노
인삼
청했
컨디션
테넌트
호국
##band
##activity
##Style
signi
535
Indexes
1683
##WNUM
한자어
daemons
민족주의자
JTBC
쇼트트랙
SELF
trouble
gap
나시
대세
미첼
상각
정현
코아
펜스
##lled
Innovation
RED
fieldSeparator
##spector
printStackTrace
Outlook
Compound
438
448
COLUMNS
Dependency
TEMPLATE
INFORMIX
Mus
NTP
관아
기네스
노마
노엘
단호
록히드
무공
버릴
알마
양양
엔젤
자급
템포
할까
##67
##var
##If
##오닝
##icted
##amics
##스트리트
##arden
unset
subsystems
nullToEmpty
observ
UPGRADE
클레어
야마다
Charge
연금술
겨울철
대대장
모여서
transformer
interpreter
무너져
##ENCES
STATEMENT
WBIMB
##iptic
##Identity
Football
로페스
PERSISTENT
라쿠텐
##SEQUENT
머큐리
CQ
Spl
ZT
bars
노총
노무라
르완다
새기
센스
숭실
월급
이게
잇달
제스
존엄
켈빈
탄두
팔려
회부
##mql
##bal
##break
##PG
##로아
##프스
##싸움
Interchange
ISU
Labor
그리스도인
수영장
NCIS
Retrieves
프로파일링
이오니아
고분군
SharePoint
깨달음
원동력
Cryptographic
롬바르디아
Mongo
Sus
rl
노현
막혀
모기
백상
서둘러
손바닥
알로
앙상
약식
오나라
읍니다
의인
추궁
특명
희박
##ODE
##joy
##일기
##민정
##마켓
##예보
sees
trunk
PCM
ESP
recordSeparator
SHM
CSQQ
남양주
Conditional
EBPP
스테파노
GCC
구했
백자
수구
옵티
장조
증분
지석
트인
표결
##filter
##hr
##레토
상대론
Recogn
##FSET
separation
mathematical
transferring
##eeper
UTM
Executing
대행업체
영문학
경비대
대법원장
봉사자
루터교
항소심
Raid
사탕수수
analysts
필하모닉
xtns
과달
도용
리온
미연
사보
서역
성조
성찬
수생
앞당
양정
증액
클라인
허난성
효자
pretty
tpfree
##CLASS
488
Namyang
##autif
엑스박스
715
Tol
감명
니체
명륜
블레이드
오마
외출
요나라
타가
##uber
OracleDecimal
ASIS
SYNTAX
플레이트
ROWNUM
Mainframe
##RIBE
##OTO
Brown
PowerPoint
deriv
빼앗겼
centers
stabs
미야기현
unpredict
CLE
DUP
FREE
lm
말려
모닝
봉분
웅장
차오
코민
혈연
히다
##Ass
##자유
##텐셜
##ona
##ustrial
1527
STG
Transpar
TPES
delta
481
##sequently
Everything
HWP
evt
shortcuts
유공자
##Operation
##ubscribe
Vision
dict
iii
ore
tpen
개전
맞배
맹점
문어
브리스
수프
수험
인신
지회
하후
##Fg
##바스
togg
chg
overloaded
portions
보증인
보관소
469
Relational
학년도
##ographical
인덱싱
Constraints
##Auto
##XXX
스텔스
subpartition
Fund
FDS
GEN
Les
QName
lw
mx
대정
떨어질
상피
셀룰
소크라테스
어쿠스
정글
탄원
퍼텐셜
포지
##루리아
cli
독립선언
##Excel
CONV
QMG
901
SELECTOR
네덜란드어
예수교
sector
불렀으며
inserting
reflects
스와프
Turner
Included
CipherSpecs
어쿠스틱
MMB
Saving
bmp
ult
광택
김인수
깔끔
득실
무위
부이
속이
슬퍼
실베
열광
와타나베
용매
일수록
자의
집전
포진
하카타
활력
##mann
##Mobile
##598
##암리
##박이
##inf
reinstall
##formed
listens
##ICK
DEVELO
NOW
ASYNC
Remark
주제가
SAV
576
1204
##cii
##Comput
##자치단체
catalogs
공화주의
duplicates
SQNO
ASSY
정말로
totals
##라이어티
Bserv
Rub
WA
nite
가모
광경
급하
김흥
남로
동차
버라이어티
와해
완장
캠벨
토바
##cb
##Ip
##데오
##여지
conv
##ewise
setAttribute
ORDS
portability
TRNS
##PLAN
##302
도로공사
457
redhat
거주민
그레이엄
주둔지
파르마
MQXCC
asking
Facebook
##Alive
##RPC
biometric
somewhat
official
ground
ucs
가디언
나탈
노카
로널드
바사
벌어들
분홍색
빌미
색조
약수
저압
전란
차역
탄성
태세
포교
##EST
##다발
logically
scop
COS
quer
receivers
투자액
성장률
오른다
입찰서
DbM
농민군
parsig
펼쳐지
부위원장
yellow
Determination
maxOccursString
TIBCO
##atellite
Sit
boulder
가온
네바다
먼로
변장
보우
산체
스쿼
양서류
저스틴
정합
찬탈
혈청
##디우스
##니에
##바인
0005
##AGENT
lengths
NTLINAKOR
Parse
AVA
foreground
growing
Boost
사다하루
discovered
ESTABL
로베르토
RAISE
HSG
Mile
tap
wb
공물
뉴딜
배차
사중
수류
춘향
쿨링
타트
##kins
##메랄
invari
프리랜
아르테
434
Delimited
goods
##VALUE
Qualification
##Processor
bankapp
empno
McC
StockQuote
Ultra
SNAPSHOT
Fuj
Git
Rfc
Soc
fence
tiger
vg
개간
괴멸
김응
멘델
비약
세액
전서
캐슬
탄화
파격
패킹
평시
##흐트
##Current
##레앙
##ici
##adoc
##ONENT
한국가스
permits
교육감
행정관
handy
##124
xmlsoap
Partial
465
RESOL
qualify
슈퍼스타
정착민
CCDT
Highlight
AVI
조기어류
Statistical
OTS
미식축구
##elivered
ESTABLISH
Ajax
Width
nfs
광시
매질
비호
사목
서강
소피
소란
시술
악영향
여긴
우니
윗면
치킨
캐논
플리트
##nes
##피크
##팔렌
##폰네소스
exponent
1819
producer
nonzero
463
일제히
drawings
Slave
Skip
##econfig
Square
Recovering
네이션스컵
##COMMIT
펠로폰네소스
AFTER
MULTIPLE
Camp
EMB
Lob
사흘
소르
알베르트
양행
어셈
연임
예견
외벽
이크
처했
총살
피어스
##BJ
props
##ira
Instanti
OpenOffice
##loader
45981
코스콤
cryptography
runmqtrm
Writer
안동시
시에라
OPTIM
WebtConnection
musentdd
로드리게스
SINGLE
ix
varchar
권세
급습
들러
사나이
유카
음역
제이스
주치
##Sched
##분투
1824
1833
Monitors
LGCNS
verifies
492
integrating
initiates
banking
버려진
Stopped
breakpoints
Cartridge
미시간주
JOINT
tor
가차
골자
궁내
넥스트
녹말
달마
데일
레포트
려다가
블럭
새해
암스트
정청
조만
주이
진주시
체온
태워
텔러
해머
홍익
##Ds
##fe
##world
##질량
##황제
##eloc
1834
1416
##archive
SYSDBA
##957
##dfs
translator
Committee
엑스선
늘어난
안티고
controllers
객관적으로
slower
이리하여
##중국해
eliminate
CONFIGURATION
접두사
옥타비아
산둥성
PARAMETER
ENVIRONMENT
617
SOR
WI
누에
리타
비올라
상생
안시
어기
엔리케
오더
요셉
율령
정촌
참배
추위
카불
편도
##니컬
##Global
##랭크
Staff
Tobj
계약법
Shape
606
609
SIB
##phrase
Caches
낙하산
타지키스탄
Simplified
건널목
서바이벌
mteserver
앙상블
526
LN
rp
고성군
골수
골목
더구나
면밀
버거
상권
수아
악역
응력
이씨
인더스
잔치
제법
학도
화이
##코스트
##Category
##Cursor
##재단
##JG
##배상
##연료
##처분
##게이션
##갱이
정보통
APAR
##111
weblogic
Directories
사무엘
designers
##LDAP
PREFIX
inherits
오이라트
통행료
comparisons
정사각형
안양시
##정보부
유목민
내비게이션
Pentium
##의금부사
BRIDGE
Cash
Hex
Pilot
Vx
VIR
ber
강판
돼서
둔화
릭스
새턴
아민
장명
재택
지멘스
##men
##je
##erves
enumeration
unpack
##1220
##ADA
Compet
obs
혁명군
포르테
아이디얼
496
prediction
Searching
establishing
substitute
greatly
기다렸
카리브해
analytical
mqsicreatebroker
##DOWN
BDM
Give
Letter
Pak
개폐
당명
루드
변방
속기
신변
어제
어든
재기
제헌
참정
캐스터
파피
##Anal
##nr
##onimo
##ulus
MQRM
##osoph
dbm
FIA
redirection
CSQINP
998
Identifies
SERVERS
아세트
시아파
JCo
samsung
퇴적물
714
DMC
논설
무소
민권
변속기
부녀
산인
샤르
어딘
육식
이희
전결
카일
파가
학점
##eg
##Mng
##Icon
##Business
##테른
##더니즘
##oser
DataFlow
스타드
subscribing
비트코인
##Bucket
verifying
Bindings
목격자
경부고속도로
718
Ban
DIM
HDR
Town
au
jquery
pthread
road
규장
베티
복리
쉬워
전동기
해자
##Biz
##여객
##대주의
exchang
Weblogic
installver
buckets
Usable
중앙아메리카
전기장
기독교인
찾아왔
보였으며
다카하시
EMPNO
무사시
LLMU
KPIs
Headers
impossible
615
628
BSC
CVE
MATH
경이
계투
구토
남반구
다각형
도부
북송
석상
수화
체임
##rust
##리오스
언어학자
공사관
Backups
SKIP
1808
mounting
##Mapper
Extensible
Moon
였음에도
##Backup
보라색
일진회
냉장고
Fan
Ka
pod
기권
끊이
도량
디에고
로워
로저스
역모
으시
음색
코레
헤엄
힐베르트
##kg
inverse
1196
1410
getT
033
##902
가까스로
PSM
##hosts
부재자
유격대
hdiskpower
이창우
인터랙티브
EIB
UCP
umask
xm
루머
마자
바랐
보아
북반구
설과
성간
술라
여과
지치
캔디
트리스
##지않
##에쓰
1412
국제기구
decided
서로마
InitialContext
오리건
생태학
그리스도교
권위주의
responsibilities
##하마드
claims
중등학교
한국가스공사
HKEY
Mind
pap
결탁
고하
금정
느다
니가타
떠올리
마조
면책
보나파
왕릉
이가
체신
##LIC
##후이
##해야
##isor
##ERG
##figured
DataSet
##mss
readers
독립국
Installable
validity
MQCXP
야구부
foundation
CTL
basement
consideration
495
1783
Diagn
DIAG
majority
propagate
nearly
##Repository
##autiful
보나파르트
Tues
Ware
낙태
단역
드레이크
마코토
부등
성호
아로
특혜
허버트
##Disk
##aque
##테롤
##케스
alarm
deviation
Outline
446
LOGFILE
다리우스
BServ
대항해
세운다
IMME
연출가
Serializable
Blueprint
Needs
AuthInfo
Establishing
어리석
brought
TBZZTD
Mocomsys
갑신정변
813
Ec
QB
교주
대열
명장
쓸모
완투
윈드
유민
캔터
타블로
황하
##Svc
##화산
##캐스트
##oma
사용료
사업주
1593
1775
outlined
edges
CLS
반대쪽
##VERY
##FIM
매출채권
mailing
htdocs
545
##umerated
아시리아
dtd
establishes
serialization
윤리학
recognizes
LOCALQ
participants
ClearCase
trademark
아우구스트
조르주
848
XI
mil
바이스
본디
압송
양궁
연하
오징어
요시아키
웨슬리
일례
제식
쿠루
한류
##Month
##VT
##js
##크트
##세데스
##대비
위해선
INGL
##208
scc
644
##LOC
준비금
BmsWtf
##backup
445
SMART
재정난
연락망
Primit
포위망
본다면
Telecom
Matches
Capit
servant
FRAME
guarantees
메르세데스
만기일
조교수
719
924
국무원
김덕
루카스
명동
바타
박은
북해
세세
시우
십시
최순
쿠페
토프
포메이션
한전
혹시
혹독
##WT
##night
##Pub
##Cell
##마킹
##경영
analog
##otes
1817
의한다
Opens
484
MQParms
calc
남북조
Plugins
##IFICATION
positioned
LPA
참모장
arrival
벤치마킹
지장보살
StrucLength
도라에몽
CONFIGURING
##Registry
##owntime
버밍엄
여주인공
527
DDS
Tre
WAL
casc
him
je
qw
귀양
노라
변천
불순
오딘
월북
이색
일회
헤지
##oat
##mo
##lers
##Post
##부미
##장군
##매기
##tery
unrec
publib
TODO
QManager
성명서
알렉세이
##765
여객선
##UNTIME
capturing
앞장서
gnu
unpredictable
Cust
Ded
Echo
Got
Hu
광원
길버트
도민
도큐
라테
매겨
몽케
북마
북베트남
신궁
실크
이학
이심
자승
재자
코이
퀸스
회기
후불
##Fault
##la
##well
##사무
##상혁
##살바도르
##십시오
##iset
##elog
1636
중앙정보부
quad
MSDM
지도력
supplement
에이브
continuing
CTN
조작자
MPO
##irectional
이원화
investment
rtn
어드밴
일간지
시흥시
미주리주
Louis
프리랜서
BRE
Eval
aid
건보
견딜
금화
사죄
실로
양손
에든
코넬
클로드
호감
##body
thumb
##chart
작업장
UserData
memset
PROFILE
Supporting
436
LOGICAL
MQGet
동남아
##NotFound
스틸러스
영동군
Attachment
gradient
에든버러
825
CANCEL
Rail
Sout
lex
고질
귀여
그람
남긴다
비슈
산탄
시역
연유
욕설
평하
후난
##Range
##wa
##하이드
##기둥
##너티브
##lli
Req
1597
asset
Sci
tpstart
458
삼성카드
Stores
546
767
RESTful
Elastic
incremented
directions
Corrective
해수욕장
무지개
자카르타
얼터너티브
Later
간디
강유
두스
버니
수발
신익
정일
제천시
천구
터뜨리
핵연료
히브
##nable
##원형
##오세
##락부
regression
##ushes
perl
COD
생산력
분류학
Plain
Buy
자연주의
4500
부산시
베이직
586
프린팅
한정판
didn
가이우스
DFB
interactively
instantiate
끌어올
외무성
중서부
##istributionList
정몽주
accompanying
코호몰로지
Ahn
Oft
synt
군도
낙타
미화
청송
콘셉트
터리
하산
##WF
##rar
##모프
##하워
##다스
##뉴기니
##plo
intent
##203
subordinate
##ROUND
##COPY
PROXY
offload
SUBS
478
히로부미
forwards
delimiters
관람객
국문학
##PPIX
나눈다
토스카나
heavy
아이젠하워
Cockpit
암스트롱
BOS
CAGR
Ok
kil
가한
교화
국명
도자
로어
비닐
성채
숙고
웅진
입니까
좀처럼
천명
하달
후루
##이츠
##NI
##백색
##ITS
상품명
Upper
Attention
Coherence
건너갔
은하단
##enchmark
##Sha
마그마
KCB
##Channels
갈릴레이
법조인
내림차순
KNOPPIX
리차드
저작권법
MongoDB
678
727
lim
nob
각인
고창
교동
들였
망루
방수
베드로
보디
습성
운석
원회
쾌락
풍토
##Year
##Co
##경제
##시카
comply
ital
acl
1453
OracleInterval
secured
464
explorer
할당량
BOX
Namelist
폴리네시아
아테나
responds
Broadcast
Recommendation
##onnection
enforced
Deletes
RETURNS
Ball
Kick
LMS
Xecure
pal
강압
노회
도색
배관
엄정
지카
찬스
친다
투과
##zy
##plan
##arams
1392
Allocation
558
factories
FILENAME
LOGGING
APPDIR
권력자
Consul
보건소
numerous
브리핑
이치현
랜드마크
비잔틴
annotations
남한산성
Keywords
그래미상
영등포
Tuesday
Due
Ir
Ze
fresh
fatal
rod
warn
궤멸
내쫓
미모
슬라
슬러
엠블
옮길
일마
임업
체첸
코니
쿠릴
##Op
##Iss
##타니아
##피에르
##씨식물
chanserv
1822
1633
objectives
endian
SYM
강화군
obsolete
노동자당
Changed
Capabilities
Employees
proxies
CATEGORY
XAC
wml
갑판
근연
라벤
마피아
모식
박경
신구
아모
여생
응집
테이크
##611
##리치
##은사
rear
기록원
CHINIT
교통수단
##UserData
알려졌으며
##quisition
와일드카드
Henry
Mandr
십시요
733
RUNTIME
VCL
burn
fif
다방
대머리
독실
디펜
마태
마포
맞섰
벨로
보보
보궐
수개
스맥
식성
식료
치를
콘스
토토
포용
헤라
화원
##uity
##fish
##어하
##돈나
idl
하이든
HUBHQ
Linked
COLLECT
combines
CFL
Certain
parsers
Resolving
##Description
테러리스트
Games
거물
경덕왕
김학
대뇌
발화
빈센트
상충
앨버
연마
좌랑
주스
키아
포즈
##Ext
##슐린
1816
APIM
다가가
자산운용
PRES
CRY
psz
소방본부
MsgDesc
브루나이
내세운
동인도
고조선
##haust
트루먼
Greater
pseud
##ospital
당분간
orchestration
BAL
PN
Royal
Sel
TID
nth
ot
결속
고후
군마
권투
기년
무당
문성
안도
연다
헨드
##데하이드
##산염
##oni
commerce
##ugin
##REMENT
##erciser
1405
Phot
Maintaining
virtualization
DMA
AVL
##Depth
captures
성숙도
쓰러져
벗어났
varying
naver
볼프강
HAR
NAK
Sold
fmt
sess
계양
내선
달라이
선방
성범죄
소도
수스
어필
이효
제각
종친
주공
철근
총량
화질
후시
##RQ
##FTP
##gar
##니쿠스
##리야
##enes
##actor
아이치
##ABYTE
439
INTSVC
하이델
과도기
남겨진
디아스
interrupted
실용화
시게루
리치먼드
Analyzing
IDENTIFI
심포니
623
ECS
HAD
Historical
hatch
결부
궁수
멜론
스니
쌓인
위세
인슐린
자폐
종금
종일
코우
##718
##main
##campus
##스퍼
stick
##unch
Adopt
preparing
Interconnect
USED
relates
스타인
시나노
buffering
##Enabled
655
Localization
BOOK
PowerPack
Minor
COMPANY
COMPONENT
Optimize
바꾼다
NDMS
아미타불
태극기
변증법
828
MEN
tip
개표
고바야시
두부
미요시
바레인
본기
애프
예속
읍성
일류
전곡
필리스
회중
##fy
##마을
1740
STER
##mises
배포판
703
554
exploit
051
집합체
DTM
terr
좋아했
이진호
##Position
후견인
스맥다운
Hal
Hobj
Lite
Pjt
TDC
came
dur
nil
rv
기틀
니스트
도핑
마커
메이트
밀어
바바
방조
벌칙
북단
스완
안다
의향
키움
포브스
항시
핵탄두
화북
##MGR
##모습
Stad
secs
##efine
WSH
요시카
##login
organizational
1763
받아들여졌
##initial
로렌초
아이스크림
황태후
CONTENTS
AXXA
599
ECH
FPT
KOS
VN
격전
관로
기주
반증
번들
브람
상체
샤오
수서
이직
임박
절실
준위
중학
타라
함자
형통
후신
##Hat
##널리
정보국
1838
unmount
autoc
다이노스
Weight
Relay
CMA
Addressing
페이징
열렸으며
Extender
##Scale
Thinking
webapps
사생아
838
Hew
Mr
TFIM
공주시
낙인
리언
보주
수마트
쓰리
유승
유폐
자력
지브
창씨
출소
츠카
타국
티오
##sthe
seamless
photo
심사원
472
markers
544
1603
서기장
포위전
불안감
Slack
의병장
Updated
토착종
블로킹
##Verb
ReplyToQ
배트맨
Fest
Rapid
국화
도합
동선
동식물
로로
모후
문란
바일
반열
빈약
아산시
앙드레
여종
음양
이코
진구
해답
후베이
##PGM
##분별
spread
1536
##ROLL
Strateg
생산물
LOW
imports
terminology
찾아온
priorities
brings
##스티안
주교좌
Tagged
아리랑
Grad
TERABYTE
Skill
##프로세서
wildcards
amqsput
아나키즘
델라웨어
PRIVATE
세일즈
##elocity
Bey
Foo
개회
괴뢰
김한
낭독
당좌
던전
무주
박승
버시
보카
산청
소변
아약
장경
청교도
초계
총알
총학생
코러스
키치
펀치
포틀랜드
##Final
##aign
##gence
##울루
##ilename
사이공
retries
##IDENT
basics
##304
체크인
SUBSEQUENT
캐나다인
guard
538
498
특이점
organize
출발점
오버헤드
WTX
브루노
Else
미완성
alphabetic
이완용
principles
fetched
linetype
eCross
액티비티
총학생회
CST
Rew
RAT
bai
sand
간청
난자
달렸
목걸이
베버
선서
욕심
조창
주어
주상
채움
최단
커질
퍼플
히말라
##eks
##Mark
##disk
##토바
##순위
##입자
##ional
##0010
1610
subrout
기타큐슈
blob
##PLIB
##Oracle
신문고
생물체
Postfix
보냈으며
200312010
할지라도
Terms
에뮬레이터
Ax
BAM
Ri
SOS
cy
tie
곤살
공구
누릴
반유
북로
산간
상근
위약
재보
톨킨
행시
##eight
##des
##Bank
##레우스
##는점
##enz
creator
0012
대학살
ERQ
4690
442
##MessageOptions
1403
RDP
ECB
LLC
IMG
Construction
이치로
입출금
Invokes
앞장섰
suggestions
##omorphism
auxiliary
semicolon
스펜서
Earth
Paris
ctrl
troubleshoot
고증
김장
녹지
다뤄
바하
불용
스쿠
앙주
와트
완도
울트라
잠복
정강
지단
징구
##Fetch
##장터
##징금
disabling
##ffee
MBS
608
결재권
querying
네덜란드인
레오폴
personalized
표지판
telephone
Incremental
Billing
반공주의
Trouble
physically
MODIFY
676
Djava
ie
zones
교학
군국
덧셈
수일
수뇌
울타리
전집
학창
##CENTER
##전쟁
##레트
##rog
assemb
##ebroker
##ivirus
리그컵
508
MQCMIT
##Listen
Defaults
정규식
크리스티나
Platforms
고문서
레지스
Digit
drilled
마운틴
BFILEs
risks
Determining
사가미
장문섭
716
lic
가우스
고작
문수
버블
부러
브론
시미즈
알현
역행
원예
윤철
인피
정약
철제
카노
콜레스
##onia
##aped
Closed
getObject
##ROOT
학생회
062
578
sqlplus
요시노부
chooses
되돌리
신상품
세분화
sdl
LMID
급기야
황도대
백두산
이회창
니케아
iSCSI
아약스
822
가파
냉방
마신
밀어내
주황색
지루
창덕
태상
토탈
패주
헤임
##나항공
##남동
##putation
Unexpected
actor
emph
Formatter
아시아나항공
severe
Scripting
APPLIC
1787
OraDatabase
##lands
workloads
abnormal
오비탈
denoted
Safety
##ROUPS
토폴로지
627
632
AIDS
hon
pain
괴팅
나한
남짓
다뉴
레퍼
매슈
산동
상투
시타
월등
전소
정공
출진
탈라
퇴계
학제
##achine
userName
재판장
BCDBA
grand
설득력
농경지
소용돌이
UUCP
히말라야
721
Vict
fg
nal
독단
랜디
상감
승합
엘리스
영연
은둔
이교도
재귀
제언
집시
치른다
편모
히코
##hs
##가키
##JA
##신경
##베를린
##oration
##orage
##istency
1512
Dell
unning
##ESQL
##priate
평균값
907
PMU
제주시
엘리엇
결론지
encounters
occurring
계몽주의
PDSE
Circle
워크스테이션
Often
717
CITY
도나우
마도
세브
손책
시판
안재
연필
일용
자영
지났
클루
테드
합장
##PERS
##마타
##겐슈타인
##atches
##otiation
##idirectional
spi
1828
설계사
Interim
607
자연환경
BEFORE
비트겐슈타인
1504
Reliable
##MBean
668
Unitflow
ETag
coupled
점성가
PICK
##Initial
dollar
맞배지붕
SIN
Ult
jcr
mng
거문
경구
고는
데인
도커
동률
모질
박차
본초
수메르
오목
우트
위아
유원
이월
전경
제타
제학
현악기
##실험
1620
나라장터
clicked
simp
477
1604
Emacs
1588
레오나르
focuses
정밀도
보르도
warranty
원내대표
브래들리
BIGINT
##angerous
internationalization
스캐닝
manufacturer
900544598
에트루리아
외삼촌
##민정음
812
AIS
Sche
xes
가니
가칭
낙엽
녹취
뇌졸
데포르
동족
마초
목화
섹터
수거
이공
장이
조참
증자
직할시
타키
페티
화신
##uitive
##ville
##KA
##우며
##오드
##천국
revert
bea
경기력
##aria
elem
보이즈
##Ins
supers
세포질
LOGREC
1304
Andrew
stacks
제일은행
시트르산
LPAR
##Alloc
GTK
##cellaneous
상류층
CMPS
실종자
##Params
experienced
versa
BUSINESSWARE
safety
fclty
비정규직
수마트라
콜레스테롤
lan
구자
구어
극좌
대적
루지
모레
미로
민가
민관
베가
송이
수온
써야
오동
이구
전륜
지날
천정
추석
퍼진
##하나
##igen
Things
Threat
1598
중앙아프리카
HTM
자유민주
공통평가
회의소
Shadow
468
##Selection
##리어스
동북부
submitting
201507
무너뜨리
BITcampus
pixel
threats
tuple
가트너
##해살이풀
레퍼토리
공통평가기준
단시간
동태
레이터
살상
신판
약학
에인
여태
출루
페라리
홀드
##bon
##VA
##니발
##HIST
##사회
##플렉스
##임수
##슬라브
extr
degrad
reseed
아니아
##arian
2147
##raud
##awn
Mailbox
소방관
CNN
Certificates
Continued
자이언트
succeeded
아타리
시리얼
고해상도
cookies
수류탄
621
626
921
TST
dossiers
jacl
ppp
고스트
관방
노숙
놓쳤
로코
사멸
소망
수관
온전히
원망
원주시
파드
필적
행이
황지
##Zone
##모음
##스텐
MQOutput
##ortium
##acker
1825
1510
STY
Unfortunately
##specif
Arm
occasion
ACF
461
GSCP
전망대
통지서
재료비
레오폴트
실업자
rectang
Equival
laws
서대문구
MariaDB
DIVISION
Growth
부가가치세
629
878
Want
categor
iWay
mars
qname
saw
갤러
건안
고어
교두
김시
나바
노년
누워
마돈나
메사
미우라
밸런스
생사
성직
영도
음경
정대
중문
증여
창세기
카츠
탈바꿈
풍기
훈민정음
##URI
##hl
##파스
교육법
아니할
encour
기념식
stateless
CTG
##Chart
올랐으나
complexType
personnel
다섯째
MODELS
0206
bwm
알레르기
제네시스
decrease
##YCLE
oppos
무궁화호
Traditional
면세점
Delimiter
Bre
Cour
UA
Zoom
cim
tang
계파
랭커
마틸
만찬
말린
불계
셔서
숙성
신단
아말
오닐
저당
저수지
콩쿠르
키타
퍼부
학비
현령
후이
##Site
##eveloper
##Tab
##데일
##암사
##sey
##acer
##advert
spect
라고도
1780
##TENT
2400
명령문
##CADE
targeted
Toolbar
전화기
Redirect
SDN
Packard
543
##소년단
전철역
살펴볼
##Items
##LIED
Teradata
앵글로
yields
원통형
무서운
TRANSFORMATION
Inheritance
다뉴브
His
NXA
Vf
Virus
mib
qmail
기만
다라
다단
무루
박태
생제르
성제
소마
신예
아루
웨일
장크트
전폭
탄탄
한마디
##sub
##acon
##ivil
##ADD
##shift
441
delivering
AUTHINFO
초등학생
연극배우
BizFlow
스탠퍼드
돌아온다
##groups
IMPLIED
canceled
gsk
Separate
Illegal
Dummy
ALLOWED
관공서
생제르맹
Face
wap
교배
분전
섬멸
신빙
쓰러지
아드리
열등
장택
전처리
추심
캡틴
콜백
틀린
##Bbs
##array
##istry
마이너스
Securing
CLOPT
Arc
##403
referring
447
베이컨
756
Decrypt
regularly
IGQ
yyMM
TILT
0995
131118
712
736
Pix
PAM
간염
갑오
구례
듀스
리저
버로
불태우
붙인다
살림
시암
심신
이한
한방
호날
##VAR
##재해
##클레스
##끄러
##식스
##ago
##emp
##former
기술원
측정기
WHILE
필리포스
multiline
갈라진
기울기
등지느러미
수감자
발신자
rounded
엄밀히
Detecting
##Guide
트레일러
추밀원
DCRUM
호날두
PIM
PTR
gcloud
zSeries
계란
관위
구식
디스코
리노
모성
세도
수계
에스터
이부
이형
주청
##Pers
##코더
##스테
cancell
##opher
suited
executables
Classification
마을버스
905
RESUME
크리스탈
trip
가시광선
수송기
voice
김종직
XCW
Materials
LETTER
Champions
ILINK
Saint
간간
로바
로젠
몬태
박격
버락
베를
상쇄
안달
양천
예리
우도
지뢰
현청
##SQ
##자드
##고양이
##물질
##평리
##퓨터
##edit
forum
##urora
spatial
중앙관
Alice
645
WSO
시티즌
RedHat
MQIAMO
여겨져
관측소
손해배상
aspx
하시모토
주세페
Pacific
모티프
코민테른
Fried
HCONN
WSP
bpe
fund
결손
남길
대당
밑면
수라
역습
인맥
절멸
즐거운
통학
##iate
##GROUND
##팽이
INACTIVE
retention
retailer
interchange
unrel
개인정보
전환점
가상현실
Prerequisite
개최지
Quarantine
858
rolling
후쿠다
세이버
AMRC
Exporting
NSCP
fdl
##Usage
맞물려
universal
MQRMH
Ly
Leader
tiers
각오
구석기
균류
금하
데메
도기
염료
정파
조견
커티스
퇴화
환초
##eer
##블린
##메네스
##색슨
##odings
##ades
asm
interconnect
##RCES
다운타운
Score
신용정보
473
태평천국
obtains
population
affecting
CURLE
jeusadmin
노스케
Blocking
합쳐진
골드윙
circular
배수량
도우미
setmqaut
관음보살
앞세워
아칸소
앵글로색슨
Daniel
KOR
Very
WDP
cgi
pd
sized
공덕
구운
급성
망막
벤피카
사연
초식
쿠사
테슬라
판다
형무소
히치
##Font
##bn
##HC
##행사
Convention
ids
MessageFlow
지방청
becoming
487
##153
474
562
콘스탄티노플
버지니아주
Airport
efforts
bracket
장단점
STARTED
expertise
CMQC
favorite
megabytes
네브래스카
신익희
뇌졸중
GIF
Hor
xl
검지기
글쓰기
라데
마거
배럴
산단
심도
접경
찬희
촌락
탈리
화전
##WAR
##cet
##xa
##구미
##개혁
##룩스
##itled
##aphor
수행원
##osystem
Unusual
CDMA
##601
스위프트
547
MQPMR
494
594
##auncher
AAHR
원리금
INITQ
MOCOCO
REPCAT
빈번히
sOrdM
investigate
글래스고
behaviour
데포르티보
Won
aq
dtt
개리
냉동
넓혔
다쿠
박중
승마
여분
이근
이보
익사
입힌
장구
쟁취
저온
칼레
케도
##노세키
##커우
spoke
##라이드
Spanish
##PEC
textual
##Information
시켰으나
자연재해
Archiving
guests
995
일시불
Exceptional
493
svch
EVAL
tbESQL
헤이그
OFFICE
##하이머
글리세
에버턴
압둘라
헬싱키
조병옥
##Elements
918
Aff
Cult
CWS
NK
감히
구라
길목
능통
대파
래드
레그
미녀
방형
빅토리
서에
아역
우사
이브라
태인
투고
호박
후백
##드라마
##erion
##ented
getM
provisioning
Entertainment
flight
xmlmod
603
tpinit
467
POA
##티아누스
PowerPath
근본번뇌
##Threads
Constructs
서북쪽
Wildcard
전광판
MMBCO
724
Bold
GFI
ICE
Qmanager
cer
fits
nom
경치
경학
낙랑
도정
리츠
매시
머피
미에
번번
비세
산발
스플
아토
완충
중학생
컬링
##Video
##슬란
1080
##apse
1826
editions
computation
인쇄물
##ontally
##Commit
INTERNAL
##azine
양산시
흘러가
##Numbers
스러웠
rotate
damage
언더그라운드
강우량
REGISTER
xmlmodifier
622
Lik
Tran
UAT
계략
로페이
만회
맨틀
봉작
애벌레
연어
올랭
장터
정태
조망
창안
##bin
##Mg
##BP
##oning
##edy
##alive
##itan
##urus
##irable
1811
1797
1005
JavaServer
##ensor
Delay
게이츠
롯데카드
나카노
Capability
안드레
##Descriptor
대각선
nodename
방탄소년단
Hewlett
DAC
DUT
fstab
mpc
nr
갔으나
노획
대양
만국
명절
모점
무분별
시주
어종
예편
조엘
친근
파블로
폐사
향로
##자재
##전차
##네르
##하르
##건적
##웨스트
##볼트
##ims
##umed
대상지
해야함
Interpre
STA
##CPU
regener
##undry
482
신고식
567
1406
SUPPORTED
오프셋
translates
12345
크레인
Hours
Feel
JAAS
Datatype
파푸아뉴기니
남아공
옥타비아누스
Capitol
OOO
Tips
lapt
odd
sizing
갖가지
기치
기물
기말
당면
도나
라운
로타
문부
미추
번복
실감
아누
오용
외경
원판
장흥
##FB
##SION
##Mail
##YORK
##GC
##ERVICE
##cles
##inthe
사회단체
COA
Enumeration
상대편
businesses
베르너
TRANSP
NEWYORK
벗어날
쫓겨났
##연구원
##Tracker
KSCC
922
roo
zeros
강물
고창군
공생
귀향
루소
마는
버즈
범하
보두
사구
섭씨
세별
시영
신공
아랑
엘살바도르
참호
체격
한시
할부
해구
##tml
##cision
##재란
##티우스
##남면
##댄스
##asm
energy
1618
개인주의
PCS
Logon
##AGMA
tooling
안내문
snf
여름철
664
improving
Entries
빠져나
##Upd
부활절
유가족
Retrieving
TLB
정유재란
titles
FQ
Kh
aaa
갑상
교우
당업자
조던
주둥이
폴로
##노동
##무트
##폭스
##복음
##뮬러
##eli
MQAX
##aya
itso
Conventions
1519
Instant
스위칭
PRAGMA
ENVFILE
산화물
IGN
김종필
BWMAgent
ovo
Vertical
애기박쥐
허베이성
고다이고
790
Ak
sion
미타
소독
슬럼
실라
암초
언약
영재
임영
잔당
투니
하체
합니까
호골
##mode
##보스
##림사
##isc
Inspector
ith
1590
getAttribute
Asian
8020
프리큐어
협력체
489
539
533
ALLOC
CREATING
Executive
##AINED
1703
Communicator
플라스마
conversations
##orizontally
오렌지색
다름없
irq
소시에
mqsistart
이야말로
조선왕조실록
MULTIPLATFORMS
CONTINUE
불계승
draft
gd
각주
남조선
도승지
리하르트
매료
메서
미겔
박규
북북
주술
짝짓
충원
##트론
##isa
##ATIVE
pragma
numbered
prime
029
Metro
##Clob
야구팀
466
청구인
contention
통일부
SKU
bootable
888
내각총리
APPLY
조제프
architectural
1701
STEPLIB
네이밍
빼앗긴
extracts
WriteLine
피스톤
experiment
polyline
consolidation
병마절도사
DYNAM
MPOOLFILE
FLEXlm
카리스마
내각총리대신
OPS
Pad
RU
RIP
다짐
무왕
실화
심혈
어진
에이지
의성
이로
장엄
직역
치이
크세
크릭
투병
항모
##LER
##rply
##Micro
##봉사
##메니스탄
##찰청
2097
##ectors
exhaust
imag
getItem
##IDB
##506
Assembler
ROUTE
mostly
##MOD
537
Hosts
placeholder
##UserName
넘어섰
periodic
에드먼드
1788
ENTITY
BACKGROUND
monthly
transforms
카스텔
투르크메니스탄
switched
##Selector
무척추
ccsid
713
AO
ALE
LST
OAS
권영
넘긴
돌풍
베어링
송달
양동
양당
연례
장령
청시
케스
특보
##bus
##장조
##량체
##파니
##컴퓨터
##럽트
##acc
subflow
Commission
Travel
ago
Scott
obl
##FTA
외국환
996
이스마
Booking
EZisV
리얼리티
szValue
enclose
무라카미
MQQSG
키르기스스탄
대검찰청
윤철중
Mas
hover
sold
단련
당부
동티
디디
리원
마킹
베아
봉승
술부
열중
일러
자용
자락
재조합
제이크
조식
파헤
호지
후각
흥덕
흰개미
##라나
##등기
##퍼트
##립스
##옵니다
##stood
MQMT
##ATT
ifconfig
1644
Std
##라이즈
##107
Commercial
Recipient
정규군
ebXML
esql
smallest
아랍인
skipped
부사관
simplicity
BLADE
미카사
unlike
##Arg
DESTIN
몰아넣
서남쪽
##연구소
hyphen
Wraparound
장택상
BID
Fib
Ho
aes
cx
istatus
거장
때리
보가
세베
신작
야코
연좌
이륙
장내
지소
쪽지
케이지
표식
##카라
##비우스
##행파
##ester
DBOT
인터럽트
##osa
Stub
trend
우승컵
Notation
대외연
Clicking
##Prop
0800
Linking
중대장
물리학상
NBP
CASCADE
uploaded
interacts
알레산
다이나믹
리바운드
shrink
departments
소시에다드
RL
dpt
강박
다의
라티
물의
밀수
북진
스나이
이프
장타
지에
출물
취락
폐교
##코비치
##레미
##쿠치
##장사
##emb
chunks
통합체
Still
SSE
PLM
459
움직인다
Identifying
1607
기자재
engineering
게이머
##versal
Approval
중합효소
불러일으키
opportunities
tolerance
BANCS
hundreds
안티고노스
observed
EAP
PURE
frag
그로스
금광
담합
동백
들인
부윤
사표
성정
성찰
수이
아의
야후
에렌
옆구리
옵니다
응고
인솔
장론
종시
파룬
합한
혹평
##bm
##전하
##관광
##기기
insp
관리국
1660
1624
disad
stateful
Explain
Disabled
Functionality
Redbooks
보인다고
##VOs
Technique
미술가
Visit
유니온
multimedia
sorts
numerical
ipcc
1689
진보당
스톤스
##Namespace
##Details
tvo
Afric
figures
Fabric
타고난
파룬궁
Cci
Gro
SCP
SLS
광종
끊기
노령
막론
망상
명주
베리아
에니
우랄
정연
친하
튀르
퓨전
##car
##GUBUN
##HB
##바람
##티드
##마뉴
##orec
chains
typeof
##spaces
##AGING
phases
##eller
##DIATE
552
합격자
OraDynaset
recoverable
PORTAL
밀리미터
소지자
이뤄지지
violations
이범석
815
DLT
ZX
게일
궁지
귀이
놀랍
도독
득한
만석
부마
서던
시로
알토
유병
의왕
침전
케니
코더
콘월
파노
합천
후천
##Cipher
##오밍
MQADMIN
통합진보당
##figure
1680
바이든
CLX
Disabling
issuer
사무처
tpforward
449
Regard
Executable
기지국
LEFT
티베로
밀려나
FEED
Improved
구스타브
STOCK
시부야
마에다
노브고로드
oreilly
Jr
김석
막바지
망라
반일
불펜
소산
안구
외세
율곡
은사
이세이
조그
체이
체세포
호러
호송
##Lang
##더릭
##에리
##슐리
##acenter
##ups
##estination
docx
추진력
##IBLE
765
582
##ahoo
1784
Macro
코미디언
FreeBSD
OTMA
Poly
tpsend
오를레앙
컨버전
엑시트
##Employee
어딘가
##ploys
마거릿
Folio
GSE
PIE
TIO
zh
도리어
방망
세타
액정
연개
하세
헤이스
호우
##권택
##XB
##zas
clsf
1641
provision
IPX
호출기
647
certification
##netic
Tooling
Assume
pressed
loopback
요금제
personalization
DEPTH
##거래소
사이클론
responding
composition
UBIZ
부제학
스포르팅
underscore
##Datum
opposite
913
LNG
gc
고주
도치기
독거
레고
로베르트
메우
반시
요아
울음
원추
유이
인회
코다
판권
해류
호시
황궁
휴맥스
##BF
##하늘
##어난
##JP
##여왕
##젤란
##메데스
animation
##riage
거래제
형태소
ITSM
passphrase
##114
지휘봉
기념사업
549
취임식
코르테스
Rolling
##Parent
고르바
확고히
레즈비언
##omorphic
오하이오주
사천왕
초음파
다닌다
다년간
##mqlsr
kilob
722
과천
관철
김세
미코
방비
사계
용구
용법
우쓰
유혈
은닉
전근
청건
코바
탐욕
테베
##function
##도어
##보라
anchor
Their
##perature
##ording
제작비
LOAN
604
Notices
DesignCenter
bookmark
예수금
태그팀
매일신보
subtree
District
핸드볼
Latin
플루트
마이크로프로세서
피에트로
줄어드
Scalability
무형문화재
Germany
클라리넷
DFT
Gather
Kr
SUI
oj
uk
가인
경은
고충
과대
극성
기혼
난입
농노
돌이
뒷부분
리문
명맥
보츠
선망
유모
이과
입건
채운
최북
카토
쿠시
토고
포구
호엔
휘두르
##아져
##브산
injection
##etta
##seq
##irit
chown
1648
1770
1777
recreate
리그전
##itsu
판매자
mainframe
부산물
비트맵
866
전반전
만화책
resolver
유학생
SECOND
##Indi
공감대
풀려나
##타고라스
EXPIR
울릉도
참정권
고르바초프
DMB
Fit
FAC
Gra
LDS
UAE
VV
fee
jax
고이즈미
기표
김나
덕수
동두
듀크
레미
로스터
미안
부점
서산시
소치
실드
오두
오존
원술
종과
추서
##rical
##dump
##vb
##was
##사병
##막염
##즐랜드
rewrit
##STA
0006
CHNG
agre
##oker
verbs
675
게이밍
스티커
Moreover
Republic
Geography
동북쪽
블리자드
20100615
유태인
DERBY
637
Pap
Son
bf
eval
gig
grace
iT
rq
tuxedo
vb
yaml
결원
누각
덩굴
마한
보답
비워
색슨
선결
속씨식물
옴니
재분
적서
적기
천적
총지
최재
칠곡
퀸즐랜드
풍력
피루
해져서
##Runtime
##rain
##rases
##Me
##done
##준수
##연맹
##시도
##왕국
##옴표
##iner
stability
##uses
1433
OracleData
disaster
대해선
getData
IPPR
Descript
808
공급원
MOU
DATAFILE
Driven
출입증
##프리드
Bandwidth
TxRPC
rapidly
##TEMPLATE
GOODS
안중근
창덕궁
AAB
Sky
ams
dentry
loose
pict
가압
교복
국물
맛보
미오
병리
빌리지
살균
엘지
연골
옥천
재량
타오
패미
홈플러스
##SR
##boot
##vial
##Ctrl
##하스
##inus
exclus
##ayer
enjoy
##assis
##STORE
기록부
##ENDED
##ICA
현대캐피탈
##CIB
communicates
572
Nextree
##EPH
LISTEN
Signing
플라자
건국대
indicators
EMR
수호자
김경엽
불어넣
Enhancements
bulletin
Independent
DataFlowEngine
반유대주의
746
CRC
Hence
RBG
김안
드니
메이드
배너
보니파
빠진다
수난
영하
유류
육류
재야
총력
폐간
폐단
하디
해주
##TERS
##레프
##성이
##메오
##보증기
##ptype
##ado
##ourney
사이키
##tings
arran
decom
성장기
##701
ROWS
인사이트
TmaxSoft
cardinality
542
875
JSF
근본주의
글리제
원종공신
관동군
가부장
nyi
무찌르
##보증기금
778
Better
FDA
XSS
led
tid
건당
구워
도체
미용
불합
순천시
에린
주방
진법
차액
찬드라
피시
행할
회합
##코바
##링거
##벌리
pricing
##UTH
2200
DELI
Specifically
##ListView
575
Restoring
meanings
tpgetrply
somewhere
캔터베리
PMP
QUAL
걸스
고단
렀고
마세
만리
부원
연작
오에
잔기
정설
코페르
포뮬러
##데사
##스틱
##항력
##장자
##거루
##콘티
##ctor
Proof
1823
runlevel
relations
648
Dispatcher
HOW
20180
superv
556
에이커
##스티누스
신인왕
트레이너
Johann
비스콘티
가나자와
달려가
무너진
농림부
DBJU
Circ
알베르토
아쿠아
카네기
브람스
634
CID
ECO
LOND
WDI
hi
hdfs
공청
꾸려
나주시
다원
면화
민선
배율
야채
페가
항법
호이
휘트
##Fac
##어놓
##살라
##메이트
1616
acqu
planned
전투력
##ridges
641
##303
909
trial
카이저
iterators
Calc
CASH
불명예
summarized
##브레히트
페미니스트
징병제
주정차
formerly
LONDON
Caution
ogm
rsp
눈부
대식
레르
만지
매표
알카
에리트
웨이트
장항
타현
탈수소
##del
##호르
##ximate
##지변
##오린
##연대
##천년
##plane
##ecl
imm
variations
20060
##Exchange
LGM
지배력
##Contents
timeouts
granularity
Summer
IVR
나타났으며
늘어날
OPTIONAL
시에라리
주머니쥐
천재지변
lightweight
Orchestration
##ombard
OTHERS
Establish
Initiator
INHIB
시에라리온
Emer
Pier
Sen
SNO
mak
oci
wmb
김문
단성
밤중
생후
서간
소감
소선거구
수유
승소
알론
연사
우타
입소
처단
##VU
##제사
##개석
##erk
##erate
proposed
문화사
##REG
TPRETURN
schemes
스트라스
##ediation
1503
564
565
Others
초대칭
CAF
Appliances
Smarter
##comes
Completed
##ahn
LPAD
요코스카
유가행파
demonstration
recommendation
##ENCY
시라카와
eliminates
시어터
캔자스시티
JUICE
yyMMdd
Sund
ri
리카르
마고
머릿
묘호
반민
번거
소서
양해
어가
어다
위니
윤선
이징
천태
체재
카잔
칸타
하카
후두
##Route
##카테
##비어
shaft
queueManager
Extra
##claim
##202
DataStage
selectOrdCard
Respond
assistant
036
##Inventory
replicate
1509
Abort
크리스틴
ILinkPut
##MsgOpts
군단장
영지주의
KOA
##CONNECT
arrows
끌어내
술탄국
Below
디나모
올랭피크
DTP
IOT
Mnet
Schemas
faces
도코
레이드
면은
미움
씨름
올린다
윤회
이따
이족
전황
정역
중주
트라우
펀딩
픽션
하츠
허들
회랑
##시프
##시다
spend
1827
queueName
REVOKE
아이파크
##eps
전쟁터
##104
대응책
Backout
Assessment
dateTime
DateTime
685
Restriction
블러드
deactivate
조폐공사
CLEAR
어드밴스
박격포
896
Fiber
LTO
dog
구주
넥슨
달래
만능
발단
시운전
신촌
심소
전령
커트
탄환
헤딩
##eet
##bars
##MNAME
##투르
exercises
datafiles
1615
전체주의
publishes
applid
Edward
understood
가져옴
하이닉스
매개체
의존도
공학부
상관없
contacts
생태계
경사면
아랫부분
SUSPENDED
서귀포시
rarely
TRANSPORT
Gar
RST
har
ka
가봉
가메
궤간
내사
방황
불멸
스털
연평
예우
이덕
지파
초회
##LQ
##Lookup
##tk
##HER
##재기
##agger
##ulas
##izz
1614
Choice
##ANA
##CTR
unc
##ynomial
submission
034
인도인
initializing
looked
terminating
밝혔으며
점령지
##FilePath
베르디
reqSha
일어났으며
서양식
모여들
simplified
PTF
가져와서
INCREMENT
confidentiality
811
895
935
HAS
ULOG
bur
간지
단념
매튜
미제
상과
새천년
서하
서아시아
오수
참관
침착
페데
페레스
포사
품계
##hall
##지리
##더기
##경궁
##무드
##itely
1829
IDOC
##aka
SWITCH
##configured
DOCTYPE
스포트
combining
마쓰모토
insensitive
프라이스
Present
Sensors
EQU
이오시프
enclosing
Resolve
alphabetical
페미니즘
predictive
nbsp
104857600
wf
로런
몰살
바예
반야
부탄
안상
의서
조동
착한
헬렌
##Pages
##His
##페리
##attr
inclusive
administering
resistance
IPT
XMLSchema
entrance
Recall
스트라
자치령
하이웨이
##Setup
OneAgent
497
885
775
psql
679
ADMINIST
participant
강릉시
reflected
유성구
briefly
CHLAUTH
DASD
자부심
##슈타트
Azure
정반대
프로테스탄
aku
사보이아
오와리
DbMpool
불합격
heat
pet
난간
디맨드
라사
몰렸
성충
열반
위문
으라고
정과
정여
주살
태사
토드
한니발
##RFC
##소네
##보냈
##젠더
1750
unload
Shipment
Portfolio
##227
548
Licensee
알아냈
bounded
해설자
Separator
CBEFF
MQCFSL
외할아버지
Academy
조견표
Fully
WP
fold
ml
uuc
xc
김범
드나들
북조
사스
세실
슈뢰
안데르
안후이
알브레히트
여장
외동
유장
일까
입적
증직
차리
총신
해럴드
형이상
##가쿠
##아졌
##메트
befor
##INI
getProperty
표시기
wrapped
연주가
758
997
수사관
588
기재사항
Validates
Distributions
워싱턴주
유의미
nearest
토착민
괴롭히
샌드위치
휴양지
Monday
Slackware
726
IRS
KL
cooper
night
광석
교신
귀납
그중
냉정
녹스
담화
뒤지
명지
살롱
삼부
상보
이교
재연
쥐라기
트크
퍼레이드
포시
##Finder
##vo
##기획
##난히
##formance
1570
OracleCommand
intensive
Interrupt
assess
para
교회법
MQIACH
considering
밝혀냈
concrete
crashes
skill
Margin
블루투스
못한다는
분화구
샤를마뉴
Concurrency
아즈마
미네소타주
휘발유
rerun
Predictive
DbMpoolFile
635
Cob
DIG
EW
OIL
Say
고영
데시
떨치
생몰
선왕
성현
셰이
수능
아구
응축
퀴즈
페터
합방
향리
##RESS
##paramet
##UCCESS
##CB
##간드
##돼지
##igm
Closing
게임스
appar
037
차량기지
tpde
061
부대원
눌러서
Constraint
콘스탄티노스
HJS
Palette
RESOURCES
진동수
교섭단체
##Alias
Limitations
Marie
permanently
##unsol
DEPLOYMENT
IMMEDIATE
무척추동물
735
Braz
CMT
DPL
Han
XF
ZENTER
nps
vx
거창
겸비
고즈
궁주
덤불
디온
라메
만력
밀스
브라이언트
빗물
수전
수고
신천
음소
편수
하다
##pet
##UA
##Tim
##정책
##루트
##esthe
canonical
APN
1515
##Console
##502
mainly
법률안
FORWARD
삼성증권
문학사
Height
광주시
constitut
사회주의자
joining
MsgFlow
Facts
의결권
VTL
Relationships
증손자
라그랑
##Subscriber
##ichever
레오나르도
JK
UFO
ck
eye
grip
가처분
고함
라이터
리나
명실
뱀파이어
생가
선풍
세율
스퍼
양부
양평
의외
천리
흡혈
##HI
##행정
##궤도
##ece
시간표
계획표
##IDAS
UserID
20001
deck
704
이끌어냈
##roph
비행대
베르그
##atalina
855
Signed
macOS
나카소네
크리켓
truststore
다다요시
Skills
플루오린
파이어폭스
경작지
노스캐롤라이나주
MQQSGD
스털링
ZENTERPRISE
638
NNL
RIA
Taylor
birth
남측
납세
들판
라야
레일리
레너드
루르
리티
버로스
브리트
성상
슐레스
식단
신숙
아저
위클리
유린
이베이
일신
전갈
제회
탈옥
후버
##SERVER
##거슨
관리원
장애인
아이패드
importance
TBC
mapper
slab
concerning
천문단위
sensors
에르빈
fsck
슬라이더
발트해
Drilling
affinity
##Management
INCLUDE
federated
Electric
게오르기
queried
식료품
가파른
svchp
Categories
chem
sdk
간장
관보
구나
그걸
밑부분
배합
본회의
분대
성북구
엑세스
의금
의종
이클
자객
정장
젤리
종실
초고속
호라
홍명
##sets
##레마
##노신
##삼문
##해져
##던지기
##arer
##ila
##adapter
withdraw
clr
spacing
1758
substant
repet
내려지
1609
tagged
RTRIM
나카모리
securely
##APPV
저널리즘
MQTM
모른다는
dropping
SMEAI
dryer
규장각
괴팅겐
이클립스
GF
GRE
TSP
dy
녀석
누명
버나드
비크
사증
사극
아코
음극
졸라
직인
질감
카톨릭
타다
표어
호진
##LING
##SUB
##svc
##MY
##Ymd
stem
지원군
##ORARY
Trunc
Api
##CLS
스트립
전사자
스코트
Goal
번역본
RESTRICT
playing
##Author
xsql
푸른색
WMLScript
REMOTEQ
MQWIH
바울로
indirectly
공양왕
Propagation
914
Jones
PASE
나니
로테이션
매드
베일리
선량
수훈
순정
승천
시성
신승
심슨
입교
전군
지갑
클론
페론
##모자
##제곱
##JOB
##누아
##시계
##눌프
##icus
ascii
recpt
OSE
사고방식
ags
##viewer
아르눌프
906
SIEM
##르트르
루이즈
Capital
HRD
concerns
소시지
Webservice
9001
BDE
CY
VISA
Wood
fol
rf
그린다
당도
리파
보사
불의
선데이
성층
성내
수찬
순치
시구
시경
오피
유르
홍대
##vision
##Network
##오버
##oria
spam
Seed
영화사
알려야
TRA
Secu
PLU
##709
Overrid
profileName
Redhat
이스턴
식물원
597
787
드래건
BRAN
Tagging
PROPAG
happening
rsync
피난민
##Txn
성동구
주유소
상파울루
Challenge
총영사관
해왔으며
##NotFoundException
코페르니쿠스
아저씨
KCK
RANGE
sel
그립
근태
근절
민의원
선후
애도
어라
영속
익주
인티
주필
체구
하밤
회자
##DAY
##그란
##덜랜드
##asp
1110
1778
##ICATE
OSG
3270
libmqm
국민회의
##ADT
##407
SHUT
authors
불가항력
568
assignments
kernels
그려졌
모리슨
unsolicited
shutting
offerings
Optimizer
fbfr
JPG
YMCA
에뮬레이션
유망주
연해주
지린성
생김새
에인절
945
Aspect
Jon
PUSH
SAME
Vit
낙관
눈앞
백그라운드
불이행
비무장
성왕
순응
오경
우화
위엄
작인
초간
항저우
핵실험
헬라
휴면
##nl
##병원
##wh
##타야
##Cookie
##Hub
##소니
##보고
reve
##emann
##under
##ails
Staging
##click
REV
getInstance
variants
군사령
에너지원
extending
656
1409
CRED
COLOR
661
FAU
카이두
경향신문
Highway
출생지
##HOST
세르비아인
REMON
오이타
아가씨
stanzas
Hierarchies
mqsistop
애호가
##onomous
Wes
jt
각계
감속
겸손
경리
로런스
메로
밀교
방한
복고
뽑히
서군
수혈
양치
어간
엄중
웰스
장력
지토
포티
핵폭탄
##ITED
##차크
##틸렌
##rik
sequent
keying
마이니치
Explicit
##context
OpenAPI
##ListController
Starts
고용주
GSR
##grep
Veritas
평화통일
589
concent
ETR
Repair
트랜스젠더
mutually
합법화
hyperlink
가야금
김유신
BmsLnkCom
##Decl
에반스
에두아르
명륜당
산체스
selectOrdCardList
AST
Living
Men
eated
rg
구보
단양
대축
딸린
라부
마의
모계
수에
신간
였으니
요시오
유종
자위대
케로
크라스
하쿠
해면
호치
##Ap
##Shell
##yun
##그러
##우병
##천후
##곡면
##amin
orth
MQOT
##스트로
DBCS
invoice
Workplace
mqsim
슈퍼마켓
oldest
1786
1785
발명가
아틀라스
mission
plaintext
사림파
카세트
tpsvrdone
시즈오카현
이와테현
교두보
슐레스비히
GDS
Jim
Obj
wt
기류
동고
망설
별관
유품
전횡
정철
츠나
크래
표류
항등
##뿌리
##etic
Cha
libs
libmq
계산기
찾아갔
##afunction
PGA
1104
요리사
교토부
WinCE
알파인
모집단
초전도
KK
TIM
citiz
rsh
격분
노던
덴분
루아
리버스
보문
비축
승패
왜적
외피
이을
진과
초능력
코칭
해법
화친
황갈색
##Audio
##bird
##르모
##가슴
##쿠젠
##zi
##케라
##포인트
##rote
##rey
intuitive
##PLC
encodings
Shar
인도양
associates
754
753
654
1209
##5678
667
터키어
AMIDAS
opaque
WTC
재개발
클라라
맞춰서
Insights
MEDI
antivirus
컨셉트
적시타
##build
포터블
수녀원
UNDER
청계천
브루크너
EMDI
734
944
GMP
HPS
JUnit
Pip
QUE
TIS
계장
길가
나시오
리기
리플
리딩
석학
윈난성
지망
총상
펠레
##OF
##LAY
##니엄
##치산
##플랜
##넬라
stake
1018
engn
1650
producing
Secur
##UMER
자연사
9080
confusion
048
5500
myapp
569
541
할인율
happened
informed
전자기파
날카롭
맞물림
천주교회
Browsing
Virgin
HANDLER
HADR
나시오날
725
GUBUN
Slow
VH
bip
cash
wise
굴곡
궁예
급성장
김보
노미
득하
병영
분투
속초
송치
에히메
이분
이젠
접할
정용
조산
지의
집현
친교
크롤
필살
합천군
허무
##Sn
##craft
##kim
##Panel
##won
##뉴스
MQEPH
##ALIAS
##ROC
preparation
corre
이탈리아인
SCR
득점자
##스턴트
utilize
pspt
Adaptive
해산물
TIER
FiSS
treats
자존심
호찌민
revoked
799
Fun
Heat
OCC
Py
RPT
hope
irr
pam
rare
고운
람보
미쳐
수첩
스커
신겐
알린
오기
완산
울주군
윈터
육식성
일직
접견
종용
체리
춤추
칩셋
카오
토피
투데이
팔각
플뢰
홍준
##Wh
##aper
##계사
##개명
##막이
##궐선거
compensation
프로펠러
##iral
OracleAQ
workaround
035
##console
Train
deselect
Workflows
finite
상륙작전
되돌아가
BUF
##Authentication
20031201104
##Parse
히로시마현
모터사이클
문하시
##checked
Privilege
중견수
EXCLUS
CATALOG
acknowledgement
literals
에볼라
toggle
20031201095
재보궐선거
최북단
피루브산
731
Dance
cables
kHz
wall
계명
고군
끊어진
마로
마제
물음
보단
심했
우이
위드
정칙
조나
조짐
집대성
쿠리
티르
##FX
##권력
##버라
##사랑
##니다드
valued
envir
Exclude
표준궤
아이피
트리니다드
mydb
reduction
DSA
1507
577
평화상
감지기
braces
NUMERIC
IRIS
사카모토
demands
malicious
REPOSITORY
BLADECENTER
Firm
ODC
OGM
Sector
euc
lf
공회
디어
디시
라코
박세
신데
아픈
약체
외젠
월보
유유
유약
잎자루
저속
적혈구
절개
즉석
칠성
키라
키나
토비
페름
함의
해동
허영
##Fi
##미치
##진흥
##피오
##림동
##term
1580
1530
1774
scp
##1231
##ADATA
phrases
mini
TABLES
Reads
682
주간지
넘어선
672
다카시
##hesis
TCARD
테크닉
MQMF
Hotsp
serving
홀로코스트
billion
목판본
개그맨
오름차순
03926
PERFORMANCE
페더레이션
##Compute
보두앵
PASEAI
PAP
mari
ostream
괴로
극소수
금상
김효
도노
돼야
알릴
야로
의안
정순
정육
증산
트러스트
포경
행했
##슈랑스
##ERING
하나하나
##MLONG
##122
election
portlet
rowid
SUBSCRIB
semi
OFFSET
PAMLONG
Slot
LSN
드래곤즈
하이퍼링크
TPNOTRAN
페니키아
방카슈랑스
시크릿
최남단
925
Pu
SAT
Tube
ion
과소
나방
농수
누벨
로자
멤피스
목축
문교부
비장
순사
어이
요네
요안
원성
카멜
캔버스
파탄
행차
##RATION
##린더
##착오
##빼미
1250
지원병
1526
한국독립
subprogram
경제력
hands
Notifications
##netes
시행착오
041
##FIF
민원사무
정신병
Packaging
마스터플랜
에스테
감염증
Keeping
크롬웰
Medical
맥도날드
옥타브
요시쓰네
한국독립당
728
748
Et
Eu
JCO
KVM
Lux
NRM
bh
horizontally
mgr
vc
간척
거둘
골반
몬트
밀턴
방랑
성급
성추
신디
완주
은색
이레
일레
헌제
회군
##rate
##van
##Prm
##고시
##사우스
##시우스
inclusion
##utes
##006
excel
prm
아이유
memo
deciding
MQSD
702
신용장
##NOT
더욱더
redistribut
markup
allocating
옮겨져
스파이크
Putting
[...]
