[PAD]
[UNK]
[CLS]
[SEP]
[MASK]
"
'
0
1
2
3
4
5
6
7
8
9
A
B
C
D
E
F
G
H
I
J
K
L
M
N
O
P
Q
R
S
T
U
V
W
X
Y
Z
a
b
c
d
e
f
g
h
i
j
k
l
m
n
o
p
q
r
s
t
u
v
w
x
y
z
ㄴ
ㄷ
ㅁ
ㅇ
ㅣ
가
각
갂
간
갈
감
갑
값
갔
강
갖
같
개
객
갤
갭
갯
갱
거
건
걸
검
것
게
겟
겠
겨
격
겪
견
결
겸
겹
겼
경
계
고
곡
곤
곧
골
곱
곳
공
과
곽
관
괄
광
괴
교
구
국
군
굴
굵
굿
궁
권
귀
규
균
그
극
근
글
금
급
긍
기
긴
길
김
깁
깃
깅
깊
까
깔
깨
꺼
꺽
께
꼬
꼭
꼴
꾸
꾼
꿀
꿈
꿔
뀌
뀐
끄
끊
끌
끔
끝
끼
낌
나
낙
난
날
남
납
났
낭
낮
내
낸
낼
냄
냅
냈
냉
냐
냥
너
넌
널
넓
넘
넣
네
넥
넷
녀
녁
년
념
녕
노
녹
논
놀
농
높
놓
뇌
누
눅
눈
눌
눔
눠
뉘
뉴
느
는
늘
능
늦
니
닉
닌
닐
님
닙
닛
닝
다
닥
단
닫
달
담
답
닷
당
대
댑
댓
더
덕
던
덜
덤
덧
덮
데
덱
덴
델
뎁
도
독
돈
돋
돌
돕
동
돼
됐
되
된
될
됨
됩
두
둔
둘
둠
둡
둥
뒤
뒷
듀
듈
드
득
든
듣
들
듬
듭
듯
등
디
딕
딜
딥
딩
따
딱
때
떠
떤
떨
떻
또
똑
뚜
뚝
뛰
뜨
뜬
뜸
뜻
띄
라
락
란
람
랍
랑
래
랙
랜
램
랩
랫
랭
략
량
러
럭
런
럴
럼
럽
럿
렀
렇
레
렉
렌
렛
려
력
렦
련
렬
렴
렵
렸
령
례
로
록
론
롤
롬
롭
롯
롱
뢰
료
루
룩
룬
룰
룸
룹
뤄
류
륙
률
륨
르
른
를
름
릅
릉
리
릭
린
릴
림
립
릿
링
마
막
만
많
말
맑
망
맞
맡
매
맥
맨
맵
맷
맹
맺
머
먹
먼
멀
멈
메
멕
멘
멤
멧
며
면
멸
명
몇
모
목
몬
몰
몸
못
묘
무
묵
묶
문
묻
물
뮤
뮬
므
미
믹
민
믿
밀
밋
밍
및
밑
바
박
밖
반
받
발
밝
밤
방
배
백
밴
밸
뱅
버
번
벌
범
법
벗
베
벡
벤
벨
벳
벽
변
별
병
보
복
본
볼
봄
봅
봇
봉
봐
봤
부
북
분
불
붉
붕
붙
뷰
브
블
비
빅
빈
빌
빗
빙
빛
빠
빨
빼
뽑
뿌
뿐
사
삭
산
살
삶
삼
삽
상
새
색
샌
샘
생
샤
샵
샷
서
석
선
설
섬
섭
섯
성
세
섹
센
셀
셈
셉
셋
셔
션
셜
셨
소
속
손
솔
송
쇄
쇠
쇼
숍
수
숙
순
술
숨
숫
숭
쉘
쉬
쉽
슈
슐
스
슨
슬
슴
습
슷
승
시
식
싞
신
실
심
십
싱
싶
싸
싼
쌍
쌓
써
썬
쏘
쓰
쓴
쓸
씀
씨
씩
씬
아
악
앆
안
않
알
암
압
았
앙
앞
애
액
앤
앱
야
약
양
어
억
언
얻
얼
엄
업
없
엇
었
에
엑
엔
엘
엠
엣
여
역
연
열
염
엽
였
영
옆
예
오
옥
온
올
옮
옴
옵
와
완
왔
왕
왜
외
왼
요
욕
용
우
욱
운
울
움
웃
웅
워
웍
웎
원
월
웜
웠
웨
웰
웹
위
윈
윗
윙
유
육
윤
율
융
으
은
을
음
읍
응
의
이
익
읶
읷
인
일
읽
잃
임
입
잇
있
잉
자
작
잔
잘
잠
잡
장
잦
재
잭
쟁
저
적
젂
전
절
점
접
정
제
젝
젠
젤
젯
져
젼
졌
조
족
존
졸
좀
좁
종
좋
좌
죄
죠
주
죽
준
줄
줌
줍
중
줘
쥴
즈
즉
즐
즘
증
지
직
짂
진
질
짐
집
짓
징
짜
짝
짧
째
쪽
쯔
쯤
찌
찍
차
착
찬
찰
참
창
찾
채
책
처
척
천
철
첨
첩
첫
청
체
쳐
쳤
초
촉
촌
총
촬
최
추
축
춘
출
춤
충
춰
췌
취
츠
측
층
치
칙
친
칠
침
칩
칭
카
칸
칼
캐
캔
캘
캠
캡
커
컨
컬
컴
컷
케
켓
켜
켰
코
콘
콜
콤
콩
쾌
쿠
쿨
쿼
퀀
퀘
큐
크
큰
클
큼
키
킨
킬
킴
킵
킷
킹
타
탁
탄
탈
탐
탑
탕
태
택
탠
탬
탭
터
턱
턴
털
텀
테
텍
텐
텔
템
텝
토
톡
톤
톨
톰
톱
통
퇴
투
툴
튜
트
특
튺
튼
틀
티
틱
틴
틸
팀
팁
팅
파
판
팔
팜
팝
패
팩
팬
팸
퍼
펀
펌
페
펙
펜
펴
편
펼
평
폐
포
폭
폰
폴
폼
표
푸
풀
품
풍
퓨
프
픈
플
피
픽
핀
필
핑
하
학
핚
핛
한
할
함
합
핫
항
해
핵
핸
했
행
향
허
헌
헐
험
헤
헬
혀
혁
현
혈
혐
협
혔
형
혜
호
혹
혼
홀
홈
홍
화
확
홖
환
활
황
회
획
횟
횡
효
후
훅
훈
훨
훼
휘
휠
휴
흐
흑
흔
흡
흥
희
히
힌
힐
힘
힙
##르
##소
##나
##D
##F
##s
##I
##C
##c
##f
##i
##l
##e
##x
##상
##담
##응
##대
##X
##러
##T
##R
##O
##U
##N
##a
##v
##t
##o
##n
##y
##p
##u
##r
##d
##m
##S
##g
##h
##k
##4
##6
##1
##5
##2
##8
##3
##0
##7
##J
##V
##진
##동
##M
##A
##b
##w
##G
##E
##P
##L
##9
##H
##구
##Z
##전
##화
##금
##박
##민
##B
##Y
##q
##강
##j
##디
##발
##z
##W
##단
##트
##머
##스
##K
##남
##납
##났
##낭
##낮
##찰
##두
##Q
##능
##아
##리
##조
##선
##통
##비
##프
##젼
##게
##무
##역
##재
##타
##업
##데
##방
##산
##간
##다
##는
##안
##수
##편
##감
##증
##림
##정
##여
##자
##윤
##치
##마
##킹
##주
##철
##원
##청
##을
##세
##우
##록
##축
##도
##로
##피
##훈
##점
##병
##호
##포
##브
##류
##근
##희
##택
##샘
##미
##승
##야
##부
##중
##터
##목
##착
##양
##당
##물
##닝
##훼
##토
##위
##어
##지
##냈
##에
##실
##렛
##겨
##져
##서
##파
##운
##드
##그
##인
##칙
##문
##연
##히
##경
##삼
##범
##식
##장
##와
##환
##규
##시
##효
##과
##익
##획
##언
##요
##일
##듀
##케
##이
##션
##막
##벽
##내
##닷
##컴
##따
##적
##각
##형
##준
##신
##랙
##추
##보
##네
##람
##례
##성
##만
##레
##석
##뀐
##해
##색
##망
##농
##크
##립
##격
##묵
##려
##쿠
##버
##맹
##국
##사
##분
##표
##알
##의
##후
##바
##계
##춰
##충
##제
##현
##고
##음
##씨
##척
##학
##균
##료
##관
##링
##본
##복
##기
##거
##하
##컷
##존
##월
##영
##들
##블
##군
##임
##톨
##릭
##량
##권
##옴
##종
##빙
##숙
##항
##워
##채
##널
##은
##법
##론
##슬
##렦
##텝
##맨
##집
##용
##왕
##면
##벗
##술
##회
##며
##센
##교
##입
##절
##판
##명
##력
##활
##엠
##란
##암
##난
##칩
##니
##태
##가
##릴
##굴
##광
##온
##답
##꾼
##팅
##등
##혹
##먼
##개
##함
##찌
##객
##였
##넓
##테
##혀
##체
##령
##켜
##탐
##카
##속
##률
##열
##켓
##큼
##씩
##한
##탄
##품
##훨
##라
##곤
##친
##홍
##움
##험
##평
##래
##짐
##손
##티
##엄
##천
##오
##되
##맵
##ㄴ
##약
##락
##독
##닌
##으
##말
##설
##값
##급
##든
##년
##빗
##름
##차
##백
##층
##결
##같
##귀
##팀
##휘
##엽
##북
##건
##애
##읶
##촉
##짂
##공
##할
##털
##렉
##노
##까
##별
##킬
##옵
##쇼
##질
##벨
##헌
##협
##쓴
##텍
##길
##행
##모
##심
##튜
##덕
##쳤
##액
##유
##린
##견
##득
##닉
##칠
##튼
##합
##핛
##코
##메
##틸
##녀
##를
##몰
##초
##번
##황
##배
##돈
##변
##밀
##웠
##벌
##깅
##읍
##폐
##뇌
##염
##작
##칭
##매
##퍼
##울
##춤
##낙
##했
##졌
##낸
##샤
##창
##책
##련
##허
##웅
##깁
##럽
##처
##십
##앤
##텔
##쌓
##키
##틱
##달
##므
##글
##쪽
##욱
##없
##율
##엔
##곡
##것
##혁
##퇴
##ㅁ
##ㅇ
##닐
##킨
##늘
##럴
##날
##올
##많
##팔
##섭
##렌
##즈
##출
##렸
##랑
##핚
##쥴
##송
##웨
##직
##뤄
##된
##빈
##웜
##꺼
##및
##생
##롤
##커
##반
##저
##검
##었
##얼
##침
##외
##꿔
##클
##깔
##혜
##렬
##둔
##먹
##베
##풍
##엇
##즘
##습
##최
##흡
##쉬
##톤
##돌
##럼
##숨
##빌
##예
##봉
##넘
##살
##젯
##패
##새
##셀
##너
##족
##낼
##흥
##써
##폭
##폴
##더
##냐
##첨
##템
##쟁
##겹
##뉴
##큐
##멘
##젂
##극
##측
##플
##맞
##렴
##쾌
##루
##댑
##순
##징
##곳
##향
##놀
##완
##불
##셔
##츠
##끔
##쳐
##픽
##투
##던
##님
##힐
##잡
##볼
##몬
##굿
##낌
##략
##렵
##섬
##촌
##춘
##느
##떨
##꼴
##갈
##악
##묻
##콤
##압
##접
##슨
##있
##확
##엘
##펜
##젠
##붕
##냥
##핑
##콘
##필
##괄
##왔
##옥
##갂
##둥
##녹
##특
##좌
##누
##컨
##융
##휴
##갔
##때
##른
##룹
##늦
##넥
##앙
##랜
##탕
##긴
##묘
##잠
##톱
##륙
##뷰
##뢰
##삭
##취
##골
##탈
##잘
##흔
##릿
##총
##궁
##룰
##줌
##못
##폰
##찬
##육
##벤
##뜨
##쯤
##녕
##왜
##됨
##릅
##쓸
##왼
##헤
##틀
##쌍
##눠
##빅
##턴
##갑
##냅
##퀘
##랍
##펴
##혈
##릉
##펀
##탁
##핵
##닙
##롭
##힌
##캐
##갱
##틴
##윗
##윙
##넷
##듯
##홈
##짓
##흐
##ㄷ
##덴
##런
##봇
##롬
##닥
##팁
##혼
##붙
##념
##혐
##슷
##듬
##눅
##맥
##쇄
##걸
##탠
##풀
##욕
##델
##끄
##봅
##윈
##룸
##팩
##셉
##펙
##잭
##떤
##잔
##참
##럭
##숫
##캠
##째
##꼬
##짝
##캡
##뚝
##빠
##픈
##냄
##곧
##덜
##밍
##쓰
##뜻
##멕
##펌
##램
##쇠
##킴
##칼
##꺽
##봄
##숭
##덱
##슴
##랭
##닛
##눈
##꾸
##콜
##랫
##줄
##꿈
##딩
##웹
##됩
##김
##셨
##켰
##겸
##옆
##페
##꼭
##냉
##슈
##듭
##혔
##딕
##끼
##힘
##웎
##녁
##받
##짜
##논
##죽
##잉
##뜸
##몸
##싱
##셈
##핸
##쯔
##샵
##셜
##봐
##갯
##큰
##죄
##솔
##젤
##줍
##푸
##듈
##괴
##톰
##첩
##줘
##또
##밤
##졸
##턱
##텀
##빨
##곽
##읷
##띄
##컬
##텐
##킷
##깨
##홖
##숍
##룩
##앞
##웃
##뿐
##멀
##핫
##뒤
##슐
##겼
##뮬
##떻
##랩
##탑
##즐
##핀
##퓨
##롱
##깃
##싸
##았
##곱
##맷
##밸
##억
##듣
##돋
##칸
##둘
##렀
##될
##캔
##캘
##쿨
##놓
##콩
##멸
##멈
##흑
##빛
##셋
##탭
##륨
##롯
##잇
##촬
##봤
##젝
##딱
##닫
##쉽
##헬
##갤
##갭
##뚜
##밋
##댓
##톡
##툴
##멧
##믹
##꿀
##딜
##룬
##눔
##홀
##찍
##폼
##떠
##읽
##팬
##뉘
##않
##덤
##끌
##뜬
##밴
##탬
##좁
##렇
##씬
##튺
##넌
##겠
##팜
##팸
##샷
##빼
##덮
##뀌
##께
##웰
##엑
##퀀
##싼
##눌
##뱅
##싞
##앆
##썬
##팝
##높
##돼
##맡
##횡
##뮤
##굵
##씀
##웍
##엣
##둠
##섹
##찾
##럿
##얻
##벡
##긍
##섯
##킵
##끝
##쿼
##짧
##옮
##넣
##뿌
##겟
##힙
##첫
##잦
##몇
##벳
##둡
##밖
##멤
##죠
##쏘
##깊
##갖
##뛰
##삽
##똑
##잃
##믿
##즉
##맑
##끊
##밑
##딥
##묶
##췌
##맺
##덧
##겪
##헐
##er
##he
##on
##at
the
##es
##in
##or
##ion
##en
##ed
##an
##le
##ing
in
##ro
##al
##ct
##ic
##st
##it
##re
to
##ou
##ar
##ent
an
##et
##ation
##am
##ag
of
##se
and
##om
th
##ess
##is
is
##ac
re
##ll
##ut
##ue
##ow
##ri
for
##as
##pl
##ect
##ab
##pt
##ec
##ver
##el
##il
on
con
##age
##ot
pro
##ur
##ate
you
st
##ig
##ce
The
##od
##nt
##니다
정보
##ment
으로
##her
##em
시스
com
관리
be
시스템
에서
us
that
사용
##all
or
##ame
##if
##ad
##id
ex
##ers
##ol
##ist
##00
##oc
##ve
MQ
##ort
##ul
de
##ith
##im
##ile
##un
한다
##for
##ata
##ction
##and
are
with
as
##ication
##um
##ple
can
##up
##ch
##ay
##ter
In
##eb
##est
##이터
##able
##cess
데이터
##erver
cl
##01
##form
##ir
##port
##ject
##per
se
##ppl
ch
by
##og
##ity
##erv
프로
##ption
##ain
##us
it
##pe
not
##qu
DB
##ust
##비스
##ure
##art
서비스
Web
##ER
##ase
Con
##ult
##gr
##ub
##yst
this
##tr
Pro
##ystem
##here
##ly
##essage
sp
val
##ew
파일
en
##AI
##pplication
##rom
경우
##ail
set
개발
##ueue
##ice
처리
name
서버
업무
Th
data
기능
ad
##anag
##ies
tr
##fer
##ode
##op
##iz
##ap
comm
##ack
##ans
##llow
##cri
from
Re
합니다
##ine
##bject
at
##ass
##nect
##ace
cont
sh
##ated
##ON
##ype
##av
201
##ex
##AT
##end
##ory
inst
def
##ecif
##스트
##이스
제공
##ire
wh
res
지원
file
##fig
##ork
확인
This
##BM
대한
사업
##Sp
##ive
##our
EAI
use
##ST
##anager
queue
통합
Int
If
##ang
##ime
IBM
기술
Ad
ID
운영
##Sphere
설정
##ind
습니다
연계
int
##vel
al
##ition
Ex
인터
##ore
message
WebSphere
##formation
##ervice
##hen
수행
##act
AP
##ard
구성
##ant
##OR
fo
your
if
Or
##os
##pon
##ib
##lect
##rr
application
보안
system
##MS
##ill
##ht
##out
specif
follow
Server
##IN
page
For
##are
구축
##iv
##ave
##ample
##LE
##acle
##atab
##ient
command
조회
##ber
value
Cl
St
##nd
object
ac
cre
##apt
le
requ
변경
기관
##ost
테스트
##ach
##ial
##페이스
200
##aram
add
##min
Oracle
10
server
##ther
##ide
##atabase
dis
등록
all
필요
##ava
information
user
문서
인터페이스
##ext
str
##ance
log
##put
Se
##rib
##ord
##ich
##so
##ribut
im
##uct
De
##ser
분석
##cl
##ME
가능
선택
사항
##figur
using
following
##aramet
##ary
##ersion
##urn
##int
IN
type
process
##unction
ret
발생
##ak
요청
RE
##ud
##Str
##ows
##icro
which
관련
Com
##ateg
used
화면
결과
have
##ld
##apter
12
위한
##rror
Micro
##escri
환경
코드
connect
내용
##irect
inter
##AR
해당
install
##ence
##ally
trans
##AP
01
To
call
##gram
##umber
You
##ments
##TE
met
do
##ault
will
##ight
##ick
per
##pert
##ey
##QL
##AN
##ied
##vent
get
fil
표준
Ch
또는
##CT
##th
##ource
list
loc
##ages
11
##ft
전문
적용
번호
자료
up
작업
대상
수신
ab
un
##ress
att
Data
##upport
추가
API
has
when
##ign
##roup
##iew
must
##ast
##ategy
manager
입력
one
##AL
##pp
##AS
##oo
설치
정의
##abl
##eld
##ax
new
##ues
##ann
##ator
select
##ount
id
##etw
도록
##ck
function
##action
##ield
##Strategy
##te
Tr
##iness
MicroStrategy
##젝트
sub
##ms
out
example
##yn
##usiness
##ML
sc
##EN
##ob
##ET
전송
설명
database
time
이용
prov
20
any
only
option
##pen
##clud
run
방안
##ould
00
작성
##ating
Inte
su
생성
##tt
##ubl
paramet
##ry
##hod
##ual
##ION
##ware
메시
##figuration
return
##ting
##RO
##ux
프로젝트
##ome
##ener
##oad
number
##ES
##ates
ne
고객
pr
SQL
ent
so
##own
프로그
rec
실행
more
##ip
defin
메시지
Str
start
pl
항목
see
##ations
default
계획
##gent
##use
##ID
mod
##ari
##heck
aut
##ug
프로그램
구분
error
저장
통해
includ
기반
##세스
oper
other
Res
##IS
client
##itor
요구
class
contain
##ock
##ep
다음
##play
시간
##ize
##ions
Wind
direct
ind
##ument
##ite
sec
##ause
##TP
##ere
det
##ink
##AC
##IC
##ote
Application
ar
상태
##annel
로그
장애
##urr
모니
위해
방법
수정
모니터
##ff
On
담당
key
따라
support
attribut
An
클릭
##der
##oint
part
##ull
거래
##이블
service
##IT
no
files
char
##rig
개인
포함
Windows
System
프로세스
##read
CO
descri
##ices
##face
##ced
설계
계약
col
OS
method
create
but
##ange
##mat
##이션
access
##ath
테이블
##atch
level
propert
관리자
pre
##ical
단계
##ces
String
##ix
##ead
man
group
현황
Cont
field
클라
14
IP
##rok
##get
기준
##minist
doc
report
##DB
rem
유지
mess
13
모니터링
also
기본
##ponent
여부
work
Java
목록
program
need
File
제품
##ys
provid
##opy
then
유형
each
15
##ility
##urity
publ
활용
Inter
여야
19
##ics
해야
##ml
En
display
stat
송신
##gration
지정
##ustom
##UT
##oot
Service
##ecut
request
Message
Sp
전자
java
진행
##vir
##ache
table
공유
Connect
bu
완료
##yp
16
was
ST
##웨어
통신
검증
##viron
인증
##etwork
Version
##low
##ception
교육
자동
##ous
code
##ier
##rol
상세
##ministr
##pri
##roker
Gu
string
평가
폴더
##res
comp
##ttp
##ection
Trans
##ook
Us
##ables
we
성능
모든
##ND
Manager
##oy
단위
02
삭제
It
##ger
오류
##ning
version
##ose
입니다
100
parameter
ass
##ake
messages
##케이션
##ree
이상
##ule
av
##ask
act
perform
Inst
##inux
click
검색
same
##row
된다
##over
##ploy
##ert
##ponse
pass
state
##UB
##RI
##tern
pri
기간
실시
channel
IT
may
Process
##fore
##Con
구현
##ATE
XML
Un
##플리
##urrent
##플리케이션
내역
back
##ss
specified
에게
주요
##프트
방식
##one
##cc
Table
values
##ound
how
##IX
그룹
Guide
http
카드
##ervices
HT
##이지
##루션
솔루션
##iffer
Business
됩니다
Linux
LO
##onitor
기록
configuration
When
보호
##DE
대해
these
##MP
Man
##MQ
제안
DE
hand
directory
SS
ident
transaction
Object
##Name
연결
comple
##vironment
wr
표시
OR
qu
vari
nam
버튼
##ftware
##word
Ent
event
##ailable
##sion
##eng
connection
Set
개선
lib
User
품질
US
##ccess
##ify
기업
##RE
TO
SE
check
should
##ble
gener
##LL
ed
##ge
정상
센터
암호
into
25
이름
app
its
##ired
##PT
execut
##cript
##ference
000
Integration
Name
NO
응답
does
IS
Comm
##ong
See
##12
조직
line
32
담당자
거나
end
##NT
##plement
내부
prod
##ild
점검
과제
문제
##ov
All
체계
##워크
bas
result
기타
##ulti
##ength
about
mq
than
PC
charact
init
검토
attribute
db
mem
differ
Agent
exp
##str
기존
##uster
##umn
read
fail
open
Cre
##SC
allow
소프트
##ke
##US
want
Adapter
rep
##ery
##PE
##ten
다양
승인
available
전체
view
UN
##wo
시작
ele
##CH
over
typ
##irst
top
##ization
specify
been
##val
현재
어야
##AB
cor
document
##AME
##ures
통한
17
네트
node
##CP
외부
exist
##ove
current
접근
모듈
such
objects
component
##ucture
##ox
Al
보수
정책
##LO
Enter
영역
port
##iver
format
모델
##ech
##ible
installation
ES
##agement
##ED
me
계정
##ically
출력
CD
호출
applications
SW
SY
##arget
##fter
test
local
소프트웨어
where
##20
Program
일정
절차
종료
##che
##scri
Add
수립
##sg
권한
SO
페이지
reg
##ower
추진
describ
연동
##let
two
AS
Descri
Chapter
environment
Install
public
##ession
CS
address
Use
신청
클라우
일반
##igure
클라우드
##PS
TR
다른
##이트
Im
Copy
ap
네트워크
project
##ING
##way
##이드
bl
##라인
구조
접속
##con
stor
rel
백업
Client
different
따른
##file
source
까지
##UE
24
##rid
Val
참조
##AD
em
소스
##roug
##OS
##UR
inte
플랫
메뉴
interface
host
sim
Database
bec
dri
Specif
##arch
Queue
18
cons
##app
행정
부서
##sert
PL
point
rece
HTTP
Def
##rough
Sec
21
##EM
xml
Mod
##prise
Figure
으며
business
##IG
send
상황
pos
조건
##fo
정부
Type
배치
there
##its
Rec
CH
EX
##eader
##und
fl
first
001
시험
보고
##ermin
created
Expl
버전
##nder
##ade
text
Description
신규
Inc
ER
리포
##St
##edi
size
30
##ative
##uction
Pl
인력
security
column
##ish
network
##rap
##로드
Log
##date
Using
dev
##atform
##sp
MI
Note
task
##In
03
##ma
접수
Dis
custom
include
chang
장비
##icate
일자
defined
채널
##ond
valid
pack
공통
web
업체
##rary
some
##omain
연구
동일
##olic
org
하나
##Ex
##par
instance
##cept
디렉
control
definition
before
through
they
properties
##not
setting
반영
Aut
enc
rest
##ark
조치
required
##een
response
appl
##ash
##right
multi
options
AD
범위
contains
##AG
detail
bin
##PL
property
Select
##RL
위치
##CO
##10
##etween
통계
path
2019
##ingle
Class
acc
step
users
함수
PRO
##LT
des
##eat
As
##velop
MQC
##ner
product
CP
change
스마
enter
based
전달
는지
between
inv
##andard
CON
스마트
##CE
input
##por
요소
dec
So
ag
##사항
경로
##ases
##dition
TP
##CS
output
변환
##ym
속성
config
HO
Copyright
length
결정
Administr
에러
section
##ron
22
TCP
MS
요구사항
implement
리포트
아래
##ILE
##ply
필드
64
within
##UP
UI
협의
spec
names
##istribut
##ater
par
Back
bot
##ted
##roll
##UM
SAP
running
CL
이력
토리
No
down
##raph
23
Work
inc
tool
##ents
##ized
Configuration
record
JMS
##스크
##lease
사용자
그림
##line
대응
##AM
##hor
메모
목적
산출
order
import
main
under
##ffer
MD
identif
Requ
cannot
비즈
이행
called
cert
right
##uring
효율
##ines
##ither
password
금융
##mis
자원
subscri
cluster
List
제출
sche
부분
print
##pend
Act
By
systems
실시간
도입
##olut
##oci
##inal
##ven
proble
mode
##ever
##IP
##ination
Open
##SE
##ise
##omat
##erved
prot
##elp
them
##view
UNIX
##MD
##ities
Monitor
분야
Up
##echn
action
##ool
한국
because
##NS
provides
나타
##ors
금액
Not
Broker
Cor
##TT
##mit
##베이스
데이터베이스
character
structure
이동
parameters
특정
Ret
안정
mach
명령
아이
initial
Ar
##name
산업
요건
case
온라인
애플리케이션
Met
Enterprise
Sh
iss
occ
Error
개요
Sub
single
Page
FOR
URL
QM
make
##ification
##Id
##YPE
##ql
전환
load
아키
go
##enter
##SP
script
MTE
insert
deploy
트랜
확보
How
##ources
types
형태
##부터
max
시장
addition
##이언
software
agent
##ESS
##ABLE
제시
##ivity
##odes
Click
##hent
way
ph
응용
고려
생산
##ular
가지
다운
their
ESB
broker
model
보험
am
##RM
##ENT
##urs
##net
administr
##oper
##oud
after
box
ow
##ared
로그인
dyn
##iles
root
이벤
##ocol
might
##mpt
이전
이벤트
target
Transaction
##enu
lang
##race
tem
services
##ric
##que
##eries
##lete
Interface
commands
GB
지식
##load
##oll
##DBC
##ful
arg
복구
##red
manag
appro
분류
##ider
##니스
발급
##attern
sign
##OL
##imum
수집
associ
non
확장
별도
require
##이언트
클라이언트
Bu
specific
thread
uses
off
##edo
##ason
##ets
SSL
목표
##AX
세부
Paramet
##RC
이미
대외
##imit
같이
##ern
link
어플리케이션
MO
2013
아니
Action
##이브
##ens
handl
WMQ
second
위하
##ely
priv
attributes
Le
Reference
multiple
##DS
이나
both
memory
##rect
비즈니스
##hether
either
메소
##old
##ATION
##잭션
element
IF
트랜잭션
나라
##11
##pos
메소드
##other
Per
domain
보증
비용
##mary
새로
form
Pr
옵션
Be
sup
##ampl
참여
인터넷
상품
도시
##ability
##ream
block
item
예정
##tes
li
##by
사업자
Time
Bms
Security
RF
##uments
가상
과정
##ra
관계
tables
operation
배포
##omm
USER
사전
체크
##vi
static
index
Report
##rame
장소
##09
refer
Check
##pro
존재
##anation
##apping
wind
Management
직접
##ORT
et
Direct
십시
##ules
위험
##ATA
##itory
##ef
##aces
##리오
##ually
책임
conver
영업
##lection
##max
functions
tp
가이드
Propert
variable
##Cl
##igr
Support
feat
##olicy
MB
십시오
##veloper
true
##sible
Ap
##CA
bit
##enc
success
의견
##oid
활동
##스터
##igh
Custom
disk
시나
Option
msg
space
##llig
방향
Services
del
지역
automat
Event
최종
##ai
App
전략
##50
##List
시나리오
##ULL
null
remote
ww
국가
검사
##til
whether
##ffect
##ton
dest
Explanation
Test
Port
put
www
대책
안전
displayed
shown
##amples
##Data
제어
machine
##back
Software
CPU
exception
##gine
Network
writ
제한
equ
##텍처
아키텍처
repl
There
platform
Sc
count
보고서
##gin
ERR
06
관한
##erm
##oin
WAS
Rem
문자
statement
##Link
NAME
Run
Pre
standard
비밀
arch
##ynt
##ateway
##IST
결재
min
역할
##Type
Command
##ero
provide
##40
Out
Start
HP
repres
##IME
##rray
giv
조사
look
Tool
Project
산출물
통제
copy
TE
header
another
stop
most
Function
##VE
bel
installed
topic
##ended
conf
트리
configur
##ales
MQS
Ed
##hentication
##Time
##ank
##ential
resource
supported
Wh
도구
26
being
exit
##orm
##CI
without
건수
Source
규정
LG
50
SH
##uage
performance
RO
07
여러
##unt
##ara
##olog
##itect
Prod
##uxedo
##Pro
##ell
시설
어댑
어댑터
려면
므로
etc
##cedure
##vious
cd
distribut
Control
Intellig
##ia
associated
HOME
##ense
Group
Over
session
shows
next
지급
window
full
changes
##lob
##90
sw
중요
These
여권
##MM
described
pan
##ync
status
##overy
##icates
이관
27
details
영향
##ait
또한
location
##래스
##80
##TH
##aster
NULL
depend
monitor
provided
Example
클래스
##sh
##MO
##키지
Tuxedo
패키지
usr
num
##tain
pers
##rypt
##mq
filter
##yntax
변수
##CL
##nara
증가
공공
during
existing
Part
Right
backup
리스트
##VER
returns
Col
author
##String
long
Qu
##ression
40
Return
develop
##nal
##ived
##DI
##oose
##roller
kn
노드
국내
prompt
##irt
##99
성공
common
메일
WS
sample
home
processing
##PTION
Des
buffer
rout
##Re
없이
context
Arch
다운로드
Number
##ale
##NO
Value
중앙
##ging
수준
hard
해결
##very
##프라
components
으로써
##sole
Connection
New
인프라
steps
gre
driver
은행
handle
selected
##Exception
모두
만들
회사
회의
부터
##abled
define
AND
find
##olution
update
##IB
Administration
write
##anced
##ars
2008
co
what
##db
모바
최소
##aly
Information
##GR
##older
통하
36
ON
##aging
##io
ib
Doc
##point
선정
##bers
모바일
##ational
실적
공급
개발자
returned
Corpor
##obile
효과
규칙
que
##untime
04
##ialog
##ocket
ob
help
pres
초기
최대
##IL
보다
##rie
many
동작
automatically
own
##21
##레임
image
심사
while
디스크
주소
신용
Access
flow
My
complete
의한
##Service
Comp
Default
Loc
주기
SP
##sure
필수
##24
like
Developer
##ected
##set
correct
##UN
Get
새로운
Corporation
컬럼
SUB
##Cont
##mission
파악
##lobal
발주
design
실제
28
35
의해
투자
problem
##ok
타입
##hell
##ming
##FS
31
allows
View
INT
##LECT
지시
##oard
Model
매핑
##sc
lay
##MT
profile
speci
configure
commun
대하
Result
부문
공개
##OP
BP
라인
##ouse
스크
date
향상
active
이미지
비고
cache
partic
dat
fact
Lib
Cause
my
영상
ibm
red
로부터
termin
Create
FILE
appe
##ole
##NE
Prot
certif
Ass
##icense
고자
이후
Call
PD
characters
those
condition
jar
##stant
##30
지만
reason
##irtual
comput
##Or
WH
build
menu
Dyn
해서
시행
그리
mqm
BE
match
##als
PM
투입
previous
RC
LD
Att
TB
CSQ
FTP
크기
EN
취약
##be
##oug
separ
단말
description
Ind
SET
device
tim
##EC
##soft
Apache
300
reference
var
Active
would
팝업
##amic
##EB
##plate
disc
##ences
DATA
##ATH
때문
Det
Component
SELECT
stored
##FT
사고
lock
##lean
##STEM
공동
일부
entry
흐름
##IZ
methods
##ready
사이
##ved
지침
regist
계좌
법률
classes
ext
객체
fields
Key
pattern
##oding
80
지속
##rit
However
인수
##md
Id
could
eai
방지
컴퓨
위원
##rop
##ued
package
flag
##hed
##empt
DBMS
contin
Response
button
protocol
already
동기
job
사유
identifier
SC
자체
조정
##iag
##rigger
##vanced
below
으면
##세대
29
expl
account
PLC
management
##less
보장
resources
additional
processes
Reserved
mail
##flow
##MI
SYSTEM
2015
측정
모코
ref
Format
again
Stat
map
constr
##AY
##넌트
##alse
appropri
##NAME
강화
possible
식별
차세대
last
##34
민원
제외
NET
종류
##DL
content
참고
tab
는다
드라
사이트
Tmax
안내
including
##ough
Channel
위해서
Field
보유
Node
row
settings
종합
gr
##UI
sent
query
##ROM
대해서
하드
실패
elements
Installation
플로
기록물
헤더
##INE
delete
개체
취소
library
##ross
##70
now
##Set
Also
이슈
servers
위반
##quence
제거
eas
ver
card
컴포
Setting
고도
##work
컴포넌트
We
##ision
given
operating
Connector
최적
개정
##ency
lar
##ernel
예상
found
INF
견적
HUB
다시
TIME
메모리
2014
##ternal
Request
SV
##ody
분리
sets
el
편집
##ified
준비
##pond
인지
TS
ERROR
FROM
Monitoring
자산
generated
첨부
dialog
appropriate
감사
UP
##ERE
Library
JDBC
authentication
확대
특성
##ings
08
Red
Backup
##ique
calls
라이
schema
TYPE
전산
교통
매출
보관
techn
made
Reg
events
repos
스크립
Microsoft
의미
사람
##istics
이러
LOG
destination
##ume
##ynch
TABLE
SER
개별
500
##16
SOAP
sum
upd
34
DEF
##enari
sm
##ology
포트
형식
JE
AC
LDAP
기동
execution
operations
PO
Pack
##Message
##akes
gu
begin
DO
부여
Center
공간
Creating
ht
활성
##ALL
##ecess
##Connect
##rod
void
##BA
필터
export
storage
shared
오픈
##itch
attempt
변화
metric
##LS
##토리
TM
trace
assign
enable
includes
스크립트
##En
byte
동시
##ward
array
##ches
Mess
managers
##ires
##reen
Prov
limit
##pace
Gateway
represent
partition
발송
##ynchron
05
추출
##MC
사례
retrie
policy
마이
##ICS
##ASE
Load
##MENT
Files
상호
Mem
##board
false
비교
started
results
##ermine
##sions
##ances
every
계산
용량
향후
##itle
particular
well
Gener
LIG
구매
site
MQI
End
002
procedure
##ont
choose
##izard
Perform
WEB
차단
##round
Oper
Send
##ACK
AIX
##텐츠
base
Cluster
POS
Bad
대비
업로드
SD
##File
brow
maximum
##alys
복사
queues
sys
bytes
Sever
Stor
400
##ie
Implement
orig
##SQL
OK
try
##Ware
33
Next
##ps
SA
cap
beh
Publ
TH
subscription
final
Rights
DS
reports
AN
br
패턴
##ervlet
XA
##VO
##alysis
language
##ART
##ince
search
Specify
migr
sql
예산
Manag
DIS
##MB
II
show
플로우
Deploy
##mp
wid
high
module
2003
##PORT
APP
just
##xy
LOB
##raw
##ram
##22
tx
instr
he
opt
zero
MQRC
중심
##ASS
Code
구간
##ivel
Configur
mark
folder
##AST
##valid
60
가장
MQP
모드
##Path
implementation
자세
info
necess
were
##ries
##rc
##ename
분산
약점
##ACE
SN
##Server
##ily
협업
CT
회원
면서
Method
graph
의사
Link
할당
hardware
configured
##ilt
Exception
신속
함께
Properties
대표
struct
바탕
Intelligence
After
주민
대기
requests
##anc
##AGE
37
등급
경영
Architect
##yle
##Int
38
##ators
##ULT
Internet
Document
경험
From
공정
##istent
##15
프로토
이하
throw
보여
##AIL
##ee
##Log
##rics
programs
take
장치
뷰트
추적
NE
##JB
##erby
Sym
COR
Rel
##ively
sl
##ibility
##grade
원격
shell
55
Parameters
kr
ke
##Info
##ories
서울
##14
신고
errors
물리
각각
JEUS
##Ch
증권
pa
##ramework
Attribut
##ategory
means
##ways
##DATE
##ished
##Trace
##umer
deliver
BMS
features
2011
store
##resh
도출
##ched
43
##gre
determine
simple
##ffic
엔진
private
cal
구동
Pass
##inst
Thread
보완
Each
failed
vis
##STR
##sel
Read
도메
Objects
##On
##ope
Advanced
transfer
##ves
mqs
DT
present
45
개월
송수
requirements
##60
##sw
repository
##Code
consider
##power
Mail
added
tot
세션
SYS
commit
mat
Level
three
adapter
##Manager
Techn
##oss
위원회
tasks
day
Dec
##tility
성과
라는
정확
##aris
release
드라이브
ORD
named
panel
바이
##uc
시키
해제
Target
규모
##abel
GS
반환
##Res
Dri
##undle
incre
당사
kernel
Db
mapping
2012
핵심
##TF
remove
전화
PG
##UX
enabled
##ANG
송수신
Host
Flow
sales
고용
Configuring
##CTION
마련
##ouble
groups
계속
##erc
##ERT
판단
Ident
##pect
허용
##드시
##edia
##FF
39
가져
그래
FI
Bl
later
Bas
Mobile
##hip
운용
integration
restart
Ver
creating
##ph
##mgr
unt
Bus
MON
alloc
chapter
2010
##ives
modify
describes
부하
follows
necessary
2020
certificate
사회
Parameter
BusinessWare
BI
불가
ensure
엠시
Display
##atal
dum
##adata
GET
PDF
Fail
RES
With
Do
##respond
recovery
청구
##emon
edit
##mer
##user
above
specifies
반드시
##ames
도메인
입찰
Pri
NOT
이해
EJB
sever
##RIPTION
Multi
Engine
##XT
48
left
준수
##tract
##CTV
프레임
아이디
template
range
수익
가입
인증서
City
계획서
##ications
internal
prior
정기
##sd
##atabases
##kt
pur
스토리
##Val
displays
written
apply
##UST
Off
시티
nodes
correspond
##etter
명세
업데
업데이트
handler
ca
##DR
CCTV
STR
HTML
##23
tag
Socket
##ape
State
listed
##oop
Su
Sim
시점
SOA
메트
##우스
Design
SM
##orer
onnara
인식
##oke
MQSeries
Step
bms
##mb
##atrace
86
로서
boot
RFC
our
##ysical
always
통보
execute
SUP
##19
Main
norm
DES
기기
우리
는데
req
deployment
##gn
다고
wait
##urred
09
connections
이루
AUT
even
마스터
판매
Exp
descript
total
원인
effect
##entr
VAL
MQe
ORA
##ERS
패치
sequence
book
Config
ll
방문
링크
SSO
##rag
stream
until
included
Specifies
area
variables
REQ
##ately
VM
각종
##af
2009
rights
IE
suppl
screen
결제
tools
##bound
AMQ
##ls
산정
##고리
##cul
Task
##side
협력
##ivid
login
파라
expression
##endor
##ixed
bind
qual
Transfer
Product
Rule
본부
ED
##레이드
Local
requires
supports
Severity
##alyt
activity
virtual
재난
스토리지
integer
##icated
determin
NT
integr
CICS
computer
Any
syntax
##ered
규격
DR
46
아닌
순서
##므로
해외
##UTE
소요
Directory
clients
remov
메타
##aring
DD
##enario
WHERE
AR
##areh
Real
Non
##ilar
##dd
privile
##ior
하위
Develop
어서
columns
OP
sure
close
##amp
컴퓨터
자리
따라서
##ONG
##ube
Hand
##ilities
라고
중복
설계서
place
ALL
##ICE
##stand
oracle
rules
케이스
primary
Batch
PATH
##ktop
전사
html
One
##ts
related
임시
COL
##aries
##ru
Net
Acc
업그
확정
containing
업그레이드
우선
가용
##isk
instead
직원
국민
##cho
trigger
exten
Date
##ursor
Yes
Cloud
receive
Ab
UX
서명
sn
##ias
44
평균
##ITY
##워드
현장
##SS
##13
폐기
수요
동안
##aTrace
dig
속도
##imal
AT
needs
신한
indicates
CRE
##wise
##icit
documentation
CUR
90
channels
drop
##은행
##install
Storage
자격
unit
unique
Other
failure
Max
일괄
삼성
connector
rule
Explorer
##56
able
2000
연락
large
##faces
##ully
save
Implementation
포털
##EY
Build
##WS
PROC
logs
로드
워크
##omet
initi
프로토콜
real
dynaTrace
external
LQ
here
56
accept
##ilter
##istory
pages
##arning
Memory
Input
##JE
logical
##AV
runtime
Core
STAT
##uf
##페이지
pool
instruction
MAX
홈페이지
argument
know
##ashboard
상대
포맷
##fr
단일
SUBSC
##road
Editor
지연
##oolean
Appl
Platform
최초
products
##ierarch
##vant
소개
SMS
Performance
##led
behav
Bundle
##self
decl
##urther
diag
지점
batch
정리
RQ
##53
오른
##ARD
리턴
OUT
GW
##78
##ns
지방
RP
256
경쟁
util
서식
유출
meas
##INT
clause
##ouch
##ges
##ined
##18
##CK
MQG
REC
several
디자
표현
##FILE
진단
Cons
##미터
##atalog
documents
유통
special
##valu
그리고
레벨
PK
short
listener
Detail
##CC
Output
199
CHAR
적합
##avig
comb
items
정지
transactions
Execut
DM
설비
010
DATE
##aced
Ant
탐색
##LD
에이
plug
Rece
exe
인한
definitions
CM
Touch
Overview
매니
##ler
eb
est
발전
##IM
경제
##ear
recomm
needed
99
능력
Import
경찰
긴급
##ci
성장
databases
##lement
MSG
##fully
##001
예측
스턴
클러
ERP
클러스터
problems
파라미터
compil
Init
head
공사
##ifest
Vis
reserved
Lay
##actory
Options
global
dynamic
##END
interval
body
그러
개수
tree
##tion
회계
##log
명시
Update
EE
Disk
안사
net
제안서
##arehouse
호스트
Integr
rele
적절
유효
ATT
Fl
이내
스턴스
47
제목
Release
Property
SF
이중
SK
contents
컨설
발행
##mt
encoding
Sol
organ
##ointer
directly
SUPPORT
대화
allowed
##BS
received
style
container
##ather
##iss
##28
member
##ality
platforms
changed
상자
less
##ged
오른쪽
##Tr
END
Par
##ceed
##JECT
administrator
##Object
최근
##000
날짜
스키
003
Map
현행
sym
예외
feature
혹은
CA
신뢰
SUBSCRIPTION
Section
currently
RM
##pository
매니저
##25
주체
Programming
invok
##Util
형상
관제
##코드
Bak
free
용역
side
##Com
가격
##IVE
still
BW
Dynatrace
아이콘
디지
##뉴얼
매뉴얼
##ryption
스키마
activ
CORBA
const
##To
취약점
MDPS
sv
core
수량
What
일시
editor
57
Prg
utility
하드웨어
##les
download
Bakup
법인
제조
##gment
RD
##sl
development
Conf
##RIB
Post
##OM
Derby
시각
##보드
amount
Common
지표
##Cloud
icon
draw
examples
##iod
Installing
Ma
exists
로컬
일치
echo
##ridge
conc
##aw
블록
YY
Resource
ILink
##ley
디지털
done
##pose
separate
stand
뱅킹
role
인쇄
customer
delet
Session
Standard
##quent
라우
Top
tri
operator
Edition
단체
via
브라
##itive
console
만족
At
mi
##files
es
Unit
archive
명령어
128
상용
혁신
rows
Subscri
word
##파일
101
RCV
##ele
수용
패스
##idd
Co
distribution
invalid
##change
##cel
timeout
방화
Notes
Sun
##met
PR
optional
eG
Your
Unix
##ORM
파트
layout
HA
##cp
##osed
performed
국제
descriptor
##any
Remote
체결
obtain
##uration
##소스
discus
##medi
마우스
글로
MCA
리소스
connected
He
sit
글로벌
Status
Repository
Manifest
체제
eGov
Before
##BC
##gor
physical
대리
Base
##User
압축
supplied
지능
##Value
스위
과장
납품
포인
방화벽
##lear
쿼리
##uce
who
very
라이브
important
템플
##erial
##eed
##26
else
##rite
##admin
##ering
확산
디자인
##me
Ac
인원
최신
metrics
##Paramet
MONTH
집계
collection
ISM
double
lists
eGovCloud
다면
##izing
entire
53
cases
으므로
Sw
##IF
identify
##astr
Syntax
Console
AG
Mode
fails
##reak
금지
##greg
ODBC
##frastr
##uch
결함
##pre
widget
resol
열람
useful
공단
##ides
Values
##alle
fin
70
Customer
similar
비율
##aa
engine
##17
Applications
calcul
인사
##aving
Line
construct
vol
##랍니다
바랍니다
기재
Repl
instances
records
##gorith
issued
Valid
##ONE
예제
전용
publish
##54
creates
Fin
license
across
2007
small
##전트
편의
인해
76
2016
##missions
cursor
주관
세계
keep
passed
게시
##cle
##onth
complex
ign
Sample
Administrator
Online
##ading
##alytics
corresponding
코어
##Connection
##fix
affect
##ured
behavior
MAN
사무
parent
keyword
statements
BPM
ALT
Returns
기초
drivers
##frastructure
versions
##PR
원칙
individ
Tem
대체
Content
LU
콘텐츠
CR
instructions
개념
##27
어떤
times
Script
ear
성명
##UEUE
Av
since
Header
Typ
##러리
appears
Dev
BM
Protocol
수수
그래프
##VM
INST
##allel
원본
조성
Solaris
pop
sched
License
mount
original
SND
##JT
대용
##ivers
Help
least
manage
차량
GUI
##48
##echan
APPL
further
Ph
브라우
소속
Text
정도
##ean
에이전트
건강
TRAN
ENV
##urance
2005
Index
Mpower
##ring
매개
##vironments
##no
Ag
xls
##system
COMM
BO
Adapt
js
CREATE
##처리
Attribute
Defin
EV
##대로
관점
reply
##Queue
switch
restri
COM
label
##Event
fac
##aps
텍스트
로직
##29
##verage
Pers
##ront
ISO
PH
color
이루어
interfaces
대학
caus
##ARE
라이브러리
cause
##Requ
rc
executed
##ian
appear
##Script
empt
##ush
대용량
근거
총괄
statistics
numbers
1000
##Onnara
중지
old
UPDATE
##ocation
master
포탈
dt
hierarch
##OT
remain
단순
DW
##anning
##관리
다는
Controller
general
completed
훈련
특징
eGovCloudOnnara
스위치
##itional
##udio
cr
##ench
Module
##acy
various
provider
ET
##ends
DESC
수급
Sum
logging
NUM
AUTH
동의
ls
##ROUP
IMS
중소
제도
##AIN
enables
으나
cop
Migr
브라우저
##UAL
예방
##아웃
##ationship
roll
FE
Change
join
grant
er
checks
txt
Environment
empty
##Parameter
##ng
##Msg
enterprise
src
바로
Edit
Production
Driver
Brow
컨설팅
##ature
Em
Contain
Jan
ps
working
issue
##ored
Plug
DCT
##Im
##IR
points
매체
BY
Specification
successfully
mult
트래
일련
Basic
##rel
child
Enc
##ynchronous
논리
lines
xx
##Qu
##mitted
##bed
Go
##endix
SCH
##host
MM
합계
Deployment
DC
pe
##uing
##roduction
현상
서류
##LOB
Framework
##iving
move
행위
##ital
drive
sect
##ken
Ber
cur
SEQ
Is
미래
sort
##RIBUTE
CODE
INFO
생명
arguments
계층
비트
REG
MONTHS
Char
문자열
TEST
특별
어려
는가
##기업
CF
##com
metadata
person
grep
시도
browser
keys
Managed
으로부터
54
ef
공격
알고리
##maz
##ism
built
대출
occurred
##YS
Sm
codes
알고리즘
감지
##Request
bean
cho
##ustr
online
초과
##kit
반복
##oles
##raries
hold
##venue
150
장기
##aking
Column
Power
##keley
respon
PS
certain
엑셀
##ded
##otal
Pattern
individual
Sales
액세스
패스워드
##antec
##porary
##Ord
admin
의료
##orld
pointer
유사
Query
##heet
ATTRIBUTE
분기
Runtime
##of
position
##eus
turn
starting
Lang
##Factory
selection
##ipse
Hat
##케팅
##lex
itself
가용성
Berkeley
press
##Comm
##레이
impro
용어
사양
##CHAR
즉시
##mazon
known
mys
messaging
devices
against
Messages
근로
Comple
FL
사용량
COLUM
문제점
마케팅
BIP
대장
period
##ience
정산
datas
작동
entries
##DC
증명
alias
##ters
가치
err
수수료
메인
##AND
알림
##ird
les
##iance
현금
##UNT
##pr
Only
XX
주식
유연
easy
##76
##소시
112
대상자
ALTER
Sup
lon
책임자
##33
RT
탐색기
보낸
요약
PJT
constant
##aun
don
교체
JAV
Global
monitoring
Rest
##tenance
Mapping
basic
중계
Distribut
communication
usage
##UND
TA
##Rec
PUT
감시
도움
bar
MEM
symb
컨소시
컨소시엄
프린
복호
##ONN
##ailability
actions
##1201
##chema
##59
##queLink
mechan
sharing
110
Architecture
Record
##dbc
Graph
pi
##oms
상위
architect
140
OB
solution
Job
occurs
레코드
##ember
wizard
##CF
##eam
##tp
Cert
##clipse
59
##izes
중단
seconds
공지
SequeLink
consist
##to
INS
takes
검수
MCI
Now
Symantec
측면
jsp
Filter
grid
##LETE
급여
120
KEY
자금
하도
OL
##hes
iter
functionality
Grid
49
Related
administration
uns
전임
HOST
기획
##ested
상담
WSDL
홍보
ord
ORAC
##Bu
오브
##OW
subscribe
Vari
EXEC
##idential
prin
예시
dist
##ORD
숫자
이용자
HE
고급
Intelligent
Some
algorith
da
##LOG
longer
COB
Regist
Point
Delete
##ogn
JAVA
##alyz
프레임워크
##러스
반출
##ferred
##트롤
##Key
##active
##ially
pane
entity
der
LIGon
수동
projects
##레이션
##ival
복지
언어
generate
Insert
전문가
취득
한글
ORACLE
priority
DTT
post
##alth
Vendor
Count
양식
conversion
##uced
##cat
##ycle
재무
Author
##TA
통해서
58
evalu
##이너
오브젝트
##pload
establ
maintain
normal
##itri
COMP
BEA
hig
catalog
tb
##OB
##CD
##perty
Analysis
libraries
LL
once
RET
##df
사진
근무
집중
##ling
##MIN
Save
Tools
##though
##ane
##abilities
중소기업
environments
차장
much
인가
Inv
현대
specifying
컨트롤
programming
MQPUT
보존
##upl
crit
ini
managed
occur
##aaS
bound
SI
##cket
정합
impl
JS
마다
REST
SHA
numer
미국
LINE
Initial
출입
였으
transmission
COLUMN
다수
stack
##SA
SERVER
##ector
LEN
LIST
Address
Portal
permissions
Bec
들어
##llustr
EMP
COBOL
shut
##Out
부담
lat
적정
TX
few
Stop
멀티
2006
Once
Require
의하
QUEUE
##De
##KE
##ving
##46
runs
conditions
소유
##By
usually
setup
2017
Make
##IZE
Dynamic
TUX
원활
apache
SDK
포인트
sections
IV
opens
represents
IC
migration
전망
고유
upgrade
blank
Del
Optional
VAR
트래픽
##FH
Then
mean
Created
65
##로그
Nam
discuss
##ograph
flags
mysql
dir
나타나
PASS
복잡
하도급
##QM
Users
ter
abroad
박스
ms
비상
VALUE
JSP
mov
##Flow
Reply
explicit
Language
defines
contact
receiver
재정
75
본인
##irm
##Controller
##cent
MQSC
CHAN
기대
font
##ipp
cost
복제
스타
BR
##ifier
continue
윈도
Visual
2018
Examples
threads
순위
주문
119
##ordin
##down
Domain
Because
20031201
starts
ip
사건
AV
##hing
##DP
##aterial
distributed
Wait
라우팅
##acing
concept
Amazon
assigned
Assurance
Account
Appendix
민간
레이
sem
##ilder
Wizard
dump
vi
##자치
privileges
절감
directories
##거리
Functions
Lab
answ
##ORY
입금
##connect
EA
topics
##NEL
41
verify
대시
프롬
88
##Count
MA
cred
Profile
##BER
BMW
High
##cedures
replace
##arn
Order
Office
makes
greater
proxy
EC
인계
understand
용이
region
업자
analysis
도면
progr
##wd
boolean
express
issues
ack
##FIG
Settings
태그
지자
조제
##IE
qmgr
##DK
MOD
##fficient
located
보내
이외
None
##arrow
Admin
##ARY
##ployee
addresses
004
Toolkit
##ercise
Length
문화
scripts
updated
##lier
세요
extension
GROUP
수입
Item
Analytics
MQMD
예약
정합성
Spec
Univers
발견
Package
Min
다중
##IO
Policy
Sign
Messaging
ADD
authority
break
지자체
except
Introduction
문서함
Export
BS
creation
sav
##lock
Stand
processed
however
good
XS
track
getParameter
LAST
UT
##ground
indicate
ways
Configure
rather
Manual
##Source
제작
프롬프트
원장
별로
sender
##entral
윈도우
Comput
Chang
NP
constrain
filesystem
email
160
terminal
##emo
##GW
php
servlet
##VICE
연관
##Env
##Date
seq
DAT
##Stat
INTER
시기
미리
BIN
이타
특히
##ipher
백만
스케
requested
administrative
Sync
Development
동적
Under
##rupt
detect
협조
MP
##Se
##Hand
Simple
notification
selector
op
Msg
대량
About
correctly
manual
통지
용도
Refer
often
Summary
사실
##센스
##elf
이중화
갱신
segment
특이
immedi
scenario
invol
##TEM
Commun
DBA
##bench
transl
##31
cover
relationship
GP
검출
gateway
best
정하
power
ve
deleted
CHANNEL
라이센스
구체
재산
##36
encryption
대시보드
발표
DRM
##41
##icens
##BMS
68
##Spher
호환
updates
collect
mte
##ourse
인덱
compat
##osing
66
fre
감소
Category
##ANCE
ebSpher
여기
##부분
##Size
completion
납부
달성
Procedure
AL
too
hosts
Confidential
RAC
##etch
표준어
안내서
overrid
별첨
참가
removed
Virtual
Title
PHP
Case
78
TRI
대행
otherwise
##Length
통신망
rev
proper
시민
EDI
Rout
earlier
Put
##unc
농협
Down
정렬
##iers
First
prevent
Auto
token
successful
##shot
TC
REPL
자신
equival
loop
SEC
layer
경력
##olutions
Path
##VS
조합
##AULT
##jt
##esh
ned
##FO
AM
DTTM
jeus
무선
works
##wall
center
변동
share
Master
QMGR
vo
installing
secure
lower
sk
만약
##obe
simply
PAR
제약
Conver
의무
DELETE
##apshot
YN
부장
four
과학
##LY
42
##entials
Layer
cp
retrieve
이사
##space
forward
Ensure
navig
으로서
서로
차원
##box
MQH
Password
SL
삽입
measure
KB
manually
가진
##ATCH
##GTH
수신자
binary
Feb
##oded
Public
LIC
Total
und
packages
HD
aggreg
https
##ACH
dim
assum
Technical
exact
CONNE
Here
버퍼
영문
대외비
tmp
##URE
##Ad
scope
대내
행정자치
행정자치부
##GER
##ending
작성자
##abling
##For
##sequent
시켜
인정
징수
Priv
다만
명세서
##VAL
130
부족
ins
And
##디어
##SM
무상
클레임
##SO
medi
저작
건설
##Cmd
위탁
Integer
embed
Running
행사
OF
임의
##air
##ais
부처
tar
충족
정비
상단
##rl
quot
과거
startup
##BO
blocks
전기
They
QA
Reason
somet
##leg
##li
역량
initialization
applied
CC
##Impl
Cal
mac
##cast
encrypt
bus
WMB
media
##43
clear
서브
컨테
컨테이너
##ty
altern
Usage
quick
도로
##Query
avoid
cell
누르
##itria
##nost
시범
##Up
depending
let
optim
ORG
Provider
INSERT
그리드
이메
param
연금
gov
throws
letter
특수
JVM
NONE
capabilities
##카드
accord
IO
77
##Context
Mid
AA
명확
##Card
경찰청
filename
전반
파워
Disc
Cache
대금
컴퓨팅
std
Adobe
typically
가공
##iddle
이메일
대로
차이
대부분
이익
Suite
복호화
##WN
손해
자동차
##OUR
VP
OC
출시
마지
Diag
처럼
Found
##ACT
detailed
인덱스
Desktop
mm
miss
##ension
Instance
Activity
DV
members
KH
Receive
LOC
Null
제고
##ific
INTE
fix
스케줄
LIN
DNS
low
incom
시설물
컨텐츠
##Doc
아야
마지막
96
Schema
##55
Protection
ENT
전부
##itions
Secure
Solution
##orial
타임
##cs
##ased
pair
##irewall
DI
##semb
##ITION
##너지
##aken
LE
##uture
stopp
##Sh
Systems
물품
##now
xsd
독립
복원
한도
##apped
catch
Publish
START
ESQL
diagram
##reshold
ITEM
##ites
##ideo
Workflow
점수
hierarchy
##TR
##oli
volume
title
##TY
General
GIS
PER
보이
집합
Sched
matches
횟수
##path
##ained
specification
##ctions
##Config
##HO
##itut
unless
매우
##Stream
##appen
##part
##TER
actual
##ably
##동기
plan
##ret
##man
equivalent
mobile
일관
방송
유재
이유
RDBMS
먼저
equal
재해
유관
##udit
법령
WB
##acter
calling
##ooting
minimum
DEFAULT
localhost
길이
Mark
여신
##abor
GR
procedures
quest
OLAP
env
250
BACK
##izations
permission
##PLAY
owner
EZ
tmax
happen
trim
DL
ma
계약서
SEND
lookup
미들
##GE
##ventory
##ICATION
바이러스
dd
art
MySQL
BC
Mac
tell
보정
분할
단말기
##my
SAN
spe
Constant
flo
전담
##roubl
##iff
SIL
신청서
채권
expand
단가
##ORK
센서
##Agent
##ention
##ached
drawing
prob
writing
비동기
##HT
스트
third
유재윤
STE
Element
namespace
numeric
zip
Adaptor
Dashboard
그러나
불만
restore
##79
fr
lit
##igned
문의
Differ
품목
##DER
MQCF
##ln
##andom
dept
요청서
적극
CRM
편리
##aunch
PROCESS
initialize
offset
##ocus
respect
소비
references
alter
Track
NUMBER
delivery
organization
연속
권장
Recovery
##card
illustr
parser
NM
TRUE
sending
Cube
CLI
amq
SILK
##II
placed
##Input
TPS
modules
##ledge
공무
침해
DISPLAY
##ople
##58
##38
시킨
algorithm
69
못하
##ORE
CNS
디퍼
GM
##ks
previously
98
##utorial
Servers
route
완전
Current
exper
strings
##Get
structures
authorization
##usters
TMAX
machines
Upgrade
Block
invoke
##epend
situ
due
##한다
연도
131
toget
##reate
Leg
LENGTH
Dest
month
MQM
##bar
Ora
together
invoked
##Root
##roublesh
Runner
pg
pdf
Window
SVC
BU
72
##RS
##nk
##이버
맞춤
##fl
##방향
transport
autom
미들웨어
Authentication
material
##atis
##뮤니
terms
커뮤니
##ident
architecture
applies
Processing
native
contained
levels
##rient
Automat
had
엔터
Trigger
피해
dead
Allow
##ulation
symbol
mechanism
eml
wide
##thing
고정
recommended
PCF
Rational
Form
temporary
images
대삭
부품
자치
79
endpoint
INSTALL
println
STATUS
taken
implemented
방법론
##uman
보전
##anner
higher
VERS
adding
##yb
persistent
opened
##IA
CCS
##GIN
recover
1234
Smart
##LONG
regard
최고
USB
ATMI
declar
##ift
유무
links
inside
origin
Mach
replication
##Map
PROJECT
##ENSE
MQGET
##49
##Pl
Revenue
di
##BG
Pure
##View
indic
사이버
sources
##ivoli
uninstall
compl
But
review
사업장
callback
Context
본문
##tom
MQR
VERSION
시킬
연산
##변수
##FORM
##선스
라이선스
Inform
jdbc
Tom
having
탐지
##dn
warehouse
Device
사외
Region
pci
##TED
describe
Container
Full
loaded
Size
##enced
Excel
##ently
##ene
사후
##47
convert
Methods
##omin
Comment
##ung
operate
prefix
무결
##전자
Image
Commit
MODE
회선
##Error
Me
prop
derived
immediately
bat
lif
노출
마감
identity
PA
매개변수
##list
중간
Book
Trace
LIB
600
##uces
교환
##cut
sens
daemon
빠른
ct
give
##jor
Tivoli
##Node
JDK
views
ignored
##head
##Trans
subt
den
스터
자율
당사자
컴파일
according
IM
##EMA
Requirements
우편
CW
hour
validation
EZis
##edef
Subscription
FC
##clus
Midas
##APP
CONT
TD
##tem
BASE
합의
흥원
socket
company
##ds
ora
##fs
headers
applic
super
fully
bread
##ollabor
증대
III
READ
공무원
bridge
메세
##라도
Biz
Structure
CALL
therefore
복합
외국
##CODE
Since
차트
##trl
Switch
Feat
67
남양
whose
username
dupl
##tra
CUST
MQLONG
스캔
customers
Managing
OPEN
달러
##link
listen
minut
patterns
95
SU
개방
##ITH
##olicies
##DIR
##TS
curl
handling
LICENSE
위성
cmd
에너지
dashboard
##37
Therefore
subsequent
expected
matching
Getting
team
Every
샘플
우수
deb
OCI
게시판
##force
Ext
점포
##DEX
52
CE
위협
saved
better
충분
##plest
Vuser
##URN
Foundation
##overn
Print
disable
##AID
##NDI
tablespace
rw
모델링
##EDO
##rokers
NH
##aut
HM
##준다
수납
##USE
REF
testing
##atively
printf
##터리
desktop
Reports
followed
나타내
##uning
Proxy
UNIT
FOL
강제
introd
획득
infrastructure
That
Universal
취급
##bat
어느
macro
51
preced
incor
SNMP
pay
Buffer
SERVICE
89
Remove
##mail
인하
Que
##station
JNDI
compiler
##Client
pars
breadth
rate
profiles
cs
##map
depends
##Att
Required
##Text
serial
modified
##afe
Free
javax
workflow
technology
alert
deployed
##lying
regular
Additional
원가
##Ind
Byte
Supported
신원
cloud
##buf
SCHEMA
extract
Info
##ESSION
TUXEDO
Pc
512
APIs
Warehouse
category
생활
##inary
flows
moc
ppt
Execution
UTF
##config
hd
Find
Components
##plit
명칭
원사
formats
##SG
##Org
##ays
TOE
##Common
플랫폼
##jb
##App
synchron
EIS
데스크
Details
history
capt
가정
파티
##Power
YES
권리
bits
year
부가
착수
Iss
거리
조달
##ender
Character
percent
forms
Fed
ADT
양방향
transformation
123
Adding
800
##PY
미디어
##arks
브로
External
##ISS
AI
eld
fixed
오프
Scenario
Verify
출장
##herit
##INFO
웨어
##OC
##oT
Http
Types
outside
Fix
202
rm
bucket
Names
동향
##Session
##010
Write
checking
bal
##alloc
Enable
연구소
never
CNT
##OUT
Mult
FOLDER
actually
controller
did
감독
embedded
dataset
warning
Autom
##pm
##Item
visual
리스크
generic
공급자
improve
Setup
콘솔
Programmer
BRO
respons
최적화
explicitly
car
Contents
clicking
##Group
메세지
요양
plugin
##Inst
하단
URI
지도
##imes
Fo
routing
경고
##39
pract
registered
tre
##RT
NFS
png
Last
ge
중국
##oto
Choose
LOT
잘못
VPN
회수
잠금
Search
##fg
005
기술자
DataPower
snapshot
##roubleshooting
##35
임계
note
MQX
MQRFH
브로커
Pos
Single
만큼
##pare
학습
##plements
routine
History
fill
Replication
Kore
핸들
##vention
##come
offer
sync
sol
문명
Qual
##EE
Attributes
과업
##oom
##State
THE
Tele
io
PORT
255
gives
beginning
##eta
analyz
Informix
accessed
##Class
Browser
along
TLS
tcp
##IV
Apply
시각화
sur
연구원
causes
DbEnv
hash
closed
Health
len
커넥
clean
##NC
##PI
SQ
##istence
encount
##ANT
Home
##Col
##essions
protected
##OK
cation
Tag
서면
교부
어떻
exits
Altern
repe
파트너
equals
##LED
shall
허가
ASC
Game
팀장
Prof
촉진
다이
의뢰
maintenance
configuring
##Result
Look
SDS
전임자
binding
##irection
Modify
융합
Parallel
ftp
retrieved
현업
##light
##레드
DA
making
rst
##bs
화재
Win
trad
더라도
경쟁력
bran
##44
##32
##omes
crypt
Exit
exceptions
Technology
INIT
production
register
Define
MSTR
independ
서울시
사거리
guration
##데이터
국토
대처
붙임
##uages
Review
background
dummy
##RY
transform
AWS
Where
Recv
##EL
disabled
detected
보건
##emand
AUTHOR
rollback
Multiple
노동
AB
sil
NB
##co
designed
메타데이터
Acro
빠르
전원
drill
Pur
배경
PRE
수출
Constr
Endpoint
##eler
Tables
퇴직
factory
##omsys
auto
주택
MOCO
samples
감리
알려
가져오
identified
restrict
AMD
##ibero
retry
##77
approach
##omino
front
become
##quis
노력
AGENT
##atory
##env
fam
url
##vis
##national
권고
neg
coordin
SR
가동
습니
Transform
단어
##enef
##mqm
그대로
Automatic
##Aut
ORDER
스타일
2004
WITH
시행령
1024
결합
subject
85
tier
signific
webs
jms
##ologies
ACL
WIN
려는
SB
##ek
ability
GH
##라이
trust
베이스
##affic
sends
우측
창출
applicable
tests
PurePath
ADDR
expressions
사원
More
Dat
underlying
allocated
THEN
##Logic
KT
간단
Studio
390
upper
ONL
선언
ws
Begin
POST
relevant
Async
어려움
Opt
대신
##tf
Exchange
조작
iterator
ROM
##td
명명
USE
Acrobat
##ety
요인
NEW
doesn
EM
HW
cnt
상기
TAS
MQGMO
Can
subscriptions
##Number
##pers
기회
##alk
ejb
디렉터리
Follow
Jun
nm
연체
easily
MQHA
Domino
licens
nx
##reement
pc
reset
손실
##Add
enough
##xis
days
While
sale
Workbench
게임
##pact
parts
alph
Exten
2001
##atisf
필터링
##USTER
determines
Bot
재고
consum
국정
배열
cir
직무
직업
implements
Sets
유명
learn
INDEX
VARCHAR
PRI
TOP
##VC
높이
디바
휴대
##nown
DEFINE
고시
오퍼
##relation
Fc
##ump
recogn
play
models
REP
요망
threshold
RUN
bottom
Naming
Please
van
##ural
frame
queries
##scdn
단축
##riented
보급
Occ
Transactions
경기
##Mod
지난
Shared
##MDD
##TO
authent
ICT
mer
##SCS
Migration
##Order
determined
고서
특허
##CON
Arg
##vantage
ACT
JavaScript
저하
Builder
협회
조립
코딩
certificates
Although
hostname
focus
##used
##LES
handles
##ulate
Site
signal
건축
major
Let
##clude
DOM
Long
##arant
units
refresh
Rules
dimension
Quick
May
Eclipse
##ium
##68
구성원
##len
availability
##yles
naming
stores
##ili
##aven
kind
RMM
dbo
temp
부정
defaults
Maximum
##arily
디바이스
belong
##aching
parallel
Internal
performs
around
personal
roles
##ips
기법
overview
보통
##45
activities
##eria
CLUSTER
qmgrs
exceed
게이트
Certif
Pool
##납니다
ISP
MESS
주간
Person
##KI
##estamp
TRANS
dll
##1609
Are
JOB
##systems
Spring
Standby
전개
##add
Topic
HH
chain
CONNECT
scan
IoT
증설
자바
KHUB
기안
Definition
처음
##API
ETL
LOCAL
stopped
62
눌러
logic
세트
controll
61
패킷
Lock
credentials
외환
##GT
OPTION
consists
Started
ready
invocation
20100
##Process
어떻게
사내
##olders
심의
##Call
시뮬
latest
##69
##STATE
prompts
IPv
ports
normally
답변
selecting
##emonstr
none
inf
가맹
Dig
##plestory
999
jobs
##enarios
Maplestory
Average
SIZE
Invalid
Collect
FA
Cost
매입
debug
Proble
formatting
copies
SID
불량
##ees
##mc
##onym
printer
propag
DSN
constructor
Store
upload
purpose
guid
Sam
relative
PROP
lik
많이
##DA
soap
Documents
CAS
##ises
##ctionary
Metric
##outer
ask
Br
주행
##bone
##info
chart
##uous
##ica
party
##Constant
색상
Tutorial
##oring
concepts
Ins
receives
entered
##property
장점
##ora
unable
##타임
나타납니다
##omp
Exercise
interpre
##pared
VL
Routing
줍니다
resolve
detection
providing
왼쪽
##day
Express
##entran
##ivery
스마트폰
Servlet
복수
Big
FN
Gentran
파티션
##poses
티티
toolbar
##grading
registry
FUN
APM
Bind
CONTE
였으며
볼륨
##gers
limited
이루어지
시정
executable
##Work
##웨이
interaction
increase
Navig
OFF
##aim
combination
리스
삼성전자
##chie
standby
significant
receiving
##icle
유비
유닛
REM
항상
Statement
##Series
##icast
api
Maple
##erve
TEXT
Color
DVD
Am
아서
schedule
shutdown
간격
102
phase
mill
##menu
##plates
##ferences
Shell
##erval
취합
controls
framework
programmer
##metry
필요시
fast
copied
XM
datat
공인
주제
20120
Hard
##RES
##otus
##cher
실현
FAL
HANG
##just
filters
Displays
학교
nd
##Table
##ollaboration
Ltd
##Center
##UID
180
차로
diff
vendor
##ancing
##UC
87
공장
원천
##PUT
##UD
##MQM
developer
##extended
drag
진척
출처
##data
SCA
addextended
2003120110
addextendedproperty
simpl
##quire
TMS
identifies
##42
BmsCommon
SaaS
표기
automatic
signature
외교
해도
PP
policies
##scape
Korea
개시
목차
##DM
publication
Vol
BT
LI
upon
##MMDD
##isher
Machine
누락
##gg
Logging
JB
장관
becomes
standards
continued
Vitria
care
규제
##FL
width
006
Processes
Legacy
잔액
##IEW
Ctrl
EP
이때
완성
RUM
CONFIG
Destination
Most
##LOCK
##AGER
yes
##rix
WebLogic
people
desired
##ufact
##Port
Infrastructure
Array
##mas
사이즈
##lements
##MSYS
Operation
FD
##thernet
JM
executing
protocols
##Char
NAS
추후
MQCONN
dependent
상대자
Narrow
RETURN
내장
보조
WAR
satisf
##Header
유저
##pin
##Field
Starting
mocomsys
TER
schedul
facility
meaning
subscriber
##ats
##OPEN
ARCH
self
##code
CN
스페이스
##exp
leg
##de
범죄
##리티
True
SFR
choice
소재
missing
##IAL
scale
NIC
OBJECT
오프라인
building
cn
데이
##OO
##rant
suit
delivered
##Handler
course
words
공제
97
정형
Provides
considered
reading
languages
manip
changing
Depend
007
NV
world
대통
conn
Ref
Modeling
DOC
시킨다
MOCOMSYS
##Option
future
mapped
FEP
referenced
advanced
scal
sb
COPY
고지
##eter
TV
Handle
YYMMDD
ld
privilege
LAN
##ifications
waiting
##Version
##AUT
PUB
##98
SG
차종
##imits
WHEN
solutions
Soft
사용법
##ration
##57
ens
미만
##Constants
CB
FLO
##ETA
others
Pe
물류
Events
resulting
Dist
Reporting
Patterns
바이트
침입
##Web
random
wrap
대통령
##cated
##tle
speed
wc
converted
경보
properly
IEC
ess
##터스
aw
pot
배정
##verse
FORM
WebDB
##ops
관심
Listener
FW
derby
##Index
expect
##key
discussed
게이트웨이
ME
JSON
BACKUP
020
##MSG
도서
##ners
선행
abs
INTEGER
대가
answer
fore
##dk
##case
extends
##Response
initiator
좌측
Backbone
firewall
Show
적재
편집기
UCS
수시
협상
##acity
demonstr
OT
다르
graphical
순번
900
##NING
REPLACE
RAM
Hub
##aining
Pres
##perties
결산
runmq
FAI
##pat
##mod
COUNT
PART
##ROP
DH
청약
##Th
##pc
achie
STOP
확장자
attempts
signed
##inations
Used
extended
Queues
series
ADMIN
##IES
인수인
packet
something
interact
MDX
Termin
점유
om
though
##Status
transactional
자유
yet
HJ
interrupt
SNA
##vr
gets
prec
logged
##Buffer
프린트
부산
Working
APPLICATION
RFID
delimit
##yper
Space
##umeric
극대
attach
Identity
consumer
DATAB
##DT
establish
FAIL
sa
micro
이것
##100
##ypes
ss
##iqu
Building
EVENT
63
indicated
Lotus
##the
bug
##FI
##arter
summary
Patch
상황실
generates
가입자
SCS
tux
Fixed
intended
대학교
ENTER
주로
developers
purposes
Close
주석
008
Rep
##ello
RMAN
##52
##ribute
##erequis
Installer
##aged
looks
BLOB
조기
##asing
Meas
exam
EXCE
MESSAGE
Fact
##Direct
요원
Sens
본사
incoming
##AMP
increment
나오
Notice
browse
Template
사물
Metrics
unsigned
MES
참석
Second
MIB
편지
##UL
LLM
big
런타임
108
consistent
##ogle
##ffers
replaced
MT
NOTE
incorrect
PI
세금
workspace
average
집행
supply
CTR
operators
arri
##EAI
CARD
guide
Listing
digital
인수인계
Contin
cross
##opt
문장
##place
현실
따르
설립
workload
IG
로고
표출
VAT
HEAD
단추
해지
Otherwise
Certificate
##Sc
##니어
KR
OU
생각
오퍼레이션
수단
XP
published
##ERP
things
##lette
Activ
##Main
##andatory
재처리
encrypted
##VEL
##ADE
실무
secondary
tape
##VR
##120
92
lost
연장
##운드
##Par
##증권
asynchronous
ASCII
증명서
병렬
MC
minutes
상관
차별
meet
##ographic
##Def
도착
##call
central
defining
WaitTime
경과
Partition
Resources
##립니다
##ains
##No
Subject
cat
reb
adapt
##istic
paths
Less
Stream
##stract
433
RPC
카테
larger
Private
##쿼터스
유비쿼터스
재외
제반
드라이버
override
ide
##Not
##IZED
##dir
인공
##UCT
##Servlet
##plet
소켓
Occurred
tm
##ba
##GET
whole
매출액
가맹점
Serial
##래그
INPUT
RESOUR
##stitut
TASK
84
##book
SVR
submit
##uspend
Ethernet
compression
transmit
엔지
##ons
MGR
IDs
ESX
vt
##bps
ea
##gan
나타난
Ke
##소통
##공사
Roll
의사소통
계열
##어나
보험료
AQ
상환
likely
Hash
##encies
SendTime
processor
compile
RecvTime
##ah
Location
DATABASE
##roid
BFILE
communicate
카테고리
나머
105
가이드라인
소방
차주
lead
나머지
##order
##alf
logger
Middle
192
MULT
inherit
##ifies
##sembly
Tibero
FALSE
##Off
##HERE
73
comparis
occurr
##StringUtil
전파
performing
Validation
split
FLAG
##cip
##Occ
ssl
Microsystems
communications
PACK
bw
nested
Registry
승용
##za
experience
##standing
MIN
Tab
constraint
##oh
partitions
HTTPS
quickly
RA
reporting
Testing
exactly
IA
##legate
##precated
Tomcat
##PA
BmsCommonStringUtil
더블
##init
Distribution
출금
TFT
지체
선거
##KER
separated
representation
북미
progress
Deferred
##주시
ANN
CCSID
Two
71
LS
spaces
Optim
Syn
critical
Formats
사업비
700
RS
할지
123456
반려
정정
엔지니어
만료
220
##anti
Sequence
WW
serv
불법
integrity
승용차
accessible
sessions
Sl
프린터
##OINT
TEMP
Integrity
공고
Writ
benef
Transport
zone
한계
미치
branch
PW
ROUND
Sn
통화
mqsi
SAL
106
LOBs
개설
confirm
xa
lets
plus
##ybase
##Fl
##unk
Consider
Narrowcast
##elines
Retrie
subsystem
##ministering
공수
resolution
Box
Nextro
visible
##ategories
##SSL
publications
##group
locations
##ulated
DRBG
ye
STRING
integrated
엔드
term
##istant
going
튜닝
checked
병원
##ASTER
준다
releases
eclipse
alternative
였을
형사
##sect
109
CLASS
##iper
CAP
조인
##opp
ns
##known
아직
아웃
enh
identi
vector
Dim
진흥
verb
조성윤
시트
##RIA
locale
digit
Cap
impact
swap
SMTP
indicating
##stat
DEPT
descriptions
##XML
partner
parse
svc
sensitive
198
KO
##gments
##pective
Watch
##sive
Partner
particip
MQB
##izer
recommend
sites
caller
Availability
처분
##shop
이런
MANAGER
##gl
Planning
신호
보상
##LI
##ubes
interest
##nostics
##Element
Built
reduce
Documentation
FML
VMS
dr
redo
independent
goto
ROW
migrate
##Occurs
Intel
xxx
순차
##fc
clusters
Gl
일본
해영
Tim
103
##ACF
만든
팩스
##Pr
EXIT
Bank
##렇게
Failed
실습
의거
##XA
Flash
duplicate
audit
market
##idden
Of
past
기호
상암
##메라
Elements
##BK
완벽
출동
009
Drag
decimal
입출
prompted
represented
Condition
Available
어떠
제니
소비자
기밀
##iable
##mpty
월별
cou
emp
##idget
추정
adds
##sphere
111
##ournal
employ
progrm
detects
##Output
##pi
##olation
##Start
FAILED
이제
당해
자본
##ookie
##Exit
상당
카메라
##ANGE
Deb
Joint
bank
지적
alone
##FM
cube
전력
sal
107
disconnect
Both
기상
connecting
Timeout
전국
declaration
Menu
##bj
float
##End
##amically
지문
##adm
##LOSE
During
wild
##vl
##leting
HR
push
토큰
inventory
trimString
GHz
fetch
flex
공백
Symb
##Bean
레이아웃
accessing
locks
##position
Math
##leep
compress
##queue
CLUS
제니퍼
DN
수사
프리
##anel
##sdl
##DATA
comes
##velope
criteria
근로자
정해
terminated
별지
installations
offers
HDD
멤버
자기
##없이
probably
FUNCTION
Many
pjt
데몬
##At
##grad
0001
locate
소통
정수
##ENCE
Concept
캐시
##ecimal
Errors
##ragment
공관
섹션
traffic
kill
담보
##vc
##agent
TSF
Tree
드릴
Mar
mut
##MA
거부
반납
##72
xmlns
트리거
compare
easier
##vert
onto
##DO
MQF
2002
MY
primit
선도
scenarios
Day
질의
buffers
deal
##라클
fte
##ists
보호법
##ipient
silent
##ULE
##ashlet
VR
나누
하이
news
keywords
MQTT
AUTHORIZED
obj
installer
##spec
올바
121
FF
##lectron
pol
전하
areas
refers
국번
##텍스트
146
94
##Listener
##ands
미흡
수원
##All
##Pass
##회사
93
BEGIN
##mark
##Connector
##Inter
TAR
lnk
MQCC
##Of
capability
##write
Email
최상
한지
수령
##print
cpp
오라클
Distributed
compatible
employee
thus
Execute
append
MAC
fs
doing
정한
제휴
설문
정보원
addr
TRIP
HQ
buf
reads
Operations
##arm
Login
##ik
프로세
Scale
##먼트
why
Warning
##ECK
##시스
##ISE
ASP
Troubleshooting
recon
라면
색인
##직원
Operating
작용
증빙
comment
comments
efc
주도
##Run
##Sub
##rict
거쳐
##ror
Demo
Tuning
##erce
Added
brokers
물론
선진
##Create
##idth
DF
해킹
##IH
poss
##olt
##Le
chos
editing
VMware
svn
JN
##ingu
Sender
mysqli
BIZ
video
implementations
신여
proc
##공단
pat
기록관
##97
Inbound
Lif
patch
##paring
Migrating
##Loc
discard
UJ
##fm
mediation
##ancial
##ASSP
Ow
difference
QMgr
##az
Indicates
Layout
##bit
Bit
Discover
mis
주차
Primary
용지
##Check
신탁
##Array
International
Employee
established
##mar
concurrent
xlsx
MQOPEN
although
obtained
depth
IMP
##oS
##nowledge
서약
Instead
grow
커뮤니티
##시저
Integrator
regardless
Sybase
상주
##ServiceImpl
BPE
보안관
MQeGW
연락처
항공
##partment
rcv
##RID
SEED
Plan
공업
Limit
수표
##Page
프로그래
##ddpin
efcddpin
BROKER
##NEW
Download
ends
Decl
배송
취업
할인
Boolean
backups
allocate
compatibility
risk
프로파일
protect
Groups
tion
전표
생략
palette
SQLJ
##LP
subd
CSS
Role
typedef
maps
Encoding
##type
Success
Completion
limits
Collection
XQ
##class
바이오
74
##oft
유도
##인수
among
indexes
vs
대역
rect
MED
Remov
컨텍스트
유지관리
exchange
수치
situation
slow
reasons
WORK
##STAT
ds
마법
bo
Logical
fd
자재
GPKI
210
구역
##Act
##디오
reflect
RESOURCE
FB
wmq
유용
##Per
extra
##ustry
##Login
RESULT
##88
Maintenance
82
##Ret
Changes
기여
빌드
카탈
Low
직위
Automation
RSA
##elnet
주의
NODE
DMZ
appliance
MDW
question
Bal
212
한다는
카탈로그
Cipher
81
Kernel
Outbound
##where
FISS
중점
advantage
음성
Fedora
DROP
##ordination
Subscribe
linked
##ipping
BL
Had
arr
lot
MQD
채용
Logic
Double
로써
SIG
Utility
reported
마법사
##Num
accounts
##포구
##eral
EL
come
FIX
IR
extensions
mouse
interactive
##ernal
Medi
respond
substitut
분배
일체
##edict
보여준다
SYSDATE
##EX
종속
1414
operateCmd
대전
##Property
fb
##ins
BMT
부적
##AIT
##iry
Programm
Features
decision
quality
timestamp
sap
계산서
##UEST
연합
dynamically
Commands
guarant
Acceler
mpower
정규
##cing
involved
구입
116
IPS
ACK
El
Evalu
##ining
125
RECORD
##Base
trying
tw
공용
재생
XC
rais
Transformation
아니하
rpm
기계
허브
##gist
happens
##expected
LINUX
Entity
queuing
ActiveX
배상
##NET
##fers
##Update
TOPIC
Year
variety
Handler
그레
Prompt
Row
WAP
##LOPT
CUSTOM
안건
ACC
구문
SKT
Mon
##press
83
##aff
##AK
Issue
dct
csect
달리
더욱
비중
RLY
##oses
FTE
##cipal
##clusive
##티브
Google
Purpose
Hadoop
FR
round
후속
CSA
##세청
filtering
ev
connectivity
circ
##Internal
leave
지수
Archiver
ADDRESS
GN
##ren
##oken
Callback
자문
증서
2021
테크
##Des
##gle
##ecycle
Thus
counter
기입
##ucing
13112
리더
체험
##raft
##지능
인공지능
시청
##Sep
##MODE
implicit
##iques
EMC
인라인
arrow
typical
VIEW
bag
경유
MASTER
authorized
CURR
measures
Wire
과목
기한
RENEW
##FC
notes
PROD
json
CSM
##ASSPATH
Administering
Alert
Jul
please
Contact
##ness
138
Body
이자
RENEWAL
##mbed
Delivery
sun
Finish
plot
##KEY
segments
20150
EXCEPTION
##운트
hex
##SH
basis
OutputRoot
comparison
아카
encountered
configurations
170
caused
rd
소셜
인트
철저
prof
agents
restrictions
CMD
evaluated
Schedul
제대로
##arator
FIPS
Maven
##Spec
나열
지침서
Defining
feed
버스
shortcut
Alternatively
EQ
wsdl
xs
##ormal
365
이렇게
창구
타임아웃
해양
##보험
관서
##Tem
styles
104
Month
cy
머신
##alone
##isions
##posed
UDP
검진
대구
##Pre
##Attribute
부착
granted
CONTRO
Keep
Unable
declared
Problem
살펴
키워드
Another
ASM
Corp
##LIN
자연
responsible
Mat
광고
MQIA
접근성
Cred
부과
##most
##Ent
스트리
ARCHIVE
GC
시연
##BACK
##chang
Media
##랜드
USING
nition
pt
난수
notice
Central
자사
차지
플러
행동
force
##urrency
진출
1999
광역
##olute
rad
##sation
domains
nvl
Changing
240
generation
##NG
produce
Statistics
PKI
공모
produced
abort
Assistant
시뮬레이션
동영
adjust
NEO
cc
의존
REMO
CLASSPATH
CASE
aware
디스
UC
종목
oriented
사법
Static
piec
wrapper
beans
127
168
referred
제조사
Press
llm
ANNUAL
Drop
채무
identical
##USER
##OrdCard
공문
purch
Developing
예비
tps
신한은행
COMMIT
##Format
AMT
##66
JMX
Draw
소모
##ament
technical
첨단
##icode
##hat
aspect
navigation
특화
발굴
states
##umes
Loader
Lat
mstr
범주
2012053
ing
Analyz
030
일자리
RAID
transition
QAF
##Separator
issuing
BIND
##ants
##ocker
compos
##Action
narrow
launch
연간
Collaboration
complet
붙여
sleep
지사
플랜
protection
Notification
writes
wish
경비
임직원
affected
나타난다
fault
증감
마이크
레이어
DET
TOT
91
제정
##반기
administrators
플러그
##br
RPM
Ster
전시
형성
##As
executes
##시아
correlation
digits
##RAY
##TPUT
cfg
div
대국
제기
##go
generally
BPEL
##ESB
부재
marked
relationships
Construct
협약
##Interval
thrown
##arge
great
Communication
최대한
mk
stud
##Channel
chosen
세대
인도
##rv
administ
##Dept
외국인
##aneous
##cv
메시징
Results
##Task
CHECK
calculated
recent
keyst
법원
상시
extend
##FACE
설명서
##READ
##분류
Market
Digital
118
analyze
demand
##earch
BUS
GMT
networks
respectively
mask
windows
marks
Based
##51
##Box
packets
prepare
Enabling
failover
Formatting
allowing
Hardware
12345678
ec
미정
##visor
##elcome
탑재
portal
200812
Impro
PROPERT
instanti
##greSQL
bad
##query
##문자
##ulk
##ENC
Exceptions
안함
력사
##Be
##avel
인터뷰
topology
Upd
##Control
Browse
poll
imported
##nostic
##elist
FST
Suppl
Restart
CI
114
DECL
highlight
SUM
무엇
loader
loading
human
증상
##etary
encl
brows
한다면
efficient
room
##ropp
Volume
oc
vert
STATE
assume
PostgreSQL
관광
##mx
148
NC
Clear
업종
소득
##Admin
OUTPUT
교차
disks
iSeries
Metadata
Sensor
his
맞추
remaining
ic
sz
마포구
##aus
##Point
직장
heap
대국민
Designer
강력
##stream
BATCH
Jolt
folders
발신
지향
passwords
continues
##Pack
##qual
Card
바꾸
CompCode
Schedule
sheet
Programs
helps
States
동영상
NLS
handled
Fac
Hot
miuser
##paces
##ANK
##iding
Codes
공식
##71
govern
stan
CMS
##ests
little
think
developed
BmsOrg
Authorization
상표
OPT
세팅
유일
exercise
align
managing
iP
##bl
Launch
fe
Special
years
Embed
걸쳐
지출
LOCK
customize
프로그래밍
반송
IX
PIC
추천
##entation
##ools
Bean
tags
wildcard
near
templates
xsl
yy
매일
##antics
##undament
Final
sequ
터미
##xx
WT
요금
의도
delay
구름
실제로
resolved
매매
##ky
##PTYPE
Util
##Ed
141
finished
SECUR
negative
##Line
##ISH
ORB
Identification
터미널
##Dir
##time
증거
##EP
bindings
mon
저축
중급
##conds
##Options
##imate
Manage
conven
##chk
seen
이체
##Form
linear
상이
##Home
##ishes
##ENER
Lesson
contract
백신
##Net
##진다
REL
completely
WPS
고장
connects
Match
자주
##urable
technologies
Human
QSG
추세
Cent
영구
BB
##FER
##ctl
PMO
##TTS
tells
##67
##ester
cancel
Classes
subdirect
Course
##rief
desc
constants
GDB
##sung
recipient
Aggreg
##PRO
listing
모형
sugg
공시
Modeler
Transformer
Catalog
##oub
##OD
PGM
##specially
VAN
duration
rs
TPE
못한
컨트롤러
tele
tracing
pred
week
positive
##냅니다
height
CLIENT
World
war
적체
##olid
Share
##api
보관함
MQIN
##aches
##ancel
committed
##lict
##InternalID
llmInternalID
##ILD
buttons
revenue
IDL
##Document
##aset
##CTL
vary
CMP
간주
텔레
##RST
Fields
##ipped
DECLARE
linux
글꼴
##etime
Agreement
aggregation
Sterling
subset
만드
메신
##yth
checksum
분실
##Token
questions
##ABLED
토록
언제
##Runner
##WARE
techniques
업계
##피스
entering
CUB
단기
발주자
Binary
Organ
Segment
SCM
UD
inode
really
MQRCCF
ignore
CURRENT
Take
fi
Through
suc
##oice
##prietary
Expression
foreign
Concepts
raw
디폴
디폴트
KTF
레지
##길동
MQQueue
Variable
Native
그렇
HttpServlet
##ufactur
LP
김현
##Stop
노트
stock
auth
프라이
presentation
characteristics
Tasks
jav
##lt
320
representing
##isms
거버
업명
##TYPE
##riggers
##지만
Variables
Move
##RK
##ood
Projects
suitable
##eight
##RP
initialized
begins
cle
direction
attr
Est
SUSE
portion
Short
holds
##ious
블로그
였으나
##hicle
INTO
SECURITY
성격
##iring
부합
##Put
Collector
adv
172
라도
##ised
Complete
##rypto
육성
오버
XSL
constraints
illustrates
Tier
completes
해소
Physical
스트리밍
비해
Struct
Label
##ii
##요일
qm
구독
병행
##writ
##oco
ASS
ctx
hours
##orth
trunc
##ATIONAL
Root
faster
held
가시
주변
##lib
MBean
ACTION
dsp
RECE
##URL
knowledge
assumes
SSH
UnitFlow
Accept
##comm
inbound
##matic
당일
##페인
checkpoint
##iant
PUBL
리모
유럽
이어
##ares
그룹웨어
dictionary
단지
손상
추이
Creation
requirement
DISK
preceding
categories
Middleware
고속
panels
409
BIT
##62
KPI
##ores
##aint
REQUEST
jp
##Frame
##으며
Replace
분쟁
Telemetry
TT
인자
##antage
팀원
##Mem
관계자
Front
DEP
Personal
KC
REIN
getting
115
decide
say
타이
proceed
Transmission
이르
직급
##ta
##oriz
LED
##COUNT
RFQ
Determin
allocation
TNS
내보
##Mode
Style
##Auth
##PER
그래픽
remains
DLL
mention
inform
answers
especially
회신
##xr
##ne
프로세서
IIB
snd
보임
제재
IFS
지구
drives
광주
스레드
라이프
135
KIC
##Un
##aq
reject
##msg
computers
TARGET
KST
Upload
트레이
totalmenu
##Met
Word
타당
Workstation
##CCESS
IIS
물건
오피스
timer
invokes
유선
navigate
Oct
suspend
##시스템
KS
PT
##acks
XXX
ensures
##alyst
accur
##rs
##Al
workstation
DTD
ANS
##iliar
Best
identifiers
CAT
MRM
WMS
손쉽
anything
NS
##XX
transfers
TF
exec
##TEAI
MQPMO
개최
wrong
DIR
RMS
attached
smaller
누적
##terator
Specifying
ou
MQZ
MMS
대형
상장
월간
정당
foo
Correct
##HR
responses
SAS
테일
modes
Parser
args
pairs
회보
COMMAND
vCenter
타사
##틸리티
passes
바람
유틸리티
Bar
Font
비전
##리지
Tracking
National
Team
win
부채
abstract
strategy
Cross
##ventions
페이
##UES
journal
하우스
홍길동
succeed
토대
##aily
##LEx
Selector
GNU
SESSION
##roy
Incre
제주
VIP
NW
##Instance
##ython
overall
debugging
precision
CLOB
소음
##CM
달라
##서명
##가지
##etail
FAX
won
커뮤니케이션
encaps
LT
Diagram
axis
변조
##ATEG
htm
Programmable
Ne
경계
채택
113
##Component
controlled
건물
##hest
libc
classpath
##quently
MAIN
찾아
##Load
##Password
KMS
판독
전자서명
MVS
IIP
그런
질문
Insight
Packages
BK
FS
situations
커넥터
Accelerator
tradem
JAR
JCL
조절
##DN
outbound
middle
invest
Temporary
nex
법무
##vider
##LEN
presented
모음
passwd
##NAL
##room
금리
심각
이주
하지만
##넌스
##entially
거버넌스
Govern
##ike
colors
최소한
ONS
ra
창조
quant
Tracker
거의
디버
##Dis
Webt
136
persistence
eX
화물
##cell
sear
Throw
SOUR
cipher
기사
looking
##opsis
040
Chart
Receiver
figure
모양
annot
incident
기다
약정
133
Symbolic
##chestr
Nov
메신저
##ifact
distributions
##utton
소유자
Tip
recorded
Actions
life
capture
##STATEMENT
##RR
whenever
##itories
보증금
국내외
unexpected
위험관리
Unicode
##string
DESCRIPTION
mappings
실명
##Store
accounting
gs
##LM
##ited
Speci
percentage
##Stamp
printed
Decision
coll
무시
WTF
진다
Finally
축소
##Param
union
##Rece
POP
129
cast
유상
##onymous
caching
MQT
##ITOR
prepared
RH
UB
생태
LINK
CONTROL
MK
yourself
Ge
백본
외주
routines
qualified
manner
##aver
##aits
Assign
HMAC
OO
MIME
사양서
ant
perspective
LoadRunner
loss
해석
td
인천
투명
safe
##iases
EML
##From
큐브
EXTE
Customizing
STEP
Large
막대
PCI
서술
##etd
습니까
##version
IDT
DOS
CURLOPT
millise
##Pjt
EDITION
011
regions
##mediate
인코
##Command
WBI
Panel
IDS
REINSTATEMENT
약자
Area
Si
##자부
2141
MDM
Da
##ster
##process
Refresh
OM
Stored
단독
symbolic
guidelines
HEADER
##gmt
##strap
연합회
Self
NAT
기금
reached
applet
용이성
Fr
driven
상대방
moved
MAPP
##APTER
197
AVAIL
measurement
XPath
##Dct
임원
Fire
OD
hidden
##ossier
려고
유동
##Flag
Capt
Either
117
everything
MER
introduced
os
##그램
Rev
Forms
Handling
STEW
SOURCE
공학
금주
결과물
INTERFACE
absolute
##off
이기
케이블
##Attr
Di
##gate
##url
Generate
SALES
Identifier
##serv
##테이션
Transl
ANY
열기
##Transaction
##AUTH
keystore
식품
sufficient
##REE
Bi
CIS
##리드
Dialog
반입
places
LANG
sometimes
potential
PMS
scanning
##RITE
formatted
원하
##rm
sbin
패널
##Sec
00010
Solutions
축적
facilities
VO
##Db
planning
overhead
capacity
원래
CBC
Widget
과금
예금
151
Tri
df
##XP
##대장
다이어
HAN
다가
후처리
##Filter
작업자
MQINQ
##ocial
IDE
##orizont
analytics
EI
GERP
sizes
인코딩
파싱
Spoke
Understanding
FO
Sk
ZZ
##alleng
Place
brief
메커
schemas
Appro
RAW
employees
Live
Mov
##idents
caches
누른
소관
MST
커서
132
##ifying
8080
Zone
sd
개편
hdisk
##Level
##irus
126
Boot
Join
TRACE
##erequisites
리모트
Whether
어디
피드
##릅니다
effective
FDC
담당관
verification
Measure
##pling
##ecast
price
Compute
##WORD
Uninstall
bash
lst
유기
Depending
Mer
##pass
##ography
DP
ect
optionally
validate
##Environment
포인터
입출력
Crit
NPIB
FIN
tun
회의록
가져온
CONTEXT
hmc
##WER
BSDS
pm
primitive
Inf
inserted
에스
##glish
enabling
##DEF
불구
펀드
156
utilities
사무실
mounted
##HOME
demo
##endar
backed
medium
LEVEL
rt
vm
Archive
far
broad
rename
isn
Apple
gscdn
RMI
나타냅니다
exported
##NP
Instr
##LOY
ub
가중
수협
unknown
생기
Associ
##GM
##reat
대표자
considerations
Tax
ZETA
##duct
##니즘
translation
임금
##TN
##ided
MQCHAR
UID
엘리
redirect
Connectivity
프라이즈
Hyper
ssh
##Ar
##Len
158
AAS
NAM
행자부
현종
familiar
Evaluation
메커니즘
VER
cycle
가로
##ority
##iler
360
showing
achieve
Don
Mount
conform
layers
HttpServletRequest
##TIME
##JMS
Flag
핸들러
진료
Meta
식별자
ABC
역시
##201
Commerce
##rno
##LIST
house
##iation
##Interface
Mean
dual
다이어그램
회전
##YN
ones
##olf
fit
nexon
##ASH
144
sais
ts
Creates
Profit
구직
userid
conflict
모비스
##Del
143
httpd
Similar
hot
##names
Clients
trusted
Cubes
pk
드롭
##icult
opening
여유
즉각
##Us
ING
주식회사
moving
ce
##activ
Audit
EB
MFT
##SPACE
양산
Authority
VS
compiled
Phase
Folder
FIRST
differences
Implementing
##Lib
내부망
##ormally
지금
##agic
##RESH
terminate
Clusterware
Poll
JRE
위주
##System
##beat
##PATH
##HD
scroll
older
Hello
eff
##ison
Encryption
Button
EXPR
Plus
boost
NIS
Router
Clusters
atr
##스트리
OEM
##Content
doub
Imq
BRK
CG
Ter
위임
tom
leading
##LoginVO
QU
##Gen
301
509
##전송
##ots
##anned
functional
민원인
Argument
CUBRID
122
로드맵
SQLEx
transferred
datatype
##gm
##타입
attempting
Video
평문
208
의해서
mandatory
마찬
##Empty
5724
마찬가지
dc
Factory
일별
##ula
따른다
Drill
##ipt
##Ident
Extended
returning
Resol
Agents
summar
NEXT
##heets
##Enc
ETTS
lin
Hierarch
GE
connectors
restarted
stops
nor
넘어
창업
##iller
XQuery
신설
##inter
meta
INSTALLATION
Bytes
캠페인
147
Extension
##ufacturer
##Test
##spection
철도
##imin
##reads
##체인
##start
SOFT
##hib
##ina
expr
boxes
coordination
United
##Pool
Writing
1234567890
ded
##anies
Stack
124
Connections
gz
locally
도서관
Pars
lab
MQOO
implementing
GL
##Report
JO
드래그
롯데
쓰레드
##ros
##reme
##COM
조금
Websphere
strong
turned
CRL
##ATOR
##MPLE
##mi
stest
tracking
MAP
잠재
현지
##artment
hscdn
유조
블록체인
편성
DataSource
ARIA
SAM
VT
commonly
Feature
ten
##orn
calculation
분포
애플
##server
DEST
Alias
Binding
들여
예정일
triggers
##Provider
Requests
Android
Gr
특장
Failure
light
cout
비롯
##ISA
OLE
지불
환자
covered
vitria
진입
##활성
##plete
quite
##otype
##udo
Does
대리인
사무소
스펙
##aler
MAPPING
##VU
137
##oz
cryptographic
ATTRIBUTEFORM
들어가
atrb
dw
##cd
Repe
Play
GID
##els
predef
수요자
kit
전년
upgrad
구매자
AutoC
five
시퀀
assembly
부팅
비활성
##imited
practice
RFH
Preparing
Computer
TGT
##uware
triggered
Pa
AMS
Sil
강조
##거래
combined
##Statement
Terminal
dropp
사본
##page
##LEMENT
레지스트리
시퀀스
##Host
##Names
##gs
ROLL
PID
tper
ldap
관하
Conc
RFP
AES
어려운
수록
pending
배부
claim
locked
##Send
##61
##81
##EAR
##ptor
##ones
검색어
선물
##LOC
230
experi
VW
community
func
comma
##ISP
discussion
수탁
##Custom
assumed
Selection
game
goes
버그
유가
재전송
##orph
spring
JBoss
BLOCK
##Back
##platform
##opic
로봇
불편
passing
##leton
Failover
커넥션
Synopsis
##uri
##isting
교통부
distin
PaaS
board
시공
##ADM
standalone
Adapters
Risk
스퀘
weight
스퀘어
dam
아무
코스
publisher
Turn
##작업
프로시저
delimiter
ACCESS
syn
임대
parsing
OLD
소수
정립
dynatrace
추돌
DBIO
##endors
TAB
MQCA
SITE
내보내
##elper
프로토타입
datasets
인계인수
##ompl
##cons
##리아
CVS
Ob
af
스팸
stub
pfm
##WORK
##NL
##HQ
##available
UNI
##ADMIN
TI
sense
통일
청주시
##킵니다
##istor
English
Lists
delegate
today
milliseconds
Orig
UK
##frame
perman
##UIRE
피드백
ACCE
declare
여서
발생기
printing
##oun
FEE
간접
##Dri
TDS
##apan
Invok
한정
STRUC
휴지
Stopp
transmitter
##합니다
UML
물질
상속
children
##bi
Try
family
IDC
##ibly
##patcher
Firewall
RATIONAL
치료
##SPHERE
dependencies
VLDB
Push
##gest
##YM
SymbolicName
배분
nothing
intro
MOM
##408
boundary
##ebel
peer
방침
retained
알아
CSV
mqsich
##Bytes
PERS
구인
따위
언급
supporting
principal
운송
##icating
##aspers
blocked
tpcall
technique
Diagnostics
Sort
UDB
modifying
엔트
predefined
BAT
sizeof
##aspersky
준용
Trust
operational
BINARY
idea
로딩
Usher
typing
Preferences
Rollback
mentioned
Und
노하
permitted
rot
artifact
cent
apps
##레이터
STOR
##iability
##Title
##ilit
highest
시군
줄이
##런스
exclusive
providers
distingu
FP
Japan
LONG
백서
속한
mar
가족
감염
##턴트
##Inte
pick
갖추
납입
포괄
MQCMD
owners
명확히
##essional
stanza
우려
migrated
Licens
아파
##ockets
AUTO
algorithms
노하우
sq
##std
newly
Scope
WBS
cut
##Access
##ABLES
정해진
충전
##New
Entry
WAIT
##Monitor
removes
MANAGE
MODEL
XMIT
DQ
arbit
Member
aggregate
화학
개발비
Stock
produces
##lectronic
YO
##복지
indication
Lookup
ODS
Pay
소송
##89
sendmail
플러그인
JP
##yond
maxOccurs
비정
빌딩
입증
##COVER
##SACTION
149
##spect
BOO
costs
송부
여성
customized
JC
throughput
RECV
##어진
한다고
Trade
workbench
Processor
LOOK
CMN
recv
cm
nn
감안
##1946
시킵니다
licenses
##160921
DIST
Further
##BI
134
approx
NON
##ercial
Tech
##ENTER
compliant
beyond
ResultSet
PMR
3970
Conversion
174
WEBSPHERE
리얼
초급
secret
typed
NonStop
Kaspersky
MANUAL
tick
##ARCH
health
ping
수작업
almost
TPNO
##QMgr
raised
마스
FLOAT
##pth
Connecting
Generic
##PP
##블릿
INV
12160921
Clustering
Integrated
mechanisms
undo
##16091946
20081216091946
SHAR
daychk
EDW
organizations
##comp
SUCCESS
##플레이
displaying
destinations
terminates
BUFF
Future
학생
FORMAT
Embedded
effort
방범
suite
locking
##Record
band
시큐
enhance
##64
##bu
##ultaneous
012
Cho
removing
concat
restricted
ir
##Detail
##FOR
##ELD
eng
Siebel
Answ
partial
##encing
Steps
Baseline
벤치
##cles
Unique
정밀
합병
휴지통
LC
fc
accompl
factor
Bridge
continuous
매수
부록
159
Enforce
discover
디스플레이
MH
bool
139
##Properties
lu
exclud
##ERR
released
TRANSACTION
휴대폰
Samsung
tomcat
너무
##TimeStamp
mqsic
Appliance
multip
어음
시대
##INESS
Caliper
payload
live
벤더
partners
Recomm
treated
순환
파견
##VMS
145
190
AutoCAD
##store
transpar
호기
후보
Qmgr
vers
thing
subscribers
아카이브
350
##도체
##adecimal
endl
accepted
IDENT
entities
quotes
Declar
##ipe
##OI
##Bind
154
SYSCS
##ATEGORY
Pages
##check
Its
Viewer
들어오
어렵
Keyword
XAT
abn
facts
MET
##wards
syslog
RACF
MQCONNX
concern
CV
Kit
scheme
repeated
Pol
외화
##ipment
BIE
WRITE
아이템
tns
오염
##Ref
##ograp
tperrno
##mC
##Soft
aliases
Expand
pipe
반도체
##73
archived
SCO
##sec
Defined
ptr
서브시스템
toString
upgrading
Presentation
칼럼
convention
swit
Frame
Interactive
BUSINESS
gdb
##mount
015
5000
Consumer
listeners
서약서
Cogn
Po
케이
##ibern
keyboard
Enh
224
identification
telnet
##itionally
##ISC
relation
가속
국방
VALUES
waits
법규
환급
blocking
SVRC
activate
icons
Brokers
구하
##Pri
##amily
##otion
Company
mutex
ok
회복
기술력
##ographer
VC
법제
상수
##changed
일수
ism
나타낸
3000
merge
aspects
##isco
대통령령
Cell
양성
이번
재설
##iration
Shift
paper
FAQ
ANSI
LOAD
throughout
Contains
FIELD
widgets
##Plan
310
Safe
synchronous
대안
##Dele
angle
##ports
DBJ
WebService
IPC
OPTIONS
##selves
Even
NA
gl
따로
절대
확립
##conn
pathname
TOTAL
Loss
audio
매년
수주
inner
reverse
Chore
204
##Adapter
단점
운전
cached
difficult
uid
도달
드립니다
통상
##ref
##STAMP
encoded
HIST
Compaq
Relationship
UM
쇼핑
##65
owned
CONNECTION
composite
Cancel
##around
##enus
##abet
Compuware
##rames
Shut
##NODE
Products
내려
##Nm
제품군
견본
시킴
##client
preferences
Upgrading
FLD
WESB
##uid
synchronization
DOMAIN
시사
헬스
suff
assist
##ATED
Everyplace
DETAIL
엘리먼트
CK
##ulating
preferred
compared
decre
358
visualization
wolf
구글
기구
165
handlers
INFORM
##uccess
통과
crt
액션
인텔
지하
해시
##LIB
##Desc
##sterisk
사명
goal
##ometric
wire
글자
민감
보류
특급
##DIC
##adow
##ANY
Calcul
SQLException
EU
부동
##rase
Previous
elimin
blanks
##Shield
OTP
인건
훼손
##NK
Typically
runmqsc
반별
##Cache
##이프
REPORT
Perl
##Timeout
뷰어
##RECT
registration
contr
deploying
##Utils
##ACHE
literal
천만
wants
multicast
##Address
##auses
##집니다
##acs
##aves
Scan
increasing
상암동
conventions
##ZZ
repositories
Break
vendors
종업
diagnostic
##Builder
자격증
Removing
pull
국세청
신차
explains
##IMIT
ssw
아님
department
collected
Owner
DML
plain
142
loads
##operability
destroy
Consult
fonts
JAX
selectors
222
##nel
frequently
SLA
별표
##ercises
involves
Quality
MATCH
제일
notify
practices
203
SYN
FIXED
omitted
##gw
STAND
semantics
마트
##Policy
##ulates
Retrieve
인건비
GQ
mir
가운
##pack
##icator
016
0810
##ibernate
age
ko
SALT
SVRCONN
전통
ITS
maintained
합성
##ONFIG
simultaneous
orders
TERM
총액
industry
실질
determination
살펴보
cf
파기
##web
209
DAY
브랜드
20140
Deprecated
GD
##rt
세미
폐지
##OOL
authenticate
divid
접촉
##cture
##artbeat
##ADDR
partitioned
Detailed
##ConnectionFactory
##Events
ECM
Databases
tries
마크
##Over
soft
prefer
##Child
XSLT
BME
SMP
##gree
##portun
ASE
hexadecimal
dspmq
bundle
인구
##bo
##annot
##Req
종업원
연령
conj
QMgrName
Parsing
Struc
Retry
adapters
Defines
이기종
Effect
router
만기
##DF
termination
Operator
##plus
powerful
##oppy
Latency
biz
러닝
양자
##width
201205311
te
trail
amqs
수원시
일지
##퍼런스
ren
##plex
targets
Provide
Numeric
##metric
##abler
volumes
Register
asterisk
중임
Ste
getB
phone
무결성
청탁
##lines
##75
##SCO
##IGHT
BA
Tel
효력
상승
##여금
##vey
등록대장
configurable
FULL
WML
Important
circum
지나
Checking
EMPTY
스트림
SRC
DEV
컨설턴트
LISTENER
Daemon
SPE
대사
빈도
particularly
automated
Jdk
전제
##hel
balancing
WO
##Database
inSet
##ulations
Multiplatform
Statements
신상
판교
outer
puts
examine
Fast
직관
153
ISS
MEDIA
EO
HY
주주
집니다
webapp
seem
Interfaces
associate
satisfy
성실
정확히
quotation
연산자
##And
EXP
POL
tail
##REC
bring
Repeat
IB
보드
##Obj
##Pers
trademarks
bt
알리
이터
조항
prom
##LTYPE
Which
Has
오늘
Welcome
다루
여행
##ills
MQCFIN
앞서
##IFT
##wxr
자세히
##Offset
failures
UUID
모집
Severe
CERT
##ytes
deferred
##Ag
Separ
ROLLBACK
MAIL
협의회
MONITOR
##Handle
LIBR
WARNING
reconnect
LAB
세분
##ourcing
##Exp
##STATUS
국산
실증
##chen
##Open
##란드
extent
alternate
symbols
LIKE
ELEMENT
Percent
DG
얼마
##Cert
##doc
PRM
용접
키보드
popular
understanding
최상위
sound
##ightly
161
SHARE
##like
##Method
durable
lp
##Init
Aug
Bug
MR
reuse
Includ
squ
##Media
MQQ
##PEG
##rapper
materialized
hw
토지
##atio
fixes
escape
맞춰
anonymous
##usion
tested
tpmC
##illa
Asynchronous
dot
mind
노인
일어나
ITSO
scheduled
reboot
합리
Inventory
pad
바인
##rip
사업단
internet
Token
부서장
APPC
법무부
Cognos
##Delegate
tuning
submitted
##ropy
201006
Capture
##ca
staff
intern
Quest
SPACE
InfoSphere
Exper
##CharSet
incremental
매월
recording
LLMC
skip
Distiller
실태
##KMC
Viewing
qualification
math
무역
수배
Administrative
developing
CUSTOMER
programm
##LOAD
retrieves
MQIACF
unavailable
DEC
219
##PRISE
벤처
DDL
ax
농업
EXPS
Cannot
MUST
inno
visibility
간편
##Lnk
##omic
Think
4000
converts
Passport
니다
정적
##patch
matched
##Search
REFRESH
UEM
deleting
synchronized
Multiplatforms
Sys
가변
객관
##CONN
##uro
##ursors
Equ
Pop
##dt
##200
Compat
smart
##vantages
evaluation
belongs
##uation
##umul
##jection
##ACS
revision
##flows
pix
베드
주사
희망
##평균
Persistent
##olio
minim
##olesaler
VSE
뉴스
Research
성시
##den
companies
downloaded
occurrence
fn
##IANCE
PLAN
확률
CONNAME
##Local
##ober
agreement
Blue
KM
deletes
benefits
nt
아도
corrupt
ESM
THREAD
가공비
##인다
Forward
cards
Side
##Button
breakpoint
##orizontal
iv
Auth
UTIL
Life
판정
Gig
##itivity
Child
##UTION
relational
##IGN
distinct
Der
TTA
setmq
CRAB
tt
손익
covers
알람
정제
DDoS
##going
##LB
themselves
SOC
ADO
brack
파생
##UPT
monitored
doubt
Op
##OG
##agram
##ye
contribut
modification
ADS
Variant
PASSWORD
CONTENT
MSCS
QS
##erber
##izable
getMessage
remember
##ilters
RCVR
repeat
SNS
모습
SCSI
HBA
##DEPT
##porate
##ensions
##090
TRIG
Possible
REMOTE
Compar
POC
corresponds
AF
라운드
##iling
IH
도중
##듭니다
corner
consult
가액
behalf
intercept
Enabler
CLOSE
KDE
lo
##NR
감사원
MANAGEMENT
비정형
##BU
##WL
##rec
ee
아시아
어도
rob
exclude
DECODE
SAMPLE
sing
종사
##ITE
Reader
Financial
University
jpg
##INIT
152
돌아
stage
Amer
##eness
##uge
통신부
070
attempted
concaten
Declaration
eth
가스
로그아웃
ended
arrays
rank
##ERVER
December
automation
ICA
goms
국외
accepts
Definitions
Scheduler
EST
nl
미팅
##inder
PostScript
CAPRI
Range
nature
sam
idle
mqsichang
국무
연습
캡쳐
intellig
MQCFST
양호
workshop
gather
약서
취하
통장
##너리
##DBA
CONVER
##85
##angle
##Stack
Accessing
마을
##pad
completing
capable
Family
MQCH
CONN
choosing
XATMI
시사점
##ising
올리
selects
docs
Shipping
SHOW
integrate
invoking
distance
Vu
po
##눅스
ROOT
한편
specifications
Selecting
calculate
msi
letters
##ohn
flexibility
BF
부가세
##erberos
리눅스
deprecated
##apid
highly
NORM
md
클립
clock
Num
동양
##ray
association
VLAN
산재
##VALID
recognized
노트북
##gu
Existing
260
stopping
carri
pub
구별
##ICY
threaded
recommends
Communications
BAS
Illustr
bulk
진화
IEEE
##return
충분히
EF
Just
coded
접속기
EXT
floppy
TEL
CHLTYPE
Ess
FX
ng
바코드
##imation
BmsOrdCard
EXPRESSION
노후
205
DEL
마일
choices
OTH
mint
익스
Workshop
RPG
##OURC
무료
촬영
##eploy
DBT
ATM
충돌
RUNNING
080
ND
반면
##level
IPT
STL
SYNC
lifecycle
compressed
##quency
migrating
LIBRARY
비슷
SWHOME
False
##수증
##OSP
APPLIANCE
입장
##Application
##anumeric
incidents
Determine
eXt
VuGen
약어
##Cd
specifically
soon
##Module
##node
##efined
공격자
FLOW
Organization
부모
정량
누구
유스
##ses
##74
##훈련
conjunction
##umulative
AE
압입
##리스
Pract
270
libcurl
Draft
dossier
troubleshooting
적립
211
Why
Deploying
coding
##arb
border
반응
##ETABLES
Controll
##son
##GROUP
##ICAL
updating
Grant
bi
체납
Views
POWER
instrument
Offset
subdirectory
Dashlet
Include
##exec
Mediation
Credit
Polling
Flex
MN
sOrd
별송
copying
떨어
resides
Persistence
traditional
변형
white
EXPSOURC
EXPSOURCETABLES
청소
Normal
Tue
compet
Plugin
notifications
administer
가운데
수식
##atives
OpenVMS
##IZATION
##Dest
0002
Specific
Confirm
piece
Hour
LF
재료
Remarks
Allows
직업훈련
News
CURL
dedicated
510
Sap
도모
부당
특권
CONNECTOR
UDDI
임무
013
TRANSFER
##FLAG
MAPPINGMODE
##nov
##민국
##정보
storing
pointers
PROGR
부동산
갖춘
귀사
논의
유의
Selected
목적지
##program
WSRR
모코코
cpu
solid
convenient
dp
연기
##205
distribute
separately
Signature
그레이
20090
describing
revoke
optimization
4096
Fre
##Cnt
edu
##SOR
Descriptions
PKCS
못함
##eline
interMedia
SEL
apartment
동사
##rem
##ToEmpty
HI
mp
에디
##300
384
근로복지
Arguments
Samba
MQRO
discusses
툴바
##Case
unn
MSSQL
##Column
근로복지공단
##tx
challeng
대한민국
RESET
vehicle
Meaning
납기
degree
155
Attach
increased
BWM
AGD
RTI
Like
MIG
nat
formula
##Proxy
강의
Comments
subs
separator
gt
점점
좌표
##LEX
MQSI
##Delete
SOFTWARE
eXtreme
Gbps
ii
Envelope
##회계
adm
deadlock
dashlet
누설
##으나
MQJMS
바이너리
SUN
일단
Additionally
matter
Utilities
Head
이진
##entdd
Stud
##mn
GA
속하
##att
predict
MEMO
노동부
SOL
Remember
ML
##Mgr
##Works
Cisco
##Row
activation
Axis
그것
##agraph
Inquire
assignment
alphabet
taking
Prevention
copyright
411
charset
grouping
mea
188
##Proc
인데
decrypt
폐기물
gif
용성
##gress
dropped
CASS
Spe
오전
attack
argv
office
WM
핸드
##stances
Proprietary
개소
오후
##lleg
##AA
Interaction
Controls
##UNC
Privile
demonstrates
Sem
VE
css
157
customization
discarded
aff
용자
##pa
DHCP
Choreographer
macros
alphanumeric
가리
원주
전역
MQW
##OSE
vertical
대분류
Unis
ADV
표현식
Invoke
유해
공동수
##Seq
Professional
DSC
HS
##obj
kept
affects
balance
Debug
Balancing
BDS
Feed
TG
ahead
차입
training
169
##lexus
인명
##aph
##apters
##Change
Coded
OID
eight
수산
viewing
EAM
만듭니다
SHARED
기억
239
Dictionary
Light
TIMESTAMP
조달청
Navigator
half
우회
URLs
routed
Standards
vtadmin
EAR
##HH
DISP
feedback
Need
mixed
키를
##로피
grouped
접근권
txn
INC
Within
##UserId
stmt
##apsed
올바른
##iders
신청자
SEQU
Establ
bootstrap
DLP
##upported
Dupl
Series
급체
BmsDct
SERV
##itute
wolfSSL
bed
six
MQXR
Unisys
Knowledge
Oriented
금품
##Ptr
##어난
modem
conditional
RECOVER
manages
##NOME
대내외
완전히
결번
##bes
generating
Alt
##cpy
filesystems
Clean
LM
tpreturn
effectively
##reet
CHL
마운트
한하
##otals
Deleting
PurePaths
laun
캐쉬
##ICES
reader
networking
Drive
streams
VI
당시
##erg
계약자
People
##si
USAGE
234
Such
DAE
##java
##logic
country
minute
Wi
##63
Reset
179
visit
rolled
050
Filters
omit
som
##UCH
##def
Orchestr
anywhere
tabs
IIOP
##Max
Enables
offline
1998
##clusion
계수
집단
##니까
##ury
기본법
complexity
##Thread
paste
##UV
STD
arbitrary
suffix
신속히
hierarchies
HELP
##Model
fri
oct
##VID
##HUB
dependency
Complex
viol
Route
CipherSpec
Similarly
JOIN
pid
##ao
##MR
##YANG
reach
propagated
purchase
세미나
CPS
Material
ser
수리
compilation
ever
공직
등기
슬라
fall
inactive
RESP
accesses
##ucer
BYTE
독자
##lling
##Execut
##Default
엔트로피
WAN
##ogene
자동화
232
스파
##acall
IFM
Identify
kitchen
##llegal
##bre
Manufacturer
주어진
##Descri
##NER
Prepare
initiated
Filtering
esc
overl
prints
330
MDB
반대
Contract
##osh
scre
183
Modules
CHANGE
고침
presence
##ancy
GRANT
permanent
HL
ui
사라
확충
2048
##Conn
NonXA
가중치
머리
최저
##UMENT
##ithread
##Beans
##ozilla
##상부
##DEV
PROTO
MQCD
Workload
Party
##Select
ty
##ONS
##aker
162
Computing
OVER
관세
혼합
##Dt
##QU
putting
books
Encrypt
opportun
mix
wor
동부
asp
Extract
2022
overwrit
175
credit
여서는
OCS
##YTE
reload
LLMR
##Body
##WR
177
184
activated
INSTANCE
ACTIVE
거주
준공
overwrite
이루어져
NPIS
외교부
IAAM
##brk
나타낸다
##nc
Compos
부담금
NAMYANG
circumstances
BIG
상반기
compliance
STORAGE
##월일
ONLY
MQFMT
poly
중대
해상
##ese
asked
Hi
만일
협정
##DY
subclass
221
modeling
090
책갈
initially
책갈피
정성
제동
팔레
img
transmitted
청구서
eg
국회
##oph
아니한
commons
ENC
REPLY
Dual
김동
##QUE
MQCNO
Scal
연수
포스
##KS
tpget
##ossary
라우터
ICAO
##AF
##KNO
alive
acts
Modifying
819
Pointer
cron
유입
종이
##BL
##ulf
black
explanation
prevents
Merge
가져온다
PQ
ZIP
city
vSphere
크레
##Schema
치수
AnyLink
##GS
exceeds
##ashed
unused
denot
타인
##eer
monitors
##Install
외교통
possibly
Experience
bill
관할
배당
theory
##ista
##ILITY
hyper
실수
##ndi
IND
INQ
outcome
##Resource
descriptors
Cast
Mandatory
인재
##Only
가져올
internally
fragment
her
talk
리자
오래
유실
##haps
clos
XMITQ
280
쉬운
유발
##BE
외교통상부
saf
플리
##cr
171
CCSP
solve
propagation
RBA
aug
##zis
##amed
interested
1521
FACT
결론
0100
INTERVAL
JNI
생년
인간
##SCP
behind
팔레트
##PAR
##105
##CIM
##ogeneous
401
intermediate
##OSPHERE
대중
화살
##hone
낙찰
##vo
Delegate
ANAL
##aws
Debian
대역폭
rang
보낼
##hp
##84
##ws
##weight
PROCED
Cy
##Man
containers
##cont
INFOSPHERE
Domains
manipulate
Our
병합
##ki
##inger
DataDirect
TRADE
NF
선별
출하
restored
TABLESPACE
searches
Rate
##분산
notation
pref
edition
TPM
##GB
Ann
외부망
Disable
decisions
WBE
interpreted
##erequisite
Sheet
VQ
fed
watch
##iency
clustered
##het
##0101
##roken
Guid
불가피
finish
##TRAN
##Driver
AJ
##Reply
Compatibility
099
DU
고품
원고
정체
isolation
international
181
TIMEOUT
YEAR
보강
##ailer
##NSION
queued
combine
consistency
relating
registers
상담원
지우
mqe
##mdd
moves
##sembler
June
Amount
검정
넘겨
누리
비스
##GN
ordering
redund
effects
신문
플래그
documented
등장
Discovery
Demand
정식
explained
DLQ
경기도
benefit
Fundament
루틴
##aight
##리즈
Profiles
Environments
EXE
전산실
코리아
##aft
programmatic
IFRS
CSQX
##HTML
regarding
Green
GNOME
기아
배점
선임
##환경
Exam
##loaded
Requirement
##OND
locator
Snapshot
##fort
##rome
##IND
225
minimal
Continue
inherited
Answer
종별
##inc
443
air
pip
스테
##uary
MG
frames
상실
위함
재배
##limited
##kens
MQPS
OSS
interactions
##Office
ELSE
enclosed
PUBLIC
커널
##category
##RET
##WE
##ocations
##forward
sorted
Air
ESC
Fragment
serve
비디오
차수
##artner
##ERV
uncom
ending
TSAM
CURSOR
DIRECT
altered
공항
introduction
검사기
ESXi
응급
Sept
Agentless
increases
labels
crash
##Template
소계
##Read
commercial
014
ENABLED
LOTID
chmod
UNKNO
Bucket
partitioning
SALE
flexible
##나라
##anium
arc
##MTYPE
uppercase
JPEG
Synchron
강소
##enda
##SEAI
Temp
SCSQ
hit
바란
산림
수렴
##LATE
##YP
자료실
Plexus
iOS
루트
##can
inetd
##ashes
spool
acqu
modifications
green
PROPERTIES
zeta
unsuccess
alerts
##dev
부대
getString
Coordin
cleanup
원문
##ka
투자자
elds
ilink
##Tree
##ibilities
loginVO
MQQueueManager
##mask
BmsConstants
Ren
##avor
통신사
Listen
ENG
김현수
Critical
상거래
unix
극복
시오
##COL
Minimum
엔지니어링
UNKNOWN
Loop
rend
Prepared
lowest
NVL
artifacts
교류
프라
228
Subversion
그러므로
적절히
coupling
RELATION
mt
mnt
로우
analyt
##atever
206
improved
months
suggest
##LOCAL
SEQUENCE
슬라이드
AMI
Tx
재원
확실
163
Restri
UND
hom
수명
팩토리
후행
ann
MQMessage
0200
380
송금
##atures
hosted
출입국
문구
커버
indicator
War
##uild
##QName
##ampling
가진다
website
올바르
CAR
이수
intr
Stopping
NORMAL
ff
면제
합산
##XY
##umb
##ansion
backend
SDR
EDT
replacement
Fault
습득
##ifiers
tpalloc
부하분산
Developers
ARM
away
185
TBL
retrieval
restriction
PROCEDURE
installs
accomp
REFER
licensed
BD
Euro
본다
원자
##fox
##open
diagn
endpoints
INITIAL
authenticated
aa
304
conversation
Extensions
LIMIT
롤백
##imately
Wholesaler
4100
legacy
디버깅
Hierarchy
BZ
Pub
거치
##geb
##ORI
178
060
ARRAY
OBJ
Freeform
시뮬레이터
##UPTABLE
##Vantage
##사이
##aming
ACCEPT
Vector
xr
바뀌
타워
##Target
##Rule
##Acc
##피탈
242
##ucation
January
FOUND
매칭
stab
##ulner
disposition
amt
CSQJ
FCP
요율
ine
generator
hwp
##Iterator
교육청
compound
IOException
Secondary
Nodes
##Bl
##011
Screen
SEQNO
ONLINE
##istorical
mus
##vm
166
아이디어
organized
Supply
바란다
FG
##위원
##enn
JMSException
관계없이
Packet
graphics
overrides
listening
여건
##Grid
20110
explain
##Parser
CFS
yym
지리
##Rep
##da
enforce
scans
리뷰
이송
##YC
someone
QMNAME
LGE
certified
LOOKUPTABLE
초래
##count
164
identifying
syncpoint
OI
neither
modi
Sending
##Logger
배제
244
231
Customers
limitations
Without
##ruption
Multicast
생년월일
표제
##odesk
verbose
##LINK
OWN
PFM
Wide
여전
##프로
Compile
Choosing
augment
pwd
##ez
Third
flush
minor
GUID
##Job
##rehen
##acl
##taining
##itrix
legal
fine
우대
응방
182
WINNT
divided
PVU
Sout
cient
위기
##TD
##ISt
minOccurs
BPC
Undo
John
cumulative
품명
##PM
##traction
186
consolid
facilit
essential
ai
크로
##Free
##Sync
##LISH
##pts
expert
Algorith
helpful
responsibility
interpret
tuxT
##iser
Cookie
Fetch
강남
완화
폰트
##특별
theor
##Cons
248
Position
AVAILABLE
Sur
다를
##TZ
##Batch
##017
reside
Eas
Itanium
namelist
expired
calendar
##위원회
Vista
Zero
cust
dif
폐쇄
##ager
##imedia
218
truncated
511
Fill
la
tutorial
yield
텐트
##ony
##usable
newer
coordinate
implicitly
Rename
cable
sr
##Crypt
##Api
CDATA
tpacall
Python
걸리
STO
##isioning
20200
carry
PAGE
YTN
pse
sig
directive
reliability
131125
Crypt
appendix
216
213
factors
gn
opp
재개
450
DSP
preference
196
Alph
Levels
STANDARD
POLICY
gcc
hide
법정
통행
##ERY
APT
##CHL
ADAPTER
financial
evaluate
Virtualization
선박
isEnd
스크린
386
##Comp
joins
Mbps
Roo
지분
풍부
chk
parenthes
Hit
convers
전산망
guest
플롯
BPR
simultaneously
위젯
##ude
193
화살표
사정
재시
iso
Prevent
cells
건축물
부적합
Supplied
dom
전공
확약
##Location
##ebook
Price
견적서
applying
##Edit
Jeus
응대
##Lay
INVALID
populated
##eon
##bing
REAL
##astic
entropy
mqrc
reliable
215
Correlation
CAO
##nowled
국고
예탁
##린다
floating
parsed
Activation
guarantee
face
saving
##LEVEL
readable
IFR
도전
탈퇴
EXCL
agd
이지
Super
##Plus
WR
gure
스스
스토
##Rem
디자이너
##IFI
exceeded
교차로
가시성
TRIGGER
isEndSeparator
Citrix
incons
##ishing
##ighb
CAM
dv
##more
quote
Transactional
아니한다
diagnostics
기다리
hello
녹색
누출
명사
recently
암호문
datagram
Restore
unsuccessful
RULE
km
##밀리
##apes
##ftp
validator
##GRP
ACCOUNT
uniquely
rmm
kinds
soapenv
CONFIGUR
##ha
##수록
##로지
Generator
latency
131128
sequences
IAM
금형
##SDR
Units
obt
introduces
menus
##cape
##iances
##oe
##사업
owns
browsers
##Identifier
jb
레퍼런스
컬러
##VIS
Inherit
closing
하이퍼
유가증권
HAND
간소
usual
187
Art
tablespaces
재판
증진
Trad
Permission
SAF
458
Japanese
PAY
Random
무관
##ascript
straight
167
freed
PROPERTY
LET
TDR
##iest
strength
1997
Community
dimensional
약속
총계
하이브
##oment
189
Incident
나타났
msgflow
matrix
combinations
Problems
광범
적시
##Tag
##rans
PRIV
ep
입주
Exercises
EXIST
early
GMB
카운트
학력
##ius
compact
TOUCH
Symmet
integral
DUAL
tro
핸드폰
Social
국립
배출
실사
##mits
보호프로
dbs
repair
ownership
보호프로파일
Wed
##broker
expen
trading
##ssl
##Engine
참석자
EBC
검찰
광교
당기
##UME
envelope
shadow
StringUtils
Always
subtype
captured
IMPORT
GT
전일
prim
slightly
feel
Kerberos
PE
QTY
조체
Learning
일원
backward
Autodesk
FORMTYPE
GSUV
hh
불러
##닉스
Resolution
목적물
dimensions
Fundamentals
AX
매도
범용
##WD
unchanged
SMF
initiate
programmers
IZ
Mozilla
테마
##LEAN
Overrid
instruct
PIN
프록
1001
Left
reduces
##umeration
CHARACT
LSM
VIT
체감
##hemat
deactiv
ARS
declarations
광범위
Cycle
cxx
영수증
외장
환수
##004
##index
##MCATEGORY
##Directory
substitution
suspended
시큐어
Cr
쿠키
포틀
IDoc
OracleTimeStamp
blue
FORMCATEGORY
csv
extracted
MULTI
나가
더불
STORE
MQSUB
DISC
Beginning
소분
spent
##관리위원회
warnings
plugins
선거관리위원회
Glossary
Drawing
PROGRAM
OZ
일상
1311
SOCK
Detection
CTRL
Topics
Eai
##기관
##젠테이션
기술료
outSet
Prerequisites
Symmetrix
viewed
rejected
Vt
mor
미비
이음
edge
##PSS
##Sta
##ommod
BSD
##미디어
##제품
Loading
Invest
optimize
패밀리
shm
ITM
Mapper
insight
311
CJ
Samples
자정
피보험
substring
##ITLE
Correl
운행
하루
##error
expiration
clustering
countries
SUBSTR
immediate
Analyze
HIS
모아
Initialization
Dashboards
Throws
mqsicreate
##brevi
구비
귀하
야간
외산
MQAI
Traffic
NETWORK
References
나중
##POINT
##With
portable
signals
CATAL
Den
주무
##LOW
Submit
##BIOS
Derived
cookie
daily
대우
방카
##uer
##gt
TRPTYPE
Namespace
Cover
금일
차례
seed
거래처
relay
indexed
과학부
차이점
##Binding
자식
##omorph
##econ
##istical
##012
whatever
invocations
Throughput
dm
Interval
INTEGR
probability
awk
RHEL
MATCHED
하이브리드
OW
QMQM
동법
유니
육안
unlock
necessarily
October
switches
공직자
수평
android
NAMES
reduced
deny
간략
이론
접목
IDX
Soap
##사이클
프록시
Ra
ur
하반기
##MARY
##zip
018
Descriptor
214
paragraph
Columns
WOORI
odbc
강구
##free
MQOD
##ETCH
Repres
JCA
sso
잔고
##ithmet
Again
480
부호
##ullet
Inspection
##aste
194
TXN
##ybrid
webservice
lt
Filesystem
라이프사이클
docker
rpc
재발
폴란드
##Reader
##hand
##Broker
##amer
Department
SQLSTATE
colon
##ometry
새롭
선불
##Decimal
##Label
##ASON
##Regist
Tablespace
들여오
Composite
cv
nh
##zz
019
207
##fficiency
Blank
우리은행
시켜야
advice
hang
공원
안티
이스
##Socket
presents
AAA
abnormally
##CharSetId
명과
closes
Exposed
0010
즐겨
forth
correl
드리
##평가
processors
##Configuration
Plot
Country
Machines
##arbage
750
broken
entirely
##Quote
스케줄링
접점
##YNC
intend
191
Workspace
GLOB
민자
remot
신용카드
50097
Navigate
VRAID
스스로
DAS
WID
각호
약관
chunk
Advisor
Comb
Specified
Scene
Car
고령
트레
OSI
##RIPT
EXECUTE
HG
VF
dates
gain
spl
tu
고위
deletion
potentially
Facility
570
##ae
##BN
##광역
Administrators
27001
slave
##phone
바인딩
yymmdd
550
MV
ment
nice
깊이
shape
MSET
##adding
바람직
JA
aud
##Mapping
##aved
1200
accommod
CSC
PB
분명
파일럿
017
JavaBeans
신용건
POD
BmsOrgUtil
##WAY
##AINT
마이닝
POSIX
##rontab
##Image
Qualitivity
Conditions
Europe
tax
wtf
재단
##icity
getName
structured
느린
##메이션
STK
##DED
254
측정값
REGION
Firefox
Fi
SUS
got
hint
레터
생체
초점
##vas
##omez
OPER
국정원
마스타
Cos
rfc
관인
환불
##RG
logo
DEAD
BmsLnk
selections
##Attach
radio
##광역시
sid
관찰
##ott
Dead
LOOP
##RTD
나온
으려
장착
##Space
039
Heap
CAST
근본
consumers
##Integer
EBCDIC
Gb
연평균
용인
##82
chapters
lowercase
의약
Enabled
replaces
##0106
Dataset
##option
##닙니다
requiring
summarizes
기종
031
Good
##rehensive
Duration
rb
원복
##Tx
analyst
clauses
##ONSE
상세히
Initi
저작물
fer
##IAS
Depth
RECEIVE
NN
Vi
김영
##Pos
##CHILD
BIZPL
부적절
MCO
fundament
미수
아닙니다
##TEST
FORCE
Convert
drilling
##ufacturing
bold
질병
##Files
##dp
##이익
clone
resume
##chemas
Accounting
ENTERPRISE
##Entry
electronic
본격
##맨드
##iform
##unct
Analyst
13120
importing
Small
MERGE
assert
176
Priority
Different
상관없이
스템
목표치
299
Sources
가질
##IGH
agree
##commun
Ack
water
##거시
##vers
graphic
initiation
cycles
520
퍼티
227
Displaying
UBBC
##Person
Dump
의결
##onnect
MQConstants
dispatcher
computing
Named
##books
MF
##ruct
##Meta
##0001
OLTP
maintains
cleared
Fort
능동
재검
##Block
##icles
##rete
SEG
Records
복잡도
Signal
fraction
##Wind
##Kit
##atus
##uble
IDM
dbms
CTS
frequency
##persistent
said
영어
##Pane
##igate
giving
Swing
measurements
Measures
Gets
Icon
collaboration
과태
소지
재현
전면
tokens
##htable
223
312
PUR
오토
##608
telemetry
trailing
Illustrator
UBBCONFIG
휴가
calculations
sorting
somew
Lin
QR
horizontal
jndi
택시
Respon
247
멀티미디어
##ithmetic
March
스캐
tempor
경영진
OAuth
Institute
173
235
##urist
귀속
동력
역서
예보
##JS
INI
drwxr
Band
hp
역사
##derr
replicated
FILES
##DOWS
BUFFER
Sch
##002
Strategy
Analyt
##arehous
incomplete
Dimension
CMQ
Docker
MAR
강원
히스
##lqual
Force
Manip
ADM
OpenSSL
CORE
##544
COMMON
WINDOWS
interesting
Translation
Gre
joh
출고
##업자
adj
USN
HPUX
##Customer
Split
ij
##NSC
##illy
refres
##STRUCT
occurrences
ro
xFF
공람
##och
249
Logs
POOL
errno
201003
과태료
NARD
재직
##Ver
##도로
thlqual
leak
##REAM
241
Flo
stdio
respective
Lifecycle
PoC
420
부도
CSQC
CLUSSDR
Pi
ksh
tc
레거시
분담
pen
고딕
printers
Models
friend
GLOBAL
내외
출원
##FD
inqu
##etype
##asc
기준일
Quarter
edited
CodedCharSetId
되돌
무단
##omb
stable
recurs
InputRoot
translated
Following
TrueCrypt
ANALY
단속
수직
CONF
EMS
중개
##land
##eless
permit
Instances
Visibility
annotation
터치
에서부터
##Conf
graphs
subsequently
VITRIA
423
DCE
전수
stamp
twice
MTS
실용
259
keeps
screens
여전히
스토어
META
ring
독일
스택
유치
##folio
upgraded
Gomez
Modified
EXTER
##Track
Typical
ARE
CACHE
px
선형
포장
##icip
retain
##irty
RTSP
scheduling
청소년
CHARACTER
정한다
##ned
##PED
Permissions
triggering
Considerations
HANA
sourcing
선호
재분류
##SD
##INVAL
pools
hierarchical
PRODUCT
인텔리
Fax
OUI
ti
Operational
EOF
Cart
ISMS
Customize
##gnore
EMPLOY
geo
강사
음수
YM
tions
인포
##IBM
##RAN
##Last
ther
##gres
##cedural
238
나타남
Week
branches
##ulfill
mv
na
tty
229
dashboards
클립보드
Proc
##etscape
grad
에디터
Park
SMB
##tc
##esource
indirect
STAR
dbenv
simplify
salary
Cou
더부
##icing
##ONT
EXPORT
컴파일러
##OrderId
Synchronous
UOW
Ve
철수
##Head
requesting
corporate
Recover
지방세
Issues
Dere
cursors
격리
##Is
##AE
##Book
SHIP
Improve
PROTOCOL
Mc
창의
##andem
BmsException
Performing
iPhone
정액
converting
DISABLED
##aha
ROWID
모의
헬프
##UBUN
Validate
busy
July
METHO
IOP
assets
SSD
achieved
Pat
bath
##History
sta
USA
intervals
##Byte
Recommend
BANK
lob
바닥
비씨
##QUEUE
Sep
1415
fewer
accurate
Instruction
##manager
CSR
slot
Feder
누른다
대문자
##uff
##do
##ga
##디드
##ples
MOVE
가져와
article
recognize
Mart
bs
물량
범례
##core
##NUM
##dr
##베디드
##ids
REQUIRE
scalability
Determines
Feedback
고품질
nes
ratio
균형
김성
든지
임베디드
##jax
async
195
##BOX
precedence
RESPONSE
September
Div
NAC
Somet
WRK
처벌
단순히
UTC
Duplicate
QoS
rapid
walk
세종
stderr
##Profile
##installation
expressed
arrive
##Loader
NR
SPSS
wbi
도표
수상
열립니다
##SVC
##Java
##osure
Unknown
publishing
##stdc
bandwidth
##ithreaded
Hibernate
Webs
anyone
libstdc
PWD
confirmation
과세
긴밀
원산
차년
##dl
##ana
toler
Industry
레이블
플러스
##UPS
##anch
isol
ManifestVersion
StrucId
TAG
영리
##block
##Writ
##ACC
persist
SFTP
Empty
RX
교수
##ILL
quies
Apps
370
Xm
못할
양도
점차
##MIT
##003
Unlike
overridden
Timer
분장
##FR
##입니다
##Transfer
snapshots
Rad
워드
noted
REASON
404
Compare
GRP
Wireless
alignment
징후
##num
관련자
226
CIM
pw
tit
비대
준하
lg
learning
설계자
flat
wsadmin
아파트
RELATIONSH
Telnet
##Next
##스팅
foot
neighb
optimized
CWE
surround
MACH
##DAT
##CAT
##run
XMLNSC
SupportP
서울특별
CWY
서울특별시
GO
TIB
소멸
strateg
causing
Comparison
gen
울산
자명
##86
##abit
##istribution
goals
Initialize
TUXDIR
ACTIV
debugger
Government
IPTV
6000
Sql
숙지
해준다
##Mon
Introd
302
packaged
encounter
alpha
표지
Compl
replies
negot
##40843
ft
대회
데드
##Function
Verifying
Caching
수당
##Xml
##alic
ste
assigns
Items
filled
텔레콤
5009740843
스냅
줄일
heav
Basics
TRIM
pptx
계열사
AH
HAC
SAVE
Controlling
크로스
피보험자
hub
부득
##tab
advantages
OCR
##HTTP
검지
그린
기일
도난
이종
##strategy
Prefix
Returned
picture
원산지
Gartner
Roles
TL
방재
수도
여도
##rd
##WEB
##가스
rely
Guests
MQCLOSE
의약품
Will
공조
통부
##framework
##Topic
##어링
##ooth
hosting
##IFY
수입금
Brand
Factor
BIS
GMS
XY
sOrderId
Disconnect
##AGES
svr
inheritance
Aggregation
Infra
CONVERT
ICS
MIS
TIP
지장
advert
1312
dbp
signatures
discovery
involve
MHz
TITLE
##uts
conse
MSA
ROI
terminals
##FileName
brackets
마일리지
OWNER
RB
cb
수석
##look
##abytes
expiry
websphere
CEI
controlling
Tandem
서비
##Ctx
ITC
233
DOCUMENT
CentOS
미세
선처리
##Bridge
atmi
orderid
SDO
meaningful
Original
EUC
KORE
Xeon
dial
산하
##sf
##Way
##InputStream
스코
타행
학술
##모비스
FileName
qualifications
현대모비스
PRIOR
BAPI
##UNG
WDB
마켓
의심
##Services
##OLI
ROLE
retrieving
slide
호스트명
Templates
HANDLE
KSC
dn
굿모
트렌
##Gu
Attempt
maintaining
굿모닝
Vantage
순이익
##ilename
DEAL
##PLY
finds
pressing
implies
ABAP
Structured
Fore
PAS
##gi
##Lob
getC
송신자
BmsLoginVO
SAML
pieces
Shortcut
temporarily
관세청
원리
##Min
6553
intelligence
pp
나와
시그
inserts
REPOS
broadcast
YF
fiss
온도
진도
##랑스
생성기
relate
ordered
SERVICES
GMI
mc
oup
잔여
##anger
Exact
Uses
Startup
authorities
Detect
acknowledge
##Shift
소모품
Audio
Nt
차후
##sr
##oting
trade
##AResource
getConnection
plane
guidance
DFD
warrant
BAR
GPS
Round
pure
명의
##Crypto
##heast
##rout
Procedures
##pename
MQCACF
knows
FT
Germ
QLOCAL
RI
페이스
##ulator
20070
operand
backing
##RCVR
264
INVENT
Iterator
드론
영국
주력
perf
designated
PARAME
offered
satisfied
EXTENSION
Bound
FM
ell
격차
불능
Adjust
Logger
configures
YOKE
ABS
mid
사기
##An
##value
##DIF
brand
DWF
TIV
fair
세무
했으며
##83
mqsist
Technologies
Parent
Connectors
backout
SYTEAI
Salesforce
데스크톱
transparent
동반
요령
워터
##yte
##ufficient
Threshold
whereas
simulation
Allowed
transformations
MRTD
결의
대민
##사용
ICAP
administered
TIG
bb
누릅니다
움직
졸업
##igible
BPO
Flat
AU
NDS
Ro
언스
getLoginVO
Chrome
1401
amz
EVNT
originally
501
Old
열리
##enames
##mental
shift
integers
STATS
Devices
ONLSEAI
enhanced
얼마나
HSM
SMD
pb
누계
수질
##hav
inher
ONET
편의점
Phone
primarily
Benef
Know
WF
han
##lined
##SL
unlimited
SELL
unnecess
##Account
JTA
dem
##소싱
1500
heartbeat
Uninstalling
혜택
##oit
##witch
##Bus
된다는
relatively
Grouping
아웃소싱
Supplier
객사
leaves
scr
appended
236
SCEN
TIVOLI
Mis
##ynthet
ACCT
Postcard
Subscriptions
Peak
이주영
DRI
ae
난이
남기
##Dec
##Bag
거래자
Assembly
Members
acknowled
arrives
WE
XSQL
안심
출연
MQDL
outstanding
##Reason
1995
20031201100
Banking
park
덤프
종결
prox
extern
exposed
##author
serialized
트렌드
CCI
정착
통관
attention
builds
Abstract
##OMANY
Registration
consumption
LB
문법
subquery
statistic
SFP
사무관
Graphics
manipulation
Redo
mog
sy
용시
초안
##tl
scmp
##ught
주차장
study
OCSP
발령
환율
Conference
decode
##bytes
20140106
Operators
collections
Scripts
profit
RELATIONSHI
FETCH
Miss
pin
TRUNC
POSITION
Decimal
determining
acceptable
찾아보
msiexec
Sockets
TW
UMS
national
무인
지원금
strlen
writer
SMALL
CRT
Days
곤란
와의
조명
##Err
##투자
SPI
Prototype
Calling
expanded
CGI
multipart
House
cari
송시
신분
져야
##차순
##unately
WebT
CHG
CLWL
289
patches
OTHER
Bill
ol
##cest
##entry
##section
quantity
다소
출발
##iguous
defect
Successful
ONLSEAISO
##inition
UNION
중요도
SPX
##works
Several
##prises
EXTERNAL
gp
거절
메터
미처리
##struct
acceler
TRANSM
##SCOPE
##Consumer
Tw
수기
##Part
##erting
영업소
##mqi
##138
IGK
##보험공단
##Delivery
9000
Bash
청사
혁명
probe
idx
peak
EMPLOYEE
RELATIONSHIPTYPE
glob
##Dyn
##VP
##using
##fte
consume
SFG
finally
ATTRIBUTECHILD
MEMORY
Korn
시계
유즈
직종
##BT
##BLOCK
된다고
independently
Navigation
900544
Capacity
theorem
YMD
발췌
enfor
TOOL
##inese
Desk
Simpl
appearance
##Color
coordinator
browsing
tenant
ONETOMANY
Cursor
vulner
포럼
##제표
Forecast
243
##ancer
restarts
collector
corrupted
SDL
프러
##단지
##enant
건강보험공단
##status
November
프러시저
DUR
ict
가까
플라이
##사고
Injection
##ourne
scanner
Networks
downloads
XSD
Mi
mag
tibero
으니
이노
전혀
0101
조건부
persists
Datas
##CONFIG
##PAH
fundamental
CAL
Fib
번역
온다
##field
##oul
Username
scripting
Suppose
##Permission
Enhance
Speed
SUSP
290
Raw
render
커스
파이
##inity
##char
spreads
logon
##RED
217
LOGIN
Verification
precise
AASPAH
Concurrent
versus
운동
하여금
alt
Background
##ought
재무제표
기상청
스파크
IL
SORT
##WSE
ERD
Sharing
Editing
significantly
incorrectly
매장
애니
##NM
##Su
INCL
251
Reduce
관측
##marks
##Buf
Works
##eterogeneous
Aggregate
Mechan
면허
##sem
##erty
Prin
##ILING
sysdate
Purch
해상도
414
키로
##시간
##imo
PDA
##QueueManager
ReplyTo
##Receiver
Hashtable
##Layout
340
North
vp
워킹
##Oper
252
##COD
##aphore
AUD
MID
firm
##총리
nonpersistent
counts
CLUSRCVR
tune
HISTORY
##EAD
thin
Recipe
searching
471
##Security
SEGMENT
RTT
Upon
efficiency
rare
병목
strict
Keys
EDM
measured
다이얼
EPMS
INFORMATION
feder
johan
Sometimes
상업
프레
checkbox
bitmap
Locator
##Unit
damaged
pixels
mogaha
실장
Three
##antic
buy
완료시
utilization
MODULE
TMP
living
사설
##JO
##Bound
params
illustrate
##auth
iPad
PERSIST
cart
빈번
직전
생성자
BmsSta
Scroll
##999
##Valid
##ynthetic
ILE
LR
Same
gw
교재
불출
행하
Prop
Delet
operates
confidential
designer
자산관리
복사본
holding
##xml
addressed
indexing
SPO
translate
geometry
springframework
국무총리
MISS
세그
원시
##YK
##allery
##ERIES
abbrevi
OpenShift
BmsS
BmsOrd
##Subscri
hyp
nod
##pool
##Sample
##gression
Ezis
RR
임차
재사용
##vice
SEARCH
compute
세그먼트
VG
cubes
가산
미칠
##산물
##atial
Migrate
saves
반장
방어
주거
합동
subnet
variation
EXAMP
archiving
Bo
Ev
bc
dh
jre
##Cred
##xt
##UCTION
##ETIME
replacing
teams
UNIQUE
##Writer
PCT
대칭
돌발
quit
BmsPjt
Checks
mqsire
ORGAN
BROWSE
Focus
HIGH
Iron
worth
판별
##Dialog
##Term
##두리
##ORG
largest
JEONS
pooling
부득이
JEONSONG
410
래스
악성
##itude
##iled
ISIR
expansion
apple
회의체
Reading
Privacy
TTL
종사자
CPSE
KOREA
Dir
Policies
Rob
Saf
구청
##DISP
##Appl
##Write
##LLER
Alloc
demonstrate
concurrently
growth
fire
원화
했으나
##WARD
##util
Tru
MQSO
동의어
Updating
##Expression
131206
김기
##object
comprehensive
viewport
ESA
PLS
accommodate
csh
gured
malloc
고성
연혁
##Bas
Chinese
existence
리케
쿠폰
ObjectName
303
게시물
guaranteed
차입금
Bourne
Hconn
Nested
마당
아닐
휴일
##Vari
1048
SANTA
MQMDE
singleton
fm
달력
##OPT
##Vo
##Menu
compr
constructed
ETRI
##ippet
consuming
mkdir
NICE
Netscape
she
한가
##천시
##roperties
##aints
Subscriber
##Receive
##ophist
히스토리
SIP
elect
나이스
밸리
차감
##domain
##rier
##ubun
20080
transitions
modern
preview
0300
designing
##OWER
recommendations
Governance
robust
ranges
농림
##Travel
engines
parentheses
430
서블릿
추구
훈시
##AO
##select
proprietary
setopt
travel
shipped
multipl
SDP
PKD
errhp
##598
##Library
ipt
급기
면적
온나라
##DOW
##hz
##PMS
##생명
##atable
adopt
##loading
##One
remotely
EH
KNO
XID
spin
interoperability
Connected
Copying
destruct
DBJR
유리
일어
##ESC
##Click
Importing
stylesheet
sndbuf
##CN
Chain
Locate
288
Links
snmp
incompat
Question
MQDLH
친환경
advis
unre
Guest
경쟁사
sequential
성실히
South
419
이탈
테두리
활발
##search
CSI
640
Quant
marker
periodically
NPA
##ergy
어린
영화
이의
해설
##usual
topmenu
237
NetBIOS
1605
Optimization
convenience
CIA
paging
미완
세로
Styles
##OSS
Compression
RETRY
취급자
Broad
LNK
eate
yn
절약
학사
chip
##ributes
meets
ADK
digest
479
Algorithm
Bag
hpp
중기
##arc
##oming
##ATING
EAIBK
informational
perhaps
getS
prerequisites
##REL
246
approved
Append
##gebra
Hive
고가
재작
fielded
2540
Describes
supplies
accomplish
typename
334
WL
못했
미러
##holder
##AMS
##leashed
산업단지
SSLC
Apr
TBG
sqlj
diagrams
PF
모르
##HA
##pensation
Debugging
높일
대여
출자
##mes
MQException
dba
Protect
SHAFT
##authorized
위변
024
ISC
##COMM
princi
Deliver
Err
Lead
듯이
성별
CDs
resolves
##Recv
treat
primitives
OMG
Moving
##compiler
Cle
RDB
댓글
환산
##006
##ards
##achi
##UTIL
##RIM
differential
SNAP
behavi
REGIST
우편물
Launchpad
##Destination
배우
분당
지휘
##Publ
##해서
분석기
##ARC
IDENTITY
bp
cations
이점
##match
Intercept
Unleashed
##sgroup
offic
##Project
Generation
QUERY
AJAX
crontab
이거
현안
##ze
306
265
462
fontconfig
uninstallation
##Prefix
수탁자
전월
##root
##ogram
cdrom
SGA
wmqfte
subdirectories
알아보
square
##amera
Jav
데모
퇴사
##irth
InstallShield
populate
boundaries
##Callback
rebuild
datafile
abc
##ENAME
Opening
610
bund
lv
luc
부근
토픽
피스
inquire
##ANC
slice
JEUSMain
IQ
소매
장표
reaches
subpart
aren
Unless
258
formed
Cir
WTA
도와
삼거리
##rocess
filenames
Incor
baseline
Currently
coordinated
EOS
그램
보인다
mailbox
worksheet
serves
##QMgrName
##novation
HACMP
YD
미납
체육
##aros
##oder
##ifold
preserve
SVI
##slt
circle
attachment
HMC
LCD
ta
종종
Education
##QMGR
650
명회
수많
추상
판촉
mococo
LTD
Hypervisor
SOCKET
Daily
mand
dispatch
269
PARM
ArrayList
##lectronics
소수점
mqsichangep
Privileges
CES
JR
iost
공기
STDL
materials
offering
datatypes
Examine
##havior
720
GATE
eM
ocess
적응
피싱
##ran
stay
##idence
TPC
former
##programs
##SION
##Yn
obvious
scheduler
natural
CSCA
Road
끝나
사상
##Wtf
MDS
construction
saas
##Return
mqsichangeproperties
CX
쓰레
태블릿
##Null
##GING
운영비
##LEASE
##ISTICS
스크롤
optimal
membership
수시로
contrast
커스텀
FDP
Mgmt
NL
캐피탈
훨씬
##serve
Black
CFSTRUCT
OBOI
Rank
규약
requester
##serting
Automatically
PARTITION
ccs
fet
od
자수
##rp
보증서
##CIAL
licensing
participate
##AKOR
Flags
Iter
김대
##Are
##본부
forget
stated
##ubscri
##TEMP
streaming
SUV
##DAO
경유지
tpsvr
amazon
pom
과도
로운
##AQ
##쉬운
Shows
delivers
STRUCT
1010
140205
##rientation
ia
과다
주전
ConnectionFactory
Ready
1996
coordinates
encapsulates
dire
##BY
##Bar
inline
##MES
CPN
UPPER
Editable
##printf
Widgets
##Fail
##Rcv
##START
suf
ClientVantage
argc
EVQ
ONSADMIN
어명
##ding
##206
Authent
evaluates
Prompts
FLOATING
Mir
ul
입법
지주
##pw
##lets
CMYK
Employ
##hibit
BOOLEAN
carried
Ilink
KE
##Use
##576
##Pattern
##Long
##uss
Calls
VALID
careful
Study
난이도
Bel
따름
backsl
validated
##ashing
goentdd
ONE
bullet
관명
순수
##eck
unx
differently
simplest
MQCIH
들어온
ctl
polling
VAS
분개
채우
하우
##WT
##ERO
##TEXT
타이틀
Apri
RRS
대법
상무
실체
##MAN
##Ac
##amb
validators
MSI
Invocation
스타트
제로
##DataSource
violation
Publishing
Guidelines
Emp
maven
금합니다
##FLOW
##SET
##ental
pointed
pointing
Subcategory
extrem
ordinary
Accounts
조인트
kh
아동
알선
##acent
##LET
indows
021
275
elapsed
APPR
latter
CWConnector
BDB
Normally
SNODE
illegal
##fh
research
discl
Maps
PERSON
Steering
EG
메리
트릭
##uck
##SN
asks
Adds
CEO
대법원
utf
통찰
##lor
CPUs
semaphore
subtotals
BRM
KISA
Magic
예규
테이프
##FIX
##LINE
##rew
안전망
SVG
HDFS
YYMMDDHH
ba
주목
책자
##omial
sell
Configurations
POINT
slash
##afka
recovered
margin
hal
수강
##lay
##92
CHAPTER
Period
DESK
경찰서
Replica
illustrated
lifetime
Branch
2012053105
지명
커머
##gen
##arms
Thu
STREAM
approval
equir
estim
화물차
##processor
April
Saved
virus
실험
영동
arm
##AGR
ALLOW
1606
ONLTEAI
REQUIRED
BN
FIS
KMC
손쉬운
아주
안드
##맥스
##ewal
intf
thresholds
걸친
소문자
##copy
##프레임
##ocal
##format
abend
SVN
Finance
PERFORM
automate
440
Gen
RATE
ga
iLink
네이버
단절
##Down
##report
##une
referer
TBZZ
turns
consisting
student
대별
실업
##학교
##icol
touch
scanned
complement
253
concurrency
참가자
##Print
Easy
Hitachi
KIS
rich
도래
보행
성적
전행
행실
TRANSMIT
welcome
모색
비지
##AIS
tran
##tainer
datetime
qualifier
ebMS
constructors
optimizer
RECEI
##Memory
hl
보도
이철
##로나
##err
출력물
##prof
##539
##BOUND
##Scope
Foreign
lack
소집
없음
휴사
##Opts
##ASP
대학원
SCHED
Discovering
jboss
##ILINGUAL
MIC
Ping
sophist
##Ops
##uit
Liberty
TRANSFORM
##Parms
MULTILINGUAL
Licensing
##Agd
415
nc
##103
Publication
Expressions
million
JNAP
Dum
Hold
SATA
김정
##Url
##ownt
##ada
strmqm
CSQM
Designing
introduce
ensuring
Between
Must
셔야
원금
##TM
##oa
bypass
Alter
245
tried
individually
201407
##IStatus
##MetaData
iptables
Making
fml
finger
되게
양수
접지
첫째
suppress
333
microstrategy
MIBs
##Domain
asc
disables
##CSI
389
Certified
trimToEmpty
테크놀
주무관
SupportPac
EXAMPLE
AFT
Bt
DER
NIST
WIM
금번
atomic
NameValue
BmsCom
authorizations
MQFB
CMDSCOPE
mirr
CMM
Coding
ari
helper
급증
##95
Trend
EXPL
severity
국민은행
amounts
Avg
opportunity
Fri
경관
노광
스피
MQSET
281
reducing
Idle
denied
superuser
minimize
Wrap
강점
나노
리아
입회
##교통
##찾기
replay
##anaged
workflows
viewer
Tests
SNDR
##이버시
unnecessary
Os
VB
bz
magic
##house
ProFrame
##ivation
##straction
linking
Learn
266
Printing
improvement
즐겨찾기
Nort
Rich
Sessions
급격
충북
##ij
##RA
##pit
##져서
##기술
thous
MQE
archives
##Prot
joined
ONLTEAISO
도형
인근
주최
테스
##QH
arithmetic
Ports
Channels
SUPP
svg
##ezza
미완료
Foot
SX
##SUM
leverage
##aria
Selectors
쇼핑몰
프라이버시
hist
백분
케어
##해야
##recv
##paration
MQCFS
Printer
Makefile
OPTIM
건전
##ubble
257
mathemat
ETC
원활히
liter
Alpha
DMI
JD
PNT
SIB
games
각급
동등
##eans
##포트
##herence
##eby
trap
outgoing
거래소
Regular
Furthermore
516
CIO
HKMC
딱지
MQAT
##imeter
종류별
forwarded
artwork
##Editor
안드로
PAD
rewrite
Ord
0003
symmetric
##Addr
Synonym
strongly
##TING
##GO
infl
Tracing
surface
##Remote
Beginnings
Mb
ORI
RSS
##lim
##iced
수행자
Eng
SYSP
FAILURE
Collections
##LINAKOR
INTEGRATION
mgmt
sudo
xff
부탁
##ashion
##ularity
exports
제조업
labeled
이루어진
javascript
upgrades
PRIORITY
다이얼로그
Cw
PU
gm
##87
##agma
addressing
Impact
274
CTX
신고자
descriptive
acquired
Ca
Ub
경남
창고
최선
파손
##ios
##Ow
확인서
##SCM
timing
Matrix
Crypto
VOL
che
cook
발휘
Thin
comprom
USERID
Optionally
##Buff
##TRACT
Timestamp
recipients
BOOST
고위험
YP
social
분해
세탁
점진
위원장
297
compiling
editors
enhancements
어린이
FAST
LBS
Mand
도급
브로드
수료
Usually
##ABILITY
##queued
PRINT
keeping
##gister
BRKR
##Encoding
##Basic
HB
RN
상금
지로
setOrd
validates
interrupts
##Temp
distinguished
concerned
Dereference
GI
국어
무한
하수
##esb
##acf
CSQU
##airs
charts
highlighted
tnsnames
Moco
TCO
Tape
sheets
창원
휴직
##Activity
710
Cut
FAT
garbage
rates
비인
이민
##ael
##Lock
##ATURE
installable
minus
estimate
undefined
PROCESSOR
possibility
##TitleController
BmsOrdCardTitleController
Orchestrator
Restrictions
580
대쉬
Trash
Guard
된다면
replica
0600
Multip
412
TN
Times
올라
##First
##dis
MQENC
Secret
Supports
CSQUTIL
##Parameters
Alternate
Shutdown
징계
##oute
classified
##이언스
Locale
OCILob
Insurance
##Notification
governance
##Window
ks
합격
##Tool
##text
worker
iteration
FCU
incorpor
Gigabit
BAN
Cop
ILOG
이니
##amless
##INA
##udget
ITA
Ask
GBL
##Reference
purge
credential
##OutputStream
2012053117
DYN
RISC
ease
밀리
부속
성숙
이야
##MAP
##IDE
corruption
272
ENABLE
appropriately
LA
NX
favor
토론
행안
clam
WebConnect
##iven
##ckets
산업은행
Subt
constructs
768
Legend
CCD
Moc
WISE
mb
##WM
##고속
scott
composed
phys
RCMS
caliper
complicated
delimited
pkg
bd
fig
겸직
고민
솔리
원부
##RV
##ilot
Manufacturing
Preview
limitation
Cloudscape
Applies
COMMENT
BUY
fteCreate
강남구
이철하
8000
vac
##pled
##ipboard
##NECT
Netezza
easyTravel
문화재
differs
microsoft
ssn
아파치
HASH
PTF
군구
서드
수취
thr
Whenever
DEVICE
CHK
##undred
261
349
netstat
Jobs
선진국
Matching
사안
사식
##Found
##UDE
##hn
##테크
##ams
Webto
##trace
RELEASE
attacks
CONSTR
Datat
DEPLOY
2012053111
CorrelId
ACE
Tcl
dlt
sus
자전
##uming
unauthorized
prerequisite
forwarding
belonging
##6940
Partitioning
##Args
Rack
논문
매각
##SIZE
##ZE
characteristic
313
재정부
##FORMS
Cmd
EPS
PDS
##oday
##MEAI
안전성
Managers
remainder
Certification
Queuing
rcvbuf
ODCI
##투자증권
Suspend
Vert
sockets
바운드
벗어나
비행
사별
전후
##overning
CSD
TCPIP
298
ENTRY
##flag
couple
4586940
AUDIT
안드로이드
WK
ske
xt
계리
네이
액티브
에뮬
은평
##isation
Topology
skills
Peer
REMOVE
Sites
fashion
명기
스프
우위
입구
##andid
PCB
expire
subscribed
##303
dumps
scalar
Medium
cyl
KG
Serv
XAResource
bene
nacf
순간
##FG
##어쓰
##iter
023
MQCFH
Regional
Marketing
Instructions
xed
국문
단원
여백
##Gener
##조건
##렉션
##inetd
assess
여러분
SFA
850
DFS
nb
경상
##Copy
##Rows
##quer
##anserv
ITBOX
quarter
Scenarios
Positional
crypto
PPP
disconnected
division
ticket
Consulting
BASIC
Essentials
bedroom
GKMC
Rows
기자
기성
서가
특례
Contribut
Interoperability
Impl
Receiving
positions
LLMD
payment
rectangle
prefixed
Tell
padding
세워
의원
025
approaches
403
##GRADE
292
DOWN
Invoice
Streams
프리젠테이션
synonym
iostream
nacfadm
Xmx
각도
305
servlets
inconsistent
Fig
Param
jdk
jmx
si
군청
##onal
orchestr
stats
Applet
counters
##shake
Compress
FIU
##QueueName
Blocks
Squ
lk
출납
##stations
resize
Uns
로그인한
specialized
unsupported
##Area
김경
카운
트랙
##lm
##wide
##각형
##ervation
##ONLY
0198
SWIFT
접속자
USERS
conversions
gray
Pharos
rotation
매주
의식
허락
##iate
##isible
MQInput
substr
HTS
namespaces
certi
Leave
특별히
VARI
Constructors
accuracy
PeopleSoft
Vehicle
##Variable
lc
보일
##rester
##ediction
이동식
MQSERIES
##points
shells
LOCATION
pdfmark
Declare
디버그
601
PFL
VOC
fulfill
전재
정치
줘야
##Rel
##ball
##INF
acquire
BmsMem
DESCR
Graphs
DAO
tmadmin
TXT
UPS
fld
명단
퍼블
##sn
##Ogm
##91
##ARIO
univers
outline
332
##ossiers
switching
datasource
##OBJ
expensive
##Day
##camp
prog
Avoid
visualizations
purchased
efficiently
Effective
aux
fan
gid
감정
무조건
수지
유량
openssl
Threads
heading
QSGDISP
##help
SPOKE
979
Cable
fprintf
xinetd
가급
꾸준
다름
한화
현저
회차
##hood
##World
directed
Notify
802
MAXMSG
assuming
bugs
공표
약간
응하
코로나
##onom
##ute
Functional
Proto
explore
Readme
ARG
##Sequence
gateways
trees
approximately
cst
내리
뛰어난
##icas
star
sha
shar
MOB
##ruce
periods
raises
Origin
concatenation
SOLAR
refreshed
PPT
올해
임상
직책
##란색
placing
328
meant
Science
Prem
Restrict
postgres
illustration
CWF
##addr
essentially
Analyzer
middleware
##ounce
이루어져야
INQUIRE
GOO
간행
면담
##관계
coming
parties
##USH
Quad
Publisher
##ruary
improvements
자전거
949
Nex
kdb
매트
valu
recomp
314
rmi
비지니스
du
historical
law
mist
동화
하락
##DD
##soap
Manually
##Close
easiest
우리투자증권
BUILD
synchronize
bwadmin
Symbol
HQCM
##Priority
VDI
cate
심화
중도
##oIP
##uj
##amma
한국은행
268
##Reg
guess
ALC
EMAIL
fairly
Lo
Mot
Near
TYP
ha
hundred
주파
##Mess
##qld
plans
expires
307
equation
contexts
Major
지능화
보낸다
tmb
##Master
failing
usrinc
SAMS
이루어진다
datatools
EXTEND
##FLAGS
SCENARIO
강도
미터
##Types
##tlen
##버스
##access
##iline
Advantage
##solete
##tty
022
##CPOINT
##Export
상품권
TimeOut
282
Consolid
expects
succeeds
searched
LiveUpdate
GMSH
PX
rdb
임용
##FE
##Sys
##trans
retail
자본금
ln
wss
고등
##Cns
##조합
##ORTED
##PEER
filtered
PowerTerm
##opping
Hybrid
LH
과실
마음
방해
took
lever
CRS
Automated
항공기
arrange
instantiation
sophisticated
416
TCS
증적
##cer
##Role
deep
ade
##ATER
##INC
1990
Prior
MPOOL
callbacks
simpler
Increase
##communication
GATEWAY
FK
GJ
moment
대두
빨간
정신
##base
Expert
##thread
##ugg
WMQI
reasonable
BODY
1108
CBE
Division
spreadsheet
스타트업
이야기
Age
uri
주일
##Dat
##we
##GH
formal
Portable
redeploy
Offline
supplier
RESTART
unders
벤치마
WebtoB
923
Beta
가계
공여
마치
보입니다
전동
##elect
##got
Deep
##AMO
subtotal
Applying
##Entity
seems
parking
숨기
##cf
##간다
##기준
swing
routes
verified
everyone
방문자
KMACS
Semantics
Pred
Walk
beta
발간
##Dao
stri
shares
China
enters
NOD
##12138
3276
SSLPEER
COMPLETE
February
distinguish
019812138
460
Was
bes
lr
네임
수송
연차
이원
일방
줄어
##INST
Forrester
accum
gran
snap
quota
Constants
##Async
padded
Bruce
Esc
dirty
says
협동
##odb
COLL
##untu
dealing
aborted
Variante
land
교정
내지
루프
보냄
Behavior
279
compilers
facilitate
QUI
Ye
슈퍼
정할
조흥
##sql
##Cor
##WID
##먼지
##긴다
COST
LGIT
408
285
CEP
Resolved
extremely
cbl
pV
sampling
시세
실정
엄격
총무
##XC
##PC
##BR
##폴리오
assembler
chl
aligned
filesets
CPI
포트폴리오
##grees
MQMNAME
ACLs
미세먼지
zer
스티
연방
##with
##alog
commits
##CHANGE
308
customizing
extents
participating
Structures
바닥글
Care
Ignore
등등
##stab
##INP
분석가
해결책
##Stats
aggregated
Finding
LANGU
Practices
915
Journal
WIP
bpm
dl
골드
청렴
##anged
Objectives
Shaft
##116
CommonUtil
SCOTT
ENCRY
##CIMAL
간행물
Term
np
wal
감가
게스트
경향
##ris
##센트
canvas
273
296
NBR
FINAL
DUMP
Given
Pen
sib
이창
##건설
extraction
##grp
##Example
##ampled
262
Asset
MQZAO
accomplished
쓰레기
통찰력
pause
김태
당월
부수
##fd
Rele
295
smb
assumption
Diagnostic
795
대구은행
SYNCPOINT
MACHINE
mtes
안보
이윤
입수
줄여
충당
##zone
manifest
##COMP
suppose
calculates
KHAN
피해자
주파수
PAT
광장
대수
##Sum
##Board
##aylor
##INCT
359
tracks
Beginner
Board
CENTER
eC
hr
각서
도청
릴리즈
반품
중재
##크로
threat
Training
283
varies
Coordination
Reb
펌웨어
##ev
##jo
##uns
##cloud
##roke
Images
375
COMPAT
analyzing
awt
omg
고성능
GENER
KDB
bg
됩니
아마
입사
##JSP
관리관
##ocenter
##imize
DataObject
##ALLE
286
##MITED
ILinkServer
learned
VSAM
##hibited
overwritten
Coordinator
가급적
417
가구
민첩
partially
보여줌
456
transformed
STOPPED
DISTINCT
assistance
으려면
BET
Cat
FLEX
ece
lename
##vf
fork
getClass
DECIMAL
SSP
Alerting
emer
##profiles
NAMELIST
주소록
APPEND
InputStream
MsgId
CAD
WCF
경감
라디오
복귀
소형
##mms
사업체
Describe
MBeans
293
##Definition
conflicts
대중교통
899
KICS
##vg
1212
multithreaded
sensor
Multimedia
silently
Updates
ALS
eob
ogram
낭비
##CNS
##from
##yang
등록증
manifold
##UBLE
CDC
carefully
Player
포스코
독점
신경
신체
악의
##cfg
##oon
##aling
CDN
driving
outputs
그래서
suggested
UR
WORD
lter
러너
##holders
span
receipt
DevOps
LIBPATH
##arantine
##PROC
raise
crtmqm
LUN
Mq
ak
eq
ham
hence
미결
질환
##Sender
classification
ROUT
사이클
movement
##Fields
ORGANIZATION
FMT
FDL
TAP
예수
포렌
플레
##his
##ushed
leaving
##REQ
323
overflow
Compiler
PDM
교통사고
STATISTICS
PRIMARY
Glance
excluded
Warp
METHOD
카운터
포렌식
UTP
조선
패러
webt
##PLAT
ONIX
computed
representative
766
KBs
floor
소모임
REFERENCE
413
BOM
fa
매크로
수불
정원
##tool
##EF
##ifer
Claim
dbf
263
dao
EXISTS
CUM
East
Xml
srv
산부
융자
차질
채워
##ral
##112
Sequ
runner
USP
endmqm
productivity
preserved
SCC
SIGN
predicate
pseudo
Override
MARK
Wrapper
banner
ja
걸림
동원
상하
인감
하부
309
privacy
Queries
finding
heurist
allocates
drawn
schedules
OPTS
excluding
560
XL
청년
캡슐
comparing
Align
##LTER
SCN
tbl
clearly
LAY
VA
Ya
fly
축척
##eliver
widely
##Values
##issue
auditing
CARRAY
##Owner
##ALLEL
AML
AMP
EINVAL
국세
호스팅
##ecure
USR
조직도
TRST
Worker
semicol
##itespace
leader
AREA
SMDS
530
귀책
부실
unc
Should
##DataSet
##roubleshoot
Measurement
mirror
트레이스
선발
요일
Chip
inputs
Partners
ICMP
accordingly
Criteria
destroyed
XNP
wps
##ockpit
호출자
##202
Sendmail
만족도
SPEC
Propag
MocoCrypto
Tur
누수
별칭
식물
얼굴
천안
##Sign
##orrow
inch
doll
executions
##Stmt
packs
Backing
White
Generally
ers
Waiting
낙찰자
JU
bre
lose
릴리스
인스
##col
##VIEW
##BD
##asion
chose
##RCV
SCAN
IRQ
Instrument
RIGHT
dere
fcl
href
##상각
##iger
signing
Customization
바이더
Engineering
erase
Distingu
##RETURN
CONSTRAINT
CUS
Tenant
WLM
hook
sed
검결
금전
양쪽
원할
##TC
##Rate
##400
정보망
##istance
resp
Seq
getValue
1100
321
##StackTrace
PY
SING
holder
감액
문단
언론
업장
dequeue
prev
passport
325
##NOPS
Protocols
트래킹
만든다
money
Includes
백분율
국적
무효
바라
##ERIC
##CLI
경찰관
Korean
Payment
Compliance
Lines
VD
부설
수반
##sing
##mon
##mut
excell
##users
charge
TPN
284
##Objects
README
SRV
player
Electronic
SAX
사망
월일
체인
터널
##cm
##아가
##atile
##amps
##ustri
##orea
SYNOPS
287
ignores
##predict
infocenter
Revision
denotes
커버리지
Introducing
SYNOPSIS
EAL
개통
##XS
##GRO
reused
1109
345
DSS
elsewhere
stdout
Continuous
##Locale
conversational
UU
벡터
부사
worked
CSE
##CSID
2003120109
##ANCEL
##ELA
AUTHORITY
Trusted
firmware
ORIGIN
SES
탄소
inspection
##ums
##INED
보호관
LGEAI
는다면
smtp
snippet
Understand
scalable
MQDISC
Paper
웍스
원정
적당
##yun
##master
##101
##EV
##Boolean
MQEnvironment
notified
Probe
uniform
newline
endif
Installed
communicating
DriverManager
PARAM
##Collection
XCube
PUBLISH
collation
LW
Paste
성립
수금
시급
조율
관리비
Exec
322
Edge
insufficient
CNF
MEA
rpl
간섭
항만
허위
##jms
userId
sole
compares
acting
276
증권사
Identifiers
restarting
고지서
AXT
GRO
currency
fp
깨지
예술
##you
##Save
##Helper
shr
327
Packs
removal
MYSQL
##Active
August
uncommitted
hlq
sin
익일
특약
현물
##cal
##fetch
##ycat
##onical
STS
CLNT
MODIF
267
271
VMWare
launched
accompany
jvm
기울
적격
편익
inject
conduct
strmq
newsgroup
meoa
flash
##302
exporting
Provisioning
FIFO
grants
알려진
OAM
Synthetic
투표
##Switch
##자리
##only
forced
##rompt
ship
Transmit
##Container
appliances
##eek
437
Renewal
incompatible
701
QL
Washing
hs
ny
vice
신시
캡처
파수
DataBase
score
2025
eventually
032
PROG
##WEEN
Could
Have
MX
Today
##TI
##Widget
##alation
OracleB
##ongo
Requester
278
Hostname
qualifying
WBRK
광역시
Obtain
재배치
ACTIVITY
하우징
NY
Pent
뱅크
심볼
툴킷
##테일
XMLNS
readme
##ovell
CPOS
제어기
Networking
Preface
assigning
Providers
Expires
OPatch
manuals
government
TPEV
ISSUE
CATALINA
931
교보
불리
스러
저렴
##FAIL
##hh
acct
interoper
versioning
기업체
##CEAI
decomp
CLH
Subsystem
Graphical
IMAP
hda
##EEP
TERMIN
asynchronously
Snap
도식
랜덤
플래
forecast
algebra
PROVID
initializes
DRG
Enhanced
interceptor
8192
adjacent
424
425
BSTR
##zen
028
QMB
##proc
277
##789
improves
Activate
Activities
Silent
429
Novell
이경
청주
Requires
코스닥
534
xi
공익
국유
핀테크
회피
##Cre
##릭스
##oted
cant
아래쪽
보험금
Overflow
319
ARCHITE
BETWEEN
CIP
Xms
농촌
늘어나
##home
##클릭
##iveness
strcpy
##TEN
Director
##ological
이루어질
더블클릭
repeatedly
globally
tmboot
422
Having
Limits
cod
다릅니다
원형
##으로
##208
트랜스
337
manageprofiles
javac
renamed
612
RL
ZONE
collabor
dst
근간
station
ence
directives
##MPO
##USR
##203
Retail
Beans
YYMM
quoted
misses
leads
KIND
tips
instanceof
lesson
Delimit
Books
Trim
instrumentation
커머스
URM
dmp
권익
본청
호텔
##zero
##재현
##org
inspect
##acters
##ASK
영향력
Generating
resolving
Mining
PARALLEL
Lightweight
7001
LV
NMS
Zip
late
가자
다량
현방
##ptom
##Insert
Integrating
MULTIP
challenges
Synchronization
thousands
Dr
ql
내재
주가
지진
표본
##탬프
##sto
excess
depart
Unified
packaging
##inality
CRUD
TMAXDIR
Bottom
Analytical
Dav
PMQ
선점
##hs
##war
##급금
##itiz
clar
meg
구조물
##ATIONS
referencing
##Cluster
booted
loops
evol
##docs
arise
540
Hide
udp
디테일
폴리
##FP
##eron
관리법
SSN
decryption
RPA
수출입
FFST
recursive
ITCEN
backslash
oid
sIStatus
돌려
비드
엣지
입지
전입
##라이언스
traces
##ookup
##NTAX
제어판
335
Standalone
preceded
parseInt
redundant
##VISION
스코어
AFF
Maria
rer
sat
일생
커맨드
##디스크
##산기
##reats
OracleJSP
eligible
##Scan
Bootstrap
curr
영위
phrase
SCRIPT
FNFD
데이콤
scaling
sleepycat
America
worry
Benefits
dod
주입
##Em
##보증
seven
Those
trends
##DBY
SPC
SPARC
##OMAIN
mteagent
애니메이션
RECEIVER
LANGUAGE
Hidden
내림
시켰
처방
##Cal
##ican
##ooper
expose
blog
Providing
Nexteer
DisplayString
Visualization
아무런
scratch
418
Ghz
Jython
VII
스포
##EJB
##stl
##agen
usable
deleg
weak
relies
##archar
TSO
344
realm
aws
HashMap
BINDING
French
neighbor
##semble
tech
건별
니즈
열린
화성
##fx
##Red
##tools
##MMS
##want
Progress
Annot
workstations
repmgr
##VELO
인수자
eaiap
331
focused
ideal
MONITORING
analytic
Washington
Wild
sock
선금
수퍼
유휴
##KEN
##atter
##reg
forces
ERRQ
guides
closely
##iliary
판독기
Association
떨어지
dvoid
Northeast
내수
봅니다
혐의
##AW
##Http
##osis
보안대
wanted
##ADD
상황판
google
MPOWER
consumed
loan
Purchase
IY
KEEP
Mut
fax
ux
서기관
치환
플레이
행복
##Upload
##med
deployments
##ensitive
MQSERVER
AVG
MQXQH
XCW
가리키
rendering
KIT
tg
광학
석유
정전
##Lab
##qm
##lled
INH
##ensive
Locking
CCSIDs
멤버십
Scheduling
MQCHT
MULTIPLAT
470
ci
pas
라벨
##GUI
DBCA
신청인
CORREL
privileged
##Flags
safely
bathroom
SAMSUNG
MPL
Mouse
Way
경량
널리
아산
축산
폴링
##size
noti
##SEQU
406
315
THIS
accordance
##Attributes
Credentials
김현동
Distinguished
Gi
LIF
Mask
xid
금고
사장
열려
##cap
##GHT
chance
Star
응답자
QueueManager
toolkit
##DSA
407
MQIIH
RealType
Perspective
아카이
YaST
Bulk
candid
myp
발달
파급
##OU
##esting
subordin
clicks
TOC
스마트카드
291
Provided
behaves
ATTACH
##IRON
originating
mismatch
radius
##arehousing
가까운
감가상각
GlancePlus
Grow
heterogeneous
ktf
sch
고의
intra
##rive
시스템즈
Clause
##orders
Ens
Subprograms
EDMS
placement
involving
centralized
amazonaws
Gate
Sal
dx
uuid
미확
회귀
instant
SEE
gram
BIOS
Drivers
##Retry
HANDL
DIRECTORY
rdbms
519
FUSE
La
tin
노사
아울
화상
##wind
binaries
counted
CTI
Smith
instantiated
NATIVE
khub
MAXMSGL
HC
PST
PNODE
RGB
광디스크
급속
김상
시너지
윤리
##Age
324
interfaceId
체크아웃
equations
재무회계
denote
APPLICATIONS
Alerts
DEPART
Numbers
excellent
QIBM
개국
덮어쓰
운전자
일간
##SVR
##YSTEM
##iche
##abric
degrees
bottlen
makefile
equipment
##304
Applic
Languages
보조금
YOU
Datasets
ROSE
카카
##RICT
coex
294
##STRING
downloading
Recording
posted
JBOSS
##981
테크노
wireless
bserv
tms
타부
##CTED
##draw
Transition
1002
handshake
ASN
Backend
20130
##093
INTF
SuSE
architectures
TUXCONFIG
survey
PACKAGE
스캐너
ODA
Pick
김형
정함
종로
##allow
##005
OracleConnection
door
accident
commitment
quali
Agenda
curve
DemoShield
##Execute
PreparedStatement
Coupling
applets
524
BFH
ODP
RTE
Water
도장
셀프
실내
이뤄
Seoul
mqbrk
##conf
emacs
capital
SENDER
xsi
surrounding
611
GAP
cour
hoc
지상
##sys
##na
##arse
##aml
##aser
EAIHUB
Strings
toolt
TELE
BEF
UTL
fbget
Quantity
ARCHITECT
cics
날인
남부
노무
중식
##아들
TPQ
occup
AppServer
representations
cpio
TPSVC
strategies
전점
##Dm
##rint
##재산
seek
366
esb
##CFAIL
IMAGE
Improper
SOLARIS
770
MVC
TLOG
mit
결국
##Global
procedural
commas
##Ext
나타냄
SERIAL
1994
HOSTNAME
uninstalling
webserver
Invoker
4119
##Suite
1048576
CIC
TMM
ning
유닉스
##iated
InterChange
3600
smooth
booting
stands
popup
amqz
skeleton
원동
whitespace
##ITORY
설계도
UNS
##Product
Assess
Generated
Layers
ENVIRON
산림청
mqbrkrs
과부
##Ds
##기금
##itors
encode
enterprises
심사자
##ACTIVE
##PROD
gzip
redundancy
diagnose
INVENTORY
카카오
Lower
harm
나들
동호
야기
장부
컴플
##svr
##Pad
##금융
##icon
reusable
acme
caught
shorter
Linear
MEMBER
Counter
CONTIN
webservices
외환은행
Streaming
철저히
##Attrs
LTE
pem
감면
유로
홍수
inet
##roff
Versions
restoring
grained
DCM
ENGLISH
끝난
분양
##CR
##Width
##imple
Trading
variant
blg
Requested
##ercury
드릴링
##DEPTH
이지스
valuable
bk
kb
anch
##through
Libraries
Received
Swap
Converting
subtask
ParsingException
##Dynaset
나들목
XCF
서초
음악
이더
##win
##PD
##Wrapper
##이즈
##uler
##trc
enqueue
impos
##ITCH
0004
329
slider
GSKit
extensive
BufferLength
dragging
poor
##fortunately
65535
mqsireport
이더넷
Hint
med
mart
rx
samp
박물
완수
##MN
ons
##CTYPE
한국어
SHORT
Desc
RESERV
##ORDER
ALIAS
부산은행
MQBYTE
Fontcon
Recommended
fbuf
기어
못한다
빌더
산학
올림
일으
##Pay
##Limit
##update
##trm
기술사
Forum
Heartbeat
Containers
RTN
Calendar
attachments
매트릭스
Dossier
mst
virt
김종
받아들
전남
##oned
##ubrid
theme
FILTER
obtaining
advance
머리글
399
Known
Kafka
MELA
UNT
XE
guring
hibernate
wher
기명
노선
센타
일금
좌우
abstraction
##PTO
reprod
MQCFIL
환급금
opposed
DEPARTMENT
Rather
위쪽
##다임
##자원
##oman
prt
##olicited
tpset
343
##VOKE
374
보통주
##SHOT
##LENGTH
Flexible
##Repos
friendly
패러다임
NG
NRT
VDC
huge
미지
배지
##시설
conv
367
336
373
LocalEnvironment
ATTR
layouts
BRID
segmentation
이제원
프로세싱
ectory
고령자
Bin
sms
병무
본점
인기
##mql
##Wait
##이행
thought
ename
insertion
##ividual
originator
repeating
cni
KRW
주전산기
ECC
IBK
RCS
Tog
Xen
빨리
##au
##gage
exchang
getBytes
classname
mqside
##ruit
SunOS
MCAUSER
revok
Donate
Questions
straightforward
European
GMIM
zoom
리허
월요일
절체
##Folder
317
behave
FEATURE
MQMON
##Character
Constructor
serious
TMQ
nitions
##lan
##test
EAIL
구성도
환경부
BmsAgd
PRICE
articles
analyzed
Removes
Ubuntu
스포츠
499
Never
대소
압류
이면
임치
##ief
##hi
signi
402
##WNUM
daemons
merged
Percentage
Practice
아울러
리허설
BG
Mag
fun
nine
모호
일환
출구
##문서
toward
creat
기관장
fieldSeparator
##Stage
printStackTrace
prototype
timed
DOUBLE
Indexes
메인프레임
1208
TEMPLATE
INFORMIX
Giga
adequ
컴플라이언스
954
여자
##alls
chat
unset
##rought
FORE
nullToEmpty
SHR
UPGRADE
Height
Typed
practical
간단히
LILO
WBIMB
trouble
PERSISTENT
##SEQUENT
rms
샤프트
쏘렌
##quiry
##osp
##oulder
0005
phot
362
353
Badge
RETUR
Retrieves
marketing
Cryptographic
쏘렌토
490
421
Sat
친화
하천
##ODE
##adb
Org
subsystems
##conom
recordSeparator
##ensity
CSQQ
Balance
STATEMENT
SharePoint
EBPP
##Identity
##mni
RW
소리
잘라
필름
##WAS
##현실
##unks
##pear
Executing
DCR
Dependency
analysts
비씨카드
perfect
Principal
xtns
514
ANT
SIM
ran
행의
##구역
##BASE
##밴드
##ether
##ifiable
sees
statistical
ISA
tpfree
##FSET
transferring
implied
meeting
SELF
브로드밴드
Border
EMD
유료
음식
판결
##HS
OracleDecimal
transient
ROWNUM
352
Simulation
PowerPoint
COLUMNS
ESTAB
##cestor
BRIDGE
Che
Mongo
OMS
ODM
RAD
저널
##업체
unpredict
SYNTAX
ASIS
TPES
##sequently
상당히
evt
shortcuts
##ENCES
centers
##ubscribe
711
Catch
MMB
tpen
미달
파이프
##Fg
##alty
chg
trick
Reverse
Challeng
overloaded
portions
MBR
interpreter
affili
##Operation
subpartition
OTS
Peter
QName
Wr
mot
단락
대폭
우체
읍니다
##If
##Ass
Programmatic
CSP
##Excel
QMG
amb
Particip
SELECTOR
fourth
transformer
Constraints
challenge
CipherSpecs
bars
수학
안기
월드
취지
inserting
reinstall
cli
DBN
listens
pretty
DEVELO
NOS
405
Compound
totals
입찰자
Mainframe
catalogs
Namyang
duplicates
SQNO
reflects
Bserv
Cp
MAY
번지
##filter
proof
##igo
0020
ASYNC
CONV
##CLASS
361
redhat
Hands
감독원
MQXCC
Silver
stabs
Cur
MRP
orientation
ucs
관용
긍정
총회
togg
logically
ORDS
SHM
356
Indicator
385
DbM
##Comput
Markup
parsig
##iptic
maxOccursString
camera
자택
##젝션
setAttribute
entr
portability
receivers
##Style
##AGENT
Who
SHE
RESOL
입찰서
NTLINAKOR
asking
##RPC
somewhat
TIBCO
influ
821
Rend
VoIP
bmp
boulder
nite
wb
인젝션
##Mobile
027
lengths
Outlook
368
Points
Delimited
##VALUE
##Processor
empno
bankapp
StockQuote
Included
SNAPSHOT
Hang
Rfc
hop
숨겨
연료
주말
##Ip
##Cell
##itter
Proceed
##ONENT
##intosh
Transpar
handy
xmlsoap
##spector
##BSD
##RIBE
ASSY
##Alive
biometric
CCDT
##elivered
ESTABLISH
970
Dem
vg
넥스
장문
##Font
##RATION
##718
##unit
##ewise
nonzero
Predict
Remark
Limited
##econfig
MULTIPLE
Bed
RAI
San
XHTML
각기
격자
너비
리서
##Cursor
##cb
##ilo
342
45981
Anti
drawings
dict
Qualification
##Auto
foreground
runmqtrm
splitting
growing
Determination
WebtConnection
discovered
musentdd
재검토
950
IaaS
NTP
Width
##tlement
##Sched
##aton
Intermediate
Instanti
326
354
verifies
Relational
breakpoints
Recovering
817
HSG
OA
nfs
충실
##SED
##적으로
props
permits
scop
Interchange
026
Monitors
Individual
SYSDBA
qualify
integrating
Parse
controllers
##XXX
Cartridge
시계열
428
JOINT
fence
ore
기산
차관
포승
##Tab
##han
##기능
strip
##ategor
Tobj
quer
##archive
##loader
LGCNS
377
Caches
만료일
slower
eliminate
PARAMETER
mteserver
우체국
RAISE
578
933
IW
varchar
음원
정교
파괴
##WAIT
##STS
##ROD
weblogic
Partial
348
initiates
##LDAP
##dfs
translator
PREFIX
NCIS
Stopped
CONFIGURATION
inherits
mx
ov
##Category
ang
##adoc
spot
designers
Highlight
mqsicreatebroker
AFTER
DUP
Eye
기지
MQRM
Spark
Directories
CSQINP
Identifies
##phrase
SERVERS
AVA
cryptography
Simplified
Sy
Vault
러블
##Icon
##Mng
##Business
##eting
DataFlow
subscribing
##cii
##Bucket
verifying
banking
마스킹
Az
BDM
CLE
RK
joint
jquery
##Anal
##LU
Weblogic
enumeration
APAR
installver
dbm
##SEC
회의실
SAV
그러면
중소기업청
EMPNO
Bindings
LLMU
comparisons
KPIs
Headers
Survey
mathematical
빨간색
SINGLE
ENVIRONMENT
801
apt
계량
##mm
exponent
STG
Usable
DEM
TRNS
369
Backups
##eeper
Macintosh
HWP
recognition
establishing
##iki
greatly
samsung
##ennifer
Evolution
DMS
FREE
Saving
dry
iii
ut
보편
##uum
##Biz
trunk
buckets
##VERY
CTC
mounting
deriv
substitute
hdiskpower
426
FDS
Kim
pthread
rl
일보
출판
##채권
Recogn
OpenOffice
나타날
separation
SKIP
InitialContext
responsibilities
201507
427
Gap
Ki
MATH
골든
대주
면세
세스
악용
환매
##Current
##LER
##ini
##andbox
MQCXP
##Backup
코스콤
시큐리티
analytical
Raid
국유재산
VIR
lw
계상
기하
께서
무제
##JG
##figured
DataSet
Installable
##PLAN
동기식
LOGFILE
BServ
propagate
Serializable
공문서
AuthInfo
TBZZTD
Mocomsys
##Repository
LN
높여
##nr
##di
##Pub
##lett
##ota
##ife
Street
outlined
Interact
invari
htdocs
basement
##umerated
establishes
UTM
##Mapper
LOCALQ
ClearCase
스테이
Pentium
jump
##dom
##ho
##Month
##ford
BmsWtf
##backup
338
dtd
Diagn
IMME
serialization
recognizes
nearly
JCo
Establishing
이창우
impossible
대소문자
Ul
ult
레포트
바꿀
별개
##Svc
##erning
street
scc
edges
delta
mailing
MQParms
Plugins
대행업체
participants
guarantees
Matches
claims
StrucLength
CONFIGURING
Gold
Kill
증분
##Iss
prediction
publib
TODO
QManager
sector
positioned
##UNTIME
Searching
trademark
##Registry
##DOWN
##COMMIT
EIB
LPA
LHD
mo
qw
tiger
umask
심리
##Fault
##aper
##PO
##북도
##까요
##ichael
unrec
진행할
MSDM
Opens
364
continuing
Charge
capturing
Alternative
arrival
##azy
rtn
##owntime
unpredictable
522
BAD
CLO
ICC
가짐
각자
부패
철회
컨버
##CES
##PF
##joy
##iset
##igation
alarm
UserData
producer
memset
readers
PROFILE
318
LOGICAL
MQGet
##IFICATION
Extensible
##NotFound
CAN
CANCEL
Eval
KBS
Lane
버리
볼트
선제
소년
##상혁
##Range
##생활
tpstart
CTN
incremented
Corrective
directions
##eronimo
Offic
괴롭
##TB
Req
보고회
Outline
goods
interactively
##Channels
instantiate
Picture
##istributionList
accompanying
Done
Pot
계측
부스
시리즈
##uk
##inite
##chart
offload
##ieve
consideration
delimiters
##aintext
##PPIX
테크놀로지
척도
##LIC
##라넷
##inf
Alive
##Inf
##COPY
PROXY
decided
foundation
##ographical
forwards
위탁자
KNOPPIX
Vx
tap
뜬다
회로
##nable
##GUBUN
##라운드
OracleInterval
secured
351
NTFS
Namelist
Federal
플랜트
그런데
enforced
subordinate
809
DIM
Oft
PRC
Xecure
brought
김인수
나눔
##401
##BJ
comply
##erves
flight
FILENAME
LOGGING
APPDIR
금지법
1106
DIAG
##Sha
servant
responds
인트라넷
Keywords
official
Coll
PV
warn
내일
생물
컨셉
##oat
##Year
chanserv
##ushes
enum
acl
##arams
prem
Supporting
factories
376
Coherence
Swit
majority
Conditional
annotations
사라지
##onnection
proxies
Deletes
MongoDB
CATEGORY
HKEY
Lic
wml
동료
드림
배양
전출
##Op
idl
##125
CHINIT
가져야
Blind
##UserData
RESTful
gnu
##Verb
Caut
RUNTIME
XAC
ix
rk
가망
명부
변하
비치
패킹
042
HUBHQ
341
numerous
parsers
Slave
FRAME
RETURNS
Tro
UCP
개입
상각
asset
endian
explorer
매출채권
combines
MsgDesc
Capabilities
CAGR
Rot
WD
Ware
casc
kt
건보
소자
실효
퍼센트
회색
##kg
##MAX
story
Prom
intent
unpack
APIM
deviation
supplement
CTL
##erciser
Maintaining
755
captures
didn
varying
Resolving
##Description
Missing
괴롭힘
Cockpit
Mob
fmt
가결
혼잡
##IK
##EST
##96
##anda
##ICK
##ABYTE
INTSVC
PRES
##OTO
psz
##Depth
Recommendation
Boost
Mandr
orchestration
CVE
EK
Sing
TID
Unt
fatal
재자
중첩
파스
혼란
##플로
objectives
preparing
USED
Allocation
relates
observ
##Enabled
PowerPack
COMPONENT
Analyzing
NDMS
Federation
Bes
나아가
내년
맞물
매번
모임
여의
##Disk
##레스
perl
validity
십시요
372
382
Localization
interrupted
Optimize
##campus
EMB
Hobj
Pjt
gap
sess
나이
일선
출석
##RQ
##gon
##MGR
SYM
virtualization
국산화
Attachment
AXXA
##Position
521
901
CQ
Cust
Electronics
SZ
nth
tend
궁극
띄우
익숙
프랑스
thumb
leaf
unmount
502
obsolete
Primit
전용선
실무자
yellow
IDENTIFI
webapps
CONTENTS
##mmss
880
Ear
GEN
VCL
hatch
rp
전결
조향
##Post
secs
##ITS
WSH
Stores
PSM
Addressing
AVI
AVL
Extender
KCB
TFIM
investment
Blueprint
##Descriptor
스테이지
ReplyToQ
Employees
Tues
WAL
공휴
단수
##FTP
##140
seamless
Adv
##ROLL
imports
obs
378
priorities
TERABYTE
Elastic
Updated
wildcards
amqsput
Needs
434
내국
둘째
맹점
분과
충청
##Final
retries
RED
##IDENT
따라야
##1220
basics
503
SUBSEQUENT
brings
법인세
CRY
Tagged
##Scale
##initial
프로파일링
재생성
WTX
Skip
linetype
alphabetic
eCross
Lever
Pin
ple
반기
올려
전압
##Hat
##orage
##REMENT
##PLIB
buffering
##Oracle
GSM
##enchmark
MPO
PRIVATE
Fuj
VN
bai
최우
히트
##Fetch
##disk
##main
##링크
##페이
##usted
subrout
거래량
elem
blob
ERQ
terminology
Attention
##MessageOptions
organize
##irectional
타이핑
Invokes
German
fetched
semicolon
리서치
7000
Mile
pod
troubleshoot
블로
임명
차등
천재
형통
##허가
##sthe
analog
disabling
markers
##153
calc
Consul
Postfix
suggestions
은평구
818
909
BOS
Djava
HAD
Pilot
Sent
게재
산불
지위
지배
침투
##yz
##ycl
정보통
##ervis
프로필
연구비
MQCMIT
##Listen
Defaults
316
redirection
querying
Telecom
drilled
0206
BFILEs
physically
MODIFY
장문섭
ARC
JF
ctrl
fresh
ie
lm
남겨
인치
##CENTER
##He
##asis
##ebroker
Adopt
getObject
##ROOT
exploit
sqlplus
395
1993
chooses
Incremental
sdl
LMID
SOR
kil
급사
수백
잔존
##PGM
inverse
행정부
Formatter
4690
APPLIC
OraDatabase
##SCSI
personalized
workloads
risks
Determining
denoted
Hy
NAK
naver
가전
걸린
공중
교사
종금
타스
##Total
##ico
Thank
userName
Shape
는다는
COMPANY
BCDBA
Ajax
fif
이규
자승
해운
##Mark
##plo
unning
##ESQL
한국가스
PDSE
##3456
Mini
Changed
##Alloc
TDC
York
모범
##VAR
##MBean
Platforms
##login
Unitflow
ETag
encounters
Slack
##avers
돌아가
원자력
Billing
principles
BID
Escape
came
jcr
mng
에코
commerce
creator
LOW
504
Linked
Certain
BIGINT
900544598
BEFORE
Fe
KD
xes
zones
자릿
##lers
##ui
revert
##istency
APS
1211
Interconnect
clicked
결재권
LOGREC
396
Abs
stacks
terr
focuses
Digit
occurring
##Params
구직자
versa
BUSINESSWARE
fclty
Often
Tuesday
aid
ead
비게
재청
쿨링
테스터
파산
##js
##WF
##시오
##모션
assemb
simp
Scripting
##Selection
organizational
telephone
CMPS
LPAR
BITcampus
##Initial
internationalization
##omorphism
공휴일
Hig
diver
nil
수혜
우정
저해
진정
차기
##RD
##world
threats
rear
reseed
autoc
Unexpected
Reliable
563
submitting
experienced
abnormal
music
warranty
과부하
660
810
ECH
cis
dossiers
jacl
단의
성질
아반
징구
책정
한눈
##aque
##GA
##HIST
##장터
regression
MQOutput
manufacturer
##priate
Unfortunately
나라장터
Mailbox
근무자
다이나
succeeded
##cellaneous
tuple
gradient
515
BAL
Hill
PTR
Spl
fg
iWay
jt
qname
리두
생애
소액
##lin
##var
emph
##Chart
complexType
bwm
Writer
정규식
만기일
cookies
auxiliary
Delimiter
Pal
계급
나요
장려
주고
##care
##eak
##ney
##PERS
##HB
##가치
##티비
##TENT
##ugin
precon
Interim
encour
photo
##efine
CTG
Relay
393
severe
삼성생명
MODELS
##Items
##LIED
Teradata
##YCLE
yields
TRANSFORMATION
690
Du
FPT
Gallery
mib
nal
권역
##SID
##itol
##advert
degrad
20001
##Ins
Statistical
delivering
432
COLLECT
RDP
BizFlow
IMPLIED
ALLOWED
내림차순
동호회
CLOPT
LMS
iSCSI
ly
tip
김해
벌금
싱글
##Bbs
##ocity
프로모션
##ENS
시간대
공통평가
targeted
supers
Toolbar
투자액
AUTHINFO
##hosts
Certificates
Continued
IGQ
rectang
yyMM
canceled
TILT
0995
131118
한국가스공사
공통평가기준
DDS
Foo
FTA
Len
TST
Voice
ppp
공감
나옴
연말
자간
##uitive
##박스
##아이
##pens
stateless
033
WHILE
Redirect
Atl
regularly
특허청
gsk
Terms
Detecting
##GROUND
DCRUM
AW
Ahn
GU
Lie
dur
gcloud
wap
나뉘
마시
액티비
힘들
##Site
##edit
Conn
##achine
unm
HTM
Securing
PMU
347
Decrypt
RESUME
multiline
personnel
595
완성도
Turner
##Guide
Due
XD
qmail
일마
##anish
spread
##SCH
##appy
occasion
referring
355
MQIAMO
suited
Glass
HCONN
Kn
NSCP
ZT
bpe
레드
신주
해커
##rar
##SQ
##규모
Innovation
##mises
Prerequisite
##CADE
guard
AMRC
fdl
PICK
##Usage
decrease
UUCP
MQRMH
자릿수
937
Illegal
Sports
sion
슬롯
오니
잠시
전액
지켜
##XB
##uity
##승훈
##008
cancell
Closed
INACTIVE
executables
ISBN
##Prod
으면서
RedHat
CURLE
obtains
Exporting
jeusadmin
setmqaut
Inheritance
Ded
Sound
WDP
진수
훈령
##gative
##십시오
##array
ids
MessageFlow
20190
rounded
heavy
골드윙
megabytes
680
ot
zSeries
물가
부상
신입
인허가
##sub
##band
프로덕
retailer
COD
Modern
363
MQPMR
인덱싱
AAHR
INITQ
MOCOCO
REPCAT
pixel
sOrdM
STARTED
스러운
BAM
ILINK
WSP
dtt
동물
배달
비주
속해
인용
인접
재택
커져서
획기
##Elements
##Zone
bea
##idirectional
becoming
2147
textual
tbESQL
Blocking
OFFICE
NXA
rv
거점
##dump
spi
20010
interconnect
getM
unrel
xmlmod
tpinit
##shift
Quarantine
Weight
guests
444
affecting
PowerPath
소방방
Constructs
Facebook
Equival
aspx
MMBCO
액티비티
614
Qmanager
cim
categor
lic
tiers
불과
시안
실천
운항
##512
##former
retention
##matically
##Information
ARP
##Commit
EVAL
##auncher
##Threads
investigate
efforts
expertise
Dummy
Wildcard
xmlmodifier
Cash
fits
tie
이율
자회사
##CUR
##lient
##rases
##VT
##동안
##alive
##unnel
provisioning
editions
Archiving
Exceptional
398
svch
bracket
REGISTER
MariaDB
525
Room
마무
옮겨
이끌
호주
##Tim
##ivirus
JavaServer
##ontext
CMA
INTERNAL
GPU
coupled
rotate
escap
nodename
SUPPORTED
Datatype
816
CST
GFI
UAT
cult
cgi
fstab
mpc
도커
패드
##aur
##YORK
##연구
##015
##irable
Enumeration
businesses
POA
경영자
##765
DIVISION
##384
NEWYORK
##groups
입출금
##Numbers
가로등
20100623
JAAS
마무리
517
DUT
QB
ey
laws
ni
nob
sized
sizing
가독
닫히
stick
ith
spoke
Unusual
Logon
##AGMA
tooling
snf
연락망
TRANSP
CFL
translates
Retrieving
Separate
재료비
검지기
MEN
cx
rod
정통
헤드
##tml
MQAX
itso
Dell
interchange
##icket
COS
COA
해야함
Entries
##specif
##402
339
PRAGMA
ENVFILE
improving
ECB
##Upd
IMG
##quisition
달라질
American
BWMAgent
신문고
##alicious
KSCC
zeros
Hex
Lob
Tips
lapt
ovo
당업자
방위
안양
윤철
이재
적어
##LING
##Bank
asm
##umin
getAttribute
개인정보
actor
USD
regener
나타낼
##raz
##407
DSL
391
CREATING
##AINED
Skill
irq
mqsistart
favorite
MULTIPLATFORMS
Mars
xl
블랙
탄력
##eks
##Mg
##항공
##Clob
computation
bootable
ALLOC
APPLY
STEPLIB
조작자
##orizontally
conversations
##Tracker
MPOOLFILE
FLEXlm
주고받
Hew
tang
대략
리부
세별
세액
이라
##rply
##EGIN
##WAR
##시트
Inside
##portion
##ERVICE
getItem
##epad
##CPU
Asia
##raud
신용정보
##UserName
Emacs
어려울
ENTITY
BACKGROUND
monthly
extracts
넘어가
신상품
##Selector
titles
ccsid
병무청
518
Ser
SIN
aaa
hy
him
pap
구할
모점
무형
서상
학위
##JA
##폐공사
##elocity
Conventions
subflow
##IDB
##ugh
Ship
ROUTE
Hosts
szValue
테일러
MQQSG
polyline
safety
DYNAM
아마존
CWS
nr
pd
감축
로페이
베트
연중
##organ
##amics
MQMT
##inthe
numbered
pragma
Recipient
##OLD
453
바이저
SMART
placeholder
ebXML
esql
rolling
skipped
Booking
EZisV
transforms
##Arg
hyphen
Wraparound
윤철중
BRE
bf
istatus
랜섬
미션
억불
오랜
총합
테넌트
##mode
##lee
DBOT
unlike
STY
Clicking
mostly
contention
할당량
394
trip
BOOK
uploaded
simplicity
switched
LETTER
departments
CONTINUE
##mqlsr
AIS
MIT
나눌
저항
##Micro
chunks
##207
##undry
Shah
DTM
Identifying
Communicator
interacts
enclose
BANCS
draft
mes
tv
로더
메이
밀접
성남
포기
##Co
##리어
depi
##arth
ifconfig
##osite
disad
대외연
Functionality
##Prop
##IBLE
Redbooks
Packard
##VOs
SKU
smallest
sorts
periodic
architectural
ipcc
페이징
hundreds
Cci
소규모
취할
클린
하고
##xa
##Video
##ZX
##ectors
##idi
구축함
##putation
##spaces
##AGING
Assembler
Buy
삼성카드
OraDynaset
recoverable
PORTAL
CASCADE
Approval
##Namespace
##Details
Thinking
consolidation
609
Echo
RIP
WI
burn
dpt
hover
구상
금요일
시드
MQADMIN
##umed
trend
##figure
typeof
Disabling
tpforward
보유자
381
FEED
violations
Greater
oreilly
베트남
FQ
odd
네비
부천
실물
치명
홖경
##west
##Lang
##acenter
##osystem
docx
issuer
phases
##DIATE
357
LEFT
부가가치
##CONNECT
KOA
BLADE
tpsend
opportunities
STOCK
##Employee
##ploys
GSCP
PIM
TIO
aq
mass
동생
폭발
##cert
##erate
##ented
##rist
##atell
exha
clsf
##ATIVE
Std
Compet
multimedia
NBP
DEPTH
Else
Materials
shrink
523
DLT
Later
tvo
공과
둔다
정품
제원
체의
spatial
resem
Explain
ago
underst
Tooling
505
387
loopback
personalization
##Parent
나온다
observed
Folio
Rew
ground
xf
기후
동아
물자
치매
휴맥스
##전기
##itled
extr
##aphor
Assume
Linking
DesignCenter
Executable
어려워
pressed
numerical
Delay
Canada
OTMA
responding
circular
Scalability
Traditional
underscore
dollar
kilob
Hewlett
Historical
Russ
xm
인출
##Cipher
##번호
##베로
##urora
Inspector
##STORE
recreate
passphrase
stateful
ITSM
LOAN
CLX
mainframe
일시불
특별법
##Indi
EXPIR
움직임
##Datum
760
Aud
lex
##sk
##SR
##운다
##계약
##lem
##seq
##otes
##estination
chown
imp
CHNG
Regard
bookmark
469
지방청
Capability
20100615
DERBY
aim
jax
lan
road
tuxedo
yaml
구제
배수
수위
시제품
##vb
##SF
##Mail
##bm
##onic
OracleData
getData
IPPR
##SEQ
##MOD
##MCONFIG
##lik
subtree
WriteLine
Moreover
TxRPC
##TEMPLATE
636
917
BMP
Lite
NI
dentry
je
roo
대차
예고
편차
##CIS
##Ctrl
##atic
##itas
업무상
사업주
##cond
Disabled
communicates
DATAFILE
Nextree
resolver
Signing
Enhancements
김경엽
DataFlowEngine
528
613
Hence
Pak
sold
saw
득한
주정
질서
청건
티베로
rewrit
##ptype
##ortium
전문의
##ENDED
agre
certification
Notation
Notices
ROWS
TmaxSoft
cardinality
chains
소방서
국방부
rapidly
##53957
Wes
mil
rq
날씨
부각
솔리드
조견
##TERS
##done
##enger
exclus
##uber
DELI
0006
Alliance
이력서
##ListView
8020
meanings
tpgetrply
opposite
620
Wall
ams
oj
가트
에버
와이드
제명
runlevel
Specifically
Lee
verbs
346
Restoring
indicators
composition
damage
DBJU
Bandwidth
원리금
behaviour
bulletin
FAC
GPL
PURE
TLB
hdfs
괄호
채움
##포르
##atches
##ups
##ording
Dispatcher
Lev
397
summarized
figures
Vertical
529
BH
LOND
QUAL
RBG
gc
rsp
##혜원
20170
Stub
명령문
062
379
Technique
timeouts
대리점
Improved
UBIZ
OTHERS
somewhere
INHIB
anchor
Ultra
LONDON
ALE
Eric
oci
ogm
wmb
부인
주장
##urt
provision
1300
PLM
##onday
##Exchange
TPRETURN
##CIB
##Contents
일부분
392
OPTIONAL
LPAD
Orchestration
granularity
yyMMdd
가독성
CITY
GCC
Nor
OIL
Sit
국한
규명
스틸
시동
정관
찬희
##Fac
##iet
##iment
##ians
##Route
##des
##gence
##운용
##heel
##uses
queueManager
DataStage
selectOrdCard
variations
##Inventory
보증인
심사원
Appliances
ILinkPut
##MsgOpts
Smarter
Completed
SECOND
Capitol
##ENCY
Geography
Initiator
예수금
HAR
WDI
fund
loose
미적
지형
지령
학원
##FB
##Runtime
##NI
##zas
##Wh
##erion
proposed
spend
##eweight
enjoy
queueName
029
Descript
Backout
Nothing
replicate
CASH
demonstration
lightweight
eliminates
불러오
deactivate
formerly
Caution
AAB
Schemas
WA
eval
청시
##URI
##MNAME
##boot
datafiles
REVOKE
Respond
publishes
PCM
applid
dateTime
워크스
##182
iterators
Minor
심의회
arrows
Centre
상수도
Yellow
ECS
Four
faces
fee
gri
방사
싱가
쓰이
일종
전지
콜백
##Lookup
##oser
disaster
2097
Strateg
planned
##ADA
initializing
terminating
##FilePath
reqSha
DateTime
독립성
##omorphic
SUSPENDED
rarely
TRANSPORT
싱가포르
Fund
Leader
ULOG
gd
wf
선생
전북
토폴
퍼시
##렉트
##ino
exercises
IDOC
Interpre
##REG
##ediation
HOW
##properties
##comes
alphabetical
pseud
confidentiality
JUICE
Growth
104857600
KOB
cos
망간
방대
악화
이란
증액
injection
animation
administering
submission
schemes
506
중앙관
##Setup
자산운용
OneAgent
combining
population
##0102
ADMINIST
Sensors
enclosing
CHLAUTH
DbMpool
Lik
Med
SUI
frag
거친
세상
중화
흥국
##SERVER
##attr
##esthe
unload
##tings
STA
UserID
looked
371
Abort
Licensee
psql
contacts
MQSCO
insensitive
##687
simplified
recommendation
DASD
MQCFSL
GOODS
nyi
910
Letter
Te
xc
관여
요하
##Pages
##His
befor
##assis
getProperty
XMLSchema
Classification
Shipment
##506
2600
##902
##214
555
Validates
Distributions
reflected
##EPH
이어서
briefly
Separator
Restriction
CBEFF
aku
CLEAR
Fabric
OG
lim
mal
기부
보충
전주
전처리
행과
화폐
##bars
##orec
stability
shaft
OracleCommand
wrapped
decom
MQIACH
crashes
Concurrency
DRIVER
rerun
entrance
가트너
DbMpoolFile
CU
PN
XSS
고부
공연
도심
베스트
블루
알파
엑시트
##formed
Staff
대상지
pricing
거래제
Instant
SWITCH
tpde
considering
1304
HJS
RESOURCES
##Alias
permanently
DEPLOYMENT
##unsol
understood
920
SBS
ZENTER
nps
병역
심판
저감
전형
##Me
##bles
inclusive
##formance
ITU
FORWARD
##227
MsgFlow
Limitations
predictive
Cyber
##Subscriber
nbsp
##ichever
Slackware
DPL
HAS
tid
군수
김재
사인
선적
심층
용품
우량
적발
지양
##쓰기
##oning
##Console
Upper
536
truststore
Resolve
INCREMENT
universal
IMMEDIATE
MQQSGD
##atellite
조견표
ZENTERPRISE
LDS
NNL
PAM
rh
uuc
vx
반올
부점
부령
선두
예기
접두
##nl
##paramet
##베이
##IDAS
Recall
Portfolio
Score
Driven
902
DMA
출입증
sensors
nearest
이진호
INCLUDE
federated
queried
svchp
반올림
513
912
DFT
LTO
RST
SMEAI
dy
공부
관로
나올
한자
##Finder
##UCCESS
##vial
##LQ
##단체
clr
intensive
##CTR
mainly
051
383
483
tagged
RTRIM
Signed
securely
Discus
##APPV
##Author
MQTM
Drilling
CBS
Fall
rf
sdk
구두
대조
우드
이곳
포지
##Ymd
##본다
##emp
##ORARY
Stage
0201
호출기
Others
성장세
1403
RESTRICT
Constraint
Margin
xsql
VTL
experiment
WMLScript
REMOTEQ
MQWIH
CMQC
indirectly
IOT
납세
녹취
약국
입시
평면
포항
##sets
##RESS
##JOB
##reated
##adapter
##iley
spacing
통합체
recpt
ags
##viewer
##ensor
Api
##806
SIEM
participant
dropping
Webservice
Below
##고속도로
Propagation
주정차
616
Bold
Kick
관람
스럽
호의
##94
##커스
##ulas
APN
##INI
Trunc
##502
profileName
##306
0800
Redhat
교통량
slab
448
동의서
JSF
PROPAG
Establish
##Management
##Txn
Predictive
##NotFoundException
670
Categories
Gather
PASE
VISA
다년
문항
수십
할부
##aro
##110
##was
##ICATE
Interrupt
prime
보호자
libmqm
Secu
importance
assignments
kernels
unsolicited
shutting
BRAN
happening
offerings
Tagging
Facts
fbfr
624
KCK
Well
대입
만나
상신
없애
자발
출물
##anet
getInstance
extending
mapper
FIA
통지서
REMON
stanzas
Hierarchies
mqsistop
dryer
비주얼
BDE
Fully
HDR
RANGE
led
synt
니스
단면
##ITED
##Cookie
##cision
##재료
insp
imag
##ListController
DOCTYPE
CRED
joining
bounded
Construction
##Authentication
fsck
EQU
##context
GTK
BmsLnkCom
tolerance
시그널
##Decl
selectOrdCardList
MW
OAS
eated
급변
느려
비명
티어
##Top
##SUB
##옵니다
##rim
MQOT
spam
##click
IPX
assistant
Union
quad
PLU
##itsu
invoice
OpenAPI
mqsim
concrete
voice
Optimizer
concerns
유니코드
tpsvrdone
Pac
Ther
장단
Staging
계획표
variants
libmq
heart
가져옴
##afunction
FAU
채무자
롯데카드
hyperlink
Fiber
Trouble
Er
Obs
Rapid
grace
오름
이명
##DU
sequent
2023
associates
trial
oldest
AMIDAS
##HOST
WinCE
소재지
mutually
rsync
antivirus
세분화
Hours
affinity
##보증기금
Azure
depict
토폴로지
예전
원소
이성
초당
##Tmax
##Panel
##LAY
engn
OSE
repet
Starts
myapp
concerning
pict
Insights
Skills
Palette
오늘날
HANDLER
HADR
GUBUN
KOR
WP
양면
초대
##CARD
##Ap
##HER
##수산
##사무
MQEPH
DBCS
intuitive
##ALIAS
Workplace
authors
452
encodings
BOX
Browsing
pspt
686
treats
FiSS
revoked
Kon
Mal
배터리
상의
여비
##CB
##UA
##Network
##nam
##Sn
##JP
##alian
ascii
OracleAQ
##ynomial
workaround
##console
2100
deselect
Workflows
utilize
NUMERIC
IVR
MEDI
TIER
CATALOG
스티어링
EMDI
Har
ODC
RV
zh
근태
매직
바꿔
소정
위배
좌수
학회
##Shell
##경영
##사태
##른다
withdraw
envir
Exclude
plaintext
SHUT
mydb
braces
HRD
엔트리
##checked
REPOSITORY
literals
BLADECENTER
Bob
Git
모빌
중견
출근
학기
##kim
##ato
##arer
libs
##ADATA
Explicit
TABLES
Reads
9080
531
opaque
TCARD
MQMF
Repair
##Parse
LSN
03926
acknowledgement
PASEAI
OGM
PUSH
cables
grip
malicious
ostream
감수
경북
부평
자녀
##MLONG
scp
##ROW
1440
portlet
##ride
phrases
rowid
SUBSCRIB
PAMLONG
##dept
demands
informed
달라지
TPNOTRAN
EXCLUS
##Compute
CID
QUE
tor
환원
흑백
##MY
##claim
keying
1970
producing
deck
##grep
Veritas
OFFSET
Radio
PERFORMANCE
David
toggle
756
har
wise
게이
불용
속보
와서
##function
##nail
##셔티브
##0129
##ERING
##acker
Closing
subprogram
prm
##ADT
deciding
MQSD
##223
allocating
Visit
프린팅
BUF
examined
##ahoo
Relationships
Privilege
이니셔티브
sequentially
Obj
RPT
horizontally
lf
명백
사료
원재료
##gb
##bin
##HEAD
exchanged
canonical
valued
setString
이용한
기록원
Notifications
replicas
Dbt
##atalina
475
playing
찾아내
Fan
lpp
pam
느냐
독촉
상계
진술
포커스
혼재
##Rslt
##Audio
##Qual
##승현
reve
##ificate
##ATR
substant
redistribut
438
suppliers
ILinkGet
implications
MAKE
navigator
happened
##Results
firewalls
##Prm
BmsSrv
accumulated
여의도
##ubernet
DTP
GDS
IRS
JUnit
NRM
euc
mgr
mak
요크
주당
추측
##ban
stake
##ldap
##tee
OSG
1006
relations
0011
Incidents
nowait
##phony
463
기재사항
MQMFT
prefixes
PREP
스캐닝
꾸준히
##ubernetes
Filename
Io
Virus
불명
한번
##GL
onment
Concat
Commercial
corre
Retailer
CommandScope
designate
GWWS
532
##LOGS
skill
EMR
serving
##Locator
Hotsp
conforms
Safety
CLNTCONN
##econfigmgr
적어도
DIG
Monday
WLI
borders
rsh
xref
띄워
리문
무자
새벽
영사
오직
정중
contiguous
1101
Modes
##CLS
교통카드
삼성증권
워크숍
##UserID
Phot
Goal
coverage
12345
duplication
RUNNER
BRKT
JPG
LLMCM
ivu
REFERENCES
troff
Analysts
보행자
Ari
vc
캐스트
평점
##fa
Proof
trns
shapes
##oset
preparation
0210
DEMO
이동한
아니할
confusion
455
이해관계
binds
Putting
##Second
AEIS
ACCOUNTING
##LastError
adequate
CMT
HPS
OINT
SAME
Tp
iKey
동종
디맨드
똑같
옵니다
조세
주임
피하
화장
##hard
##준수
##oration
##ibase
MQCACH
Portlet
Packaging
DbException
derive
BRMS
GRADE
hadoop
incorporate
divide
truncate
제일은행
gtk
PRIVILE
실용화
스냅샷
bundled
벤치마킹
tooltip
##specified
848
Sector
uk
위상
##Pop
##Batis
##elists
##perature
1310
##ypass
##PLC
MQCCSI
writable
준비금
individuals
Macro
Slot
EIMS
Calculate
reconnection
heavily
SMALLINT
##OPTS
Incorrect
##Producer
625
Causes
VIS
ber
cooper
가량
김진
연대
일명
##tk
Entire
606
DTLS
GSR
##cipals
BIZTEMPLATE
lots
WTAI
##gestion
Sorting
PRMT
##structured
VIRT
Austr
MAT
SNO
UA
birth
dining
mw
pms
고재현
구내
늘어
성향
소명
옮기
자용
증필
체류
합니까
##nm
excel
Prob
fileName
retains
Spanish
##REEN
resulted
TRA
체크인
507
##OPER
ENF
486
Authorized
collects
alternatives
##ITIONS
17400
LABEL
WRONG
GSE
OCC
bible
oduct
pain
양행
##bind
inclusion
stm
compensation
##actor
설계사
3270
corrected
##308
DEFER
brm
446
Addresses
Everything
##ESSIONID
drm
NSK
JCN
SOLUTION
ANALYT
MICRO
##INCIP
478
GIFT
JCO
Sheets
West
gig
mn
교과
메가
행이
##DAY
##서리
##슈랑스
comfort
##chg
Compensation
outlines
##ffee
hands
PCS
UNIC
ACF
1991
improper
OBJT
revocation
FcPattern
Keeping
Invoking
centric
##build
continuously
instrumented
billion
UNDER
방카슈랑스
consecut
Square
ENCRYPTION
roduct
990
CWN
Tor
au
citiz
말씀
사태
운반
컬렉션
포상
##UGE
##stmt
stuff
deque
notices
##ivot
uncon
##PTR
Accessible
##scan
myEnv
Ability
인원수
REGI
BINSTR
mission
adjusted
accurately
TPCALL
860
DX
Sold
hi
다각
당좌
도우
마침
위급
재활
조언
조폐공사
##del
##624
##bal
##HI
##BF
dee
##STA
계약법
myfile
민원사무
SDN
388
mqsil
VisualAge
Land
Mass
budget
taylor
uc
대개
밴드
##pite
##wh
weeks
##1231
001004
##213
평균값
similarly
MPower
PARENT
avoids
icmp
intelligent
thereby
##ustrial
##093017
Offer
PIE
Tol
rr
wired
기말
대피
명은
의지
인체
파지
##aign
##518
##PART
##icontext
timezone
LOVE
libp
Secur
##Extract
Actual
QMA
Decide
granting
##Short
promote
Blanks
용인시
ODCIIndex
Pse
Tcp
VDS
Vision
세관
친숙
택배
포르
##Bin
installdir
className
##ertain
##essionals
안내문
structstd
DTL
Blg
FailOver
COLOR
Characters
140206
##Forward
##listen
외국환
adaptor
발신자
##Execution
isolated
Germany
Fibre
성숙도
EXTENDER
Aspect
EAP
hon
py
누가
듀얼
위조
##fish
##otypes
##apse
resistance
modifies
##eps
memo
PROT
644
Precompiler
TBD
DISABLE
##Import
MPMS
SVRNAME
dwf
kilobytes
Ax
ATF
PING
금속
박사
상공
평상
##itely
orcl
shard
proven
SQLER
##IDS
##ponents
##Resol
engineering
ALP
PERF
OraTimeStamp
보건소
Pooling
developerworks
octet
##onomous
960
Sugg
fold
mari
sss
uint
기에
드러
무기
사우
스텝
조속
지칭
캐릭
##장치
##퍼스
##plane
##term
Deactiv
선택기
Plain
packed
아이피
threading
counting
Compiling
timest
439
##Complete
Adaptive
LISTEN
tracked
남양주시
TTAS
ciphers
##ombard
Assessment
Recognition
##INCIPAL
Hom
Tube
brid
cash
건너
당연
전방
친구
침수
##FTE
##Cycle
##Trigger
##827
##Binary
##ptoms
unified
scull
apic
became
CHSTATUS
##Storage
##AGT
Independ
DATETIME
##TaskCard
맞물림
Fit
Km
hope
그냥
으시
적서
##xs
##JU
##전력
##qr
stages
##obol
1980
기록부
emit
TCPGW
는다고
GSV
485
##Quest
LLC
##Statistics
freely
Calif
Switching
Extend
desktops
Scheduled
##Users
##YMK
competitive
##arehouses
되돌려
컨버전
526
KP
TIM
hm
강서
걸려
내구
쉬프
제보
학과
##SERV
##Ph
##Plex
WebD
setUp
##ANDBY
LGM
##rypted
TMF
drops
RECPT
certainly
##RESULT
##WebSphere
Children
##unctuation
Mandrake
Likewise
LOVEYMK
캐릭터
Apt
TIS
rating
오너
크롬
##RF
##Ni
##inox
##entoo
##ecks
Their
##adig
##009
defer
reserve
programmatically
Energy
036
restores
3601
의한다
timers
DSA
##Developer
Present
Licensed
HIMS
##CODING
##ANCED
오름차순
OOO
TIN
cer
tl
관장
근접
민주
바디
붙이
##Fs
##UF
##pwd
##Echo
##ecl
##ableStatement
##uby
##ISK
nofetch
avg
wrapping
TOKEN
##CHK
Runs
431
logins
crs
ALERT
balancer
FUNC
Scaling
School
보호관찰
##likely
730
BEN
KVM
Lit
UAC
Ult
hb
그렇게
리드
비서
선결
재질
조화
증강
한함
rever
anyway
1005
HOUR
Checked
##903
slots
paid
ETR
JSESSIONID
인계자
duplicated
satisfies
nnn
신분증
SUSPEND
부가가치세
Suggested
King
aix
tpt
tapes
곱하
라이언
박람
초등
한전
##Brow
##ecode
retur
runmqlsr
returnCode
EXPI
redis
Ide
NEOC
454
EJBs
스케일
STARTUP
SCOPE
Popup
pipeline
urn
strictly
BRANCH
911
PPE
Ring
ZP
맞춘
올린
추심
##cache
##UNS
##LC
##Hist
##화점
##행위
##순위
##ithub
asym
Reilly
whom
통계청
modeled
obl
Redund
558
RQMNAME
finite
PREPAR
frameworks
PPM
PIPE
##Notify
123456789
##ftpd
screensh
Recommendations
quiesce
Iteration
postgresql
714
858
Very
bh
mig
마스크
몇몇
상향
소장
숙박
오디오
입니까
장벽
##Non
##hy
##주의
##옴표
##acer
traced
Stan
acad
requis
logfile
1416
JavaBean
election
PLAT
##parms
linker
##508
##MOTE
authorize
488
extensible
삼성전기
##ENDOR
발행일
Calc
BACKOUT
declares
Buffered
balanced
developerWorks
할인율
IRIS
CONTROLLER
datagrams
Inherited
Applicable
##PERSON
VIRTUAL
Cases
Currency
Elect
JNS
LST
Ps
SCP
danger
gur
riser
농어
당초
사슬
인센
지니
징역
##body
##더링
shipping
Too
##urses
grand
457
Agency
answered
ECR
simplifies
WPSWID
synchronously
subclasses
isolate
externally
Circle
##Generator
모빌리티
인센티브
WPSWIDv
733
DST
heat
zw
보보
파크
포설
##나다
##Double
##Arr
reopen
##ections
traf
objectType
userlog
Tran
##ublic
한국전력
associations
ReadOnly
##ampaign
surv
201503
AASCIM
sqll
Shutting
Investigate
Broadcast
CWNVU
Braz
yp
녹화
스탠
와이
익명
임준수
전찬
##IATE
##fe
##PAGE
##산시
##성호
unlikely
##tep
SQLCODE
##ISM
1412
Spatial
##403
451
BWF
PRD
dtl
장기간
##IEWS
fills
KTNET
polynomial
patio
##Methods
accompan
magn
adopted
##rocessor
Copies
MENU
DYNAMIC
aes
xd
건당
그려
노이즈
동해
스톨
제언
하한
효성
##OF
inq
사용료
deals
Procedural
disap
INOUT
modular
errorlevel
mqft
CPA
Workaround
체크카드
AppMon
##scale
성장률
insurance
ddl
##RESP
ThinkFree
PURGE
출연금
##rintf
SUBSCRIBER
SQLERRM
Californ
812
DQM
Geronimo
tel
구합니다
국지
권영
김수
블럭
##mo
##Snd
##Pres
##줍니다
##aland
##ctt
##ution
Strict
allmqi
DataAccess
equality
061
##eller
##oughly
markup
Identi
boots
Consortium
Heart
VPC
substituted
MQTMC
Grad
satisfying
줄어들
Fujitsu
Equivalent
Bro
TYS
bip
lazy
xmit
yum
끼리
배선
정류
패딩
힌트
##fy
##hind
##보기
##INES
indices
##result
MSP
한국증권
tprecv
Parts
WSL
reduction
Stateless
knowing
ebSphere
##Left
France
publishers
ISSU
laundry
Represent
ANALYZE
##aphores
한국증권금융
ECO
Firm
Pix
eye
irr
경직
였음
접종
##TL
##mem
##016
STANDBY
##REF
mqsc
##USED
formatter
연구실
confusing
routers
##605
576
Indexing
MQDH
이어지
Approach
##attended
Analytic
PATTER
ANALYTICS
924
CLT
KER
TAN
sides
수업
엘지
인상
충남
폭넓
##Sql
##erged
##enior
##ried
사업소
uname
UserIdentifier
environmental
Substitut
CSQP
HostName
출장소
##ERROR
OracleTimeStampTZ
배우자
장단점
California
ACI
DAC
Joe
PAP
ZX
dup
gb
pep
나눈
다섯
똑똑
무방
산단
선급금
이정
이월
출현
표면
##Full
##eaver
##Maker
##Zero
##BP
inhibited
DBGet
contrib
Station
TOO
0012
para
071220
##alett
445
SKB
546
constrained
JVMs
Tags
MQBEGIN
Owners
ascending
accompanied
813
Collabor
EW
Pric
SIS
남용
식사
주어
플라
##Ses
##712
##Multi
##비저
setenv
##http
objective
1209
intervention
Intercommunication
##204
034
##UMMY
##OLAP
5601
472
CRIT
##EventArgs
reviews
##UDING
DETAI
stubs
Payload
Represents
##Credentials
exclusively
SHUTDOWN
mariadb
Cursors
DDR
SLS
간호
강수
개년
결원
관해
김흥
나갈
농산물
득하
수락
영등
##cn
##cmd
##JI
##break
##93
##Zip
##종민
##sely
프로비저
##ubmit
19116
##UBE
##RMGR
Passing
ORDPERSON
##BCIS
##Keys
revisions
MQHeader
20031201104
OBJECTS
manipulating
Throwable
IHBCIS
##arcation
lucene
eMerged
##wanted
프로비저닝
BSC
WN
WTP
bubble
sel
견고
마킹
보훈
유전자
행방
헌법
##GEN
##agger
imply
기준서
UserName
##REMOTE
##AGED
Shadow
##406
Reliability
Doing
Visits
Flight
브라질
JSSE
도로공사
증거금
KICIN
Associated
Licenses
##ervisor
630
623
CY
Es
KFT
PMP
PBK
TOR
Warehousing
hits
ion
noc
상생
서에
에어
엑스
을지
전류
태양
##Bal
##state
proportion
devel
RENAME
coe
Expiry
703
Passwords
DEPTNO
VERIFY
transparency
setmqenv
inquiry
Interceptor
ALSO
invariant
Brazil
Governing
Ru
sampled
강한
계기
세입
해줍니다
##OME
##rest
towards
intention
retired
accessor
##cripts
605
481
정리대
frequent
TDomain
##Prmt
하이닉스
ImqBoolean
interpretation
LBSP
Licence
FRAMEWORK
214748
OSGi
GDP
Pending
TSP
ePMS
nf
간사
검거
지토리
텔러
##XNP
##rot
##ette
##uth
Travel
subtract
deter
Anonymous
assurance
00015
PROF
MBS
TSFI
Relative
visits
pgm
uploads
LSNR
UCFS
##queror
9001
Mil
rational
vd
단서
전장
해짐
##sibility
##number
##yt
##rical
##다수
##INATION
시작점
apart
amd
USERINFO
##oinc
4052
468
1104
OFFLINE
examining
##Packet
##command
##RECV
escalation
Implicit
ROUTING
ECHO
OBJTYPE
617
tex
부진
##sthat
##ama
WebAdmin
##ckel
networked
CONSUM
MTECC
bitwise
Assuming
##MCard
608
협력체
OutputStream
##commit
interprets
supplying
contractor
Poland
rendered
IMPORTANT
solely
719
NMI
XF
paint
국비
대다수
문헌
바뀐
보육
북부
용기
하자
##iX
##Orig
##vd
##Pointer
##그라운드
##emq
dealloc
modifier
dbname
SYST
MQCSP
tpconnect
equinox
MQPut
5655
ENDPOINT
bounds
JSR
##HandOver
cnf
##ULAR
arrived
samba
NAMESCTL
NRBG
일어날
Restricted
RESERVED
virtually
면세점
Pull
Paging
Sizing
xE
스튜
중순
채팅
총수
##ITEM
##aug
##table
##BLE
##의자
spaw
shad
Dept
SystemOut
CommBuff
SYSC
시험기
customizations
validating
standardized
436
484
tagging
EDU
492
저작권
샘플링
HttpSession
FINAN
BFG
octal
ADMU
TRUNCATE
Orders
기자재
GROUPS
다년간
consecutive
김흥교
736
Bypass
SRM
관해서
군사
능률
센싱
엑세스
유망
##Div
##Cancel
##HJS
##Win
clip
##BMain
IDR
##ALOG
##ROC
1004
SECTION
HOLD
##MOUNT
registering
BILL
Anylink
464
Executive
EXECUTION
servic
approximate
Releases
615
Px
nop
오렌
지부
파란색
##남도
##usr
preprocessor
공유자
washer
backwards
##MQML
dblink
041
increments
1992
ILinkCon
545
Registrar
semi
recovering
Printed
Purge
redirected
acknowledgment
incorporated
##MicroStrategy
FINANCIAL
HAV
tgt
농도
도금
입체
##cursor
##dog
##MX
##Gateway
##항력
Composition
operands
##ACES
##conomic
신용장
602
465
collecting
DSNs
소방본부
MQBACK
MQDestination
##Design
Assigning
CRLs
dwg
decrement
SPECI
contribution
##Accept
##alettes
오렌지
AK
CUI
PTT
WTS
ZAUT
cally
cmp
dcl
fol
기표
백그라운드
정시
##Catalog
##521
##VA
##ACTION
##기획
deinstall
##execut
REV
10001
maximize
Perman
destined
WASN
508
SHL
441
정리함
utils
474
##Comment
CFG
tbs
mmap
TEMPORARY
TPNOFLAGS
instructs
강원도
Floating
PARAMETERS
프레젠테이션
무제한
CONSUMER
656
gate
sf
smit
등재
재분
직류
##Hash
inodes
##plan
##urement
APV
OracleParameter
intersection
Choice
##ously
locales
nulls
mini
GroupId
SAA
Agile
496
GRUB
##Platform
PIMS
ulimit
고등학교
excessive
블로킹
EAC
SLO
기함
덧붙
상정
위약
##LK
##ani
Except
Seed
APIC
sca
##ITIVE
MQCFT
TPFAIL
income
SAMP
##228
552
435
originated
significance
큐브리드
TPNOBLOCK
##BUF
pipes
재개발
Float
753
Give
Mill
Rect
xii
거짓
균등
기념
리전
부트
##Ne
iserver
printable
##posit
indexOf
WSOI
불가항력
volatile
##RecOffset
breaks
aggregates
최상도
behaviors
Quadrant
Transparent
최우선
Absolute
590
828
Ell
Kubernetes
Mercury
race
상근
샤시
심평
양질
카니
하다
##Iter
##lands
##RFC
##dap
##제목
##회원
##모니
##캐피탈
##itative
##uly
whichever
##ARM
NOTF
dbtools
TRAIL
##215
##305
459
442
##DCARD
Mappings
594
superblock
Approved
linag
Paul
##security
제일기획
concatenated
##Manage
Roadmap
플래시
##conomy
사우디
21474836
870
ips
xC
유격
의류
조창
타발
행시
##TV
enqueued
INGT
##pped
Resume
Ancestor
nodeName
ASUB
Outer
FILENET
FIRM
Engineer
initiating
477
##272
655
Labor
frst
수령자
Latin
EXTENT
Biometric
Filesystems
destructor
newsgroups
accidentally
territory
628
746
KEAI
Pfm
bfile
구미
상응
수년
슬로
슬라이
임포
장성
태풍
특기
피크
##svc
##Match
##forge
INDI
suites
builder
ISU
##Inc
CORP
553
461
finishes
Triggering
worldwide
##Price
fdisk
소득세
NWM
INGQ
Syslog
Frequently
##pwire
disclosure
mqsilist
WebDAV
카니발
740
840
Horizontal
WC
Zoom
mation
느낌
백화점
사채
시흥
월보
전적
침체
##Fi
##Right
##UZ
##Nodes
##AFT
##ocab
16384
SEM
1800
headings
586
altering
##RYPT
ideas
leaders
QSYS
Multipart
APPENDIX
MASK
VFS
Xmit
느끼
스킬
억제
여파
욕구
##OUND
##산동
##교육
##enes
정보지
##emann
MQSE
Inner
spect
OracleXml
struc
거래일
##ableservice
actively
LOCL
##123
ASF
##LTZ
converter
##CAST
##CIA
myApp
redbook
dialogue
가져가
OPMODE
OUTBOUND
1506
criterion
envp
##MQMAUT
프로그래머
Investment
insights
clamav
NODENAME
heuristic
548
Cron
CRC
PAID
RAR
iApplication
ymd
그랜드
마십시오
승낙
시지
적법
##dome
##Support
##WMS
##stack
Extra
1201
##ipro
backs
##MQMQ
successive
검사원
##arset
ENCODING
Indic
AMQERR
accepting
concentr
##Static
ALM
부정수
눌러서
absence
Rolling
SharePlex
Annual
네이밍
##aversal
박람회
KFTC
715
Jennifer
Ni
Pad
XAP
dash
소화
저희
조례
커지
##플러스
##헤드
##orse
Thom
##INK
StringBuffer
observe
##Connections
Symptom
473
wizards
preventing
avoided
payments
오버헤드
Breakdown
##Headers
comprises
simpapp
##수산부
AST
CUPS
Func
Michael
QALIAS
ck
대손
함대
##ein
##NF
##Word
##inet
##ici
##ameter
##urally
INDT
workbook
보수성
wherever
TPINIT
PDU
공정환
보여진다
snode
495
LEI
expands
OPENINFO
Everyone
PREV
프리미
신상헌
overlapping
freedom
cvs
precisely
Javascript
histogram
Loan
##transaction
890
AZ
Render
Soc
XI
pet
가끔
알맞
열차
홈플러스
##rain
##Border
DBG
shopping
##inders
1600
PCD
Specifications
EXTRACT
##positories
##503
TMX
Publications
##ICEX
Attr
multib
547
responder
Suppress
Various
들어갈
semantic
faults
szName
##ocoa
LTRIM
WebtBuffer
NEXTREE
##Reporting
lpd
ADVANCED
Thresholds
Javadoc
32767
780
JServer
QREMOTE
TDL
검역
격지
김남
비하
악취
액면
중구
피부
항공사
##Mill
##ened
orth
##olved
sprintf
energy
##sof
retrans
getUser
namely
2500
##PSIST
EXCHANGE
SUBS
DEFPSIST
According
CAMP
535
감독관
infinite
BBB
saying
vulnerabilities
Footer
FMS
KICEX
Src
TAC
Triggers
git
pf
관행
내비
송달
주류
치열
##YE
notion
WebServer
Threat
adoption
##acking
Exits
FileNet
UNLI
##108
signer
##posal
Checklist
지급액
##dbparms
544
evaluating
757
오프셋
crossing
arranged
Placement
tunnel
##secure
Servant
CIB
mpl
상상
유아
쟁점
정융
치안
탁월
호가
홍종민
##dy
##지변
##갑니다
inn
##figurableservice
accessibility
IPL
needing
corr
Actor
Metro
Portug
Partitions
##oker
updatable
slices
Blade
heads
netmask
수급인
Initializing
666
SECUGE
Paths
Conversation
Prints
LOOKUP
수산물
##econfigurableservice
천재지변
정융기
754
DUMMY
Rober
TZ
die
mop
ops
대변
면접
방역
별명
상한
차액
##CCSID
##ny
##pet
##rote
ongoing
##forum
Contr
##ministic
Useful
Corporate
discrete
eaiadmin
Simply
Maintain
PRINCIPAL
##ANDA
Reviewing
foreach
demonstrated
Writes
해양수산부
##Primary
gathered
네이티브
716
CZ
HK
Je
XLS
hybrid
night
곡선
닷컴
도용
독거
의장
토양
해치
황지
##WIN
##pply
##anges
##INION
FORTRAN
##netic
487
realize
476
##AREA
1204
embedding
suggests
sshd
oker
Superdome
RESOLVE
GIF
PEM
RU
TY
XR
bur
pts
vb
따옴표
비례
음영
지워
##Srv
##성장
##quest
DBBT
resets
##berg
##clam
2030
seeing
접수증
##Expl
Architecting
Relation
SYSOUT
Verb
467
Flows
##0002
특별시
IVT
단축키
MQDistributionList
encapsulating
MQTopic
PCIe
BYTES
Miscellaneous
compromise
이원화
숨겨진
Folders
MTA
ZSD
wiki
고승현
동보
리원
코팅
터키
##ict
##eep
##prompt
##gy
##zer
##Weaver
##스톤
##일드
##abank
transf
getList
1301
CLR
SCR
493
Signific
AMH
deptno
Characteristics
merely
singular
closer
hints
INCLUDING
fteCreateTransfer
정류장
Her
il
iT
mas
wt
개혁
점명
횡단
##XJ
##uple
##Single
##Pump
##개발
##acon
prove
##usic
setProperty
INZ
Combo
unusual
##pping
##DEP
##conv
positional
##SECT
LGU
554
##STRT
정확도
##ENDING
##Trns
Isolation
ECDSA
covering
OraSession
microse
##MainDept
TIFF
Poly
Altibase
퍼블릭
Konqueror
LOCLADDR
654
Li
Luc
Ok
PACS
YG
sg
uct
석사
세일
셋째
시내
해독
##yl
##JDBC
told
exc
##erving
shin
1020
##ESCE
modul
JavaCompute
Perf
believe
swapping
longest
Configurable
DRS
Integral
Converts
##ErrorMsg
circuit
ASSERT
임원회
##Agenda
Allocate
##BasicInfo
WIPI
harmon
##FinalDate
MEDIUM
UNLIMITED
778
Pip
Pair
pal
pic
pow
served
tpend
각목
담합
동행
미주
직면
##ucl
##Hub
##unch
##chain
Reject
0099
ORDI
exposes
이동하
delays
EventBody
MyBatis
NotesPump
707
opn
delayed
RECOVERY
drwxrwxr
이민지
이경묵
##TENANCE
laptop
서상일
저작권법
Gtk
MSC
dog
mf
mesh
mcd
고양
공기업
김은
대치
위장
진위
##Find
##Axis
##시도
thor
thick
staging
##umption
##peg
uni
##ysql
Env
##NDS
##overable
Recon
MQCB
상품명
##FileSize
Storing
##pectives
bookmarks
##Combo
mysqld
498
regional
DIMM
deptid
consistently
##Intercept
연수원
ranging
Safari
Circ
bottlenecks
878
Ha
Sa
SAR
Tib
vtp
늘리
배율
종가
카트
항시
회관
##sm
##OMM
##how
##린더
##rep
reissue
##ANA
equiv
064
ENAME
sentence
Stateful
integrates
MpowerScript
543
undelivered
Extending
satisfaction
MAINTENANCE
sqld
OracleTimeStampLTZ
Deny
OWASP
EXPLAIN
ATFMS
679
ACH
Diff
Fv
Lar
Sus
Sche
WORM
vip
싸이
쌍방
연번
캐나다
테러
편입
##inion
##ethe
DBPut
idm
카드시스템
apim
지식경영
formulas
LOGP
052
mqsiset
DTO
가져다
allocator
iterations
##Deploy
SLIP
777
1802
eaip
quantile
Moves
dmpmq
##RODUCTION
nobody
Discussion
조창현
599
ECD
dram
homes
ments
기온
노임
모서리
생길
선로
수자원
유압
준거
직후
컨퍼런스
##NA
##PDF
##권자
innov
##aled
oradata
1110
##mload
mqcc
InterfaceID
##byte
##prot
limiting
Inputs
572
ALTERN
posts
savings
Differences
##EEK
Locks
possibilities
bags
PRODUCTION
전시회
students
SUMMARY
Fonts
제주도
##Disposition
btn
Controlled
Incorpor
TYPES
Challenge
629
712
724
940
Gentoo
공법
러시아
민관
박성
여객
하둡
##DET
##iably
##ras
##rum
##QR
##ille
##pex
buff
보호구역
##appro
CONTRACT
MSH
##NOT
048
489
MaxMsg
calculating
789
Buffering
##Appro
##ClassName
##OKEN
NOTES
uncompress
하이퍼링크
##Guard
FASTPATH
candidate
527
825
Sport
github
jum
돋보기
밖에
부응
액터
예치
지닌
호진
##대교
##ni
##Sup
##rozen
unwanted
backlog
Objective
Settlement
UserTransaction
AddNumbers
tpmc
eaiapp
summ
Configurator
realtime
PKG
신뢰도
AGG
AmazonS
##자치단체
##address
manipulated
CAPT
##Actor
##Period
##Drive
ProcServer
세워져
Salary
EXCLUSIVE
PLATFORM
JText
OPS
부천시
선수
성함
이다
##DOC
##local
##ZXY
##받기
MQMO
##Specif
interim
0021
education
appr
##spire
대응책
##IPH
마이너
keepalive
sectors
FLASH
1406
Computes
FDST
IGN
Elapsed
HelloWorld
dotted
Crash
recursively
Besides
정통부
함대훈
811
922
CMC
PWS
XOR
kg
punctuation
rindex
ware
강연
싱크
아침
평생
##ems
20160
##acted
lease
functioning
submenu
portfolio
TRM
##IGR
Asian
etl
LGT
NewPLC
DefaultParser
스크랩
##ManagerImpl
shuts
DIV
알려야
frontend
arriving
##azio
FBFR
unexpectedly
##office
Calculation
##Installer
##Blank
OWB
20100319
김기욱
FQDN
GF
MNT
가차
김권
세기
와일드
전선
텍스
한쪽
##Days
##XIT
##ture
##PU
##Live
##amper
Consequently
##eyond
DataTracker
##strerror
037
부여받
우리나라
COMMUN
AUTHENT
인정받
타임스
##initely
Segmentation
proceeding
Increasing
wonder
approximation
FrameWork
CKTI
IHS
프로덕션
bis
density
녹음
렌더링
익월
장승훈
##np
##gprof
##bank
##ilers
##Structure
0008
Logistics
CustomDatum
swesb
인사이트
##Dev
translations
extracting
ISPF
NCR
fractional
가져와서
##Protocol
Predefined
김권택
Lux
SPL
Satellite
Ur
ez
ezis
governing
lmqm
vectors
발명
비자
전처
퇴근
##lev
contribute
Clone
subf
##ITR
appar
owning
USERNAME
##encrypted
##804
Indigo
explan
constructing
비트맵
solving
##MQMCHL
legend
Bitmap
vertically
conventional
내려받기
MOBILE
##qldb
대주주
Mobility
PICKUP
Bubble
VENDOR
WED
pv
제경
후생
##Opt
##MASTER
##게이션
##져야
clob
TOS
Explore
043
UPLOAD
수요일
564
567
Initiation
trivial
esour
grids
##Administr
FcCharSet
BigDecimal
badge
weekly
gathering
deactivated
strategic
Independent
내비게이션
718
ctr
pushed
tile
벤트
스니
약식
키트
##Dep
##VED
##POS
Adj
plays
기준선
1003
cores
desirable
writers
3500
visually
Solid
##Device
##SOAP
superior
FixPack
polar
WTC
Takeover
DESTINATION
##Certificate
Granting
가리킨
overlap
##Blg
##RGV
mirroring
KOBOI
RuBoard
lpr
wall
레이트
사이드
숨김
식수
턱시도
하달
##TX
##Holder
##WC
##stats
##acc
indef
1009
quart
basically
memcpy
##AGS
editable
AUTOM
국민카드
대출금
JSPs
남양주
##oppix
protects
SIGNAL
highlights
governed
스파이
SRVGRP
##ombardi
Cocoa
ICF
SFS
WJ
hY
kd
xvf
끊임
남상혁
신라
을시
인티
##va
##night
##Gubun
##립스
##바이트
unf
DataInput
groupId
1008
##blem
##1211
TRACK
책임지
swapped
##bean
SETTING
466
447
스위칭
537
##PRTY
##WNl
##OREPLY
Mega
AQjms
CONNECTORS
launches
MGMT
bundles
influence
Securities
HAVING
709
822
838
Lets
Rvb
YWNl
fred
도약
보였
불안
빠져
이견
저녁
증기관
##your
##amel
##essus
Theory
dataSource
##ORATION
doVerb
SQLite
##urring
PLUS
##Inquire
##igration
3650
551
482
priorit
RemoteException
Labs
cpi
uninstalled
Terminate
애플릿
crtmq
interceptors
Combining
Federated
estimated
Subtotals
QUIESCE
Until
##WFp
##ZXNi
CREDIT
RvbWFp
YWNlZXNi
YWNlZXNiRGV
734
JTZ
KL
Slow
dmgr
ri
노란색
머니
묶음
장시간
트위
##yard
##Step
##rets
##plum
##atext
Convention
logout
##ftype
securing
##UTH
##102
COND
##UPPER
##olutely
MOUNT
TECH
##mdown
JEE
562
acceptance
##JEZXY
OUTER
0102
##00101
MANAGED
VARRAY
tmaxsoft
fastcall
tmconfig
CLUSQMGR
reconfigure
assertion
advertised
SSLCIPH
ZXJEZXY
##OMMON
JTZXJ
HSQL
LVM
TAX
YOUR
nls
구급
김민
동네
본질
산술
하모니
##리스트
##근무
oratext
envelop
##APE
methodology
SOS
CLS
OpenConnect
Subsequent
amSes
Reporter
Preparation
confir
##216
appearing
569
Photo
##ngp
oraDb
ABORT
RELAY
이주용
Gray
transparently
익스플로
subsets
원자재
Manipulation
DRIVE
Mirror
스피어
하수급
##display
webtob
##charts
fragments
ORDIm
익스플로러
678
AOP
Kb
Oh
QP
eair
warehouses
나사
본래
습도
##FACT
##VL
##wr
##enet
shl
##pertext
getCard
ObjectQMgrName
이동성
MOU
SHIFT
##THREAD
##307
Deployer
ORDVideo
tagMQ
DESIGN
##ENDER
어려우
Seconds
Obtaining
법제처
violated
Manipulations
BruceE
subroutine
Dog
gone
멘토
분위
사각
생존
재화
##lg
##MON
##Member
##wm
inches
Things
##lector
indent
mqInquire
corpor
##Express
##elphi
Quote
##706
DTC
detecting
이사회
SALARY
##ropping
vertex
단기간
들여쓰기
##Monitoring
SCSQPROC
Coverage
김종문
doVerbFor
트위터
Demonstr
Ip
OMB
cool
downtime
개개
고충
기전
벌칙
착오
##Roll
ofthe
##uty
trptype
##areport
unres
subcategory
compar
Keyboard
eaiadm
ORDAudio
Expiration
semaphores
영문자
##Upgrade
Healthcare
FLAGS
Maturity
Mathemat
Btree
##liminary
Rendering
8175
Potential
CRITICAL
도금액
그럼
끊김
다큐
사각형
정련
주된
총량
##cue
##MCA
##미션
##inv
MQOR
##ourney
pageNo
수신함
identities
checker
considers
##504
Portability
VALD
449
herein
RDOC
533
이루어짐
curves
posting
spelling
parallelism
Specialist
journaling
EXPRESS
overwriting
gpki
LRU
estimates
Regardless
ALPHA
timestamps
BruceEckel
Hook
KAC
eib
haven
목요일
전한
출결
콤마
테이터
후불
##oap
##정수
intel
acquisition
PCs
##appers
dynaset
LGD
##807
MAXDEPTH
##Plugin
geometric
MCM
##StartUp
##ufacturers
polygon
elliptic
Instrumentation
##Bbsctt
PATTERN
Pricing
ICE
NCS
Roman
Vit
WOL
bak
qMgr
vision
넘기
늘려
수법
스탬프
식성
연다
오용
저조
##imity
INNER
requestObject
Entering
Locations
dialogs
053
Methodology
RQSTR
Destinations
precede
##Groups
##Notice
encapsulated
sda
marsh
eliminating
Responses
Attempted
sqllib
vtparams
DIME
Helper
LAR
XMS
dns
mim
osg
내린
무리
아날
열거
오더
유한
이를
존속
혼용
##Help
##리카
##마자
react
서비스업
struts
emerg
Defect
TPETIME
보험증
Apartment
distributing
Redis
slides
866
normalized
frm
##ResultSet
##person
randomly
LaunchPad
descending
lineweight
carriage
MQAIR
negotiation
공과금
676
717
Demon
Equal
Ment
ajax
bob
mime
mdb
went
광양
대부
엄청
조강
직불
청장
최성
##My
##Brm
##arg
##arta
##ATT
getField
getContent
premises
Versioning
Installations
desk
TPSTART
Arc
SELECTION
grab
BOOL
이루어집니다
##IOD
NHIS
bigger
##Float
falls
PROGRM
ESTABLISHMENT
OCCUR
도우미
포르테
GMP
QC
cci
nan
강좌
개략
고액
김용
당하
사생활
장래
전이
조차
쪽지
천억
포스트
##fall
##oor
##uzz
##Sort
##ji
##조사
innovation
##MLIB
mqExecute
elev
sourceforge
equally
buffered
ARGS
906
COMPCODE
Converter
##GERP
스트링
parses
serialize
거쳐야
##EXIT
ARCHIVELOG
icn
descend
##Metadata
persisted
Boundary
PREPARE
Permanent
mopas
RvbWFpbi
AMM
Dash
JKE
KOS
NMT
Trid
dpi
ru
voting
개척
부내
의서
흐리
##FX
##IER
##uery
##MQL
##PW
##Warning
##igen
1033
Resin
OnLine
USEN
checklist
mqdata
readonly
CDD
ADJ
Notepad
ESBs
confidence
cdngp
buildserver
539
PSID
EPC
Balancer
WTLS
informs
##orphism
mqsichangebroker
Frequency
RESETLOGS
attacker
Acknowledge
principle
##XBFS
스튜디오
SECUGEO
WJXBFS
조강래
618
Mo
Wiley
ig
motion
xCD
과반
다룬
리빙
요한
음향
##won
##PING
##Pwd
##서비스
##ission
starter
getInt
0040
passive
Uniform
MSO
deployer
SHOU
##345
MQPD
200901
CMake
prevented
GMFG
SRVID
CASSCM
지하철
hanabank
PUREDATA
QUALITY
comfortable
ALTERNATE
SHOULD
913
943
Direction
LAG
Lombardi
RSP
Sel
니즘
둘러
디비
송파
프론
##Cb
##fn
##러지
##rng
##Graph
##alia
##ptime
##ilst
##umers
##lectual
servername
거래법
USS
##wood
##Stock
CLD
signs
GetB
POLL
Dbc
Buses
Handlers
497
SLM
NHIC
##복지부
XSLTrans
YFA
Mechanical
##OgmIndi
uucp
CCC
DHTML
Garbage
bim
cab
rslt
rlogin
분임
##imated
##estic
chap
useradd
##anners
Uni
namelists
1899
multiply
Assert
Worklight
##TTIME
Subnet
loadjava
Preference
NETID
607
removable
##FILES
549
repeats
restricts
CipherSuite
contracts
BBL
truncation
chkconfig
퍼블리
unrelated
tangent
워크스테이션
CentreWare
PROPAGATE
##adigm
622
626
737
Emer
XJ
상법
생긴
신축
##Demand
##service
##ICT
##cnt
##대문
##pfx
##verted
traps
truly
Intr
Exists
disallow
##cli
unencrypted
entitled
prepar
SSE
edits
공동구
krb
dirs
보건복지부
speeds
grows
Constructing
prede
investig
##bucket
Separation
Greenplum
Algorithms
yymmddhh
mqsimigr
Kbps
RG
TQ
eais
xF
산식
신판
양재
지키
##PDB
##Hook
revers
userID
ComMessage
##thp
unusable
FilePut
reliably
##encil
##505
CSQY
ACM
이해도
Simulator
CAUTION
Across
Minute
##DateTime
Issuing
##ItemVO
##auss
javas
##ATEGY
agreements
BetaWorks
##LocaleCookie
##Reduce
미지급
##Issue
리부팅
stmthp
myAppLocaleCookie
747
Gn
OIS
Ri
oil
sdb
건지
견인
김혜
냉장
봐야
연한
인입
향응
후미
##Dig
##Cube
##OFF
##Gate
##다른
cond
##007
supposed
WASMO
##Repl
terminator
Called
Regions
Gateways
아닌지
494
582
##ErrorCode
professional
##Prepare
##offset
rtm
Auditing
experiences
ENGINE
mistake
agreed
Dj
Delphi
gallery
hol
김주
메서
민사
복리
사랑
수발
스페인
했으
##Tbl
##안전
STER
##MPT
quiet
PROTE
##808
ComponentData
combo
BOTH
postfix
664
undeploy
FDF
expecting
Preserve
일본어
##Display
##passwd
##guazio
Debugger
announce
##onyms
correlate
##AttachFile
CXF
assumptions
트랜스미션
##ospital
알파벳
syntact
MaxMsgLength
Na
NSS
iRet
seb
sandbox
umount
간헐
시한
존중
##Termin
##range
##예금
##플랜
tow
##enty
요구서
##ACALL
apis
##ondon
CLCD
HUBS
201410
Published
마스터플랜
knowled
RECON
mounts
Legal
##ungyun
##0103
chosungyun
attrs
glass
마일스톤
launcher
##oshop
페이스북
SCHEDULE
현저히
올림픽
DEVELOPER
derivative
Faces
Law
PAN
dk
wer
변제
신공
티맥스
합법
##RTE
##WA
dequeued
ate
INBOUND
permut
mqAdd
roots
PortNumber
NetworkVantage
ControlAgent
##708
MQPSC
905
DESCRIBE
stacked
MQXF
PREFACE
Optimizing
Money
디스패
##ackson
Neither
Silk
ACCELER
IHB
KEI
##HttpRequest
Ensures
preconfigured
escaped
HOWTO
mqsisetdbparms
799
ATE
Bor
GOTO
로거
성희
학부
##pub
##Good
##QC
##네시아
##공항
##erator
##iber
Comparing
이용료
proved
SEP
아이폰
##rieve
designs
##145
NetWeaver
Disks
##Tran
turning
constantly
##TACT
collective
unde
##retch
외국어
중국어
Digest
Digits
Arrays
absolutely
Transportation
##Checker
arbitr
dspmqver
Student
octets
김동욱
Linspire
VARIANT
Consolidation
Transmitter
##Calc
서초구
Dedicated
SUITE
osgi
EAS
ILS
ill
kpr
pReason
rent
tied
권종
내포
연봉
오히
원료
을수록
절반
##Do
##301
##Ack
##마크
##원가
##기기
##orum
infor
##isa
##ulary
serverName
2024
Guarant
viewports
topologies
CPF
TPI
##0900
##Progress
timely
055
APPRO
Passive
ruleset
movie
LIMITED
Dependencies
WORKGROUP
CISCO
vmware
##Columns
closest
UNDEF
TRUNCATED
dhcp
MQCFSF
mqsireportproperties
occasionally
DELIVERY
632
728
916
Ai
AAST
FY
Hel
Music
mcard
wheel
급자
봉사
부지
승합
신영
오케
을까
중량
핚다
##Ignore
##after
##kins
##ening
##rog
MQCO
Intro
Clipboard
##External
##ivelog
RESLEVEL
997
MapReduce
principals
##로그램
대행자
infected
Among
##Threshold
2127
구독자
고속도
FactoryFinder
MQCMDL
##SeqNumber
augmentation
##CompCode
Overrides
nhic
FOREIGN
Wesley
##ocabulary
CAPTURE
아날로그
STERLING
성희롱
627
DAM
Farm
Nat
PEAI
Sections
WBM
mob
nond
vide
vCPU
내릴
선보
쌓이
중동
호에
##NV
##Push
##rooms
##etermin
##utes
##ilation
##area
0024
numbering
IPV
assured
648
grp
DEFIN
##Enf
Generates
APPDATA
556
##602
판매량
savepoint
pooled
비상벨
conceptual
overriding
##Modify
FWD
discards
Charts
201106
Tradem
OPERATION
131224
임차료
ksfc
vacuum
GateWay
INHIBITED
평상시
ELS
Ga
JPA
Tap
benchmark
hum
rn
xyz
zDC
감성
교대
암시
애널
재심
진보
##atcher
##andra
unqual
1409
##RIGHT
nodeType
##LOVER
CONS
047
grade
Performs
SYSD
MultiSource
TextMessage
architects
Finder
퇴직자
StatementHandle
tweak
Frontend
Translator
glance
131230
INVENTQ
Splunk
unmanaged
NEOCrypto
##Interceptor
AMB
Jms
Numer
RAND
dwd
수천
어업
중부
찬성
##cient
##pd
##req
##ACL
COGN
confg
coffee
BPMS
808
##606
committing
575
Conflict
Validator
tmaxapi
telling
WindowBuilder
solved
bigint
인도네시아
checkpoints
annotated
Turns
cutoff
TRANSACTIONS
노후화
Cleanup
UNDO
experts
##communications
negotiated
COLLAB
##Snap
Photoshop
xmitq
Pg
PSP
PAGES
RNAME
cess
cubrid
catalina
rte
runt
ulog
wrote
닫힌
북한
소나
##mix
##gst
##Var
##ifi
clipboard
una
##ublisher
SQLNET
CLSS
Overhead
ibmmq
Sends
SYSOPTS
EVT
DLM
675
9998
Continuation
Slide
##PROTO
tdl
DPM
##helf
객관적으로
decrypted
facilitates
김대영
Turbo
courses
thumbnail
914
Better
Tail
bbs
lilo
tst
vir
마친
제천시
캘린더
##SDK
##PASS
##join
##등록
##받침
convey
##AIR
Clips
getter
Chat
unicast
일정표
invisible
##507
##FSSL
Implemented
MPGW
Conversely
1305
buses
MQCFBS
batter
anticip
##Planet
Warrant
##Messages
WOLFSSL
721
727
Dam
RACK
ker
kerberos
omb
xv
xvi
미연
오성호
작물
증자
피벗
##vable
realloc
관리원
##pletion
##AINS
REVER
##ENN
##virt
0007
overloading
CDMA
##unday
##Inv
MDL
WMQFTE
##CAE
Toolbox
044
##346
generalized
593
588
IVP
Areas
expectations
Associates
##News
worst
coexist
이라크
microseconds
오히려
COGNOS
ACS
DMCONFIG
GCP
QME
RAS
happy
soc
시책
이클
잉여금
자국
충격
##The
##vol
##Grp
##omen
##otyp
comprise
DBcursor
unspecified
weather
Unlock
##LLIB
Aliases
Addison
simulate
Exploring
decides
트랜드
새로이
SETUP
##Required
DCMQ
GMUZ
Formula
Multithreaded
Optimal
WWW
붙여서
thinking
Embedding
VERB
진료비
적립금
움직이
Mechanism
Walkthrough
Sequences
플레이어
Atlantic
BookingService
libpq
##Browser
농어촌
Ownership
이클립스
BFM
BNP
IET
RTP
fnd
por
rman
리딩
불이행
섬유
소식
전염
전주시
주선
지오
캠프
키가
##DESC
##xed
##Band
##sta
##ustries
enlist
발생량
Enumerated
swg
larg
POSCO
WEBDB
Clustered
##issas
Supplement
##ognized
serializable
carries
playback
misc
##istoric
거주자
diagnosis
재검증
coefficient
##mloadcf
653
748
Ban
FAULT
UDT
VCS
fep
독려
박희
불합
셔서
압력
업적
이승
작전
트럭
##uet
##Success
##Vis
##착오
##영호
##icular
proj
exclusion
MQConnectionFactory
##ews
residing
provisions
ASync
038
##106
TPEN
subscribes
associative
시행착오
PGA
VMs
DRAFT
Realtime
Receipt
Flume
538
542
NMH
filling
##ompass
##BufferSize
EXCEL
201504
promotion
quiescing
footer
##Any
luci
recompile
stakeholders
BUSE
CIF
KAT
OVIS
RJ
Sampling
borrow
dark
lived
rid
zlib
뒷받침
만점
매치
빠짐
새만
위촉
장명
탠덤
##Demo
##WDI
##ecom
##graph
errorq
##inks
manufacturing
1900
compose
0018
##Ini
CPWR
additions
EventBroker
##ffected
##VERSION
##FTYPE
091
767
rwxr
##Portal
tuxEvents
FUNCTIONS
plotted
ImqString
알아볼
##ARCHIVE
##FORME
FAQs
Encrypted
Adjustable
wallet
rectangles
세일즈
sebi
새만금
633
Roset
SIR
iPlanet
losing
nick
pie
대만
미스
브이
응해야
저자
토탈
휴먼
##Sight
##Sym
##Allow
##wx
##WMQ
##ebar
##estone
##irl
DBLink
shop
##ORDS
pert
libX
PCDATA
Alice
SYBASE
MIString
##AGO
##Chain
867
IEAI
RMs
ILinkHome
협조자
opmn
Convers
Collectors
proceeds
Assignment
cylinder
RIGHTS
##Creator
createconfigurableservice
CRYPTO
Hall
Jup
aN
갈음
던지
물체
세칙
안성
외상
중분
직렬
코발
태인
##la
##Height
##ceived
##herlands
Inline
##activity
##akarta
defaultString
0009
Alero
결정자
mining
##empty
##222
603
908
PRISM
superclass
players
fastest
wmqi
##201006
McC
VOLUME
플레이스
cancelled
DIMENSION
DCMQuery
코발트
Jar
NCA
PNG
dia
vlan
국장
그인
나무
번들
보냅니다
스톱
쾌적
토요일
##SAP
##hr
##Gr
##zing
##배상
##utdown
##utral
##ithm
Conclusion
Prox
trc
pertaining
endmq
##LOT
WSS
##INTER
Indexer
PHONE
cruc
##coming
ALG
EDIFACT
READY
CELL
FreeBSD
JBI
DestinationData
CUBE
페이퍼
accelerate
vulnerability
Symbols
일으키
Incorporated
타임스탬프
Mentor
불합격
Alex
GDe
HLP
Mixed
Tester
gR
msd
sMainDept
군인
세밀
여타
행문
확신
흡수
##RANT
##kernel
##산업
##lli
exerciser
##018
selling
##outs
ServerName
indeed
##MPS
Entropy
##122
resultCode
0015
Incoming
641
Metafunction
071
083
Targets
Netherlands
577
Registering
775
9685
##Play
Dimensions
patient
대전광역시
Monthly
casting
##Intellig
JPublisher
찾아보기
Mirr
##MANAGER
ORDSYS
8218
durability
UNDEFINED
637
CMI
CCFAIL
GFS
Launcher
VAC
Wats
bub
sissas
나눠
면책
실거
실종
은데
의회
이드
이인
조서
커밋
##Ibm
##cation
##RN
##tn
##uz
##Serial
##ims
resumes
intact
Angle
Animation
Unicast
TOUPPER
Disposition
HOBJ
##profile
063
0610
authoring
discount
refine
refused
sysplex
brush
RETAIN
TCB
BizMaster
geographical
Looking
##CONTEXT
FAILOVER
MINUTE
protecting
Labels
Personalization
centos
Leading
부사장
decompress
degradation
##연구원
성남시
##Resolver
939
ral
개량
대교
티켓
##bird
##머니
##igibility
began
##idb
##ataSource
##스트레이션
chars
##cedur
CONTACT
confused
GetForm
BPA
##704
491
ipv
IOs
examines
아웃룩
conformance
mqsichange
amqsget
Fortunately
Primitive
NOTFOUND
과반수
713
ECI
MNG
eBook
세포
안녕
일일
화이트
##CNT
##lining
##maps
##gun
##Mult
##멘트
##ati
##opics
imm
##arian
0017
035
encompass
Directly
공정심
DbTxn
704
541
##uples
breaking
MQCFIF
Occurs
##ExitParms
Credential
Centric
fiu
clearing
Choices
defects
cartridge
Tibco
HSQLDB
BAI
Ec
Face
PSS
RCA
SEN
SESS
iip
각국
서부
일산
주권
출국
##CENT
##PRI
##atically
stall
resynchron
perfor
tableName
ORCL
thanks
existed
Precision
OutBound
Attack
ChannelName
CORS
##chedule
integrations
OPINION
568
PSA
581
688
stdin
TDOMAIN
fbput
리더십
Months
greatest
Utilization
TPEINVAL
##Delay
robin
Website
동반자
경남은행
Nexus
Bedroom
스테이플
Duplex
OracleDataReader
DIGIT
증강현실
Pixel
LARGE
ACCELERATOR
Af
DLS
MFC
Serve
ZDC
cities
korea
san
uu
가하
기각
배관
별다른
보세
사증
스팅
시분
운임
캐스팅
편철
한데
해줌
힘든
##Join
##YY
##ece
studio
##import
##ATIC
##icker
DataLength
##ITM
##rows
shouldn
##104
2354
Shooting
Assured
604
565
iterate
XSU
Routine
encrypting
retrying
PPG
encapsulate
HLR
DISCARD
BmsStaService
PPTI
SHELL
##Opn
TINY
638
JDeveloper
London
WIT
YS
pn
sCall
경미
브릿
수관
시건
정계
휴면
##yo
##BIT
##zy
##WRITE
##번에
##roject
##asp
##ptr
onClick
DBNAME
resumed
##close
transit
serviceHTTP
검색창
CDS
2400
TPGET
MSM
Overwrite
SUBPART
##phan
705
PSN
PutAppl
시켜서
SBJ
mstrWeb
##oubt
Revocation
billing
CSQJU
spline
advertise
SVGNAME
arrangement
QUIESC
emerging
MARKET
hsqldb
cascade
##IGRSTRT
승합차
largely
639
Za
jks
nas
sTime
vec
구로
느리
다단
초고
##FREE
##CLOSE
##Bundle
##가락
usher
##ortgage
Chassis
unstructured
MicroStrategyLibrary
##ENV
classic
##ITIES
Bell
Checkpoint
Overall
PDC
##702
DOCS
3781
907
Encoded
였으므로
SDKs
200312011
Ordering
hashCode
FcChar
establishment
fetching
Downloads
##Packager
sqn
##FORWARD
BWMAGT
steering
65536
##utils
Teller
stripped
neighborhood
Official
충청북도
loosely
621
furn
wst
원상
정용
진압
파리
##mith
##hom
##영수증
##onus
dispat
callpage
##ALTH
docview
Unlimited
LOWER
libxml
dbnode
openapi
0016
INTG
##707
##ALLINT
Readline
Dbstl
symantec
682
연체금
merging
##iqueness
mutual
tuned
ubb
FPSC
##AndT
Equipment
##gui
FlexResponse
SUBSTRING
abbreviated
bwmagent
Concaten
프리미엄
Robert
냉장고
crucial
sCallPage
AO
Ba
HPE
HARD
NCHAR
PSC
PENDING
Rais
Satisf
가함
우주
집약
##Cur
##BIND
##eli
##uris
cls
pertain
Spam
자동사
XMLHttpRequest
##DEM
NOW
647
MOJ
077
Producer
layered
SCADA
라이나
##ALLY
DWG
현금영수증
CHANNE
888
MQHCONN
XMLE
부산광역시
1989
Joining
CVCA
Interactions
HLDS
##Subscription
affiliates
ultimately
indefinitely
723
726
DPT
Faster
Ign
Omni
VML
Vulner
gold
nlog
rand
xD
거대
건명
수거
##Av
##PH
##에스
##패드
##ita
##ommit
##accept
##verter
##ocument
##assandra
##icks
unattended
recur
##oyalty
maybe
##CHECK
Recno
Disaster
linkage
조사서
##MCAT
##607
Expected
발전소
ILinkQ
ipc
##Viewer
ctn
WINDOW
Republic
digitally
##IHB
clears
##taNet
Complexity
Annex
검찰청
비대칭
5168
협동조합
830
Bring
교직원
담겨
빨라
작품
접대
##current
##Opin
##Svr
##어음
##ades
MQData
##ulatory
##imp
##ander
Inquiry
italic
##crimin
##ours
Exclud
outcomes
COTN
1642
CHIC
접수대
pathnames
ByVal
Shop
Leak
msgid
##NOST
rowNum
ACPT
SAE
CTY
DRUM
avoiding
expanding
visualize
##ELF
FcConfig
##Worker
employed
##READY
넘어서
excludes
DECUX
WiFi
##ncTrns
##door
STRUCTURE
beside
tiny
Toler
위약금
##ncTrnsPrmt
876
Aff
BSS
DY
QNAME
gave
결손
라서
복무
분량
영장
원단
전광
종전
커스트
평화
현존
##craft
##top
##Ps
##Bms
##BUS
##ju
##Watch
shipment
Intra
stron
science
CONCUR
SAPinst
SHLIB
##Chk
daylight
GSG
소개서
708
rolls
powered
Committee
carray
Gluster
plotter
달라집니다
encapsulation
Illustrative
annual
Interceptors
VALIDATE
PTFs
iRetCode
968500
859
DPI
VIEWS
그동안
뇌물
니트
매달
베이
인권
##NONE
##pic
##machine
##VD
##채널
##erces
##edy
##etty
reass
##asoft
sparse
Christ
detach
Ang
ObjectType
variance
appending
TPSTATUS
CLr
##begin
sqlca
opinion
##SessionFactory
TopicConnectionFactory
표기법
##This
mutexes
AccountingToken
##ambda
급격히
Asked
##XCW
총합계
Russian
컨버전스
PTTN
오케스트레이션
790
823
855
EBS
JTS
MTTS
Motion
Mysql
TCL
VK
ZS
xj
구여
달하
당국
박은
상충
터베이
한신
회생
##Crit
##hl
##odies
##013
Administ
yours
getDocument
Trailer
Struts
Spaces
1007
##SCAN
##PSM
##Exten
CallableStatement
continuation
veri
ATTRIBUTEFORME
ItemIndex
윈도우즈
##FORMAT
propagates
PPAP
awar
##PerPage
요금제
Mounting
##BUG
OVERVIEW
간략히
소지자
advised
Contribution
Rewrite
Trademarks
Watson
CHICAGO
ATTRIBUTEFORMEXP
Pid
WEEK
rum
불허
산원
소제목
쌓여
옵티
외곽
재가
정말
창작
##Fn
##car
##oi
##ctx
##ctor
##acious
orb
cloned
##ourc
IDG
Clam
##MEA
transmissions
getopt
secrets
performer
regulations
##IGK
Directives
computes
Commons
DevOn
PowerPC
replaceAll
##TRY
0204
##FIRM
patent
NCLOB
Manipulating
IGKDB
tpsvrinit
halt
assessment
TPNOREPLY
김수진
multibyte
ORDImage
659
Cx
bzip
dav
dth
gmail
hiding
nic
바우
배너
월말
크리
편하
##lab
##OTE
##men
##Locker
##스틱
##QTY
Inhibit
DBM
##arden
getOrd
DataHandler
subparamet
Transfers
appId
TRD
AppScan
INTRODUCTION
Assets
AMQP
Graphic
597
introducing
##689
predicated
LINKED
irstart
QSB
넘겨준다
Motif
PfmNumber
9090
Oil
VUE
gubun
jcc
natively
pCompCode
강동
계장
기년
년수
샌드
세출
소급
에프
입소
학자
##qmgr
##바다
##esign
reclaim
WebGUI
unbound
autonomous
OnT
compCode
corp
##ADataSource
측정기
201412
5500
caution
566
CHARGE
MSGS
706
584
Minimal
ALREADY
OCID
BizActor
surpr
875
TARG
Limitation
Downloading
자연어
##Override
Listeners
icts
김대현
fingerprint
subtasks
scoped
BmsWtfHandOver
screenshot
다룬다
759
749
Fusion
HFS
Heterogeneous
Jdbc
RANK
Svr
Treat
bond
operties
oauth
굴착
남경
불문
산입
서무
성수
신흥
유보
이득
자손
초고속
투기
한꺼
##CMD
##find
##length
##rich
##Mgmt
##일수
##레드시
##ERM
##opher
##ONET
##ARK
relax
##operiod
##11153
ERRORS
Reload
메트리
CMCTL
##ToB
PolicySet
INTERNET
INTEG
lookups
##ISSION
Canvas
Internationalization
feas
Diagrams
FSY
pfmNum
Calculating
titled
compromised
스프레드시
injected
##LICPGM
한꺼번에
##1115353957
스프레드시트
BAG
BBG
Beyond
Cod
JWS
OTA
tight
고리
구속
꺼내
남길
농가
다우
변호
손가락
신보
초청
##Simple
##river
clipping
notifies
##AIM
train
getDefault
3201
restaur
##09300
NOTIFY
EDIT
trips
AGE
MANDT
사무국
populates
##hesis
speak
transports
BitLocker
launching
PUBLICATION
footprint
consequ
MQEVR
벤치마크
Alignment
Proceedings
##DETAIL
AFER
HIP
IOS
Rose
TAM
UHD
fect
계통
복권
부르
성정수
승무
일어난
평일
픽셀
##IQ
##Equal
##Wcm
##지대
##inct
congestion
whilst
metal
OnClick
Unload
exposure
변환기
Pragma
##DIO
elastic
0103
Swed
##ConnectionManager
Indexed
ordtype
reviewed
672
LOTI
파트너십
외교관
interacting
완벽히
공모전
LOCKS
Geo
MQCHARV
TPNOTIME
Including
CURLINFO
Snapshots
Representation
dispatchers
refreshes
Caption
wapforum
xmld
AFERG
634
bidirectional
coinc
junit
tester
넘버
신단
신재
##DCT
##nn
##Sl
##Mount
##bur
##qs
##세계
stroke
##ctionaries
##014
getType
outs
recall
계약직
STND
TOBE
##PEAT
TPRECV
##114
##ighter
Runnable
DefaultLogger
corrective
appeared
SCCS
XAER
##SSH
CFB
손해배상
LEAD
OraB
Pools
COUNTRY
tuxDm
Optimized
Capital
Own
KeepAlive
MIGR
abbreviations
OracleIntervalDS
##ytics
SYSDFT
박희상
RosettaNet
738
815
Banner
evious
fname
funct
zA
간결
광케
기인
대면
소외
일용
전무
캠퍼스
타원
탑승
##site
##Rect
##PROP
##HE
##베이터
##onftype
Sear
getOrg
unzip
scient
entitle
indext
1410
교육부
PCEAI
Classic
CONST
panes
helping
Basis
initiatives
571
grantee
DCRCV
596
tarball
stdlib
##OfRows
Confirmation
overwrites
Listening
Cryptography
##Publisher
##ATERIAL
QBc
iKeyman
광케이블
844
Cz
Fatal
FUND
MART
Msi
RING
eof
rack
sax
vSwitch
waste
네덜
무명
유추
합쳐
##FUNC
##Cast
##Rest
##pages
##ham
##Visible
##POOL
##테나
##ala
##fered
통합성
인터랙
##INS
##bert
permis
subgroup
precompiler
DEBUG
CPP
NoSQL
Brokerage
Compact
공동체
안내장
DoS
561
Integrate
발행자
Encaps
감지기
frees
PARIS
1307
transforming
CBD
Tripwire
redirects
distinction
leaks
RETRYING
플레인
CMAKE
##09301700
##ReportingGuide
네덜란드
820
EFI
cob
rfh
단건
발효
백상
보기
시방
신중
연고
착용
코아
푸시
풀기
##Fin
##rust
##리얼
##alt
##ogonal
tra
Clock
abcd
##rokes
FileGet
##UTOR
Univ
differentiate
HTTPRequest
PROM
ErrorCode
가상현실
tpstrerror
072
##Exceptions
reasonably
extreme
매출원가
ersion
mysqlnd
GPANG
NullPointer
DVDs
Limiting
0302
closure
##ACCESS
MISSING
파이프라인
이명원
DONE
SMO
pax
tmdown
wbe
구도
대답
상회
안테나
이영
진로
##hic
##Magic
sep
DBC
##MEM
INVO
Onix
FileSystem
codepage
ISV
inittab
##eather
##ListCmd
aliasing
781
무선랜
encrypts
Slov
JNLP
Organizations
damages
##attribute
Synchronize
OPERATOR
미수금
comprised
ETRIHB
exchanging
불명확
UNICODE
LSNRCTL
725
AIL
Cities
Etc
JH
Mgr
gamma
nolog
관간
신동
온실
유포
코더
키는
텔넷
한해서
해질
화일
##fld
##TOP
##Memo
##마트
##asoo
##ERVE
##ystore
##oof
##pension
1400
XMLDocument
backyard
##ECD
##rcv
STRT
manageable
의료비
657
quotas
##Place
##IVED
##Director
nsf
Flashback
pfmStr
tailor
MQQA
enforcement
Artifact
##uristic
hypot
mqsidelet
STGCLASS
130424
729
879
FCS
RCP
Syb
Vir
egrep
tf
귀중
단시간
미미
소량
승진
시의
신사업
투망
한강
한한다
##network
##불이행
##edException
##real
stere
MQCTL
inthe
INISA
submits
##yname
Spreads
0310
##111
Scanning
separating
804
0500
NetWare
Consistency
multim
Highway
PERPLAN
##itution
채권자
declarative
##Errors
hdr
다이렉트
ROMs
##Workflow
##FilterCommand
##Encrypt
CURLcode
EyeCheck
Thanks
mngt
CFLAGS
##Facility
gurations
##uetooth
735
EPL
JFrame
LK
OLED
SLD
fraud
ocedur
멈추
서해
안랩
에선
주재
##FUL
##Ab
forName
compens
Inactive
##ails
##apd
Adt
getNode
IPCS
ServiceName
00100
##Inq
parm
Appear
prompting
DbSequence
lsn
erprise
HEALTH
1306
DVR
BCV
arrItemVO
SapT
solids
mixture
unlocked
tgz
824
DMB
GX
Gauss
jmqi
tamper
가득
경진
경합
둔화
따릅니다
밀도
박상
범인
이언
작년
화산동
##CACHE
##LNK
##esg
##anion
##rott
##abyte
enf
ESN
senders
CHA
AppData
##ListVO
##404
exiting
078
##152
VMotion
지방비
Flush
출입자
LEVER
PROPCTL
IGJ
TPEPROTO
Negative
##Arch
summarize
##Encryption
increasingly
2014072
bizpl
32768
EXPIRATION
였음을
일일이
옵티마
932
JDB
STP
fired
kbytes
song
wake
리뉴
마인
명예
밝힘
브레
세목
승객
여지
위안
잔금
집적
피의자
황영
##Tmx
##ja
##Keeper
##emy
##image
foob
Clip
OracleDate
startTime
1509
statically
##124
TRUST
flushed
##COLS
agency
TPACALL
CSQN
##Settings
PRG
다중화
제작사
6860
looping
ftpd
Endpoints
KTN
INDEXES
Termination
counterpart
COMMITTED
RPMs
investments
Movies
Infini
SYNON
consulting
플리트
consolidations
통행료
김영준
PURP
##BusObj
Twitter
DURATION
영동군
##Initialize
##hyup
분위기
전염병
938
Heat
IU
Ldap
TPT
ZWEB
centr
epository
peek
rmt
vf
김범
내성
배차
비워
자는
최다
##py
##rus
##GES
##odo
##0100
setter
setuid
datapower
Replay
shif
Orange
##html
ComIbm
Toys
backbone
ISEC
Workgroup
특정인
##onthe
CTQ
##Changed
STATIC
PRT
dtagent
591
LENK
687
Macros
Automate
ioctl
circles
drda
##Endpoint
Forwarding
prefetch
##Credit
landing
##Corp
npib
박물관
tpenq
premise
##initialized
0995103
citizens
Thomas
IETF
##TmxId
856
JV
LCL
Pet
RMT
nroff
sfg
tal
구애
리플
서보
인과
적금
준법
##MATCH
##arp
Regression
ships
resubmit
alb
imposed
databaseName
prepend
Interest
##UBT
보험업
cdf
redefine
PDO
Architectural
557
##1424
Blog
invoker
574
##596
Throughout
CISIHB
##ounced
renaming
subsidi
##default
Fortran
demarcation
leveraging
Annotations
미확정
받아들이
Redundant
QUIESCING
Cance
PAC
cic
cates
tlisten
가감
공란
관시
끝점
낮추
봉투
중립
추론
탈피
흔히
##cmp
##mid
##SZ
##Lit
##Won
##기구
EAIEAI
##ORS
##ugs
요구불
cold
avail
##1234
Scanner
5050
distributes
Colors
POJO
slight
998
drawback
1011
Inserts
Counters
DIALOG
GRID
20120827
CNCL
scaled
slowly
WORKFLOW
##COVERY
QmgrName
##selected
suppressed
AFFIL
resemble
zwrs
AIR
Hist
MATERIAL
OTY
Pane
nec
rcp
xB
열림
장외
재등록
##나항공
##Signed
##PTED
##문고
stem
##ads
settle
Than
trash
##endars
Clar
OracleDriver
##asters
anylink
##RIVE
Reconnect
customizer
생산자
MBSTRING
ProdData
numOfRows
0400
Locating
datum
separates
TIMES
considerable
Transferring
762
Containing
ManagedConnection
tbPSM
##ContextFactory
OCX
스트레스
Multicontext
Positive
알려져
##IALIZE
##Flash
KOSTA
부재자
Estimate
MRZ
아시아나항공
##Windows
##Tracking
PASDB
beneath
Unsupported
Premium
8991
Sequential
GUAR
##AndTacks
929
DCL
Durable
Fee
Pipe
Qt
She
Zig
gg
gfs
mft
pound
rnd
ud
거소
대대
수검
왕복
전항
티지
##cy
##Naming
##then
##yter
##GI
##틱스
insecure
##ctype
Conformance
평가서
dbstl
##values
publicly
HTTPInput
posit
Plant
##Inquiry
MQCBO
MQSSL
##802
perspectives
Myth
SUBJ
Protected
803
573
20181211
130208
consumes
SVRGROUP
vsftpd
dsk
13824
ciphertext
Approve
GEOME
BytesMessage
잠재력
chunked
Protecting
fetches
기지국
deeper
##Intelligence
FSYSEAI
699
619
Camera
GMO
Great
JIS
JIT
TENDER
cURL
fopen
pager
rset
sybase
wget
고원
근원
남긴다
밝혀
본조
선고
수일
원회
유전
지란
한진
##nes
##니아
adhere
APK
##ivil
01765
작업량
unary
prices
##RECE
binomial
temperature
2931
Bluetooth
RDW
Phil
대학생
1507
1405
MsgSeqNumber
reviewing
Committed
geographic
cleaning
ExitResponse
MESSAGES
##Edge
predicates
Opportun
CONVERSION
VLANs
Materialized
농림부
에뮬레이션
saturn
이뤄지
AdoptNew
Ericom
Riemann
다단계
827
930
Fchg
MPEG
Pan
holid
lotus
마티
모여
성인
역방향
외경
전쟁
페일
##DSC
##IPS
##VOL
##Loss
##ntrng
orange
##irectory
##ICON
keytool
SAPGUI
CLICK
downs
Dynamically
Redistribut
ACQ
Opera
579
769
PHYS
BasicReportingGuide
peai
PJTCARD
RESTORE
GPP
CCR
##csv
subtypes
##autif
URIs
manipulations
##Scroll
Activating
13825
quantum
conflicting
NNTP
CIADB
Alteration
suspect
CUSNO
tpenqueue
##Schedule
supersed
exhaust
##HEADER
준거성
재가동
0176560
마티즈
EFF
JENN
MMC
SJ
YA
aver
bm
tory
vast
거듭
법안
부를
어제
올릴
완제품
체신
택하
학계
한때
##Da
##ellet
stating
orphan
seg
##ALITY
precomp
StringLength
assure
corners
ESS
최소화
sqlite
GSS
NetBackup
CFC
COMPRESS
160608
OraInterval
Committing
applica
Issuer
Insufficient
District
1051
##gistered
##Formatter
14848
talking
##MinWon
manifolds
Pseudo
강서구
Dom
Lan
ki
mg
xp
국도
권유
두께
뒷면
은지
장난
청취
포착
##cros
##label
##운전
##acob
##izz
REPEAT
##udiation
locators
unicode
##ACY
SEPAR
hostName
amMsg
RFCT
SVRMGR
Symmetric
##603
realized
discussions
702
PSO
RTC
668
LEG
sensitivity
JMST
EXCEPT
Restarting
##Priv
setmqinst
srch
PAYROLL
DURABLE
160640
160641
interoperate
##MMSS
OracleIntervalYM
Promotion
IDENTIFIER
TANDEM
했으므로
PURPOSE
JENNIF
CED
DMP
GK
datab
ios
nesting
강릉
계절
기조
뉴딜
모카
조혜원
##iom
##XE
##재해
##칩니다
##행정
##istry
ifdef
strn
##ALIVE
##ROUTE
groupname
Conti
##priv
checkout
ProgramData
projectId
##condition
Buffers
CSQV
3430
비교표
Techniques
Expansion
symptom
drawer
CFLEVEL
589
##ByName
AdminTask
Andrew
Servlets
##depth
##Submit
aborts
##AUTHOR
axes
Essbase
dashlets
김동환
rmmTx
splits
Parking
Btv
Suspended
photos
unrecoverable
dangerous
권영수
829
Cubrid
Fa
Wal
dock
gro
mom
sFinalDate
tls
교원
급식
숙련
오거리
이직
##gable
##stein
##ourier
##args
##chains
chained
##LEDB
##QLONG
locating
libarchive
##CPY
TRC
Plat
646
2329
Actually
교통비
##ometrics
Acad
MPP
685
SECURE
695
고정길
ExecutionGroup
Trial
132608
Answers
preferable
paragraphs
watermark
Improvement
XAResourceManager
트랙스
TAPE
diverse
공감대
재택근무
battery
NullPointerException
BCC
JML
frozen
걸릴
군집
네거리
산돌
세외
소산
습관
직인
해체
화요일
효용
##FN
##It
##rn
##Mat
##bc
##HCS
##job
##럭처
##essica
##plist
##queries
##스트럭처
기술원
Sell
##Struct
보호기
UserId
appender
ISDN
allowable
조건식
CHLD
offsets
Customized
Scellet
인프라스트럭처
FTPS
086
##604
freeing
bounding
Syncpoint
pgSQL
regarded
await
##SearchUser
3306
Southeast
인텔리전트
##NUMBER
4194
Leaders
gauge
sOrdMId
##alando
##Explorer
애널리
##Opinion
awareness
FSP
Nom
Tour
fber
oa
rhosts
sftp
김창
김갑
리터
바꾼
박민
분사
쓰여
쓴다
에듀
자활
제곱
주위
후원
##fp
##RINT
##gency
##jco
##strop
##rees
##under
enque
Story
Comes
interfer
intermedi
##ipart
docMinWon
FileInput
tpcommit
회사채
separators
mailer
lled
SFDC
invalidate
facade
beanlist
PSR
현대캐피탈
였으면
TXSeries
dumped
MsgFlags
GPD
skew
고정비
WARRANT
transmitting
##Templates
자연재해
enhancement
contributors
DSPMQ
Responder
##Publish
fulfillment
Toggle
기산일
121130
Competitive
2147483647
와일드카드
RFCTrace
JENNIFER
CHLDISP
836
Dong
Mapped
NSA
SDB
VNC
fis
vnode
방면
비록
소진
잡음
중치
##FUN
##KD
##icial
##sey
season
byt
##STL
##ASM
SQLSM
Italian
Imp
reloc
CHANG
archival
Caller
executeUpdate
EDITOR
우선순위
TESTER
##SAE
1303
##ConfigService
spell
WinTmax
OTN
IGY
MBeanServer
기다린다
INGLB
Buttons
dcache
eliminated
BASED
##Executor
##RANS
Membership
candidates
bottleneck
tpsetunsol
emphasis
장려금
슬로박
635
743
DONG
Fulfill
QT
wa
국채
동남
상부
적자
총체
축산물
테이
한미
행렬
화질
##ipl
##MH
##ZONE
##찰청
##버리
##유소
##espective
##inent
MQBO
##019
setText
reservation
transacted
getAll
MicroStrategyInc
Instalando
##Condition
NOCOPY
TRY
xmlquery
Selects
ClassPath
deserial
가상사
Tested
##ILER
GetObject
Attached
##FFER
우선주
##method
curPage
Globalization
592
vii
665
equivalents
precedes
LOTUS
cleanly
played
authenticating
##CONT
20120718
Sensitive
채무불이행
syslogd
tailored
MQWQR
XYZ
PYT
Hotspots
페이퍼리스
황영철
LENKSAE
SQLSMALLINT
LENKSAEULE
631
722
AWT
Fred
Hung
JUM
Xi
XDB
dg
dB
hides
psc
높임
이식
인보
##소득
##Depend
##TBL
##aired
##Linux
MQACT
##chl
setValue
Strength
arcs
교육장
SWN
SWAP
localized
blk
TypeCode
##Studio
decou
##orsed
의견서
CSQI
8081
Doe
effectiveness
##UserInfo
facing
Referer
segmented
analyzes
RSLT
rsa
DEPEND
CONTROLFILE
아무것
multipath
##Persistent
용접기
GUIDE
OZMQML
CWYAP
direc
바라보
PROVIDER
20100623140
pictures
QUEUES
uctur
##Administrator
Bullet
OECD
VU
aurora
hack
lies
mss
mvc
velocity
뛰어
래는
방전
유예
측량
하향
##Fox
##FMT
##categories
##Supported
##Bool
##이동
##itation
datastore
##avors
disas
subprocess
versioned
##1200
mema
PMI
everywhere
showed
STRMQM
totalCount
InputIterator
Delimeter
689
revised
893
PRIVS
CBL
rebu
##aze
plotting
cycl
Dashlets
iiop
Renaming
EaiResponse
CosNotify
consequence
활발히
조흥은행
LAYER
LIFE
analogous
disadvantage
##appropriate
1642125
EAIEAION
Award
Catal
FRE
Ftp
Fourier
SFILE
VIDE
bss
ico
rar
wider
xb
공판
남동
두어
모션
일회
투어
폐업
##Tables
##1001
##qv
adobe
##ATES
##inding
INSTR
REORG
scatter
IPMI
appends
ESP
hostnames
0013
Explor
##SPOINT
archivelog
Industrial
SVCT
constitute
특별회계
1503
598
##CDN
##ippets
667
변동비
optimizations
amqcr
##RSN
SUBM
ByteArray
authenticates
JButton
관광객
picked
ScanClient
expense
##ranet
##Download
reproduced
Deactivate
EWO
TSPITR
ClipsAndTacks
Cassandra
EJ
Erase
LIT
Mor
MAG
Ramp
UINT
nel
tz
게끔
고안
비우
원도
원거리
직속
한층
행태
##Tsk
##UIT
##514
##bol
##Bai
defned
resid
APR
##APH
getDept
aband
uniqueness
autost
##mative
진행시
ported
flume
아니함
TimeStamp
조사표
ROAD
##dba
보여집니다
##Reset
estart
switchport
##iana
587
758
CaseID
MQHB
##RTYPE
Sametime
1988
##azz
FRONT
의존도
##RESHOLD
CONNECTIONS
Previously
2010061609
Equals
subscript
##contin
Stylesheet
수취인
cylinders
codec
미확인
Early
포지션
Borland
COLLABORATION
정용철
##urisdi
amqcrsta
Json
Lag
Sale
UE
WOR
ZF
bare
hole
nw
raster
vmt
김일수
도화
멕시
성후
펼치
##Sim
##Lower
anom
##ura
##igw
관리회계
##pears
##ansing
resident
stress
INET
INDO
##APPL
arises
createElement
Spy
##teness
portlets
##URES
paradigm
tpre
교통안전
Productivity
ATL
erent
costly
683
ENTR
PROCESSING
Datum
##GTYPE
Terminals
Polish
Choreography
homogeneous
epoch
##CLIENT
collaborative
clarity
grammar
reproduce
DUTY
Strategic
Australia
##UNSOL
INISAFE
CEM
EHR
Jer
Ratio
VBA
bpc
campaign
fle
john
tightly
경인
남성
먼지
면밀
배타
번거
시일
육아
패션
##VN
##AVE
##wait
##BH
##인트
##영향
##채무
##esian
forums
stays
dep
assemble
clus
adt
systemctl
문서화
getHeader
listings
scm
계획안
##REP
##parate
##linear
2616
공공사업
045
CSQE
##1559
purged
DRDA
releasing
751
##HOUT
subjects
Dependent
DNA
launchpad
qmname
Merging
ectly
##Art
weighted
##pthread
Coordinated
ActivationSpec
##사업본부
XmN
Mqtt
##Analytics
Higher
우정사업본부
영등포구
##aniel
WITHOUT
멕시코
BUT
Fil
GMM
wast
wishes
각주
끌어
눈금
대당
대지
무게
부부
상급
완결
조각
코킹
코덱
환전
회장
##Fix
##vision
##ua
##Que
##해상
##erk
isa
revent
##uctory
Reservation
topological
0301
##PLACE
preserves
PMQLONG
continually
개정안
201411
throwing
GSSM
094
pagesize
유통망
##543
752
navigating
9660
batches
##theless
RollBack
Facilities
Words
SELinux
##Apply
NameValueString
에뮬레이터
##onomy
IDENTIFIED
Digitide
Weighted
박은주
20100616093
INDOUBT
839
Brief
IME
KK
cms
nv
tcl
udata
vuser
wm
xA
경위
고전
고창
##Uid
##dv
##Virus
##bn
##LG
##HAN
##바로
##quit
Stamp
##ANS
OSPF
Programa
relink
CONFL
incarn
##AMT
Upgrad
개요도
영업시간
##908
주소지
SPM
explo
markets
##Chars
symptoms
Distribute
Counts
예약어
DATAP
Datagram
Volumes
MQDXP
##Desk
##Dispatcher
OMVS
vmstat
unnamed
WEBMain
Northwest
subpartitions
##mutable
ambiguous
ORDSource
Switches
gigabytes
SPECIF
744
CLEAN
Dot
ITEAI
Living
NDM
Palettes
gains
jdom
mile
mine
공략
대검
색깔
자마자
카피
##Draw
##IENT
##Talk
##UML
##센터
##emption
##try
EAIP
getPjt
1112
DataPath
0030
Alone
연구자
Metal
Archived
##IBILITY
takeover
##InfoDAO
##ConnectionPool
브라우징
652
MsgType
Datacenter
Springer
JMenu
##Activ
Latest
KCW
##Dispatch
pkcs
ticks
ttl
deadlocks
ESCL
intranet
TIBERO
conducted
Palm
획기적으로
reversed
한신평
CONFLICT
BMC
DVS
IST
MCS
Sid
pmt
rac
tur
tmloadcf
xpath
녹지
도매
동급
상동
실감
십니까
이준
이래
판례
호추
##sers
##JL
##je
##stairs
onn
APC
food
ifid
detector
fieldid
workspaces
##Converter
backplane
educ
TRG
##riday
decoding
대응력
referential
Preinstallation
SHALL
##803
redbooks
sqlnet
SUPPL
RealTime
utilized
1206
postcard
AMANDA
SLB
##SOLE
probus
Allowing
Bookstore
핸들링
857
Activator
1987
19998
bashrc
scrolling
theoret
테크놀러지
Football
interoperable
angles
PRESENT
asymmetric
AASTAM
McCain
feasible
Searches
AFFILIATE
745
SAT
WG
cw
pData
sPlan
tlog
zOS
구시
미술
별관
성분
신의
앤드
입국
제실
편람
폐사
혹시
후지
##xing
##uilder
##AAK
##ECT
##YG
##시다
##imension
chroot
enumerated
개발청
getFile
2035
0076
보수비
##109
한국정
비밀문서
##405
GatewayScript
##MCM
Verbs
ignoring
MpowerB
BOOT
658
breakdown
PutMsg
##flix
0052
Metricof
##KEYR
Facade
Centers
ONSLNK
labs
irre
TTAK
SAFE
PURCH
Splitting
인포메이션
Datasource
20140726
5802
올라가
VARIABLE
종로구
DIAGNOST
Pacific
pertinent
마인드
김갑수
20100616093902
Cold
Hong
Nq
ooffset
roughly
sar
ssc
wk
yard
결혼
느림
다룰
마모
불변
순찰
시리얼
영양
일요일
잠김
전라
지멘
차변
충원
호수
##RIC
##Sch
##WB
##피아
##iner
##omplete
##ported
traversal
Trap
planner
##gets
MessageConsumer
##Constr
ASSO
apr
2254
비고란
발송자
sysctl
totally
caption
EDC
BatchAgent
DWDM
HEX
Initializes
tracker
DBApply
무선망
Informat
vertices
넘어온
getBms
##ithreading
PERSISTENCE
unregister
##VariableVO
LAYOUT
sOrdMoment
FACILITY
Gradient
카트리지
학자금
Msiexec
WARRANTIES
지멘스
8001
918
Finger
nis
pbuf
ram
tn
vma
검침
미설
믹스
보직
부칙
생겨
소견
오동
외공
율촌
정단
지갑
평소
##WH
##바이
prospect
##atastrop
valueOf
##achable
disrupt
##ASY
prere
##IDs
identically
columnName
maindept
076
4500
092
Confg
GPM
OCIS
Automating
WINS
Evaluations
##Desktop
1683
decreases
##guard
DUPL
##handled
inquired
hanName
acknowledged
Enhancement
chltype
CSEAAK
##Globalization
emphas
queueManagerName
Interpreting
JIK
MU
Wk
Xt
XGT
Yan
men
pnode
tends
건조
김병
말소
여짐
왔으며
외래
원전
일평균
타깃
항온
해수
행망
##CLO
##비용
forum
Advantages
APDU
##ndl
테스트로
addNode
OracleGlobalization
examplebucket
suffer
##CEPT
645
JMSX
lie
Outside
confuse
##THR
ConnectionName
046
SPIN
locker
##343
UPD
allocations
098
AUTOT
Consistent
Executor
ResourceException
Sung
Swagger
curly
ipchains
661
speaking
##enegot
uploading
informix
ONSDCT
축소판
conforming
experiencing
synonyms
Misses
Guardian
##Region
leverages
LGITERP
이윤규
Participant
충실히
Sycros
Interactivity
AhnLab
AspectJ
masquer
##autiful
Bio
Cc
CENT
Fine
FIT
IANA
JT
Pang
Taylor
dots
joe
qa
sink
곧바로
마커
비시
상해
실비
육군
죄명
중독
착공
##Round
##Sr
##gateway
##jin
##QA
##stop
##rian
##otic
stale
DBServer
IDLE
##akan
##urrence
STACK
##Conv
Uncom
SEI
openshift
UNIS
SOD
Modification
Exploit
Income
디렉션
responsefile
##LTY
MQCh
TPCall
printcap
##TTR
##0912
ReturnCode
Displayed
DDD
ATTLIST
##0003
CAE
761
COMMINFO
PSU
1407
8859
StandBy
징수금
PERIOD
cryptoperiod
Transformations
MERL
##Secure
FIND
MQQUEUE
DECnet
Shortcuts
##layout
Figur
임상훈
##accessible
신경망
CONSTRAINTS
ambig
Instantiate
##advertise
201006231424
DIGITAL
BCP
EIM
Much
WOW
ball
jq
kc
operty
가축
감전
거두
바젤
부파
아트
통로
##Mask
##GED
##규영
##명부
##inia
##0111
##ATYPE
Still
##apture
diss
##udson
##APT
prone
directs
actors
ORANGE
repaired
overload
Along
pointcut
TPR
MOT
관계사
MBER
LGWR
##MBuilder
가장자리
Postinstallation
##irds
662
automount
CNTS
disconnecting
에스원
BUFFPOOL
정밀도
지하수
SCSQAUTH
rmmR
audience
cshrc
tpterm
TRAILER
장난감
##FUNCTION
978
DAR
DCS
Doll
NPS
Yahoo
cord
kND
못해
미회
산사태
성일
송출
유인
의문
주서
진동
##FW
##snd
##Clean
##dat
##SER
##hold
##Mart
##전지
##현동
##online
##oup
##ecture
##ecenter
sphere
APF
retried
callable
unmod
suhyup
저장제
##dera
1633
connectionFactory
dbc
toolbars
amp
preserving
##Eng
##Resources
Imports
##Completion
persons
##331
apachectl
##connection
##IELD
quicker
696
##Apps
Distance
absent
##ofthe
자연환경
Thrown
ZoneZero
엘리베이터
CVSS
ttys
Essential
떨어짐
EXCLUDE
instructor
CJK
syml
Belg
Rebuild
lyk
comparable
디스패처
ILinkQManager
Catalyst
AME
CRO
HRM
Sig
Tun
oss
구한다
모사
무거
비품
신인
역무
용구
위생
종시
트윈
##501
##Bo
##에도
##inar
##otopy
##usern
itl
adverse
whit
0123
wraps
checkerr
readability
webadmin
Asc
QMName
##Clause
보관소
056
##MENTS
THROW
graphically
Readable
utilizes
995
대체기술
PHAR
positioning
originate
uninstaller
##Transform
677
##Appr
Tablespaces
Juniper
사법부
instantiates
##neath
##Algorith
DELAY
##options
20100323
VxFS
grips
trnsct
irrespective
Mirroring
##FnncTrnsPrmt
시방서
980
DAD
Makes
Velocity
dts
domin
nu
ration
sJob
synthetic
구한
러스
바니다
비추
신명
지지
토의
해약
해졌
환입
##Drop
##Dlg
##cor
##oices
##seg
getGroup
getColumn
##ASET
recycl
##reek
CDHD
despite
TestDirector
Preferred
SHELF
공공시설
##217
designates
법률안
Maximo
finance
대체로
errfile
##RecPtr
tbr
discussing
DIY
Schedules
891
FcLang
PARTIC
##Prevention
hypervisor
BmsSch
treatment
스프링
201006151559
Situation
tpdequeue
emergency
RECONNECT
CHANNELS
rebuilt
814
945
CIT
PIV
SAIS
eigen
hous
lun
va
공영
관급
밑줄
세제
연안
열정
지득
차서
클럽
파주
##Filename
##자기
##roxy
forever
##istencies
MQMSG
##lyph
Excell
##oreographer
Dealing
##ckm
subfield
SQLServer
0019
메모장
phil
equipped
##ISTENT
swork
ModelMap
India
explaining
Endian
optical
Busy
##ToString
##OBJECT
Computers
frewall
cleaned
FcStr
SCALE
IPSec
##blank
증거물
Franc
##ozie
multiprocessor
모집단
Bluemix
contributed
TBGGE
RADI
##Applet
Ultimate
Cobol
KW
UCC
분자
양사
운수
정서
줄임
체재
##Dump
##Distribution
##Func
##RBA
##BRO
##iting
##ceiver
##ableEdit
OracleString
1025
1290
willing
ProcessName
executor
##ilde
Creator
##PECTED
downstream
Correspond
characterSet
Shopping
보험법
067
Returning
0401
Compiled
datacenter
089
Initially
##Trust
Heuristic
Signer
NPAIN
Routines
centered
TPSIGRSTRT
INSTALLING
payroll
WARN
WARRAN
EVENTS
##ULK
출금액
EXCEPTIONS
##Behind
iPaaS
##201003
btree
nhqv
Patches
##Suites
김정환
TPESYSTEM
supplemental
##Heap
AWDS
inspinia
IGNORE
멘토링
사각지대
엄청난
USENET
##CbFs
959
DFH
Friday
Ticket
Vp
cj
fx
pag
pivot
rise
vw
vital
계표
레버
미니
바다
박규영
신부
총원
코인
##UH
##gener
##JCA
##곡동
conname
stalls
deploys
##grat
attract
##ibration
acpt
0080
##ESSPOINT
colle
##eady
1527
republ
emb
Places
maxim
Perhaps
065
0022
##ameserver
ConfigManager
0104
##Trunc
사무처
1103
들어간
understands
frustr
Meeting
LotusScript
KRK
confirmed
DEPTID
banks
GCMS
contributions
TELNET
MQWDR
overlay
##BEGIN
nhis
disclaim
roductPrefix
Strictly
슬라이딩
##elihood
##AUTHORIZE
##usernameserver
WARRANTY
Icons
JG
JK
JComponent
MYS
RATER
SDI
Sonic
WOS
ml
python
qsg
공군
남편
문학
사와
타켓
한컴
홍콩
##Now
##pol
##demo
##Hard
처리율
##STY
Exerciser
암호화
endorsed
memp
##209
reasonCode
timeline
201501
POSA
MQPER
Handbook
Acme
codeset
msOrdCard
PROCESSES
##ResultController
TOPICSTR
Translate
bringing
##IFIER
총계정
Vti
김성철
##QueueManagerName
abbreviation
CMMI
주최자
##odbc
TPSVCINFO
exchanges
APPLICANT
assembled
OASIS
DEFERRED
BENEF
apparent
udataobj
UNISYS
msOrdCardResultController
ACO
BETA
Cumulative
OH
OST
Svc
ough
골프
균일
남자
내륙
선후
유류
이석
정유
진본
티스
흥미
##Fd
##Sales
##HIP
##High
##발전
##서류
##예보
forcing
##abs
club
APPS
Youcan
peripher
selectively
##IDC
STU
STTL
parameterized
이상일
emulation
prototypes
convergence
##218
GetMsgOpts
NETBIOS
스크립터
smarter
enablement
reality
##288
##meter
Replacing
근거리
Isol
unsubscribe
585
##liest
793
674
DOMNode
PACKET
##Started
PROGRESS
Established
[...]
