[PAD]
[unused1]
[unused2]
[unused3]
[unused4]
[unused5]
[unused6]
[unused7]
[unused8]
[unused9]
[unused10]
[unused11]
[unused12]
[unused13]
[unused14]
[unused15]
[unused16]
[unused17]
[unused18]
[unused19]
[unused20]
[unused21]
[unused22]
[unused23]
[unused24]
[unused25]
[unused26]
[unused27]
[unused28]
[unused29]
[unused30]
[unused31]
[unused32]
[unused33]
[unused34]
[unused35]
[unused36]
[unused37]
[unused38]
[unused39]
[unused40]
[unused41]
[unused42]
[unused43]
[unused44]
[unused45]
[unused46]
[unused47]
[unused48]
[unused49]
[unused50]
[unused51]
[unused52]
[unused53]
[unused54]
[unused55]
[unused56]
[unused57]
[unused58]
[unused59]
[unused60]
[unused61]
[unused62]
[unused63]
[unused64]
[unused65]
[unused66]
[unused67]
[unused68]
[unused69]
[unused70]
[unused71]
[unused72]
[unused73]
[unused74]
[unused75]
[unused76]
[unused77]
[unused78]
[unused79]
[unused80]
[unused81]
[unused82]
[unused83]
[unused84]
[unused85]
[unused86]
[unused87]
[unused88]
[unused89]
[unused90]
[unused91]
[unused92]
[unused93]
[unused94]
[unused95]
[unused96]
[unused97]
[unused98]
[unused99]
[UNK]
[CLS]
[SEP]
[MASK]
<S>
<T>
!
"
#
$
%
&
'
(
)
*
+
,
-
.
/
0
1
2
3
4
5
6
7
8
9
:
;
<
=
>
?
@
A
B
C
D
E
F
G
H
I
J
K
L
M
N
O
P
Q
R
S
T
U
V
W
X
Y
Z
[
\
]
^
_
a
b
c
d
e
f
g
h
i
j
k
l
m
n
o
p
q
r
s
t
u
v
w
x
y
z
{
|
}
~
¡
¢
£
¥
¦
§
¨
©
ª
«
¬
®
°
±
²
³
µ
¶
·
¹
º
»
¼
½
¾
¿
À
Á
Â
Ã
Ä
Å
Æ
Ç
È
É
Ê
Ë
Ì
Í
Î
Ð
Ñ
Ò
Ó
Ô
Õ
Ö
×
Ø
Ú
Ü
Ý
Þ
ß
à
á
â
ã
ä
å
æ
ç
è
é
ê
ë
ì
í
î
ï
ð
ñ
ò
ó
ô
õ
ö
÷
ø
ù
ú
û
ü
ý
þ
ÿ
Ā
ā
Ă
ă
Ą
ą
Ć
ć
Č
č
Ď
ď
Đ
đ
Ē
ē
Ĕ
ĕ
Ė
ė
ę
ě
Ğ
ğ
ġ
Ģ
ģ
Ħ
ħ
ĩ
Ī
ī
Į
į
İ
ı
Ķ
ķ
ĺ
Ļ
ļ
Ľ
ľ
Ł
ł
ń
Ņ
ņ
ň
ŉ
ŋ
Ō
ō
ŏ
Ő
ő
Œ
œ
ŕ
Ř
ř
Ś
ś
Ş
ş
Š
š
Ţ
ţ
Ť
ť
ũ
Ū
ū
ŭ
ů
Ű
ű
ų
ŵ
ŷ
Ź
ź
Ż
ż
Ž
ž
Ə
ƒ
ơ
Ư
ư
ǎ
ǐ
ǔ
ǫ
ǹ
Ș
ș
Ț
ț
ɐ
ɑ
ɔ
ɕ
ə
ɛ
ɡ
ɣ
ɨ
ɪ
ɲ
ɾ
ʁ
ʃ
ʊ
ʎ
ʒ
ʔ
ʙ
ʰ
ʲ
ʳ
ʷ
ʸ
ʻ
ʼ
ʾ
ʿ
ˈ
ː
ˡ
ˢ
̀
́
̃
̄
̍
̥
̧
̲
͡
΄
Ά
Έ
Ή
Ί
Ό
Ύ
Ώ
ΐ
Α
Β
Γ
Δ
Ε
Ζ
Η
Θ
Ι
Κ
Λ
Μ
Ν
Ξ
Ο
Π
Ρ
Σ
Τ
Υ
Φ
Χ
Ψ
Ω
ά
έ
ή
ί
α
β
γ
δ
ε
ζ
η
θ
ι
κ
λ
μ
ν
ξ
ο
π
ρ
ς
σ
τ
υ
φ
χ
ψ
ω
ϊ
ϋ
ό
ύ
ώ
Ё
Ђ
Ѓ
Є
Ѕ
І
Ї
Ј
Љ
Њ
Ћ
Ќ
Ў
Џ
А
Б
В
Г
Д
Е
Ж
З
И
Й
К
Л
М
Н
О
П
Р
С
Т
У
Ф
Х
Ц
Ч
Ш
Щ
Ъ
Ы
Ь
Э
Ю
Я
а
б
в
г
д
е
ж
з
и
й
к
л
м
н
о
п
р
с
т
у
ф
х
ц
ч
ш
щ
ъ
ы
ь
э
ю
я
ѐ
ё
ђ
ѓ
є
ѕ
і
ї
ј
љ
њ
ћ
ќ
ѝ
ў
џ
ѣ
Ґ
ґ
Ғ
ғ
Җ
җ
Ҙ
ҙ
Қ
қ
Ҡ
ҡ
ң
ҫ
Ү
ү
Ұ
ұ
Ҳ
ҳ
Ҷ
ҷ
Һ
һ
Ӏ
ӑ
ӗ
Ә
ә
ӣ
Ө
ө
Ӯ
ӯ
ӳ
Ա
Բ
Գ
Դ
Ե
Զ
Է
Ը
Թ
Ժ
Ի
Լ
Խ
Ծ
Կ
Հ
Ձ
Ղ
Ճ
Մ
Յ
Ն
Շ
Ո
Չ
Պ
Ջ
Ռ
Ս
Վ
Տ
Ր
Ց
Ւ
Փ
Ք
Օ
Ֆ
՚
՛
՜
՝
՞
ա
բ
գ
դ
ե
զ
է
ը
թ
ժ
ի
լ
խ
ծ
կ
հ
ձ
ղ
ճ
մ
յ
ն
շ
ո
չ
պ
ջ
ռ
ս
վ
տ
ր
ց
ւ
փ
ք
օ
ֆ
և
։
֊
ְ
ֱ
ֲ
ִ
ֵ
ֶ
ַ
ָ
ֹ
ּ
־
ׁ
ׂ
׃
א
ב
ג
ד
ה
ו
ז
ח
ט
י
ך
כ
ל
ם
מ
ן
נ
ס
ע
ף
פ
ץ
צ
ק
ר
ש
ת
׳
״
،
؍
ؒ
؛
؟
ء
آ
أ
ؤ
إ
ئ
ا
ب
ة
ت
ث
ج
ح
خ
د
ذ
ر
ز
س
ش
ص
ض
ط
ظ
ع
غ
ـ
ف
ق
ك
ل
م
ن
ه
و
ى
ي
ً
ٌ
ٍ
َ
ُ
ِ
ّ
ْ
ٔ
ٛ
٠
١
٢
٣
٤
٥
٩
٪
٫
٬
٭
ٰ
ٹ
پ
چ
ڈ
ڑ
ژ
ڤ
ک
ڭ
گ
ں
ھ
ۀ
ہ
ۂ
ۃ
ۆ
ۇ
ی
ے
ۓ
۔
۰
۱
۲
۳
۴
۵
۶
۷
۸
۹
ँ
ं
ः
अ
आ
इ
ई
उ
ऊ
ऋ
ऍ
ऎ
ए
ऐ
ऑ
ओ
औ
क
ख
ग
घ
ङ
च
छ
ज
झ
ञ
ट
ठ
ड
ढ
ण
त
थ
द
ध
न
प
फ
ब
भ
म
य
र
ऱ
ल
ळ
व
श
ष
स
ह
़
ऽ
ा
ि
ी
ु
ू
ृ
ॄ
ॅ
ॆ
े
ै
ॉ
ो
ौ
्
ॐ
॓
ॠ
।
॥
०
१
२
३
४
५
६
७
८
९
॰
ॲ
ঁ
ং
ঃ
অ
আ
ই
ঈ
উ
ঊ
ঋ
এ
ঐ
ও
ঔ
ক
খ
গ
ঘ
ঙ
চ
ছ
জ
ঝ
ঞ
ট
ঠ
ড
ঢ
ণ
ত
থ
দ
ধ
ন
প
ফ
ব
ভ
ম
য
র
ল
শ
ষ
স
হ
়
া
ি
ী
ু
ূ
ৃ
ে
ৈ
ো
ৌ
্
ৎ
০
১
২
৩
৪
৫
৬
৭
৮
৯
ৰ
ৱ
৷
ਂ
ਅ
ਆ
ਇ
ਈ
ਉ
ਊ
ਏ
ਐ
ਓ
ਔ
ਕ
ਖ
ਗ
ਘ
ਚ
ਛ
ਜ
ਝ
ਟ
ਠ
ਡ
ਢ
ਣ
ਤ
ਥ
ਦ
ਧ
ਨ
ਪ
ਫ
ਬ
ਭ
ਮ
ਯ
ਰ
ਲ
ਵ
ਸ
ਹ
਼
ਾ
ਿ
ੀ
ੁ
ੂ
ੇ
ੈ
ੋ
ੌ
੍
ੜ
੦
੧
੨
੩
੪
੫
ੰ
ੱ
ੲ
ੳ
ં
ઃ
અ
આ
ઇ
ઈ
ઉ
ઊ
ઋ
ઍ
એ
ઐ
ઑ
ઓ
ઔ
ક
ખ
ગ
ઘ
ચ
છ
જ
ઝ
ઞ
ટ
ઠ
ડ
ઢ
ણ
ત
થ
દ
ધ
ન
પ
ફ
બ
ભ
મ
ય
ર
લ
ળ
વ
શ
ષ
સ
હ
ા
િ
ી
ુ
ૂ
ૃ
ૅ
ે
ૈ
ૉ
ો
ૌ
્
૦
૧
૨
૩
૪
૫
૬
૭
૮
૯
ஃ
அ
ஆ
இ
ஈ
உ
ஊ
எ
ஏ
ஐ
ஒ
ஓ
ஔ
க
ங
ச
ஜ
ஞ
ட
ண
த
ந
ன
ப
ம
ய
ர
ற
ல
ள
ழ
வ
ஷ
ஸ
ஹ
ா
ி
ீ
ு
ூ
ெ
ே
ை
ொ
ோ
ௌ
்
ం
ః
అ
ఆ
ఇ
ఈ
ఉ
ఊ
ఋ
ఎ
ఏ
ఐ
ఒ
ఓ
ఔ
క
ఖ
గ
ఘ
చ
ఛ
జ
ఝ
ఞ
ట
ఠ
డ
ఢ
ణ
త
థ
ద
ధ
న
ప
ఫ
బ
భ
మ
య
ర
ఱ
ల
ళ
వ
శ
ష
స
హ
ా
ి
ీ
ు
ూ
ృ
ె
ే
ై
ొ
ో
ౌ
్
ಂ
ಃ
ಅ
ಆ
ಇ
ಈ
ಉ
ಊ
ಋ
ಎ
ಏ
ಐ
ಒ
ಓ
ಔ
ಕ
ಖ
ಗ
ಘ
ಚ
ಛ
ಜ
ಝ
ಞ
ಟ
ಠ
ಡ
ಢ
ಣ
ತ
ಥ
ದ
ಧ
ನ
ಪ
ಫ
ಬ
ಭ
ಮ
ಯ
ರ
ಲ
ಳ
ವ
ಶ
ಷ
ಸ
ಹ
ಾ
ಿ
ೀ
ು
ೂ
ೃ
ೆ
ೇ
ೈ
ೊ
ೋ
ೌ
್
೦
೧
೨
೩
೪
೫
೬
೭
೮
೯
ം
ഃ
അ
ആ
ഇ
ഈ
ഉ
ഊ
ഋ
എ
ഏ
ഐ
ഒ
ഓ
ഔ
ക
ഖ
ഗ
ഘ
ങ
ച
ഛ
ജ
ഞ
ട
ഠ
ഡ
ഢ
ണ
ത
ഥ
ദ
ധ
ന
പ
ഫ
ബ
ഭ
മ
യ
ര
റ
ല
ള
ഴ
വ
ശ
ഷ
സ
ഹ
ാ
ി
ീ
ു
ൂ
ൃ
െ
േ
ൈ
ൊ
ോ
ൌ
്
ൗ
൧
ൺ
ൻ
ർ
ൽ
ൾ
ක
ය
ර
ල
්
ා
ก
ข
ค
ฆ
ง
จ
ฉ
ช
ซ
ฌ
ญ
ฎ
ฏ
ฐ
ฑ
ฒ
ณ
ด
ต
ถ
ท
ธ
น
บ
ป
ผ
ฝ
พ
ฟ
ภ
ม
ย
ร
ฤ
ล
ว
ศ
ษ
ส
ห
ฬ
อ
ฮ
ฯ
ะ
ั
า
ำ
ิ
ี
ึ
ื
ุ
ู
ฺ
เ
แ
โ
ใ
ไ
ๆ
็
่
้
๊
๋
์
๐
๑
๒
๓
๔
๕
๖
๗
๘
๙
་
།
ག
ང
ཆ
ད
ན
པ
བ
མ
ཚ
ར
ལ
ས
ི
ེ
ོ
ྒ
ྫ
ྱ
က
ခ
ဂ
ဃ
င
စ
ဆ
ဇ
ဈ
ဉ
ည
ဋ
ဌ
ဍ
ဏ
တ
ထ
ဒ
ဓ
န
ပ
ဖ
ဗ
ဘ
မ
ယ
ရ
လ
ဝ
သ
ဟ
ဠ
အ
ဤ
ဥ
ဦ
ဧ
ဩ
ါ
ာ
ိ
ီ
ု
ူ
ေ
ဲ
ံ
့
း
္
်
ျ
ြ
ွ
ှ
ဿ
၀
၁
၂
၃
၄
၅
၆
၇
၈
၉
၊
။
၌
၍
၎
၏
ა
ბ
გ
დ
ე
ვ
ზ
თ
ი
კ
ლ
მ
ნ
ო
პ
ჟ
რ
ს
ტ
უ
ფ
ქ
ღ
ყ
შ
ჩ
ც
ძ
წ
ჭ
ხ
ჯ
ჰ
ჲ
ᠢ
ᠨ
ᴬ
ᴮ
ᴰ
ᴵ
ᴾ
ᵀ
ᵃ
ᵇ
ᵈ
ᵉ
ᵍ
ᵏ
ᵐ
ᵒ
ᵖ
ᵗ
ᵘ
ᵛ
ᵢ
ᵣ
ᵤ
ᶜ
ᶠ
ḍ
ḏ
Ḑ
ḑ
Ḥ
ḥ
Ḩ
ḩ
Ḫ
ḫ
ḷ
ṃ
ṇ
ṛ
ṟ
Ṣ
ṣ
Ṭ
ṭ
ṯ
ẕ
ạ
Ả
ả
Ấ
ấ
ầ
Ẩ
ẩ
ẫ
ậ
ắ
ằ
ẳ
ẵ
ặ
Ẹ
ẹ
ẻ
ẽ
ế
ề
ể
ễ
ệ
ỉ
ị
Ọ
ọ
ỏ
Ố
ố
ồ
ổ
ỗ
ộ
ớ
ờ
Ở
ở
ỡ
ợ
ụ
Ủ
ủ
Ứ
ứ
ừ
ử
ữ
ự
ỳ
ỵ
ỷ
ỹ
ἀ
ἄ
Ἀ
ἐ
ἡ
ἢ
ἰ
ἱ
ἶ
ὁ
ὅ
ὐ
ὡ
ὰ
ὲ
ὴ
ὶ
ὸ
ὺ
ῆ
ῇ
ῖ
ῦ
ῶ
ῷ
‖
‚
„
‟
†
‡
•
․
‥
‧
‰
′
″
‹
›
※
‿
⁄
⁰
ⁱ
⁴
⁵
⁶
⁷
⁸
⁹
⁺
⁻
⁾
ⁿ
₀
₁
₂
₃
₄
₅
₆
₇
₈
₍
₎
ₐ
ₑ
ₒ
ₓ
ₖ
ₘ
ₙ
ₚ
ₛ
ₜ
₤
€
₹
℃
ℓ
№
ℝ
™
ℤ
⅓
⅔
Ⅰ
Ⅱ
Ⅲ
Ⅳ
←
↑
→
↓
↔
↺
⇄
⇌
⇒
⇔
∀
∅
∇
∈
−
∗
∘
∙
√
∞
∧
∨
∩
∪
∫
∼
≈
≠
≡
≤
≥
≪
≫
⊂
⊆
⊕
⊗
⊙
⋅
⋯
〈
〉
①
②
③
④
⑤
─
━
│
┃
┓
└
├
┣
┫
║
█
■
□
▪
▭
▲
△
►
▼
◆
◇
○
◎
●
◡
★
☆
☉
♀
♂
♕
♙
♠
♡
♣
♥
♦
♪
♭
♯
⚭
✝
⟨
⟩
ⱼ
、
。
〃
々
〇
〈
〉
《
》
「
」
『
』
【
】
〒
〔
〕
〖
〗
〜
〝
ぁ
あ
ぃ
い
う
ぇ
え
お
か
が
き
ぎ
く
ぐ
け
げ
こ
ご
さ
ざ
し
じ
す
ず
せ
ぜ
そ
ぞ
た
だ
ち
ぢ
っ
つ
づ
て
で
と
ど
な
に
ぬ
ね
の
は
ば
ぱ
ひ
び
ぴ
ふ
ぶ
ぷ
へ
べ
ぺ
ほ
ぼ
ぽ
ま
み
む
め
も
ゃ
や
ゅ
ゆ
ょ
よ
ら
り
る
れ
ろ
わ
ゐ
を
ん
ゝ
ゞ
ァ
ア
ィ
イ
ゥ
ウ
ェ
エ
ォ
オ
カ
ガ
キ
ギ
ク
グ
ケ
ゲ
コ
ゴ
サ
ザ
シ
ジ
ス
ズ
セ
ゼ
ソ
ゾ
タ
ダ
チ
ヂ
ッ
ツ
ヅ
テ
デ
ト
ド
ナ
ニ
ヌ
ネ
ノ
ハ
バ
パ
ヒ
ビ
ピ
フ
ブ
プ
ヘ
ベ
ペ
ホ
ボ
ポ
マ
ミ
ム
メ
モ
ャ
ヤ
ュ
ユ
ョ
ヨ
ラ
リ
ル
レ
ロ
ワ
ヱ
ヲ
ン
ヴ
ヵ
ヶ
・
ー
ㆍ
䲁
一
丁
七
万
丈
三
上
下
不
与
丐
丑
专
且
丕
世
丘
丙
业
丛
东
丝
丞
丟
両
丢
两
严
並
丧
个
丫
中
丰
串
临
丸
丹
为
主
丼
丽
举
乂
乃
久
么
义
之
乌
乍
乎
乏
乐
乒
乓
乔
乖
乗
乘
乙
九
乞
也
习
乡
书
乩
买
乱
乳
乾
亀
亂
了
予
争
事
二
于
亏
云
互
五
井
亘
亚
些
亜
亞
亟
亡
亢
交
亥
亦
产
亨
亩
享
京
亭
亮
亲
亳
亵
亶
人
亿
什
仁
仄
仅
仆
仇
今
介
仍
从
仏
仑
仓
仔
仕
他
仗
付
仙
仝
仡
代
令
以
仪
们
仮
仰
仲
件
价
任
份
仿
企
伉
伊
伍
伎
伏
伐
休
众
优
伙
会
伝
伞
伟
传
伤
伦
伪
伯
估
伴
伶
伸
伺
似
伽
佃
但
佇
佈
位
低
住
佐
佑
体
佔
何
佗
佘
余
佚
佛
作
佞
佟
你
佢
佣
佤
佥
佩
佬
佯
佰
佳
併
佶
佼
使
侃
侄
來
侈
例
侍
侏
侑
侖
侗
供
依
侠
価
侣
侦
侧
侨
侬
侮
侯
侵
侶
便
俁
係
促
俄
俊
俎
俏
俐
俑
俗
俘
俚
保
俞
俟
俠
信
俣
俨
俩
俪
俭
修
俯
俱
俳
俵
俶
俸
俺
俾
倆
倉
個
倍
們
倒
倖
倘
候
倚
借
倡
倣
値
倦
倩
倪
倫
倬
倭
倶
倹
债
倻
值
倾
偃
假
偈
偉
偏
偕
做
停
健
偲
側
偵
偶
偷
偽
偿
傀
傅
傈
傍
傑
傕
傘
備
傢
傣
储
催
傭
傲
傳
債
傷
傻
傾
僅
僉
働
像
僑
僕
僖
僚
僧
僭
僮
僱
僳
僵
價
僻
儀
儁
儂
億
儉
儋
儒
儘
儚
償
儡
優
儲
儷
儼
儿
兀
允
元
兄
充
兆
兇
先
光
克
兌
免
兎
児
兑
兒
兔
兖
兗
党
兜
兢
入
內
全
兩
兪
八
公
六
兮
兰
共
关
兴
兵
其
具
典
兹
养
兼
兽
冀
内
円
冇
冈
冉
冊
册
再
冏
冑
冒
冕
冗
写
军
农
冠
冢
冤
冥
冨
冪
冬
冯
冰
冲
决
冴
况
冶
冷
冻
冼
净
凄
准
凉
凋
凌
凍
减
凑
凛
凜
凝
几
凡
凤
処
凧
凪
凭
凯
凰
凱
凳
凶
凸
凹
出
击
函
凿
刀
刁
刃
分
切
刈
刊
刍
刎
刑
划
列
刘
则
刚
创
初
删
判
別
利
刪
别
刮
到
制
刷
券
刹
刺
刻
剂
剃
則
削
剋
剌
前
剎
剑
剔
剖
剛
剝
剣
剤
剥
剧
剩
剪
副
剰
割
創
剷
剽
剿
劃
劇
劈
劉
劍
劑
力
劝
办
功
加
务
劣
动
助
努
劫
劭
励
劲
劳
労
効
劾
势
勁
勃
勅
勇
勉
勋
勐
勒
動
勖
勗
勘
務
勛
勝
勞
募
勢
勤
勧
勲
勳
勵
勸
勺
勻
勾
勿
匀
匂
包
匆
匈
匍
匐
匕
化
北
匙
匝
匠
匡
匣
匪
匮
匯
匱
匹
区
医
匾
匿
區
十
千
卅
升
午
卉
半
卍
华
协
卑
卒
卓
協
单
卖
南
単
博
卜
卞
占
卡
卢
卤
卦
卧
卫
卯
印
危
即
却
卵
卷
卸
卻
卿
厂
厄
厅
历
厉
压
厌
厕
厘
厚
厝
原
厢
厥
厦
厨
厩
厭
厲
厳
去
县
参
參
又
叉
及
友
双
反
収
发
叔
取
受
变
叙
叛
叟
叠
叡
叢
口
古
句
另
叩
只
叫
召
叭
叮
可
台
叱
史
右
叶
号
司
叹
叻
吁
吃
各
合
吉
吊
吋
同
名
后
吏
吐
向
吒
吓
吕
吗
君
吝
吞
吟
吠
吡
否
吧
吨
吩
含
听
启
吳
吴
吵
吶
吸
吹
吻
吼
吾
呀
呂
呆
呈
呉
告
呋
呎
呐
呑
呕
员
呛
呜
呟
呢
呤
周
呪
味
呵
呼
命
咀
咁
咄
咆
咋
和
咎
咏
咐
咒
咕
咖
咤
咥
咨
咩
咪
咫
咬
咯
咱
咲
咳
咸
咽
哀
品
哄
哆
哇
哈
哉
哌
响
哑
哗
員
哥
哦
哨
哩
哪
哭
哮
哲
哺
哼
唁
唄
唆
唇
唐
唑
唔
唖
唤
售
唯
唱
唸
唾
啄
商
啉
啊
問
啓
啖
啜
啞
啟
啡
啤
啦
啮
啰
啶
啸
啼
啾
喀
喂
喃
善
喆
喇
喉
喊
喋
喔
喘
喙
喚
喜
喝
喧
喩
喪
喫
喬
單
喰
喱
喵
営
喷
喻
嗅
嗎
嗓
嗚
嗜
嗟
嗣
嗪
嗽
嘅
嘆
嘉
嘌
嘎
嘔
嘗
嘘
嘛
嘟
嘢
嘧
嘩
嘯
嘱
嘲
嘴
嘶
嘻
嘿
噁
噂
噌
噗
噛
噜
器
噩
噪
噬
噴
噶
噸
噹
噺
噻
嚆
嚇
嚎
嚕
嚢
嚣
嚮
嚴
嚼
囁
囂
囃
囉
囊
囍
囑
囗
囚
四
回
因
团
団
囤
囧
囪
园
囮
困
囱
囲
図
围
固
国
图
圀
圃
圆
圈
國
圍
圏
園
圓
圖
團
圜
土
圣
圧
在
圩
圪
圭
地
圳
场
圻
圾
址
坂
均
坊
坍
坎
坏
坐
坑
块
坚
坛
坜
坝
坞
坟
坠
坡
坤
坦
坨
坪
坳
坵
坷
垂
垃
垄
垅
型
垌
垒
垓
垛
垟
垠
垢
垣
垦
垩
垫
垭
垮
垸
埃
埋
城
埔
埕
埗
埜
域
埠
埡
埤
埭
埴
執
培
基
埼
堀
堂
堃
堅
堆
堇
堊
堑
堕
堡
堤
堪
堯
堰
報
場
堵
堺
塀
塁
塊
塌
塑
塔
塗
塘
塙
塚
塞
塢
塩
填
塬
塭
塵
塹
塾
墀
境
墅
墉
墊
墓
増
墘
墙
墜
增
墟
墨
墩
墮
墳
墾
壁
壇
壊
壌
壑
壓
壕
壘
壞
壟
壠
壢
壤
壩
士
壬
壮
壯
声
壱
売
壳
壶
壷
壹
壺
壽
处
备
変
复
夏
夔
夕
外
夙
多
夜
够
夠
夢
夥
大
天
太
夫
夭
央
夯
失
头
夷
夸
夹
夺
夾
奄
奇
奈
奉
奋
奎
奏
奐
契
奔
奕
奖
套
奘
奚
奠
奢
奥
奧
奨
奪
奬
奭
奮
女
奴
奶
奸
她
好
如
妃
妄
妆
妇
妈
妊
妍
妒
妓
妖
妙
妝
妞
妤
妥
妨
妬
妮
妲
妳
妹
妻
妾
姆
姉
姊
始
姍
姐
姑
姓
委
姗
姚
姜
姝
姥
姦
姨
姪
姫
姬
姶
姻
姿
威
娃
娄
娅
娇
娑
娘
娛
娜
娟
娠
娣
娥
娩
娯
娱
娴
娶
娼
婁
婆
婉
婕
婚
婢
婦
婧
婪
婭
婴
婶
婷
婺
婿
媒
媚
媛
媲
媳
媽
嫁
嫂
嫉
嫌
嫔
嫖
嫡
嫣
嫦
嫩
嫻
嬅
嬉
嬌
嬢
嬤
嬪
嬬
嬰
嬴
嬷
嬸
孀
子
孔
孕
孖
字
存
孙
孚
孛
孜
孝
孟
孢
季
孤
学
孩
孫
孰
孵
學
孺
孽
宁
它
宅
宇
守
安
宋
完
宍
宏
宓
宕
宗
官
宙
定
宛
宜
宝
实
実
宠
审
客
宣
室
宥
宦
宪
宫
宮
宰
害
宴
宵
家
宸
容
宽
宾
宿
寂
寄
寅
密
寇
富
寐
寒
寓
寔
寛
寝
寞
察
寡
寢
寥
實
寧
寨
審
寫
寬
寮
寰
寵
寶
寸
对
寺
寻
导
対
寿
封
専
射
将
將
專
尉
尊
尋
對
導
小
少
尔
尕
尖
尘
尙
尚
尝
尤
尧
尬
尭
就
尴
尷
尸
尹
尺
尻
尼
尽
尾
尿
局
屁
层
居
屆
屈
届
屋
屍
屎
屏
屑
展
属
屠
屡
屢
層
履
屬
屯
山
屹
屿
岁
岂
岌
岐
岑
岔
岖
岗
岘
岙
岚
岛
岡
岩
岫
岬
岭
岱
岳
岷
岸
峁
峇
峒
峙
峠
峡
峦
峨
峪
峭
峯
峰
峴
島
峻
峽
崁
崇
崎
崑
崔
崖
崗
崙
崛
崧
崩
崭
崴
嵇
嵊
嵋
嵌
嵐
嵜
嵩
嵯
嶄
嶇
嶋
嶠
嶷
嶺
嶼
嶽
巅
巌
巍
巒
巔
巖
川
州
巡
巢
巣
工
左
巧
巨
巩
巫
差
己
已
巳
巴
巷
巻
巽
巾
币
市
布
帅
帆
师
希
帐
帑
帕
帖
帘
帚
帛
帜
帝
帥
带
帧
師
席
帮
帯
帰
帳
帶
帷
常
帽
幀
幂
幅
幇
幌
幔
幕
幟
幡
幢
幣
幫
干
平
年
并
幸
幹
幺
幻
幼
幽
幾
广
庁
広
庄
庆
庇
床
序
庐
库
应
底
店
庙
庚
府
庞
废
庠
度
座
庫
庭
庵
庶
康
庸
庾
廁
廂
廃
廈
廉
廊
廍
廓
廖
廚
廟
廠
廢
廣
廬
廳
延
廷
建
廻
廼
廿
开
弁
异
弃
弄
弈
弊
弋
式
弐
弑
弒
弓
弔
引
弗
弘
弛
弟
张
弥
弦
弧
弩
弭
弯
弱
張
強
弹
强
弼
弾
彅
彈
彊
彌
彎
归
当
录
彗
彙
彝
形
彤
彥
彦
彧
彩
彪
彫
彬
彭
彰
影
彷
役
彻
彼
彿
往
征
径
待
徇
很
徊
律
後
徐
徑
徒
従
得
徘
徙
從
徠
御
徨
復
循
徭
微
徳
徴
徵
德
徹
徽
心
必
忆
忌
忍
忏
忒
志
忘
忙
応
忠
忤
忧
快
忱
念
忻
忽
忿
怀
态
怎
怒
怕
怖
怛
怜
思
怠
怡
急
性
怨
怪
怯
总
恂
恃
恆
恋
恍
恐
恒
恕
恙
恚
恢
恣
恤
恥
恨
恩
恪
恬
恭
息
恰
恳
恵
恶
恺
恼
恽
恿
悄
悅
悉
悌
悍
悔
悖
悚
悟
悠
患
悦
您
悩
悪
悬
悯
悲
悶
悸
悼
情
惇
惊
惑
惕
惚
惛
惜
惟
惠
惡
惣
惧
惨
惩
惮
惯
惰
惱
惲
想
惶
惹
惺
愁
愈
愉
愍
意
愔
愕
愚
愛
感
愤
愧
愫
愷
愼
愿
慄
慈
態
慌
慎
慑
慕
慘
慚
慟
慢
慣
慧
慨
慮
慰
慳
慶
慷
慾
憂
憍
憎
憐
憑
憚
憤
憧
憨
憩
憫
憬
憲
憶
憾
懂
懇
懈
應
懋
懐
懒
懦
懲
懶
懷
懸
懺
懼
懿
戀
戈
戊
戌
戍
戎
戏
成
我
戒
或
战
戚
戛
戟
戡
戦
截
戮
戯
戰
戱
戲
戳
戴
戶
户
戸
戻
戾
房
所
扁
扇
扈
扉
手
才
扎
扑
扒
打
扔
払
托
扛
扣
执
扩
扫
扬
扭
扮
扯
扰
扱
扳
扶
批
扼
找
承
技
抄
抉
把
抑
抒
抓
投
抖
抗
折
抚
抛
抜
択
抢
护
报
抨
披
抬
抱
抵
抹
押
抽
拂
担
拆
拇
拉
拋
拌
拍
拏
拐
拒
拓
拔
拖
拗
拘
拙
拚
招
拜
拝
拟
拠
拡
拢
拣
拥
拦
拨
择
括
拭
拮
拯
拱
拳
拶
拷
拼
拾
拿
持
挂
指
按
挑
挖
挙
挚
挛
挝
挞
挟
挠
挡
挣
挤
挥
挨
挪
挫
振
挹
挺
挽
挾
挿
捆
捉
捌
捍
捏
捐
捕
捗
捜
捞
损
捡
换
捣
捧
捨
捩
据
捲
捷
捺
捻
掀
掃
授
掉
掌
掏
排
掖
掘
掙
掛
掟
掠
採
探
掣
接
控
推
掩
措
掬
掲
掳
掴
掷
掸
掺
掻
掾
揀
揃
揄
揆
揉
描
提
插
揖
揚
換
握
揣
揪
揭
揮
援
揶
揺
揽
搁
搅
損
搏
搖
搗
搜
搞
搬
搭
搶
携
搾
摂
摄
摆
摇
摊
摒
摔
摘
摠
摧
摩
摯
摸
摹
摺
摻
撃
撇
撈
撐
撑
撒
撓
撕
撞
撣
撤
撥
撫
播
撮
撰
撲
撹
撻
撼
撿
擁
擂
擄
擅
擇
擊
擋
操
擎
擒
擔
擘
據
擠
擢
擦
擧
擬
擱
擲
擴
擺
擾
攀
攏
攔
攘
攜
攝
攣
攤
攪
攫
攬
支
收
攸
改
攻
放
政
故
效
敌
敍
敎
敏
救
敕
敖
敗
敘
教
敛
敝
敞
敢
散
敦
敬
数
敲
整
敵
敷
數
斂
斃
文
斉
斋
斌
斎
斐
斑
斗
料
斛
斜
斟
斡
斤
斥
斧
斩
斬
断
斯
新
斷
方
於
施
旁
旃
旅
旋
旌
族
旗
旛
无
既
日
旦
旧
旨
早
旬
旭
旱
时
旷
旺
旻
旼
昀
昂
昆
昇
昉
昊
昌
明
昏
易
昔
昕
昙
星
映
春
昧
昨
昭
是
昱
昴
昵
昶
昼
显
晁
時
晃
晉
晋
晏
晒
晓
晔
晕
晖
晗
晚
晝
晞
晟
晤
晦
晨
晩
普
景
晰
晴
晶
晷
智
暁
暂
暄
暇
暈
暉
暎
暐
暑
暖
暗
暠
暢
暦
暧
暨
暫
暮
暱
暴
暹
曄
曆
曇
曉
曖
曙
曜
曝
曠
曦
曬
曰
曲
曳
更
曷
書
曹
曺
曼
曽
曾
替
最
會
月
有
朋
服
朐
朔
朕
朗
望
朝
期
朦
朧
木
未
末
本
札
术
朱
朴
朵
机
朽
杀
杂
权
杆
杉
李
杏
材
村
杓
杖
杜
杞
束
杠
条
杣
来
杨
杭
杯
杰
東
杲
杵
杷
杼
松
板
极
构
枇
枉
枋
析
枕
林
枚
果
枝
枠
枡
枢
枣
枪
枫
枭
枯
架
枷
柄
柊
柏
某
柑
染
柔
柘
柚
柜
柝
柞
柠
查
柩
柬
柯
柱
柳
柴
柵
査
柾
柿
栃
栄
栅
标
栈
栉
栋
栎
栏
树
栓
栖
栗
栞
校
栢
栩
株
栱
样
核
根
格
栽
栾
桀
桁
桂
桃
桅
框
案
桌
桐
桑
桓
桔
桜
桝
桟
桢
档
桥
桦
桧
桨
桩
桶
桿
梁
梅
梓
梗
條
梟
梢
梦
梧
梨
梭
梯
械
梱
梳
梵
梶
检
棄
棉
棋
棍
棒
棕
棗
棘
棚
棟
棠
棣
棧
棨
森
棱
棲
棵
棹
棺
棻
椀
椅
椋
植
椎
椒
椙
検
椭
椰
椴
椽
椿
楊
楓
楔
楕
楚
楞
楠
楡
楢
楣
楨
楫
業
楯
極
楷
楸
楹
楼
楽
概
榄
榆
榈
榊
榎
榔
榕
榘
榛
榜
榨
榭
榮
榴
榷
榻
槃
槇
構
槌
槍
槎
槐
槓
様
槙
槛
槟
槭
槳
槻
槽
槿
樁
樂
樅
樊
樋
樑
樓
標
樞
樟
模
樣
権
横
樫
樱
樵
樸
樹
樺
樽
橄
橇
橈
橋
橐
橘
橙
機
橡
橢
橫
橿
檀
檄
檎
檐
檔
檗
檜
檢
檬
檯
檳
檸
檻
櫂
櫃
櫓
櫚
櫛
櫟
櫥
櫻
欄
欅
權
欒
欖
欠
次
欢
欣
欧
欲
欺
欽
款
歆
歇
歉
歌
歎
歐
歓
歙
歡
止
正
此
步
武
歧
歩
歪
歯
歲
歳
歴
歷
歸
歹
死
歼
歿
殁
殃
殆
殇
殉
殊
残
殖
殘
殡
殤
殭
殯
殲
殴
段
殷
殺
殻
殼
殿
毀
毁
毅
毆
毋
母
毎
每
毒
毓
比
毕
毗
毘
毙
毛
毫
毬
毯
氈
氏
氐
民
氓
气
気
氙
氛
氟
氢
氣
氦
氧
氨
氫
氮
氯
氰
水
氵
氷
永
氹
氾
汀
汁
求
汇
汉
汎
汐
汕
汗
汙
汚
汛
汜
汝
汞
江
池
污
汤
汨
汪
汰
汲
汴
汶
決
汽
汾
沁
沂
沃
沅
沆
沈
沉
沌
沐
沒
沓
沔
沖
沙
沛
沟
没
沢
沥
沦
沧
沪
沫
沭
沮
沱
河
沸
油
治
沼
沽
沾
沿
況
泄
泉
泊
泌
泓
法
泗
泛
泠
泡
波
泣
泥
注
泪
泮
泰
泳
泵
泷
泸
泻
泼
泽
泾
洁
洄
洋
洒
洗
洙
洛
洞
津
洩
洪
洮
洱
洲
洵
洸
洹
活
洼
洽
派
流
浄
浅
浆
浇
浊
测
济
浏
浑
浒
浓
浔
浙
浚
浜
浣
浦
浩
浪
浬
浮
浴
海
浸
涂
涅
涇
消
涉
涌
涎
涓
涕
涙
涛
涝
涟
涡
涤
润
涧
涨
涩
涪
涯
液
涵
涸
涼
涿
淀
淄
淅
淆
淇
淋
淑
淖
淘
淚
淝
淞
淡
淤
淦
淨
淪
淫
淮
深
淳
淵
混
淸
淹
淺
添
淼
清
渇
済
渉
渊
渋
渍
渎
渐
渓
渔
渕
渗
渚
減
渝
渠
渡
渣
渤
渥
渦
温
測
渭
港
渲
渴
游
渺
渾
湃
湄
湊
湍
湖
湘
湛
湟
湧
湮
湯
湳
湾
湿
満
溃
溅
溉
源
準
溜
溝
溟
溢
溥
溧
溪
溫
溯
溴
溶
溺
滁
滂
滄
滅
滇
滉
滋
滌
滎
滑
滓
滔
滕
滘
滙
滚
滝
滞
满
滤
滥
滦
滨
滩
滬
滯
滲
滴
滸
滾
滿
漁
漂
漆
漉
漏
漑
漓
演
漕
漠
漢
漣
漩
漪
漫
漬
漯
漱
漲
漳
漸
漾
漿
潁
潇
潍
潑
潔
潘
潛
潜
潞
潟
潢
潤
潦
潭
潮
潯
潰
潼
澀
澁
澂
澄
澆
澈
澍
澎
澗
澜
澡
澤
澧
澪
澱
澳
澹
激
濁
濂
濃
濑
濒
濕
濛
濟
濠
濡
濤
濫
濬
濮
濯
濰
濱
濺
濾
瀆
瀉
瀋
瀏
瀑
瀕
瀘
瀚
瀛
瀝
瀞
瀟
瀧
瀨
瀬
瀾
灌
灏
灑
灘
灝
灞
灣
灤
火
灭
灯
灰
灵
灶
灸
灼
災
灾
灿
炀
炅
炉
炊
炎
炒
炔
炘
炙
炜
炫
炬
炭
炮
炯
炱
炳
炸
点
為
炼
炽
烁
烂
烃
烈
烏
烘
烙
烛
烟
烤
烦
烧
烨
烫
热
烯
烴
烷
烹
烽
焉
焊
焔
焕
焘
焙
焚
焜
無
焦
焯
焰
然
焼
煇
煉
煊
煌
煎
煒
煕
煙
煜
煞
煤
煥
煦
照
煩
煬
煮
煲
煽
熄
熊
熏
熒
熔
熙
熟
熬
熱
熵
熹
熾
燁
燃
燈
燊
燎
燐
燒
燕
燙
營
燥
燦
燧
燭
燮
燻
燼
燾
燿
爆
爍
爐
爛
爨
爪
爬
爭
爰
爱
爲
爵
父
爷
爸
爹
爺
爻
爽
爾
牆
片
版
牌
牒
牙
牛
牝
牟
牠
牡
牢
牧
物
牲
牵
特
牺
牽
犀
犁
犍
犛
犠
犢
犧
犬
犯
状
犹
狀
狂
狄
狐
狒
狗
狙
狛
狠
狡
狩
独
狭
狮
狱
狸
狹
狼
猎
猕
猖
猗
猛
猜
猝
猟
猥
猩
猪
猫
献
猴
猶
猷
猾
猿
獄
獅
獎
獏
獐
獠
獣
獨
獲
獵
獸
獺
獻
獼
獾
玄
率
玉
王
玖
玛
玟
玠
玥
玩
玫
玮
环
现
玲
玳
玺
玻
珀
珂
珅
珈
珉
珊
珍
珏
珑
珙
珞
珠
珣
珥
珩
珪
班
珮
珲
現
球
琅
理
琇
琉
琊
琏
琐
琚
琛
琢
琥
琦
琨
琪
琬
琮
琰
琲
琳
琴
琵
琶
琼
琿
瑀
瑁
瑄
瑋
瑕
瑗
瑙
瑚
瑛
瑜
瑞
瑟
瑠
瑣
瑤
瑩
瑪
瑭
瑯
瑰
瑳
瑶
瑾
璀
璁
璃
璇
璉
璋
璐
璘
璜
璞
璟
璠
璧
璨
璩
環
璽
璿
瓊
瓌
瓏
瓒
瓘
瓚
瓜
瓢
瓣
瓦
瓮
瓯
瓶
瓷
甄
甌
甑
甕
甘
甚
甜
生
產
産
甥
甦
用
甩
甫
甬
甯
田
由
甲
申
电
男
甸
町
画
畅
畈
界
畏
畑
畔
留
畜
畝
畠
畢
略
畦
番
畫
異
畲
畳
畴
畵
當
畷
畸
畿
疃
疆
疇
疊
疋
疎
疏
疑
疗
疚
疟
疣
疤
疫
疮
疯
疱
疲
疵
疸
疹
疼
疽
疾
病
症
痊
痍
痒
痔
痕
痘
痙
痛
痞
痢
痣
痩
痪
痰
痴
痹
痺
瘀
瘋
瘍
瘓
瘟
瘠
瘡
瘤
瘦
瘧
瘫
瘴
瘾
療
癇
癌
癒
癖
癡
癢
癫
癬
癮
癱
癲
癸
発
登
發
白
百
皂
的
皆
皇
皈
皋
皎
皐
皓
皖
皝
皮
皱
皺
皿
盂
盃
盆
盈
益
盎
盏
盐
监
盒
盔
盖
盗
盘
盛
盜
盞
盟
盡
監
盤
盧
盪
目
盯
盱
盲
直
相
盼
盾
省
眉
看
県
眙
眞
真
眠
眩
眶
眷
眸
眺
眼
眾
着
睇
睐
睛
睞
睡
睢
督
睦
睨
睪
睫
睹
睽
睾
睿
瞄
瞋
瞎
瞑
瞒
瞞
瞥
瞧
瞩
瞪
瞬
瞭
瞰
瞳
瞻
瞼
瞿
矗
矚
矛
矜
矢
矣
知
矧
矩
矫
短
矮
矯
石
矶
矽
矿
码
砂
砌
砍
研
砕
砖
砚
砥
砦
砧
砲
破
砷
砸
砺
砾
础
硅
硏
硒
硕
硝
硤
硫
硬
确
硯
硼
碁
碇
碉
碌
碍
碎
碑
碓
碕
碗
碘
碚
碟
碣
碧
碩
碰
碱
碳
確
碼
碾
磁
磅
磊
磋
磐
磔
磚
磡
磨
磯
磷
磺
礁
礎
礙
礦
礪
礫
礬
示
礼
社
祀
祁
祂
祇
祈
祉
祐
祓
祕
祖
祗
祚
祜
祝
神
祟
祠
祢
祥
票
祭
祯
祷
祸
祺
祿
禀
禁
禄
禅
禍
禎
福
禕
禛
禦
禧
禪
禮
禰
禱
禹
禺
离
禽
禾
禿
秀
私
秃
秉
秋
种
科
秒
秘
租
秣
秤
秦
秧
秩
积
称
移
秽
稀
稅
程
稍
税
稔
稗
稙
稚
稜
稟
稠
稣
種
稱
稲
稳
稷
稻
稼
稽
稿
穀
穂
穆
穌
積
穎
穏
穗
穢
穣
穩
穫
穰
穴
究
穷
穹
空
穿
突
窃
窄
窈
窑
窒
窓
窖
窗
窘
窜
窝
窟
窥
窦
窩
窪
窮
窯
窺
窿
竄
竇
竈
竊
立
竑
竖
站
竜
竞
竟
章
竣
童
竪
竭
端
競
竹
竺
竿
笃
笈
笋
笏
笑
笔
笙
笛
笞
笠
笥
符
笨
第
笹
笺
笼
筆
筈
等
筋
筍
筏
筐
筑
筒
答
策
筛
筝
筠
筧
筱
筲
筵
筷
筹
签
简
箇
箋
箍
箏
箐
箒
箔
箕
算
管
箪
箭
箱
箴
箸
節
篁
範
篆
篇
築
篙
篝
篠
篡
篤
篩
篭
篮
篱
篷
簇
簒
簗
簡
簧
簪
簫
簷
簸
簽
簾
簿
籃
籌
籍
籐
籠
籤
籬
籲
米
类
籽
籾
粉
粋
粒
粕
粗
粘
粛
粟
粤
粥
粧
粪
粮
粱
粲
粵
粹
粽
精
粿
糊
糎
糕
糖
糙
糜
糞
糟
糠
糧
糯
糸
系
糾
紀
紂
約
紅
紆
紇
紊
紋
納
紐
紓
純
紗
紘
紙
級
紛
素
紡
索
紧
紫
紬
紮
累
細
紳
紹
紺
終
絃
組
絆
経
結
絕
絞
絡
絢
給
絨
絮
統
絲
絳
絵
絶
絹
綁
綏
經
継
続
綜
綠
綢
綦
綫
綬
維
綱
網
綴
綸
綺
綻
綽
綾
綿
緊
緋
総
緑
緒
線
緝
緞
締
緣
編
緩
緬
緯
練
緹
緻
縁
縄
縉
縊
縛
縞
縣
縦
縫
縮
縱
縷
縻
總
績
繁
繆
繇
繊
繋
繍
織
繕
繚
繞
繡
繩
繪
繫
繭
繰
繳
繹
繼
纂
續
纏
纓
纖
纜
纠
红
纤
纥
约
级
纪
纬
纮
纯
纱
纲
纳
纵
纶
纷
纸
纹
纺
纽
纾
线
绀
练
组
绅
细
织
终
绊
绍
绎
经
绑
绒
结
绕
绘
给
绚
绛
络
绝
绞
统
绢
绣
绥
继
绩
绪
绫
续
绮
绯
绰
绳
维
绵
绶
绸
综
绽
绿
缀
缅
缆
缇
缉
缎
缓
缔
缕
编
缘
缙
缚
缝
缠
缢
缨
缩
缪
缮
缴
缶
缸
缺
缽
罂
罄
罌
罐
网
罔
罕
罗
罚
罠
罢
罩
罪
置
罰
署
罵
罷
罹
羁
羅
羈
羊
羌
美
羔
羚
羞
羟
羡
羣
群
羥
羧
羨
義
羯
羰
羲
羹
羽
羿
翁
翅
翊
翌
翎
習
翔
翘
翟
翠
翡
翦
翩
翰
翱
翳
翹
翻
翼
耀
老
考
者
耆
而
耍
耐
耒
耕
耗
耘
耙
耦
耳
耶
耸
耻
耽
耿
聂
聆
聊
聋
职
联
聖
聘
聚
聞
聡
聪
聯
聰
聲
聳
聴
聶
職
聽
聾
聿
肃
肄
肅
肆
肇
肉
肋
肌
肖
肘
肚
肛
肝
肠
股
肢
肤
肥
肩
肪
肯
肱
育
肴
肺
肽
肾
肿
胀
胁
胃
胄
胆
背
胎
胖
胚
胜
胞
胡
胤
胥
胪
胭
胰
胱
胴
胶
胸
胺
能
脂
脅
脆
脇
脈
脉
脊
脏
脐
脑
脖
脚
脛
脩
脫
脯
脱
脳
脷
脸
脹
脾
腈
腊
腋
腌
腎
腐
腑
腓
腔
腕
腥
腦
腫
腮
腰
腱
腳
腸
腹
腺
腻
腾
腿
膀
膏
膚
膛
膜
膝
膠
膣
膦
膨
膩
膳
膵
膺
膽
膿
臀
臂
臆
臉
臍
臓
臘
臚
臟
臣
臥
臧
臨
自
臭
至
致
臺
臻
臼
舂
舅
舆
與
興
舉
舊
舌
舍
舎
舐
舒
舔
舖
舗
舘
舛
舜
舞
舟
航
舫
般
舰
舱
舵
舶
舷
船
舺
艇
艉
艋
艏
艘
艙
艤
艦
艮
良
艰
艱
色
艳
艶
艷
艺
艾
节
芋
芍
芎
芒
芙
芜
芝
芥
芦
芩
芬
芭
芮
芯
花
芳
芷
芸
芹
芻
芽
芾
苅
苇
苍
苏
苑
苓
苔
苗
苛
苞
苟
苣
若
苦
苫
苯
英
苳
苴
苷
苹
苺
苻
苾
茂
范
茄
茅
茉
茎
茗
茛
茜
茧
茨
茫
茱
茲
茴
茵
茶
茸
茹
荀
荃
荆
草
荊
荏
荐
荒
荔
荖
荘
荚
荟
荡
荣
荥
荧
荫
药
荷
荻
荼
莅
莆
莉
莊
莎
莒
莓
莖
莘
莞
莢
莪
莫
莱
莲
获
莹
莺
莽
莿
菀
菁
菅
菇
菈
菊
菌
菏
菓
菖
菘
菜
菟
菠
菩
菫
華
菰
菱
菲
菴
菸
萃
萄
萇
萊
萌
萍
萎
萘
萝
萤
营
萧
萨
萩
萬
萱
萸
萼
落
葆
葉
著
葛
葡
董
葦
葫
葬
葭
葱
葳
葵
葺
蒂
蒋
蒐
蒔
蒙
蒜
蒞
蒨
蒯
蒲
蒴
蒸
蒼
蒿
蓀
蓁
蓄
蓉
蓋
蓑
蓓
蓝
蓟
蓬
蓮
蓼
蔑
蔓
蔔
蔗
蔚
蔡
蔣
蔥
蔦
蔬
蔭
蔵
蔷
蔻
蔽
蕁
蕃
蕈
蕉
蕊
蕎
蕗
蕙
蕨
蕩
蕪
蕭
蕲
蕴
蕾
薄
薇
薈
薊
薑
薔
薗
薙
薛
薦
薨
薩
薪
薫
薬
薮
薯
薰
薹
藁
藉
藍
藏
藐
藓
藔
藕
藜
藝
藤
藥
藩
藪
藹
藺
藻
蘂
蘄
蘆
蘇
蘊
蘋
蘑
蘚
蘭
蘿
虎
虏
虐
虑
虔
處
虚
虛
虜
虞
號
虢
虧
虫
虬
虱
虹
虻
虽
虾
蚀
蚁
蚂
蚊
蚌
蚓
蚕
蚜
蚝
蚣
蚤
蚩
蚪
蚬
蚵
蚶
蛇
蛉
蛊
蛋
蛍
蛎
蛙
蛛
蛞
蛟
蛤
蛭
蛮
蛯
蛱
蛸
蛹
蛺
蛻
蛾
蜀
蜂
蜃
蜆
蜈
蜍
蜒
蜓
蜕
蜗
蜘
蜚
蜜
蜡
蜢
蜥
蜱
蜴
蜷
蜻
蜿
蝇
蝉
蝋
蝌
蝎
蝓
蝕
蝗
蝙
蝠
蝦
蝨
蝮
蝰
蝴
蝶
蝸
蝽
螂
螃
螈
融
螞
螢
螯
螳
螺
蟄
蟆
蟋
蟑
蟒
蟠
蟬
蟲
蟹
蟻
蟾
蠅
蠍
蠕
蠟
蠡
蠢
蠣
蠱
蠶
蠻
血
衅
衆
行
衍
術
衔
街
衙
衛
衝
衞
衡
衢
衣
补
表
衫
衬
衮
衰
衷
衿
袁
袂
袈
袋
袍
袒
袖
袜
袞
被
袭
袱
袴
裁
裂
装
裏
裔
裕
裘
裙
補
裝
裟
裡
裤
裨
裳
裴
裸
裹
製
裾
複
褐
褒
褚
褥
褪
褫
褲
褶
褻
襄
襖
襟
襪
襯
襲
西
要
覃
覆
覇
見
規
覓
視
覗
覚
覧
親
覲
観
覺
覽
觀
见
观
规
觅
视
览
觉
觐
角
解
触
觸
言
訂
訃
計
訊
討
訓
訖
託
記
訛
訝
訟
訣
訥
訪
設
許
訳
訴
訶
診
註
証
詐
詔
評
詛
詞
詠
詡
詢
詣
試
詩
詫
詭
詮
詰
話
該
詳
詹
誅
誇
誉
誌
認
誑
誓
誕
誘
語
誠
誡
誣
誤
誥
誦
誨
說
説
読
誰
課
誹
誼
調
諂
談
請
諌
諍
諏
諒
論
諜
諡
諦
諧
諫
諭
諮
諱
諶
諷
諸
諺
諾
謀
謁
謂
謄
謊
謎
謐
謗
謙
謚
講
謝
謠
謡
謨
謫
謬
謳
謹
證
譏
識
譙
譚
譜
警
譬
譯
議
譲
譴
護
譽
讀
讃
變
讐
讒
讓
讚
讞
计
订
认
讥
讨
让
讫
训
议
讯
记
讲
讳
讶
讷
许
讹
论
讼
讽
设
访
诀
证
诃
评
诅
识
诈
诉
诊
词
诏
译
诒
试
诗
诘
诚
诛
话
诞
诠
诡
询
诣
该
详
诩
诫
诬
语
误
诰
诱
诲
说
诵
请
诸
诹
诺
读
诽
课
谁
调
谅
谈
谊
谋
谍
谎
谏
谐
谒
谓
谔
谕
谚
谛
谜
谟
谢
谣
谤
谥
谦
谨
谪
谬
谭
谯
谱
谳
谴
谷
谿
豁
豆
豈
豊
豌
豎
豐
豔
豚
象
豪
豫
豬
豹
豺
貂
貌
貓
貘
貝
貞
負
財
貢
貧
貨
販
貪
貫
責
貯
貰
貳
貴
貶
買
貸
費
貼
貽
貿
賀
賁
賂
賃
賄
資
賈
賊
賑
賓
賚
賛
賜
賞
賠
賡
賢
賣
賤
賦
質
賭
賴
賺
購
賽
贄
贅
贈
贊
贋
贍
贏
贓
贖
贛
贝
贞
负
贡
财
责
贤
败
账
货
质
贩
贪
贫
贬
购
贮
贯
贰
贱
贲
贴
贵
贷
贸
费
贺
贻
贼
贾
贿
赁
赂
赃
资
赈
赉
赋
赌
赎
赏
赐
赓
赔
赖
赚
赛
赞
赠
赢
赣
赤
赦
赫
赭
走
赳
赴
赵
赶
起
趁
超
越
趋
趕
趙
趟
趣
趨
足
趴
趾
跃
跆
跋
跌
跑
跖
跛
距
跟
跡
跤
跨
跪
路
跳
践
跻
踊
踏
踐
踝
踞
踢
踩
踪
踴
踵
蹂
蹄
蹇
蹈
蹊
蹟
蹤
蹦
蹲
蹴
蹼
躁
躇
躊
躋
躍
躙
身
躬
躯
躲
躺
軀
車
軋
軌
軍
軒
軔
軛
軟
転
軫
軸
軻
軼
軽
軾
較
載
輌
輒
輓
輔
輕
輛
輜
輝
輟
輦
輩
輪
輯
輸
輻
輾
輿
轄
轅
轉
轍
轎
轟
轢
车
轧
轨
轩
转
轭
轮
软
轰
轴
轶
轸
轻
轼
载
轿
较
辄
辅
辆
辈
辉
辍
辐
辑
输
辕
辖
辗
辙
辛
辜
辞
辟
辣
辦
辨
辩
辫
辭
辮
辯
辰
辱
農
边
辺
辻
込
辽
达
辿
迁
迂
迄
迅
过
迈
迎
运
近
返
还
这
进
远
违
连
迟
迥
迦
迩
迪
迫
迭
述
迴
迷
迹
迺
追
退
送
适
逃
逅
逆
选
逊
逍
透
逐
递
逓
途
逕
逗
這
通
逛
逝
逞
速
造
逢
連
逮
週
進
逵
逸
逻
逼
逾
遁
遂
遅
遇
遊
運
遍
過
遏
遐
道
達
違
遗
遙
遜
遞
遠
遡
遣
遥
適
遭
遮
遲
遴
遵
遷
選
遹
遺
遼
遽
避
邀
邁
邂
邃
還
邇
邈
邉
邊
邏
邑
邓
邕
邛
邝
邠
邢
那
邦
邨
邪
邬
邮
邯
邰
邱
邳
邵
邸
邹
邺
邻
邾
郁
郃
郊
郎
郑
郗
郜
郝
郞
郡
郢
郤
郧
部
郭
郯
郴
郵
郷
郸
都
鄂
鄉
鄒
鄔
鄕
鄖
鄙
鄚
鄞
鄢
鄧
鄭
鄯
鄰
鄱
鄲
鄴
鄺
酉
酋
酌
配
酎
酐
酒
酔
酗
酚
酢
酣
酥
酪
酬
酮
酯
酰
酱
酵
酶
酷
酸
酿
醃
醇
醉
醋
醍
醐
醒
醚
醛
醜
醣
醤
醫
醬
醮
醯
醴
醸
釀
釁
采
釈
釉
释
釋
里
重
野
量
釐
金
釗
釘
釜
針
釣
釧
釵
鈉
鈍
鈔
鈕
鈞
鈣
鈦
鈴
鈷
鈺
鈾
鈿
鉀
鉄
鉅
鉈
鉉
鉑
鉗
鉛
鉞
鉢
鉤
鉱
鉴
鉻
鉾
銀
銃
銅
銑
銓
銖
銘
銚
銜
銨
銭
銮
銳
銷
銹
鋁
鋅
鋏
鋒
鋤
鋪
鋭
鋰
鋳
鋸
鋼
錄
錆
錐
錕
錘
錚
錠
錢
錦
錨
錫
錬
錮
錯
録
錳
錶
鍊
鍋
鍍
鍔
鍛
鍬
鍮
鍵
鍼
鍾
鎂
鎊
鎌
鎏
鎔
鎖
鎗
鎚
鎢
鎧
鎬
鎭
鎮
鎳
鏃
鏈
鏑
鏗
鏞
鏟
鏡
鏢
鏽
鐘
鐮
鐳
鐵
鐸
鑄
鑑
鑒
鑣
鑫
鑰
鑲
鑼
鑽
鑾
鑿
针
钉
钊
钏
钓
钗
钙
钚
钛
钜
钝
钞
钟
钠
钢
钥
钦
钧
钨
钩
钮
钰
钱
钳
钴
钵
钺
钻
钾
铀
铁
铂
铃
铅
铉
铎
铜
铝
铠
铨
铬
铭
铮
铲
铳
铵
银
铸
铺
链
铿
销
锁
锂
锄
锅
锈
锋
锌
锐
错
锚
锟
锡
锢
锣
锤
锥
锦
锭
键
锯
锰
锷
锺
锻
镀
镁
镇
镍
镐
镑
镕
镖
镛
镜
镭
镰
镶
長
长
門
閃
閆
閉
開
閏
閑
閒
間
閔
閘
関
閣
閤
閥
閨
閩
閬
閭
閱
閲
閻
閾
闆
闇
闊
闍
闐
闕
闖
闘
關
闡
闢
门
闪
闫
闭
问
闯
闰
闲
间
闵
闷
闸
闹
闺
闻
闽
闾
阀
阁
阅
阆
阇
阉
阎
阐
阔
阗
阙
阜
队
阡
阪
阮
阯
阱
防
阳
阴
阵
阶
阻
阿
陀
陂
附
际
陆
陇
陈
陋
陌
降
限
陕
陛
陝
陞
陟
陡
院
陣
除
陥
陨
险
陪
陰
陲
陳
陵
陶
陷
陸
険
陽
隅
隆
隈
隊
隋
隍
階
随
隐
隔
隕
隗
隘
隙
際
障
隠
隣
隧
隨
險
隱
隴
隶
隷
隸
隻
隼
隽
难
雀
雁
雄
雅
集
雇
雉
雋
雌
雍
雏
雑
雒
雕
雖
雙
雛
雜
雞
離
難
雨
雪
雫
雯
雰
雲
雳
零
雷
雹
電
雾
需
霄
霆
震
霉
霊
霍
霏
霑
霓
霖
霜
霞
霧
霰
露
霸
霹
霽
霾
靂
靄
靈
靑
青
靓
靖
静
靚
靛
靜
非
靠
靡
面
革
靭
靱
靳
靴
靶
靺
靼
鞄
鞅
鞆
鞋
鞍
鞏
鞑
鞘
鞠
鞨
鞭
鞮
韃
韋
韌
韓
韜
韦
韧
韩
韬
韭
韮
音
韵
韶
韻
響
頁
頂
頃
項
順
須
頊
頌
預
頑
頒
頓
頗
領
頚
頜
頡
頤
頬
頭
頰
頸
頹
頻
頼
顆
題
額
顎
顏
顒
顔
顕
顗
願
顛
類
顥
顧
顫
顯
顱
页
顶
顷
项
顺
须
顽
顾
顿
颁
颂
预
颅
领
颇
颈
颉
颊
颌
颍
颐
频
颓
颖
颗
题
颚
颜
额
颠
颤
風
颯
颱
颶
飄
飆
风
飒
飓
飘
飙
飛
飞
食
飢
飪
飯
飲
飴
飼
飽
飾
餃
餅
餉
養
餌
餐
餓
餘
餚
餡
館
餵
餾
饅
饉
饋
饌
饑
饒
饗
饥
饪
饭
饮
饰
饱
饲
饵
饶
饷
饺
饼
饿
馀
馅
馆
馈
馏
首
馗
香
馥
馨
馬
馭
馮
馱
馳
馴
駁
駄
駅
駆
駐
駒
駕
駙
駛
駝
駭
駱
駿
騎
騒
験
騙
騨
騫
騰
騷
驃
驅
驊
驍
驒
驕
驗
驚
驛
驟
驢
驤
驥
驪
马
驭
驮
驯
驰
驱
驳
驴
驶
驸
驹
驻
驼
驾
驿
骁
骂
骄
骅
骆
骇
骊
验
骏
骑
骗
骚
骞
骠
骤
骥
骧
骨
骰
骷
骸
骼
髄
髅
髏
髑
髒
髓
體
高
髙
髦
髪
髭
髮
髯
髷
髻
鬃
鬆
鬍
鬘
鬚
鬣
鬥
鬧
鬱
鬼
魁
魂
魃
魄
魅
魍
魎
魏
魔
魚
魨
魮
魯
魷
鮃
鮋
鮎
鮑
鮟
鮠
鮡
鮨
鮫
鮭
鮮
鯉
鯊
鯖
鯙
鯛
鯡
鯤
鯨
鯰
鯱
鯽
鰂
鰈
鰍
鰐
鰓
鰕
鰨
鰭
鰲
鰹
鰺
鰻
鱂
鱇
鱈
鱉
鱒
鱔
鱗
鱧
鱨
鱲
鱷
鱸
鱼
鱿
鲀
鲁
鲆
鲇
鲈
鲉
鲍
鲑
鲛
鲜
鲤
鲨
鲫
鲱
鲶
鲷
鲸
鲽
鲿
鳃
鳄
鳅
鳉
鳌
鳍
鳎
鳕
鳖
鳗
鳚
鳝
鳞
鳢
鳥
鳩
鳳
鳴
鳶
鴇
鴉
鴎
鴛
鴞
鴦
鴨
鴻
鴿
鵑
鵙
鵜
鵝
鵠
鵡
鵬
鵰
鵲
鶇
鶉
鶏
鶥
鶯
鶴
鶻
鷗
鷲
鷹
鷺
鸚
鸞
鸟
鸠
鸡
鸢
鸣
鸥
鸦
鸫
鸭
鸮
鸯
鸳
鸽
鸾
鸿
鹃
鹅
鹈
鹉
鹊
鹏
鹘
鹛
鹤
鹦
鹫
鹭
鹰
鹵
鹸
鹹
鹼
鹽
鹿
麋
麒
麓
麗
麝
麟
麤
麥
麦
麴
麵
麹
麺
麻
麼
麽
麾
麿
黃
黄
黍
黎
黏
黑
黒
黔
默
黙
黛
黜
點
黨
黯
黴
黻
鼎
鼐
鼓
鼠
鼩
鼬
鼻
齊
齋
齐
齒
齡
齢
齣
齦
齧
齿
龄
龈
龍
龐
龔
龕
龙
龚
龛
龜
龟
龢
가
각
간
갇
갈
감
갑
값
갓
갔
강
갖
같
갚
개
객
갤
갯
갱
걀
거
걱
건
걷
걸
검
겁
것
겉
게
겐
겔
겟
겠
겨
격
겪
견
결
겸
겹
겼
경
곁
계
고
곡
곤
곧
골
곰
곱
곳
공
곶
과
곽
관
괄
괌
광
괜
괴
굉
교
구
국
군
굳
굴
굵
굽
굿
궁
권
궐
궤
귀
귄
규
균
그
극
근
글
금
급
긋
긍
기
긴
길
김
깁
깃
깊
까
깎
깐
깔
깜
깝
깥
깨
꺼
꺾
껍
껏
께
껴
꼈
꼬
꼭
꼴
꼼
꼽
꽃
꽤
꾀
꾸
꾼
꿀
꿈
꿔
꿨
뀌
뀐
끄
끈
끊
끌
끓
끔
끗
끝
끼
낀
낄
낌
나
낙
난
날
낡
남
납
낫
났
낭
낮
낯
낱
낳
내
낸
낼
냄
냈
냉
냐
냥
너
넌
널
넓
넘
넛
넣
네
넥
넨
넬
넷
녀
녁
년
념
녔
녕
노
녹
논
놀
놈
농
높
놓
뇌
뇨
누
눅
눈
눌
눠
뉘
뉜
뉴
늄
느
늑
는
늘
늙
능
늦
늬
니
닉
닌
닐
님
닛
닝
다
닥
닦
단
닫
달
닭
닮
담
답
닷
당
닿
대
댄
댈
댐
댓
더
덕
던
덜
덟
덤
덧
덩
덮
데
덱
덴
델
도
독
돈
돋
돌
돔
돕
돗
동
돼
됐
되
된
될
됨
두
둑
둔
둘
둠
둥
뒀
뒤
뒷
듀
듈
드
득
든
듣
들
듬
듭
듯
등
디
딕
딘
딜
딥
딧
딩
딪
따
딱
딴
딸
땃
땄
땅
때
떠
떡
떤
떨
떻
떼
또
똑
뚜
뚝
뚫
뚱
뛰
뜨
뜬
뜻
띄
띠
띤
라
락
란
랄
람
랍
랐
랑
래
랙
랜
램
랩
랫
랬
랭
랴
략
량
러
럭
런
럴
럼
럽
럿
렀
렁
렇
레
렉
렌
렐
렘
렛
려
력
련
렬
렴
렵
렷
렸
령
례
로
록
론
롤
롬
롭
롯
롱
뢰
료
룡
루
룩
룬
룰
룸
룹
룻
룽
뤄
뤘
뤼
류
륙
륜
률
륨
륭
르
륵
른
를
름
릇
릉
릎
리
릭
린
릴
림
립
릿
링
마
막
만
많
맏
말
맑
맘
맛
망
맞
맡
매
맥
맨
맵
맷
맹
맺
머
먹
먼
멀
멈
멋
멍
메
멕
멘
멜
멤
멧
며
면
멸
명
몇
모
목
몫
몬
몰
몸
몹
못
몽
뫼
묘
무
묵
묶
문
묻
물
뭄
뭇
뭉
뭐
뭔
뮌
뮤
뮬
므
미
믹
민
믿
밀
밋
밍
및
밑
바
박
밖
반
받
발
밝
밟
밤
밥
방
밭
배
백
밴
밸
뱀
뱅
버
벅
번
벌
범
법
벗
벚
베
벡
벤
벨
벳
벵
벼
벽
변
별
볍
병
보
복
본
볼
봄
봇
봉
봐
봤
부
북
분
불
붉
붐
붓
붕
붙
뷔
뷰
브
븐
블
비
빅
빈
빌
빔
빗
빙
빚
빛
빠
빨
빵
빼
빽
뻐
뻔
뻗
뼈
뽑
뾰
뿌
뿐
뿔
쁘
쁜
쁨
사
삭
산
살
삶
삼
삽
삿
샀
상
새
색
샌
샐
샘
생
샤
샬
샹
섀
서
석
섞
선
설
섬
섭
섯
섰
성
세
섹
센
셀
셈
셉
셋
셔
션
셜
셨
셰
셸
소
속
손
솔
솜
솟
송
쇄
쇠
쇼
숀
숍
수
숙
순
술
숨
숫
숭
숲
쉐
쉬
쉴
쉽
슈
슌
슐
슘
슛
스
슨
슬
슭
슴
습
슷
승
시
식
신
싣
실
싫
심
십
싯
싱
싶
싸
싹
싼
쌀
쌍
쌓
써
썩
썬
썰
썼
쏘
쏜
쏟
쑤
쓰
쓴
쓸
씀
씌
씨
씩
씬
아
악
안
앉
않
알
앓
암
압
앗
았
앙
앞
애
액
앤
앨
앱
앵
야
약
얀
얄
얇
양
얕
얘
어
억
언
얹
얻
얼
얽
엄
업
없
엇
었
엉
에
엑
엔
엘
엠
엣
여
역
엮
연
열
염
엽
엿
였
영
옆
예
옌
옐
옛
오
옥
온
올
옮
옳
옴
옵
옷
옹
와
완
왈
왓
왔
왕
왜
외
왼
요
욕
욘
욤
용
우
욱
운
울
움
웃
웅
워
원
월
웠
웨
웬
웰
웹
위
윅
윈
윌
윗
윙
유
육
윤
율
융
으
윽
은
을
음
읍
응
의
이
익
인
일
읽
잃
임
입
잇
있
잉
잊
잎
자
작
잔
잘
잠
잡
장
잦
재
잭
쟁
쟈
저
적
전
절
젊
점
접
정
젖
제
젝
젠
젤
져
졌
조
족
존
졸
좀
좁
종
좋
좌
죄
죠
주
죽
준
줄
줌
중
줘
줬
쥐
쥬
쥰
즈
즉
즌
즐
즘
증
지
직
진
질
짐
집
짓
징
짙
짜
짝
짧
짱
째
쩌
쩔
쪽
쫓
쭉
쯔
쯤
찌
찍
찔
차
착
찬
찮
찰
참
창
찾
채
책
챈
챌
챔
챙
처
척
천
철
첨
첩
첫
청
체
첸
첼
쳐
쳤
초
촉
촌
촛
총
촨
촬
최
추
축
춘
출
춤
충
춰
췌
취
츄
츠
측
츰
층
치
칙
친
칠
침
칩
칭
카
칸
칼
캄
캅
캉
캐
캔
캘
캠
캡
캣
커
컨
컫
컬
컴
컵
컷
컸
케
켄
켈
켓
켜
켰
코
콕
콘
콜
콤
콥
콧
콩
콰
쾌
쾰
쿄
쿠
쿡
쿤
쿨
쿼
퀘
퀴
퀸
큐
큘
크
큰
클
큼
키
킥
킨
킬
킴
킷
킹
타
탁
탄
탈
탐
탑
탓
탔
탕
태
택
탠
탤
탬
탭
탱
터
턱
턴
털
텀
테
텍
텐
텔
템
텝
톈
토
톡
톤
톨
톰
톱
통
퇴
투
툰
툴
툼
퉁
튀
튜
튠
튬
트
특
튼
틀
틈
티
틱
틴
틸
팀
팅
파
팍
판
팔
팜
팝
팟
팡
패
팩
팬
팽
퍼
펀
펄
펌
펑
페
펙
펜
펠
펫
펴
편
펼
평
폐
포
폭
폰
폴
폼
퐁
표
푸
푼
풀
품
풋
풍
퓨
프
픈
플
픔
피
픽
핀
필
핍
핑
하
학
한
할
함
합
핫
항
해
핵
핸
햄
햇
했
행
향
허
헌
헐
험
헝
헤
헨
헬
혀
혁
현
혈
혐
협
혔
형
혜
호
혹
혼
홀
홈
홉
홋
홍
화
확
환
활
황
회
획
횟
횡
효
후
훈
훌
훔
훗
훨
훼
휘
휠
휩
휴
흉
흐
흑
흔
흘
흙
흡
흥
흩
희
흰
히
힌
힐
힘
힙
﨑
ﮐ
ﮟ
ﮨ
ﮯ
ﯽ
ﯿ
﴾
﴿
ﷲ
ﷺ
︰
﹐
﹑
﹔
﹕
﹝
﹞
﹣
ﺍ
ﺎ
ﺗ
ﻣ
ﻭ
ﻮ
！
＂
＃
％
＆
（
）
＊
＋
，
－
．
／
０
１
２
３
４
５
６
７
８
９
：
；
＜
＝
＞
？
＠
Ａ
Ｂ
Ｃ
Ｍ
Ｓ
Ｘ
［
＼
］
＿
｜
～
｡
｢
｣
､
･
𩽾
𩾌
de
the
in
##s
of
la
en
and
##e
##a
to
##n
##i
The
der
un
di
que
на
##t
is
el
se
del
die
##r
und
et
na
##o
was
on
##en
är
##u
des
den
le
for
da
je
van
as
##m
sa
do
10
an
les
una
il
by
og
##y
2011
La
at
##l
##d
er
al
##er
von
In
du
with
av
##es
med
con
##k
2010
est
och
per
##а
2000
som
los
por
nga
2012
12
het
from
that
De
##и
no
11
2014
2009
es
20
su
ISBN
een
ja
2007
2008
km
##е
##an
2013
15
om
في
im
com
##ta
2006
dan
##te
på
18
##na
para
mit
2015
als
El
como
his
##у
ha
##da
##ing
une
...
24
за
Den
Die
##h
##ne
در
##g
##м
das
En
30
##in
##re
14
par
13
16
##us
2005
##de
је
2016
és
au
25
000
dans
he
che
##on
2004
yang
em
##н
dem
##ch
19
it
2001
17
°C
til
2002
се
##ی
han
##ia
Le
Il
wurde
##le
las
della
New
##ra
من
ein
##is
##ы
um
si
2003
21
по
ist
var
Species
are
2017
op
zu
##z
22
für
##et
were
##os
od
son
An
26
World
##о
##do
של
which
##ja
va
pour
ve
1999
##ti
sur
به
23
auf
##la
là
от
##é
года
II
##ed
Life
war
za
##to
##se
##ni
##no
до
or
nel
be
28
det
##c
##т
##і
##х
##ar
qui
του
He
και
eine
az
te
##va
1998
##ом
27
mm
##та
##nt
##ma
finns
##ka
sich
Catalogue
had
не
##ng
It
în
also
so
##je
##ة
از
##й
##я
29
из
##ه
1996
##li
1997
am
has
km²
roku
și
dari
dos
ur
##ie
##ri
entre
##as
University
да
lo
100
eta
##на
##p
era
के
31
ni
##al
##ה
một
##j
##ce
1990
John
first
voor
się
##ca
##ment
os
met
##ا
од
ou
và
##ов
2018
all
1995
uma
##ים
во
##ko
aus
1991
##ó
1994
Der
non
của
foi
##si
1992
##em
af
har
##ly
their
ar
##b
film
##의
avec
##ي
50
1993
one
##um
##sa
bis
Les
San
της
##ă
not
but
its
та
được
##v
ir
who
ny
##ו
York
##ga
##ς
her
##it
το
ang
månaden
Mexico
over
bei
ser
www
году
nach
した
که
dei
##mi
##ת
##ت
trakten
trong
nederbörd
##ki
את
##ми
ligger
##к
të
alla
##с
po
auch
History
##л
yn
##р
для
##ка
door
UK
1989
##ge
##at
dat
runt
have
##에
this
में
40
##י
##ية
American
##ba
1980
ed
uit
##в
species
más
från
##í
##ur
este
1988
ya
##ke
two
parte
fue
ne
Checklist
http
Ang
năm
amb
على
bir
##st
plus
##ات
ITIS
است
##ro
Press
है
##el
under
על
する
zijn
##f
On
##ות
1986
werd
zum
1987
##ن
1985
978
pada
meter
су
men
##man
been
dell
ini
##ю
familia
din
September
1984
##ci
einer
Orrell
có
Saint
sua
##ul
##ndo
album
1970
qu
United
ao
##mente
##ve
över
mais
werden
Annual
seu
Panoramas
Viewfinder
genus
##ą
##을
september
Kirk
##ся
oli
##me
fra
Reading
Los
Michael
sie
##den
##の
time
##но
##za
##io
Bourgoin
NASA
این
1982
1983
##ów
Bailly
ngan
sont
##ки
την
Roskov
Baillargeon
III
Paglinawan
1981
National
##ни
No
##د
dengan
DEM
##á
after
dalam
ett
1975
Det
##or
part
01
1945
dia
Das
##ر
##ла
1979
##nya
1972
come
##ya
red
##ten
ingår
els
other
Na
##x
në
France
they
sobre
کے
##om
1978
William
##не
##те
tot
1968
1960
##م
jako
был
##di
delen
1976
##kan
##ek
into
60
##ak
və
till
##ı
durch
##lo
##ung
року
ble
06
από
##ів
1977
1974
1973
May
nicht
aan
Paris
##2
ka
##S
1971
org
Mer
August
zur
mai
##A
##이
dal
up
##ها
ng
här
einem
##д
This
را
nahilalakip
då
new
##то
थ्व
aux
Ginkuhà
##ny
500
##ho
##1
oder
##ju
sind
landet
1969
##ان
Jean
algoritmen
Användare
Algoritmer
Lsjbot
International
Paul
City
##lar
##ji
höjduppgifter
200
На
км
April
με
untuk
##ли
adalah
hij
uska
ziren
att
này
wird
что
các
iz
ce
sin
Im
##go
more
nan
1967
pas
havet
35
David
ei
##ts
nella
US
hini
##ción
1950
##co
TV
04
##ler
##à
man
Han
November
Robert
Nicolson
##tion
##г
ma
1944
की
45
1962
London
lui
05
80
she
dels
##ir
##ía
delle
St
1965
ad
when
32
65
##ų
été
sus
för
über
subspecies
due
##ь
##ва
##ku
cu
years
1964
1966
##C
States
familjen
ہے
fan
إلى
що
NGC
Ouvrard
Het
са
Bisby
##ze
და
ginhulagway
later
##w
1961
họ
##ter
07
ki
или
1941
As
Al
##3
##ë
County
Waray
1940
huvudstaden
nakalista
##ns
##은
only
would
1939
##ik
einen
##が
più
James
##ers
godine
Framräknat
1963
kan
から
03
##ry
با
januari
me
Es
при
##ी
Er
میں
##sen
##های
90
##des
##ha
##ção
70
year
Charles
släktet
##ban
##ен
##0
blev
pa
##ם
его
varmaste
Årsmedeltemperaturen
kallaste
beskrevs
medeltemperaturen
during
where
ze
eller
##rs
can
loài
underarter
1958
between
как
out
Bronnen
された
wie
##년
George
со
him
Inga
sono
##ти
##ل
millimeter
##ę
noten
##ben
juli
referenties
alle
##ren
##ных
##ը
##sta
jest
ses
1956
##rt
और
about
Peter
1959
listade
నుండి
02
School
vun
comme
##да
1943
tahun
##го
##tu
most
##ма
genomsnitt
wurden
torraste
årsnederbörd
Genomsnittlig
regnigaste
33
године
##ן
three
1948
fu
##ů
invånare
##am
kvadratkilometer
##ou
##4
Earth
##ä
anche
ben
##от
1942
##는
made
англ
##ria
కి
ye
##ov
00
1957
người
1930
1920
##il
used
1954
##mo
dhe
09
vom
##wa
Un
##jo
sebagai
forma
##és
##ica
##be
Se
##ion
durante
przez
such
##ного
deux
08
known
ved
36
South
ta
nie
then
он
USA
##ken
1946
dass
You
Maria
##ina
να
34
final
1955
से
である
League
##ной
کی
population
##п
##ра
##land
का
1938
##lla
than
nu
##ب
1953
##ine
naam
##T
##س
##ный
300
IV
1949
Thomas
1918
India
τον
1952
All
##한
הוא
State
merupakan
##ской
##un
##ні
Oxford
familie
club
July
1947
یک
##zione
més
elle
Richard
##che
June
team
Az
1936
unter
học
44
##P
##র
##ner
##ic
care
second
##ł
zen
ca
mga
Nel
として
Retrieved
##ok
від
##ig
##th
March
##و
inom
##nu
##ш
She
που
には
some
##ada
Santa
there
oleh
##ste
GeoNames
##ut
British
pe
Film
ke
West
data
##5
gli
area
##án
co
38
һәм
1937
##ció
born
400
kao
any
became
των
##dos
với
##ton
##ского
serie
एक
ook
છે
##que
vor
##ку
place
Berlin
##ные
##ty
soort
##tes
including
##ে
1951
đầu
pod
##ble
37
##das
well
cm
##ा
##ר
##gi
##6
October
đã
##ի
egy
##nen
##ն
Jahr
koji
General
oraz
through
being
##ní
North
season
##nte
waren
година
noch
##ll
doi
##ea
##res
Martin
##ant
hadton
January
Park
##ан
eerst
##ہ
##ò
##vo
##ée
##né
1933
Love
##id
hat
ఉన్నాయి
ko
##ssa
database
Po
Society
cho
##ть
##E
են
##로
στην
##ck
tra
fost
pero
को
##les
##ning
##lle
1935
##ado
##R
##B
##ske
42
War
años
но
##gen
##I
##zi
1934
pro
سال
1919
##가
December
Em
##ot
##ל
##ой
##ist
##ين
64
bij
##nie
##ista
many
48
After
sebuah
39
##der
##7
1914
##ны
nord
pp
##vi
Database
##に
Europa
మీ
suo
Club
Music
radie
Grand
では
##ს
ci
де
name
Museum
##ون
against
prima
fait
آن
volt
その
1932
Louis
##nia
1929
will
σε
total
One
أن
bi
Man
1928
them
ai
##га
##berg
41
як
για
hogy
dalla
nur
##pe
world
ab
55
##pa
before
στο
amin
اور
original
family
series
won
1917
##L
43
while
ale
##9
ఉంది
José
single
##を
ont
Joseph
commune
uno
##nde
1931
##ў
cui
##ский
may
state
general
##tas
Records
desde
school
sous
solo
##8
Art
byl
For
år
##ski
juni
##O
base
##ent
via
nom
both
roce
hasta
seiner
stato
47
עם
sowie
1924
75
##men
ex
não
##ের
naar
##ית
work
worden
people
және
gepubliceerd
под
Encyclopedia
области
gran
wetenschappelijke
##ски
##lu
local
عام
mars
grande
America
Lake
1927
også
until
##ky
##ger
##G
также
##ão
была
##ý
geldig
##न
College
становника
##ца
Union
గ్రామం
Ny
##du
1922
##cia
1925
cette
##ura
1921
##으로
zeuden
To
Trakten
wa
1926
contra
Van
році
είναι
##ii
##sk
sein
По
##ol
##ón
##ā
##ć
##ska
history
number
##ad
##에서
##D
nombre
##них
seine
Jahre
го
##nes
##ों
##mento
bu
Am
primer
##ия
کا
esta
Nach
있다
1912
February
##ز
##లో
##ї
System
##를
Award
King
anni
##M
Las
bat
hi
1923
mö
partir
51
52
Nacional
##tt
46
FC
##by
sem
##ний
##lt
##nd
juga
кӀоштан
##N
ay
released
##ien
దూరంలో
##ai
Elle
Cup
House
sig
provinsen
##ная
##र
##ий
bagian
called
played
##े
Italia
Кхузахь
##ке
nem
está
seus
same
##ə
stanovnika
también
##F
aber
##ст
1900
hatte
band
##з
end
nos
している
River
ду
##ა
råder
##он
49
asteroid
было
Sie
city
1910
Washington
##ach
##は
Me
My
##are
して
China
même
Tour
Royal
His
four
##son
ing
Henry
##ло
vào
ile
##ert
1913
village
##len
Pierre
based
##ischen
Dr
##ет
li
zwei
English
tre
vid
Italy
##ron
California
##ita
##ко
##ies
ಮತ್ತು
##ش
##ire
56
thành
##ian
##ana
tả
nome
số
Canada
##ě
##ú
ikke
re
##cht
Red
tháng
##he
était
##bi
CD
были
##ում
IC
został
namngivna
principal
54
Routledge
eines
wordt
время
Indonesia
kilometer
sud
game
##と
то
##고
degli
##lich
Italian
##ン
##so
niet
anno
##ische
Smith
version
vez
##ks
après
ug
##ud
##ru
tres
1915
public
être
khoa
Juan
##ف
närheten
سے
dit
december
##ным
##ع
Loài
long
They
Cambridge
τα
At
že
England
التي
##q
Air
##au
izd
коды
sistema
##ier
##cy
##ک
За
што
##ल
nun
हैं
##mu
##ник
Center
واقع
BBC
اس
There
vuonna
november
##ida
Madrid
Runt
Australia
Best
sau
early
##K
año
ut
several
##ন
1911
Company
Don
Si
##ей
ville
ans
enligt
##ч
##ls
pentru
عن
Black
Association
##ну
olan
atau
không
53
Christian
dont
##im
use
84
these
Hall
since
nog
150
Europe
Hans
ten
ਹੈ
Festival
olarak
land
##கள்
former
högsta
##ри
##ini
##V
UTC
##han
cada
go
Mai
1916
seva
system
zwischen
guerra
##bo
Do
Daniel
pela
Roma
group
600
مع
Francisco
τη
بن
ਦੇ
##nin
wat
regia
##му
Jan
leur
oktober
##ation
maar
tiên
1905
##tor
où
же
home
57
Da
1908
дар
##dae
##ciones
found
58
station
fin
##ius
##ס
Census
East
この
##ى
##сь
Marie
برای
Star
augusti
një
music
từ
post
donde
أو
national
##त
high
set
Island
##dor
like
##ле
##ق
1907
दु
##ux
mas
##vat
now
ra
punkten
##nda
Karl
##lik
Jahren
##idae
بعد
59
tidak
myös
##اً
fut
Frank
Antonio
april
dopo
primera
##iu
Stadt
شد
##ker
Insecta
##과
τους
##ار
Central
##ė
ga
nei
##ang
##ды
Japan
بود
##ון
French
kg
XIX
show
off
##ок
800
following
Estados
##다
pelo
##ии
dieser
##ige
##ua
##chen
itu
##ico
##ted
premier
European
ban
Bu
هو
##ice
Open
site
после
major
Observations
##hi
##이다
vida
adolah
Band
Journal
gegen
februari
1906
##ları
những
vật
Od
また
art
1904
day
began
##ive
century
1909
##ling
În
był
each
##ity
##ej
we
##ata
telah
located
було
High
##dir
District
ili
hän
também
Street
село
##sti
estado
Als
Oktober
Unidos
##át
havia
quando
##gan
seit
год
##ven
Zeit
##ер
95
ایران
##ская
novembre
Per
nasod
Edward
##zen
भाषा
Division
net
service
##ui
held
thực
налази
autres
Το
Population
Mark
##ei
menjadi
Time
Land
đến
aussi
Nord
thuộc
Lee
##°
member
##ے
населения
song
##ци
##rio
back
##era
##са
85
agosto
##ова
Times
hans
##U
##rd
anos
##ж
German
##nik
bien
##ин
##인
Institute
deze
йогӀу
Is
був
Terrängen
sul
named
గ్రామంలో
##ами
hun
seg
##ville
##sch
andere
onder
government
120
دے
Carlos
এবং
км²
בשנת
Group
##lan
depuis
unha
onde
##tan
nad
##ene
alors
Alexander
их
Live
62
XX
РФ
##ական
като
að
khi
Према
88
юкъа
Hij
large
video
##া
Modern
lugar
mot
Radio
او
##ד
tại
Os
casa
age
##lor
également
##도
să
##ב
##сы
##zo
##cie
essere
##је
company
##ure
jeho
life
però
##ley
binon
district
його
Rio
##ją
##ran
през
Barcelona
São
país
production
line
##ль
##ын
72
meg
##ere
так
palibot
##ris
main
fr
First
eerste
##kin
##tte
mi
gikan
ali
Index
White
ngày
ainsi
efter
Team
##ting
social
frå
latach
Information
##dan
Science
Una
took
##nce
##क
России
left
##ском
siècle
էր
##ně
Rock
Data
Op
jedoch
ordo
##áu
##లు
série
around
##ці
היה
huvudsak
##ների
##ја
did
habitantes
could
1903
Mary
##bu
##하는
première
82
##ц
##נה
built
##ска
capital
1000
99
form
##сти
پر
nell
##ದ
pado
या
دارد
joka
dla
habitants
され
##ului
##tta
##ты
Diptera
##ның
Friedrich
población
abril
##té
However
Ein
fa
##ber
पर
250
66
##ın
##ப்
یا
News
region
town
From
##ale
86
Carl
ersten
variansen
lan
pre
##ス
zona
##ство
Angeles
##val
##ি
##で
Simon
tempo
finale
kom
famili
When
INSEE
##ère
etter
##zioni
ਵਿੱਚ
##burg
rock
side
hadde
где
play
present
1901
63
##ah
terletak
СССР
partie
sy
VI
PMID
Brasil
##де
viene
første
##ния
היא
Pada
Su
اے
Von
banda
Tom
##age
if
##க்
##sche
##tus
насеље
grupo
##є
primo
Atlas
water
##ksi
etwa
Hill
った
##ique
##ções
kingdom
##ła
što
received
bio
Jones
##ás
Anna
##ano
zich
1902
published
##ського
##ido
word
96
されている
##기
οι
##ства
1890
61
жана
67
Chicago
mar
công
ciudad
loro
iki
живело
81
served
كان
98
97
për
##יה
point
##ð
##ros
thể
drei
Santiago
##liche
mort
List
לא
Championship
Jack
##ió
Bureau
Coleoptera
##cji
##मा
Diakses
##ino
##mann
##ٔ
##cu
##ою
##nek
##dy
match
Awards
temps
Roman
Day
mu
גם
include
top
heeft
Juli
700
cuando
##ü
68
##mer
são
because
Cerambycidae
etc
Juni
pri
##ат
##ور
mens
within
kann
##ט
Real
bulan
хуьлу
##ms
му
эвла
##ito
##ном
##tet
đó
mentre
Son
##H
central
##inen
Por
along
marzo
##nej
five
Sa
byla
Animalia
##lı
83
того
record
ning
jego
España
##jen
said
Internet
##ný
fueron
##ego
về
sonra
Albert
Culture
##서
Marine
wieder
ایک
76
radio
orang
provincia
висини
том
##ル
andre
##ate
هي
kam
obra
##nje
ما
##ند
##ima
engleski
##ских
ήταν
filum
##də
six
ва
puis
important
##하고
##ium
##ای
надморској
##ens
92
##jos
để
director
italiano
PDF
members
##nih
Texas
##ње
Januar
last
##ого
mehr
насељу
million
small
Album
##ari
sido
Young
93
Big
буенча
died
program
vart
football
dân
buvo
quân
What
##했다
1898
78
pel
Williams
##kt
kelas
##ك
Arthropoda
Football
два
français
années
бассейны
best
bị
Walter
##ono
##지
##ში
##ק
contre
##को
71
לאחר
Este
##ő
bila
media
91
##ம்
##aan
quan
نفر
##wy
otros
##ι
77
##б
Party
##ף
される
Amerika
international
##ג
74
##lis
że
##leri
lors
##గా
jo
own
så
Indian
73
Vol
##zy
областан
1897
During
1896
như
##rat
##lig
zo
vo
death
very
##ции
nalazi
milimetro
час
##ver
شدهاست
DVD
air
marupokan
peut
Hän
koja
1899
##gt
69
نے
##ceae
vers
##we
Academy
##ем
inglés
87
##nja
için
மற்றும்
building
##ія
##sten
##ах
##gu
yr
satu
Great
ela
Under
Sant
importante
##nis
trên
1895
popular
##лі
Lac
lang
id
##스
mis
##iert
control
##하였다
Of
##ء
naselje
With
над
ਅਤੇ
##ح
##č
##ש
mereka
##ld
##ное
ilə
Brown
Во
аса
jaar
anys
third
انگلیسی
##let
Johann
beim
##ques
па
##ých
sự
ele
##와
services
dall
tanggal
89
esis
tym
Nam
Werner
still
Road
##ν
અને
seinem
бойынша
trois
##ké
todo
todos
jsou
álbum
##rum
ông
mei
си
һыу
Bei
Kunze
ਦੀ
நாள்
како
##ಗಳು
##ге
Wilhelm
centre
##ите
##X
##pi
those
##ara
col
Cerro
##od
थाय्
##ys
##tti
kilometro
Top
##ие
دی
fou
And
Church
её
##리
Wever
children
kayu
які
בין
اینگیلیسجه
Mit
##اء
Culham
држави
Night
##ite
meer
##ני
chính
##pen
про
##ین
হয়
##ј
##per
vol
##ez
By
##og
ter
##ную
##ato
många
1889
country
seinen
vier
##מה
1880
##nak
ia
##use
або
agus
është
ידי
haar
až
##сть
Version
##ele
##ա
tak
included
##ал
jusqu
Jacques
општини
mayor
book
94
diese
##ня
##nti
##ди
##ser
liegt
north
né
había
թվականի
María
##ח
Army
Сахьтан
lat
##ster
##ар
plaats
två
України
##schen
ildə
##ue
лет
##ť
Germany
mindre
zuen
США
##sia
eds
була
Asia
##ras
öster
##ret
Super
causa
మరియు
points
izan
79
Dezember
später
centro
који
wo
ano
через
1870
Grande
##än
##ју
##ту
##ova
##sko
##chi
type
##ile
ihre
στη
President
Scott
##ով
cidade
tai
Luis
##isch
##sse
##tar
just
Council
##ane
##ija
Social
Насеље
juo
بين
##ել
Australian
нь
савезној
tiene
##iva
После
Prix
Guerra
##nych
Centre
twee
större
dove
tour
##ş
ces
Con
као
antes
tersebut
Pedro
τις
avant
Sir
Argentina
Max
сахьт
కేంద్రం
led
##ᵉ
mô
Kanada
##ых
Ende
##ában
another
We
questo
##bar
##ена
பார்த்த
città
##ye
metros
comune
piano
##ә
ως
також
##ि
família
Africa
comuna
So
near
después
ovat
ին
title
see
norte
##ії
cual
##su
##ць
کرد
Liga
1886
koje
old
often
tem
Iran
different
##нда
##rie
Windows
jej
1885
très
ako
##kom
venne
##sel
März
Harry
թվականին
Mr
индексаш
##נים
Verlag
##ona
tanto
##mas
dar
##lichen
1894
##one
växer
player
information
##ade
president
nước
Department
##ський
down
Little
Arts
##ської
Portugal
gada
או
##ция
segundo
Di
##사
leta
nas
буйынса
بر
##ға
##ák
Power
##line
sen
##van
position
temporada
میشود
Research
1893
##ft
live
Meyer
##cha
##어
Jr
1892
который
##dd
groupe
role
Blue
isang
##cions
##кі
what
има
##net
ich
fins
qual
Sciences
1891
làm
##ais
##eur
omgivningarna
VII
##ça
order
Israel
François
##цы
puede
نام
Francia
##aren
web
это
car
خود
late
tout
انگریزی
##ey
hoa
##ira
##их
bet
described
Deutschland
без
##uk
Русия
poi
किया
подацима
Spesies
нийса
##lin
career
består
grand
##ore
heute
Men
##ج
you
Dans
##ց
климат
##ena
лелаш
##W
##ча
##ков
Global
Durante
##ային
także
##ise
åt
Teil
تا
poder
sunt
sekä
##vu
født
jak
##est
vattendrag
eran
1888
tu
dann
110
XVIII
moved
##ika
##rn
Joe
nelle
##uje
plan
durant
gemeente
Green
Lo
gadā
Universität
Adam
Good
شده
Els
може
fel
##zu
më
hai
##ят
були
Wilson
##lər
volta
make
XVI
ने
spesies
आहे
##uri
grandes
studio
##ੀ
осіб
##able
##ор
Co
hvor
##ী
caso
plusieurs
presidente
##ক
Creek
более
aastal
Manuel
##sis
##се
monde
ez
tipo
Ed
sans
##ité
##ná
која
عدد
glesbefolkat
الذي
సమీప
again
Nova
IUCN
##ним
period
##vel
##een
są
erste
ihm
##ali
Arthur
##ring
##ves
mundo
Instituto
##ина
##α
جو
música
##ді
south
support
Bay
väster
lại
##ses
Copa
Chris
iko
##nın
##ال
nordväst
##ges
##ам
kun
هذه
Bill
avril
quatre
Western
jorden
Prema
але
##ard
até
Jackson
way
Afrika
much
ho
Gemeinde
sitt
vum
##ente
ils
##న
Song
человек
लिए
power
##ित
##ں
Eine
##ih
##ín
دا
women
gant
model
konnte
father
musical
##ham
número
Decock
thời
Didžiulis
##ende
##ע
Abucay
وی
ਦਾ
mismo
##tra
##ž
Au
Serie
##ության
##ncia
similar
Two
house
Law
##lia
Chile
así
हो
##ps
html
gia
fois
##лар
ary
##eri
##য়
Her
##ès
హెక్టార్లు
##ಿ
между
1878
##ша
##rea
##лық
berg
Series
Mae
Johnson
Names
sulla
کو
established
even
محمد
об
1883
maj
три
These
##ées
động
law
vagy
##лы
Li
##ati
kuperad
він
article
États
##sh
nhà
##ი
má
##ds
miejsce
Mike
Platz
Gran
Michel
##ix
##tic
yılında
level
1887
##ಲ್ಲಿ
Kirche
під
##ის
anderen
cũng
samhälle
भी
##ներ
Thompson
haben
عليه
##も
##ев
mutta
##nom
face
fler
Giovanni
Cette
Chinese
München
far
##ల
##cije
Ben
Register
##ì
Long
Steve
který
Närmaste
##ami
##ња
##ula
suite
##ide
norr
##це
##tos
vil
##ación
##ee
##ala
место
Philip
##ры
##ons
им
among
hier
##cí
##cs
games
nära
করে
opera
1860
cap
Ce
##tà
##è
Media
##ły
Dit
##ės
që
nhất
Geraadpleegd
Office
##met
##ಯ
style
Sud
كانت
community
circa
Wikimedia
sådana
##het
##ната
Paulo
tudi
##op
memiliki
sempre
##tik
1884
##ام
##ът
##fa
fino
##nza
##via
Heinrich
##하여
full
оьрс
dapat
##وں
##yn
deel
syahan
using
came
Force
זה
##mos
##ford
xã
130
##ба
##ше
inwoners
##ком
lebih
foram
##cher
##ism
written
Taylor
kot
jämfört
ganska
ovanligt
##issa
development
##ç
construction
##field
natural
sai
により
gan
##ան
является
Februar
list
php
historia
weer
##ss
ilk
població
1848
debut
1882
1881
##ના
nebo
##ները
juin
stata
##स
produced
##tis
fine
muy
##اں
kasarangang
##ici
Lord
##된
قرار
které
centrala
förekomst
went
genomsnittlig
right
quale
Show
next
аз
Signifikant
##heid
lub
modern
started
##ল
із
##ил
become
стал
Russian
avait
times
##ने
famille
també
Columbia
##nan
##rna
année
primeiro
case
##ਰ
##eg
tous
##им
##urs
##ым
Russell
kepada
ru
min
##tat
real
área
против
Service
Anne
Are
##cija
tema
στις
##tura
ஒரு
Para
هذا
##ous
який
students
ihrer
##ell
##ados
През
bereits
given
avoir
Une
1st
1871
än
Roger
lain
реестры
##ës
##ο
Ali
##ел
##po
Billboard
nordost
##ши
married
यह
hiện
##mus
UEFA
janvier
uz
zituzten
##rer
Bank
marca
##ції
Women
##ता
##nn
Kim
material
##ние
##ত
encuentra
mesmo
900
##mes
various
января
akan
##nim
average
##tă
dins
Your
саны
Azərbaycan
äbinon
yra
fire
septembre
Վերցված
Plants
##ingen
##ию
##ese
##ско
Year
шп
round
##ské
ба
Российн
Otto
take
website
років
##že
head
כי
##ù
##bra
##ф
Bob
##cio
gov
##եր
nin
origine
secondo
morte
súa
dort
astéroid
##за
let
class
junto
Федерацин
##ht
##ral
##ți
persones
##ӣ
Inc
hay
saison
také
Ohio
octobre
1861
samt
Henri
те
них
kumbang
Lietuvos
story
సంఖ్య
Мексику
ihn
ac
ഒരു
حيث
1864
Malaysia
tussen
că
##되었다
ging
1857
1879
##én
##ًا
Virginia
zuten
modo
##נו
време
жылы
##tica
##yi
Empire
##vé
##יים
Entre
That
##би
1800
##nego
##ket
plu
##ం
##eren
1876
Jahrhundert
Up
altres
fer
Wien
##llo
Victoria
són
without
date
##ले
Esta
мен
Florida
دو
equipo
##िक
yo
siglo
huvudsakligen
tal
während
having
##ده
Reference
który
Republic
Seine
Boston
design
election
все
sia
első
##ismo
Special
beiden
##ungen
##ல்
bahin
##tz
että
mer
cerca
altri
##си
состав
language
padre
Queen
punto
dai
FIFA
store
VIII
nhiều
##iem
först
один
##ют
Program
short
pop
##ो
term
##માં
только
contro
##hu
##bre
bäldoti
lifayelas
Foi
##ң
forces
Alfred
Ottawa
సౌకర్యం
##rte
##ної
west
political
download
Francis
##ero
Ha
##igen
tarafından
katika
Ma
created
können
Francesco
##ement
Tony
segunda
division
Franz
около
Unis
##gang
nuo
ذلك
söder
Lewis
miêu
##اد
##ną
##bus
##자
##ĕ
##ਨ
있는
##ਾ
Een
##bel
oficial
vie
Old
cc
ένα
1877
titre
##rin
##nı
##тар
autre
momento
suoi
##ili
ara
ft
juillet
##los
1873
1863
##ви
1810
etxek
था
metal
Je
1875
nr
##ila
however
Book
ihr
phát
1633
города
という
##ため
##ging
##ನ
Des
##idad
Commons
континенталан
1865
programa
ਨੂੰ
Natural
##nosti
##erd
##ff
1867
Frantsesez
skulle
few
mellom
##ля
east
Digital
uso
Diese
communes
André
##ೆ
##א
stesso
##sı
##ét
eren
African
naselju
##म
Sky
века
##vis
##ram
México
Japanese
bộ
160
pays
aos
##dia
professor
announced
arte
manera
República
worked
##rar
확인함
1868
##ните
bez
##ede
##ый
Stephen
Patrick
sei
Saison
primeira
Ray
ima
##че
##य
Villa
##қ
half
daha
لا
войны
1850
##ында
##iv
лараран
Some
микрохаамаш
Toppen
Google
##ën
##장
##ong
XIII
online
##ー
Robinson
Taxonomic
bil
Home
кӀошт
##თ
Universidad
Costa
##iti
##ando
Miguel
dy
##ని
seperti
Johannes
hành
bäldotü
180
##ト
joined
წლის
eit
##jas
##if
Region
project
##ғы
1500
##rus
See
economic
structure
Romania
##iques
Buenos
تے
dello
décembre
route
eo
ass
hanno
Nature
Consultáu
field
gibt
##ləri
1866
között
1872
SS
erhielt
XVII
1859
سنة
équipe
theo
vita
vir
wrote
området
vi
sos
140
Ia
Aires
free
Airport
شهر
notamment
##երի
##Z
Sun
Act
##nym
Rainfall
##ding
beste
updated
seorang
##த்
она
Brian
1869
##ern
##heim
него
ulan
##las
général
##ett
##nika
sub
août
1862
days
lieu
Geschichte
##jon
Georg
##ña
##nas
Wikipedia
##ay
Andrew
##elle
diesem
tarde
Books
również
Lady
iš
maart
Jawa
works
##ness
Mario
actual
##ani
ہیں
God
אך
Amsterdam
##ं
Consultado
قبل
Pro
Fernando
Canadian
Studies
race
որ
Bad
которые
より
returned
Kūh
nije
1874
aquest
дәүләт
Oscar
quien
bol
party
##시
military
status
سی
であり
fi
waar
aj
125
##யில்
Seit
XIV
przy
موقع
professional
enpresak
Online
Eric
##ella
municipio
##ರ
Game
となる
sydväst
month
kde
actor
##ու
##tre
Enero
##ु
##ника
release
##nts
Za
##lus
máis
Institut
founded
##tive
ही
Londres
octubre
##cja
##dad
sendo
Guide
open
##lli
salah
Fue
Hot
Publishing
##ék
##ký
run
Korea
XII
XV
Regie
Court
##nus
##한다
がある
tiempo
2nd
భూమి
lead
research
Dictionary
##dır
EP
এই
dessen
Meksiku
##owy
Ludwig
कि
##uta
мая
https
населення
##ги
101
##து
win
барамера
även
possible
však
шеран
faire
##way
##ться
##nica
##bach
color
Wales
Oslo
##vas
regionen
עד
##ಕ
Point
##σε
Library
##هم
época
miles
##ве
نیز
pola
##owych
##게
homes
business
According
Mission
guerre
kanssa
Marco
civil
television
omkring
Jakarta
августа
hem
آمریکا
inte
Mundial
Elizabeth
##ன்
lost
Victor
nationale
nó
##টি
dag
Jim
human
Pour
Second
##erte
Auf
día
Prince
På
##ಗಳನ್ನು
forme
Mitglied
Entertainment
##tal
তিনি
##ae
##ń
denne
##owej
##ties
##ન
করেন
Como
church
française
ëd
action
##ál
##her
molto
##чи
visini
##zer
cours
##una
##iro
Après
secolo
шш
рус
まで
шийла
##xa
tỉnh
tant
eus
gab
magyar
hett
recorded
sede
together
superficie
##ové
كما
siendo
every
People
aveva
sydost
én
##tro
seguito
##ման
गया
rei
##り
Set
dette
Miss
Ta
anti
##illa
##्य
##ಗಳ
pertama
elected
Ford
stagione
##vá
leurs
района
##owe
Dan
Century
hade
erano
इस
kwa
estaven
Sam
ان
となった
##osa
##amente
##bles
они
után
##ген
empresa
continued
##원
films
Davis
جمعیت
dio
##ು
nouveau
##ط
Mount
##ವನ್ನು
considered
Wolfgang
##ній
zituen
making
chỉ
Station
στον
テレビ
menos
deutschen
Project
office
ok
živelo
شہر
platt
nadmorskoj
##скан
principale
Alan
track
भारत
##ű
ఒక
##ను
##ро
moment
##ется
Claude
##cus
episode
Be
bylo
yon
##יו
chi
Fort
roman
##ência
Carolina
jednak
việc
vai
body
##ला
stanovništva
##ori
При
IX
থেকে
##ור
##לה
province
política
Nueva
##bia
той
##ז
##ре
nın
##ными
example
nacional
Nr
##ские
Minister
##ação
Line
##ول
Estado
##ру
Most
##isk
Gold
bajo
Рәсәй
##rne
বারো
policy
quốc
él
יותר
edition
thị
একটি
encore
##jan
opened
ere
syn
Town
algoritmo
ti
##hin
wife
##ných
##nos
région
ότι
Professor
Valley
autor
##š
khác
##wan
campo
##ās
##кой
Model
kas
##վել
##ich
##мен
##fi
teams
##ман
stad
##ик
כל
kaominina
елга
##ins
##ré
dende
بتاريخ
##gar
event
##lui
До
Российской
##ille
thế
sinh
##대
news
##lige
Việt
Auch
Golden
этого
##ске
##يا
performance
##lse
##san
Cruz
Spisak
Carlo
prema
Go
мм
nam
Enrique
moins
eu
poco
##ful
DC
Jersey
geographical
Bernard
Zealand
joylashgan
Sur
ద్వారా
Naselje
Corporation
##feld
##ін
active
bug
bola
##nost
chiến
yw
##haus
##מים
##ntes
Stone
sama
Sydney
outros
##يد
##רה
iku
där
Susan
##ći
special
Austria
ora
Committee
Namen
sehr
##uar
Britannica
био
による
##set
sjö
Other
марта
Federal
result
##del
##ما
##bb
##lio
##isme
put
تم
Games
Development
histoire
Out
février
μια
وقد
questa
altre
##kel
Princeton
##ण
jälkeen
Familie
tego
Who
qua
Um
105
##ag
Roy
tätbefolkat
##해
Girl
##ович
##ct
després
dva
Климат
##kou
zusammen
periodo
##ની
1830
If
წელს
tiếng
##ս
Post
oko
sent
##ments
estat
areas
bahasa
իր
flere
##zie
Trung
##ión
этом
pode
##isi
Москваца
##dal
##وا
cùng
damit
части
Foundation
Ernst
Eesti
Sin
mange
appeared
реки
##nog
Space
##ose
##ија
Factbook
hag
də
peu
##йн
##ી
Kong
##ые
available
kada
Government
##nar
soit
##ões
##ces
further
lag
yari
front
##up
private
Rome
##ების
##יות
していた
села
Pacific
##ait
##այի
While
##fe
تاریخینده
stand
менен
نسمة
йовха
Stockholm
san
growth
عبد
##ую
Master
tard
##она
Miller
working
Latin
keine
Für
##ություն
Кеп
##ана
##ությունը
common
living
##ții
XI
developed
formed
##вання
հետ
august
others
##اب
secara
Web
Ireland
##oi
##oni
##ante
título
Hollywood
ligne
##gas
estaba
##부
Public
Kingdom
Sverige
##sson
labon
##ño
##دة
##ean
##ая
Story
lu
zurück
район
##ło
Spanish
##ння
zif
Russia
Diego
##یت
dago
embargo
##υ
census
novel
blir
##ਕ
còn
nebula
खः
##ское
##mar
##ција
ise
veel
##сті
mondiale
delstaten
##ズ
Bruce
study
بیر
##ме
##ү
била
ialah
dinhi
nhân
##نا
Review
anaa
bilo
Он
tako
1840
mint
##Y
করা
##ència
Magnoliopsida
dentro
ки
декабря
المتحدة
δεν
Hymenoptera
##pus
nafar
Order
eng
Premier
##rono
متر
կազմում
través
entry
Va
##eta
##る
Pennsylvania
Islam
Alex
science
Yn
official
##nta
aquesta
Port
##kat
##К
град
negara
young
στα
Sea
Premio
Board
##ția
Budapest
militar
##še
бар
##ҳои
##ム
Anthony
##and
kad
Lepidoptera
Quốc
##ggio
##чно
mycket
##wood
obefolkad
patedik
##ения
addition
himself
tuvo
##ete
##zia
Part
državi
এর
##dores
great
##ında
2009an
signed
độ
ın
gruppo
although
Navy
##ено
июля
##oa
Network
Movie
##hen
bahwa
##ված
hơn
mare
##С
furono
recensement
never
została
how
##ті
América
##ська
##ા
##적
Regional
##し
бил
gradova
interior
tras
sử
devient
Battle
deren
Last
って
##ган
Milano
че
cultural
102
should
Can
már
Janeiro
سطح
Ӏа
اطلع
##ють
הייתה
otras
Samuel
Family
posto
bija
##ர்
két
##ट
##sku
topon
##isen
Geonames
##ία
कथं
##ette
##할
maior
Biography
Ort
само
videtü
lunetü
##čno
##ರು
lett
への
##fer
alta
NBA
పైబడిన
##ған
##tie
Douglas
neu
तथा
##회
Its
##ivo
court
##면
##jí
parti
Sohn
##상
celui
Rose
bekannt
##ao
map
1858
wieku
playing
Fox
##dá
составе
Main
disco
##ം
ihren
staat
personas
francés
Non
csak
##dt
section
##зи
కూడా
appointed
##nou
Gordon
ente
park
distrito
##ö
collection
##werk
tutti
Civil
once
##get
Disney
která
pendant
##ši
2007an
##دا
Monte
zm
ant
tam
две
համար
##ಾ
Illinois
hon
Final
Du
##ary
personal
##ään
##מן
xuất
sea
idea
##յան
##sä
municipal
طرفیندن
אשר
thứ
talet
Республики
Commission
away
education
selon
##ora
hit
masa
Roberto
filme
##ych
##dra
Georges
Santo
##lag
Deze
##min
Summer
##ск
##ך
##vano
##ера
How
havde
##يات
bzw
Country
годах
FishBase
exemple
película
##pt
territorio
##tä
##жи
##დ
##ків
befindet
current
standard
июня
اک
must
donc
komt
##less
によって
vs
Major
cas
##iya
majd
350
zunächst
Video
##чки
##my
cuenta
##ই
nich
allem
##드
##ম
##zza
quella
punkt
Trade
Anderson
##ans
##ká
##ার
francesa
זו
Norte
leader
##če
dois
fils
particular
enw
##ör
Hamburg
Microsoft
##cos
##tions
##ր
##ść
định
##vet
politique
сентября
force
ohne
mil
police
##ി
متحدہ
può
октября
kasadpan
fast
ישראל
person
##ין
së
black
ese
Integrated
río
đồng
pot
Pristupljeno
1856
lifayels
hình
dua
proceni
gitas
ред
після
była
##тан
Sport
Education
##owa
##ени
mest
Leipzig
Dopo
polo
##व
##ého
##رة
1854
Report
classification
Casa
kilometers
Hong
return
##ൽ
##don
diverse
##ści
Howard
##ē
kang
suas
##nto
##ير
yer
così
character
Deutschen
##ската
Heart
besar
daerah
##عة
arī
File
Allen
though
##リー
##zh
Like
##ર
does
##ela
taken
йылға
Internacional
Plant
свою
principalmente
104
##чка
cinco
##па
##pan
Southern
ella
aver
Massachusetts
ја
##త
aunque
my
ham
Ltd
across
இந்த
född
weitere
जो
Mountain
especie
との
process
Three
nakon
##tto
یارانمیش
##į
##ზე
Nations
Campeonato
bere
start
##ama
ایشلدنلری
1849
مقالهسیندن
opp
##ola
gdzie
ویکیپدیاسینین
گؤتورولوبدور
chef
یوْخلانیلیبدیر
Theatre
español
culture
square
حتى
hy
pueden
وفي
##या
fase
diversos
##ast
##det
situada
books
banyak
tan
##μα
##ій
arasında
stor
##ava
sine
samo
##트
aby
##tek
##lari
##iste
mal
##kar
letech
##ota
##نی
bản
være
##дан
##ები
good
Joan
عنوان
tid
viên
inn
##cion
Planet
##ಗೆ
partido
sang
Concise
geen
##ário
Anh
vardır
début
##্য
Village
help
##ân
っている
##ய
##い
huyện
Colombia
1855
##կ
Frankfurt
deur
guitar
dies
hand
##һы
##ք
##η
Georgia
##ssä
रूप
dụng
##ика
Volume
##mis
##rsi
festival
daughter
Christopher
zone
##ે
source
##ön
nuevo
апреля
##iin
genre
にも
Marc
округу
Toronto
motor
##স
które
fick
ulohan
##iden
white
homme
település
##нь
її
Catherine
Nahimutang
##º
Québec
klimatzonen
vùng
##ką
##во
##лары
Soviet
тому
##ץ
##క
Business
performed
когда
events
##ته
Greek
थासय्
##ī
todas
ada
maja
##ൻ
mother
وجود
##нан
код
نوں
klub
##נות
families
жер
papel
##에는
minutes
kawasan
less
1852
Tokyo
стала
години
cause
presente
currently
saveznoj
ریاستہائے
ռուս
##ლი
Tim
äbinons
út
dira
tên
Mexican
klima
мира
پس
області
kod
get
##cję
gen
Norman
کہ
beberapa
3000
terra
sold
ಒಂದು
lei
##sto
cao
##iga
##vy
drama
antara
تحت
alcuni
course
Manchester
фр
הם
Northern
deutscher
##న్
##ない
##ить
##wał
энциклопедия
nama
415
3월
gave
largest
##tin
stage
située
##ση
cuatro
##ije
##స్
##sin
Magazine
Moore
features
সালে
kunne
Kevin
upon
begann
Will
##ō
##కు
Федерации
Boy
kui
##ض
##적인
##ries
Deutsche
Harper
##art
mayo
ancora
##tzen
países
##ール
üçün
##ping
##का
Stanley
bekend
alto
Minor
##vos
Kalkulado
##ಸ್
wilayah
Philippe
sydöstra
170
Hotel
nouvelle
##чна
##gia
उत्तराखण्ड
##мі
##J
##stand
##ших
фон
आणि
شهرستان
##ਲ
##aria
जाता
Human
italiana
##ție
État
وهو
pristupljeno
Walker
includes
##ott
خلال
##ری
Pakistan
magazine
##վում
ebenfalls
Middle
##jąc
obras
ani
##ningen
directed
Gabriel
både
tenía
##ست
##ità
ноября
change
grad
oa
भारतया
songs
seconda
FM
##dar
##သည်
Omgivningarna
##מי
##ラ
##ias
##ული
Death
##lta
##тер
##ص
##hus
##ா
Catholic
Численность
Hoa
Michigan
ইউনিয়ন
##vin
تعداد
Director
Universal
##מות
hacia
kommun
road
andra
##imo
sale
##بة
##nne
ouest
sé
และ
quello
sense
которых
Finland
ins
alt
##ੇ
cultura
kako
Οι
##ється
statunitense
Sports
ditu
##its
điểm
quali
یکی
diferentes
designed
Burton
##či
Gary
DNA
varios
##دی
##port
Bell
##ала
selbst
##ierte
##asi
しかし
neue
##гу
##ish
уже
También
بخش
quelques
m²
##ста
Ze
té
##ség
Small
1851
text
mà
##heit
ordre
##ща
ona
lange
وچ
Jane
tự
Johnny
##द
103
ger
months
originally
issue
gol
##fen
Maurice
##dom
##house
##ню
phía
1853
sol
famiglia
libro
parts
##گ
1ᵉʳ
hebben
shows
tae
##ному
ensemble
##wie
بالإنجليزية
Coppa
depois
##leg
7th
celle
maggio
settembre
##tore
##ios
Москва
генерал
##פה
Since
##ો
مثل
##yo
Ab
Est
других
vị
direction
##یی
range
Beach
altra
での
cách
quindi
mid
mod
##ья
usa
Ռուսաստանի
##din
##তে
##ský
grup
league
##ient
##ował
##ial
format
apenas
ад
katalog
Irish
cuộc
low
digunakan
##ların
##king
center
Ivan
vu
tri
гг
église
##tel
Hitler
барамехь
tegen
regione
década
##bile
шыв
##că
último
neuen
groups
climate
ги
toda
Denne
seen
##čka
мәліметтер
anderem
nova
##мы
##ली
1846
sammen
Way
nhưng
giugno
Province
Kỳ
Cross
наук
Для
בית
regular
đội
anterior
##tum
Vuonna
##ñ
##erde
Arten
##liga
Giuseppe
115
roi
Light
##ови
##mia
##ší
bởi
aantal
ba
followed
planet
##িক
чтобы
Venezuela
ku
##ర్
quanto
##ు
##tur
##lé
Centro
coach
classe
##gs
Over
##ev
Johan
lập
కళాశాల
##lon
##али
##red
##ום
##ド
##ٹ
departamento
##jes
##ngen
disse
##menti
stycznia
Norge
training
phải
##ński
це
##ына
Historia
##ngan
Name
septiembre
lớn
ու
##տ
Mar
##ా
vocals
##երը
denen
brother
Clark
cánh
##ности
##tori
taun
орналасқан
Mais
##یر
##зе
Josef
Fall
##τα
##か
Encyclopædia
statt
##ров
##ğı
други
годы
Suomen
1847
julio
medio
gennaio
الله
light
telt
seven
##ек
numero
García
biztanle
##mit
##гі
##gh
1815
lado
##oval
##ू
pels
##usi
episodio
completed
século
âge
Although
karena
Kelly
första
##lijk
double
jeden
##ría
##rak
##cal
##ستان
Alberto
##hn
##лык
##llä
dabei
##ई
##て
##zar
riktning
##like
få
Milan
mientras
Meter
Loire
##ит
##ო
हे
giới
lenghe
dalle
220
Marcus
Institution
##yon
111
gdje
Macmillan
Ontario
januar
uns
Jahrhunderts
importantes
Alpes
terme
Jesus
án
Hermann
##iz
Dance
segle
थी
bad
test
центр
февраля
pag
lista
107
108
Hamilton
##oli
часть
##vät
París
size
территории
zou
##gio
superior
cargo
senere
mise
ISO
##ου
най
##well
pedig
cinq
ante
negli
Frantziako
##ి
szerint
junio
##bau
permet
featured
Сан
killed
lượng
##zeit
Popis
Ann
##ions
senza
presenta
Stand
habagatan
governo
##ības
##ція
ст
luglio
ottobre
##수
##owego
sue
Billy
dir
کر
истории
Mann
Wild
semi
volume
ثم
cara
とは
tej
##smo
panjang
nahm
##ث
usually
countries
##קה
spielte
##rik
##ê
throughout
1845
daripada
##ात
##же
##ским
##tico
Năm
bod
Back
##wi
Ferdinand
desa
పాఠశాల
père
Health
##lde
Provincia
edición
360
moderne
ciutat
##oon
районе
Vietnam
bagi
verso
reported
étant
Hugo
More
fikk
##ից
lokala
carrera
##يل
1842
##ec
može
であった
století
tidligere
phần
##ల్
ibabaw
Ուկրաինայի
Nelson
##zio
alguns
Technology
годзе
immer
Puerto
trouve
##イ
##uit
finished
Del
##ئی
page
##yan
към
##ían
Philadelphia
remained
несколько
ਸੀ
##car
Congress
Edition
##ду
død
enero
ביותר
период
bằng
jonka
unos
dicembre
##اس
იყო
##скую
##eo
amihanan
##น
trở
oro
Field
surface
Down
membres
فہرست
cum
schools
Barbara
Fire
asli
##ades
##ನ್
##ವು
##ální
240
leading
ਇੱਕ
ní
players
sumala
##ture
transport
Hospital
belödanis
##П
khu
según
##ове
които
Britain
sotto
norsk
platsen
##ków
están
above
##gel
Not
kommunen
software
obyvateľov
##נית
Studio
##idade
1844
Stuttgart
Sul
##dem
époque
ABC
ప్రభుత్వ
##ği
sites
Населення
DJ
byly
Nederland
това
vuoden
Alice
mondo
biasonyo
close
##wych
molt
cover
##ones
##ap
đại
ещё
Dave
##xe
membre
Titel
última
ainda
هم
individual
##hed
wenn
college
106
##miento
Moon
может
##ša
geslacht
било
gas
près
##uan
##adas
foar
podczas
میکند
Sri
##ων
edo
Andrea
før
debido
ਤੋਂ
##sy
either
##tud
contract
período
prin
##лу
##jem
kemudian
##dade
##ule
##sky
hợp
week
##shi
##mal
estos
Free
više
região
cả
Nick
Directory
##ին
112
già
##ony
##ವಾಗಿ
вид
höjddata
begin
président
francese
love
한다
Near
قد
గ్రామానికి
##kte
sistem
SAD
##ρ
Jazz
1814
Spain
awarded
dernier
یہ
##وی
ਹਨ
##ében
آنها
jeung
gewann
muito
##רים
##لی
##ச்
##انی
högst
elles
##ু
aircraft
1837
ellos
دیگر
drie
Jorge
##лен
век
tika
##дар
aprile
адам
Vincent
##tia
でも
Leben
##ха
bay
diciembre
esa
mezi
trường
##skiego
Val
##цию
कर
Dark
Während
kā
128
able
Lawrence
space
##ech
chez
Dat
##ult
Rudolf
simple
##stein
Në
साथ
которой
még
rôle
##nden
já
saat
termine
##bes
tenia
##ô
##sed
##fall
1839
eight
Theater
specie
phân
Jimmy
Nederlandse
syns
Zu
##قة
##wski
Et
клуб
##kých
Adolf
département
##ців
Orthoptera
##rse
##ının
##ение
Anton
situé
chức
Med
след
involved
##uto
##מו
Hun
##ał
bili
##skim
##lah
ҺӨ
1834
करने
niveau
frente
About
##int
Polski
kadar
Single
Sherman
hab
مربع
primordial
noviembre
1835
agua
##ches
ogni
waard
##ً
день
Code
##mon
Missouri
Nobel
Baden
madre
استان
región
çok
esas
జిల్లా
added
הראשון
interno
##ਾਂ
bin
federal
##rta
##وم
109
##ving
least
##rk
mukaan
või
Township
Charlie
pol
nuovo
Minnesota
##dur
получил
kiradi
حسب
Eastern
##ort
##itat
estava
tamién
states
##nh
много
persona
##ини
##ських
урнашкан
##주
Khan
trước
##oja
Systema
eventually
நவம்பர்
gang
wegen
اتے
كل
ek
שם
Come
Barat
द्वारा
gobierno
fram
största
attack
##å
pertsona
formation
##ран
1838
porque
Dead
##će
##ود
Menschen
##ось
##pes
PC
استفاده
##sing
Guy
##და
میلادی
એક
който
schon
135
horisonten
Jordan
12월
##bor
##nio
##લ
היו
غير
नं
Era
##шы
##led
Ana
listopada
##ors
##ना
##gue
related
##сі
kali
##gos
めた
дека
कुल
című
Blues
điều
už
metres
gồm
Jonathan
trung
Later
nivel
##film
especies
##ères
giiniton
storia
نسبة
##ming
##tle
habitatges
Porto
##ová
artist
Ten
თარიღი
artean
Junior
kinabugnawan
kinainitan
##су
kwam
##dre
Pape
##ab
##nice
Mas
Conference
hội
gehörte
tarkibiga
##èt
би
plant
##ো
Boys
##kov
Ook
godina
1843
Donald
##kas
##나
##сон
##nna
яка
Nicolas
anak
##rice
अभिगमन
մարդ
##ак
đoàn
jü
אל
кои
gibi
regional
degree
##ಲ್
##ット
యొక్క
##ár
##ance
Trong
##ες
##ク
4월
opštini
Ryan
نسخة
նաև
kota
student
എന്ന
లేదు
##bin
կայքում
při
##ių
##ách
replaced
წაკითხვის
cases
##ай
κατά
##ший
jaren
Management
είχε
rằng
muerte
września
##eti
provided
ویکیپیڈیا
Jacob
rok
##אי
svoje
##nder
##خ
tích
1831
##чу
huet
##тов
grupos
rue
##تر
existe
marinespecies
após
которая
unit
wis
Amt
sondern
genannt
Course
Río
Gruppe
Duke
одного
##iske
др
untuak
centrale
##రు
##مة
sta
##iche
jossa
##sal
medal
Según
など
SIMBAD
eau
pösods
Sürfat
läs
otra
##ər
см
winning
vice
छगू
kraju
erstmals
Tod
Sarah
chủ
Asteroid
##ból
sera
כמו
casi
##tó
##aire
proti
Channel
##wany
byen
Ele
Magyar
étaient
Indiana
prvi
titolo
self
##צה
hos
Desde
fünf
revista
کشور
Terra
##cho
jezik
##سی
##وس
cơ
##чен
##್
Ian
##ати
independent
Tropical
goal
##pp
też
##ized
1812
thường
trình
1836
Dette
editor
своей
echter
##rit
##ül
ul
##wej
##ow
область
nieuwe
##정
1644
producer
Levy
dones
##ила
роль
vista
nature
खने
presso
га
##전
gjennom
Reino
certain
több
competition
1841
star
##од
normal
estar
117
Maydoni
группы
##dorf
Stadium
hänen
går
участие
έχει
planta
nhận
kommune
zde
internacional
anu
времени
Franco
sidlakan
##kim
Winter
##var
algunos
10월
##డు
##maan
##ovi
होता
aphia
taxdetails
##ун
giải
Museo
##יר
##שה
##ić
Bruno
190
deuxième
##over
Harris
studies
praefecturae
Rosa
grote
western
став
రహదారి
##ийн
isə
compte
##vad
França
Com
なお
##ара
too
squadra
Keith
##amento
##ције
##ец
mediana
Ross
rights
امریکا
##jski
otro
atas
##ční
Greenwood
##lat
León
camp
सन्
sulod
René
einige
որը
gehört
clubs
தமிழ்நாடு
1600
Các
future
zoals
##ként
siden
seme
sabuah
##ző
450
ver
entonces
ਤੇ
ensuite
##تی
##az
Gesellschaft
##аў
##ania
##ਤ
##ým
Chief
экология
lên
##לים
##ことが
Kansas
etapa
える
fort
Atlantic
##py
previous
##لة
7월
Harvard
little
##uma
Railway
##цев
mao
כאשר
estilo
1832
Girls
##kého
##দের
Apollo
##hr
##명
1833
које
tweede
female
Pays
##ská
Brazil
samme
etxebizitza
systems
##elt
##ден
їх
##logia
Four
Landkreis
insieme
1820
End
ancien
##ји
##ario
estadounidense
Germania
Frau
či
febbraio
تاریخ
MTV
Third
oma
בו
नहीं
##לי
##ення
##чних
##čke
Jason
Haus
Timur
Teatro
3rd
Polsce
Andy
uk
hele
thống
##цу
sẽ
##ute
Estadística
Benjamin
gmina
Renaissance
##bio
febrero
##llen
##vanje
આવેલા
##eno
trat
qiladi
##нд
##ef
đêm
##sus
##pis
אחד
##ակ
##wo
wel
Head
##eu
##ത്തിൽ
oltre
##ires
Gwefan
Opera
Salvador
##き
Ils
Machine
iar
Kabupaten
Segunda
environ
بعض
مشارکین
##А
##чы
لم
indrindra
phố
##ře
##ί
двух
##되어
novo
##ischer
anul
##У
tempat
Herbert
zbog
rather
הברית
Baker
##schaft
##から
pay
তার
És
provide
Islands
kecamatan
port
Oliver
scène
publication
##или
whose
rol
nombreux
##вали
##ats
Leo
tien
kết
Fred
230
##ym
pdf
1793
ще
##эн
рік
đi
##ase
##čne
##ped
Sierra
Asian
Scotland
αλλά
night
kleine
nummer
placed
затем
##och
##ої
canal
мемлекеттік
ground
sản
Алматы
dues
राज्य
Mac
fourth
توسط
toute
largo
við
##した
digital
Erik
##ća
Form
Graham
ему
minister
##ən
городских
має
direct
manager
ayant
Kreis
don
gjorde
##च
genom
ag
además
Lincoln
Sein
##aux
jour
tiếp
Collins
##ций
versión
generale
عشر
##ческой
Adams
bass
bilan
forte
9월
член
Александр
##ата
namn
code
river
fatto
bezeichnet
123
##တွင်
seines
první
déi
października
udalerrian
Matt
But
114
##skog
میباشد
Wright
##ics
label
czerwca
Songs
##아
Hy
にある
##ward
всех
113
##цыі
ami
##zó
##dio
grudnia
hoặc
##weg
##rii
tog
##ней
success
##ந்த
##ța
health
Republik
##кий
kimi
##ნის
яких
##ол
ISSN
owned
Body
##സ്
nueva
três
Prize
quattro
##umi
له
##ned
##적으로
oan
sú
##xo
##gal
##íu
carrière
HMS
review
loại
mission
Tag
author
##ік
##лись
introduced
ever
##oma
1821
Sekolah
##گاه
upp
ran
arts
americano
بھی
##wer
##rà
вместе
Після
750
##ük
##hl
corpo
Fu
##ento
erst
محفوظة
##logie
##ški
densidad
ուկր
Castle
مدينة
diesen
stated
tienen
էին
porte
seis
себе
Baby
ενώ
rund
##ე
taona
##нт
##lles
Champion
Dipterorum
##ása
mois
Partido
##פות
Justice
reached
млн
Pháp
orbit
sedan
##ides
Nazionale
dr
116
Libraries
după
##lte
Arizona
##ность
Another
će
bisa
Welt
tế
##ând
februar
norra
##தி
##ह
Colorado
saw
##gy
Efter
##מת
Just
##ое
siguiente
Jewish
División
Now
almost
movement
artista
führte
Regiment
составляет
espèce
gebied
Palgrave
210
Frederick
Morgan
aasta
sống
##skih
##ets
##성
legal
##bal
Gustav
број
tallet
Let
##ır
##isten
agli
rehiyon
وهي
management
Sainte
находится
##פים
petit
behind
southern
Dalam
Musik
troch
Today
Morris
5월
units
качестве
##kog
Revolution
##ников
letzten
الولايات
mempunyai
##ક
basis
osób
Liste
network
också
Historical
##нето
##њу
Robin
##dus
##igt
skal
maakt
chiesa
##ёт
מספר
Charlotte
Studios
jordbruksmark
proprio
zegoen
Selected
neben
UNESCO
##구
فیلم
##λ
Pablo
Bayern
##وب
sve
##ते
##лся
##בה
1월
później
##dig
Guinea
##ਣ
Object
große
нем
ਨੇ
costa
Apple
complex
Jeff
кој
lực
nagy
beide
Santos
##inin
##ður
Cuba
Gallery
##sme
##rde
egyik
quasi
obce
scored
1200
Express
cantante
жизни
cel
כך
##нии
Straße
##und
экз
Many
వ్యవస్థ
##ského
epi
Corps
##ż
Wang
##hausen
Daily
6월
##жа
mat
dieses
раз
Rusia
##iai
König
անգլ
CIA
Edwards
Championships
Christmas
Contemporary
faritr
Luigi
##jú
decided
Danmark
##sz
վրա
निसें
##ament
steht
##۰
તેમ
##्या
3D
profesor
1825
length
pak
##ities
Kilometer
hui
municipality
8월
Mars
одним
інших
parents
##рі
biasanya
feet
उत्तर
##pin
##נת
diễn
tinha
##ά
besteht
##ació
période
influence
tale
Remix
ship
souvent
lipca
oldu
market
Fritz
conditions
Dream
##یا
großen
права
södra
zweiten
1700
campaign
във
তারিখ
Raymond
brought
##ání
##غ
successful
commercial
##wane
rest
jeu
northern
Andreas
Paolo
Kiba
ob
Ces
Survey
##라
##кан
##า
##ול
##သော
Medal
##ță
custodian
João
среди
provincie
##sar
island
##ница
##lang
Vilnius
людей
meses
##군
canción
duas
tutto
doit
Arab
##ця
need
produce
இது
##fica
##ель
sierpnia
abitanti
Stati
soll
Doctor
reste
principales
సరఫరా
افراد
mans
county
ის
approximately
Age
público
##jų
οποία
##ča
tournament
luego
##ord
##ət
##aa
وكان
udalerri
##ლ
1829
Stefan
Durch
tetapi
שלו
##tiva
Đại
##ม
így
##ª
##sie
ole
Praha
kW
armée
##ज
##stan
##any
male
sector
121
ktorá
##το
AS
##ß
##kon
Meksiko
industry
Bridge
instead
##gne
Papa
gọi
stati
Sound
enpresa
Par
однако
5000
##ip
##dən
Cultural
turno
Champions
##dis
THE
##شت
1828
our
כדי
Captain
001
Ett
##ө
Place
altro
1806
##czne
##కి
mehrere
Bakı
popisu
##িত
11월
##פת
##kal
elements
стали
results
##sion
required
##jā
##kus
##רי
Orchestra
elevation
Memorial
aholi
Pietro
previously
político
czasie
##mat
##wyd
noin
##cida
122
calciatore
deutsche
américain
##ес
ua
##pu
especially
dagat
Stewart
diện
##דה
##gus
дел
Coast
##ತ
ihrem
ruolo
##jar
Amerikaanse
کیلومتر
##cer
##ன
Perancis
rapport
nyaéta
Laura
##দ
edificio
##bil
##out
118
город
род
##non
##teur
2월
LP
lý
Gemeinden
varias
##mm
Euro
figure
##cje
Sultan
##ction
traditional
##dı
Gray
هر
lalawigan
складу
feat
цього
##یل
Get
Đức
лат
राज्यया
below
##ος
##ának
hatten
##০
Однако
Coupe
Their
internationale
report
jazz
outside
writer
সংগ্রহের
campionato
дорад
##endo
Anfang
Обь
##քի
быў
Pop
##მა
Angel
##σαν
Steven
Санкт
گیا
basa
Muhammad
means
##み
Bishop
##èrent
аст
mayoría
Wrestling
которого
##esi
organization
##த்து
listed
olivat
itself
originale
Indonésia
Garden
міста
127
corps
##하게
##nju
ਇਸ
أكثر
honor
Ez
đối
##ются
behoort
lived
serta
Nella
Grant
Ao
##nel
##ib
deres
sometimes
svensk
kunnen
имени
##ät
##ical
##ande
menor
były
Société
było
есть
veces
outras
##ნი
Miami
primary
gouvernement
olduğu
Woman
быть
близько
arbeitete
জন্য
engelsk
Projektu
writing
##כה
менән
Kr
##eli
između
UCB
interest
##stvo
##०
voe
seves
musique
então
کیا
بلغ
Bull
##tivo
##부터
##lie
aki
##という
##ському
বা
##nal
única
departament
afin
YouTube
Forest
locuitori
Berg
kwietnia
##ione
##ró
rata
Rafael
dok
району
##ത്
która
Official
մասին
Folge
Route
liste
Бассейн
bit
nhiên
Jerry
seat
##یه
champion
така
östra
Republike
Dutch
Dom
changed
attended
istiqomat
fand
ইংরেজি
##ži
##ээ
Water
##pel
score
Marshall
##었다
drugi
figura
obec
GovPubs
##זה
Play
SM
##mba
periode
Collection
donne
torneo
Silva
##inde
amely
Catalunya
ultimo
plays
award
אותו
oeste
López
##ే
##제
nye
Design
Arnold
continue
Haute
ih
되었다
significa
tính
مارس
bizi
რომელიც
όπως
invece
ГӨ
minor
Sons
femme
Jon
##yer
EU
##כת
ул
##aja
vilket
##ude
FAQ
eeuw
##ева
jadi
##nk
##ρα
anglais
Mix
##хь
##च्या
train
Airlines
alebo
västra
##czy
buildings
đường
##erung
переписи
enn
##dat
##ಕ್ಕೆ
Pas
##овой
past
Gli
tạo
Melbourne
##ники
libre
##בר
##ologie
està
vụ
str
##jer
##ை
1802
##sos
teatro
bướm
थे
sollte
finales
cola
tuli
Dame
##има
bland
Tây
studierte
армии
épisode
Primera
ayisyen
död
126
במהלך
Area
аб
Kennedy
سن
vì
theory
##تا
Presidente
##ného
##eurs
museum
तिथि
Einwohner
toujours
##nici
mình
1824
Extragalactic
##य्
blant
dog
lingua
##pia
trova
بودهاست
González
conquest
ofte
senior
stal
allerdings
featuring
hizo
##ਮ
Geiger
issues
aller
##лер
Warner
Springer
اما
##chten
população
числе
280
find
Standard
145
##ає
soon
##ška
θα
kuin
mètres
nᵒ
##keit
##əsi
Sommer
Chart
##լ
роках
complete
মানুলেহা
##യിൽ
Poland
chaque
fjärilsart
Avenue
##hip
especial
geboren
##ದಲ್ಲಿ
1789
руск
그는
château
чи
##ein
1813
##erne
paper
##ക
Stars
Academia
nou
себя
уггаре
Köppen
##lly
view
Meksika
##ндә
##ual
होते
Wisconsin
1826
##پ
significant
runs
данным
##town
jours
Murray
Assembly
Monitoring
money
tijdens
##ոն
##אל
sólo
sport
Antoine
##ém
##gon
##worth
bronze
##zet
1818
яке
Uniti
AG
board
bang
##ndi
Families
##რი
administration
##tua
Lucas
124
آبادی
##ո
##ву
260
hommes
ieu
Arena
Olympic
porta
mes
ప్రాథమిక
singer
Larva
estas
đánh
INSEEren
##до
Gebiet
119
##our
tracks
Etter
beginning
##ён
##ос
Wolf
##ив
##ப்பு
մեջ
##ნ
opening
tác
army
names
dapek
Lyon
higher
problema
hemiboreala
いた
деревня
powiecie
րդ
##ვა
laut
Bij
tenien
quyền
miasta
між
summer
Alle
সাক্ষরতার
Peel
##joje
Lost
##ã
##О
Franklin
thì
##Р
واي
##log
pelos
Alexandre
##rato
arrondissement
días
Tengah
Margaret
##τη
Canal
##rata
Comets
bắt
running
Born
155
август
Geografía
باك
##borg
Norden
ji
hanya
thông
hàng
края
Fame
azonban
человека
городе
kuitenkin
складі
##ttiin
##ことを
לו
fall
##bili
setelah
##ела
##вала
Carter
child
baru
##ких
Police
##stva
mellan
##ται
##čių
Kinder
Classification
defeated
Sony
##ック
association
##ular
δύο
wide
##க்கு
pesar
auteur
##rios
Municipal
##ческих
according
##bert
##ain
evante
zij
Mal
problem
WWE
этой
Mitte
generally
Sen
Köln
taking
##eva
##time
Mei
##чного
##ema
give
Tavakilian
gebruikt
strong
valor
towards
##ology
chúng
eru
ից
trabajo
175
Departement
##side
whom
##ène
##бе
associated
##히
##esa
হারহান
##eko
büyük
##rek
##чных
##pat
ned
seizoen
Updated
muun
Barry
bar
ملی
millions
Vladimir
1016
##ул
outubro
gold
част
##yen
Иван
AC
1790
highest
cứng
##ಗಳಲ್ಲಿ
SC
industrial
##owania
##nske
hospital
amor
مشين
Phil
með
bezocht
##են
годов
NHL
setembro
intentions
Julie
مرکز
대한
ahol
maio
Эвла
Peru
combat
questi
##nga
allowed
charge
##вав
lower
eli
scene
Matthew
osa
image
muassa
Campbell
goals
##ales
vanaf
corso
##rdi
tij
Helsinki
##nge
alte
##گی
ingkang
origen
##stä
کار
##प
##ർ
において
Kurt
##ார்
temperatura
##mt
practice
plans
##lığı
##ав
իսկ
fiind
##ným
USS
género
##ที่
sports
Dal
##ists
poden
mezvalora
##cat
vlinder
##tiin
Franse
outcomes
location
tijd
części
primi
тӀуьна
##θεί
##oda
##вы
pubblicato
unique
effet
Asteroids
##ア
##화
sĩ
mediante
##քը
Dies
##த்தில்
Ресей
##bat
##ать
prix
##eth
Nakon
##ost
engine
tuig
##ങ്ങൾ
##কে
##ून
income
##ím
Warren
##ового
Here
Rhône
Cover
ktorý
める
encara
##sé
##тор
auto
matches
ibn
##ี
бу
##ও
आदि
Page
tarixi
Savannklimat
Children
groot
##цца
totale
railway
Holland
##ља
Brothers
всего
##τικό
ktoré
esto
בן
しい
JPL
##وية
pred
##նում
##ndan
contains
##inger
Vascular
##ller
Aus
##ас
となり
1801
gegründet
hingga
heavy
weiter
##mé
woman
همچنین
food
270
என்ற
millones
esse
##ac
Selatan
Bevölkerung
##zed
hệ
##cı
Synonymic
زبان
access
Wood
ATP
Following
oblasti
1816
##cies
##्र
better
bao
kreeg
##gé
##ði
trị
puntos
1일
##tir
global
Abu
##mine
1822
##gd
129
PlayStation
##els
Turner
Quando
Unternehmen
##mek
wobei
rate
mejor
své
이후
##rant
finalmente
resto
##ब
egin
lutego
nous
toutes
operations
##oje
cü
##лов
##iera
アメリカ
##гы
Medical
##حة
などの
али
##ures
##ador
##yle
hari
##kę
131
Madonna
enfants
##istes
Liverpool
especialmente
##ာ
movie
rural
property
##까지
##нов
##ു
132
##ža
##har
gebruik
Amor
##cis
poeta
##일
144
biển
##യ
wojny
##cas
OS
Metal
##ели
administrative
Evans
troba
mesma
mieszkańców
##ती
##лення
նա
##ಣ
##цію
nommé
phim
##tter
hace
יש
articles
mode
keversoort
sí
inoltre
Iowa
##lık
##gte
Plan
##lands
##iendo
##ก
ended
só
##iana
##azione
Racing
মারি
papa
##ың
tok
##ør
##ै
Fernández
closed
figlio
##ог
##bt
key
1819
##یم
работы
##רות
ministre
thus
##etan
coma
##hal
Denis
##niu
Müller
système
cinema
capita
##ué
##ому
##iska
##ijos
Мн
Our
Astronomical
études
Roberts
1º
norske
##선
##ieren
1827
каталог
Marcel
##וב
distribution
blandskog
हिन्दी
metro
бо
ஆம்
tamén
Ar
##mie
начале
##esta
##ndə
fille
районов
##itas
##ence
Tennessee
можно
địa
oft
##uda
Archived
Statistics
hold
Владимир
توں
Durant
پاکستان
vực
##ńskiego
Java
dazu
droit
##э
##kai
страна
##ট
effect
##tina
Bis
personnes
amerikansk
##ّ
##თა
##nier
##vit
œuvre
Pictures
կողմից
Pauly
distance
школа
##aka
صورت
Beccaloni
##τ
##jet
##ää
Television
euro
još
JR
##ений
Mỹ
prend
selv
##ური
omdat
##bie
134
Wayne
##nut
sex
menggunakan
Houston
Dia
Community
dunia
##որ
Zur
ఆరోగ్య
##kor
Jay
bersama
liga
##اف
1758
##ీ
##щ
##ію
erfolgte
additional
तक्क
##ric
spent
छ्येलिगु
##mp
##vio
noted
loss
move
##čki
TRMM
##մ
lần
új
##logy
matag
kinabasaan
situation
kinaugahan
novembro
같은
société
152
stations
##uh
שני
sina
Это
Checklists
зі
##rad
jeune
মা
viele
energy
20th
Louise
##ciu
1792
Gilbert
деп
Early
hijo
insect
своего
tanàna
tätig
ligt
##ления
VM
##tí
సామాజిక
##essa
##치
##진
##larda
tvåvingeart
Tras
jedan
##ん
ಹಾಗೂ
##である
mostra
##кого
Fra
Deeds
##ність
##owym
Universidade
fact
##פי
##atan
conocido
Cape
ch
##ება
Seite
fyrir
##ků
ஆகும்
ਨਾਲ
##ының
mjesto
mới
Қазақ
##idos
logo
mateix
Dean
чем
##yd
##ு
Pan
Highway
система
diverses
133
##back
Provinsi
giáo
##ич
2014년
Lima
quals
оны
##ત
retired
##cks
eastern
##cido
##usa
único
##களை
premiers
##Б
Vater
часто
##TV
##eni
склад
famous
província
igual
##vić
protein
folk
1817
##aba
##ками
Spring
tener
tới
ради
ఇది
Julius
##ských
##кс
khoảng
miejscowość
parties
Catalog
Popular
lite
Stuart
evidence
серед
peuvent
##کی
Kirkwood
##მ
Brookings
Delhi
batang
següent
bọ
سكانها
भारतीय
##ある
Bau
ingen
##rı
Lalek
перед
ఉన్న
Hockey
cet
##tig
##וס
##льных
##ración
alcune
Only
##ват
Eva
адамды
Moscow
today
##стве
##қа
basen
##را
Allan
Pitkin
##rade
Marina
Zweiten
thủ
seria
older
battle
Castro
##bahn
##kiego
##owany
аьхка
##льного
computer
##бы
##ら
##cki
projet
##ান
Broadway
Zagreb
protagonista
##ích
##wania
Afghanistan
##rede
##동
ہو
##ними
##rado
Lorenzo
kommt
##간
##rium
Parker
Chr
filmu
dintre
sechs
records
око
sexe
первый
przed
apud
##lsen
adalwyd
dansk
##ings
Temple
ага
podjela
Schweiz
там
եւ
livre
құрайды
##wana
batalla
##ności
ana
casos
Record
Araneae
##യുടെ
##ము
която
##דות
136
##களில்
церкви
##gin
producción
##く
daar
##ே
##larında
छगु
Mrs
største
##ged
misma
orden
1808
боюнча
Yang
máy
represented
kon
1809
create
pueblo
demi
##kos
Austin
##nant
##itz
cost
launched
2012년
Blood
اهل
##cción
жылғы
Türkiye
kahaboga
Украины
Według
ambos
mesto
Hulyo
cele
Om
fir
companies
बाद
tập
##्स
attività
Scoble
##ロ
terms
sino
CBS
particolare
Earl
Polen
Scottish
matoari
Perennial
animal
##čna
העיר
edhe
##zat
cosa
Hills
Cooper
Об
Deep
##వ
ткъа
sv
конце
grado
Alto
##ныя
rundt
Valencia
România
##ஸ்
font
##nger
earlier
##ओं
Political
trade
Jana
dek
primeros
##כים
##ün
##دي
մի
biti
կամ
Hrsg
voir
320
bağlı
cast
turn
##iko
##том
vote
staff
cấp
smrti
lahir
сайты
##ına
tylko
LepIndex
lagu
##enia
Қазақстан
internet
cha
связи
ಎಂದು
##ને
Krauze
זאת
##lijke
rất
река
137
territoire
2016년
Years
Engineering
Systems
vain
Bắc
##նի
thought
poste
1795
welche
rey
##ator
имеет
nes
Bach
ollut
Duitse
##おり
##ame
mana
##ян
այն
пунктов
##adi
Federation
особи
albums
аьхке
##вал
agent
hann
militaire
Zone
##icos
##lerin
Administrativna
HD
1803
##icu
2011년
##num
Bot
##скага
##vre
##all
św
Allemagne
##ós
##ont
toen
##եց
htm
##atu
Arbeit
##nski
##vala
რომ
aikana
Nachdem
changes
notable
##čí
pháp
فيها
کتاب
Rodríguez
లోపు
суу
televisión
Silver
##ств
Guerre
sources
informality
##ża
yoktur
estate
Süden
##ney
##चे
##ues
153
##вой
already
Beezley
Mexiko
recent
##ιο
092917
511228
87237
0815752199
1403962588
1884964311
đô
1579583377
##uer
##eus
##tak
Elisabeth
##nse
##ంది
meist
##ター
E0
Tyskland
którym
##ías
kedua
##ნა
journal
tina
##skiej
Arte
##uti
musste
Christ
decide
##ческого
Ernest
није
feature
maison
ataupun
##ária
Sau
##وي
##കൾ
##лан
Economic
##۵
Өзен
numerous
voi
speed
haber
anh
##IS
##wego
going
група
##ує
##ür
##pet
dès
nunca
##ики
maggiore
appearance
broj
だった
Kabupatèn
līdz
École
##만
partes
conjunto
localidad
relación
985
bas
1823
##cing
nên
##dag
##istä
##ರ್
hard
אף
##ис
Fischer
favor
schließlich
Martín
nuova
шарахь
2013년
Tochter
analysis
zaman
Eduardo
tom
степени
округа
takes
aujourd
ومن
når
##olo
われた
ปี
війни
lungo
##σία
2010년
##ությամբ
##най
Kunst
eigen
##eria
##ime
روستا
##cker
thức
أنه
##til
hotel
Bereich
Valle
samen
##య
##rada
علي
types
adlı
העולם
Days
cầu
СПб
Ministry
##ید
##ega
Parliament
characters
вони
świata
със
Wars
العربية
##hat
##ize
specific
##ške
название
Olympics
булып
##வு
muchos
znajduje
regio
ಅಥವಾ
entire
Су
bawah
##wą
От
##ง
संस्कृत
Gebäude
Froese
##dit
えた
wieś
##ங்கள்
което
192
annat
##ány
মারির
##ær
value
##тель
##რის
Vice
fosse
ضلع
esposa
##bury
Italien
Class
##வர்
DDR
##ër
##tique
Bulletin
entered
##stes
concept
Watson
Nintendo
decision
##ering
165
##aje
##oto
Además
##pie
وكانت
##ciju
стр
Front
alatt
##rre
édition
##צר
annual
Iron
##lom
تھا
tierra
versione
tendo
##ър
участь
तक
Tropiskt
Türk
Plus
Jest
blieb
places
onun
dire
limited
##ust
condado
Cuando
Five
##är
jedna
mano
cambio
##taa
климатан
##hy
##licher
##lə
жалпы
sociale
noong
Democratic
##Q
##ulu
formar
sit
activities
prime
officer
Nicholas
musica
Linux
##ကို
##eve
مورد
##ող
troisième
jeweils
1811
increased
العالم
operated
sound
villages
##ră
ГЗ
березня
utama
##zing
հետո
letter
Segundo
Complete
weiteren
kay
Partei
programs
host
Before
Bir
লোক
Parks
##ува
laatste
voitti
##zin
censo
linea
май
##ια
Rhestr
Inglaterra
Julia
Hrvatske
##iri
fet
Kota
##mica
terug
Spider
še
##rm
##end
##lem
trận
Lloyd
अपने
##чке
أي
Conservation
maps
##৫
volgende
here
##вати
Ken
##ನ್ನು
##aga
travail
wechselte
##vor
separate
##rel
##ņu
##ност
Ari
religious
function
fútbol
bus
مجموعی
Bobby
Or
construcción
Rolling
يمكن
BC
às
hidup
WCSP
Domenico
биле
Secretary
tranh
volkstelling
##tı
verwendet
Yu
espécie
Negeri
##mel
Istwa
Finlayson
Kent
##τική
teve
Reich
۲۰۱۸
Pérez
folgenden
née
##ό
##af
##isa
##riu
μετά
Unión
Prozent
առաջին
Leon
certains
école
infatti
już
Eddie
tàu
Ne
Januari
concert
marine
таких
chief
çox
bank
##ň
Military
##kiej
ਇਹ
##iel
##ници
serve
Hon
##zel
tête
vrijeme
##rz
medical
Singapore
149
blitt
Motor
Som
места
informatie
##कर
##اق
présente
anime
toga
Taiwan
Westen
شرکت
Raja
erhalten
energia
Jerman
2015년
bli
pierwszy
također
championnat
artists
138
второй
##cké
Square
##ration
Napoli
adı
perché
politik
majority
Mont
již
Editors
omgivande
тата
zerbitzu
##cle
Ball
Language
situato
Desa
Frankreich
Guatemala
##ულ
Site
ابن
réalisé
Rolle
veya
##να
##դ
2019
##lne
polski
yeni
Secret
wraz
##ική
Position
mille
##zik
##ill
##ып
##lad
148
1804
shot
content
143
Bergen
##その
caused
էջ
lines
##ško
##ото
nazionale
municipi
Sankt
##etta
mae
Wall
болып
miembros
übernahm
element
##bs
valamint
Hydrology
##ει
Films
##tant
##sm
5194
Nouvelle
Dragon
След
федераль
always
##ది
##ēja
بازی
ни
baino
selected
##шим
führt
studied
შემდეგ
území
Frankrike
##ора
##pun
room
got
##ень
этот
edir
алып
Ve
Дәүләт
erreichte
##ksen
##ára
ایالات
hess
kommer
##ною
ishte
##コ
Gikuha
hours
منها
datos
אם
Största
141
##zes
##ীয়
miatt
##ρο
Platnick
##wen
Oklahoma
##ço
classes
Ancient
Lisa
##бу
Ciudad
##ән
Discovery
##more
##фа
GmbH
Из
яго
1807
Atlanta
##דים
remains
temple
tim
##ży
##stadt
רבים
Gruppen
joueur
latin
programme
île
göre
hecho
139
sexual
##cznych
##ieron
##льно
terrängen
Thailand
##τος
Schmidt
هستند
Maryland
us
Kentucky
##৭
Larry
cross
één
být
##ből
husband
mundial
##ois
##తో
Mannschaft
forms
modelo
##aal
pie
Imperial
Parti
maakte
Также
ak
idi
gilt
voz
verschillende
רק
함께
сам
Sol
lahko
plaza
particularly
##une
1805
##скай
ім
март
Bredden
##tem
Weltkrieg
detta
##তা
być
Lan
июль
Ai
Italie
словарь
Harold
##нин
werk
kaip
##գ
146
nello
##щи
lloc
##shire
bem
Kenya
Neil
organisation
Нью
1794
##ут
##зу
##bare
ito
eles
voce
##lərin
utsträckningen
frá
primärfaktorn
##ază
##ката
höjdkurva
Primärfaktor
framräknad
##for
scale
comarca
다른
тем
けた
Histoire
##eau
##৬
République
Verein
متحده
##lation
Mayor
monument
##له
##ար
Soul
membro
ժամանակ
Oregon
Detroit
Met
đấu
##טה
Sunday
Но
##ış
Dabei
victory
##кою
positive
##mise
Hannover
Sebastian
##ग
##ines
อังกฤษ
Torino
İstanbul
termasuk
##פו
تقع
жатқан
##vou
##۹
romana
##erna
честь
##jä
university
##form
##ową
Население
లో
Box
Original
##ナ
kort
technology
Magic
tv
OL
sola
nombreuses
Mississippi
しており
Urban
mostly
работал
index
##ally
aid
##rate
Alfonso
tarihinde
##zt
##ците
partidos
verschiedenen
##rem
thấy
Australien
또한
leis
##ridae
##hon
sehingga
19th
мәгълүматы
نۆفوس
Profile
Bird
toe
application
##дын
acht
Mi
##bos
##ball
sister
NHK
relationship
Roland
##नी
147
rugby
##чний
##וד
kishi
##אן
##ಟ್
тоа
minangka
##пе
Wagner
meeting
vivien
relations
sekitar
lot
posteriormente
روی
كرة
kur
##վեց
Mabibilngan
act
moun
miejscu
##ਸ
##эр
cities
кочĕ
##այում
##৩
другие
##hoz
altitude
Harrison
##ność
deve
Knight
Después
தமிழ்
Ligue
Geographic
Беларусь
Ayisyen
##위
tzv
მისი
ಇದು
185
elementos
keer
##ierung
villa
note
multiple
Alabama
rus
extra
negeri
Polish
historical
orde
uses
Dennis
##гән
beliau
Österreich
##نے
história
recording
becoming
Ralph
Ukraine
referred
##ार
altura
byli
której
##فة
##où
medlem
##elijke
142
##க
январь
kjent
Shakespeare
Publications
notes
##мо
##ını
Terry
yil
##hes
위해
Mitchell
##fied
গননা
než
##ব
hin
society
жыл
したが
incolarum
jejich
Jeho
deal
Unit
##nem
nhạc
όπου
văn
Prime
bố
##icus
tutte
##ību
##ace
една
llamado
##க்க
лише
##ског
##ись
fik
lödanefa
Base
Isabel
ketika
##שת
Preis
тиклем
grâce
めて
Abraham
augustus
உள்ள
ప్రైవేటు
Inggris
##ug
அல்லது
лаьтта
##ус
Mans
Provinz
esempio
paling
fuera
ime
культуры
##gn
##ும்
nine
Henrik
##ियों
tərəfindən
capitale
Белоруссин
попису
directeur
##iano
##ず
Osten
##stra
eingesetzt
speelde
następnie
acordo
##ization
aufgrund
Laurent
সংগৃহীত
Aquesta
Zürich
##ep
##stu
Dick
shown
relasyon
##сан
supported
##ság
Hier
##die
kaksi
gewählt
##jn
##nsa
broju
थन
entstand
Dallas
##ад
toàn
passed
##ово
Queensland
horien
versi
##tische
पूर्व
##ась
Hughes
##ім
مشتمل
##ére
posición
からの
Camp
Kaiser
##taan
##אר
##kk
comte
##ші
presented
ஊராட்சி
empreses
native
Din
##үү
gare
##cem
canton
subject
##нской
ਵਿਚ
##air
Николай
succès
##dea
Hunter
##nischen
##lja
năng
mặt
allen
tradition
например
కింది
jotka
Đông
forced
##qué
dwa
##cca
##た
situat
##ур
んだ
##რ
##ális
право
Hi
ছিল
2009년
##ják
których
sull
později
insgesamt
Nancy
בה
##ക്ക്
##rá
obci
Kina
Novi
operation
toimi
errichtet
Control
##pas
##oe
および
муниципальных
problemas
tham
##₂
hau
##zado
Rick
ағыл
##sat
##ís
bakarrik
trí
1798
ਲਈ
Schule
Beispiel
##slag
friend
hóa
pouvoir
Совет
Tu
##لي
##рия
entrada
Singles
campus
diri
Selon
##৮
Threatened
stark
##મ
inizio
тұрғындарының
equipos
##యం
##tone
##bet
הספר
kilometres
Langau
##oz
molti
yaitu
##تها
mula
##ਆਂ
inglese
Tommy
##بر
UA
Richtung
växtlighet
Serbia
amo
individuals
Dieser
##ńskiej
##ύ
##ట్
نوع
##nic
##ligt
categoria
tenir
uomo
oggi
estudios
##teen
pr
##ște
##ének
Sint
##री
##als
##sas
##єю
longer
##вся
stat
melalui
lea
##nə
##чі
Boeing
##들이
alan
đất
הראשונה
##ять
bergig
NFL
mientres
middle
themselves
##ores
##кова
sota
##த்தின்
Fe
Dort
פי
प्रभाव
Perry
đề
##dh
pat
muss
emakume
##ppen
##іі
Independent
Jules
ancienne
##hof
kulle
seguinte
##ాలు
Guardian
engl
##مان
Był
question
##רת
radius
##oso
avea
línea
##ук
##rou
successo
Millionen
Ho
diversi
##idá
ejemplo
نال
այդ
दिया
##yla
Services
resultado
yels
Note
cualquier
##нского
தமிழக
203
коли
##ській
કે
dus
##дә
fill
##ி
##лось
##eda
provides
##yt
politico
##tein
##rung
الأول
##rg
serving
مرکزی
dato
pages
nota
Dorf
##ový
##nz
meno
Ricardo
##see
biri
gian
##ках
##rka
##çi
côté
tiểu
##ên
##kommen
المدينة
ગામમાં
Ädabinons
Так
##èn
Foreign
Carmen
пад
lomanefs
äbinädons
äsoelöl
famüls
##ßen
Demü
volte
programma
##lot
voms
jer
pösod
##лась
##ako
ädabinoms
##skom
appears
##iers
##ником
increase
enkele
yera
1799
Lemesed
Re
##10
##зм
##por
##크
##호
##ческие
variety
##isation
possono
grazie
##ól
##osi
قدم
Leonard
episodi
##ტი
हा
##tien
طول
##of
##ole
Klasse
Rahmen
Prima
ministro
151
erschien
développement
##נס
##yang
іх
थाय्या
##gua
##mana
statistiku
Danny
đặc
vengono
аумағы
protection
darauf
##шки
##రి
##añ
między
фильм
tek
Rey
isla
politician
furent
##issä
##unda
création
##tate
cô
1791
GMT
sort
##ství
sangat
processo
klubu
Ron
باشد
қарор
ultima
##дың
nekoliko
Klimatet
##תו
##ët
phương
done
##ыя
mi²
mère
dël
chuyển
بۇ
Ingelesez
Rob
##зы
insbesondere
langs
problems
##head
##ум
4th
phase
##wn
punika
metatra
Statistik
virus
##gie
vest
haavon
পাসিলাঙতা
udział
második
159
publicado
یاشاییش
Unter
156
##Т
dance
##pur
における
##ίας
##trice
образом
Dei
liên
sik
composed
##ток
становить
##ські
1400
Entwicklung
##ван
Muslim
##्
মধ্যে
waarin
udalerriko
##lage
larger
население
168
zones
bình
##ір
Egypt
##вање
your
Baron
Alain
seul
około
Galicia
Comics
diversas
بین
##لا
Never
ligg
##zas
fiction
apie
ongeveer
##dung
assim
Units
##anie
Governor
magnitudo
IMDb
initially
Schloss
##ume
##vanja
Naval
##imento
đạo
loi
Felipe
Limited
Ecuador
##dou
##۸
ശേഖരിച്ചത്
##국
##யின்
154
##zenia
Neben
دهستان
1797
##५
pois
альбом
лишь
Frauen
Notre
Jahres
##cco
azt
Dublin
بـ
##тын
##uz
española
Ocean
Korean
đây
##ย
##ві
##лин
bo
##ล
Natur
sala
metri
stock
##уу
##ণ
sou
##اری
##ене
stop
##ర
##нні
Τα
دیر
navn
##קים
bestaat
##ാൻ
raised
singles
##maa
مجلس
##chte
##gem
César
##ců
##lara
masih
Mercedes
cadre
prison
##ление
cukup
Uruguay
Classic
società
Его
##бор
llegó
Союза
Emma
होती
Singh
Nederlands
##скі
грудня
##ье
lalek
##يم
Orange
Том
##stad
Über
premio
makes
##ине
330
finden
میتوان
Ye
religion
EM
financial
##lum
##xi
##ως
دریا
call
rond
университета
##has
algunas
fő
ним
أول
##bank
##off
fem
Ferrari
Krieg
Alaska
##iet
Vienna
##uch
gift
Also
укр
##관
ditamukan
##מר
очень
Jerusalem
laquelle
vuosina
##zada
ونسبة
spesso
vært
##ڈ
Flora
nghiệp
##اح
منطقهسیدیر
##jana
produzione
biztanleak
Maine
Six
existence
Graf
pilot
Guillaume
populations
##rica
Masters
##من
races
또는
##조
experience
##დან
Politiker
Torre
##unt
År
Congo
құрамына
juego
king
contact
rispetto
##ží
Metro
собой
Chemistry
edizione
gizon
##seen
Ông
##гийн
pl
##ೂ
connu
धुंका
punt
##מית
##வை
puesto
2008년
vara
момент
deu
##λο
Buch
שנים
epoca
##ub
زمان
##ised
PGC
devant
##כות
Medicine
Berliner
##wald
##čni
până
бутт
550
ноҳияи
##ові
sería
бассейн
##рт
MBC
Computer
##ног
saka
terre
##ght
##از
konnten
##ються
##ड
##۲
すると
sat
görə
representa
éxito
Bar
##৪
одной
massa
2017년
##スト
своих
Peace
##wel
شامل
typu
##ved
raz
##ೇ
##oy
versions
##dne
##tok
##ющий
##cją
believed
عاماً
evento
Oriental
mag
вона
ball
##গ
201
animalia
##yr
때문에
dice
##ета
##platz
Burg
giữa
agit
##μο
claimed
Совета
белән
parish
Utara
##дия
##ř
podle
écrit
тој
Republika
cell
Hand
weeks
Anders
округында
Side
Mare
championship
stars
vila
##fu
Philippines
##ních
nuclear
##ћ
union
##rian
Юханшыв
Colin
کاؤنٹی
##bit
Production
dû
مصر
jogo
Introduction
החל
failed
giorno
##ије
município
allo
fight
Latvijas
oedd
architecture
domaine
##пи
##ización
duke
والتي
Historic
kdy
##band
nghĩa
##kap
FA
quand
foreign
##יל
биләмәләрендә
##nska
Martínez
##ann
##cą
Gunung
сезона
##ták
stessa
gouf
teki
Federico
université
1796
##υς
Meister
baten
##стей
davon
##iger
command
##vání
свой
yuta
##ано
Германия
siège
##mir
winner
mainly
Lanka
назначен
etxetan
jumlah
くの
వైద్య
Rica
роки
troops
electronic
##bility
nave
només
offered
##рана
225
тип
Lane
1775
først
হিসেবে
##ვის
Hugh
Theo
Արխիվացված
sampai
##ത
##ள்
##chaft
объектының
##ún
ceux
реестрында
##dere
205
Primary
επίσης
##անում
##ával
Sánchez
##cz
селото
Joachim
oğlu
##rkan
bal
Perú
nhau
##nidae
##elijk
##kka
kembali
##ös
օրիգինալից
denn
polos
##يف
##いる
vivo
locale
moi
となっている
helped
Affairs
proceso
Dresden
boli
products
Due
##iki
##ick
saj
vert
carriera
Seattle
Willem
##ще
167
##rana
##عب
fivondronan
##nat
musik
Einsatz
шамасында
##recht
firma
##களின்
##شی
tysk
##ուն
Université
لیے
Unido
##తి
##bro
Security
##växtart
նրա
öppet
##бург
##лей
Karel
##മാണ്
Kanton
mam
##imi
##yk
novela
Sweden
йылда
tử
##ელი
anggota
comenzó
siguientes
tennis
dituzten
Hudson
overall
##jący
border
fans
Werk
результате
numbers
##oko
Lors
vann
##kie
Agosto
Grammy
##בות
subsequently
aparece
consists
##ggi
Kate
bidädas
truyền
1300
couple
might
vezes
prior
Both
może
##baar
##idas
Jo
يتم
##না
annet
ساییمی
лело
sulle
añu
Thái
##gli
نقش
mellem
aire
Montreal
lavoro
ließ
Dam
##zos
داشت
osoba
##この
drug
assistant
pessoas
response
Edgar
Giorgio
##onia
leaving
завод
hall
दूगु
##کار
ubicado
acquired
Rico
##צ
część
##gut
بها
került
MS
sacaro
către
barruko
521
Ich
دور
##ché
157
m³
opere
##dent
TITAN
turned
Ayiti
projekt
##ري
وہ
##lingen
estudio
##ctor
##키
press
selama
तो
##ҡ
hockey
##scher
##وان
whole
ஆண்டு
Belgique
##nça
##onal
##tou
sui
ამ
Spiel
através
##eb
Energy
власти
##ர
என்பது
##zug
כן
##ಿಂದ
България
topäd
##ונות
figures
##00
だが
котором
alleen
oil
##က်
हिन्दू
comună
Seven
Newton
department
đang
##шка
##ària
sam
##rra
##هٔ
carried
##ars
שנה
Vicente
lungsod
ਵੀ
##ppe
cuales
жители
Istituto
allemand
kamen
triển
##water
կմ²
Phoenix
Regierung
innerhalb
οποίο
##ання
kwadrado
зв
##۴
oppervlakte
transfer
eigenen
får
หรือ
##lam
Cook
vinden
война
##ені
##ити
##ో
lenga
##larının
חלק
Не
##nun
bridge
##gg
mile
lagi
kinh
doch
650
mind
nego
Ved
##ವ
##чение
290
erneut
##iones
##۶
Electric
generoko
raison
Bush
##vil
ला
течение
Angola
később
viz
nằm
##gna
desarrollo
##식
ikkje
meaning
stories
města
##ький
vocal
##mina
161
Browser
Batman
Jesús
berada
Алып
сих
sekolah
##aj
##رد
treba
houses
##ove
Software
dela
##ром
جنوب
Marvel
##cken
familian
##ή
exemplo
teil
ресурстары
##uo
Operation
Emmanuel
##лю
##тары
Zum
فوتبال
Feb
місце
cabo
##ől
Delta
##gde
Take
Solo
##ान
centrum
##nud
##ਰੀ
Warszawa
fora
Action
##mme
état
##ním
Drama
interview
##ssen
1980s
بشكل
tổ
Teresa
escritor
бір
stort
شابلون
Халық
đá
Estats
ancient
opposition
dagli
##ћи
Despite
habitantaro
##ños
##یان
##ಮ
##lje
سرشماری
Bas
nim
Rom
158
Sus
##гә
##ándose
Braun
Zijn
دست
multi
olla
direkt
disebut
منطقة
れた
sing
grada
Một
finally
##stica
Alemania
Caroline
Jego
membuat
Galerie
##ε
voice
##ування
SBS
hacer
163
dernière
Jepang
Theory
##straße
##owanie
effects
SK
##ktor
##овых
aproximadamente
dâ
Via
sortie
##lina
teoria
##ьной
##rda
Sean
hiệu
marriage
##schap
PS
Wiley
sien
earned
Railways
permanent
words
систем
comercial
alemán
található
Beatles
русӣ
інш
Type
##gate
Petit
##lica
damals
Кубка
##לת
##ющих
نظر
##ності
##nze
##aya
impact
คือ
SA
##ਿਆ
toerana
जुइ
##bas
passa
np
##ļu
pole
skład
##rst
soprattutto
##fo
##jin
##чні
Ba
occasion
escola
Insel
##اع
Helen
באופן
##ması
attention
Cleveland
terdapat
Ward
##М
Grace
tropical
Sachsen
pública
Klaus
начала
##৯
##ike
##۳
Afrique
عند
##ями
Statistical
voix
Bremen
##עה
Jennifer
Depuis
hoạt
basso
literatura
renda
##лган
déjà
cümü
것을
Edinburgh
##ското
manga
kurz
##växter
nearly
تھے
treatment
Sophie
Swedish
languages
##۷
нар
sünd
##산
passe
kes
Württemberg
##ਟ
broadcast
Conform
##žil
##िया
attempt
seasons
două
সালের
MODIS
conocida
##ición
Sarajevo
##യം
habe
comes
##며
pernah
enough
страны
dwóch
##ява
عمل
Baltimore
Personen
illetve
Sofia
conhecido
lives
Tower
terhadap
##ِ
plants
##dik
busklandskap
אביב
##ரி
##vam
##wr
உள்ளது
Beginn
Dân
machine
Capital
Pero
Dakota
Bundesliga
weg
torre
Eduard
Sevilla
Minh
##rina
dài
într
Sweet
genere
##gung
remaining
##meister
Chelsea
##や
Te
OCLC
##row
Iraq
KBS
reference
milieu
Formula
сельского
##rius
##タ
Boris
Napoleon
Potter
##২
Außerdem
zavatra
Tra
mizaka
Nguyễn
janë
##ыми
Ronald
256
##list
##மான
châu
Round
מכן
##iros
maken
kerk
bl
Run
channel
дом
militare
Luke
Leta
Sex
zweite
##ory
kini
carreira
われる
Според
Công
Джон
المملكة
##iar
incluso
##той
життя
166
ખેતી
Editorial
Future
box
נולד
##lit
##ncies
جی
##noj
Théâtre
جس
nl
Nation
strane
desember
више
եղել
##ებს
danas
kommunadir
онд
##lista
want
изд
##リア
outro
starb
##vik
asteroide
product
син
nay
Hapit
nalukop
Mundo
Vancouver
sens
covered
##ship
##ových
##וני
वह
això
ehemaligen
ring
##ческий
gav
essa
età
그의
الوطني
Ring
##сці
levels
femmes
καθώς
##ното
##skej
Sitz
dapit
helt
Україні
##рын
fills
##tri
##ीय
Mart
jen
Lars
164
thiết
Wiener
##miştir
##אה
##miş
252
क्षेत्र
leven
podem
ولكن
responsible
persone
tâm
Vegas
prendre
Chiesa
##ök
eram
##யம்
Nhật
##hez
##ded
##uf
moderna
Cymru
##spiel
nen
##sation
##ū
にて
##ட்
##ио
становништва
Japon
cut
##계
##リ
176
##운
մեծ
##க்கும்
##ił
principios
którego
##zenie
Bretagne
proposed
##cke
юм
мешавад
##lata
##үн
##ಾಗಿ
tin
Building
Ban
fuit
##wym
chế
fit
##ξη
Höhe
162
Isaac
Child
dina
Heritage
##rico
AB
नाम
biệt
Orden
ఎక్కువ
##psis
मध्य
217
224
át
##८
4000
أخرى
##дин
можна
##цией
Wide
Holy
NATO
Key
chanson
##のは
lançado
sajtu
##льной
dirección
nơi
##hold
2ᵉ
kontsultatua
##чни
##નો
sabagai
جنگ
Cameron
##وز
##ρία
gaan
##ческая
Felix
sendiri
মানু
профессор
##зма
##enti
IBM
որպես
Canton
latter
famílies
issued
ata
Він
joue
##tation
Hal
clima
technique
rencontre
Craig
початку
jos
الأولى
Emil
##pte
##istas
##uga
##야
sáng
initial
meilleur
Density
প্রথম
206
matrimonio
とする
ал
regions
##üm
heutigen
últimos
について
familiak
Hà
competed
Hawaii
així
##сен
علی
کند
Noiz
نہیں
heart
شمال
##אות
ala
tăng
Connecticut
أما
##eid
asi
##łów
chart
##ĕн
participe
fez
llamada
debe
tradicional
coa
před
полк
discovered
##jat
finals
пам
minute
##ート
NBC
între
Espagne
Kane
bare
במקום
##lay
даже
líder
Alessandro
xa
sorti
София
urtean
Republican
extended
nachádza
Staaten
##lıq
Ouest
##ську
table
documents
##ilo
Stato
București
۱۳۸۵
##개
##্র
##kiem
##யும்
##OS
##வும்
estructura
##்
почти
типа
##oj
##று
zavod
retour
Rugby
##rier
##lade
##ե
bilang
##lainen
смерти
##ών
Spanien
Store
##३
travers
वेबथाय्
Ла
Transport
utan
Website
biết
##ခဲ့သည်
وار
Justin
ailleurs
195
života
якого
attraverso
Indonesien
1780
manjadi
től
yet
factor
##श
בשם
Again
##enne
Renault
##hir
##ც
âm
1784
1970s
системы
##മായി
além
Door
security
एवं
Cet
know
##uro
junior
luvun
پیش
presenza
##થી
##телей
Archive
vel
235
##ock
العديد
1787
Михаил
Holstein
starting
##ћа
futuro
##ических
preko
protiv
##cka
##ája
##터
があり
dock
hombres
اخذ
208
wsi
whether
##ston
##kes
##ао
Agency
يكون
Shaw
그러나
##ters
Alliance
اثر
されていた
Forum
sciences
##२
##stas
##igo
ebbe
انجام
##gó
юккъера
findet
quality
172
kata
অতার
Brigade
영어
disease
importance
chất
##rien
Polonia
lor
tyske
ניתן
##なかった
داد
Places
أحد
lid
кĕрет
##ന്റെ
182
tercer
##당
considerado
evit
##wanie
tiga
Plaza
beaucoup
Bulgaria
##mma
told
##jska
indak
##τες
##rni
Bee
##šta
проти
đổi
Chi
##չ
##hos
இந்திய
1783
Côte
geht
##גן
##шая
##rée
##θηκε
Lisboa
grade
pouze
##aar
phủ
tergolong
ఇతర
leave
##este
travaux
zog
natomiast
Alter
##في
हुआ
cos
центра
quest
הרב
177
luz
##że
##тва
Butler
மக்கள்
Bonn
rule
##mont
##etti
##med
sò
buah
Kings
захід
प्रदेश
allow
##వి
remporte
##lak
Кыргыз
friends
lies
##τικές
dưới
إحدى
Administration
свои
##iny
gadang
##いた
Йылға
सरकारया
god
tawo
VF
##డి
master
##jící
Palace
##மை
toont
Éditions
Steinicke
binnen
inter
कुछ
212
true
сын
inga
Cristo
##쪽
información
berasal
flera
kuten
##seite
Was
cı
Between
##kem
mass
##àn
Uma
marcapada
Porifera
Netherlands
##ttu
Nigeria
households
newspaper
стало
tedesco
215
nahimutangan
Spencer
1788
elections
##ctus
haut
אחת
residents
populație
##fication
drums
directly
diretto
##ców
alabak
213
##tako
americana
orixinal
Dels
genoemd
nói
minden
musicale
Metropolitan
visto
групи
##चा
##τικά
nébula
Calais
##și
169
##jonen
##ikan
##fel
despite
သည်
##лом
Hindu
Hope
града
##மாக
##ess
పాటు
##된다
län
##iset
##цій
##tidae
rivière
candidate
##czny
tiến
##गु
##マン
##னர்
thuật
##енко
Jakob
basketball
##elo
Emperor
تهران
actions
efforts
##ικά
større
Suid
नोभेम्बर
чего
##ими
##ด
##ése
##zzi
Hansen
lugha
ganó
Grupo
noen
hod
##שים
##oir
##лия
Sergio
completamente
convirtió
Study
constructed
сезон
##лог
Nó
된다
birlikte
Glasgow
##זר
##یس
Czech
Hrvatskoj
Islamic
asked
таксама
says
selle
книги
Wallace
##інің
livello
облысы
граф
دانشگاه
##なく
##ago
одна
##ří
produit
Hell
jamais
utanas
propio
202
grandi
Domingo
##ایی
##ження
##iji
Chen
##ந்து
##vina
##ág
alten
Warszawie
##логия
compositor
big
politica
crear
Campo
gihabogon
##tischen
recherche
besonders
Challenge
Tartu
commence
##pio
अन्य
وقت
இவர்
##종
##lies
další
Akademie
אותה
activity
hal
##ối
miasto
##יד
Youth
##raum
Rainer
##της
##шей
##skie
coast
##ór
Berkeley
##alo
##нта
També
коду
Organisation
가장
##ਂ
##ציה
Linda
formato
##ees
માટે
barn
frère
profesional
бовха
##eit
##ਦੀ
fifth
##ple
formerly
senare
Works
consiste
##dde
komun
során
પણ
WoRMS
gegenüber
bile
graduated
inferior
onda
204
danh
weil
Diarsipan
ea
planetesimal
tanan
##rf
mellett
cine
##vali
eesti
nuk
corte
##して
##²
tabantuak
bóng
Trust
seconde
miał
nation
aktiv
Nepal
##care
ud
Productions
Kiss
kasaluruahan
kind
MM
março
Liberal
Sarupo
##нка
pēc
αυτό
Short
ngaran
Princess
могут
Senate
Helena
380
##itu
Saesneg
jẹ́
पहाडी
nearby
Елга
Herman
Roll
Rights
kasnije
innych
kilomètres
##یک
indica
gitara
promoted
tướng
median
##ης
##enden
##ivi
regió
Forces
divenne
petite
били
##τές
seulement
##нию
Freedom
Жаңа
##يين
Facebook
العام
##tten
Bedeutung
##소
первой
##প
mere
##bora
##லை
Fernsehserie
lehen
pai
Elena
Artens
dùng
188
Hart
mogu
István
бир
Francuske
habían
données
spons
mujeres
##punkt
dezembro
##دے
История
##גל
##αν
olyan
percent
моря
території
Diana
будет
##okat
quatro
Kenneth
suatu
abad
##ώς
итал
Brooklyn
désa
menyebabkan
vários
जुल
vegada
trưởng
Bolivia
##תה
Olivier
langue
bulunan
tiden
##ierten
##כל
đều
تاريخ
managed
Gregory
maximum
##hs
##cima
##カ
ಅವರು
året
179
đơn
##ști
##sco
##вого
##ън
340
આવે
resmi
##gens
##cznej
##së
شهرلرین
поселения
##ίων
method
##ид
Deux
olika
Utah
search
parfois
tropas
ją
donna
medieval
##rati
primarily
czy
pakigbingkil
##šie
Murphy
bois
##లను
##vý
SEDAC
آمار
num
janeiro
Greg
##кая
##하기
models
##אים
Player
##kla
##す
ભાગમાં
Liên
211
dana
baseball
##ome
щоб
mudo
##iten
titel
##צים
Facts
##미
##nji
Russland
##ець
##ică
##нең
ton
региону
যায়
музей
##وف
ll
sezonie
##aki
##ioni
techniques
mapa
178
стране
dess
171
zostały
##フ
popolazione
##жения
Aragón
noe
calcio
השני
females
gikk
Tamil
халыҡ
##bla
यक्व
مختلف
images
Test
Theodor
likely
вересня
నీరు
##gent
##js
eux
##ját
бы
183
##ért
##vě
##dale
Marne
##skich
என்று
IATA
ships
servir
recibió
enquanto
##ರುವ
जनगणना
Turkey
μέχρι
##ας
2007년
##лни
193
##ated
##う
quel
animals
##ible
##com
exterior
Leopold
కోడ్
181
skrev
siempre
német
Londra
కంటే
##ulo
breve
cuối
لها
arter
thay
său
січня
guitarra
##rca
NY
##зі
##èl
miền
##ết
##sza
##нын
відстані
1785
गां
ID
якія
zahlreiche
TBS
crime
##iere
үшін
##mektedir
##वर
भाय्
SP
wing
##bon
Leonardo
utbredningsområde
##itet
argent
השנייה
##owi
##лна
Tanzania
Squadron
Norway
penduduk
arrived
##ران
Després
đảo
ziläk
##ены
संकिपा
wanted
селі
пункты
posizione
##ants
alternative
##క్
##ะ
##ए
Espanya
разом
Está
Commonwealth
partire
##дер
pare
##पुर
origin
##ensis
sowohl
##rno
abans
Rebecca
darunter
Bologna
1776
##вания
##eel
##ldi
duc
##ವಾದ
##נד
##ther
##ló
highly
##۱
##って
diferents
savo
число
дня
زیر
לפני
있으며
هناك
commerce
২০০৭
terzo
دارای
##schule
appear
İstifadə
Mutter
Alla
categoría
ばれる
julho
Беларусі
##१
##20
Од
suya
Jonas
dịch
journalist
##ери
##vent
posterior
##oo
équipes
antiga
184
tornou
Venezia
govori
vẫn
Reihe
verschiedene
francès
Bond
##ય
hulle
nhiệm
##år
##اند
executive
catalog
Happy
trains
##лған
##Д
поселений
ဖြစ်သည်
##ությունների
##зия
أكتوبر
Avec
коммуна
##čné
ello
۲۰۱۷
##тся
Local
Ice
##타
पनि
Haaptacteuren
##rol
оның
samym
Source
principio
##ům
común
grands
ucraineană
Fantasy
##ниот
strada
##хи
##nation
Birmingham
wedi
Македонија
acteur
Lucky
222
passage
##mark
##шего
groep
propria
cancer
Frans
##gis
##nsi
##րի
trọng
##bol
207
sejak
कुमाँउ
Torres
Allah
hoe
namun
koju
Harvey
luvulla
rumah
omborida
##zon
##дағы
performances
##ത്തിന്റെ
occidental
##ismus
мебошад
kuid
##tva
##нің
στους
platform
тільки
sob
##ং
edad
János
horas
##ème
образования
ganz
##ām
Publishers
##ร
##하며
174
Tot
школу
ən
vitin
विकास
Race
##arna
Conseil
Werke
posible
romano
тыс
vastaan
Auguste
temas
quận
ambiente
particulier
##par
Gene
Titre
##лно
##ರಲ್ಲಿ
iba
kỳ
món
IPAC
tat
bataille
langau
Alta
따라
Oh
Petersburg
Հայաստանի
África
Counties
##nent
FK
saying
Thành
られる
Mind
তাঁর
Cultura
##ския
Turkish
##pos
173
Orleans
1960s
##ರಿ
##マ
niya
##jus
Ain
Synopsis
partner
founder
##ებული
##ях
1990s
Wind
##lare
Île
##tera
beispielsweise
movimento
timp
##jących
##טים
části
деген
##دان
школы
Francji
województwie
##ologia
projects
##iente
حال
##cina
Weg
haver
##४
##isé
197
brasileiro
Javier
نادي
##ér
crisis
##ників
prominent
nguyên
сезоне
théâtre
bestand
minutos
quelle
kallt
భారత
lainnya
клуба
Supreme
bon
Klein
##শ
svoj
nouvelles
##fte
##들은
تک
##lls
##chu
схід
##tiques
##dora
Louisiana
##لم
##ffer
permite
skupiny
árið
Aircraft
ljudi
thân
##нде
giorni
##alt
gemeinsam
physical
##ره
серпня
Senior
dikenal
সাথে
appearances
песни
prej
##بي
става
игры
Indien
##ეს
abord
Upper
партии
bảo
##חה
إلا
Marx
kampung
oriental
Clarke
folgte
Provence
stäppklimat
Universitas
umumiy
veröffentlicht
##می
historique
tiek
##սի
တွင်
##yı
СРСР
команды
##بية
##ött
pont
Magnus
Орден
diğer
olaraq
ina
##തി
##な
artikkelen
Nombre
##्न
Luna
यो
waktu
##yar
μία
##دن
##ník
##ossa
##eron
##žu
Heaven
danach
slik
##ლის
گروه
sinds
Uni
হান
الثاني
Angelo
Ted
Member
medios
##ذ
##čio
knowledge
##gere
בבית
inside
とも
jugador
##erer
منذ
obres
Swiss
شود
сельских
illa
##льные
realizar
##നം
allora
AD
Musée
##liği
vooral
##nau
departementet
Тексерілді
trabalho
duo
バス
Price
членом
##cional
ju
бути
القرن
filem
##ём
Bowl
kus
عندما
mục
miembro
prova
##рна
által
##heden
extension
conta
เช่น
Xbox
##റ്റ്
communauté
##ining
##ючи
خان
према
Jose
samma
##asa
SR
##ovat
nhỏ
वर्ग
Baptiste
edu
##inu
compañía
wi
##vne
Rangers
брат
##fort
##нен
chamado
moet
నీటి
بتاریخ
card
Pulau
době
það
objet
navnet
SE
tinggi
##idea
Carol
цьому
ăn
punti
өзен
olup
##cích
Common
жовтня
approach
literature
populasyon
Wu
peso
##വും
करते
Once
sadrži
Creative
potential
boleh
Sara
##aron
binh
##ției
nordvästra
არ
Clara
điện
bắc
##ход
##rze
##tung
zdobył
gminy
meisten
capacity
siste
вилояти
lassen
Отечественной
verde
કરવામાં
pikeun
gun
Soc
nde
Той
Pete
proyecto
bolo
Armee
Albums
##َ
Friends
Văn
Manhattan
северо
Vila
Falls
metà
Reserve
kaum
##pta
rules
##uni
unui
##buch
revealed
##િક
formal
일본
##ery
لاعب
junho
início
aide
جميع
начал
Questo
Nell
sole
समय
##weise
Arean
480
dun
##эл
##уд
Gerhard
Amy
##juk
##ներում
eri
##cznego
Julian
فقط
##wskiego
نظام
Bộ
commonly
##역
egen
מן
objekata
đông
gräsmarker
травня
стороны
часу
РСФСР
##but
három
علم
##וח
अंग्रेजी
promotion
##ував
plantas
##eto
Season
##७
##nă
cells
دوره
##else
##ode
##zne
library
positions
formas
нового
Grund
transferred
materials
tree
focus
##ьный
##ето
file
##კის
account
##oka
rodziny
##eet
юго
sastavu
يناير
պետական
acuerdo
aurait
##ових
espèces
முதல்
bases
dix
جامعة
kế
поради
ancak
amore
Как
континентан
##ík
Each
industria
américaine
आहेत
##čil
187
##rov
longitud
##logía
##zan
Noord
Notes
położona
Paz
mål
فوق
##gle
OF
##jące
המאה
##iad
Landes
studi
জনসংখ্যা
poor
بار
##ющие
বর্গ
punk
fare
vielen
blue
5th
##iidae
##த்த
tổng
Malta
##nių
آثار
##ура
если
##וי
Auto
vant
meet
##పు
ataque
cứu
utilisé
##ству
Toledo
Spieler
Studium
##éu
##ლების
phòng
vittoria
##uden
surtout
probably
Florence
bandar
сайт
estación
##ény
##skap
그리고
##ര
##вна
Rain
Philipp
##ակի
##ಯನ್ನು
officially
teilweise
186
##нення
französischen
scientific
##ските
##lma
##kunde
Change
もある
forward
##ált
smaller
##nium
grupy
##ир
##ários
##stone
##sha
parmi
ảnh
Dog
Pod
green
##학
participar
##льный
soldiers
équipements
tots
SPD
Irlanda
Through
бассейнĕ
საქართველოს
build
tiêu
Nash
сиха
ander
kecil
Finale
##лена
tentang
##ания
Lieutenant
október
##ље
attore
autour
இருந்து
##īja
##として
##тки
urban
##шие
waarbij
##eten
Chapter
میکنند
Questa
Autor
Sci
221
dedicated
Ngày
##گان
období
Stein
199
semua
Halle
tumani
density
Musical
kommen
століття
##ικό
tìm
Verenigde
##ln
kein
##كي
липня
Zeitschrift
##nova
προς
Hoàng
వ్యవసాయ
designated
Ses
##lda
##ült
##עים
tekst
pass
zespołu
silver
##рон
1100
Proceedings
Madison
مردم
いて
renamed
meget
tình
209
Република
Heinz
##шен
Generation
construit
firm
المركز
الأسر
Pink
segons
##ਜ
Rogers
binne
steeds
Dünya
##enta
hebbt
##лина
except
servizio
Alejandro
principe
அரசு
Bahn
##த்தை
blanc
Франции
##ray
##ever
méter
Holmes
##టి
పబ్లిక్
Alexandra
divided
##km
água
విద్యా
awards
##рат
##geschichte
primero
vis
amerikanske
##יב
vaak
##ικού
198
tych
Minas
lac
Liu
dead
تو
этих
pressure
##ført
##zeko
seda
##նական
1786
##차
brand
Düsseldorf
situado
svenska
ただし
##ză
##چ
##σει
Christoph
Sullivan
##có
ireo
##рд
urbo
1770
##ást
##kia
Persian
يوليو
##con
##κ
Right
اپنے
Off
pou
algo
Episode
Село
группа
այլ
##rah
اول
nimi
sons
formación
##рии
council
komen
##يه
Mobile
Henta
##ijas
temperature
##kej
filho
bestelako
Biblioteca
##μ
expression
##tit
solar
objetivo
Це
Atlético
تلك
collaboration
##رات
światowej
Where
jih
##щим
दक्षिण
1750
öst
##czna
localizada
##સ
Académie
189
241
##ッド
##১
Davies
##ø
الذين
escrita
хӀоттам
##стан
미국
sông
##lagt
Desember
енгл
ордена
##დი
terminal
Call
##או
Ramón
druge
moving
##ಾದ
kama
##ુ
získal
ibi
Gmina
Бұл
компании
училище
parc
đặt
##ép
grave
áreas
singolo
##zka
юьртан
evitar
организации
##ningar
flight
officers
μεταξύ
Башкортостан
lack
בכל
##ің
quais
अधिक
incluyendo
Christine
##şı
quickly
##šu
danske
##లోను
gần
travel
viel
sets
##கம்
ability
Под
melhor
ig
Miles
episodes
awal
директор
2020
links
pemain
의해
##mai
Executive
##zni
191
bestaan
grew
Julio
Европы
insee
##isti
titled
했다
réseau
либо
Mother
trial
job
zeigt
##сем
Cinema
##tif
##аны
desse
##në
##에서는
lane
світу
##album
gut
कारण
##ave
Abdul
##ense
##ьного
##وع
##оў
actualmente
Был
Segons
unde
Full
tuttavia
##eken
##ецца
Double
avrebbe
##ица
secret
площадь
ける
##anza
quartier
zonas
cá
##하지
cukuik
sebelum
##ован
loc
وچّ
##mientu
Evolution
créé
196
sydlig
Morning
216
##९
Bình
moral
կը
Serra
pasó
Beck
audio
planeta
##ัน
gyda
జనగణన
Fransän
száma
вже
této
Nga
barubah
##tja
Heidelberg
follows
##նել
##zación
Text
kuni
##નું
historic
университет
##führung
join
жителей
##ός
sasuatu
pacahan
червня
##כו
Punta
XXI
##нца
округов
considera
biến
auteurs
##льная
##cum
##bou
Jefferson
Код
##rés
един
##ított
##யை
actriz
Eurovision
##וק
##כר
Peak
Katalog
conducted
##onen
भाषाया
##рка
давлатӣ
Angleterre
mixed
##ėjo
naseljeno
HC
recently
mouvement
##ional
Córdoba
пол
luogo
##ונים
##аш
sieben
روز
monte
Cina
##رت
214
##rim
mesta
Rachel
say
letzte
academic
Xavier
antalet
mewn
##ాన్ని
често
##verk
##بی
diffusion
gdy
mercado
226
pelasi
când
menys
زندگی
vennero
ordered
gamle
MHz
becomes
eskualdean
кг
##μη
Wie
ajuda
épouse
##град
являются
needed
asya
##ické
##ίες
Lang
Cole
##tada
इसके
ideas
##өн
##uu
ضد
drive
пред
Château
540
##לות
##마
Pittsburgh
районі
ginhatag
##sberg
Irak
pagkayana
offers
keep
unei
falta
þar
سه
Beijing
септември
вобласці
mucho
danych
workers
Schleswig
##६
derde
لكرة
పథకం
mintaqasida
László
PR
عمر
rozlohu
street
##oti
Parque
será
Bros
бер
Dos
##skou
Sungai
encuentran
Owen
nove
dessa
менее
Quebec
##жен
ہی
sales
২০০০
Lu
Virgin
floor
որոնք
##ttes
NCAA
يقدر
হয়ে
share
रुपय्
##eer
Golf
##ად
##դի
##ću
Pope
stanie
grootste
ihnen
Раççей
##ыш
##tino
науки
gioco
Ankara
Dương
##ਦ
thu
Yale
nữ
personnel
introduction
ilay
##mak
##ciji
Storm
progetto
275
##rir
removed
Augustus
serial
##ване
rare
Luxembourg
##ými
stone
Após
##nir
defined
بیشتر
Fauna
Neue
mang
regiji
##ével
##тел
nordöstra
##בל
##rare
angol
##name
Koch
##zony
##eng
##ære
것으로
##ئة
##قل
Adrian
Organization
daher
settlement
##cé
esti
బ్యాంకు
bài
Gino
αυτή
##park
родился
деҳа
mely
etwas
Parigi
232
Command
Hard
Biology
##െ
pasukan
алабы
##kirche
Rural
##late
royal
Сергей
Arkansas
canciones
##gues
coming
Linie
Première
Car
situación
##bé
लिपा
##vie
Portal
##עות
하는
сил
propia
fim
möglich
terenie
parking
##жение
##нски
okresie
Ruth
Bass
##વા
niini
اشاره
##اه
hòa
Pont
Firenze
sydvästra
lb
##던
##vao
##יקה
310
døde
##lege
différents
##нные
BMW
stellte
##вая
místo
Money
##тың
bardzo
Hänen
##kle
Pyrénées
##tio
tinh
waarvan
##jal
విద్యుత్
##gruppe
настоящее
squadre
roles
##생
##maal
##tare
archaeological
##בת
regiunea
##entes
255
phong
Tierra
تكون
presenti
immediately
##rch
##னார்
crew
mujer
болды
##mıştır
ఫోన్
gauche
када
##جة
تیم
##ట
Stanford
longo
carta
##anse
##nit
paese
షెడ్యూల్డ్
##fan
tamin
ერთ
команда
##dera
Grey
##вно
Segun
queste
##dang
Mercury
##cada
##enie
estão
##mesi
автор
տվյալներով
##теля
##bourg
Wasser
Cap
toho
intended
वे
енеді
amount
##uce
##نه
##ington
##uka
True
Bangladesh
defensa
zudem
tài
Yangi
pris
##лася
alone
##ilor
destroyed
sg
nya
районы
##ER
följande
Phillips
##iant
olur
##으며
Europy
##ரம்
کرده
Église
materiale
متوسط
annak
thi
Mountains
Walt
pi
##טר
Кроме
prince
Великой
zehn
##ages
housing
gminie
llegar
3ᵉ
##são
Jeanne
Mason
fonction
IP
##ekt
kleinen
##န်
spider
prie
##rów
måtte
##sit
##ած
interesse
Performance
igen
split
ثبت
Clinton
##ied
##rang
##ист
armas
Moskva
370
participated
##vers
##ني
できる
např
hombre
итә
Because
##can
leaders
##jena
Sua
organización
sarebbe
Constitution
##ába
compagnie
Brandenburg
##്
Esto
##ncy
ఆసుపత్రి
##jima
Religion
Nos
##டி
upper
##aine
Zaragoza
Jeux
##sce
prodotto
에서
risk
##בי
Shanghai
Food
maggior
nisu
ਕੀਤਾ
Xã
##ической
##sma
##ေ
것이다
లేని
Weekly
##pers
break
Link
##יק
estaban
Sprache
tuổi
baixo
##רו
ҳайати
##fy
##ví
##të
##카
##uli
Más
Ecology
operating
тора
##ణ
##iza
בעיקר
youth
##هایی
според
Helsingfors
kjer
##kken
Bachelor
Bruxelles
ಎಂಬ
впервые
victoire
honneur
2018년
##וש
квітня
prije
זכה
سبتمبر
स्थित
##kker
País
##cular
хьалхара
##wang
Suisse
iglesia
Ichneumonidae
місті
##θηκαν
emperador
vorm
##cimento
##ního
trata
##ਦਾ
pouco
Etazonia
これは
420
PMC
##tų
nada
tư
##assa
##tea
##kur
ряд
rad
ökenklimat
chiếc
##êu
Étienne
##nega
actress
hiduik
Know
gehören
Mozart
##ように
phẩm
##tott
báo
dias
reach
أبو
besuchte
campagne
έχουν
fecha
##די
več
Internationale
giá
যে
pari
##cta
Got
planned
odnosno
##್ಯ
već
mwaka
Enrico
Tweede
##čku
widely
hora
facilities
елгы
##enberg
##sman
##тели
goed
##tät
Twitter
##light
acid
Cependant
##ತು
Analysis
Italiji
vari
##eld
innan
Industrial
partida
Blake
zuvor
##lk
##tors
##iek
Праверана
##etto
##lir
##ством
creación
zoon
वर्ष
458
##chter
있었다
Piano
terdiri
Zwischen
AM
britannique
Alonso
जुन
لیستی
isso
##bis
instrument
worrn
Iglesia
principais
Tres
seule
Avery
saint
Aaron
ছিলেন
##dzie
Case
Sub
gelang
ایتالیا
tipos
Inter
tidigare
Hungarian
వారం
Commissioner
##aran
##лата
##ода
дейін
Living
względem
##чески
##zak
поле
actually
##ея
##koj
##ums
Athletic
##ניות
っていた
##জ
##ents
equipe
жылдан
##rini
238
Handbook
##zą
জেলা
Paula
Departamento
##ಡ್
Објектот
část
Мария
när
territory
pagina
چک
Egy
pwovens
Dylan
##uksen
йылдың
##ives
Montana
communium
habitat
##ոս
districts
Erich
owner
223
##вых
Edmund
けて
Palazzo
moglie
hinaus
місто
características
myöhemmin
##тора
giving
Mali
##ening
bên
setzte
västlig
Trophy
canção
##დის
الجهاز
##وت
きな
##aceae
मू
##anti
##ení
edifici
offer
سوْن
footballer
Tor
##čně
Claire
##íes
##ές
##uose
Zeitung
Bang
musée
##فر
frae
gara
##ാ
أيضا
Wikipédia
##ത്ത്
##ľ
purchased
tales
militares
Alt
dự
Joel
אלו
Among
Tal
Armstrong
##ههای
serves
موربّع
giovane
nda
obtient
##ונה
##מד
серии
للإحصاء
Через
fundada
Setelah
тот
##డ్
##inn
##aro
Soest
asl
Scarabaeidae
##tvo
проект
##êm
Shah
vele
194
##در
lokal
Spirit
یئرلشیب
Sammlung
име
##kih
klasse
Résumé
její
##ька
Bryan
##tika
لكل
država
1774
##ாக
leaves
##ால்
equipment
##стер
namnet
##koa
Roku
critical
obtenir
болгон
Repubblica
##ცია
பல
therefore
Pradesh
1782
##ニー
København
Physics
##мена
başladı
handelt
mari
команду
##lama
##dien
baş
Рэспублікі
sách
demande
Köyün
cura
Strecke
##encia
Plata
Zhang
cela
torna
Montréal
##cchi
CEO
Weber
##day
visual
Karen
листопада
जा
##ләр
purpose
##тон
Università
##íos
##eden
inne
esimerkiksi
Präsident
Системаи
##нього
πρώτη
Москве
ССР
Projekt
ते
##به
##enen
cinque
Simpson
מלחמת
##овий
befinden
берегу
masyarakat
детей
धर्म
setiap
mulai
იგი
Stevens
##ität
comando
##ık
Dollar
Away
218
април
Hungary
cars
##tag
baik
recursos
##icht
machte
##ování
artistas
nổi
Mayo
##тика
Philosophy
lisäksi
civile
сборной
males
##جر
fellow
conflict
begon
typically
##bad
barat
Say
##lna
tik
eigene
##дық
##ussa
θέση
Suomessa
poet
rive
zwar
albumet
בני
##ovala
##مر
Toshkent
##esse
ice
губернии
##urile
organized
Nevada
cuerpo
להיות
Escuela
MC
Bahnhof
##ření
440
voltak
שלא
فقد
გვ
olmuşdur
votes
branch
Monaco
mobile
населённых
composition
Face
felt
##ही
karo
Liliopsida
varie
institutions
Св
##ении
początku
##ьно
##kse
schrieb
તે
хабарнигории
##ալ
Biôgrafia
things
##되는
Laut
Auflage
институт
##בים
Zuid
Scientific
##ière
ერთი
##zte
servicio
##tów
edat
##మ
##رية
yksi
girl
pista
##nsis
системи
Derby
##kant
ਕਿ
multe
CA
Todd
sehen
##zna
birth
Bruder
condition
Pat
devido
ఆఫీసు
Ahmad
##nő
Armenia
##uur
Next
deutsch
##ckiego
שהוא
##ък
adopted
ראש
##اج
Symphony
hour
##owo
Bristol
##ição
हुए
управления
などを
آپ
فيه
##νο
Федерацияһы
цей
acqua
ավելի
häufig
Bản
grupa
##12
##win
òg
количество
##жно
Kongo
když
قائمة
кадастрының
당시
sistemas
##য়ে
##ről
mida
tấn
publié
##ικών
obyvatel
Sicilia
tornar
##κα
Granada
##gina
nhóm
воєводства
Ville
##nad
Rev
XIXᵉ
##mentos
##book
deriva
można
##ட்டு
Why
Colonel
Norwegian
ikinci
##gebiet
##ंत
##igung
premières
Artes
పోస్టాఫీసు
ইলাতাই
rival
##ーン
oblast
Kominote
##razione
sastav
1772
##ёр
defeat
##שות
شیمی
assigned
počtu
##נג
humanos
regime
Comité
lequel
zelf
1778
artikel
##jom
armes
memoria
ארצות
##él
дома
##hte
##wick
stammt
jolloin
hindi
muda
Obec
sociales
plupart
женщин
##ello
kell
##ote
##ám
ilçesine
2500
##్
ในปี
expansion
##rten
Voice
sijaitsee
Độ
cependant
##രം
##vien
Romano
Fine
Map
Saturday
##rul
semana
дохил
Have
Karriere
##nka
χρόνια
hänet
##ίου
Reed
kvadrat
reviews
pluse
Bernhard
##bres
Prof
##ായി
clear
тим
USD
##では
bhí
Kind
##கிறது
##jev
##rri
Nuo
һаны
##ति
износи
revenuo
Член
Печора
skalbaggsart
##sun
なる
##ынан
6th
##nelle
einigen
248
Utrecht
##즈
tilbake
força
##isia
Bible
бас
circuit
conseil
ці
provincial
Италији
dau
Tuy
hen
##сно
##inga
Fisher
##grafia
mentioned
gene
blood
effort
##עת
structures
образование
ensin
baina
continua
##yev
Charts
fevereiro
escrito
lake
##דו
battaglia
accepted
Col
Geological
Number
Hessen
vous
Ferenc
води
850
miesto
Marcos
يونيو
Afrikaanse
nashrida
طور
Greatest
shumë
##ș
read
Frederik
##ことから
процени
tar
छ्येलेज्या
ennen
##TA
gives
##rist
jabatan
энциклопедиясы
1781
viết
хужалығы
tương
pan
samhällen
##की
foot
Hải
##ations
234
##gono
##tad
enige
Viktor
آب
Andrés
всё
##용
sezon
болады
Ángel
Rei
مركز
җанисәп
##amt
##세
שונים
mor
##ાર
ਉਸ
##mist
##یں
##단
communication
taas
بزرگ
##Г
έγινε
possibile
teacher
tandis
Aquest
Voor
IF
amikor
##வில்
Panama
##iser
plantes
aynı
соли
engineering
##upa
dood
tredje
##esen
##ьных
1777
##hkan
Marseille
জুন
مانند
declared
##ького
##ística
##bot
یئر
tome
##րել
##нский
##coli
##ckt
conference
captured
electric
##tom
futbol
231
Stelle
אולם
accident
frac
může
opština
archive
Augusta
Revista
میٹر
Thomson
lövskog
##bek
Spiele
formes
##فت
medan
Staten
##ップ
##ES
##ներից
há
russe
dirigida
Cat
genera
##uses
välja
##wagen
Ellen
frem
йылғаһы
DE
##ニア
Americans
بودند
##ース
grund
sträcker
Gómez
##zott
Mesa
##чне
manière
volumes
##ws
profit
వాణిజ్య
guide
Firma
kar
acting
##ious
começou
ضمن
basic
##uno
Cold
böyük
וכן
staan
##aste
sept
texte
##λή
dark
Pusat
рода
mini
312
Rita
الوطنية
۱۲
##iej
имя
amerikanischen
##тин
305
utara
títol
sett
##րում
alongside
Paraguay
tip
iaitu
leadership
роман
Bern
253
##oc
Yemen
mponina
շրջանում
##cze
##pora
##fahrt
Gibson
sát
##usta
##cza
Rotterdam
historii
динамикасы
Late
اصلی
Secondo
mesure
գյուղ
декември
filmen
Documents
sudah
Ya
muitos
##sjon
##iku
Германии
чемпионата
Greece
crítica
октомври
look
Oro
##ಸಿ
naselja
chitarra
##λος
##ğa
واحد
mistrzostw
document
derfor
Hits
Bordeaux
ауыл
Stage
##owano
أغسطس
Diamond
##nien
Prins
Betrieb
produção
respectively
##ńskim
versão
##нных
aumento
sakop
svoju
##tka
Cao
Andre
##ією
passou
Insee
##ují
##эй
fell
дела
##вен
##zor
प्रकार
genutzt
##née
##oga
ديسمبر
gleichen
##お
amour
skupina
wśród
##نده
isola
Politics
##ота
super
όταν
otrzymał
Dunay
giao
слова
Istanbul
##они
Total
itt
gained
Nielsen
округ
hennes
Drive
Week
пункт
линии
##oru
nachází
difficult
mountain
září
hoy
GP
bahawa
πιο
Vertrag
communities
peyi
##교
savannskog
Superior
relation
תל
##tne
##rma
##itt
ranked
Франції
##მის
##sey
בעקבות
entstanden
ofta
##pit
##들의
cannot
Toulouse
##эг
##ић
##тен
##גה
برابر
continues
estimated
Legend
##сия
egiten
término
því
podataka
వ్యవసాయం
Tage
erreicht
##lea
drugim
##uru
##сының
##ани
Emily
trang
##ática
##yu
##ческое
##mbo
жена
alrededor
Honda
##өр
ciudá
budget
CC
أحمد
memory
##lash
##Н
##чик
fronte
dagen
combined
##lic
står
előtt
##دار
paso
quả
đình
##lərinin
байна
##сында
avere
##vant
relative
investigación
れる
Convention
kapal
territori
болон
##ition
##ăн
##lene
Wells
##ünde
gh
dados
Inlandsklimat
тысяч
ngoài
mensen
juny
развития
principalement
Ini
##zett
239
Raven
largely
##larını
২০০৬
Springs
##ന
possède
várias
##권
Foster
##drag
בישראל
wurdt
семье
ordine
##ಿಕ
Ulrich
264
chơi
desta
227
responsable
Medien
paositra
##Ф
pintura
Schweizer
##ూ
například
været
Tel
входит
اسلامی
artistes
##ról
عضو
където
ಮೇಲೆ
hip
Kloster
ոչ
##סה
Portland
phục
zichligi
Tales
365
musim
##신
##tha
##kke
serien
##iju
##ソン
yng
بسبب
minuta
contemporary
gaat
##است
##ობა
vua
makanan
distriktet
375
Linnaeus
##eza
##ാം
الثامنة
##כי
teraka
Devil
často
Maret
##سة
Hunt
hosted
Danach
##ば
##اة
appelé
Birds
kékeré
sentido
کردہ
##zny
##igkeit
##sinin
##ču
Она
importants
remain
##dge
agreement
##erie
односно
uomini
mee
проживали
##կի
##xes
Powell
goes
stellt
József
Ka
##ದು
##nter
Carabidae
baie
##ळ
sitä
Richmond
SV
umur
داخل
##ერი
Brasilien
properties
proses
lhe
val
ort
##ít
##sió
##zem
урынлашҡан
województwa
Officer
tax
Eyes
ro
##ает
completa
##فی
Ad
Harald
geonames
##ματος
lago
స్టేషన్
Klub
ভারতর
megyében
avaient
пр
पश्चिम
##연
stehen
Alberta
amerikai
##rski
##τή
recognized
város
suivante
signal
poate
##lung
##cano
Venus
Mitglieder
##दा
ਉਹ
##니
##logi
Godine
##sini
realizado
Ersten
Regno
aga
naturlig
weight
##šanas
batu
outra
اگر
##코
ait
Teheran
roll
265
بسیار
contiene
muchas
##room
##ического
rajono
mora
tā
Ahmed
##ык
##פ
دون
##פן
fece
المركزي
yards
linii
Industry
уйăхĕн
ìgbàjá
somit
kaodim
све
როგორც
##uhan
##ellen
plánẹ́tì
##행
Portuguese
nagusia
Kultur
proces
Flight
Согласно
гол
insektsart
آلمان
##ლა
ástẹ́rọ́ìdì
##कार
Nebraska
##يس
##վ
##šla
growing
figlia
comandante
alles
Castilla
##flugor
nhiệt
hát
govern
دوم
đưa
agreed
cea
ეს
##ihin
##öt
Ấn
##ಯಲ್ಲಿ
##oria
liv
1773
Arsenal
##ots
##nae
##ード
##yə
Советского
##ξε
membri
जन्म
##קת
##ची
meio
presence
ਗਿਆ
generation
##rdo
##рија
eða
통해
Labour
بوده
##kseen
spread
262
##hou
Syria
Wing
Crown
nació
##fat
metų
giữ
##tettiin
##телем
hiru
Nat
sieglu
##іс
talatak
compared
Tyler
område
Quan
lokale
##nyt
##wać
Tai
Fiction
##gra
##elli
Yves
մինչև
Annie
laget
Work
composto
Regions
##ären
##ixen
228
perioden
clase
##wing
Bahasa
##kich
oest
##omo
##niki
administrativa
метр
svezi
Curtis
مما
Chemical
##amen
##ungan
komot
vývoj
dado
##sında
##ира
Карл
Bibcode
nachdem
الشيخ
Nähe
plass
politics
Jessica
520
##mond
MCG
Tout
joint
борбору
мировой
##رو
বেয়াপা
많은
##oh
##ობის
oor
##берг
##board
lata
##nata
Basketball
jam
##्ट
rang
Fair
вновь
mg
اولین
모든
နှင့်
##ಕ್
לה
حول
##اني
مايو
என்னும்
##éré
##tò
##чный
ligi
Literatur
verder
##യും
Serikat
hậu
короля
##ティ
chose
enorme
greater
##eh
reduced
Navarra
##غير
fleste
##לו
##iy
hoàng
capo
243
##uen
soldats
conquista
occidentale
comedy
occurred
##kers
sidlakang
##ارة
famoso
##fs
resources
వైద్యశాల
ensimmäinen
נגד
##lés
##gger
##rom
##нки
मण्डलया
głównie
Teams
##dina
Bp
এটি
lässt
január
gebaut
gründete
##cato
##fera
nuevos
##лено
##elor
##ços
##lav
български
немесе
Normandie
داشته
velmi
Hilfe
frontera
9967
##ਦੇ
##щие
##ders
ספר
causes
қарасты
Commander
participation
negative
مجموعة
storico
כלל
honek
##î
justice
علاقہ
nato
différentes
##āja
Canadá
bastante
Otte
##mata
##ತಿ
Around
##יט
possui
tutta
다시
గంటల
verloren
Liebe
##soort
Conrad
ساخته
##kų
##ઓ
Республикасының
drugih
Tree
##тэй
233
##antes
##들을
ఉన్నారు
Nei
Sơn
Cohen
vokal
tercera
lah
RAF
##нал
##шли
Nazi
deutlich
##μή
Aholi
estuvo
weniger
##ನೆ
##ации
való
##цов
Miranda
Schneider
325
variable
lai
Stadion
##rile
billion
##ď
cycle
voie
Hrvatska
245
Denmark
पुरस्कार
##lmente
##יית
valle
##пы
đời
##šte
још
##نگ
lever
amerikanischer
души
Kid
##eiro
Тоҷикистон
Literature
##ável
వనరుల
escuela
219
općine
rhywogaeth
чел
élections
Nie
claims
gain
ellen
1760
както
##nii
##jih
روستایی
kolme
función
yıl
trzy
பற்றிய
Najveći
Madame
##λία
##lerini
noir
öz
Tiger
realizó
##owane
njegov
background
Ridge
##ugh
nominated
##cent
##ھ
лютого
riu
##ús
##נק
##ё
Soccer
คน
composta
##скому
القدم
aufgenommen
##lane
olduğunu
naval
cal
Norton
##യാണ്
driver
Anglice
Kebangsaan
resta
##nú
##otta
aquests
metu
##문
توابع
##िन
ubicada
paid
##ئية
313
##קו
ym
taip
Leslie
présence
##lser
##hem
vera
##ਿਤ
Jung
motivo
distancia
Jako
##gado
Stories
##В
##minister
Hof
entanto
1763
Pearl
##ief
sezonu
##ři
patients
પર
##ói
##ība
##star
Helmut
چند
##чения
expected
draw
##key
programas
winter
Orlando
După
tanah
मण्डल
établissements
##zek
μπορεί
##yat
Android
##тай
regióne
##uja
Buffalo
œuvres
mph
yếu
teu
##شن
острова
volgens
Madagascar
##нага
Серед
Luca
Switzerland
##חת
což
letters
jeunes
Коди
עבור
##igh
ciò
##τας
##іне
stazione
Ziel
taught
חיים
bentuk
eredeti
##ahan
##alla
kilometrga
hinter
отримав
##taja
certaines
статус
##ิน
mangrupa
##ond
##ப்பட்ட
servicios
Kuala
chưa
formada
marque
Hampshire
Ca
##vno
розташований
##ランド
कई
##рта
acres
ven
##யாக
##isce
##čení
##ага
České
трёх
twenty
##onie
spring
##cate
bütün
##ాల
costruzione
humans
Stalin
Infantry
Native
рамках
##selt
Sr
##әр
applications
udalerria
більше
environment
audience
gisa
secondary
Cộng
pertencente
Bennett
##zone
Kosovo
Augusto
Server
medida
gällande
thần
##tul
##ტის
Josh
##τών
さらに
pasa
295
suffered
hiji
bring
dẫn
хан
##gre
instruments
simply
colonial
providing
vescovo
##yor
copies
donné
##indo
expanded
ಅವರ
##ће
ursprünglich
না
Loma
countyt
biểu
Defense
306
damage
##ంచారు
##umu
تولید
##tati
##ật
identified
##tog
251
##eres
Emmy
##eris
##ew
Filmen
няма
Zentrum
##ว่า
Verde
something
##ops
##шта
avut
lịch
##чної
empresas
powierzchni
##ന്നു
lá
##ким
movimiento
##হ
##kten
інші
##рда
##еля
Beyond
Match
##лах
##вич
Nassau
fly
док
тикшерелгән
Grecia
Geometridae
entreprise
Palmer
كم²
##שר
##った
רב
Mine
##wano
대한민국
##ij
Ghost
##ates
Eo
میشوند
##ੂ
והוא
##чные
##ød
Россия
##ír
setembre
002
Zero
##žio
według
##führer
Romeo
Jun
Теллина
Beliau
اؤلکهسینده
##ël
link
Lladin
graf
quarto
##naire
للسكان
##вка
друга
hefyd
##lauf
Glenn
մարզի
##cen
##іл
селе
Thai
ubos
Gloria
Darwin
locales
##에게
طريق
##шення
##rts
229
Kampung
друг
ap
##ydd
##ரை
ходе
##čkog
301
##ோ
##rman
PTT
fish
terres
prof
ejército
##phone
aún
restaurant
##ván
##ències
statue
##vara
##cció
##tés
Illustrated
##halten
##ео
करता
##фи
bermain
статистика
##pper
beta
primeiros
##iä
##dro
##ಕೆ
тэме
kladograma
##ും
254
từng
Edwin
Concert
twice
430
304
##git
unità
Basel
Anti
##nä
tipus
Imperio
Ela
##երում
marzu
##ורה
unico
ön
##owana
השנים
Namun
parallel
وذلك
finish
erwähnt
Bezeichnung
üç
receive
##cation
##út
Germain
Raum
habitatge
##انه
আইএসবিএন
دوران
Article
კი
##ště
diagrama
##ndosi
actrice
##ていた
##orn
març
victoria
televisiva
życia
##طة
ël
vive
##ái
##atus
##మైన
##аз
liệu
suit
entrar
stile
236
Vera
professeur
dute
##ары
##הם
nekazaritza
##щая
Hopkins
##દ
Giacomo
Hai
##جی
##rida
Dio
##jske
センター
Seoul
##ś
##bang
Galaxies
Josep
lorsque
##سي
violence
бөлігі
##리는
Bereits
##нее
##bung
يقع
##lere
Father
إن
2006년
ప్రకారం
Honor
dando
kraj
fransk
usado
Gérard
sjön
околу
अनुसार
Así
ponad
Почта
##tado
сол
больше
hop
architect
dafür
##և
Ibn
Szent
##ој
chương
##लाई
spolu
которое
хотя
Stefano
##tr
##nės
Bois
parroquia
Intel
Kai
##iens
##ake
између
int
Tibet
Solar
##ಲ
##ða
qədər
désormais
##ım
Seu
Claudio
##ρη
morir
Track
##нна
##ņa
covers
410
Companion
##tics
télévisée
ezt
##spieler
##nahme
precedente
##ంగా
koning
##zzo
##iam
##stel
propre
Banks
فبراير
IOC
század
##inas
##aw
##ാണ്
##ула
hija
imao
facto
からは
macht
coi
##ọ
raja
نوفمبر
##מנים
246
##dium
##dita
Training
હતી
##토
##aries
önemli
منطقه
canzone
obecnie
Ella
##ιά
##хьа
дуже
tục
usage
algumas
ғылыми
grans
многих
##zuje
##ńska
begins
Gil
suomalainen
каде
allows
Then
kerana
voit
zien
Origins
विभिन्न
Anno
composer
Bd
Quân
##cznie
##lidae
Lucy
##zki
బంజరు
traffic
attacks
##ók
přes
Uno
gehiago
khí
Rosario
Jews
akkor
titles
الخامسة
##lerde
##verein
Вікісховішчы
cabeza
двох
##ために
engineer
outre
poznatih
minimum
рр
##rden
hu
##dura
pintor
Fútbol
жінок
##lov
Room
قام
тут
része
додека
##ьний
construir
Belgium
Польщі
##ಂ
seluruh
AFC
wielu
Kacamatan
గణాంకాల
##ebb
membros
situated
##dí
isam
tillegg
Belanda
mehreren
villes
##inis
vader
Want
kabanay
##uca
ныне
حدود
Pascal
249
creation
kept
##iah
Eugène
egiteko
Hero
Nagy
cinéma
Authority
##つ
terrain
دولار
számára
moyenne
##שי
milioni
fazer
intitulé
Socorro
listopadu
현재
يوم
مساحت
commission
կմ
kỷ
Arabic
Malcolm
##ið
newly
bunda
matchs
Беларуси
UN
ceinture
Dawn
épisodes
الدين
##イン
śmierci
Garcia
заедно
книга
Palermo
Luc
մոտ
deep
wala
Gymnasium
außerdem
connue
##ôi
роботи
Saudi
меттиган
Produktion
zaś
Belle
Tang
არის
bude
Artist
қараша
densidade
Chem
reports
majoritatea
veröffentlichte
Alba
##تي
släkte
belangrijkste
##ég
Lalat
yli
Beograd
##angan
Nathan
Globe
poté
bandet
##ನೆಯ
ilin
combate
##isesti
zaradi
Félix
elkaar
resulted
наиболее
##ece
existing
Stan
dêr
portion
siirtyi
zeer
nuit
хыпарĕпе
clube
##erten
まれ
organizations
theme
##ئے
IRAS
эти
ομάδα
parelles
Michele
##lada
towns
Ал
този
lugares
##att
dựng
Frédéric
Yeni
organ
camera
##stic
división
##ế
Upon
ла
になる
##kaan
##ję
##ਿਕ
অনুসারে
Tá
чыгарылышы
πόλη
bán
##tida
базасындағы
театр
ứng
esercito
##jai
questions
orientale
שלה
##ático
історії
Abril
##щение
языка
##jt
##ത്തെ
##acji
##ترین
igjen
wall
##ivos
Díaz
##lagen
svojim
редактор
##များ
Kecamatan
##ီ
былі
##anan
##য়া
##бар
Hardy
anteriores
##ლები
euros
آغاز
##τι
##uin
##liste
##нг
##eck
##דת
Nina
##чена
##وار
Julien
éditions
272
خط
Comté
departemente
petits
##mək
##čen
unes
##цију
##려
metais
proto
gelegen
##vole
Make
Orient
станции
Advanced
resulting
Far
hie
##логии
Zjednoczonych
Patricia
میدهد
##alan
Bischof
ratio
reçoit
legge
जाते
dvije
##ьная
Guitar
Fund
rada
##بار
denna
små
piece
buried
##idades
##ások
##жна
authority
периода
arribar
##graphie
##lek
conte
pozycji
liegen
##ಲು
successivamente
tedy
Yuta
##업
nhập
például
suivant
যা
##مية
307
кога
ней
Universitat
sign
فإن
##নের
absolvierte
Alfredo
description
develop
niin
thương
भाग
школе
लावन
##zés
আসে
##ਡ
bigarren
Vega
##dek
##tai
élu
akhir
##sida
orchestra
logements
لئی
légales
Beautiful
passar
született
Teile
kung
##ங்களில்
tj
cinc
##лены
1768
آخر
Eugene
##์
yá
הן
droite
laikā
pasar
ခုနှစ်
deste
lehet
##лем
Making
brano
genyen
##်
##ટ
Франция
بھارت
Nuevo
applied
##czenia
considerada
##рок
coup
hijos
regering
vệ
ఒకటి
fratello
##ály
003
làng
##toria
ty
Chuck
invasion
Private
אלה
құрамы
Española
службу
##лд
##ası
effective
##lä
नेपाली
visible
brukt
Luther
رئيس
měl
neki
titular
Бахархойн
đóng
सकता
##ில்
Richter
DOI
алу
##ои
окончил
seats
##وش
mayu
##цыя
##جد
edição
##ься
##the
learning
soles
Мамлекеттик
Martha
boy
##ăng
Pa
fia
##טי
##tge
activité
Duitsland
setiembre
##rja
работу
arba
##يب
Nice
campeonato
painting
##عات
のみ
quelli
первого
yapılan
reality
lieutenant
brigade
chiếm
Федератсияи
Počet
numa
##дің
##லும்
юханшыв
##ં
doctor
erster
వ్యవసాయానికి
Avrupa
pues
రోడ్లు
##ilen
##mmer
iTunes
##него
Lista
##iker
##ավոր
Volgens
siis
úgy
gebouwd
##νη
Bosne
IT
своё
successivo
guest
##jk
situata
kroz
gener
granted
войск
##ப்படுகிறது
பட்டியல்
utilizado
Oblast
eftir
##nė
प्राप्त
دار
بلندی
##lerinde
##keun
Beste
info
kuwa
##žení
marked
בעיר
##алі
xineru
бұл
##osta
としては
##kta
connected
##ости
##صر
257
avevano
lama
##ച്ച്
##cijos
rouge
そして
##tern
poznat
##ئي
##μάτων
ekki
##חים
##jia
xunu
acest
##ffe
Ortsteil
##ässä
sementara
##mb
##вать
ডিসেম্বর
##halt
quyết
יחד
Александра
##nam
mata
vue
aldı
##들
tells
##ью
unidades
surrounding
639
בהם
אדם
различных
##бі
торган
hermano
Situs
druhé
tada
Erfolg
necessary
Honduras
Edge
MW
##uel
gewesen
GAD
רבות
полка
##zation
водного
usar
##ëve
دارند
##ბის
Range
inspired
##년에
##mic
##ま
##דר
##gge
fuerza
Michelle
##уна
##سم
のため
olid
##ులు
arc
Leiden
वर्णन
##ады
advanced
tây
gemaakt
Lorraine
رقبہ
##hur
дивизии
Asociación
receptor
##മായ
néven
bà
Baseball
groupes
erau
Jeremy
ولی
общества
##nds
téh
studia
ernannt
provinsi
ноември
##dica
dnia
##owski
اساسيندا
##тка
dá
271
tagja
deltok
agost
##лів
##gat
courses
еден
другим
presencia
radar
Comme
центром
bỏ
safety
##सी
anual
##pon
luar
Berger
trad
inyo
##aat
##akan
principali
dorp
##IN
webgunean
##itus
Academic
##qi
##ficación
##arten
након
##ёв
súas
##SA
##ический
Tổng
повіту
Nicole
##mde
えて
indeling
мәғлүмәте
##ất
Lion
Dana
ולא
##aten
Léon
ranking
##уда
##्व
tried
seguir
Que
##ома
##down
években
Sala
què
sq
море
Magdalena
303
bala
##stwo
##gni
##ês
Start
237
வளர்ச்சி
##лік
##шу
Chine
màu
Campionato
valt
също
##ย์
##ệ
частности
completely
##ഡ്
##ização
##ète
mandat
##minen
ولد
##illo
##лений
Кече
##nische
кар
##tory
##verse
##chy
timpul
votos
Continental
Terre
personaje
##က
članak
lau
Museu
nå
tao
MP
ray
Jesse
περιοχή
##ടെ
Montgomery
fully
foto
Деҳа
Vista
Omar
Tijdens
dempués
disc
##anu
ہوئے
zespół
Adelaide
##юць
jenis
পৌরসভা
##нения
آباد
cando
დიდი
даними
vehicles
yard
sette
Maritime
Familien
block
333
rio
galaksija
multimedia
datu
containing
##eux
##czył
##ають
südlich
##ёл
FBI
kanton
Dijupuk
علمی
nào
##ята
મુખ્ય
quá
##čko
sides
жизнь
plata
sør
##ייה
##ির
disabuik
karya
seja
##ბს
маҳаллаҳои
кино
##rane
Marion
MA
##تون
wins
rejoint
UCI
##tą
karakter
аҳолинишини
##gno
melakukan
ehk
##øy
sillä
saman
teaching
таким
Liberty
Aunque
##iter
460
242
antiguo
клубу
##bing
dima
##lny
##았다
حسن
karşı
unknown
ప్రధాన
mpilalao
##grafía
један
##лий
##щий
##յալ
منتشر
Chúng
داده
antigua
##ತೆ
решение
##ינה
##nten
شروع
##ender
Tam
construcció
gilay
komon
talagsaon
itandi
##hme
Artikel
##рен
1779
Truppen
fondo
أبريل
decir
došlo
dewasa
मार्च
Emilio
huit
personer
rộng
obtained
scoring
confirmed
##gren
Munich
##ünden
לפי
axe
начин
##nci
##우
nouveaux
Petra
ինչպես
acción
Verbindung
история
core
generalmente
EC
Angela
##તા
שהיה
thắng
##ította
généralement
براساس
##ことで
##त्र
##ారు
Spielen
Royaume
здесь
המדינה
rekord
Tennis
ایمیش
##mans
Viena
##னி
ilmiah
wenig
због
blevet
##тів
პირველი
##िल
##ìa
##λα
Ел
болуп
مواليد
1740
##ით
baixa
populaire
288
bất
دنیز
vehicle
terreno
##lius
##כן
##lava
avuto
vivint
talent
ОКАТО
methods
poble
seks
گرفت
Albrecht
##טון
президент
ore
##tamente
blei
edited
##egen
##दी
Ihre
nominato
Communications
##ям
finalement
sterk
Dunia
geworden
основном
Dios
olmuştur
##лок
alábbi
occasione
Иванович
##кие
maig
injury
##ware
claim
армия
##cono
Bien
кеше
Steel
boek
rend
##wała
Архив
EMI
mesi
referencia
##ares
नेपाःया
АО
younger
feito
showed
##тик
xây
gemeenten
काल
##vez
1753
বাংলাদেশ
Selain
imaju
##ание
Welsh
##ава
##нат
##dle
xunetu
Günther
##nca
##meter
bord
Ainsi
באמצעות
285
timur
것이
##בו
##čnih
байсан
stora
gjort
unas
##jah
##stre
##érer
noto
voidaan
##цією
Britse
euren
##eks
welches
Jamie
baza
##형
Policy
biaso
ibilgailuen
figli
lès
Hay
אחרים
##ï
Iᵉʳ
##preis
##larına
Search
starring
države
##ight
troupes
dunha
Hozzáférés
laweh
disponible
Universiteit
##cm
CDU
##ಿನ
##enn
medzi
##öld
Becker
fighting
##ტ
войска
نیں
ತನ್ನ
kapalo
visit
##lini
##σουν
Branch
karusakan
mine
אחר
translation
Emilia
şebekesi
##mission
##чено
##chia
sviluppo
Evil
##্স
##жу
Universe
تمام
##ვი
##av
Dieu
неговата
##קר
více
работа
Still
##ρος
##ದೆ
economy
kurang
##eon
tytuł
versie
జనాభా
Bratislava
Yorkshire
Guillermo
##quet
대한민국의
Sieg
Us
とした
##ést
kalas
కోసం
importancia
##ptera
SD
244
Testament
waardoor
##awa
##חר
##itos
##ക്കുന്നു
principals
الحرب
aquel
jednym
limite
Chan
classement
ભારત
labor
الإنجليزية
##ので
##ীর
мають
मराठी
tanduak
##ירה
étude
slechts
Cannes
Konrad
manyebabkan
ditabang
manggerek
panggerek
##δα
Bo
##tand
##られた
Brooks
oldest
chairman
részt
##անի
giống
мае
Tale
Flying
committee
##mą
daily
mùa
moest
istifadə
उन्होंने
Battalion
CV
pair
##تے
##րական
Polskiego
influencia
pracy
գտնվում
##ід
lle
##yl
Stade
##린
erabiltzen
Engels
household
struttura
##зан
العمل
contrato
tratta
Wayback
##բ
autores
Στις
##olt
Двина
18th
tillsammans
метров
##ië
храм
імені
suggested
художник
Arbeiten
Ranking
عليها
Grove
Moselle
##unta
рок
##оя
bildet
kerajaan
میان
kojima
kat
ќе
##vati
किसी
historie
##ध
siehe
##bild
होने
perquè
berbagai
Ministerio
Tallinna
bhliain
commander
##һе
distintos
командир
##ське
Они
##ували
jų
##шения
Lage
instrumental
exchange
##mış
Europese
##ění
Alpha
##iona
административно
Censo
dates
schloss
ॠतु
##чная
Forbes
315
bor
eski
officials
alapján
dous
Norsk
##ூர்
##И
forest
##того
WWW
scuola
##まで
##ച്ചു
domu
pinyin
publicada
champions
Ex
Hubert
##מין
##rich
trono
život
##odu
Wahl
حکومت
##лана
##cted
ಆದರೆ
Roosevelt
Osmanlı
několik
ब्रिटिसतेसं
ਜੋ
wanita
Bernardo
hoàn
городского
شخص
##rlo
##ána
##انية
ללא
Lamerikän
##isto
facility
Too
subsp
manusia
soos
empezó
##анд
Interview
##anja
wówczas
Tallinn
##šel
unu
##ùng
##agi
hom
##ভাবে
participó
##기도
בנוסף
##cre
tower
ин
##zina
##дары
juliol
må
##mate
natus
kai
probablement
viện
##מון
Horse
##enda
pelajar
Escola
##రం
өлкәсе
nagrada
arrive
##لى
##ioù
losing
Lower
##чным
grunn
##rita
võib
calle
としての
##iat
లేదా
variant
##rzy
##ضة
trop
Herzog
muitas
girls
হল
##σα
familii
keeles
documentary
kaimas
##col
##ख
##િત
##れ
Choice
جاتا
Gobierno
шамасы
Kommunen
##け
##వు
##σης
##리를
Til
בשל
hver
##tsi
seo
елда
retrouve
Arabia
Shadow
वाले
##low
vrlo
Входит
Chase
##ened
beat
##lni
resultados
benannt
Pologne
quae
think
##нс
##put
##vých
виде
Deutsch
##лися
##сць
ahli
##ணி
kahenera
##ல
حوالي
##تان
texto
месте
##льна
الأمريكية
##ויות
chance
##ulation
Stanisław
critique
restos
Italiane
Ellis
Betty
kapott
estes
العائلات
matter
багато
étape
אחרי
rank
ochobre
Condado
Melayu
Statistica
Vienne
historian
stadium
tie
programming
##iae
##hia
dis
##ോ
hits
provinciji
Espesye
hands
##ема
Родился
तहसील
ასევე
##icas
WTA
zostało
elementi
rozpoczął
##rán
избран
lit
##ातील
##ندا
Agustus
১৮
Auvergne
slike
comté
dù
неактивними
vede
Rich
reason
उनके
ਜਾਂਦਾ
arten
dollars
campaña
einmal
DL
орталығы
ગુજરાત
Flores
pubblico
bahan
Giro
Ruiz
Duncan
##glia
##ście
Axel
Nachfolger
##ようになった
آقوست
fundamental
visita
argentino
##iran
cổ
برخی
##టు
##ninger
Петербург
##kami
postao
elecciones
##dum
##യിലെ
F1
Amazon
GT
fiume
amigo
egli
ένας
concernant
mental
247
базе
celu
chosen
års
порт
##공
routes
##sio
često
diente
incident
participación
Railroad
valodik
Eagle
##жных
##iment
dakong
ხოლო
жынысы
закон
theatre
##jak
##burgo
bygget
##イト
фильма
mất
دنیا
Nama
##gor
Trek
##rija
umum
içinde
lyrics
Anche
Februari
##тво
చెందిన
Lödanadensit
##sts
Республикасы
всі
നിന്ന്
Deportivo
##unu
ještě
काम
##cc
především
stranici
##cía
##orum
voru
##rla
زادهٔ
Під
##bbe
yol
երկու
##чну
Forever
Jupiter
##azi
Newcastle
מה
награда
kanthi
##ваат
##னை
chân
מטר
##რო
entwickelte
##kach
masing
1660
##もの
Hernandez
Jej
Από
sở
skrevet
Mk
Beim
406
ensimmäisen
verheiratet
sistemi
trấn
follow
##ête
##ph
##تن
kinadul
1648
атлантикан
Lambert
Suba
##ído
VL
गाँव
##ತ್ತು
Vor
##こと
peace
DS
inglês
ritorno
fuerzas
##िंग
queda
Европа
##graphy
##lán
composé
mosaik
##dil
##іння
incluindo
ove
Helsingin
usando
##nais
formado
entra
తన
എസ്
##cych
##sso
succeeded
случае
##kis
структура
hadden
lietuvių
Angels
##ப்பட்டது
##ької
vuodesta
agostu
##чной
Palma
attrice
Even
Jürgen
##iding
##력
некоторых
различни
Ин
##anje
##တ်
ama
arms
Kids
##ള്ള
gihulagway
Snow
советский
##jna
captain
blues
##ლო
laws
##მი
Jos
##rge
potom
##sée
Professional
##eja
##ումը
##isse
okrese
рос
Perang
nombrado
xe
Wilayah
##graph
Guido
өз
display
serait
Horn
centra
strany
##tim
##ील
Porter
Croix
##오
Gattung
Dieses
Fast
##cens
##ío
##ovo
위한
espècie
##्क
##itate
##ását
чемпионате
##von
Στην
Noctuidae
diferencia
##lü
Ausbildung
bande
##rent
ನಂತರ
batzuk
##stellen
հիմնական
ihres
realtà
bonus
Évolution
##cci
##itä
medicine
##ิ
Rang
peste
economia
##だ
##сэн
ತಮ್ಮ
кӀеда
##ístico
##ith
amateur
இல்
##ικές
##ריה
##ền
##င်
mix
chống
Animal
Gulf
##ogi
##وق
finnes
livro
הסרט
headquarters
عدة
כיום
Ja
Regel
dele
բնակչության
##ент
nördlich
##ങ്ങളിൽ
Pokémon
Dominique
hạng
жатады
ذات
##asta
##día
viri
ufficiale
Einwohnern
Basis
##colo
nghệ
entitled
együtt
##kı
##यों
οποίος
actividades
générale
concello
entrée
functions
holds
latino
##ρια
décide
szócikk
##された
##нә
livres
Cristina
повеќе
Fiat
király
##yes
Min
##đe
##stik
achieved
Länge
cái
##ícia
lúc
Stil
Борис
##рь
derrota
zonder
##rti
##თი
##сын
##صل
authorities
фран
chết
##hé
pravilima
##rades
##ίο
Circle
##ックス
completo
Titan
anschließend
Jin
comunque
Besitz
390
onu
##ску
медаль
##mbang
##ần
##лады
quarter
##sége
されており
enda
##ração
aa
Nu
##oan
דבר
classifica
سر
heures
Ottoman
Thanh
sekarang
##âu
الرسمي
odc
inhabitants
##vei
erzielte
##וה
индексі
Obama
##дал
Podczas
кхолламан
allowing
Haut
1950s
##vni
اسم
Broadcasting
határos
politiques
своим
##šao
espace
зокрема
##ծ
کیلومیٹر
kamp
Lille
Vereinigten
Ada
zero
Weltmeisterschaft
##ssi
začal
##èr
##ապես
Regina
depi
fundador
ولا
##ўся
Berlín
adaptation
##σεων
באותה
Begriff
мангалан
##inden
passes
siete
##sne
##프
##рак
##נן
מנת
größten
kiedy
քանի
disputa
##cznym
இணையக்
αιώνα
Sudan
Pfalz
Market
##রা
Vid
##cə
Filippo
273
##eran
fonte
cm³
Circuit
деятельности
##fier
Göteborg
phụ
eden
ആണ്
империи
Amérique
bliver
##sley
avientu
команди
##ási
gruppen
Автор
unica
Staat
relatively
##جه
asp
sum
tzw
Without
##こ
vô
όμως
##сии
Israeli
draft
LINEAR
##стю
Russie
##аний
karon
##іх
られた
fields
Nationale
Damit
##ceu
Crystal
airport
escala
##ँ
##einander
reino
още
सं
경우
asal
люди
הקבוצה
противника
Hochschule
##dern
##مي
bumi
Simone
266
títulos
fuerte
války
ann
країни
##шин
##keta
الملك
kauden
není
##نة
##aca
Як
joven
##vna
Sør
sucesso
##ína
soorten
subito
Section
concerts
städsegrön
##нный
solution
##glio
spot
créée
##τε
கல்விக்கழகம்
spielt
První
stil
##ände
##رس
résultats
մէջ
হয়েছে
Movement
করতে
utiliza
문서
##bius
##νή
montre
семейство
##nces
Flash
anv
qualquer
همراه
Zudem
##чко
##quer
kwenye
oude
isto
Gründung
koko
##లలో
لهیستان
Christina
##rino
##tól
ezért
لعب
május
Chang
##रे
##ест
segon
точки
323
Chrysomelidae
coll
identity
humana
koristi
##cata
Wellington
##aco
Luís
bleef
Aviation
##quia
землі
target
##öl
улица
Distrito
##cera
beyond
Jugoslavije
##թ
Все
gênero
##ьна
школи
nii
Eye
##지만
maire
##ex
##ığı
einde
268
##ину
##°C
sering
ricerca
##нер
absence
ভাষায়
dauden
##sak
tempererat
nalista
என
##რა
Pagka
قال
dritten
siak
personnage
Але
सबसे
Several
steel
۲۰۱۰
##евич
kteří
Braunschweig
263
##вета
##owie
imperial
302
needs
müssen
Hung
sinn
частина
Walk
تمت
resultat
façon
auprès
etti
centru
التابعة
Pavel
##euse
nº
##מל
fishes
Storbritannien
occupied
Chairman
##rot
Castillo
##fahren
Mill
scena
Jake
neste
folgende
allí
##ladi
##леге
##eter
sydd
Novo
##eksi
vídeo
જે
derecho
Leeds
২০০১
9965
Frankrijk
Adventures
##bah
kehrte
Chalcidoidea
Najvyšší
Jensen
Hercegovina
inicial
##રી
način
perteneciente
Beat
حزب
tank
6000
##няя
##స్తుంది
trees
هـ
##ову
toate
francúzska
##сов
זמן
Ghana
##ėje
jeszcze
write
##pak
Scénario
Revue
Bogotá
Bonaparte
##ավ
Berry
Świata
rapidement
Draft
szeptember
등의
другой
Üniversitesi
##ficado
patag
##ią
ён
##ਈ
aC
selben
realizada
##ək
роли
rise
тығыздығы
##komst
##nig
sonora
contributions
dirigido
vuotta
astéroïdes
eventos
singel
##cket
1771
času
إيران
##াল
##zung
fauna
##rine
jedno
március
zom
ドイツ
pirenen
Maya
групата
Return
derechos
##nija
Guard
##äinen
elemento
terjadi
espacio
##کس
کم
जाती
286
Dreams
##ót
하였다
##ined
sogar
الدولة
##ites
jild
pt
morning
arma
február
fevrye
kanggo
Kiben
plats
brothers
الثانية
yake
##ส
##rza
políticos
მდებარეობს
domain
Matoari
niż
Tribunal
gente
##ư
এক
jäi
Manager
st
bands
cirka
utifrån
quant
Lëscht
##چه
गढवाली
##ием
svého
##arse
##зии
көп
voyage
Stiftung
governor
##туу
рада
になった
##লে
miejscowości
Svenska
Igor
Low
seguintes
282
اليمنية
miała
Economics
##オ
Azerbaijan
شركة
するが
Hälfte
футболбози
issu
museo
umfasst
мĕш
ערך
ehemalige
##ներով
teoría
položený
Consejo
1766
##гер
Laguna
Италия
ГИ
##tine
Ungarn
costat
découvert
fond
государственного
missions
supérieur
Fishes
hohen
perform
##aci
1769
##يو
Crazy
##ично
frequently
##50
##ბა
##sca
Cemetery
tiền
276
Hann
Intelligence
Igreja
जुगु
nær
われ
len
थियो
Երևան
terkenal
##फ
##нă
comptait
conde
нескольких
Travel
##кт
bought
Birinchi
krigen
##ufen
##uran
يبلغ
edilir
moth
Zdroje
Etazini
payares
Menteri
jis
##xt
277
Kategorie
landskapet
Brand
આવેલું
među
Olga
різних
##spor
Philippine
свого
##ID
Dieter
Antoni
йина
clan
començar
kích
årene
започва
##ಡಿ
Clube
Italijani
België
##gir
чоловіків
Block
##데
během
sixth
supply
##گیری
општина
במשך
قانون
##sor
dilakukan
##بات
##рин
Bronze
##pol
274
dunay
##pare
##bě
occupation
cung
Albania
chamada
באנגלית
1765
lệ
##ringen
jelent
سپتامبر
Sogn
игра
Ki
czyli
একজন
respect
Deutscher
титул
Seventh
որտեղ
Papua
liberal
kinahabogang
stod
Medelhavsklimat
saga
##olla
многу
Mass
células
dur
##वा
שנות
warrt
##کر
asemenea
totalmente
Göttingen
късно
##pada
Things
دولت
##ڑ
##рів
மேலும்
encontrar
selección
heiratete
##kah
##zko
ellas
##тина
##노
Phi
##скім
##nato
##აში
մեկ
कथलं
év
gebracht
wiele
##քում
mitjà
пайда
##جم
Toyota
técnica
##عت
regista
##enes
Westfalen
Cada
Paradise
##łe
##ラー
Pe
بی
conegut
holding
portant
Woods
АН
##enburg
##лып
settled
кхин
##museum
Staff
Mayer
##dni
pierwszej
befand
ity
##ਾਰ
Salzburg
##istic
गए
Aleksandr
##ống
##ციის
అని
meeste
якому
Ti
##odi
július
werken
Дар
Folgen
##ంచి
brief
mert
кількість
opgericht
##vale
bé
##aciones
ends
##äre
Münster
controlled
Herschel
russo
französische
shared
vat
1767
najnižší
Actualmente
oficialmente
histórico
##ляет
harus
pieces
Leitung
##ял
りの
##tza
институты
celles
spiller
mente
Rossi
##eret
ژوئن
##ується
قرية
ending
במסגרת
LA
Alemanya
##ules
llevó
##έα
261
Tournament
kilka
##ivity
AU
Wikipedije
Hendrik
Tell
##dice
##kol
assez
tua
جهان
amigos
tamaño
##roy
##ブ
##lim
##tava
ગામ
##ング
мужчин
##vista
##эд
julkaistiin
ће
Richards
##agem
дело
సినిమా
lelaki
user
aired
1650
ایہہ
jota
begge
vedere
чура
bijvoorbeeld
Ucraina
electoral
##صد
##dla
regionie
##onne
##ணம்
succes
creating
Herrschaft
تنها
Frantsa
##ωσε
284
яп
основе
совет
##čný
annonce
gira
##tui
حاصل
наоѓа
Neal
##ńskich
##داری
Réalisation
лейтенант
constant
quam
##њи
##ziale
boreala
Parma
##moto
##ատ
forza
##्त
cor
##יס
extensive
##mpe
##ody
Sidney
περίοδο
dt
شکل
üzerine
mạnh
##ẻ
départ
posta
festa
garde
போன்ற
##τικών
filma
mở
simples
numerosi
Kun
klein
Населенные
tộc
Richardson
##жил
noche
##graf
piccolo
maestro
##aires
Stop
раёне
##bte
Orde
Tân
allenatore
##mán
Posteriormente
Eerste
fordi
Pendant
われている
Inside
##되고
dni
formazione
parë
##ρες
científica
grupu
281
##щее
Geography
प्रमुख
tels
ইলতাই
mark
ایجاد
##π
Ihr
Үзәк
258
launch
جان
##jnë
amerykański
470
aínda
chemin
Enterprise
convertir
skog
Technical
##ъл
##dé
ہن
##bir
Monica
Salt
##ív
תחת
хьостан
Andrzej
desembre
##utta
Mills
Montenegro
buku
acts
информации
##گر
##၀
##jában
##vní
کردن
Depois
##ুর
Ida
Ing
semble
##fn
##גים
##lal
287
##արի
##sburg
अपनी
dessus
##bridge
февруари
personne
ayuda
portal
##эт
Leiter
##oku
أنها
##vere
Freiburg
testa
sepak
##мент
Status
jezika
については
##тно
ahora
pomiędzy
կարող
omna
##ปี
Trois
##ици
capable
##ბი
форма
##jne
исто
statistique
##νική
полностью
puta
названием
Bradley
agriculture
stadion
##iau
donar
abitàncc
মুনি
پیدا
comprend
hoc
teritorija
##osti
prevent
recebeu
##torio
Jeffrey
##ल्या
mah
Guicciardini
ebenso
staden
##lant
pal
object
internationalen
нім
kalla
kojoj
##يع
##ρά
##vana
Italijanski
майор
Từ
Fighter
Ph
##bildung
мир
testo
##fia
Milton
правило
idade
úr
##hard
medalla
rokoch
током
dopuniti
Denver
##elen
##fin
##صور
fitxa
fått
besitzt
##물
гуьйре
##jó
zobrazuje
##bina
derived
##ვს
##czenie
##ạch
##ੋਂ
Archives
osoby
Prior
ponownie
##poli
בעל
Orléans
cử
Brad
Nedovršeni
##цького
régiment
Також
transporte
entwickelt
##hm
کشف
Dopunite
önce
minder
araka
obtuvo
1762
##tki
##ירות
##خت
##േ
##ûn
##લી
Comedy
जब
სხვა
britiske
ירושלים
اسلام
##كية
enemy
palabra
koniec
ای
모두
##odd
proche
278
hộ
stond
##nc
setting
##سون
Llên
Weitere
##صة
##لو
##ñas
Nokia
##aus
Pato
birds
работ
foguèt
##ienne
gay
##нска
338
можуть
dermed
алсама
##ској
##する
##ạn
dólares
##war
##נט
Sveriges
murder
##tisch
libros
Bryant
##اول
Olímpicos
##মান
##비
штат
##ические
dellos
politischen
##וץ
##טו
##ján
ಆಫ್
##tata
marketing
saluran
rose
importanti
297
##dies
مقاطعة
##ânia
گئی
पहले
tyre
##ког
292
Churchill
arrested
سیارک
powerful
област
##жал
##ায়
Bus
##ént
économique
1764
febreru
Acta
Homo
##łu
Brisbane
Cell
bost
Provincial
arco
tanpa
##્ય
details
##kola
##lgan
##ான்
Trinity
Politik
محافظة
Московской
مسکونی
sok
Mail
авыл
први
először
pontos
Pēc
##lín
##teil
##увати
フジテレビ
dati
pelas
Ultimate
موجود
560
Adventure
##stellung
Bezirk
жылдары
Андрей
##ində
##mə
версии
##phus
milhões
Norfolk
деревни
ulike
জুলাই
ekonomiska
##vés
stekelart
сарын
Romanian
المنطقة
üle
Những
rail
##يز
profile
μόνο
CF
##raf
dwie
##λική
##лла
Zwei
tomu
Connor
259
Deus
Vào
parque
dadi
##eder
augusztus
Dante
##τής
Лос
edən
##ものの
decidió
gewonnen
##رف
##ônia
Yupiter
##ških
D0
Leone
pendidikan
ideal
enfant
Picture
Andrews
ciudades
ਸਿੰਘ
Together
##çı
ginn
должность
името
##yne
דרך
өсөн
Наука
Train
##luk
stay
britischen
intérieur
בקרב
hoje
iznosi
kez
πολύ
Grenze
Thema
Marrë
Trans
డిగ్రీ
##ನು
collected
giocatore
##του
Moreno
إذا
##escu
bruk
##ау
##tini
difícil
##লা
refused
##acht
##णी
Sulawesi
familiar
первым
Palais
##yard
হন
##ović
debate
##пер
Bosnia
धर्मया
lavori
##дік
রয়েছে
OH
història
produits
Росії
Tema
308
##izado
##વી
francia
мамлекеттик
figuur
Vita
Johanna
##లి
MB
Rennen
această
giờ
innen
فارسی
formula
##dler
##bund
busca
первых
##uso
##eru
sitio
autore
IUE
##기를
permanente
Polychaeta
##тра
monsunklimat
particulièrement
Uganda
kuuluu
chemical
##пис
##өт
къилбаседа
LL
employed
##체
##rique
stoljeća
piłkarz
##чення
física
wszystkich
##țe
giả
یعنی
##ವೆ
lik
fekk
interna
Moliterno
hot
сили
##pad
##ջ
Sistema
Música
franske
##úa
полковник
الوقت
##κή
##бо
Dates
##ree
Rede
##jë
##σεις
##ações
vit
damaligen
321
Marino
persiska
éléments
évêque
Galaxy
##ським
symbol
##ĕнче
##posto
##ვე
267
Sociedad
##far
##قي
Moldova
ақ
حين
##ией
category
##cut
##თის
পর
##など
διάρκεια
##ху
##rme
269
contrôle
dne
##ification
##еп
activités
VizieR
контракт
Alemanha
miljoen
английски
należała
язык
podría
média
května
Bailey
##ận
כגון
njegova
Kalimantan
fought
Rodrigo
##μένη
Randy
жөніндегі
##verband
vallée
языке
##cký
##ligen
0415285569
0821419161
Armiero
##уди
311
giáp
##há
doble
दो
корпус
##rand
עוד
Cymdeithas
##genommen
Anglo
Airways
అభివృద్ధి
0691008000
B001BWSQ66
دلیل
Letters
##aza
##μος
đạt
##llas
0136120512
031322983X
Schuste
größte
으로
##্ব
tenen
maires
Against
##familie
speech
citizens
##ניים
##ық
yellow
tapo
Série
Quest
kilómetros
##nach
rekke
##िस
336
Antarctic
remix
quem
##љу
##ulus
の2
Ensemble
##yó
critics
##TE
publications
дней
mimo
##adores
##ството
Rat
óta
##ंड
Singer
medium
ás
##ρική
Trump
نشان
##skoj
Corea
##vima
Nur
помощью
تشکیل
Primer
approved
kent
283
Architecture
Saints
Futebol
zowel
##ματα
##ثر
consecutive
universal
regionale
Spagna
internal
می
Olympischen
actividad
##ček
##lardan
Japón
Parc
Danish
közül
##λου
Oficina
posição
internazionale
##ạt
localizado
italien
##usan
Gilles
bernama
reduce
Parlament
Trail
буде
Antwerpen
Molecular
gabeko
titres
machen
Date
commissioned
##sul
labdarúgó
faisant
йому
noms
##তি
##dige
##ової
Isla
englisch
translated
arabera
##уть
Uppsala
Fédération
technical
Rīgas
OʻzME
##idi
offices
millor
Lied
تھی
Watch
normale
tours
##enz
##мана
flores
альбома
cens
compilation
weit
njegove
performing
Negro
##여
##ość
lấy
Creation
ocasiones
##konna
اللہ
##より
mineral
imenom
##كة
##ൂർ
nuna
##raz
educación
##ющего
موسیقی
##лав
नेपाल
##ювання
##скиот
ri
512
##dza
fie
Além
deset
அமைந்துள்ள
screen
الاسم
##ició
Robertson
مرة
Made
regionu
Estos
Mainz
##பு
##вор
jalan
ICAO
město
opnieuw
ազգային
пры
అండ్
Fl
Anhalt
bara
##tland
##لية
URSS
municipalité
۲۲
Wicidata
##RA
einzige
##isht
##সে
centuries
ose
agora
950
Lennon
Ehe
faz
Bild
Kenny
Bourgogne
lanean
##보
##lí
jogos
північний
natura
##яти
##ต
Malmö
##vert
quinto
Pau
Maison
##oen
Henderson
##xar
##ーム
##nner
##ank
##নে
##yal
##II
##ائية
propose
##tno
Gay
Grad
maka
Willy
något
compétition
##tatea
Italiana
nahe
самых
soldados
wyniku
##களும்
тако
##оти
Châu
prop
##دية
gradu
Superman
mail
것은
Morrison
returning
Когда
cây
meczu
Lou
##ław
xác
reforma
distretto
##ես
Vilniaus
1730
##uren
Publication
session
Banco
২০১৪
##ojen
потім
Ayrıca
##нем
bâtiment
##בע
##رب
##ٹی
الأصل
Vanaf
ЦК
sentro
четири
ընթացքում
Vương
Kinshasa
여러
##wards
İlk
##ाच्या
Второй
##ари
##кое
sarta
Badan
جنوبی
##hung
hướng
##ệt
Schlacht
chiamato
defense
##ror
##ули
חברת
вышел
normalmente
##րվել
motion
vidéo
Murder
シリーズ
سازمان
sexu
bed
इन
компания
##avo
Beethoven
##ON
maioria
Bon
português
Ur
##hood
##кој
pesawat
Fan
640
орден
Yellow
Reynolds
##dez
Ion
seramai
##반
Franche
Actor
gå
छत्तीसगढ
Latina
کردند
gali
##ಸಿದ
שתי
illərdə
##kým
tota
##oor
пов
журнал
##лек
intelligence
Championnat
potere
##きた
Ради
suba
mogelijk
матче
Caesar
Peters
##lier
yêu
mulieri
##ంగ్
##овые
molecular
Einstein
##vs
ГТ
नापं
hp
##gaan
ஊரக
##tku
орналасуы
ти
##קי
доктор
abbaye
dương
really
участвовал
A1
Vittorio
tá
Ko
trei
##lee
##інде
forze
beträgt
नाप
##رض
gitar
گئے
Աստերոիդների
##vek
ajal
Stern
##лау
##ане
editorial
##cii
##rix
ds
foron
speciale
لعام
##ljen
alkoi
pH
zato
край
którzy
##punt
##jala
droits
aktor
##ており
escape
primeras
##hang
bitartez
जैसे
##njem
##ः
##வது
difficile
действия
monuments
oni
##مین
##rut
Zij
Blanco
##place
vision
##uge
##жный
planning
dropped
tramite
njih
##hlen
##хан
تاریخی
Daha
Triple
estrella
##నం
saját
roli
##שב
molte
Need
##liku
бөгөөд
gezien
Boyer
Miglior
амалехь
aged
##レ
quản
sequence
##avi
Estas
divisions
335
visited
Trio
attacked
##יון
ніж
##жного
1755
##ুল
Lynn
##chus
référence
##ać
ქართული
sư
április
والذي
##ոնի
345
срещу
strani
Columbus
##inda
##əri
sections
університету
##lling
طرف
##ead
mesmu
edilmişdir
Strasbourg
paz
keseluruhan
miglior
Montevideo
##щей
Khi
ала
##ībā
##ává
Floyd
attuale
בשנים
##ift
piti
##uten
dve
типу
##ъ
нього
futebol
bisher
##кому
##ებში
##ị
Person
regnskogsklimat
தொகுதி
##pole
diterbitkan
працював
##IP
modèle
316
##gada
subsequent
##цем
##gabe
grec
Abbey
##AC
évolution
служба
##ấm
koos
حجم
Rise
Шыв
озынлыгы
Fish
PT
wiki
البحر
Oriente
stellen
thư
Students
famosa
##γή
##ható
ways
boven
##ување
émission
##ಾರ
##kreis
aucun
aquestes
ある
AA
Wereldoorlog
Claudia
Swift
##وة
június
Башкы
Nine
खँग्वयागु
tượng
ব্রাজিলর
Amanda
standards
represent
singla
299
carácter
ind
října
huidige
##chas
apoyo
نہر
pedra
دیا
##ورة
parece
##vine
Senator
אין
oer
кепара
أكبر
мешканців
Tuttavia
chung
температура
attempts
minh
##ingan
Ni
1720
internationales
##inio
##ología
carretera
академии
Dale
Да
boat
discovery
##чны
بسیاری
フランス
candidato
personaggio
##jung
ludności
classical
spin
Bio
frühen
politiker
395
Верховного
##table
293
##ူ
থাকে
relação
chegou
насељено
faut
kojem
آذربایجان
##צות
època
funding
كتاب
akhirnya
##try
##קס
возрасте
##ettiin
Llwyd
Jaime
someone
Künstler
##žne
describe
##stico
vận
##대학교
Piper
279
2005년
شاه
##ises
էլ
##verkehr
пасля
##дов
##ız
##ाई
parole
##шло
నుంచి
gingen
##ļa
Département
tomar
Congreso
institution
Józef
Gerald
Алексей
1640
offre
##іна
opposed
Tore
##sort
horse
муниципалитет
estados
volvió
במאי
hemanari
Benz
Fungi
##פתח
broke
##wegen
Anzahl
stare
Nhĩ
vielä
##قر
klubben
##ურ
##lka
শহর
##ked
##view
mají
message
स्वापू
Heroes
##landet
gr
spada
##шла
adult
министрлыгы
hors
##დება
##hrt
##langan
deus
Rhein
comun
جمهوری
Philosophie
позже
##рно
##थ
Aquitaine
##ას
მას
1021
Francicum
Rivera
Fläche
Luxemburg
принял
##ують
##ість
##urt
eraikuntza
##lée
હતા
fuel
Nürnberg
sân
unable
AT
##tres
##વામાં
церковь
##rici
justerad
##Х
atteint
tay
stedet
##ριο
tengah
medicina
Jackie
farm
antigo
##aut
datuen
##rali
##ktion
または
##еса
Ingrid
##mā
##шение
Nasledujúci
squad
##rke
##iego
өйрәнү
kautta
##ടി
Brunswick
believe
haqqında
შორის
##szych
elektrik
комплекс
empat
Tan
futbolista
##eke
##teit
Pass
edge
##utas
Staffel
Rod
##ού
##со
##xos
Monster
fiel
lãnh
Thổ
pale
குறிப்பு
##valo
Rady
சில
biography
##णे
Nhà
##τό
##pre
vett
света
##dów
##ლური
такі
Format
memberikan
trợ
аға
यस
ಮೂಲಕ
##pra
##ntar
következő
थःगु
##ovou
##rso
##ип
McCartney
zal
##アメリカ
selection
##тні
meste
interés
##λη
exception
equivalent
barrio
હતો
Elementary
mukana
Abteilung
корпуса
թվականներին
део
##cou
##երին
uchun
##ился
Jam
##што
##აც
Феҳристи
nombres
Yo
##aos
309
ol
अनेक
318
##gare
##ldı
ранее
førte
շրջանի
flow
Fraser
##pil
##צת
bidang
kullar
fuori
nations
particuliers
##ческом
aspects
hữu
مربوط
Français
331
Hercegovine
üzrə
प्रयोग
Με
##ogia
##MA
##ả
##rop
##лка
##oro
որի
لديها
Osaka
founding
Mayıs
determined
kanyang
##ന്ന
##iese
Aceh
##đa
Raw
##arı
##κό
postal
Gate
રાજ્યના
Ukrainian
института
ciclo
keluarga
Campus
324
Haag
південний
башха
Ibrahim
##ukan
Glen
कम
Zahl
Sonic
יום
uga
signe
##ccia
Laboratory
Financial
##نون
Hunyo
Vom
##cky
##ress
sech
زمین
##ற
abgerufen
##ори
controllo
església
совета
lícula
retire
Faith
##чений
Lý
Seiten
##tats
##eal
のように
terrestre
киши
langt
delta
партия
보존된
Friday
Ljubljana
باید
జరుగుతోంది
##nay
табигать
перший
perang
spilte
demo
ел
height
Finalmente
Jens
GNU
antica
##rende
recensământului
mala
Telegraph
##gers
##tele
View
##γο
comunità
erakusten
ενός
rámci
Westminster
Rus
Pri
context
төп
##जी
quedó
##يقة
тил
Gerais
సంస్థ
##রে
nomination
רבי
##hing
feu
gets
Йорк
Volta
##tari
Derek
increasing
campeón
lleva
일본어
##зар
azul
Ji
##ników
Praze
escena
Newman
converted
##лат
aigua
amit
##াস
##sent
hyvin
Ages
развитие
##markt
Farm
ell
price
clasificación
republiky
##현
astéroïde
347
agama
Fellow
некоторые
educational
##sés
herriak
દેશના
Drake
tas
injeniera
HIV
difference
սակայն
##영
##kki
получила
##ution
##యా
tři
cantidad
choice
##ходу
ondorengo
departamenduan
##čky
selling
curso
مدن
##러
perempuan
Markt
cộng
##با
##tivi
developing
##あり
attempted
##iven
فرانس
##ち
##lice
divers
späteren
Corte
##IC
##rando
angle
##іп
##つの
Männer
החברה
Ausgabe
aastast
##jší
شدن
وبلغ
##жат
##θεση
Kiev
Lamerikänik
##lun
ký
түсіндірме
europea
AP
կայք
refers
##erade
біля
salle
ABD
##spiele
319
doing
이다
##stelling
##tty
dėl
vương
Amb
##שו
religiosa
Cox
##சு
Every
Ignacio
criminal
Tre
dient
dicha
##where
##면서
##lő
##тися
ambas
rede
##rike
##dah
Kill
##ować
##वी
György
conhecida
Celtic
Speed
čo
Erst
maître
вода
Agriculture
##ований
которую
باسم
chapelle
зерттеулер
Aleksander
реестр
hlavní
منطقهٔ
لكن
নভেম্বর
ըստ
##xia
##чих
Andersen
Таким
պաշտոնական
##niem
Admiral
incluye
##ological
ficou
ло
##para
Salon
##bok
Isle
##ьным
##рія
kainkintana
peintre
317
Zuge
lec
respecto
##لك
##tid
##ಂಗ್
svou
новый
##rą
પશ્ચિમ
##vice
כתב
##ന്ന്
industrie
##cado
##gol
drugiej
10th
dicho
enter
molts
racing
##łości
##льних
রাজ্যর
tomto
Mus
агентлыгы
Rocky
##аст
Labor
samantaro
allemande
meters
път
перепись
мәгълүматлары
рата
##iff
كبير
Colonia
बहुत
készült
سیاسی
radi
mivel
materia
Champagne
rating
##וע
##cijas
##ക്കുന്ന
322
pequeño
Recht
Schiff
vient
##front
cœur
Inoltre
##რე
##dó
հայ
blandt
Christophe
Herald
якої
президента
1759
ресурслары
##կան
Wings
enger
чином
##صول
phản
Sporting
игр
##리아
superiore
leder
Београд
pusat
Gábor
##кам
الدولي
ಹೆಚ್ಚು
اليوم
factors
romanzo
##dő
CE
precum
##alle
##play
Vorsitzender
##տի
domestic
Raya
metrów
##eman
comuni
banatuta
##heten
Sid
##يت
podstawie
##வி
onto
totalité
guru
##ório
Sang
могли
##سته
hasil
##կական
tento
magnituda
##edd
Não
просто
##linen
##rani
μέρος
##ád
##voli
##న్ని
började
considerable
CNN
Polo
sal
ресурсларының
punyo
zejména
sorte
##mani
Cricket
Jalan
mund
charges
etiam
etmişdir
yela
verbunden
affaires
##jd
Wii
occurs
sắc
birçok
waaronder
Корылмалар
collections
##อง
ഇത്
fanden
##רם
בעלי
##nburg
Arrondissement
Mereka
direkte
andet
ley
##eket
Disse
historiques
Bi
Һидрологик
Eksentrisitas
Electronic
##uir
Һидротехник
##fra
##чина
pièces
##ob
##위를
ks
család
मुख्य
##ương
##gata
conserva
ਕੇ
linha
natao
##rale
Trần
Hello
equip
##tani
##lai
μαζί
##ימה
##ße
##fie
##ového
Анна
##smu
##ակում
##سر
URL
Gang
dạng
##յա
##щем
まれた
worldwide
Sebastián
guns
tím
##жена
lưu
##hren
exhibition
##sje
corona
قسم
Pebrero
provinces
print
imidlertid
situe
більш
straight
##nch
んで
То
##elsen
##ું
usein
representing
##ंग
##nę
Luego
carte
UFC
satellite
června
##кин
##maktadır
##сна
çăлкуçран
##nsk
хьолаш
##ակը
रोजी
why
##ின்
##ורים
291
искусства
##lichkeit
архивланă
పాఠశాలలు
sabuak
період
##taire
ruta
Rai
pudo
arm
##zea
##gram
dagoena
Infanterie
##ค
Cincinnati
déning
ovest
shape
بدأ
296
Menurut
многие
perthyn
geral
rodu
##lerinin
احمد
##hti
##sant
##gner
##cak
Actinopterygii
mettre
relief
##रा
EN
capacidad
##huis
Vida
gün
рэд
український
##mpa
despois
##ว
lalu
##wę
lengua
##äs
##лија
focused
ezen
щодо
##bne
##dje
Saône
brown
bevor
Mad
##zija
orders
தொகை
Crime
veliki
flat
большой
Fredrik
dispute
talk
Nacht
values
originalmente
##З
nuevas
##sze
##šli
Jura
beschreven
##ería
తిరిగి
taux
quite
თბ
##рал
Trinidad
Gun
entfernt
##شر
spre
##ियन
##ρου
##vora
خاص
##րը
үчүн
באזור
Jenny
vide
Hindi
##мат
##zhou
ôl
Monroe
wind
Lei
problemi
Heute
Édouard
##rag
Chính
##vus
##தை
##só
уезда
Сен
partite
реке
gây
lands
##him
interpretato
##ikus
Рим
είχαν
ego
antena
##rano
орденом
Rolf
##cles
##šina
MVP
##اث
##الي
influenced
hefur
mendapat
##bana
zamanda
Динаміка
радио
długości
Wenn
Elvis
canto
##راء
##wand
Gobernua
receiving
##zata
solamente
Святого
##lanan
totes
##ానికి
##록
##тики
scritto
##르
Vasco
diameter
##ונית
basse
escribió
ایرانی
##rò
członkiem
работи
декабрь
independence
riesce
##ળ
##כב
anciens
##sum
##lių
##cast
meurt
движения
destaca
Rice
franchise
всички
الأخرى
niej
нет
##לית
Homer
pula
reprezentacji
Sandra
greatest
český
##альная
orbite
sebesar
unitats
##ована
##ような
Balkan
##тных
##bby
Filip
##גת
ageri
##тельных
tunnel
triệu
Émile
Минскца
soratra
भएको
siitä
colonel
viņš
zajął
##ndet
nchini
شرق
Kyle
Мемлекеттік
##base
consisted
##uis
филм
rokov
Argentine
тренер
##ницы
MIT
العربي
Первый
Estonia
##טות
recognition
finds
בדרך
kasadpang
negro
Ole
##ツ
##த
tilbage
##rga
giúp
pueblos
nguồn
sèrie
విధంగా
##lă
352
Zo
سید
четыре
##нів
##تم
Indo
Kasım
##قه
publicó
##실
mỗi
##sc
trzech
Nothing
##long
428
##rei
розвитку
۱۰
Aufgrund
abitant
nor
savoir
numele
Chu
##eka
##يق
##hető
##مه
##yana
Solomon
Среди
##rce
নিয়ে
catalogue
पलिस्था
constante
##후
frame
ledna
vingt
404
políticas
legnagyobb
##ലെ
##ოს
হারি
wohl
##צע
298
urteko
570
##δο
pierwszym
385
Rotten
perbandaran
powiat
سب
##łem
března
shortly
Stephan
##τερο
Look
##tiv
eher
Nicola
failure
##ட்டம்
##ーク
##ești
Palestine
имеют
مناطق
ska
কিলোমিটার
હતું
##hel
##дна
العمر
ունի
անգամ
369
agricultura
goles
meant
Lago
plaatsen
attaque
##zení
meninggal
1756
##ино
Reader
##porte
světa
terza
##ěl
##що
Ministro
fruit
##tiske
##nés
Amerikan
##нская
##lva
старший
##utor
slightly
##krat
##내
korte
##ạc
कहा
##plan
##ους
##سان
##ніх
라고
471
##ಂತೆ
##ത്തിലെ
Judge
ramach
Belgische
weiterhin
Defence
Thing
##dü
judge
##πο
carry
##テレビ
صوبہ
recht
pequeña
primavera
##ării
২০১৩
##sios
zajedno
##ального
##وج
try
hvilket
##თვის
##vier
storm
##inos
geri
##льний
##gesetzt
κάθε
##məsi
Reyes
беше
జాతీయ
##eix
##uring
koska
compuesto
##キ
##mico
Jerzy
saa
##ρων
##xen
votik
##delen
бет
##kamp
##щения
парк
##あった
Suite
Bear
connection
nende
angl
طرح
##uva
##znej
selatan
##chap
Trend
##εται
##ngi
castle
მოსახლეობის
RNA
expressed
##yka
##çe
راه
casas
Darmstadt
##ax
737
##τά
muestra
Sheffield
funkcję
ұлттық
Suzuki
editors
Anschließend
Hội
Виктор
##نان
alueella
mandato
көнне
##kra
verden
đoạn
##дей
##osan
##ω
dubna
Բնակչությունը
mampu
Polska
Barnes
projeto
когато
##경
Schauspieler
Antes
habagatang
meestal
reasons
арналған
Fransa
##이는
highway
##йский
##гүй
Premi
daarna
tất
onderstaande
провинции
जनपदया
##ают
غربی
அவர்
scrittore
##ед
##kala
Engelse
chia
##uck
##ğu
##bly
##әт
febrer
##еш
עבר
સાથે
Perth
Verona
şekilde
##מנות
škola
##ças
اليمن
comic
народа
contained
telefon
##ólogo
##bl
##tych
doba
suku
##шись
fund
européenne
flag
filmes
##ково
huis
RCA
Caribbean
Большая
idioma
##бек
##lines
vijf
২০১৫
##ственных
Runde
Hauts
sted
حضور
Mohamed
каталога
پنڈ
##нного
vinto
desenvolvimento
αν
Aan
##графия
##joner
administrativ
массаш
ersetzt
সময়
qualche
##ftet
bron
Contest
Emploi
respectivamente
script
vậy
akik
mondial
construção
328
тогда
عربی
Lund
Winkler
offensive
##ωση
##átu
##ությունները
##lerine
##ified
Vi
Vision
kterou
##வ
arrivée
##жі
templo
ದಿ
##ată
##دات
אלא
రెండు
dzieci
rady
конца
##tě
Haven
ਹੀ
Johnston
rear
театра
મુખ્યત્વે
##ији
##જ
Республикасынын
##еле
tohoto
Später
larga
מאוד
Mecklenburg
##रण
dom
ช่อง
##ril
Wonder
##rry
תוך
Oise
##mişdir
##rias
Blanc
cần
##weight
одну
thêm
##šen
kring
valeur
##gica
Expedition
step
član
Saturn
1757
weapons
Gerard
literary
mando
kinderen
calls
eiland
##كل
##йского
##қан
Mari
өлкәһе
részben
болған
##ുകൾ
lediglich
##lter
##نت
Weimar
множество
вобласць
##اط
##ಳ
##่
##lado
Irene
blog
lucha
havien
##menta
Present
##esis
Bertrand
ولاية
##kti
Stock
назву
##сте
##kond
Heavy
biskup
##reich
neve
biztanleria
Truth
comunidad
##wyr
##설
jednom
##öst
Bella
##жан
territorial
számos
1761
Павел
##grafie
enciklopedija
probabilmente
Funktion
capaz
mampiasa
המלחמה
##ئر
Mustafa
azpian
##পুর
##ਪ
Manual
Álvarez
##زل
faced
##ણ
##גו
kabungtoran
자신의
самым
producing
Videos
##ющей
Espanha
backing
##њем
Trainer
332
Kraków
муниципальным
շատ
älödons
Brasília
hohe
ਕੀਤੀ
##titel
юхса
uzun
ouvrage
530
##ox
##лии
##tron
##cto
Elliott
Timü
এহার
##ầm
новых
барам
Glass
establishment
289
radical
pöpinumam
##yre
##ντας
אז
сите
территориясеннән
##linie
അദ്ദേഹം
Count
нас
##AL
Talk
relativamente
Tiene
##ராக
343
Tokio
##mena
często
Cathedral
cantón
##omi
##fon
phá
buts
Ritter
adjacent
Государственного
##נר
familiaren
##zma
soundtrack
Salticidae
فرانسه
##vané
Nashville
cilis
##زی
famül
314
##dja
sürfati
мали
غرب
manuscript
##dam
##ogen
príncipe
Byen
Motion
eksempel
powers
##vä
Meisterschaft
Герой
anque
Haziran
##hill
##namen
kiến
McDonald
sidan
älabons
##aman
imagen
Pöpinumamabür
##ҙ
sollen
всіх
català
शहर
بينما
njemu
જેવી
##bri
funds
Moscou
apertura
Res
##AT
slag
вернулся
8th
##znych
Burns
okruga
Pacífico
politische
##emi
##som
##witz
capture
äbinädon
Dorothy
INE
लेकिन
Marta
famüla
Brook
worn
führen
Norges
successfully
users
Малхбален
گرفته
Disyembre
kill
joueurs
ghi
Lödanef
##ացի
Kladogram
kira
román
##cula
Latinans
valodo
bidäda
bäldot
MD
oorlog
okres
lödöps
poetry
matans
kunde
##њето
exist
lomanef
älifons
##ải
agents
lödöp
zänedo
##тя
contributed
himatan
devenir
lödanas
lato
äkobolödöl
Nantes
destacar
äkeninükons
älödölis
Johns
lomanefas
pädugons
##ಸುವ
fleire
##ਵ
তাদের
##zal
дивизия
##yce
Chad
ausgezeichnet
lomanefa
עצמו
##bria
Bäldot
якая
##ాడు
vietans
pöfasoliad
##음
##사를
##عي
bygger
हुई
độc
šiaurės
##onda
شدند
oldal
##48
##hara
relativ
charts
jugar
standing
##ód
##tví
Nuclear
এগত
წლებში
##щих
Harbor
petites
Lucia
১৫
ESPN
retirement
projektu
gela
Lotus
realiza
##enza
##nai
Ponte
тайна
##vid
##كن
wonten
جمله
address
##rated
Abdullah
Austrian
achter
ädabinöl
##イル
morto
##hre
##վոր
##بد
##uju
##нти
ponin
##edi
leigodü
##schrift
jiwa
toward
lemesed
familien
##سل
بدون
tr
vomas
Porta
Hit
337
##オン
##ując
üzere
##рани
pertsonak
значення
Chef
lemesedi
##תי
älaboms
geheel
##чнай
Gazetteer
##nea
heard
##oge
##țiile
конс
qualified
##ائی
числа
##aient
##טית
Ernesto
##ison
##tisk
Myanmar
personajes
نفس
##חם
Constantin
wollte
GB
Till
ronda
dvě
herself
mật
publique
honom
##рії
##χος
sollten
##ետ
periodiskt
улы
thích
Nisan
Woody
къилба
##ông
poblacions
wil
termo
##čuje
##ância
opinion
județul
boʻlgan
##чин
Vale
Assistant
golf
cricket
wild
जिले
##йской
##dą
##ছে
##maker
abandoned
##ствия
##wali
Burgos
ferro
totalt
##czej
Schriftsteller
العلمي
эле
فرودگاه
##ыг
##いて
Reid
pun
પ્રાથમિક
##beck
innymi
prvo
##born
unitate
річки
Cigliano
Tours
##leben
руководством
##asan
тех
ZSRR
культури
اپنی
##zou
##жений
Kiel
sociedad
17th
понад
##லில்
२००७
kacamatan
vrsta
Nicaragua
##tando
Mao
bureau
enthält
serious
walls
altında
##ئ
##kung
мире
též
PA
Alexandria
405
Ost
استخدام
##tup
самого
porém
причин
کشتی
##্ড
##rao
núi
glass
stammen
plano
gaf
doar
метара
армії
земли
##льным
##logical
certo
Theodore
iron
disso
këtë
Manila
liten
##zona
##tige
##шее
adina
kalt
Lange
pur
Lara
gruppi
##كس
Deputy
کردهاست
активно
fines
ресурстар
seguente
nahimutang
partea
Monument
poc
##ьних
##ред
fama
##чий
supporting
##kė
##ولة
##rates
jednu
bilden
Nasional
marché
Kao
versus
##esti
##ძე
Mohammed
alabarik
aloitti
##вер
Chamber
tournée
##holdt
##nov
##itor
Exchange
Timothy
preso
##sien
יצא
১০
früher
չի
reading
##၅
Metz
##edo
видов
##িয়া
lorsqu
Eugen
Penguin
490
vode
Ukraina
pendek
##íen
জেলার
गई
##ngo
Ilay
##ждение
##oji
Uhr
тога
Vincenzo
ярына
condiciones
trò
bulunmaktadır
gespeeld
matahari
tur
portuguesa
##ève
##ily
বছর
384
##ğ
passé
##GB
Bro
##йки
godt
plot
emakumeak
treballar
##Л
زاده
##sində
веке
دخل
کسی
##berger
scenes
razas
##anta
luce
하고
Journey
##mée
##мой
##יך
vía
##hta
Mariano
##ளம்
tiež
##iseen
кілька
##սկի
apa
##개의
##cita
mundu
ప్రత్యేక
##кции
బావులు
निर्माण
hvis
ngữ
##rth
Euskal
##פר
العامة
##not
relaciones
thuyết
საბჭოთა
##eros
gelen
муніципалітет
##tje
speelt
బి
##ind
##jde
detto
strony
##וף
##yama
Buddha
Schüler
##дно
##ρίας
##gelegt
Limoniidae
##boru
##무
Gottfried
ronde
Geoffrey
ними
Ieu
Greater
Tahun
##formes
نہ
pace
Cornell
fundado
Genova
eget
daki
##قات
לראשונה
brachte
##gida
Matthias
326
Парижа
Gen
bilakaera
option
Eades
tenían
evolution
రైల్వే
началото
Markus
ikasten
sought
##sinde
שבו
bordo
いを
Janet
أصل
Net
meilleure
##ору
Logement
##నే
##sesti
##σμό
401
sarà
Mendoza
хӀаваан
Hook
##лять
segona
lölik
##oki
##bruch
صاحب
##ňa
Artists
besten
Soldaten
Bengal
Hannah
のために
locations
logró
Dengiz
notte
делу
##dens
reserve
бел
Pereira
##է
##US
세계
findes
##чини
aktiboak
##gler
Gott
стран
өзенінің
##のが
удалось
##リン
écrivain
nagyobb
##ან
живот
quase
मा
2004년
##hol
##motor
##חות
Bali
save
##nco
laid
diferente
Guerrero
Beide
rete
Piotr
השיר
مسجد
Studien
##tación
boys
anden
direttore
sp
Süd
cidades
guztietako
обычно
properes
##ורת
##gun
##yje
terceiro
ఏడాది
##ндағы
##क्ष
##ことに
stala
##nico
населенных
##овка
##вского
Carey
##іт
vertical
Кхузара
npr
широко
mezzo
niños
ultimi
##ање
##하다
##horn
Legislative
designer
ماه
eye
##fläche
bệnh
вёска
1680
##ők
Versailles
propioa
nghiên
##vía
balandlikda
gëtt
wysokości
387
##teko
Jamaica
WC
Jiří
##чев
Lynch
environmental
##ologi
Noyes
Nikolai
##urus
բառարան
цхьаьна
lettres
partit
##ckiej
##ான
знаходиться
سنگھ
Maxwell
Joy
investigation
kendi
Rouge
Players
fortsatte
contrario
пример
##teurs
Dictionnaire
occur
Chester
turi
Київ
##mere
Diagrama
##kém
##cola
412
##kket
Pilipinas
баттахь
согласно
ခုနှစ်တွင်
##मान
Seconde
##hall
##fest
castelán
Parish
##tale
##sir
##нського
Zona
Mahallenin
Occidental
metriä
ან
Eylül
arquitectura
polityk
Casey
östlich
dallo
swoją
издание
Tito
devenu
mult
##iation
chain
Corona
Kraft
metara
##ченко
dnes
razem
하지만
##્યા
noble
##ện
Ejército
Fleet
##سازی
##rain
Havet
pet
individuo
##्ने
##lana
denboran
soms
Jugend
назва
##30
Franța
diseño
patří
erreichen
proprietà
393
taille
eivät
మొత్తం
mining
dalších
objects
Tento
მათ
promote
తరువాత
##istische
laharan
dirige
##kli
sposób
Москвы
##지는
médico
ménages
Brazilian
بما
ruso
سكان
comprende
известен
तर
пост
##ała
##werke
təşkil
1745
##alen
##धि
vitesse
##נאי
##лении
niego
Oskar
##gil
عدم
まれる
##lone
##عداد
Excel
dominio
incorporated
vrouw
##зму
##lach
##מיים
Paraná
července
##isan
Mystery
अधीनय्
Dienst
##졌다
modelos
alcalde
##порт
Âu
courts
професор
trying
máxima
همین
##vlja
##дии
permettant
vòng
partita
именно
bizilekua
township
Hallan
Ligi
##рования
cuyo
##mene
Ленина
Sy
##iras
এহানর
cent
Його
##czony
શાળા
Turin
leden
##ರುತ್ತದೆ
apparaît
##jeni
zehatzak
##уса
graduate
##lır
ұзындығы
రాష్ట్ర
económica
kerusakan
inicialmente
valores
##ელ
gobernador
Normal
humano
Pieter
##داد
1550
1754
Париж
##nement
araberako
##sai
kondado
ساتھ
##iais
Sono
mengenai
##ിൽ
församling
trio
нём
juta
thảo
Ashley
Roth
aina
spelen
westlich
prize
Mini
деятель
Milli
Скопје
##ез
Using
míg
##nare
Alban
##cial
språk
ill
##cel
equal
بالاتر
Crawford
erbaut
кадастрларын
departement
protect
##zta
František
rod
##्ति
рамките
##ogie
sathidan
##digt
Byl
કરી
Heat
##უ
##دت
maiores
##rij
bom
Lions
##ònia
tokom
২০১২
##ssant
Joshua
տարբեր
##qua
maintained
община
##ligi
##đen
##лап
punta
swojej
wave
##яла
のような
llugar
##ladı
##ital
eskuragarri
øst
అనే
##otas
nytt
CO
järgi
##gine
##ST
Midi
Македония
していたが
Lai
RS
اساس
northeast
teen
utgitt
няколко
факультет
##нском
Μετά
hektar
регіоні
فعالیت
##didae
Gegensatz
##րված
videre
franceses
թթ
##йна
vremena
##lto
##ਤੀ
verið
кон
##ологии
mają
viktig
вокал
quinquennal
1715
origem
Bandar
Indians
mediados
áll
Austro
Results
Breuning
##рек
starts
##ながら
294
նոր
##ości
Freeman
тела
câu
Medina
jedynie
Oil
##odní
##tab
##reu
Hòa
матч
Campos
Também
##borough
Hood
Militar
##ניה
##مل
rat
gertuen
departamenti
Communist
##kara
##лă
soul
Chapman
segment
Жан
##্ট
olub
Monde
ponto
##डी
##직
##ỗ
Burke
arena
batean
коммуны
##sada
ਜਾਂ
Daar
economía
filha
ultimately
partiellement
chọn
device
varit
cour
Split
successor
##ndt
Prvi
ocho
##nil
Half
##тік
Mitarbeiter
##زه
##₃
sailkatzen
jap
##ვ
sana
deri
télévision
orbital
manos
Vuoden
נוספים
Thus
kontrakt
ibilgailu
Ocak
Freebase
Critics
##ating
##ਾਨ
względu
objeto
mungkin
جهانی
Eve
##צב
Péter
hectares
laburpena
Wheeler
Ground
מתוך
Kapelle
##ડ
##ването
fleet
అందుతుంది
gruppe
Arturo
Lajos
2013an
##ட்ட
##ack
hvert
##مات
Rex
Within
HK
শুরু
kategorii
##ström
pihak
passenger
##िला
piramidea
##யான
weekly
romans
loop
команд
##fter
filosofia
bikoteak
pure
##ticos
##eseen
##גר
##мов
községekkel
agricoles
Familiak
acceso
madinidinika
Juventus
##хода
##อ
сельсавета
cioè
##usse
jury
manje
morts
##ացել
##rai
duque
##합
##eny
ли
##ае
fanisana
Mathematics
aspect
355
##თან
devam
sigue
##nberg
Tonight
вида
করার
##тері
grafikoan
hər
##лага
##czną
utawa
programu
турнира
##larından
Bürgermeister
proved
beteiligt
בספטמבר
adinaren
continental
pratique
##şi
صفحة
##тия
1630
Sumatra
erroldatutako
engem
هزار
##ита
specifically
نخستین
Negara
##żył
##ovali
##ték
tijekom
низ
изнесува
خارج
Zao
Biztanleriak
Општина
##نية
έναν
##סון
##ाने
Στο
##mur
##լի
jabearen
diez
rich
उन्हें
Winston
avoid
gracias
norrut
decades
##გი
Erroldatutako
administracyjnie
Greene
англиски
##лт
տվյալները
bald
##нун
cảnh
natal
Construction
##alis
##्म
dvou
Somme
##iksi
Gardner
mpikambana
##об
##کھ
##loxía
maaliskuuta
##dienst
passato
acabar
580
##ике
१०
##logo
##енный
Nils
svært
Franciaországban
árabe
라는
nagusietatik
islands
regarding
saking
clubes
inaktiboak
1620
Sándor
couleur
##uze
356
точка
##난
##station
Марк
Pius
orta
departemantan
statement
verlor
##င်း
magnitude
##ț
##овая
367
strength
Though
##ічний
##lnej
##ներին
##판
##mmen
дана
diritto
հունվարի
Alfa
Kassel
##っている
Todos
##ems
##fers
##нюю
saber
headed
साहित्य
nothing
heraus
startet
##bida
##ਸ਼
regno
Mickey
##्छ
inaktiboetatik
roof
לאור
pièce
Parlamento
plutôt
##زة
Them
Fransiyaning
lignes
управління
philosophy
början
Abel
definitivamente
##echt
##dür
начальник
##ంలో
entrance
รับบท
torno
##šení
Nha
possibly
četiri
##ética
fisiana
actualidad
bakarrekoak
kutoka
racial
대해
##redo
##umen
Brother
Presiden
estatistiken
##tato
Hearts
Lexikon
têm
##יטה
passing
loan
inaktibo
invited
премии
##rp
mengambil
views
1710
Memphis
##pati
compete
tačiau
erretiraturik
Oswald
##аль
##lərində
##ਤਾ
Փոքր
Nicolás
enquête
رہائشی
sailkaturik
##сом
περίπου
##card
##ುದು
تضم
nächsten
pärast
estimada
مجموعه
Ekim
Энциклопедия
laat
bedraagt
Prag
шоу
610
PP
の1
знак
начало
Tradition
Braconidae
zahlreichen
Carroll
Rush
425
alokairuan
candidates
##тін
##ovima
##بع
okupaturik
Genus
Slam
daharampehintany
daharanjarahasin
##ấn
##тә
##iak
своје
alguna
carga
elenco
فيلم
##əti
Lê
##maya
Jong
merged
iyi
theater
Если
Whitney
Salamanca
vuoksi
##damente
söderut
しく
Paulus
educated
##reo
князя
მიერ
forhold
##еді
Strange
ach
szerzett
tämän
officiel
##ési
Rand
castello
Mã
sencillo
##position
##iner
мало
delas
Camera
Lëtzebuerg
hết
##twa
rosa
режиссёр
compris
##udo
##チ
populației
##olta
Musique
mandritry
##zji
keinen
Slekten
mention
culto
Tranonkala
Respublikası
Pere
Midnight
Resources
assistance
begynte
Այս
wenige
dor
##sser
hauptsächlich
kể
ये
##енная
##έρα
winners
##iler
dochter
desimaly
عملية
doby
numerosos
##ньої
1748
plaça
lanzado
perusahaan
##ילה
Isabella
llarg
354
Student
##이며
Schools
##wich
talen
nível
##вий
##лийн
Abd
##nese
##unk
üks
Rue
##cò
रहे
heavily
##ární
##μένο
Sven
##isin
aves
decreto
firme
kaominin
##サー
albumu
##mber
duen
henne
##тет
##وند
foundation
dating
ngôi
liet
##nosť
leger
camino
estan
##ост
16th
משנת
општине
animales
##cara
lệnh
sito
##eca
##ంచిన
357
Australie
Нова
1038
célèbre
manual
derniers
##rid
tốt
##runde
Vuelta
mines
##vod
kara
અન્ય
##рик
gewone
##uak
شمالی
Роберт
području
мав
foarte
foren
ביולי
##жка
##zze
##κε
પશુપાલન
wojnie
قابل
Estaos
Brussel
establish
Erebidae
corner
trained
##bed
Into
Brien
hutsik
##polis
vasta
Ianuarii
Essex
##ρό
Sally
##čila
maso
##uus
productos
cadena
##zda
Joer
Año
##ющая
files
Agnes
अर्थतन्त्रय्
##сс
цих
Dengan
##lân
##stava
##상을
##ствие
##тым
Verfügung
బస్సు
tubig
должен
##right
comunicación
Európa
##্ন
Baviera
##oid
Interior
##скими
であるが
##wat
Physical
powodu
такие
పొడుగునా
ہوا
Sumatera
kirke
২০১৭
forskellige
орам
այս
ако
assieme
Joey
cortometraggio
Người
antic
Alger
государства
овој
##لت
belül
##ива
sil
##ище
##ації
embora
##щини
Pentru
freedom
టి
באוקטובר
Вы
јер
kor
звание
##ckých
##ウ
##ლს
##vom
##nskih
registered
Երևանի
string
ragazza
Kabul
fyra
khỏi
##але
aastatel
Classical
Finlandia
ene
motore
langabezian
sel
등을
Cheshmeh
##ppa
каля
italiani
##бора
destruction
walk
747
பெப்ரவரி
menores
##dai
reina
speaking
dro
accès
##wall
##iaceae
Prague
дитташ
Donna
Oliveira
##əsində
производство
##master
място
##gard
##veis
##чку
hạn
Bilbao
dzięki
hierdie
כמה
Bukit
Kampf
Gustavo
дакъа
Athens
Créations
Канада
##법
Европера
стоьмаш
یئرلشیر
Bandung
##яли
STS
dinastia
aktiboetatik
войне
навіть
происходит
vicino
جدید
##lund
##škai
Penn
wynosiła
representative
Gill
səh
ponte
##ющим
##ñu
okrugi
##cana
Alexis
baron
##had
##기에
tsy
Av
Након
cabinet
ગામના
gick
бецаш
##شناسی
##zí
نحو
acara
##ED
leg
коьллаш
##taget
стоьмийн
Recording
đới
ялташ
colore
regiment
kościół
##čkih
асанан
Elles
resistance
##berry
беркате
Dietrich
Константин
##ште
ildən
Smithsonian
картол
atual
416
presse
йолан
хастоьмаш
wood
виета
циклонашца
##ало
Diarsipkan
poiché
βρίσκεται
بأن
Panzer
suv
amerikanische
##vite
Bart
menerima
inscrit
##طلب
península
Hernández
Stadtteil
##धी
Ovaj
tradición
Rasmiy
##old
Visual
Brno
dikenali
futur
фильме
ол
swoje
##ките
gesamte
ей
τότε
##ส์
ná
##fur
Levi
##uts
sayti
##yet
residence
kabul
mayores
tons
##ällä
Fr
благодаря
##plass
роду
Fundación
srpna
##עי
Municipality
personnages
##OW
Ramon
проекта
בעולם
હોય
evel
bàn
prosince
huy
teljes
Wald
이는
Armenian
##γκ
##rait
Translated
Cry
поэтому
Federación
sols
##уы
pertsonek
##אב
##area
##зации
Problem
másik
Auckland
##ગ
329
թվականից
Akademii
Editor
##heter
##နှင့်
##kkan
famülas
##мер
huvudavrinningsområde
lze
Там
négy
##պես
Stones
13th
##νων
Ch
##ála
Bates
վիճակագրական
infine
Desert
vrste
consiguió
##ον
शामिल
дороги
erresidentzia
tól
prise
##DS
##vist
heat
334
Indicem
μέσα
اتحاد
viser
##லம்
Dortmund
wir
とともに
##øst
chí
kumpulan
Waters
Percy
Lenin
तेलेगु
semanas
Уфа
Typ
##력을
##ivu
Drug
camps
कार्य
ساخت
američkoj
جهة
ADN
##тура
Rhin
Metern
##lmış
Challenger
br
цієї
octombrie
improve
##ydi
ہوئی
albuma
nazwę
triều
##вана
ajan
Rheinland
contrast
demás
números
երբ
Encyclopaedia
mariage
Zeitpunkt
Doug
тях
dona
малхбузан
##ಷ್ಟು
Frances
галактика
Baru
##mbre
##лова
kiện
taxonomische
управление
deltog
##يك
brasileira
lebt
laba
##gara
sedengkeun
##िका
sosial
udara
##ifs
##قف
##שם
368
##lija
واحدة
üzerinde
630
Self
contrat
##ώθηκε
Gone
##enze
კმ²
##ьные
error
Кыргызстан
##lkan
בלבד
##šo
Fight
Hồ
entirely
Lopez
gaz
destino
##ðu
своїх
##ालय
Ciencias
présent
11th
##eerd
Temmuz
##NG
##σμα
501
##стта
Avrinningsområdet
##ষ
##₁
##tano
engines
selepas
々な
збірної
Frost
##box
이러한
Joint
scheduled
##లోనూ
##бан
##یلی
Willie
самом
falu
елгасы
Petrus
acte
##tā
Blu
алабының
Perfect
##mite
tỷ
laharam
##gesellschaft
estudiar
mitad
trai
turnieju
данных
##lė
##zał
bodies
344
##rial
items
ді
##tní
деятельность
llavors
מאז
##uun
aconseguir
##nije
Bauer
anglès
început
Ley
insects
окончания
Tamién
fusion
dianggap
pracował
##cil
##μία
którą
##aes
##laget
dadurch
devenit
romance
##тельно
##خرج
##eln
तीन
Queens
##كون
Webster
протягом
kantonen
силу
##tier
##diri
observed
governador
##чество
deulu
##³
superfície
utolsó
malgré
Genève
rooms
אותם
بطولة
елның
Explorer
penting
##عين
coordenadas
algunes
jeder
películas
actives
pilota
Arrainen
XVIIIᵉ
اوہ
951
armed
באוגוסט
experimental
##τικού
നിന്നും
##вний
##кай
##ids
mese
pool
uten
##sper
reaching
aucune
würde
##rest
Egyesült
machines
службы
kendt
##דור
sejarah
##бой
отношения
modello
Vertreter
peak
##اض
toma
միայն
Rainbow
##чого
gminę
moderno
seems
##ઇ
##пен
##itti
へと
Lisäksi
деревне
##чала
ethnic
potem
knapp
uglovnih
ژانویه
##tő
baja
عبر
Alma
Tina
##tett
##ಣೆ
২০১৬
vált
ചെയ്തു
##इ
Arroyo
hrvatski
##ровать
научно
casu
##цами
duty
sécurité
провёл
327
hundred
إقليم
Polskiej
בינואר
##டன்
##tna
killing
Hip
##rons
quatrième
sahip
qualité
procesu
lạc
##mand
eröffnet
Minuten
स्थानीय
delstatshuvudstaden
##heiten
##inə
Ronde
##17
Tech
NODC
##istischen
stands
комитета
trực
##lev
utilisation
##кими
geven
septembra
neun
##onte
doan
looking
سابق
کرنے
##овна
##તી
phép
производства
proper
##אם
Graz
Nun
seconds
தேசிய
nuovi
منتخب
##rig
1751
##లకు
biblioteca
##стра
توجه
##jek
greco
skills
prueba
##zás
##rez
##žen
operate
Thunder
izin
##sitz
tarixində
Նա
בידי
которым
##गी
limit
españoles
كبيرة
Stella
hafa
##ear
##quée
departamentul
interne
##nější
##mun
##ディ
Norra
тис
ખેતમજૂરી
closely
Էստոնիայի
##בית
##gestellt
##σο
bagéan
território
elas
##krát
landen
##voir
##ဝ
consisting
されたが
オブ
##щена
##στική
finishing
##ола
##dagi
CO₂
Strauss
##ظر
##grada
hielt
Révolution
Palestina
Центральный
##πα
меѓу
kaart
Daerah
##cciones
eneste
включая
##ilis
máximo
Word
##инг
епископ
Marguerite
mon
begonnen
##ೆಯ
Weise
Maler
engaged
components
inclusive
forbindelse
##vol
##ائل
mestu
biasa
##lərdə
411
Cu
ভারতের
المغربية
principaux
##linge
остров
##stri
demand
##bą
##sid
inch
installed
vivis
##lder
cena
##аза
Delaware
Romance
kralja
باعث
##ону
##utan
##yta
Bowie
##ака
ہوائی
जाने
##وات
SG
##inae
##lyn
##لر
Abschluss
didn
Table
Chiến
بیش
Luftwaffe
Latino
նրան
##ĕр
বাংলাদেশর
umumnya
342
##tni
##களுக்கு
1707
dahil
Königreich
##жки
olympiques
користи
##ಮ್
liczby
tipli
департамент
451
##grado
chứng
らの
##gene
##σίας
templom
podía
میتواند
kadang
##owała
Basic
Diane
gouverneur
Europea
gizonak
Giulio
##сты
частині
Bolton
ზე
##yası
attend
Riga
brain
opportunity
instance
##ելու
Ramos
##೦
##ческую
שנת
संयुक्त
Fly
fără
mig
##ై
anteriormente
watch
өйрәнеү
batteria
Unterstützung
##енные
##grad
351
blanco
einzelnen
HTML
পর্যন্ত
lecz
csapat
##פיה
costs
##dés
bill
Blackwell
язку
##ച്ച
##оны
##тата
##itaire
##jeli
12th
czym
ehemaliger
##lique
##сли
propaganda
mistrzostwach
vieta
Possui
cảm
##йт
##шна
vald
##ψη
fest
πως
##чо
##olu
##่น
##вом
##lino
сельсовета
##вих
Heights
tiempos
utilizzato
государственной
Serge
giapponese
##دو
tanduk
padres
##kende
##нах
##ബർ
##dition
Centrum
Kingston
siya
Manfred
##cación
papers
rolle
##тельный
Vainqueur
Tanjung
café
ارتفاع
##vette
alias
Boulevard
##раз
Sloveniji
##ווה
місцевого
##ứ
ಕೆಲವು
Мәскәү
Đây
##rska
tammikuuta
Bahia
##hart
##gebracht
utilizar
Василий
Style
##سية
producent
##izada
##عد
historische
Zimbabwe
दिन
наприклад
revue
twelve
##stro
Slovenia
voted
##kning
いが
moyen
##jada
##ısı
##ക്
времена
##vest
dier
noroeste
##âm
predstavlja
pu
Rail
hela
##isierung
##ственного
Punkte
tel
personaggi
improved
отец
isa
Drew
Hamburger
Environmental
Goethe
SDSS
территоринчи
vastu
##ians
##յի
1714
diru
lời
##ivat
##၂
оҙонлоғо
##ете
Egyptian
okresu
muziek
##ến
віком
Anschluss
Uniwersytetu
Советская
Aurora
Dee
Петра
Kara
##ственной
населението
När
ביוני
##rón
նահանգի
próprio
lebte
Massimo
Scarecrow
##ास
jefe
##زار
agency
passer
உள்ளன
##ины
##مار
tüm
տվյալների
Tomás
avo
Motors
1580
##bur
посёлок
Lakosainak
##ners
##kkel
leicht
allt
ales
kesäkuuta
svih
работе
quy
##νται
##း
Quinn
masuk
flying
olması
contea
textos
впоследствии
vermutlich
europeo
הוצאת
بهترین
Lionel
Winners
ஆண்டில்
Fou
dura
##wyn
##dl
આંગણવાડી
##weit
##מ
Ağustos
näiteks
argento
##րեց
amico
trobar
Alive
##чить
##ainen
tán
causing
°F
##تين
sinistra
pad
##simo
##pense
כולל
ceremony
601
##tros
Fußball
Progress
Towns
##daes
tys
nonostante
Porsche
أرشفته
wikipedia
##تكون
حقوق
ekonomi
##ijo
##ಳಿ
##вской
Care
Tribune
##صدر
допомогою
ואת
АҚШ
בתפקיד
tempi
martie
##ಾಗ
Entomological
мала
bukan
erfolgreich
Formation
singing
##ノ
##կա
##tete
1741
##ichen
Touch
339
dobio
##gai
Mallorca
Direktor
independencia
persons
##førte
##ума
##tima
erne
Karnataka
Hammer
Stück
##க்கம்
apo
Индекс
##ências
Brasileiro
السكانية
##nei
##čiai
majorité
##였다
##jno
fe
Walsh
створення
flora
Logan
##مت
resigned
##ácia
jogador
bottom
drawn
huhtikuuta
##ква
tatt
বিভিন্ন
Bangkok
belga
milli
образованиям
describes
prowincji
##ijk
reform
##iában
##خر
Essen
laten
##ister
##unto
dollar
prva
advance
unor
##رین
quienes
volna
gleichzeitig
sarrera
##rás
Nem
Taman
##çu
pochi
##کا
llibre
Fluss
Podle
exempel
сәгать
massima
tela
उसके
quitte
belge
BirdLife
Lietuvoje
capitaine
возможность
dekat
Lot
atrodas
èra
Macedonia
##etes
Alman
матчах
severe
##нских
##லாம்
Mick
средства
##ansa
##ography
jeux
valley
દ્વારા
cael
mạng
##ਵਾਂ
##żenia
##рей
Praga
mio
##club
crise
राष्ट्रीय
Everything
apoio
chansons
জাতীয়
leads
##gur
относится
##öz
badag
empire
Gas
getting
##ngs
exploitation
##ünü
Không
místě
1690
Coruña
##дена
##chem
##дка
trägt
truppe
معهم
jarahasiny
pehintaniny
##pic
परिवारया
نقل
keninükamü
тәбиғәт
shaped
nové
apoi
##mot
Rusland
kereta
состоит
vite
empereur
presque
يوجد
##점
toukokuuta
Gunnar
serveis
Strand
ovvero
earliest
##ições
dúas
##лай
nadat
##mare
Vermont
ruled
syyskuuta
##バー
Webb
campos
университете
tests
##mh
Daptar
##мата
pemerintahan
Blair
##spel
Qatar
##sil
##pal
##стон
regarded
numerose
faj
heißt
Katherine
##rete
частини
lire
##sam
Laurence
termina
antal
sujet
animation
##안
sezone
constitution
cư
##ონი
Irland
##orden
Padre
510
initiative
Better
##rone
##ਹ
Christie
##ąd
tinggal
contribution
##кен
dijo
فما
##вия
##bula
примерно
factory
représente
ज्यानुवरी
néhány
اوستانیندا
##ọn
inizia
الحكومة
NK
##inus
##ньому
Затем
Wade
Mo
##séget
malo
moitié
##ljena
Indonesië
Croatia
##스트
cable
##нік
marts
მაგრამ
jau
primul
главным
##ït
কিন্তু
Hassan
##yti
##americana
plane
##vaný
ít
1930s
Dinamo
Martina
##шена
##нската
познат
Hoffmann
falls
ambany
##ണം
Eltern
localidades
футболист
stages
easily
##лет
1752
##kunnan
dre
Башҡортостан
שונות
n°
Kristen
artiste
систему
survey
Arms
Heavyweight
##ард
hanem
असे
musician
seguida
Judith
bevolking
##hire
ambito
berdasarkan
регион
##tivos
##gegeben
Estadio
piccola
##гө
##ехь
fashion
employees
Aviv
##neb
নাম
AE
Conde
##ьев
sangue
branches
9th
##RO
##رم
Србије
Juegos
grupe
Sand
Teen
api
sete
##ڑی
lige
##chung
northwest
deukeut
lateral
jedną
suport
robah
бою
ден
##oss
##тий
Joyce
##ား
##iec
langsung
Патшалăх
Академии
artisti
سمندر
২০১১
##olis
##rske
sopra
Лондон
##gile
##qa
combination
##رز
իրենց
Battista
Wehrmacht
##မှ
agente
Región
haute
953
vaste
ҡушыла
##립
いに
planét
Rhodes
Preston
مقابل
##وری
mateixa
distributed
iniziò
Blanca
decembrie
##सा
Peninsula
بہت
##weisen
##стью
aspx
##ाल
వివిధ
Giải
raionul
##νες
yoki
##vada
छन्
catholique
Indianapolis
xem
##вский
Umgebung
Moritz
raza
Past
Personal
Така
પંચાયતઘર
Portrait
##говор
معروف
##اش
komertzioetatik
##ಗಳಿಗೆ
Palm
darüber
##вший
personagem
##lden
února
Laos
کوه
##lau
##atie
دسامبر
För
имало
historien
elmi
##lf
infanterie
glavni
reis
расположен
ningún
##מש
##ことができる
Piala
сім
Anita
Vigo
##üz
##ட
muncul
##aris
целью
eskola
lokakuuta
##vida
þá
مقام
##ուր
galego
##imiento
mln
##elles
cuya
##lid
थाय्यात
supérieure
802
Toen
Дмитрий
Lin
centres
nuovamente
לכל
mejores
Detta
##čnosti
##fic
Junta
##mbe
ngora
Został
quarta
##рды
membentuk
じて
finalen
##ams
Konstantin
anunció
Idaho
deixar
melyet
##ichi
Factory
२००१
accord
sung
преко
વ્યવસાય
агентлығы
1735
delar
##ail
Terminal
##елей
למרות
Динамо
##ാനം
##тите
##ठ
Pre
uglavnom
Dubai
##talt
sebelumnya
Италии
1520
britannico
##chis
##овского
député
##zono
psl
кто
ينتمي
##علم
watu
##iği
wcześniej
წელი
##ҳо
##mor
ડેરી
##ცა
##なる
##yy
lichaam
##ncias
USB
##љ
Ei
Rezultati
##пу
atá
##вата
transmission
Avenida
sıra
##طلق
presa
##cian
##smus
Ancak
##ibus
цуьнан
satt
Vizier
mêmes
spelade
mur
##ություններ
alba
##uw
Hivatalos
öffentlichen
##eller
##lato
##laisen
##ению
roedd
##čena
##tl
##וג
dəfə
særlig
località
Image
##קות
525
opus
longue
kralj
rechten
јазик
behavior
##deren
علوم
legjobb
##ïda
##yra
##éra
##rose
Wort
##スター
apabila
486
όνομα
آل
##quin
Romero
հայտնի
округінің
Beauty
creada
doen
Left
Tháng
##tun
pierre
ustiategi
##კა
Guest
fri
##dors
zuletzt
behar
625
oba
поскольку
kleiner
sumber
министрлығы
1610
اساسیندا
Savoie
roka
بنا
agricultural
##fié
##lida
Dar
Lancaster
неё
##kup
##jel
353
francuski
##izione
tribunal
Armada
komo
Medieval
##јски
Rússia
король
##ttää
Институт
địch
##கை
सभी
äfomons
спорта
Rider
пакуль
Terdapat
primeres
massive
časti
Burma
ond
kaikki
операции
gennem
vond
381
359
H₂O
йылдарҙа
berhasil
##mpi
valasotik
Eden
ない
Dövlət
##ダ
российский
ket
##пр
Genesis
indem
##آباد
##cias
Ketua
dle
Hop
luas
useita
##сына
espécies
הגדול
distinct
1689
universitet
definition
wake
しない
Somerset
mindestens
meest
всей
##tius
##beli
##cine
##teri
Compagnie
delles
hired
Санта
##bę
केले
##гөн
paintings
Obecnie
##lp
primers
žena
##лын
өтеді
##ched
Cesare
Κατά
##енных
##arre
##ೀ
САЩ
##ічних
belegte
##번
##으나
такође
században
lå
أثناء
Higher
vast
kaya
##tara
Про
башка
##zana
##ltä
Londen
##vány
##kit
efectos
proximité
яку
letras
Mapquest
##بل
मिति
கொண்ட
بني
Luciano
okolo
##iol
დროს
betrug
##્ર
##burn
nội
doivent
període
##ಂತ
djela
кастрычніка
##nius
Һыу
##하
Warriors
förekommer
##чним
##oren
ഏറ്റവും
أسرة
partito
Windsor
##ցել
nalika
WikiSky
énergie
ٹاؤن
##ipun
Lucien
Meer
Β΄
##јќи
argued
##tana
Valladolid
##яд
österut
##граф
septembrie
vegades
αργότερα
Károly
##нная
Bari
##ficar
الاتحاد
Chapelle
Airbus
رہے
પ્રાપ્ય
Camille
libri
##mera
gestion
Бәләкәй
##בד
västerut
stanu
##лон
hưởng
đế
Cher
Much
Sharon
##жении
##чан
khả
vấn
Respublikasının
rap
ఉత్పత్తి
##šnji
Joaquín
капитан
##ury
Glory
yerləşir
stylu
společnosti
Wong
DSS2
##いう
##ਨਾਂ
##ほか
##tner
yüksek
Asilidae
tetap
senso
Cities
élection
##ész
##יהם
Ол
یافت
różnych
Этот
##sement
1670
##ութեան
##शी
##tá
kis
Nacionalni
nimmt
opposite
automobile
##niku
##νό
דה
##ις
##inge
kanal
##lski
проблем
##דם
Hanna
några
363
366
majoria
enseignement
stieg
sakumna
měla
représentant
Lily
különböző
##жено
##से
Concerto
##grafi
Jogos
##ရေး
##тый
Mediterranean
ahead
##dna
##istan
simile
##innen
##mila
piloto
##inte
##nung
இக்கோயில்
Eropa
دي
considéré
##კ
Riley
menyatakan
##νία
heinäkuuta
الإحصاء
##ама
IGN
adott
garden
##ելով
1701
##льні
humor
suicide
Nemzeti
Brücke
##lge
weather
1742
Europaea
383
##эх
Arquivado
manana
##டு
sündinud
sebe
##ρι
küla
##ctic
##holm
роден
participants
Иртыш
secteur
palabras
Canyon
kaudella
##satt
Estudios
panonpoé
Roi
اللغة
بینالمللی
GALEX
ones
##ћу
##ічного
cop
##iq
Mega
чемпіонату
nimellä
##yki
entdeckt
רוב
momentu
método
##unan
gedéna
##rl
கோயில்
##κές
JAV
รับบทเป็น
descrita
gestellt
##ταν
Dari
arrière
##rito
##алу
##ਬ
mussten
##ability
план
médaille
Goes
Herbst
בנובמבר
reaction
##ваў
brug
йылғаһының
Казахстан
Familia
writers
##ském
##ーション
##lika
areal
toinen
##ynyt
##zmu
361
davant
##dnik
nhện
##pone
require
construite
BK
aria
terbesar
##dió
Chambers
היום
417
stating
##izar
bras
Thierry
1ª
이를
##グ
##bart
چین
publie
característica
##nò
Aisne
ది
metra
##זו
cousin
##್ರ
Ek
Ichneumonoidea
Mama
##udi
##़
இதன்
प्रसिद्ध
##овский
##лива
Ordre
##dę
végén
لسنة
novamente
##landı
##лығы
berubah
נוסף
află
termes
Edit
##χο
##ừng
Xuníos
mencapai
##run
##тве
komme
используется
Accademia
etappe
Einfluss
populares
indicate
##дор
##lno
##த்தி
astfel
рум
##tzeko
720
formando
documentation
##eim
игре
##úil
##անը
##musik
Inghilterra
мы
##irs
ditebang
ortaya
запад
##ấu
Elias
lunga
##EC
булған
имала
##ვდა
##ਲੇ
verdenskrig
Veracruz
Auftrag
carica
cité
1743
viena
zerstört
##சை
bazı
##orio
kacatet
metre
carne
1688
bietet
elegido
Jena
##أ
objék
ایل
##neet
##gebied
##uras
அமைந்துள்ளது
fiscaux
tí
decade
##ցած
vuelta
##jahr
Shin
îl
##sima
##дра
##루
САД
idée
##pé
défense
きく
तरह
Kawas
пути
मध्ये
##чную
તરીકે
##ικής
ਦੀਆਂ
Іван
##ပြီး
Ako
##nění
##কার
##rais
##льное
EUA
Sobre
Hayes
ҡоролмалар
oant
xeneral
geführt
letra
##etako
update
સવલતો
Sandy
##lá
Structure
nevű
##nies
régions
Коми
prove
##rick
407
campeão
réalisée
commandant
##ύς
##аи
##には
Príncipe
Palacio
broer
épült
имел
ում
lagata
Qui
680
piedra
Kristian
ეროვნული
##λικό
historiador
ресурстарының
##лава
Α΄
##hun
plate
##้
1746
Eure
Hey
kabentuk
Sinds
folgten
preto
##ρών
620
hak
Paper
velocità
майже
##ehen
wanneer
Iris
##cej
joulukuuta
Yunani
##äder
##alia
Hydref
##なり
341
Caracas
transition
##nait
circular
##tatt
##장을
007
gefunden
ocupats
##wert
rasi
##ンス
становится
Tako
spazio
##овал
##ходит
1713
##IA
улсын
Oy
##에도
drept
Sjön
##baan
comité
titul
כבר
bekerja
starred
الجيش
участкаһы
udde
Ming
Biol
secrétaire
இருக்கும்
##ийг
unul
##rona
leiding
##BA
seigneur
العالمية
##året
contain
1683
bakoitzeko
stores
##ską
##డ
olisi
##deki
luật
##lten
fod
WWF
royaume
композитор
##rva
##sted
476
verläuft
joista
شهری
1749
Natal
wedstrijd
interests
##anya
##ಾನ್
Tomatoes
Kerajaan
dil
UGC
Daftar
пошта
##ране
sogenannten
флота
##mou
mjesta
challenge
##лері
gevolg
nganjrek
の3
انتخاب
##ံ
mengebor
Virgen
##щего
وبعد
##כ
syna
касније
nuove
continuar
miliona
##νών
Canterbury
protože
##ították
Tachinidae
روستای
Memory
##nor
Agent
##イド
alcohol
estudos
##ада
numerosas
לעיתים
स्थापित
seguenti
##zzato
##ụ
territoires
mir
Այդ
перешёл
##jian
injured
##itatea
##itud
porto
Anlage
дочь
gens
fazla
##ണ
##lers
##ỏ
нарматыўны
Anglii
الفترة
மூலம்
##тного
фронта
сығарылыш
mortuus
podľa
##puesto
##wissenschaft
Chess
##czone
vlády
Something
##لال
vũ
helmikuuta
mean
##itar
référénsina
екі
beubeulahan
mutlakna
shahardir
planétisimal
Ékséntrisitas
AIDS
reas
##lock
##هد
Ginklasipika
snel
##lib
Médaille
PAGES
uiteindelijk
vero
Clay
Inwahners
ادبیات
##üne
Metacritic
joining
Гидрологик
B2
millioner
##inės
certa
##bene
##ыр
590
světové
##၈
отличие
значение
۱۵
લોકોનો
ondoren
403
côtés
неколико
druga
##μου
Kerk
iklimi
##ビー
Aralık
##ття
##まま
divisio
##ಿಗೆ
##لار
1723
chargé
Gregorio
##пас
Beiträge
##dě
maju
Male
432
Programme
##SC
évek
exposition
követően
##فن
మాధ్యమిక
##eki
Mientras
Gustaf
Innsbruck
##rach
Cola
tenor
Είναι
actors
documento
431
gender
φορά
rivier
במרץ
Союз
broken
##otti
Referee
намира
##ээр
##ouse
1747
##վող
objetos
выступал
భూ
##चार
daxil
##재
ایہ
principală
##বার
##vaa
##zig
shall
##ildi
государственный
אינו
##vt
actuel
distribución
##ctive
yilda
apirilaren
исследования
##している
##ắc
##лӣ
oraș
Това
antico
##onan
##haven
##mışdır
Fighting
##evo
1744
wereld
##임
Million
##stelle
tall
##פוס
Marianne
карьеру
Европе
##స్తారు
##נון
pequena
##하였고
##uelle
Przez
##φορά
##gación
Operations
##ыс
Gardens
cei
##ният
chaîne
josta
Wesley
نمود
pattern
かった
ilha
арқылы
##ark
##כתב
római
Instrumental
establiments
##hra
taal
affected
reçu
yaptı
##lnych
iunie
poema
##gment
##lnym
##nów
directamente
Liège
leben
числі
živi
##jąca
paar
##sht
15th
possession
##ლე
##tsu
другими
ларарца
ועל
sell
spisak
Sister
Andersson
biggest
őket
##γος
465
Stunden
जिल्ला
##מוד
##فية
##ಟ
тази
Роман
vliesvleugelig
IEEE
1721
ús
##こともある
Asie
Friedhof
등이
ilinin
литературы
ואף
Lehrer
briefly
dalar
составляло
dibuat
राजा
nomenat
##atud
##لام
##レス
მოსახლეობა
oficiales
ciągu
बीच
edats
сильно
växtart
Muzeum
americký
tierras
vojne
فترة
могу
##itung
Юрий
IN
altitud
participate
Sparta
Papst
związku
terakhir
VS
##raad
##ktet
لندن
بالإضافة
##rene
Baba
drop
тези
##jeva
аймағына
Gaston
Annales
enam
בארצות
##ဖြင့်
tuvieron
exército
##lise
##רס
conservation
fiskal
456
জানুয়ারি
##DA
Martins
servei
undang
Classics
panel
##pass
باللغة
ago
ممکن
Oeste
Said
##ラン
げた
##rto
Audi
##ことは
##ಟಿ
などが
Ferguson
Jepun
éste
øya
##etik
##зва
erfolgt
Environment
##ácie
állt
سالهای
##ನಲ್ಲಿ
Milwaukee
##kali
Taxapad
##mista
##cov
##кы
##ئل
גדול
encontra
Comisión
##ається
Horst
##hoff
defender
402
особенно
להם
vanuit
yhdessä
Hagen
Arc
вместо
##ńskie
##wanych
estrutura
##zim
##၁
Sing
niên
DOS
##قام
nemen
Zeus
##ener
existen
Fi
laki
##álně
attacco
##ောက်
wiederum
változása
##ظم
##성을
Кама
поселення
##ياً
personale
etdi
blancos
##čina
Turm
yhtyeen
1492
##بان
naziv
pulau
Zusammenarbeit
##ाव
Give
اینکه
disa
रहा
presidential
peuple
##ption
cinta
Մեծ
##нова
cadrul
catedral
quinta
travaille
##cieron
trabajos
фронт
chant
##erse
storočia
юхать
##ficada
##iei
##mee
актриса
Viola
##գի
градот
phi
reprises
EE
Relations
423
базасы
szintén
Nixon
União
próximo
séries
##uil
Election
gốc
##să
futbolo
ivez
##ері
татар
##цији
##ffen
Madeleine
млрд
novos
Thor
2ª
##ుడు
##odes
ontstaan
віку
productor
Олександр
catégorie
valore
##vig
##AM
Aïn
jier
Benito
ceety
##vise
elokuuta
##mų
Viking
##mı
##TS
MiG
škole
##جات
spel
Verwendung
sabe
мовою
##민
analyse
hôtel
1530
غیر
##իկ
##ラス
версия
құрады
chiamata
Գերագույն
##қты
##sport
Zusammenhang
##kowski
Lur
Następnie
mnogo
тăршшĕ
जनसंख्या
##ogo
прави
Phase
##نامه
Maximilian
Hasan
aquí
##wska
##eum
##arte
baolina
eso
række
основан
பின்னர்
diocesi
minoritate
##ьких
##ılan
classic
##овано
despre
daraufhin
Baptist
##ரில்
übernommen
Država
sức
îi
pied
dále
kitra
անգլերեն
##spielen
באפריל
##face
##kład
##séges
##dda
sah
##илась
##пад
частью
##valt
##što
##ड़ी
పోషకాహార
##rë
##meye
בעת
##னம்
gesamten
fonctions
Latreille
protest
mjestu
##anos
##lets
Hauptstadt
теории
nawet
тощо
tartozó
czasu
musicians
spagnolo
Learning
nunha
ರಲ್ಲಿ
Tri
##цкий
Beverly
gradovi
##jke
करना
represents
decembra
граду
##ppi
Belgian
מונה
студентами
##തം
##кер
##rova
Giants
##čkoj
##rup
##ものである
mieście
##sina
cuarto
Deel
##ога
##जन
osaturik
Spielzeit
практически
fanns
##גע
keď
mogą
novas
Σε
##μένων
vent
Pertsona
##νικά
суд
Protection
##sweise
##داء
##え
lima
variante
Underground
##лне
##өө
Nguyên
##tei
дві
##еи
الأرض
экономикалық
##нным
ԱՄՆ
##rki
##ác
##żony
Inn
1718
conteníu
dominant
appelée
terwijl
##ывает
сооружений
Hebrew
528
орган
živjelo
бонди
##টা
realidad
Evan
તાલુકામાં
esso
Territory
348
##فات
AK
स्थान
tournoi
##մի
מערכת
Bourbon
книг
statistics
##dant
əsas
socken
izy
altèsa
naissance
operates
constituency
jugadores
purposes
##нија
##NA
##tadt
##ап
ਕਰਨ
##ನೇ
možné
##pul
Formule
Turn
##tero
##phila
verano
りを
vervolgens
Moses
##سه
alliance
Цей
##жить
picture
країн
##ține
decembro
##ientes
soli
##sett
1570
agar
##wia
##nehmen
typical
inactives
kelompok
övrigt
##eis
##lei
##mates
Nov
songwriter
conseguiu
cultures
großer
##igan
Države
bak
Cardinale
tiña
##EA
temporadas
##ités
Alguns
##ظ
##eita
##page
dry
distintas
southeast
##sland
razón
tanben
2002년
doğru
перепису
έως
Groningen
marraskuuta
1540
##mény
livet
##kum
обороны
तःधंगु
deles
двумя
##won
##دل
histórica
schreef
Twin
##κών
farklı
choix
1667
##ồi
inicio
rồi
##عمل
##тав
ISTAT
vitit
960
pick
Independence
جائزة
Украина
##smith
##வாக
examples
##çar
Stad
ûnder
##ања
alussa
ausschließlich
bout
argument
##bine
reti
##æk
noiembrie
Со
końca
Attack
##cyjnych
##asti
розташоване
##ften
Biological
בדצמבר
いている
1736
népességének
свій
##risch
artificial
##br
##писан
##ways
آزاد
حسین
dzimis
maan
##கின்றன
објектот
##бір
##വ
degrees
1603
þess
XXᵉ
ervan
käytetään
##nate
energía
Америка
##jam
colors
къаьмнийн
metrin
jatetxe
yleensä
##iging
enzim
##ੋ
##нение
diz
435
408
notably
veliko
Trường
##nü
##zionale
##cká
376
##क्त
##지를
Demospongiae
Dazu
##గ
Fear
песен
されて
carbon
ydy
tikai
##պ
じた
знову
Nội
Erwin
Oak
كأس
##nha
dimensioni
##ობდა
należy
técnicas
##alta
goods
представляет
televisão
##פל
operator
incompleta
mãe
##సి
Won
##זם
##nol
regularly
##ਣਾ
partnership
robot
terminó
##eme
مواد
##тана
1727
crimes
überwiegend
##cile
Karlsruhe
BiH
##ουν
attached
prese
Seperti
1685
práce
8000
силы
хӀордан
oral
##TP
##itis
##λιο
даведнік
roads
skupine
346
langen
zelo
դեմ
தரவுத்
Revenus
ocupa
ibu
golpe
perhaps
જિલ્લામાં
умер
πρώτο
eraill
яе
##sť
##عية
nacido
##بط
##ウス
Isabelle
sao
империя
1560
мај
##ष्ट
Einige
Unione
##רית
##டம்
siècles
Adalwyd
##남
kohta
زیادہ
Hour
passengers
זכתה
Color
Chronicle
neighborhood
path
##dott
nemzetközi
इसका
##pina
stanovništvo
##وه
##чать
credit
##ท
calling
##၄
Well
##ush
madera
ایالت
Untuk
periodista
помощи
designs
364
ամբողջական
survived
кейін
семьи
वा
kilku
perioada
##ంచాడు
##rog
##ൺ
வரை
თუმცა
Chance
Америки
১২
Tall
##یش
Finn
##dak
جایزه
##റി
америчкој
##يرة
Ajax
Toni
670
сына
##gráfico
##wem
enfin
##၆
Café
##дий
первые
##даг
santé
##тна
kənd
##tasi
##いった
concluded
pocos
பி
Samsung
Soviética
##OM
пра
Olsen
##לם
1725
fixo
##niai
1632
##ука
##ダー
Ова
hjelpe
ميل
##ైన
##온
edificios
якій
тамағынан
##pera
tillhör
##blatt
विशेष
ได้แก่
までの
Armii
##czona
##щик
Дом
används
1711
allerede
statut
yhdysvaltalainen
đa
##bereich
##양
##11
##szeit
ardından
presentar
##īgi
utilizada
מול
Leader
ofruktbar
מקום
Tracy
1970er
##hrung
##ೊಂದು
Cataluña
הארץ
output
Την
##め
##sty
##fre
Михайлович
##ösen
##тних
Peterson
ми
##зації
##jela
usada
dens
gamma
##რული
Iako
であったが
understanding
##য়ের
Jump
sezoni
##კური
efecto
false
replace
anniversary
##nni
##ებით
പി
atrás
##shme
islam
Audio
##јата
Manitoba
iPhone
##сер
végül
##eira
##әк
##وال
Boden
##IO
etxeak
Knjiga
Lives
назад
##liches
##əsinin
##isches
Read
##კი
##قية
longueur
kishte
##யர்
galt
Irving
havis
otres
seventh
##richt
386
హెక్టార్లలో
xếp
ועד
Países
##štu
мови
نسبت
hartu
##llar
considerato
cobertos
##ಶ
2003년
Dancing
தமிழகத்
##اتی
ianuarie
الإسلامية
кроме
Gard
maintain
времето
శిక్షణ
##న్న
1739
naturale
cita
##ندگان
##ơi
##주의
السكان
##ddi
Willis
underground
κυρίως
##wca
##ział
naturelle
palazzo
##gação
##нар
Испания
##kuussa
reine
##cek
Animation
trans
いの
##stí
##कों
विश्व
deed
##ager
1642
##mini
##neen
379
cielo
##top
hermanos
##ங்கு
kokatua
362
##mbah
proposta
تغییر
Poco
##ارات
##lega
вскоре
лиги
этим
##րվում
Finnish
Tại
Großen
نیست
ప్రభుత్వం
##data
Свети
##тельного
##ances
ബി
##дык
ریاست
Vargas
##యన్
Very
uden
determine
##sque
Duits
##má
cambios
কম
gehörten
competitie
nomeado
Current
tipi
personi
##žuje
southwest
ту
##ンド
anomenat
##16
##muan
accused
vollständig
habitanti
leeftijd
trip
1007
382
gemacht
##よう
Dem
Kay
NS
ով
##jući
bezala
בארץ
opgenomen
autora
##서는
##чал
##hair
##schluss
geniş
resten
Tätigkeit
classé
europäischen
ਹੋ
##jsko
industri
##teli
##tää
Luisa
##іла
##òria
шудааст
##られ
boshqa
##하면서
Larsen
Wei
Verfahren
drum
xullo
Initiative
parla
##ān
autoridades
##φ
fiskalaren
Calgary
ова
ormai
Trondheim
bahagian
373
Level
##bras
##ப்படும்
bestehen
colección
programmes
italià
segundos
толькі
##sert
##νης
원본
oso
##မှာ
##ující
turns
Bolívar
##মি
Elite
تحصیل
Cancer
##үп
منه
##work
られている
ін
##nike
dispose
##тски
##래
heutige
noi
unité
##हरू
Nuova
profesora
nm
можаце
Morales
##bird
##lės
ponovno
##ôn
Comic
kin
Napoléon
Purple
possibilità
##シー
##فل
slaget
исп
aprilie
Đô
##sive
1737
Sugar
funzione
##pidae
Material
##лені
##طار
imalo
##িয়ে
##كا
660
##żenie
میشد
##தல்
SMS
egyes
##isant
bandas
##tionen
##ələri
לכך
kişi
##חו
femminile
дітей
371
Cecil
PhD
njega
Marek
लिया
##jang
filla
##щата
саласы
request
Για
voormalige
cố
Universidá
##תר
##tici
strike
Darstellung
ngoại
Brest
Outstanding
painter
##15
##्रेस
дикка
Hull
armada
denda
##احة
##ục
mendapatkan
A2
##ически
ciencia
trener
Parmi
##inal
Constitución
pháo
urbana
##ρές
actes
озера
##никами
##גות
##мах
znajdują
ఇంటర్నెట్
gik
Đảng
Nouveau
Registrar
1724
Economy
Krakowie
calidad
HP
discos
menunjukkan
Durham
##ृत
showing
кадәр
378
Grote
влияние
Brandon
سنوات
##כונה
Cheng
Programm
Բնակչության
erschienen
##ại
digər
membawa
imperatore
гэж
юни
1654
Alternative
базі
prawa
##альной
concentration
ataques
módon
##md
##ντ
actuellement
##bilidad
intérêt
させた
##ровал
hul
लिये
Ediciones
eikä
##blad
בת
Griffin
загрузіць
семейства
tās
станция
##рым
BAFTA
##چی
##حل
##sian
##ören
##టీ
медыяфайлаў
דקות
سي
Međutim
сентябре
##vai
##дат
##zando
##رق
técnico
bronce
йолчу
welcher
1672
nogle
scientifique
##급
Chapel
Lausanne
भारोपेली
Melhor
совместно
##нной
rien
actuelle
delivered
##even
Dès
Cairo
##なっている
यहाँ
##tam
திருக்கோவில்கள்
sedang
брата
##lement
##tives
ყველაზე
##pha
##ല്ല
Combat
इन्डो
##tian
adtong
contest
##வன்
czas
##fice
militaires
##대로
Eagles
medyo
##pot
terus
##ttä
tarp
parafii
юли
фільм
##IT
Preußen
Commerce
legte
##cro
##ети
Alegre
Marian
русский
##ordnung
Giappone
##ồng
провів
429
##вших
Oost
##tles
##viste
св
existencia
Alus
##rje
349
воды
##ரும்
Católica
##ె
##ített
bror
##шого
##انا
wichtige
sveta
پایان
eerder
Edith
taj
##υση
stem
미국의
kanë
##ogy
##éry
DB
videos
alpha
rechts
##ודה
409
треба
##zm
יהודים
##kea
secretary
##idor
svenske
##agen
plante
##וך
Tomorrow
7000
##וט
código
Cassini
##dose
##wl
##альный
##től
1709
414
జరుగుతుంది
##graphic
Kommune
##lera
##jera
Impact
murió
sexo
capacidade
थासे
đồ
Springfield
1722
##ané
plein
1728
môi
Grafen
soprano
отца
территорипе
358
わる
Má
Behind
потом
Masjid
basada
##chos
کنند
1002
##분
rendre
позиции
##vir
tuần
entreprises
masse
Broken
##cego
##ыл
sebanyak
##tatud
faible
##ulated
Republica
Бас
солдат
ప్రవహిస్తుంది
##ncing
vendar
religioso
edildi
stadig
##jö
thiên
classique
υπό
##üsse
۳۰
amenities
Один
slutten
федералды
destra
##nsä
సంఘం
client
Pisa
##משך
solid
princesa
##ijn
##иот
Carpenter
##йти
##νίας
task
Rules
##อร์
Schumacher
##фт
fuktigt
dipartimento
ASV
businesses
движение
Socialista
nuevu
fixed
Storbritannia
součástí
općini
Representatives
##іст
Punk
Slovenije
##omen
բնակավայրերի
##áveis
dagoen
Sous
شرقی
Béla
قتل
посет
Volkswagen
ਸਨ
##rious
##ստ
vse
فيما
filhos
Save
жүйе
##ברים
vont
landing
نشر
Emanuel
##bbi
свої
##жной
##уа
Label
zelfs
littérature
wszystkie
dedicada
okrugu
##law
convention
тя
##хід
##енным
##rena
IL
lar
##른
seni
##hai
##τερα
Gibraltar
##표
فصل
##anas
##δες
ocupar
##ρίου
999
subtropiskt
विवरण
##èra
##szer
##иці
tag
##pico
##riva
##cea
##วันที่
Aufgabe
peces
तमिल
##quant
император
entrambi
394
427
Pohjois
разных
lalat
పిన్
Orthodox
atención
কিছু
Gebaseerd
ఆఫ్
Partito
virtual
فرنسا
##oke
##plaats
##zym
##ώ
Paşa
इसे
verließ
dirilis
zadebiutował
Mons
કરે
folgt
jika
##lní
##ίζεται
##гт
Newport
##wal
##tain
##ցի
chun
autori
eut
##iver
metropolitana
##லி
##եցին
##צא
##unun
##خانوار
purchase
ایالتی
##hne
రవాణా
beendete
boyunca
driving
محل
##ערך
волости
Carnegie
publicar
##েন
Изд
축구
uzyskał
Verwaltung
dobro
되어
Conservative
399
15일
sec
##вай
islas
credited
Ländern
##іч
područja
उपलब्ध
##тив
verdi
Mode
aya
##lou
1733
Dirty
gặp
##гар
vannak
Chili
Wimbledon
investment
##craft
##リーグ
##сла
residential
firmy
bangunan
integral
објекти
##čkom
ganar
indicated
centros
Heimat
linked
##unge
khai
##бри
##کن
Serbian
dî
Bhí
Modell
392
Entdeckung
##վի
Pole
Benny
Калкы
১৭
Banda
Folk
ekkor
poesia
Şubat
##llinen
Bibliothèque
درجة
##ศาสตร์
##cosa
Gora
бъде
twa
##որդ
##ئم
Turki
податоци
Ұлттық
##вает
سپس
##cidae
nesta
seal
teda
شپ
direzione
##jene
utilisée
felé
painted
יכול
leste
いで
хенан
##kasi
coppia
neuf
Herr
Sophia
grau
басқа
bakarreko
sert
Parijs
pierwsze
feel
върху
##ής
moteur
класса
బృందం
apan
probablemente
##icia
الموقع
вперше
должности
tiempu
Saga
discipline
genommen
kertaa
##AS
1661
##эль
Ride
власт
Noruega
Treaty
Bravo
##нія
ev
4ᵉ
##icio
Índia
получава
##ced
Card
conseguir
Borneo
дукхалла
##ড
tecnologia
##êr
azione
##τητα
##ее
Proc
λόγω
Senegal
కాలువల
António
lawyer
Hán
##ković
##حد
زیادی
ఉప
##ivas
సైన్స్
उस
##älle
gjatë
Killer
hakkında
##ಯು
Montpellier
pasado
volgde
##нко
egész
жас
##ческа
उपयोग
burada
##body
##fold
jaringan
lợi
מיליון
##duto
McLaren
gmin
syntyi
##nez
##ņas
doppio
CDATA
Однак
будь
байдаг
Ladies
altijd
మురుగునీరు
olevan
kolem
sırasında
475
১১
##ieri
royale
incontro
Antalet
tries
creado
лица
##40
Kopf
##tné
storage
##եղ
##ಂದ
își
##نى
syndrome
##inių
advantage
devices
südlichen
tuyến
teknik
vorbitoare
##щення
Borough
playoff
محمود
کیتا
Break
Zagrebu
spire
pemerintah
Jeffries
chạy
extremely
Olivia
Besar
évben
##čius
Doch
fondé
ministra
eyes
राज्यय्
аль
##wicz
మండల
##atge
##के
գետի
##znie
poblacional
##mane
participa
[...]
