the
to
##하
##는
##을
a
of
is
##를
##에
and
in
##-
##의
##:
for
##이
that
##The
있
##은
you
##/
on
##한
##에서
are
be
##가
or
##으로
can
##여
및
수
this
##고
queue
an
with
##로
##할
not
##되
message
by
사용
as
##한다
:
##This
##적
##된
##다
##과
경우
##합니다
it
from
##습니다
data
##If
use
데이터
시스템
MQ
name
##와
##”
WebSphere
your
정보
following
manager
하
value
##기
set
information
##1
##2
have
if
##지
“
##인
which
used
제공
대한
application
서비스
-
command
file
must
##’
all
using
##어
##You
has
##며
one
will
##화
한다
##면
user
설정
기능
1
page
system
않
##게
관리
등
any
when
처리
server
object
##In
##For
이
서버
수행
파일
only
messages
at
##s
example
구성
type
##A
또는
해당
것
##시스템
##정보
다음
확인
##성
지원
Server
more
선택
other
발생
database
2
number
/
위한
인터페이스
process
후
DB
##들
업무
also
time
필요
EAI
정의
service
##자
운영
개발
each
가능
변경
전송
메시지
같
##도록
these
was
##입니다
##도
call
code
없
field
see
default
##3
same
IBM
##'
The
new
시
may
client
specified
##To
channel
error
생성
table
통해
##됩니다
입력
##함
실행
create
then
수신
값
Oracle
values
node
##별
요청
##만
3
its
추가
##When
연계
but
do
때
환경
통합
no
##시
구축
적용
기술
포함
큐
등록
할
##It
been
how
##*
사용자
does
##관리
##ﬁ
##여야
into
합니다
applications
작업
should
group
Web
list
##일
SQL
설치
parameter
ID
files
따라
than
모든
되
관련
##음
중
business
about
제
connection
‘
각
available
need
attribute
##해야
이름
broker
access
=
이용
위해
지정
two
프로세스
내용
오류
전문
transaction
결과
##에게
select
program
클릭
want
XML
such
function
모니터링
시간
표준
분석
Manager
API
4
Java
상태
objects
Message
##거나
string
계약
option
보안
##년
request
within
연결
5
log
so
different
they
directory
저장
structure
required
specify
contains
조회
click
environment
created
property
를
표시
방법
0
might
up
응답
there
##?
cannot
defined
configuration
run
##으며
local
작성
flow
method
##OS
##“
support
##="
first
character
input
송신
between
성능
we
##Note
##된다
장애
프로젝트
view
some
##서버
length
프로그램
##4
대상
Windows
installation
Data
##IBM
사항
event
start
호출
받
before
Adapter
statement
output
source
화면
##자의
항목
ﬁ
기본
Application
##될
##EAI
C
where
테스트
##Use
provides
##기관
element
change
유지
거래
10
valid
because
##5
report
security
properties
방식
format
##서비스
다른
cluster
exit
테이블
class
key
through
their
definition
##었
version
로그
work
case
그
6
##어야
관리자
z
다양
services
문서
리포트
솔루션
control
##An
시작
한
##0
names
*/
애플리케이션
options
##개
필드
single
both
running
them
기반
##십시오
current
버튼
interface
Integration
소프트웨어
유형
내
수정
그룹
section
##데이터
either
File
uses
network
systems
##해
types
대해
제품
##\
##코드
웹
I
사업
users
보
called
의
삭제
project
자동
instance
재
참조
##8
##제
order
out
##See
attributes
##번호
아래
활용
without
같이
##명
완료
##또한
+
level
part
being
##값
processing
Broker
parameters
commands
##처리
associated
task
X
하나
구현
after
line
make
에
remote
기준
problem
another
e
##These
##까지
클라이언트
model
암호
Queue
shows
목록
whether
속성
changes
A
##전문
Business
설명
##WebSphere
provide
component
product
described
##업무
Service
동일
open
##나
##However
queues
JMS
이상
provided
전
Process
operation
multiple
HTTP
characters
returned
코드
*
종료
get
resource
MicroStrategy
shown
구조
fields
8
end
check
아니
트랜잭션
메뉴
response
topic
특정
sample
##파일
고객
performance
단위
##On
을
7
진행
reason
##6
전달
those
문제
add
supported
return
variable
등의
통한
result
address
state
##t
함
details
System
target
include
Name
way
column
구분
size
##려면
mode
Agent
##%
단계
##보수
document
text
put
sent
'
네트워크
existing
complete
전체
##므로
기업
path
resources
가지
##®
채널
본
appropriate
install
권한
displayed
따른
IP
에서
made
specific
##지만
managers
calls
during
contain
functions
검증
execution
–
##=
옵션
정상
{
window
components
allows
위하
most
could
버전
possible
페이지
context
여부
##사업
됩니다
insert
##사항
maximum
point
위치
space
출력
machine
##본
host
변환
generated
백업
agent
Table
검색
일반
processes
Version
action
접근
V
elements
given
based
데이터베이스
존재
software
##릭
현재
non
##There
##월
handle
는
tables
명령
already
speci
##는지
Linux
password
TCP
로
여러
programs
##Cause
인증
read
started
installed
many
요구
##SQL
##고자
S
back
어댑터
next
모듈
domain
session
##C
form
header
copy
port
destination
자료
접속
##폼
buffer
영역
identifier
##조
automatically
##시간
##으로써
define
events
두
노드
통신
##le
##수신
명
over
selected
display
send
perform
기
기록
exception
통하
기관
개인
would
##Select
stored
별
UNIX
메트
##name
written
##7
what
##DB
함수
ESB
배치
##다음
모델
##All
부분
연동
URL
##예
##i
들
&
Client
내부
test
while
직접
connect
반영
Set
효율
주
memory
위해서
##W
returns
##주
full
교육
sets
##중
now
unit
##통합
모두
##개발
determine
된다
##라
enter
##Action
##사용자
SSL
이벤트
content
##이나
방안
right
어플리케이션
bytes
때문
에러
Configuration
profile
procedure
##As
additional
##로부터
##간
steps
##Each
가
active
below
channels
Object
제시
공유
box
평가
##수
MTE
ensure
record
IT
##였
크기
CICS
location
reference
describes
기존
like
9
안
비즈니스
operations
including
의해
##Click
User
OS
String
operating
##·
설계
##했
This
의미
##토리
management
##으면
methods
##있
12
상황
under
requests
##송신
실시간
query
integration
take
activity
trace
own
means
예
products
컴포넌트
배포
##용
##형
results
결정
nodes
고려
shared
##는다
configure
대하
경로
##지원
entry
정책
errors
schema
classes
##운영
tasks
index
status
setting
##사용
##10
기간
조건
자
안정
includes
standard
협의
last
implementation
외부
#
##기술
update
link
만들
were
particular
생
servers
found
##각
대해서
확장
well
Interface
storage
##아
데
subscription
객체
correct
long
SAP
r
담당자
Figure
범위
##서
변수
##ed
dynaTrace
##to
repository
형태
##큐
##계
##We
품질
follows
##해당
LOB
성공
necessary
second
until
language
제한
주요
received
파
##됨
##해서
##겠
module
##부터
trigger
issued
adapter
##항
Software
없이
find
일
절차
확보
item
menu
allow
specifies
rules
증가
tree
v
그림
폴더
help
variables
connector
three
##Oracle
disk
요소
chapter
##연계
Database
100
Guide
button
occurs
##기능
제어
##권
delete
always
##ID
비
Enterprise
listed
영향
##MTE
internal
##거래
authentication
Transaction
많
If
##기간
제출
thread
수립
11
folder
##환경
B
settings
fails
##결과
##서의
##—
디렉
##F
##After
above
상세
choose
##기본
package
수집
named
소스
receive
관한
statements
definitions
목적
indicates
needs
세션
##따라서
filter
클래스
clause
web
In
platform
range
transactions
##000
도입
script
connected
시장
인
##번
containing
응용
##사업자
simple
##는데
syntax
write
승인
Type
supplied
logical
새로운
동작
실제
match
reply
deployment
added
cases
description
previous
requirements
##I
initial
##S
매핑
요건
i
failed
ESQL
##일의
개선
executed
과정
job
even
##구분
enable
items
configured
de
exist
clients
WMQ
실시
계획
null
store
##in
editor
클라우드
타입
apply
requires
zero
step
protocol
root
##보안
MQPUT
##Explanation
비용
추출
중요
헤더
creating
##이러
##12
복구
further
체계
features
platforms
sure
recovery
device
load
groups
development
several
현황
##반의
problems
최대
##n
다시
failure
##도의
passed
##Using
온라인
일정
검토
대응
트래픽
##그림
##}
pattern
##‘
NULL
tab
##+
패턴
##표준
interval
##스
##sharing
performed
자원
Services
require
our
##센터
##대상
에이전트
더
규정
##IP
##원
every
총
주기
sequence
##메시지
##계약
계정
의한
##페이지
large
image
row
사전
##갑
20
library
사이트
certificate
일부
completed
enabled
##가능
간
##Check
읽
SOAP
supports
원
##현재
transmission
##based
플랫
connections
→
##9
반드시
##Specify
displays
##click
date
요구사항
programming
enterprise
##11
이미지
completion
이전
가장
instances
보장
##자료
기타
array
just
able
physical
플로우
리턴
dialog
##c
processed
##By
tool
통계
역할
##등록
시험
호스트
이후
##x
함께
down
계산
이상의
addition
##간의
included
panel
collection
creates
공통
shell
Control
descriptor
successfully
customer
expression
occurred
##로서
global
external
refer
site
design
##내
Center
again
Management
$
changed
identify
##Any
columns
still
16
listener
##요청
x
맞
조직
제안
directly
도구
체크
상호
오른쪽
15
examples
monitor
needed
창
remove
액세스
##보다
##Create
구동
프로토콜
documentation
지속
##등
MQGET
transfer
commit
##문서
contact
##$
##Specifies
최소
##--
모드
rule
common
전자
occur
cause
contents
##째
administrator
##상
complex
currently
##인터페이스
이행
점검
##드
dynamic
##대
##GB
An
로그인
->
제거
modify
across
고
##만약
부여
Reference
issue
할당
제외
된
exists
show
신규
자체
present
장비
##면서
tools
메모리
CPU
##일반
##․
30
attempt
’
look
separate
##받
##수행
member
corresponding
##어서
비밀
##프로그램
##보
초기
stream
restart
behavior
##업자
terminal
##트리
##계획
높
high
left
execute
deploy
##테스트
보호
금융
special
될
stop
탭
##설명
##아래
##&
주소
MQSC
이동
##라는
##화면
32
book
패킷
backup
here
못
측정
해결
W
instead
important
Connector
allowed
##내용
unique
J
인력
runtime
조치
##팀
Developer
##모듈
area
활성
추진
place
integer
##시키
##모든
동안
편집
분야
reports
related
console
최
가상
키
##B
##단계
개별
말
times
true
번호
세부
custom
번
보유
##public
less
top
policy
책임
build
JDBC
utility
##그룹
Chapter
account
child
별도
실패
messaging
##상태
최종
original
handler
##설정
##기업
Dynatrace
개의
향상
records
No
##상의
conversion
represents
문자
environments
##전송
PC
itself
To
certain
MQI
##뷰트
topics
마우스
와
메소드
지급
아닌
provider
혹은
LDAP
communication
연구
##e
동시
수준
##부
##Message
검사
##NAME
useful
특성
done
규칙
interfaces
actions
publish
기동
##++
바랍니다
very
##level
enables
위험
who
##다면
불
##지의
search
대
map
##a
IMS
##시험
이러
##O
via
rows
업데이트
cache
파악
cursor
인프라
수도
similar
형식
타
수급
##bit
mapping
##업체
##정의
포트
block
MQMD
##셋
참여
전환
later
##으므로
##항목
CD
##웹
Flow
codes
computer
관계
flows
takes
##던
release
correctly
known
scenario
solution
distributed
##분석
비교
Monitor
##통신
condition
##버튼
Gateway
statistics
넣
ways
Internet
PL
monitoring
SW
##사
모바일
|
##00
Security
main
various
save
wizard
drop
차세대
least
팝업
개발자
시점
##D
다
authority
볼
스마트
role
primary
lists
경험
Group
against
individual
FTP
분산
링크
Support
amount
##01
##프로젝트
##Data
base
center
##릿
찾
indicate
간의
##가지
built
Rule
준수
##String
##작업
##업의
specifying
위
starts
생산
##임
capabilities
필터
Check
byte
##그러나
길이
working
##안사
##는가
effect
AMD
아키텍처
points
쉽
conditions
OK
##",
##인지
송수신
##defined
##Figure
bridge
##User
리스트
##No
문자열
하위
효과
##평가
##회사
##건
변화
##time
issues
룰
deleted
##Some
successful
appear
분류
SOA
##HTTP
##EE
##후
Event
조정
담당
##그
Use
내역
보여
##Because
browser
##부서
versions
기록물
해
Explorer
건수
##보호
식별
alias
##체계
##Open
##From
feature
얻
RFC
##수의
열
per
defines
BusinessWare
개체
HP
Connection
longer
##입력
클러스터
정지
once
##기존
##ned
##차
명시
컬럼
##Set
##여부
R
레코드
쿼리
distribution
static
##특히
초과
writing
Network
##너
##변경
blank
starting
databases
##응답
은
prompt
%
Script
국가
New
int
##라고
optional
인터넷
선정
##Description
##With
즉시
장
순서
##았
pages
selector
EJB
administrative
limit
empty
원인
국내
invalid
애
HTML
applies
##금액
디스크
64
parent
screen
##M
pane
depends
##다고
~
identity
Source
필수
##체의
entries
metric
##분
tag
Properties
You
administration
업체
AS
icon
continue
Time
generate
encoding
Create
14
off
HUB
레벨
parser
requested
manage
sending
영상
판단
##클라이언트
documents
지역
Response
##Before
greater
해제
Node
basic
모니터
##조회
리소스
년
##설치
##모코
추적
migration
##장애
##와의
##스턴스
Length
향후
단일
analysis
알
산업
###
wait
##At
분리
허용
상
##E
invoked
XA
therefore
Request
신속
확대
산정
일치
general
implement
verify
char
##T
updated
sections
인수
반환
보고
문
import
except
시도
appears
makes
know
PDF
license
##Enter
회사
taken
usually
##단위
references
통해서
활동
공급
numbers
디자인
##Q
스크립트
devices
ebSpher
batch
updates
다운로드
registered
##채널
bit
try
Error
seconds
평균
bean
##Ensure
virtual
목표
functionality
엔진
복사
개
Project
인해
normal
동기
##은행
##식의
이내
##They
##ESB
close
instructions
보관
contained
##테이블
##다는
감지
인식
##G
13
MQSeries
double
##~
runs
subject
##카드
사이
operator
follow
이해
often
segment
logs
assigned
가이드
Select
count
Log
##Once
##위
##MQ
MI
##플랫
##다만
##엠시
ignored
MCA
부하
sender
그래프
뒤
JEUS
subscriber
online
AP
kernel
로컬
##사의
##방식
together
retrieve
종류
로드
사유
방지
핵심
물리
##and
대기
since
Open
태그
WAS
Corporation
threads
##시작
deployed
##관리자
structures
argument
WSDL
DBMS
entered
##초
##각의
AIX
아이콘
업로드
opened
however
Information
통제
projects
매니저
##요소
real
retrieved
side
##id
##기준
much
too
bag
##les
terms
파라미터
사
re
예상
##률
##Do
##인증
공개
포맷
##특정
Monitoring
원칙
entire
뷰
scope
##or
Add
##회
새
Channel
##if
recommended
Administration
creation
Editor
strings
##헤더
##링
pointer
template
rather
##mqm
##제공
procedures
유닛
오브젝트
##방안
On
이용한
describe
50
SET
적절
##담당자
switch
Directory
송
usage
나타내
##API
정확
##표
##One
SYSTEM
Value
publication
typically
##안
priority
##r
##>.
##->
activities
##유형
Wizard
consider
converted
identified
having
unless
lines
Transfer
상품
##LENGTH
total
외
인한
determined
##방법
namespace
##외부
manual
invoke
go
##억
이미
그리고
과
libraries
depending
우선
공간
##조건
##고객
전략
강화
라이브러리
ofthe
move
##Therefore
EIS
참고
나타나
dead
##UX
Intelligence
이관
##MicroStrategy
##개인
##발생
어떤
diagram
##품의
##배치
temporary
##관련
##장비
##인력
원사
give
##down
selection
placed
해야
신
manually
##the
##Table
투입
pass
represent
exits
privileges
##Response
container
specification
pool
##객의
##^[
COBOL
대비
architecture
technology
##삭제
바탕
Record
Yes
표현
Model
산출물
drive
통보
Microsoft
customers
##구성
크
##Also
void
##소프트웨어
##subscribe
##확인
흐름
id
입니다
또한
Next
##XML
##트
fixed
형
각종
removed
장치
permission
중복
##현황
개수
body
checks
archive
서면
##o
Target
prior
views
implemented
대외
native
팀
metrics
저
Access
##오류
자세
followed
©
hardware
numeric
예정
##항의
속도
con
계속
partition
Connect
##d
##나라
지연
receiving
Specify
applied
금액
공공
routine
export
원격
##영역
receiver
##where
company
접수
투자
보내
engine
24
previously
##HOME
##수정
Format
##전자
##유지
##letter
전사
initiator
대화
##Windows
패키지
modules
센터
detailed
임계
적합
언어
gives
For
소요
generic
##」
M
Using
QM
embedded
keyword
organization
은행
SELECT
구간
located
용량
비즈
approach
Command
relevant
public
2008
minimum
##점
fail
조사
##율
날짜
##장소
links
영업
entity
edit
actual
Key
installing
##전체
##다양
delivery
infrastructure
Test
GUI
##키
신청
Link
예외
Console
대표
##위의
오픈
##Queue
opens
TP
##으로부터
third
##내역
##신의
managed
나타납니다
pr
갖
MQOPEN
whole
##자세
detail
온
##What
four
had
expected
best
##var
##Only
published
##팅
차트
##법
bar
sends
N
small
라우팅
툴
receives
logic
Profile
##출력
providing
##프로세스
##정상
fact
준비
##션
바로
##cation
##관의
resolve
trademarks
logging
Enter
##에러
directories
##이름
addresses
##20
##고서
simply
작
미
binary
due
whose
free
##금융
persistent
방
표
metadata
블록
ALTER
##!
반복
##으로서
명령어
##그리고
카드
압축
##MI
units
n
UI
brokers
도출
브라우저
GET
중지
authorization
##호
Customer
LOBs
##Add
##Now
driver
의하
##How
##물의
immediately
Inc
login
initialization
otherwise
중단
become
##bin
consists
good
##File
position
understand
메시
으로
levels
stopped
http
##etc
explicitly
부
##리포트
keep
formats
가용성
inthe
extension
##마다
수동
keys
예제
##Dynatrace
##도시
입찰
exceptions
유사
작동
detected
##플로우
scripts
큰
##여기
##Your
중인
D
텍스트
관점
models
##네트워크
##존의
matches
##16
성장
subsequent
미리
Repository
##일자
단
Socket
##모드
delivered
로직
런
Solaris
내의
트리
##란
Advanced
##Integration
##Application
fully
publications
intended
equivalent
FROM
parts
perspective
##또는
##교육
permissions
##구축
부서
home
Resource
보증
Update
각각
affect
##int
공동
##64
##저장
하드웨어
CCTV
Active
##specific
점
##byte
mobile
according
CREATE
Report
ability
횟수
##value
tablespace
유연
##PC
earlier
View
secure
machines
아이디
중앙
##Returns
db
calling
##02
designed
List
##32
retry
체결
unable
지식
##’,
multi
Framework
누르
##측
숫자
Y
컴퓨터
##으나
취소
--
Amazon
Edition
period
개념
##암호
Sync
bus
##Make
손해
당사
17
mqm
causes
—
##v
avoid
범주
##Here
탐색기
print
sources
##온라인
materials
obtain
대체
members
ar
testing
Deployment
G
team
flag
동적
보완
cost
purposes
##제품
##성능
comments
Bus
##처럼
수요
##WMQ
##@
JVM
매개변수
easy
기재
##당
few
##15
##신
layer
packages
컨트롤
콘텐츠
relationship
us
서로
법률
modified
##주요
arguments
pre
turn
accessed
별로
##end
short
세
others
normally
##문
production
##제안
hierarchy
18
private
dump
identifies
##23
경보
patterns
##완료
복제
don
마지막
Managed
도메인
mechanism
All
Field
mediation
timeout
determines
21
##연결
solutions
handling
plan
지
startup
정부
등이
행정
규모
headers
집합
##Refer
계층
예측
Objects
LU
시행
applicable
maintenance
##추가
validation
##개월
making
consumer
standards
incoming
정도
E
##필드
##인터넷
적
final
##태의
better
##아야
protocols
업그레이드
proxy
##Java
adding
구매
나
월
generates
##보증
Tmax
color
MQRC
마련
##어댑터
hold
##data
enough
easily
##13
Toolkit
Config
equal
PowerPack
JNDI
첫
increase
loaded
매우
lower
Task
디지털
communicate
decision
특이
##상황
도시
F
Query
##비
##였을
roles
subscriptions
indicated
series
reserved
hosts
##256
future
##14
##기타
SDK
##이하
절
##mail
limited
의무
끝
rollback
outside
situation
workload
##이때
committed
뿐
원활
프롬프트
choice
##로그
중심
purpose
Insert
##es
알고리즘
사람
gateway
Default
queries
routing
##Business
browse
글로벌
##Then
의사
Header
==
##While
##부의
##기반
##…
##Start
languages
direct
##클라우드
도움
스토리지
human
마스터
매출
##블의
O
queuing
inside
copied
약
##전
##시티
accept
##트랜잭션
##type
handles
Load
beginning
먼저
press
measures
Performance
Batch
MRM
차단
profiles
##검색
유효
JSP
performs
##Please
did
##보험
blocks
Exception
sites
binding
T
##21
clusters
catalog
nested
##Web
통지
note
직원
한국
matching
##That
22
Count
##Server
줄
RTT
수익
협업
##이전
OCI
power
조합
##Although
referenced
Global
어느
##때
##server
Runner
combination
transport
share
master
##과제
media
##조직
어
attempts
##{
##Other
PCF
developers
begin
Save
최근
Component
##AMQ
Start
##rst
##DATE
##줍니다
25
최신
이력
##’)
plug
시나리오
supply
likely
인하
##기록
현장
Example
sign
actually
집중
terminated
첨부
transactional
##투자
MQGMO
날
##So
발전
Host
underlying
##메뉴
법
Everyplace
19
marks
판매
대부분
##m
waiting
segments
Options
represented
checking
나타냅니다
일자
부담
999
higher
컨설팅
동의
loop
신뢰
stores
정합성
reported
constant
ISM
##실행
controls
WS
blanks
단순
Session
구문
용역
U
##및
구
Workbench
closed
Master
라이센스
workbench
이유
지침
건
declared
Analysis
사례
discussed
##구조
##자리
partner
##점검
When
##17
측면
convert
납품
##설
새로
subsystem
etc
becomes
##24
invocation
발견
##usr
그대로
why
신용
##Type
SCA
##더라도
##시장
인증서
Cluster
최초
forms
고유
디퍼
컨텍스트
60
clicking
Port
route
padding
setup
upgrade
migrate
MQRFH
integrity
발주
c
L
##글
용이
##P
Programming
experience
맵
UPDATE
##only
TABLE
extended
P
일괄
works
##eld
never
##Alternatively
##Client
##MQLONG
##조치
##정책
##p
정하
##모델
produced
##핑
Rational
review
region
defaults
lock
##산업
BPM
H
##장
권리
##log
token
##
communications
##N
AWS
average
false
CSQ
이슈
사용량
##수급
보고서
충족
parallel
availability
##R
upon
Runtime
″
offset
ends
전용
템플
##정부
queuemanager
correlation
##적용
논리
Real
com
머
throws
가정
reasons
replace
##범위
빠른
assign
##목록
지시
콘솔
##30
##크
##모니터링
##필요
다르
갱신
people
Page
##외의
allocated
##info
##_*
saved
##Otherwise
운용
지체
Input
과업
warning
비동기
certificates
당사자
아이템
issuing
representation
##터
samples
##종료
제니퍼
prefix
##선택
##Since
복잡
창이
##단
larger
ready
##시킬
매개
interaction
considered
필터링
datatype
style
ERP
prevent
IN
Development
reduce
expand
changing
##적의
quickly
편의
##of
자바
메일
APIs
##re
Controller
OneAgent
감사
##V
Mac
##단의
checked
##19
Class
방향
JavaScript
IDs
따르
요
2013
copies
##K
##승인
좋
though
테이
selecting
우리
RDBMS
상용
스
##EXEC
무상
##".
##내부
##변수
상위
involved
Memory
encountered
bottom
PurePath
##노드
expressions
disabled
##
이루어지
가진
폼
##18
facility
encryption
rate
##솔루션
TO
warehouse
onto
Action
몇
United
rights
Portal
##out
Activity
identi
2020
dependent
caused
정렬
resulting
##증권
Number
hard
Platform
2000
##TCP
dynamically
##',
##뱅킹
attempting
합의
Get
유출
##Messages
email
developer
chain
##총
##공유
reset
card
##City
독립
사실
bucket
대시보드
확정
##자원
##상대자
images
복원
##Right
결재
기초
감소
##Change
DNS
Mapping
│
##씩
##22
##Security
정리
techniques
마시
##이타

분할
수용
yet
alternative
하도급
##하나
o
reading
phase
##ERROR
과제
indicating
along
Installation
clear
사업자
countries
##량의
플랫폼
손실
authorized
청구
low
marked
old
만족
notification
privilege
정한
terminates
연속
##대로
integrated
인덱스
##u
산출
##스마트
gets
lost
##연구
원본
License
Description
##케
restrictions
significant
##ISM
paths
##바이트
앞
용어
URI
TM
##비용
overview
##료의
transformation
현
최적
간주
##')
부문
보존
##Optional
branch
##과정
박스
Basic
확산
##b
executing
Mobile
criteria
##식
sessions
특수
##다른
소유
경고
##X
양
cell
##절차
##line
Administrator
MQINQ
tests
##결정
##오
협력
호환
referred
exercise
Compute
##우의
Protocol
삽입
download
words
day
##경우
##100
상표
시에
컨테이너
바닥글
java
relationships
Commit
descriptions
implementations
미들웨어
##001
발행
적극
graphical
bind
continues
Environment
어떻
##말
exactly
thefollowing
grid
word
달성
##user
Storage
suitable
defining
##31
##성과
##−
responsible
improve
success
stack
공격
##06
Library
##려는
권장
##공통
traffic
매뉴얼
naming
join
affected
framework
desired
technical
따른다
##up
연관
Mode
logged
regardless
상대
차이
전문의
##*)
®
##주기
##없이
building
resolved
signal
INSERT
technologies
remaining
states
obtained
accessing
destinations
##Most
##25
Import
성과
my
connects
redo
capability
「
NEO
##분야
regular
##행정
locator
Settings
CCSID
##Service
HA
Apache
##두
performing
MB
길
##MSG
factory
##During
드라이브
tells
##for
refers
##매니저
States
##규정
Sun
Cloud
##시켜
Local
문제점
minutes
대신
근거
maintain
열람
##Chapter
##Name
해지
##Example
고도
DataPower
ODBC
긴급
커
asynchronous
End
WHERE
세계
variety
register
##NO
##데이터베이스
measure
##신규
Pattern
Code
버퍼
develop
jobs
visible
##Both
항상
mail
tothe
manner
days
SMS
##AMD
##Creating
presented
impact
중간
ASCII
##Instead
##인가
##체제
엔터
위반
가격
label
##상자
constraint
owner
##기의
빠르
##작성자
const
이루
adds
##f
automatic
##창
최적화
subscribers
형상
높이
Publish
TUXEDO
xml
낮
DISPLAY
derived
호의
특별
##ll
##03
offers
##l
Filter
##영상
##비트
BEA
registry
easier
어떠
locations
##설계
패스워드
앱
##Direct
BI
멀티
##SAP
indexes
overall
##만큼
절감
##요구
##망
##이상
##Is
replaced
around
compression
##실
취약점
Custom
Module
한글
although
제약
실적
resolution
##DATA
측
Order
executable
바이트
lets
configuring
NT
Status
교체
NOT
##’.
Collector
question
implements
advantage
Engine
##생성
properly
그리드
relative
##side
##백업
##L
##NONE
부터
비율
계좌
puts
progress
##connection
##g
2009
declaration
summary
happens
변동
scenarios
23
##set
helps
backed
caller
accounting
김성수
established
completes
situations
going
80
Section
##함수
characteristics
##체
Tivoli
parsing
INTO
recorded
검수
따라서
spaces
connecting
accessible
Architecture
Output
워크
ports
##공개
인정
alter
flags
전산
compiler
thrown
오
섹션
dictionary
지표
##성의
안전
BLOB
2012
credentials
트리거
##Error
##on
PUT
단말
typical
구체
가져오
category
Unix
establish
##엠
##쥴
missing
*)
##But
entering
Schema
##Test
executes
##manager
##디스크
Click
차원
빅
indication
##마이
IPv
algorithm
##변환
mapped
consistent
결합
제작
##폴더
서명
40
endpoint
topology
term
당
초
Remote
발급
가치
Eclipse
미국
장소
decimal
눌러
handled
종합
##root
##복구
controller
많이
코어
포인트
looks
조작
chart
Text
진단
let
화
엑셀
doing
preceding
duration
##UNIX
속
Program
우측
쓰
notice
symbol
basis
규격
리포
공급자
스키마
plus
please
다중
##것
행
선언
Content
저작
MQCONN
협조
explicit
Workflow
보이
##분의
compatibility
##위원회
SYS
background
##05
retained
among
##원사
##대외
##관제
tracing
schedule
##de
especially
##규모
##면의
##er
MQCONNX
constraints
disable
APM
sub
s
발송
Call
예방
independent
volume
의견
제반
전망
granted
graph
계약서
advanced
알림
대용량
##Define
이메일
용도
##사이트
areas
미치
##소스
##참고
48
2005
##속성
writes
TRUE
assume
##XA
vendor
refresh
reads
##활용
Help
responses
##량
macro
부족
comment
aware
Installer
잘못
maps
forward
##28
held
Common
servlet
Tag
㈜
곳
##계정
##공급자
조
QMGR
##한국
##통제
집계
grant
analyze
Setup
정기
##로써
패치
##″
organizations
Byte
USER
MQe
##이벤트
reproduced
전반
developed
agents
major
##』
##라면
##ㅇ
##활동
##회의
invokes
username
ensures
REST
증명
depend
trying
Files
syncpoint
불가
Trace
Servers
##조제
300
assumed
##2009
Attribute
간단
##목표
market
probably
처음
①
critical
connectors
cloud
Trigger
developing
##내의
##SSL
risk
Tuxedo
##시킵니다
나열
Tool
asterisk
BSDS
Disk
##목적
편리
##요건
##First
Warehouse
leave
facilities
Level
##char
focus
things
allowing
operators
##응용
##route
decide
만
##CD
취득
##그러
CA
seen
determination
상자
##MGR
socket
경영
##07
uninstall
##Run
workflow
##가상
sufficient
Export
##국가
remain
Analytics
국제
##방향
knowledge
##field
##Thus
##ROM
meet
500
기기
임시
##문의
달리
remains
?
difference
Layer
buffers
inbound
이하
2007
core
제안서
프로
##규칙
Address
something
됨
행위
companies
전문가
결함
##Setting
##TYPE
International
connectivity
exchange
Date
광고
##파
Delete
법인
FILE
##지정
##guration
passes
Base
DLQ
partitions
illustrates
드롭
##건수
##400
generally
thus
##신청
CF
comparison
produce
##재산
Revenue
Standard
노력
Compuware
나누
stand
메타
BW
panels
주민
자격
guide
identical
Overview
callback
혁신
##file
##시설
Language
##=""
filename
2011
palette
토큰
latest
##더부
##자동
##예측
folders
BFILE
reporting
holds
##SELECT
##징
##Many
completely
경제
미래
Family
재난
bindings
fix
프레임
컨텐츠
none
propagated
Method
deliver
했
restarted
MS
course
##호스트
transition
Element
AND
publisher
Parameter
doesn
일관
스레드
․
##조사
history
##nition
DELETE
TYPE
VARCHAR
##이용
navigation
Function
tags
learn
##JEUS
##list
sharing
##등급
linked
공
layout
자율
방문
##Verify
##Depending
수가
toolbar
##심의
대량
##국내
##겟
constants
극대
upper
31
concepts
##Broker
능력
PHP
##런
##계좌
업
용
고급
threshold
chosen
Studio
##안전
양식
##ﬂ
##치
Map
extract
·
디바이스
Job
##Applications
##시킨다
achieve
Thread
##MB
potential
##JMS
##Copyright
버킷
백
지능
Proxy
Q
##부분
런타임
##비즈니스
hexadecimal
##length
##모바일
##End
##제의
customize
##일정
Online
auto
workspace
logger
##검증
override
getting
wish
발표
##이행
##지역
이중화
begins
##호의
##Y
quality
comes
##플로
assembly
Edit
파트너
##전략
요약
시각화
year
self
releases
DATA
terminate
엔드
##BIP
reached
2019
meaning
K
p
메인
사고
장점
##Active
##Log
##이렇
놓
lookup
Intelligent
locally
이외
전화
formatting
주관
subscribe
##아서
controlled
demonstrates
위의
##점수
outbound
compare
일련
물품
portion
initiation
##**
##Where
offer
positive
finished
come
등과
최대한
2015
initialized
quotation
Hat
##여러
generation
Visual
dashboard
##>,
restore
POS
##Source
\
##가격
합계
##128
Agreement
materialized
##배포
Encoding
Rules
${
exact
From
##Follow
즉
pair
##h
##SET
물론
##동기
HTTPS
depth
Adobe
overhead
sales
##담당
##alone
beans
분기
}
imported
전부
주문
migrated
현상
##전문의
routed
ISO
##void
자산
일체
##k
keywords
유용
info
##관계
단추
throughput
##분류
Creating
editing
동
##실시간
##장치
##System
반출
raised
##Subscribe
교환
repositories
고정
명명
RM
AGENT
탐색
tested
mount
##사고
##재
front
##Such
남
손상
의거
취약
##ne
사회
수준의
프레임워크
##oriented
fr
##비밀
##처
Document
Postcard
stops
왼쪽
회원
##고의
##기동
간격
##by
##기록물
track
##which
MQCC
닫
boot
allocate
b
##86
##없
##권한
##Connect
operate
transferred
Release
##Notice
faster
금지
임
특징
억
2010
Reason
2016
##철
occurrence
핸들러
RTI
##최대
tell
주로
##Reason
Dashboard
여기
fast
locate
##전하
표기
##BusinessWare
providers
vary
주의
##최종
extensions
##Configuring
As
##니
u
Systems
순차
WebDB
Container
leading
##CPU
감시
##lib
##Be
##return
places
sort
administrators
packet
##싱
##www
incorrect
CLI
##포인트
snapshot
우수
proper
Change
##차세대
Full
compile
world
##단말
restricted
보여준다
양방향
industry
construct
복호화
mappings
노출
##IT
잘
##date
circumstances
##등의
전원
##IS
routines
recover
##SW
detect
스케줄
networks
discarded
##|
digital
assumes
extend
signature
collected
공정
##진
prompted
200
waits
인쇄
1000
triggers
Cube
##버전
라이선스
##Event
제조
JCL
##Midas
##의의
##사유
일시
policies
경쟁
workstation
TOE
Added
2006
##MCI
title
##용의
27
##xml
##애플리케이션
diagnostic
우
thequeue
compatible
rolled
persistence
coordinator
Null
메타데이터
##였으며
daemon
employee
om
recent
상기
POST
##Configure
disks
나오
##Process
이용자
aspects
리모트
##우리
##주의
명확
임의
lab
CRM
ﬂ
컴퓨팅
인지
##티
boolean
마이
##상품
managing
interactions
SQLJ
##Linux
가공
거부
##뿐
treated
vendors
ended
구성원
smaller
altered
nature
letter
turned
moved
가동
drill
presentation
##Users
밖
체제
bits
percentage
##phase
years
differences
interact
PM
speed
accounts
의해서
128
filters
zone
cover
김세종
scale
풀
MO
수량
등급
Context
technique
방화벽
기대
유지관리
Browser
##개선
##옵션
prompts
완전
##「
##USER
개요
회선
belong
##Either
##ve
extra
##계획서
Step
자동화
kind
inventory
##스터
까지
EMP
throughout
##리의
##명의
Desktop
effective
putting
신고
선
triggered
##위험
##실제
omitted
inserted
shutdown
폐기
CLOB
##대의
상의
…
concept
Excel
negative
나타난다
##Information
관찰
##시기
children
##db
Pro
세트
유무
저하
subset
opening
##새
ed
##능력
차지
implicitly
bound
증대
themessage
distribute
##창이
capture
retrieves
NAME
유저
줍니다
##진행
Apply
Path
aggregation
protection
parsed
split
Authentication
association
shall
##Another
##04
PurePaths
predefined
spent
Messaging
disposition
namelist
firewall
##Plus
installer
Window
requirement
optionally
costs
regarding
Definition
Put
##져
만드
RACF
WMB
IS
도달
migrating
배정
##트리거
재처리
Return
representing
hash
Instance
Applications
##SHA
##디렉
ones
transform
##Stop
00
person
Async
소개
d
validate
##온
mark
##H
##group
lot
##point
##발주
CompCode
##통계
보정
##business
##Additionally
Unicode
문의
questions
Tools
커넥션
initialize
onthe
tape
상대방
Password
##printf
90
##개발자
##웍
answer
attached
Work
비활성
##Agent
BME
##성공
implicit
confirm
selectors
##개별
declare
전개
##동일
내장
##Switch
modeling
desktop
서류
개방
태
##Course
deploying
dashlet
locale
mouse
불구
BY
기회
보낸
패널
색상
##세션
mean
behalf
해외
역시
belongs
Dynamic
드릴
대가
External
쿠키
적정
##당사
operational
소속
연산
pairs
모델링
실
##소의
##ALL
Infrastructure
##start
경쟁력
무시
mandatory
sometimes
##Let
__
attempted
looking
##Save
자신
시설
대금
마법사
참가
##Typically
##opt
party
monitored
hand
enabling
involves
##전한
agreement
Architect
##헤
flexibility
limits
특히
m
Core
주식
##라도
responsibility
##Object
##Every
loading
드래그
증권
outcome
app
28
##Default
##Enterprise
coordination
##create
툴바
triggering
LAN
만큼
Ctrl
256
팩
little
DBA
##인의
Sensor
unexpected
##ARIA
Design
listing
duplicate
onpage
domains
##EXIT
백분율
##도구
-->
##390
explains
대처
revenue
signed
RUM
indicator
reuse
##U
anything
examine
발
지점
##길이
##And
arrow
Informix
Suite
xa
guidelines
##이란
Subscription
##줄
##이것
##향후
컴파일
##">
separated
담
supporting
config
recognized
##Remove
Copy
##</
expect
2014
##지시
침해
둘
permitted
JMSException
milliseconds
rest
##러
홈페이지
Buffer
##J
##클릭
##행의
병렬
##write
리
mixed
##Whether
##할지
편집기
video
##Finally
Messages
How
##시의
매체
##배
PATH
Cache
충분
##준다
##구
01
exported
##Similarly
유통
##서명
##최근
미디어
법령
identifiers
##명령
secondary
Run
##Programmer
##New
five
##참
##SEED
완성
##TB
RESET
Also
관심
소켓
parse
토대
else
functional
##Under
hours
DEFINE
##ERR
전송이
understanding
accepted
processor
formatted
discussion
replies
강제
Do
JDK
MIME
예산
##%)
적재
audit
throw
END
digits
JAR
History
##Choose
당해
##형태
Specifies
showing
persists
strategy
##VERSION
navigate
replication
Backup
##공급
##신고
really
##Install
prepare
바
Ensure
repeating
##related
도착
##Not
drivers
respectively
인원
ADT
CHANNEL
printer
생략
다운
##Examples
##message
##로컬
VMS
##Consider
Processing
그래픽
highest
##Next
relating
payload
alert
##초기
##디퍼
Sequence
##비율
생각
##Syntax
현금
##스트림
adapters
authenticate
backout
Domain
디폴트
빈
편성
객
##책임자
staff
조인
##어플리케이션
26
##분기
##08
##연동
##q
##문자
##검토
##에이전트
Naming
force
grep
실제로
START
configurable
획득
완벽
resides
termination
위성
Transport
passwords
##Parameters
##string
입
##상세
실현
listeners
##PATH
packets
SSO
LG
partners
TEST
##외
##포함
coded
transfers
capacity
Finish
Size
누락
Point
보수
Product
Programs
청약
Provides
손쉽
bin
compared
##09
drag
##체크
##심사
Account
##텍
##단일
prepared
explanation
collect
implementing
무
만든
ALL
registration
방법론
나머지
omit
##URL
##크기
Policy
##}"
##clause
##위치
introduced
##sender
matter
whenever
##원의
MQPMO
##Request
Modeler
widget
deal
Adaptor
abnormally
t
요인
##문제
encrypted
debug
무엇
##Value
LIC
debugging
##깅
##장의
trusted
##CREATE
##Target
##MCA
Preferences
COM
##FILE
##경로
##지식
심사
wildcard
##GROUP
It
조성
지난
준다
##Database
스타일
더욱
제고
##이제
기입
예시
concurrent
배열
최소한
메커니즘
font
##speci
출시
configurations
nor
beyond
goal
마케팅
장기
BPEL
##웨어
dataset
##HUB
IO
볼륨
##새로운
##동시
##세계
사물
LOG
##뎁
체크아웃
##Total
##시스
interest
##한다면
wide
=>
발주자
Property
##연합회
주체
Secure
https
##엔드
##Channel
artifacts
complexity
CHARACTER
symbols
##타
가진다
2018
배상
See
##26
Spoke
##신용
##프라이즈
subsequently
printed
교통
moving
강력
quotes
OUT
만료
기밀
big
tier
시행령
들어오
alternate
##생명
시각
##어의
해석
##접수
단축
generating
sum
##매체
Universal
integrate
매
Exit
failures
filesystem
평문
웨어
##체결
entities
##Exceptions
걸리
질
CLUSTER
decisions
Technical
far
맞추
##①
categories
상이
##품질
disconnect
위탁
짧
SNA
##비즈
ms
##":
##포트
primitive
##그렇
interactive
benefits
themselves
Fail
verification
wants
Setting
Multi
##INSERT
EDI
NUMBER
지적
대역폭
플러그인
practice
##협의
terminals
ON
lead
서식
today
unsuccessful
orders
##기에
포탈
##인수
##MQSeries
"${
어려움
personal
올바르
Not
UDP
converts
##공공
##접속
샘플
##Batch
FIPS
Case
케이블
##일시
happen
hostname
evaluate
##공간
FALSE
##Its
##Within
이익
반
UTF
extent
##queue
pop
역량
회의
•
지자체
Unable
wrong
discusses
Execution
##박스
유일
##이런
깊이
CNS
symbolic
캐시
맞춤
describing
##층
passing
Users
그러
training
##･
AI
occurrences
복합
##Displays
selects
##48
기법
배
29
Reply
##Transaction
스위치
##기기
##법인
considerations
planning
First
vi
Provider
iSeries
##보고서
@
frequently
raw
달러
tries
stanza
precision
현행
유효성
Sales
qualified
##행
##같
##려고
Detail
##Two
##Copy
네트
ignore
relational
Admin
서브
제목
Display
##Project
##you
거쳐
##자산
EXEC
programmatic
Jabber
##Microsoft
##size
IDL
##순위
관제
제대로
##통보
compiled
RPC
serve
메시징
simulation
##WAS
ACL
admin
##취소
##제어
##효율
구매자
##안정
소
##업
consumers
notes
detects
stock
month
##WMB
##수준
Info
##참조
truncated
Large
##agent
자리
무결성
##시킨
interpreted
sensitive
inactive
transmitted
associate
##상기
unknown
synchronization
전역
사이즈
시정
maintained
automated
owned
##일부
restrict
customized
illustrate
Net
##code
Remove
payment
efficient
figure
NFS
##행사
One
Non
ERROR
typing
##원격
differ
Install
탐지
forthe
특허
##");
My
sizes
employees
||
Midas
통과
##500
##싞
수신자
Hub
Certificate
desc
Statements
프로시저
국민
##POS
그것
##조정
removes
timestamp
인코딩
arrays
str
##정지
##저
언급
Driver
idea
foreign
JAVA
boxes
MQQSGD
mentioned
Parallel
가용
App
##Update
스택
trademark
specifications
datatypes
proceed
Character
Destination
윈도우
produces
Attributes
IF
카메라
##Connection
작용
##elds
locked
납부
country
respective
##다운
computers
##persistent
Agents
유틸리티
필요시
SILK
##구매자
increased
##doubt
rename
112
Details
##27
상단
Tree
##지급
최고
Routing
respond
act
analytics
Integer
emp
recording
사양
submit
상장
cross
민간
protected
calculated
VPN
##작성
Brokers
기호
##Provides
살펴보
manipulate
##저의
solve
literal
Out
##결재
##step
familiar
리스
calendar
##질의
yourself
frame
ACK
VM
##Installing
Region
##데
##더
준
신한
##party
powerful
순위
보험
kept
delimiter
Physical
think
Write
중소기업
stage
Form
##INFO
Servlet
buttons
##사회
##Even
Events
##책임
○
확장자
TLS
unavailable
정해진
##DBMS
##미
owns
출입
##용역
Red
규제
##이력
sense
evaluated
Virtual
『
물
completing
##한다는
##검사
##주관
하단
##Length
Part
propagation
드라이버
정당
##생산
##Delete
combined
총괄
##입찰
mechanisms
loss
커넥터
##차원
마찬가지
icons
지방
RFH
##Number
backups
##방지
창출
newly
만듭니다
##중앙
eai
extends
boundary
##치의
##™
##NOT
modes
##SILK
quite
##Sets
##주소
##대금
파싱
launch
thesame
soon
effectively
particularly
##이후
care
##마지막
preferences
life
Item
계열
단말기
administer
constructor
##Collect
post
Recovery
걸쳐
##해도
구입
silent
Browse
MQOO
35
##매핑
인자
아직
##ORA
Appendix
JSON
##PM
##Correct
##50
THE
빌드
셋
Legacy
##managed
direction
AQ
Back
공사
##하우스
State
DTD
비해
중국
나타낸다
안내서
잠금
Health
MQOD
distinct
##성시
ahead
##보증금
난수
addressed
timer
DW
uppercase
키워드
리스크
GB
##청구
Configure
commonly
monitors
종속
##View
flexible
Unit
포털
deleting
protect
정정
pointers
partitioned
CAST
상당
##포맷
##속도
guarantee
substitution
##40
##config
계획서
DN
##통신망
##일명
manages
fit
RC
OF
Narrowcast
ODA
OPEN
가져올
FOR
resolves
##port
유관
##OK
##Adapter
싶
##룰
captured
##횟수
MQIA
scan
divided
ILink
increasing
There
installations
fill
인공지능
##LG
Option
##system
deletes
##워크
##추진
ActiveX
동향
##'.
slow
partial
2017
점유
covers
라인
분쟁
##Additional
DML
repeat
ANSI
IDoc
##한지
inquiries
keyboard
nothing
문장
conjunction
브로커
주석
Tomcat
코딩
##Builder
shut
##TEST
IoT
met
material
##지침
정비
##private
Read
cycle
##물
줄이
소비
durable
arrive
##Non
의료
##Out
allocation
결제
자유
appliance
##좌측
Package
##전화
Stop
scheduled
representative
##")
periodically
Total
탑재
Sample
##동의
consist
2003
사건
Timeout
축적
##실적
KHUB
##Page
Partner
##Return
neither
게임
중계
피해
##function
갑
reflect
pro
unchanged
##33
##영업
##대부분
semantics
##퓨
Choreographer
demand
Statistics
Only
##론
##단체
templates
##Amazon
exclusive
##CCTV
OR
separately
standby
넘
프로파일
##메트
##리스트
##련의
##TIME
SAS
Names
##Changes
Fixed
##다가
mask
recommend
measurements
intervals
upload
skip
requester
factors
##계의
효력
점포
specifically
feedback
translation
SYN
도
방송
위협
이르
레이아웃
##마스터
removing
suppliers
vector
##종합
##의견
AMQ
locks
한계
##어도
his
nonpersistent
wolfSSL
relate
##백
##시점
시민
##매
증설
Dashlet
또
70
returning
##대응
쓰레드
##Detail
conventions
corresponds
delay
누설
interMedia
02
망
visibility
##흐름
##NEO
프로그래밍
userid
letters
주제
almost
디
##보존
공지
CMP
y
”
멤버
더블클릭
바꾸
##BW
##default
알려
General
handlers
synchronous
##use
##아도
goes
##ImqBoolean
summarizes
수치
조기
ask
visualization
##CTR
!
Topic
##개요
파티션
Procedure
##2008
Transactions
Assistant
heap
##Port
##null
##driven
재무
##드라이브
credit
타임아웃
pending
Fetch
##주행
##벤치
##"/>
express
Values
분
##효과
차량
소비자
##Parameter
학습
exceed
##모니터
음성
everything
LONG
taking
추후
##재의
네
XSL
##콘솔
##YES
layers
가입
RBA
추세
서
업계
ICT
정산
##Reply
increases
너무
시키
영구
##receiver
거의
액션
##키를
failover
진다
traditional
Sterling
공단
CAS
trailing
composite
theapplication
journal
##메모리
USB
##종
fromthe
reside
##접근
##않
보낼
goals
difficult
##파트너
##Output
┃
원래
##Software
Tibero
VALUES
OLAP
accepts
##그레
##코어
Technology
MQLONG
invoking
drives
abstract
undo
민원
revision
비롯
coding
차별
Configuring
permanent
##More
##conversion
uniquely
central
Migration
Retry
WEB
##결제
##엔
이용해
##Over
본인
경과
##록의
##토록
windows
기다리
Tutorial
홈
##대용량
로딩
##타입
##println
터미널
개정
##경제
satisfied
##다운로드
peer
bring
협상
exceeded
CURRENT
##FTP
##Remember
he
brief
##CBC
achieved
effort
허가
##Command
×
##Insert
##Access
department
chapters
RMAN
##건의
principal
possibly
##your
Solution
오라클
piece
evaluation
##Time
##IN
##참가
interested
##가용성
56
MQCLOSE
구별
##구간
effects
Deploy
RAC
updating
fault
##Step
비상
##define
OTP
권고
재전송
CORBA
##Interface
declarations
포괄
lowest
##로드
입출력
Hadoop
##Forexample
##레벨
취급
갖추
매일
##공동
##Tmax
withthe
Copyright

multicast
percent
대책
명칭
presence
printing
##Gets
##가치
initiated
Search
##no
dedicated
Pack
셀
더블
Reports
aliases
Max
##그런
비중
##Unix
grouped
쪽
Plugin
carried
##대기
kinds
질의
인가
게이트웨이
##파워
Polling
##조의
##링크
##IF
restriction
quick
##2013
##AS
수단
##제도
Upgrade
origin
서울
##Important
##Indicates
##insert
99
Installing
break
catch
##증서
##Control
acts
##test
##명세서
스마트폰
colors
##SOAP
INTEGER
페이
padded
utilities
##구현
과거
Integrator
Vitria
##QM
advantages
books
retrieval
Index
##";
단어
명세
##cn
Tagged
##길
##첫
##합의
verb
입증
##송수신
comma
encoded
공모
##Press
##%,
자세히
ORB
메세지
##0000
##service
유의
##Configuration
Close
say
suspended
보급
##수집
시설물
전담
변형
GROUP
TSF
initially
##시각
##대책
선행
introduces
##IMS
absolute
##자체
reduced
플로
연장
older
##instance
비슷
매니
컨설턴트
capable
searches
enclosed
##훈련
##즉
##직접
성
mind
imply
fan
##Read
##공단
Pool
progrm
Shell
이런
RAID
MQTT
Site
관계없이
Parameters
f
caching
##MQCHAR
recipient
necessarily
clauses
##역의
##java
##29
다이얼로그
##Multiple
MQCD
모습
tuning
##nd
discuss
Failed
33
benefit
##인자
affects
##군
##장관
##메일
메
창의
Device
¯
##팝업
##공사
##표시
##key
##Get
##제니퍼
notation
##xx
thedatabase
머신
consistency
##Double
##신탁
##스크립트
아
조절
오프라인
##nes
##위원
##공
SERVER
highly
##LDAP
컴
##로그인
내보내
예약
ADS
##Metricof
##부문
modification
lifecycle
historical
forth
IDT
diagrams
DDL
QSGDISP
customization
dropped
sync
SaaS
시기
ORACLE
Stored
SMTP
##일련
순
##쳐
외의
EBCDIC
RAM
displaying
##SOA
##TO
가중치
암호문
CALL
수록
##then
storing
##산의
##최초
intermediate
WAN
Your
차
##금의
reach
착수
TDS
middle
Subversion
기여
marketing
administered
meaningful
inquire
coordinated
##Local
재생
invocations
Scale
validated
choosing
표현식
한정
opportunity
repeated
##FLAG
##경험
##추적
MCI
##미국
VMware
CHAR
identifying
internally
추정
##회계
Space
covered
None
##위한
특화
maintains
cr
호
현업
DVD
Machines
prevents
GC
TMAX
##Required
satisfy
Worldwide
Send
##세요
##select
checkpoint
##GET
콜
##SYSTEM
설
미만
##Network
clean
white
prefixed
결번
accesses
contract
##object
week
TRANSFER
##넷
표출
implied
##Thread
explain
requesting
reliability
홍보
##동안
설비
stopping
##2005
##Migrating
STRING
balancing
##컴포넌트
##세
공식
##엔진
##송
##제안서
conversation
##│
degree
Intel
DD
dependencies
exceeds
Line
fetch
##Modify
##character
##34
##송의
모코
suite
stub
replacement
compliance
Main
##다시
가질
Store
logically
Make
EAR
왕복
##여서는
respect
##Go
##method
##평균
closing
인사
TX
MQCIH
choices
##요청서
combinations
설립
scalability
열기
즉각
암
Zone
커뮤니케이션
의존
설계서
연
범
##client
##Sample
DROP
##JDBC
six
appendix
##대한
임직원
##Socket
Ethernet
XPath
price
optimize
Operation
##소프트
Human
##Can
Advantage
##Failed
##see
##경비
##서류
##KB
##액
coupling
##w
##천
escape
##점포
past
dimension
SDO
##Wait
정
차이점
MQDISC
radio
어렵
##정기
rejected
Navigator
SNMP
##Exception
asked
Listener
##클러스터
simultaneously
##주체
허브
assets
Office
소유자
Completion
converting
teams
NLS
programmer
mounted
msg
##인원
##시나리오
##Version
##COBOL
activated
Lotus
filtering
##교통
Single
##Support
Tasks
##Expand
detection
##대표
좀
타임
##get
k
병행
preference
컨
융합
##eai
Types
사후
DCE
NO
Metric
optimizer
완료시
##RFC
쉘
주도
분석기
세팅
roll
##45
경유
What
Groups
restarts
activate
lowercase
취하
Initial
Role
herein
init
purchase
45
unauthorized
자주
작성자
KB
reliable
family
##Processing
개시
언제
commitment
##UPDATE
Handler
deferred
great
##인식
Show
signals
##y
copying
archived
##보장
Note
thing
##true
aggregate
early
##Servers
accuracy
##류
documented
arrives
##42
##List
correspond
fragment
##LOB
양도
CorrelId
##야
완전히
grouping
채택
##이번
해서
publishing
Automatic
collaboration
Safe
##STATUS
sheet
swap
행동
##dev
기획
##35
##긴급
##계약서
convention
pools
pack
dossier
Inquire
initiate
commits
품목
##table
##Display
##연속
##Ð
##권의
Foundation
combine
##트림
비트
Location
downloaded
inconsistent
modifying
Identity
DOM
##통부
##이익
dates
giving
##class
involve
##ALTER
##COPY
anywhere
recognize
eight
커서
가져온다
##절
다를
jar
Machine
COPY
explained
##Repeat
##급
FDC
visual
wire
미칠
36
제기
전기
##Yes
악
##명은
delivers
루트
audio
INDEX
participate
회수
##『
목적지
##Review
secret
play
##NULL
##z
아키
대내
SEED
essential
authenticated
입금
붙여
regions
released
andthe
##방의
##Program
##-[
##Issue
콤
##역량
entirely
Public
책임자
FEP
interpret
VAS
본다
##복호화
Solutions
precedence
##Field
##Possible
tx
##error
보통
Biz
comprehensive
센서
##니다
Build
유휴
##Apply
Schedule
optimization
schemas
reduces
노하우
바이러스
따로
cancel
협약
Vantage
##주식
recoverable
preferred
에너지
##통지
속한
##전사
느린
edition
##든
손실률
부합
##확장
콘
Choose
채
##호출
##Look
expiry
troubleshooting
보상
##용량
##참여
37
loads
##패턴
튜닝
본부
browsers
viewed
threaded
demonstrate
computing
Z
##요
operates
Operations
##running
강조
행사
ftp
##commit
촉진
발휘
Additional
Co
scalar
cached
Lab
##진단
결과물
MySQL
convenient
##포
restored
##시도
##Input
포인터
##Node
bythe
random
registers
submitted
##신한
매출액
##2000
##컴퓨팅
Android
복호
제도
##mm
어디
색인
관하
deletion
유실
##HP
##재난
bad
##제한
Outline
DATE
##Manager
공백
근무
KPI
constructs
##본부
오래
파기
MQInput
넘겨
tablespaces
부정
GIS
##경영
##Key
MsgId
우려
##}/
##일괄
GS
34
에디터
width
AMI
targets
Boolean
##way
##999
subordinate
##cations
##WARNING
##home
independently
##DNS
##브라우저
Folder
##애
Tier
시범
고장
Usher
디렉터리
portal
##source
Internal
Right
##‧
subflow
##Class
RAW
대형
헬스
Label
ever
URLs
##후의
Scenario
##도입
##2004
closes
SPSS
Maximum
remember
데몬
체험
##Host
offering
39
QoS
처
##51
##감사
벤더
electronic
listen
overrides
다루
##쉬
reverse
improved
Home
##합계
MQDLH
nofetch
concurrently
MQFMT
##DEFAULT
Builder
failing
시퀀스
viewing
갯
##세부
바에
vCenter
MQAI
presents
positions
##만일
##Adding
matched
##output
##long
##요구사항
RTSP
guidance
usual
fewer
##2020
twice
round
아닙니다
##물리
공인
##수익
Binary
offered
intend
##MAX
Failure
##전산
VoIP
플래그
ABC
119
Shared
확
##dir
tracking
Sign
branches
DC
체크인
##오픈
##디지털
broken
possibility
목
준용
본문
Actions
##adapter
ex
가변
MQSET
wrapper
##200
스캔
##답
legal
스트리밍
##탭
subdirectory
listening
cumulative
버
취합
##Or
MQQueue
canbe
라는
##path
MQQueueManager
Forms
hint
다수
어려운
게시
##현행
gain
##반출
thecommand
##NOTE
Environments
##SEQ
고용
이것
##생
oracle
##CASSCM
회보
practices
##중요
##정형
merge
Prepare
Components
locking
zip
##back
원천
expired
authorizations
Verify
Wire
calculate
Review
kill
plans
##Perform
carry
DSN
Terminal
##청시
성격
대로
##80
Handling
US
설명서
##해제
자동차
middleware
limitations
Automation
uncommitted
Lock
ratio
hidden
##update
세금
MQSUB
clustering
answers
manipulation
gr
감독
Validation
##유출
디버깅
convenience
상관없이
red
recommends
##객체
충분히
##AP
legacy
기술력
hosted
Authority
news
##바이더
args
##node
##현
Define
##memory
도중
메모
##ea
PostScript
importing
exposed
populated
programmers
##Indicatesthe
95
applying
인도
Deferred
##Group
translated
##농협
##수립
outstanding
##Installation
RRS
##각종
succeeds
typed
queued
simplify
designing
##CONTEXT
belonging
assignment
DECLARE
Tables
inserts
심각
고시
##ins
바뀌
Raid
훼손
##Are
dashboards
천
부장
##본인
Bytes
operand
potentially
accurate
##준의
상시
##FAILED
##sensitive
half
standalone
evaluates
##that
MQMessage
##탑
##KTF
preserved
warnings
Login
##Attribute
KEY
성명
Planning
자기
compound
noted
minute
dependency
##Used
descriptors
Acrobat
##대장
보조
본사
REFRESH
##Edit
conform
##database
##∙
retain
알리
##십
식
후속
patents
Clusters
cable
모
RMI
WAP
tabs
uninstallation
Facility
DBCS
자금
poll
좌측
Invalid
최상위
##WS
FISS
##서에
##먼저
Template
Designer
차장
##써
identification
##div
recently
assist
감리
이때
##사례
##1000
proprietary
modi
##Following
잠재
isn
정한다
Alert
회계
지도
이면
assigns
##cient
적체
##레코드
##계산
##출처
vertical
cipher
전파
##Deployment
compilation
MESSAGE
moreinformation
JRE
attach
##Options
ETL
연락
pieces
discard
연도
##실패
len
loan
eXtreme
선도
##process
##Master
과장
##>)
By
정형
##보고
Diagram
##롭
community
##약서
WebSphereMQ
youcan
Extended
conditional
Brand
High
지향
##읍니다
들어가
##37
##but
연산자
ensuring
##자격
형성
Adapters
##설비
UML
##Determine
Enable
IIS
Power
Root
filled
partitioning
감안
##one
router
Confidential
##가의
투명
##Work
incident
##다중
무선
달
##확보
STOP
##><
38
##cd
fonts
##한가
정규식
BAPI
structured
캐
CONNAME
Notes
ordering
대출
finds
moves
##Last
Tab
acceptable
##제출
이유로
leverage
Instances
MAP
QMgrName
상주
##개의
health
approaches
expanded
##PL
현대
다이어그램
##2015
Usage
##with
adjust
introduction
##패키지
##number
##Deploy
##Valid
##Our
shipped
primarily
##가장
##현장
live
JMX
Mail
데스크
balance
near
##2003
##Starting
추이
핸들
식별자
##text
##자치
09
paragraph
ARIA
##Put
##Report
##Attributes
algorithms
액
Summary
preserve
scheme
##주민
##tier
FTE
caches
Correct
sequences
수수료
Industry
##상용
해소
정수
올바른
Sybase
##Tip
IDE
man
##단순
SID
maintaining
##Remote
whereas
Decision
##Loader
Logic
120
##Restart
직관
rendered
claim
카테고리
##conf
진출
quote
##구매
awk
authorities
##청의
qualifier
Siebel
검출
##회선
민감
existence
Image
##Import
directive
alignment
implies
Bridge
##선
Formats
significantly
Category
##요원
##open
##SEND
모양
##HTML
board
##skeleton
##Sales
##든지
##백만
relation
높일
##Consult
improvements
Distributed
parentheses
ent
ESX
건설
정확히
##false
##stop
backend
green
corner
incomplete
claims
##글로벌
##수급인
##젼
offline
##우선
conflict
cryptographic
##플랫폼
##all
Clustering
RETURN
notify
보입니다
##Common
유
발굴
incorrectly
##Online
##투자자
42
##쿼리
##clicking
black
Optional
guaranteed
감염
ASM
IAM
##ow
묶
##대가
DLL
65
TTA
notifications
유도
BPC
diagnose
REF
심의
##44
불법
##운용
줄일
##Red
Direct
##112
immediate
Resources
slightly
RT
measurement
World
remainder
clustered
MSTR
XSLT
MAC
VLDB
packaged
networking
dealing
BIP
08
indexed
equir
##gure
##종류
prerequisites
Transmission
modifications
Telemetry
##미리
##투입
##param
##원장
대리
READ
MQXR
##감
pressing
anonymous
국토
##재분류
##43
##직원
시킬
Utility
한다면
ending
After
Panel
expiration
1024
실질
Specification
가속
##스페이스
reducing
CONNECT
##개시
##명과
##이미지
##003
##공시
Launchpad
hour
##송한
명확히
범죄
##as
##
consisting
bulk
streams
optimized
##하도급
47
separator
macros
##tab
relatively
##rd
confirmation
사본
##msg
dual
Sets
talk
재해
concerned
참
##필터
NIS
TV
하드
Up
##Furthermore
ordered
##LOG
succeed
##Does
##EMP
linear
##예산
COMMIT
TIME
incremental
##협력
풍부
rely
Microsystems
someone
##Usage
수출
SVI
Listing
serial
##EA
counter
volumes
edited
Viewer
##웨
##over
inter
유선
라디오
유기
push
redeploy
아웃
##STRUC
Distiller
귀속
절대
blocked
dif
causing
switches
진입
Parser
입장
보낸다
스펙
바란다
##BLOB
##보유
continuous
##Of
##when
거치
시킨다
expansion
##Normally
whatever
Welcome
Is
##Memory
WPS
Last
perhaps
##Tibero
Kit
##왼쪽
Finder
determining
ef
44
연간
##2007
outgoing
##Character
meta
편차
reaches
II
##YN
집
##=<
Collection
##color
##공수
plugin
thlqual
해시
eligible
##Replace
##앞
transformed
assembler
DATABASE
##발주자
##이사
수작업
##Which
paste
Inbound
##Current
##시켜야
##일치
##태그
shortcut
Registry
##QUEUE
prints
June
NAM
##진다
expressed
##threaded
##숫자
##password
builds
Changed
consumption
제정
##고는
김
SI
daily
##대비
dir
##산출물
갖춘
##하의
##규격
##Internet
##Dynamic
conversions
##공무원
간편
Logging
Middleware
disconnected
##environment
MQMDE
artwork
elapsed
바이너리
충돌
##='
replaces
인계
Express
constructed
XID
XMLNSC
##OUT
##과학
directed
##형식
aggregated
사이버
months
Entry
로부터
CODE
##연금
MOM
away
Commerce
simplest
##듯이
단원
Ant
arbitrary
amessage
unsigned
calculation
phone
##57
TimeOut
평균값
##종의
배경
behind
TSO
coordinate
serialized
helpful
populate
picture
##하드웨어
##>/
minimal
copyright
serves
OSI
requiring
recovered
##DELETE
##ERP
growth
##install
##CICS
76
##징수
##Custom
CSS
isolation
timing
##법의
기계
financial
365
막
수협
visit
##errors
계
##Creates
##전환
##Compuware
41
tpcall
##compliant
abend
containers
shorter
남기
##2006
##new
specialized
automation
##Async
##Advanced
##Find
##Unlike
##청약
JCo
동사
##인프라
##enabled
##의무
##구동
forwarded
Simple
##수량
화재
점수
Apple
##실시
재정
##텐트
enclose
무관
Forum
arise
전제
##베이스
Any
Exposed
head
##격의
pick
##테
designer
##SIZE
lifetime
객관
warranties
Patch
Google
파생
contrast
me
##Like
MQCMD
##REC
##Part
Rollback
##2011
>>
##어질
집행
hierarchical
browsing
Binding
blue
supplies
##WEB
수의
HOST
overridden
ITSO
hit
bandwidth
Area
idle
Descriptor
Running
highlighted
dispatcher
##Complete
reasonable
##Without
관할
##협회
Quick
law
로봇
saving
이렇
floating
ADK
##MQMD
기록관
타사
##GS
improvement
##Changing
fixes
trading
enhance
namespaces
##handle
베이스
Integrity
prerequisite
QUEUE
pull
qm
sensor
##반영
##count
English
deprecated
asynchronously
Menu
3270
##Examine
attention
challenges
facts
##클래스
통
건강
##문자열
XP
케이스
knows
##원인
막대
##ESQL
##【
retrieving
무결
##산정
Delimited
counts
지불
##지방
##방
Switch
##열의
UCS
CTR
stated
Clients
Temporary
extracted
접근성
transitions
파트
##Link
##60
##폐기
##version
왔
신속히
##Drag
정적
##HTTPS
FML
Tracker
동영상
##분산
##고용
##Take
concerning
remotely
##EJB
##Sometimes
##블록
바인딩
##업로드
##비동기
prefer
participating
instrumentation
∙
Transformation
cube
마포구
##변화
##워킹
UUID
ticket
Returns
철저
tried
##Directory
확약
measured
Modeling
finish
##맵
lib
##Several
##해결
##BASE
MQCMIT
루틴
##측정
reusable
255
Perl
Drop
##38
##41
##initial
상속
##컬럼
isnot
만약
대문자
expects
##한편
출
##local
accommodate
릴리스
underscore
칼럼
성실히
relates
leaves
판별
Variable
누른다
svn
Tracking
APPC
logo
MAX
##src
Managing
경기
##Running
tokens
##wide
근본
##새로
상관
corporate
amounts
##가액
##Documents
##법령
경계
귀
styles
600
suffix
debugger
##STRING
Classic
시공
apps
factor
net
reused
맺
##ing
Balancing
사용법
informational
##Net
##퍼티
approximately
변
앞서
driven
2021
inherited
unpredictable
##흥원
서술
##팩
##Tuxedo
Packages
##반복
43
replacing
May
blocking
Layout
##ODBC
이중
commercial
##예외
누적
불량
##Specifying
##VMS
색
##NIC
##셔야
##편집
fine
##±
introduce
##Properties
##Selecting
website
##Upon
MQSO
##산
Long
##감시
Expression
벤처
##RPC
대개
pipe
##Returned
ping
부품
organized
Statement
##2012
010
##Core
##대량
주차
distinguished
##ON
MQCA
부록
Drag
피
##중단
##동작
##Disk
predicate
LIST
popular
variation
scripting
conn
keeps
##디자인
DEFAULT
계측
incremented
primitives
won
linking
ineach
의사소통
##쓰
##SMS
alerts
individually
나타낼
##밸
utilization
ownership
LED
일관된
시뮬레이션
MVS
##기치
SunOS
##Main
##ms
TR
지지
ASP
##지능
프로세서
150
echo
brackets
ObjectName
originally
송신자
segmentation
CEI
##''
##loc
##WHERE
열린
그렇
##SAS
boundaries
float
widgets
감액
trees
ROLLBACK
predictive
dateTime
Programmatic
##과거
75
engines
safe
##He
spatial
Phase
VLAN
##㈜
obligation
CodedCharSetId
snippet
수식
##송시
##전부
City
parties
parsers
stamp
겪
LocalEnvironment
Classes
CCSIDs
illustration
##세트
귀책
RQ
1414
##002
orchestration
Sockets
QMG
Computer
중점
현실
##FISS
enterprises
##Migration
이루어진
national
MQRO
##쪽
appended
Steps
portable
CRL
수명
licenses
##=”
regression
##Back
max
enhanced
##전의
cd
src
소셜
면
2004
Multiple
##인증서
MODE
SHA
leads
designated
colon
Company
ROWID
##시민
안내
##당사자
##Call
driving
synonym
distributing
뷰어
유발
joins
temporarily
iterator
젂
##Ÿ
Primary
분배
수에
RPM
Other
VALUE
subquery
Patterns
Plan
intra
##Global
differs
여유
##•
encounter
##사전
등장
##Suppose
UDDI
##Base
클
duplication
부가
영문
##경보
robust
시킵니다
pointed
##ORACLE
공격자
``
sequential
##xed
##조달
출자
##수동
##공고
##출동
IIP
이의
자사
ibm
upgrading
##지표
##host
Selection
문화
Grid
addressing
##OneAgent
##최
한다는
##PUT
##transaction
##label
##매출
##향상
유상
견적
교부
disclosure
산업의
lesson
Wholesaler
localhost
##선정
88
Generate
auditing
엔
Take
Selector
Korn
url
SM
도로
##중계
##2017
refreshed
##Resource
전국
Variables
representations
이루어진다
Coordinator
superior
##36
55
partially
pathname
Hconn
##발
Elements
cards
폭
said
oup
expensive
insufficient
careful
##Export
Down
Day
##Performance
Before
ps
##RCV
##domain
##dynaTrace
±
ip
분포
##이동
Feedback
Book
##DEFINE
Gentran
PfmNumber
thesystem
##날짜
##동
##Task
##2019
상승
##상금
##집니다
##먼
scroll
##넣
TAG
##계산서
##윈도우
KTF
Failover
##CODE
DRM
액티브
##이관
rendering
Structure
140
archiving
BEGIN
##아키텍처
Receive
##열람
##Again
TRIGGER
www
GID
숙지
다릅니다
minimize
##컴퓨터
신호
##아이디
##is
##앱
##Rational
cursors
##스퀘어
목적물
공시
##텍스트
installs
##계층
assistance
SMF
맨
unused
resolving
##CNT
reader
합리
더불
Row
##특성
##예정
글
frequency
##지도
나타났
riser
검
127
요율
Concepts
Year
CLUSSDR
FETCH
##QMGR
ActiveGate
규약
##BE
Smart
##jar
##++,
##Optionally
resume
Contact
searching
Archive
illustrated
##원칙
##Gbps
UEM
##Cluster
여전히
propagate
outputs
ANY
##IEC
반면
비전
##한다고
Websphere
Column
ring
##Diagnostics
합병
Soft
##많
distinguish
##work
Indicateswhether
영어
옆
forexample
Distribution
CL
Factory
objectives
encrypt
바람직
주어진
##포털
bank
##Monitoring
Media
##FUNCTION
collector
##>]
##').
compute
##②
##포탈
부하분산
##관
conforming
Government
Corp
keystore
integers
##Managed
##body
##ㆍ
consume
##툴
insight
##Shared
controlling
hosting
축소
##고도
응하
##MM
주지
생활
##Integer
##}.
plain
instruction
cleared
축
processors
NIC
rc
NEWYORK
Block
##어떤
efforts
##Enable
##profile
##메시
Execute
##Free
임베디드
busy
##EXTRACT
Experience
##도로
수많
backward
garbage
##수요
Id
게시판
INT
outer
##WAIT
##Real
##MQSC
조항
author
##초의
후처리
##Info
##case
efficiently
##도메인
inquiry
MQCNO
WBE
##시행
##box
WebLogic
efficiency
추구
##DEF
msiexec
residing
HMAC
##또
위임
##언어
단순히
##차량
Party
광
concatenation
##정비
쉬운
BAR
SEND
approved
thenumber
##만의
##형상
합산
skills
##Customer
incorporated
##Why
runmqsc
Documentation
업종
##Content
처럼
capturing
Serial
##Simple
해킹
병합
polling
Selected
editors
##Based
뜨
##위탁
##차단
covering
Agentless
appearance
Authorization
46
KPIs
RPG
Bean
##j
paper
AT
전통
un
encounters
##급체
##매개변수
##Load
##tmp
불가피
유럽
VIEW
intelligence
##Attention
리더
53
Required
주고받
zDC
##ORDER
쌍
생명
article
Clusterware
패밀리
MQPMR
약속
에게
##여도
##response
##DISPLAY
participants
logon
모음
</
attacks
##회복
##CALL
##Controls
canvas
optimal
##BPEL
##하위
##Level
브랜드
##집중
##보호법
##Leave
endpoints
automate
helper
JTA
소송
이상인
##검수
통찰력
##메인
compensation
다소
##atrb
collections
onepass
fer
telnet
현지
##Write
##Unable
##라인
expose
appropriately
CipherSpec
theserver
tmax
calculates
##눈
##online
##으려면
dimensions
WITH
DbmsTaskServiceImpl
개설
##민간
InfoSphere
##/*
acting
ret
facilitate
##organized
Jolt
latency
사내
##Sub
Rights
syslog
##Purpose
##다운스
##ADAPTERDETAIL
precompiler
대소문자
주변
lack
VSAM
widely
##가이드
##보드
한도
Hierarchy
grow
owners
Debug
loader
suf
OO
Email
단가
##전달
consumed
explore
Products
수령
licensed
##콘텐츠
##Include
INTERVAL
Notification
DPOD
##유닛
진화
##멀티
월별
신원
Each
##순서
ESM
##Publish
synchronized
installable
learned
demo
##>;
Separation
공제
Diagnostics
Hobj
JCA
ls
composed
usingthe
damaged
##MSTR
##mocomsys
드
Daemon
##Further
intellectual
tar
MTS
##Usually
analyzing
위함
heterogeneous
SPACE
##Just
feel
##압축
부당
이제
##뷰
Wait
##서울
l
Delivery
##Move
##Ê
AN
discovery
##행위
NET
스트림
##그래프
디테일
##BILL
Displays
Color
globally
enters
긴
##dd
득
훨씬
##연구소
조립
yes
유비쿼터스
Mapper
modeled
SESSION
ax
Locator
vSphere
acquired
올
합
APP
anyone
##베드
raises
labels
##reference
bold
outline
bundle
encapsulates
DSL
##:=
재산
##Monitor
##물품
버그
72
52
attack
##기회
##Try
ORDER
##에서부터
법원
##표의
##젝
시켜
드립니다
85
Auto
##프롬프트
고품
##record
히트
XAResource
analysts
##HDD
Incident
##59
초래
사진
##separated
Pass
##Contact
마이크
##TLS
Native
Connectivity
##Download
interoperability
접미어
XATMI
rates
asks
Extension
strong
##바탕
Contains
postcard
Contents
Embedded
diagnostics
##2018
진척
②
JOB
##레터
상세히
##command
initiates
Interval
##AVAILABLE
enhancements
##Provide
400
##작용
복
Identifier
unwanted
512
charts
##2016
##RUM
MSCS
➤
CBC
##우측
##39
포
sophisticated
STATUS
latter
채용
compressed
##Failure
codepage
프록시
Decimal
ConfigFile
##Init
indows
직무
레퍼런스
듀얼
ease
compliant
Measures
처분
대상자
accumulated
밀리
slide
SSH
alive
medium
광범위
##통해
ACTION
##지연
상당히
Find
suppose
w
Standby
descriptive
splitting
Connections
decided
activation
QLOCAL
stylesheet
Communications
화살표
Contract
DTP
emitter
placing
03
approval
extents
개최
과학
ranges
지금
Top
hierarchies
unnecessary
커뮤니티
##edit
반려
Credit
알아보
##FAIL
▲
##메터
##장기
SAN
scalable
##Product
##Keep
##리모트
regard
##데이
nice
##language
##ag
##VAS
worksheet
적절히
integrating
확립
ARM
consuming
51
##description
behaves
tutorial
Flash
SCM
tobe
INPUT
차후
##기한
오퍼레이션
violation
##definition
##DIR
재고
mqrc
bitmap
##COM
들어온
##의료
carefully
##의사
SP
saves
##Unless
feed
searched
separation
alone
##ex
Router
Mpower
transmit
highlight
raise
##status
accompanying
restarting
매년
##국민
반입
##시킴
NetBIOS
dumps
이체
consult
##this
##일수
##SND
Receiver
acquire
##cmd
edge
##케이스
varies
만을
나가
##Commit
CVS
가입자
CFSTRUCT
##*/
##제거
cables
transmitter
XQuery
Manufacturer
RFID
subdirectories
##ADDRESS
끊
##민원
##약자
Unisys
소멸
새롭
부과
MD
PCI
checkbox
Available
Result
##SUB
레이블
Indicatesthe
별첨
생성자
compares
cleanup
COMP
lose
fashion
초점
캐쉬
originating
가이드라인
expires
시대
Bourne
Pre
##>:
##물건
##ags
DOS
mor
prototype
소통
의뢰
##배상
##위성
##논리
##현대
49
beused
involving
differently
Free
지장
Measure
일어나
맞춰
농협
EE
##셀러
##방화벽
Cancel
accordance
##해외
AAA
JNI
thecurrent
##day
Entity
BIND
백본
comprises
contexts
##Services
##반
유입
##SaaS
##;}
improves
assuming
여
extremely
##static
##Having
multipart
Catalog
WAIT
종단
##tion
##에라
BFILEs
continuing
subscribed
corrupted
editions
##Maximum
원장
accomplish
largest
discover
##요인
##제목
publicly
##CHANNEL
습득
##바
캡쳐
##Status
Transformer
서가
clock
Indicator
정제
호에
##Password
##FEP
##Generally
believes
ignores
complicated
accomplished
##Close
BPO
도모
originator
tiers
실무
Subscriber
##필수
아카이브
이사
SCSI
geometry
Con
##명이
##방송
##Logical
purchased
레이어
selections
MQOutput
캡
##상위
##버
증거
##49
##확정
추천
ISP
글꼴
할인
Adding
cast
Outbound
##sql
construction
salary
battery
##Corrective
##it
##ine
##인건비
마감
##External
arithmetic
##Text
통화
##지속
인터뷰
##62
tooling
extensive
구독
publishes
strongly
These
##com
redirect
##admin
##Currently
delivering
office
formal
데이
SIZE
##젂
##NonXA
calculations
##JAVA
##화의
baseline
##HOST
Complete
Can
라운드
##ESA
영
transformations
subsystems
Department
##저작
상담
q
Queuing
patch
##Format
##넌
Msg
TMS
periods
아무런
61
Domains
##SHARED
patent
정규
##KT
navigator
##스위치
comparing
Month
Analyzer
CGI
부모
##TABLE
##오른쪽
##2010
transparent
her
Programmable
만들어진
subtype
dialogue
mqExecute
holding
analyzed
##미래
SPOKE
classpath
offerings
thousands
봅니다
리눅스
##러닝
SNS
기억
forget
인젝션
eate
##리
##납품
수리
63
##Details
##Fixed
롤백
HDD
trust
초안
Offset
continued
permit
reissue
telemetry
서블릿
responds
파라
뜻
##정도
대학
제품군
Current
Metrics
routes
요원
하자
doubt
제조사
took
Occurs
##High
natural
납기
flat
digit
##th
Rep
누구
육성
Over
##복제
배제
Partition
##전원
##정보원
hub
거버넌스
rebuild
##OBJECT
##PDF
##자금
tpreturn
PIC
inputs
CLX
도면
businesses
SYSDATE
Enabler
##사실
focuses
##control
##기술자
HW
governance
fee
##AIX
엘리먼트
verifies
트랜
##약
CSV
QMQM
fall
MQBACK
징수
aligned
JavaCompute
enforce
CWF
investigate
나중
subclass
##channel
##NET
##분리
인텔
질문
##TAB
Pages
##소켓
menus
Encoded
VCL
##따라
##서식
retains
thedata
레지스트리
국내외
CC
Alias
Risk
##대상자
VO
OTT
Records
##디렉션
IOs
##55
백신
##집
challenge
keeping
growing
##습니까
인수인계
데드
eventually
trade
sql
##Trigger
Cisco
SC
디자이너
양성
translate
##지금
append
inline
##logs
Graph
누릅니다
##SRC
##소
##진흥
##상대
진흥
Series
용이성
물류
We
clearly
##Identify
##반면
59
EXECUTE
publishers
대행
의도
가운데
javax
INFO
g
##HMAC
datasets
##ISO
##ARRAY
Cursor
eachprogrammatic
allocates
##print
##로서의
이루어져
Persistence
##혁신
##대출
##유통
undefined
##result
Scheduler
phrase
Array
struct
##ers
이용하
##Standby
Some
More
establishes
gather
delimited
Presentation
Generator
slot
h
DPL
eliminate
OAuth
##script
Profit
OpenVMS
##그레이
##경찰청
##했으며
distributions
rank
modem
tune
TPS
##기획
일본
삼성전자
incurring
tcp
##Trace
침입
##Point
##위해
전년
##무
미러
##OPEN
handshake
##복합
subtree
##열
전력
rich
전혀
Central
##거의
단체
혼합
집니다
Replication
잡
인건비
이기종
순수
##execute
accordingly
OBJECT
##공모
bitstream
sorted
##font
rapid
##CONVERT
Coupling
BufferLength
2002
inner
삼성
minor
FIRST
guest
recommendations
backing
doesnot
RECOVER
이루어집니다
'/
joined
verified
Workstation
thetransaction
horizontal
conflicts
ORA
PROCESS
greatly
got
Reporting
##query
OFF
##LOGICAL
##Query
메신저
체감
##스토리지
productivity
사무실
생태
##dependent
##마우스
qmgr
Formatting
obvious
MaxMsgLength
counters
Compaq
payroll
##컨설팅
안전성
##발송
stable
##BROWSE
##MQPUT
끌
##GIS
##약의
relies
grants
##트레이스
##Line
reboot
sound
##고급
일방
코
경력
복수
With
##국의
Bank
chose
nulls
##뉴
##원본
focused
opportunities
잔액
Starting
brought
JMSInput
##Job
해커
repeatedly
Shift
##len
사정
##FIRST
##Bi
##MQRC
##정확
##hand
##written
Working
엽
theuser
##RFH
Qmgr
##consumer
DMI
hot
peak
##식별
증빙
얼마나
##중임
Operating
합성
Intercommunication
기성
inheritance
Started
Results
attr
True
##커
##Filter
SECURITY
Gomez
At
답변
경찰청
ideal
##ACK
quali
##gured
##언스
loops
overwrite
##무상
##Record
##input
interesting
엔트로피
난
커스텀
2001
Profiles
57
WID
severe
recipients
freed
NAS
##연도
%)
licensing
뱅킹
Exchange
##Given
Managers
DMZ
##generated
##supplied
literals
아님
정량
seems
Sysem
unning
COUNT
##MS
MDM
alphanumeric
unlimited
##하드
signatures
agree
간략
Button
비디오
DM
signi
heading
##제시
간접
##였으나
연구소
##Whenever
GMT
SHARED
보인다
Used
worker
##EVENT
##런타임
EZis
점차
instrumented
transferring
##선의
논의
##시설물
##난
assigning
##예비
SLA
##판단
Digital
receipt
Manage
첨단
스스로
Depth
`
retention
##ADMIN
##처음
전자서명
경찰
임치
약정
##최소
simpler
##부여
Ð
협
##Mpower
보다
장착
독자
architectural
CSQINP
##request
inherit
Multicast
listens
jeus
Oriented
Projects
출금
exclude
IOException
##됐
##DESC
Communication
FUSE
rapidly
notified
newer
구글
기한
오피스
Foundry
shadow
##보통
##된다는
Community
Cost
##My
CLUSRCVR
Skip
graphics
limitation
돕
Verification
미흡
servlets
아닐
##티티
##메
##계속
learning
consideration
62
중대
Removing
##target
##KHUB
##개체
finally
Provide
Gatherer
generator
counted
suggested
일별
목차
##집계
##Sync
근간
preceded
NH
slash
referencing
캡처
REPLACE
RHEL
firmware
sendmail
study
##47
##UI
무료
portability
Requirements
Cloudscape
##Accept
substituted
hasbeen
RSA
스페이스
##HANDLE
FORMAT
##파트
SAF
##address
##질
##Often
coming
##Search
upgraded
preparing
Subject
chooses
##예제
##MD
thename
##load
##zero
##exit
Asset
##Session
제조업
가져온
##Activity
heuristic
spec
스팸
ECS
##공기
##통신부
타당
불편
##오프라인
##Full
##할당
학교
##TP
여신
##양식
##attribute
##셀
##++)
Methods
inhibited
deciding
##HA
자문
research
pay
##예상
transforms
##Generate
datetime
패스
Introduction
Testing
filenames
##WSDL
##지수
##편의
Authorized
##빅
associates
pseudo
##101
##Send
##이유
##rfh
##INSTALLATION
##76
행하
백만
score
excluding
##플라이
##파라미터
대안
ECM
caught
##Appendix
skeleton
BGP
treats
##TMAX
##읽
엠
촬영
수시로
MSG
advice
seem
##ch
프리
증액
누른
##property
자식
고침
Style
thevalue
Firefox
당시
##JVM
Private
##역할
Plug
Capture
##99
scheduling
##리전
mailbox
직업
Publication
WebT
meets
】
Live
##INPUT
scaling
TABLESPACE
maybe
api
##계수
인구
극복
가시성
Average
05
lengths
titles
##General
##Single
Drill
Feb
##공여
당일
##SYN
synchronize
CASE
##중지
공수
##실제로
TA
Quality
communicating
strictly
headed
Freeform
통일
##문화
자가
reflects
MUST
ConnectionFactory
담보
JavaBeans
ROW
앤
Creation
07
##닝
qualifying
Min
BAPIs
Illustrator
mqbrkrs
##54
Team
##불
severity
moment
합법
##상표
hide
##과업
##Values
graphic
Employee
Speci
bags
##digit
##core
##mode
이자
IE
##56
##자재
단독
Hot
conversations
##유
수급인
연체
##IDT
equals
varying
MQCFH
조달
라우터
헤
##단가
상수
Passport
##Video
internet
벗어나
101
##Listing
usethe
principles
cn
subscribing
diagnosis
##PMQLONG
MDB
##Schedule
##Transfer
Distinguished
graphs
귀사
##활성
출장
individuals
##US
ordinary
imports
PROCEDURE
##주문
indexing
locators
##으
복잡도
원문
##중소기업
extracts
반납
##담당관
OAM
블록체인
##협업
probe
##cursor
snapshots
wanted
건물
YES
Fault
##2014
ILinkPut
student
MQIIH
##Restriction
segmented
usable
##이미
##58
quiescing
##view
Cognos
Integrated
##style
주목
##signed
interacts
exchanged
Endpoint
##LAST
##page
captures
치환
##감독
##예방
##증가
reconnect
intent
Interfaces
SAML
별칭
사무
##보건
소재
##건설
Sub
Requests
Axis
verifying
민
inform
Cleared
##DD
생기
##에스
**
packed
LONDON
##사와
06
Manual
toward
서약
오버
통신망
##현금
##index
##금
엔지니어
Assembly
affecting
Views
##rollback
지나
##영향
##sh
##설계서
unsupported
rewrite
ACLs
명의
250
1996
mirror
##grained
Changes
actor
Nodes
라고
내지
DS
팀원
altering
switched
단점
나와
pause
tpacall
##Removing
Rate
차례
##Date
smart
union
Parsing
사원
그룹웨어
훈련
exercises
##Context
##대체
전시
##Apache
SERVICE
##such
Indicates
##대내
referring
printers
analyst
mining
IGQ
outlined
회복
원할
Unique
##패스워드
##한글
##전용
98
##Describes
##국어
formed
combines
약자
단지
Cockpit
Functions
##달러
REQUEST
recreate
분실
원시
angle
couple
##Execute
아이디어
##119
worked
##Code
foundation
큐브
NonStop
crash
수주
##소문자
대통령령
##촉진
##원가
우회
Migrating
indirectly
적시
readable
JAX
Volume
ICMP
##BIND
exports
csect
fielded
forces
DEBUG
지출
pooling
54
elsewhere
##교통부
##단말기
저널
compiling
arriving
CLOSE
투자자
dragging
she
마다
##복사
하여금
정할
선진
strategies
##Upgrade
OLE
##물론
##800
레거시
FC
PKCS
##부하
부처
##부처
procedural
intervention
STR
transient
Fedora
0000024
phases
##application
closely
damage
중재
192
org
##설의
aqueue
alphabetic
Please
##because
communicates
MQException
##MultiBlockTextProcess
##FinalBlockTextProcess
나뉘
소모
SAM
Wide
provisions
##localhost
credential
embed
##라우팅
operands
appliances
destined
##스케줄
##DCRUM
undelivered
station
##리포
##솔리
redbook
wireless
Supplied
querying
##설명서
##서약서
업무상
##준
Word
crtmqm
thedefault
##Mapping
backslash
deep
##그런데
양의
UOW
indicators
##미들웨어
Implementation
formula
##입
특별히
##AGENT
demonstrated
functionally
Dump
##국토
마운트
packs
Workload
익숙
공용
110
safely
visualizations
Mediation
##Reads
부재
##MQGMO
compilers
800
Reader
participant
checksum
##병
CSQUTIL
항
##달
##추출
범용
명세서
SK
trends
##Preparing
##Allows
##Defining
##Clients
personnel
span
##backup
##그래서
설문
##shared
vehicle
Sum
팔레트
becoming
ReplyToQ
악성
aspect
substitute
coordinates
##Locate
##Different
delimiters
##잔액
점진
ifthe
cfg
##GUI
##Byte
접목
대표자
Vista
DR
조건부
유동
##솔창
noti
세그먼트
##batch
REMON
FORCE
Kernel
하루
메서
money
무단
uninstalling
impossible
USING
departments
##발생기
Once
queried
BSD
부팅
구성도
000
Modify
ten
프로시
Problem
establishing
light
escalation
Domino
Keep
movement
iSCSI
##53
##ef
##형의
##갱신
##Map
endmqm
launched
##하지만
##유무
youwant
혜택
마트
##협상
autocommit
Refresh
##element
SGA
expr
SQLCA
##Flow
##START
##Up
##삼성
##정렬
매칭
Training
##Working
##지점
##Cannot
Getting
mqsicreatebroker
heartbeat
denotes
게
##회원
##Legacy
centers
알람
##머신
##Header
proxies
executions
rectangle
##bw
##MOCOCO
majority
일금
##ILink
##비의
##축의
IDC
##Managing
##like
##IoT
analytic
CHLTYPE
Operational
##변동
약간
우편
환자
dot
Either
세분
##Method
es
4690
##대리인
##공인
##혹은
promote
silently
연평균
금
ADP
도와
Documents
fundamental
배울
youmust
품
간소
traces
완수
Azure
##범
Register
filtered
says
화일
Flag
Probe
initializes
subpartition
positioned
##Names
Segment
##수단
요금
MIN
##LU
valuable
retries
##Standard
##AWS
##SID
##매개
##_*)
퇴직
##구의
Conversion
meant
brand
competitive
##짐
계약자
precise
##independent
##SE
카탈로그
##Informix
##Gateway
AL
OTS
inetd
##nitions
##Rule
##Writing
Merge
##주로
랙
December
FUNCTION
finding
variations
##역서
민첩
##tree
HTTPRequest
digest
##Connecting
switching
portions
##VALUE
TS
##아이
versioning
##></
October
discovered
##BAT
원활히
73
proven
##감지
##Storage
enclosing
##Z
채무
##복지
iteration
leaving
Inspector
augmentation
91
FIFO
DESC
##INQUIRE
WSRR
weight
SEQUENCE
##Function
Chart
##Module
&&
##REQUEST
city
##코딩
나타냄
minus
Processes
##고유
##경고
NameValueString
sal
통상
철
##라이브
##Defines
secured
직전
##성장
targeted
##active
금번
##씨
adjacent
vender
가져옵니다
Collaboration
MQXQH
##Investigate
가져야
forwarding
위젯
AD
가급적
Persistent
permits
DataSource
##AI
시뮬레이터
##Invalid
XAP
social
placement
Examples
스크롤
##00942
inquired
applet
datagram
과실
##46
단절
Logical
프린터
Scope
##근로복지공단
disclaimer
FFST
##상황실
실수
+)
Availability
KSC
##서로
문법
광디스크
retail
##card
GNU
##GSG
certi
overwritten
가리키
TB
##while
PTF
strmqm
queuemanagers
incompatible
##영
완화
instantiated
##5601
##SERVICE
GRANT
RMs
PaaS
##mte
MIB
93
##Mbps
BT
제휴
Focus
KT
##defining
##from
breakpoint
##인사
##Built
##COUNT
operatingsystem
##허용
##600
##BI
propagates
sibling
##button
공동수
designs
캠페인
SCOTT
schedules
##Objects
위장
suggestions
Roll
##개발비
수와
##작
centralized
significance
CLASSPATH
##아이콘
streaming
분담
resubmit
became
ImqString
estimate
physically
IPC
접점
시의
deals
덤프
##Cloud
보증금
Go
hence
##는다면
##중국
디버그
##CHAR
Evaluation
##004
theory
Kerberos
Join
달라질
##탐색기
##방침
위원
##52
IM
위주
##BPM
Raw
##료
Micro
directives
##Clicking
사업비
*.
easiest
##Rather
offload
##so
ap
Devices
VSE
##None
Asynchronous
부착
기술자
ABAP
##창조
##근무
제재
토폴로지
##인데
corrupt
isthe
dequeue
##Arial
contr
serious
##%.
##구역
별표
곱한
shift
WAR
##installation
04
Alerting
##Property
##Navigate
일상
##px
screenshot
##법원
창업
##취약점
KS
merged
replicated
typographical
주력
보임
##중복
##check
enforced
##홈
##망의
axis
timestamps
drilling
classi
##read
Consumer
Features
102
Lists
##불가
Iron
Sender
##Customizing
##Title
Items
continuously
patches
밸
intf
MQBEGIN
originated
aid
##';
##화재
##손실
핀테크
MFT
양자
쿼
##REQ
##Design
##timeout
##throw
##Encoding
thereby
##column
spreadsheet
nonblank
rerun
forced
AUTO
##천만
개발비
##최신
##Fail
##방법론
Be
꼭
importance
건의
configures
수입
illegal
interpretation
labeled
architect
qualification
cat
GSKit
지리
outlines
<=
변하
buffering
directions
federated
car
##경찰
자손
하락
##발급
##대시보드
administering
##Multi
##expression
디스플레이
turns
##Compile
LISTENER
MQTM
RECEIVE
DESCRIBE
ther
shar
YTN
알려진
practical
##DW
summarized
여러분
##발전
MQParms
71
validity
serialization
##홈페이지
THROW
concerns
conversational
79
##Obtain
concrete
##ﬀ
tperrno
TxRPC
##얼
부득이
Korea
복지
##including
상암동
workstations
##절감
FLOAT
##Protocol
interim
architectures
obtains
PMS
worth
Multimedia
compact
yyyy
WML
##증명서
shape
##Location
wsadmin
주택
compress
##Connector
iOS
문서함
understood
##connect
purge
destroyed
##트래픽
빈도
보증서
##태
##유연
##Those
forwards
IFS
##CSQ
nickname
commas
58
arrival
오직
##Vantage
DBIO
##Selector
SDS
hints
Render
##Three
각기
구하
WebService
##리아
타인
뛰어난
Appliance
노트북
Heap
informed
organizational
mutually
XMLNS
division
데스크톱
##through
guides
corrected
TID
rowid
999999
writer
stages
별지
};
Invoke
##Address
investment
Firewall
명이
HTTPInput
주주
Signal
versus
잔여
sees
MQRMH
Cubes
로열티
Pub
##Post
Fix
##특별
##Build
##자본
NONE
##task
##용어
보호프로파일
관
##Errors
BINARY
essentially
sorting
suspend
##Fields
fourth
DBCA
##취득
따라야
##사양
##JSP
Replace
손
implications
연락처
##Config
호스팅
##높
cells
fragments
##입금
##ning
meeting
##monitor
ClearCase
##Through
수직
##Always
눌러서
시연
FORM
CCI
CSQM
CKTI
BDE
##원정
##재정
Two
##공정
PKI
injection
##이외
##Desktop
vtadmin
##Management
보류
68
ran
##치를
University
##MEM
KMS
guarantees
ZIP
nonzero
##PORT
arrived
meanings
translator
##Buffer
Stream
subprogram
collects
##리턴
③
##무의
Research
visits
demands
##protected
membership
오전
##명세
모집
SVRCONN
influence
unlike
##특수
##%\
draw
pixels
##인덱스
abstraction
am
△
kB
concurrency
bene
드림
##산업의
난이도
배분
##fetch
CP
stanzas
스케줄링
##300
j
##DRBG
##call
##CAS
CM
maximize
시그널
원가
##MOCOMSYS
##Nextro
본격
##｣
comply
KIC
##경쟁
##계약자
##그리드
컴파일러
Loop
절의
mix
부속
assignments
verbs
treat
revoked
##CLOB
##lter
ARCHIVE
경비
참석
modern
##init
Self
certified
83
##Runtime
##Tivoli
satisfies
비고
BP
CPUs
Spatial
foreach
고의
##정산
##급여
##강화
easyTravel
수십
informationabout
slave
improving
납입
##번의
##INIT
revoke
##FROM
intranet
opposed
Cannot
DASD
##alert
numerous
informs
결
##건강
tend
안전망
inherits
Redbooks
producing
auxiliary
##INF
걸린
SVC
qualify
VERSION
##Mobile
##상장
simplified
마스크
subtransaction
eated
##SSO
##services
##Enabling
방어
room
##금번
반응
ADD
##AUTH
Mile
줌
##결과물
recognizes
이동하
Print
##수신자
And
gateways
##고려
Determine
Encryption
MQCCSI
##={
granularity
##Their
CHECK
Permission
##국제
##개방
##연구원
##off
DEPT
Launch
square
ad
##Later
thatthe
##Supported
외환
저작물
HDFS
##specified
thatyou
##Existing
Errors
##→
1999
초당
귀하
##VPN
atthe
##Authentication
동등
이나
마이닝
persist
render
##TR
Composite
##첨부
catalogs
CI
TRANSACTION
MQIACF
##OTP
##결번
numberof
denote
##지구
수상
##출입
근로
##직의
##멧
하이브리드
Demand
가집니다
Restricted
collecting
clone
datasource
##수납
##Basic
Separator
"%
replay
##Adobe
RF
##TIP
##Unfortunately
broad
happening
##타임
빼
reinstall
rpm
##IPv
##format
alternatives
Existing
GSA
creator
su
Snapshot
redundancy
66
SDP
charge
abnormal
serving
##WITH
Modules
Upload
##메타
##Secure
Clear
##OLAP
bootstrap
sysdate
##MQGET
manuals
77
Token
quota
Body
PUBLIC
truncation
face
##이체
buses
##Distributed
##Events
VIP
##TARGET
enqueue
DataLength
##했으므로
자본
##판매
Big
##핵심
travel
능동
제어판
카운트
IIOP
RECORD
producer
equipment
mnemonic
SUB
배지
##SELFTEST
ectory
Chrome
신뢰도
##지자체
firewalls
exploit
customizing
##″.
IPS
validates
##Programs
변조
고품질
선불
EMPTY
##hosts
fetched
binds
inode
occurring
sequentially
##61
PORT
면제
회
strategic
Organization
SupportPac
oriented
커널
theinstallation
XCF
##Statistics
##*,
##proc
exporting
height
air
tpalloc
contention
asingle
Market
빼내
##수와
##Automatic
81
69
##qmgrs
TFIM
##앞서
##event
asset
##–
##Namespace
Front
##509
##Certain
대국민
everyone
##유효
DHCP
Derby
articles
Administrative
UDB
foreground
xsd
seven
보드
빌더
reviews
MIString
##INDEX
DESCRIPTION
##SERVER
telephone
##90
deployments
mainframe
frameworks
##개소
정립
wildcards
대쉬
anchor
001
oldest
VAT
##임시
접근권
글자
QSG
endorsement
##NATIVE
ofthis
절약
WebtoB
근로자
characteristic
Issue
##컷
adopted
brings
##센서
##KEY
Hardware
resumed
OMG
DEFPSIST
replica
Pad
accurately
mustbe
대한민국
서브시스템
##Document
##정리
수요자
huge
renamed
달라지
utilizing
terminology
floppy
##특징
아웃소싱
ofa
Preparing
##double
##include
##는다는
Infra
aren
##parameters
MQENC
##interface
##로직
잔존
Linus
False
denied
##Getting
collective
BO
Move
repeats
CDs
이어서
##Max
PK
JOLT
TCPGW
##Decide
가져와
##경력
##Projects
늘어나
빈번
##엑셀
hlq
##++.
interprets
tagged
priorities
POSIX
붙
상암
Bind
강구
선별
##객사
취할
Gartner
thought
##메세지
furnishing
Cast
behave
asking
지칭
cut
adapt
후행
##Browse
##},
atomic
##num
Templates
##부서장
Accelerator
##ts
67
##Consequently
##모의
##92
채워
quiesce
TNS
##관계자
UserIdentifier
##trace
##AUTHORITY
Columns
##PFM
##0600
inserting
서울시
##MQHA
방해
LINK
####
##ip
intelligent
ESBs
##상단
##app
terminating
Torvalds
##행과
##CHECK
지분
원복
수평
Route
라이프사이클
Topology
arrows
##context
출처
July
pointing
attachment
realtime
designers
Operator
##PROCESS
pdfmark
probability
heavy
parallelism
부호
기술료
실습
##졌
shutting
inaccuracies
115
##Script
BIT
##Contains
##상담
##수령자
SQLSTATE
collation
##mi
Licensee
Codes
JPEG
Repeat
MQOR
adequate
itis
BACKUP
##export
외주
ASync
Grouping
##SK
completeness
ina
obsolete
##신시
Kubernetes
삭
작업자
##유저
ELEMENT
##variable
INVENTQ
WHENEVER
매입
##본의
포틀
Success
infringe
버스
bash
경기도
붉
출원
##학습
##프로토콜
##Formatting
augment
engineering
multithreaded
architects
Under
Loader
ACI
interrupt
bug
trail
##Mac
##lename
scanning
##수탁자
여백
BMT
isolated
announcements
불가항력
cryptography
실증
##Show
연기
Crypto
cookie
BASE
##bind
Activities
pad
Personal
MocoCrypto
Refer
이상일
속해
명기
##365
##Internal
##critical
UAC
##once
청
배출
simplicity
경향
만일
Round
##전파
National
shells
##양방향
factories
synchronously
선호
slower
sheets
Lookup
##출금
buckets
MQC
Timer
##®,
initializing
WBI
피드백
identities
SMP
straightforward
Administering
soft
skipped
Citrix
##동적
##Receive
중첩
##ver
##nal
##과학부
cari
experienced
##sec
Best
excellent
planned
Kingdom
##buffer
가져다
커맨드
##Allow
##’(
회신
##데스크
FileNet
401
regularly
매치
dossiers
nearly
##철의
Legato
mostly
되돌려
공무원
##부가
사업장
TTL
부적합
##영구
곤란
후의
##Questions
##확대
정착
보강
theconnection
SQLCODE
##SP
##job
벡터
Nextro
FilePut
Selectors
wallet
gsk
##err
##WW
SignalSet
scans
유리
선임
Restart
Of
감수
##리스
거
상황실
symmetric
WLM
suit
GPS
1998
Fields
merely
expire
##Hence
##입니까
Incentive
universal
아주
approximate
UTC
wired
spread
quantity
TRACE
Logs
##대신
##브로커
##금지
해결책
일원
indirect
emerging
##Exit
trend
성립
thresholds
##Continue
MQSERVER
코로나
##DECLARE
Transform
##임계
sole
num
err
SSD
##empty
##ASE
troff
AggregateReply
headings
##랍
bserv
privacy
##App
mismatch
sockets
확충
레
보여줌
supplier
##ref
##개념
나타날
Future
##DBA
duplicated
op
##딩
##tions
PARIS
thr
initiating
age
중요도
이래
##보수가
buy
ISPF
unlikely
상충
##로운
##유관
came
신설
##Validation
##컴
발신
##리원
116
과금
Professional
##ment
Alignment
##white
KOSTA
Nextree
##별도
수렴
물량
##이용자
자재
폰트
##Passport
happened
적격
##ActiveX
점점
##ASCII
WMS
uninstalled
78
##DESCR
##특별시
proposed
tnsnames
mainly
upgrades
##Revenue
dropping
simulate
##미디어
적어도
statistical
somewhat
CMDSCOPE
##DataCenter
delays
fairly
##그래픽
##복잡
Customizing
상반기
paradigm
##품목
organize
급증
interactively
합격
##standard
drops
##link
declares
prohibited
##차이점
datafile
observe
##사건
계상
##사후
criterion
whom
possibilities
certification
##탐색
smallest
alphabetical
해상도
packaging
Production
86
About
callbacks
reject
resets
Submit
matrix
defects
##passwd
Debian
트레이닝
트래킹
곱하
promoted
expertise
##Accessing
Packet
##CLUSTER
semicolon
traced
약점
##존재
instructs
##Sterling
##Vitria
상환
tips
##자동차
Priority
##protocol
##background
##Sequence
ename
SDPS
solely
##SYS
줄여
gathered
휴지통
Win
mq
고지
Gallery
Processor
##프레임
cardinality
Correlation
123
롤
실명
thedestination
##버퍼
##려
personalized
OLTP
엑
##확실
vision
fits
MQXCNVC
선형
##username
BFH
var
##䤎
##오라클
##제조
theclient
precede
marker
##Mail
수없
##_”
FULL
Left
Meta
!=
combining
##상도
##SYNCPOINT
looked
로그아웃
superuser
협정
Download
##").
stateful
##주택
controllers
##transactional
##퍼
카운터
br
thechannel
##Rollback
extending
dynatrace
고가
채권
JSSE
84
assured
나눌
MBean
자연
envelope
##Building
warranty
THEN
##form
##properties
##Rename
translates
이어질
incidents
##재전송
Tablespace
##배정
arm
whilst
JMSOutput
##pInputText
chains
준하
전문기
##해의
##결함
##Index
밑
ROI
heavily
towards
super
##메소드
건축
##FOR
##대화
##STR
multimedia
WESB
violations
RMS
IMR
inthis
##회수
묻
##키로
위탁자
Term
##패치
이루어져야
Xeon
고속
GW
recognition
straight
주식회사
##줘야
##날
figures
longest
concatenated
##>\
기상
##자바
absence
Box
##Don
##access
ou
preview
pos
##TGT
ocess
Tuning
suited
##보관
｢
공장
신청서
objective
stands
4096
컨소시엄
decrypt
##이슈
##금리
##Transmission
tocreate
ii
considering
##기록관
##2021
hh
고정길
damages
NAT
JSPs
Finance
daemons
transformer
마십시오
이번
법규
ranging
##교체
##안내
SPX
##Reference
##Administration
키보드
##학교
SUM
poor
##트랜스미션
thin
팩토리
##built
bracket
utilize
달라집니다
responsibilities
LEG
##ControllerException
insurance
##가입
Validate
##site
나아가
##Due
매주
##저해
revert
##양
방범
유해
간단히
##PASS
contribute
observed
Incorporated
전일
canceled
Will
##Intelligence
encodings
##+[
Reseller
ClientVantage
JPR
theappropriate
reload
수탁자
##침해
##prepare
POC
올리
##여자
##Intel
##이상의
isused
hybrid
장관
##ACTION
##기일
##Drop
interrupted
Maven
괄호
선처리
##cnt
voice
##__
posted
subpartitions
"**
마치
컨트롤러
측정값
명은
손쉬운
##하로
야기
##수수료
##분할
resulted
outcomes
highlights
Coherence
예비
125
arises
textual
inclusive
##entry
briefly
##Place
##우대
CURSOR
IMM
##Picture
ClipsAndTacks
##Order
##max
임무
##착수
##이내
700
종
##directory
휴대폰
SKT
##메모
##구성원
##base
나타난
downloading
Plugins
가맹점
stateless
##Pharos
SQLstatement
준공
유니코드
correlate
CHINIT
##님
interacting
pixel
Maintenance
disables
##Component
##Customers
IVT
##CURSOR
Discovery
지니
##담기
매월
excluded
Warning
thoroughly
sizeof
약어
##Lotus
##OPTIONS
##UTF
바인
FIELD
zones
##NODE
##즉시
receivers
Japanese
지터
Dock
manyreport
##errorMsg
prevented
exclusively
##put
##오브젝트
대의
##기본법
##Besides
Beginnings
virtually
jms
항시
decryption
align
inspect
browsed
180
트렌드
##OUTPUT
212
DT
고위험
연방
late
IIB
Bag
##"><
decrease
shipping
##개정
팀장
수시
##청
Resolution
vs
##created
규
##reply
standardized
양쪽
##후처리
overloaded
##Auto
sys
Exercise
Redo
##RAID
EC
##Second
USAGE
GIF
xid
DESCRIPTOR
##Courier
backs
##HEADER
##dynatrace
##SNMP
##고장
편
authorize
risks
##황의
남긴다
story
Avg
provision
##family
Rev
중의
##감리
임금
composition
##Embedded
dashlets
FAX
##Persistent
##run
##담보
abort
해독
braces
국한
temp
filesystems
Wireless
##게끔
deactivated
quoted
sampling
Match
surface
##축
특권
breakpoints
CSQJU
MQCHT
LIKE
##OFF
AES
bottlenecks
manufacturer
조달청
쓸
hundreds
cp
UID
##실의
97
Whether
mutual
미달
million
carriage
##Column
stakeholders
Peer
vice
##cate
committing
excessive
##한도
Administrators
MA
Post
Enabled
##응방
92
signing
##알고리즘
태블릿
pure
invoice
##Compare
##users
Double
빨간색
coupled
inspection
Connectors
##LIST
advance
##개수
##공의
##신청서
임원
늦
mod
##헬스
experiences
HOME
주간
87
subfield
##Compute
trim
semantic
##SMP
분명
recompile
##블
FT
인간
공고
낭비
산
##Regular
adoption
##디
##Except
##Visual
stubs
모호
##라이선스
responding
##resource
##취약
January
Frame
테
##alter
##배경
##존
##Documentation
##enable
##Writes
IMAP
##oracle
##Operation
##순번
##쉽
##전문가
##else
신탁
82
##Testing
IX
comparisons
functioning
##81
spend
##EXCEPTION
SVR
CHICAGO
destroy
##deploy
라
##스트리밍
출동
산입
freely
dotted
avoids
TIMESTAMP
##채권
##RTT
QMgr
corrective
명령문
ItemIndex
##ism
종별
##Procedurev
timed
leaf
집단
IV
ldap
##서울시
##Today
##플러그인
SSLPEER
##NEW
프로토타입
AJAX
위험관리
isa
##Warning
##session
BYTE
XSD
##Restrictions
4000
conventional
hyphen
##120
Sessions
OPTION
UP
보안관
기안
accompanied
November
XDS
onment
##Requests
touse
##FULL
만이
##임의
##st
anapplication
tracked
##cys
##CONN
",
believe
격리
##십시요
granting
##broker
패
전면
##재해
일환
##병렬
##프레임워크
##SALES
##수록
Units
theproblem
contacts
##ret
##아이템
##right
broadcast
인재
중임
##http
##보완
무조건
##TM
##에너지
interpreter
##Option
##role
병목
Perspective
Spec
##과세
##기안
integrates
chunk
Plus
받아들이
강점
프로파일링
SoapUI
befor
코스닥
Handle
JCO
OTMA
af
공표
사이클
unified
stay
##주간
##Ignore
##카메라
##네트
inclusion
##Assume
INTERFACE
conforms
saw
externally
SFTP
대용
주십시오
##mteadmin
baseref
Sites
Begin
realize
##견적
외장
##Spoke
##Routing
##가공
##드립니다
증진
##premise
##지난
thatare
##Public
toolkit
isolate
removal
조금
##action
suggest
##상거래
lightweight
##Biz
##동사
confidentiality
MQZ
BANT
공모주
MQWIH
MQRCCF
HANA
##Overview
##검
LQ
##국
##인쇄
suchas
sensors
##창업
##USE
따릅니다
##MQI
##not
omissions
연다
^
##Exposed
기종
asthe
##','
redundant
##Learn
Examine
##Confirm
PeopleSoft
OUTPUT
##시퀀스
##dbnode
Pr
##SAMP
OracleJSP
**";
##cant
##디폴트
##업데이트
동법
트
##BO
CAPRI
supplying
fire
##앤
##Count
애플
##콘
대내외
##창의
##delete
Spring
##flow
Composition
downstream
##말의
##header
##붙임
##저축
##서가
MQZAO
복사본
##free
estimated
##Recovery
최저
HH
##파악
최선
##서드
worldwide
<->
##BROKER
단기
종종
경
개편
redirection
열의
parses
COMPLETE
로드맵
While
decides
distance
frames
##Queues
ctx
##Register
106
##께서
LIBRARY
behaviour
##handler
AWDS
tracks
##요약
##ss
이어지
##조사의
메인프레임
schemes
##ld
본건
Supported
##자명
simplifies
governed
책
virtualization
##별첨
<<
##TV
confidential
PID
addr
envir
confusion
##parameter
교차
##취급자
관여
월간
대구
Good
넘어서
긴밀
LAST
chance
낙찰자
Docker
분석가
Terms
MSI
##Typical
##첫째
modifies
discards
securely
scheduler
EA
wild
XMITQ
##발행
##close
##inst
paging
##TOPIC
ol
epository
multiplied
172
MON
10000
repair
##교환
중은
##사가
##생활
registering
치료
##테일
precisely
PROPAGATE
integral
satisfaction
Thin
Customization
##드릴
OpenSSL
컬렉션
##rc
##주가
revisions
SAX
Precompiler
##order
##수가
대폭
##총괄
삼
증상
##priority
troubleshoot
##yes
whenthe
111
PDSE
##Destination
wizards
여건
##광고
privileged
크로스
noaction
접두사
논
할지
정확도
직
##산출
라이프
DIMM
##마크
pricing
##소속
폴링
##성명
로고
96
bypass
Reset
Video
연습
탈퇴
Generic
classification
obtaining
Retrieve
newline
다운스
CMS
##JavaScript
clicks
drawing
profit
프로듀서
##준비
##Platform
##업계
힙
preparation
wrap
##우편
새로이
##Router
##APM
Aggregation
VAN
ATM
delayed
영위
##Problem
Initialize
ultimately
##MODE
##청주시
재직
##75
송수
##중식
##전력
##이중화
Ltd
독점
##관점
eliminates
banner
##Below
Drive
MQPS
##사이버
수반
Throw
전후
concern
ago
acceptance
CTRL
##월드
Shows
MCAUSER
fills
denoted
##청주
pushed
prede
Catch
엔트리
CPI
##007
Demo
종사
##비게
Bserv
portfolio
##Subscription
currency
##오니
SE
병원
##Have
##DES
expecting
doc
persisted
submission
##Admin
Electronics
##width
SIEM
가시
Throughput
##된다면
##str
##endmqm
MCAs
Worker
actors
UNIQUE
##총액
Flags
##Short
Predictive
##crossing
esour
소관
##분쟁
##준수
1995
열거
##SI
##차트
완벽히
##samp
160
Dashboards
##규제
WRITE
IEEE
##컨텐츠
##container
##반드시
##APP
##상환
##org
적당
principle
##CompCode
##마찬가지
##CRM
##USB
Confguration
##components
wsdl
RESLEVEL
TLOG
Bucket
##자율
개입
Title
issuer
##Deferred
##row
jump
pertaining
Confirm
##프로
89
##채권자
Syntax
##dimensional
비어
##serif
꾸준
##수리
안의
deployer
해도
curve
##출시
##동향
DO
##예약
##Topic
wherever
Checking
MQM
둔
fora
savings
117
screens
BMP
laws
EJBs
theobject
tightly
savepoint
Justify
falls
needing
##력사
##져야
##변조
irrespective
##MQCONN
눈
Samples
arrangement
##900
SEQ
Optimization
Knowledge
MQGet
dis
미비
방문자
ILOG
PFM
multibyte
##핚
##Tahoma
##sans
incorporate
Low
##법률
##특허
##TTA
굿모닝
measuring
##Clear
오랜
tiles
146
##DT
##촬영
어음
수납
##시행령
Loading
ND
##wbi
finishes
portlet
##Pass
##때문
versa
##토큰
Collectors
contribution
EU
movie
Hello
Salesforce
CipherSpecs

synonyms
ROSE
##space
examining
##주일
위원회
##CA
param
##전국
CFLEVEL
principals
열리
reviewed
ifyou
youhave
##마
##Item
hex
이동한
bill
cubes
PMO
agreed
##identi
##천시
geometric
ConnectionConsumer
\'%
Interaction
mission
semaphore
##지향
아시아
##알림
RESTful
CSD
수천
Static
##Site
##해양
##넥
##부와
활
JSF
오퍼
Supply
insights
defect
aparticular
##Introduction
##밀리
##Qmgr
CORE
KDE
고민
웨
순환
멀티미디어
##중의
federate
solid
injected
##본문
Push
##Certificate
결국
sleep
thatis
Because
subscribes
succeeded
위기
폭넓
umask
Beans
마스킹
프로필
##Identifier
subtask
breaks
종목
LOAD
QALIAS
CIP
tr
recursive
circular
##Subsequent
PGM
WBS
##performance
##Implementing
##비교
##마감
##순차
##놓
차질
thecorresponding
하도
viewer
##동화
비대
Workshop
comprise
predict
interchange
banking
tmadmin
누
##block
##AND
SLM
examined
Transactional
QmgrName
##DateTime
frequent
##NUMBER
canuse
Parent
##temp
##자나
신한은행
increasingly
##Likewise
청주시
##확산
jdbc
scanned
##사이
##web
reality
파워
##2001
enumeration
보편
##하단
VR
##Consumer
##Workbench
todetermine
Relationship
PIN
배부
##emp
dispatchers
MQRR
empno
cartridge
workloads
SCN
Insight
##콤
성실
##둘째
##근거
Technologies
shares
QA
##LINE
##sbin
신의
연대
truststore
##컴파일
##IX
MOVE
perspectives
MDX
##Intelligent
부칙
##파일로
##비상
9999
악용
OID
##ELEMENT
HCONN
estimates
min
레벨로
넓
##깅을
##삼성전자
##Specifically
XHR
Topics
proceeding
computation
구두
##혁명
노후
개월
variant
##Turn
permanently
evaluating
monthly
proc
spot
미팅
weeks
##Logging
Quarter
bw
Programmer
oduct
facilitates
avoided
##url
이어야
주입
거래량
경쟁사
아이
##array
submitting
##LIBRARY
CRLs
serviceability
Alt
SG
##확인서
##속
Commands
transactionality
gap
##단어
datastore
##send
##설계자
##’,’
toa
StrucLength
heat
uniform
##COMMIT
##Recall
CPF
Allocate
MQAX
MPGW
파견
TCO
##반입
Opening
reflected
##으니
##엑
속하
한편
##Give
panes
simultaneous
Convert
만족도
##component
표시줄
Providers
##COMMAND
##Reports
Side
##state
##CTX
Second
ce
##전문기
markup
##item
bookmark
MQCFSL
끝점
##Indicateswhether
WTA
##FORMAT
게재
재개
##기구
##Long
perceived
##Migrate
##CF
somewhere
##납부
##Excel
##`
served
Telnet
항공
LOCAL
dummy
demonstration
##Path
##*.
##cl
invoker
Vehicle
##Manage
intuitive
Writing
trap
##screen
trouble
MP
##IO
Lombardi
##keyword
FLOW
걸친
히스토리
##측면
##대학
Intellectual
쇼핑
##통신사
활발
Creates
구비
130
템
worry
##Determines
hoc
##넥스
##사물
assurance
yellow
##대외연
LDIF
CUBRID
관세
기다린다
##ANSI
#/
손해배상
##명령어
프로세싱
Hash
##전송이
④
올해
##삼
##바이러스
##정적
##State
Monitors
##래공
외국인
혼란
##같이
closer
소문자
trial
##멘
allocating
Condition
candidate
행의
SALES
##rw
##logging
##PHP
##Model
theinformation
Where
내리
매장
##Initialize
##Domain
disconnects
flavors
121
##house
##품명
De
QName
cycles
Ubuntu
##boolean
AMS
MQTMC
##Cache
computed
증감
##물질
##라이브러리
advised
deselect
differing
##RLY
Initiation
equally
similarity
##DM
EXCEPTION
##SESSION
##】
##곳
##remove
POP
앞단
microprocessor
archives
##DAY
폐지
##심
트랜스미션
##안함
cancelled
exam
Now
expectations
##Virtual
일수
Changing
adopt
##Deleting
encapsulated
##조합
constrained
acquisition
##마케팅
실정
##Peer
GPKI
notion
confidence
##Should
reopen
theme
lob
대치
##Instance
##영어
##고시
##신뢰
5000
##합성
##팀장
가로
strict
##TRUNCATED
쓰이
익일
불리
Person
opposite
##TMS
grows
##VM
encapsulate
shard
QREMOTE
Subclause
##Thefollowing
async
drawn
##세금
보냅니다
배점
threats
##=“
clicked
##만족
Connecting
##자문
관장
궁극
ac
HTTPReply
owning
redirected
transmissions
SCHEMA
ONLY
##security
##1024
messageflow
열려
##^
plugins
##매니
timeframe
##맨
##MQBYTE
##Rules
##History
Building
negotiated
XSQL
ogram
##VCL
ocedur
##Asynchronous
구역
##world
지사
sh
##신속
철저히
##Related
mqsichangeproperties
validating
transit
오후
##Policy
##러블
진료
similarly
와일드카드
마켓
##desc
##컨설턴트
students
불과
##detail
quit
expands
##POST
##NOTI
LEN
##지토리
대시
MQCXP
로우
SBCS
oker
reduction
Dictionary
gathering
##mqsi
엄격
##오염
게스트
108
드론
불이행
떨어지
탄력
##빌딩
##1999
나온다
Sleep
시간대
##disable
만기
##DBPut
란
MQSCO
autonomous
Sherlock
ideas
티어
CS
GroupId
Ports
divide
##LOCAL
사안
전행
##전담
상실
##정
##import
##Sending
로그인한
노동
##010
지침서
##Trust
continuation
##절과
##공지
피하
desirable
##부팅
클립보드
USE
##sort
Reserved
##Assuming
carries
##정규식
##손실률
occupies
DMB
attributed
dept
##SALARY
Callback
copybook
장이
소방
우위
##차년
timely
##SKT
##%(
readme
와의
disconnecting
manipulated
attacker
>=
Extensions
##Pro
##축소
tile
MM
##Safe
thetable
extensible
sorts
buf
vectors
##SOURCE
오늘
TimeoutNotification
ongoing
markers
##국내외
##JOB
##래스
considers
##수원시
입찰자
##Universal
##경쟁력
hands
Conditions
응급
PS
##INSTALL
Compare
##저하
Hive
Specifying
Invoice
##Stored
joining
Jan
##일별
experts
Lightweight
Samsung
customizations
##마이크
포트폴리오
##시켰
##게임
loosely
attachments
Regional
##partitioned
timeouts
restoring
##About
##일단
Dashlets
##Prepare
희망
apart
##자간
##유사
Are
##협의회
indefinitely
##합병
언제나
##세대
DECIMAL
disadvantage
인센티브
Card
##Solaris
orthe
arenot
successive
##Sender
Assign
##합
crypto
quarter
ssh
##SUCCESS
ess
##Temp
실태
일어날
파이
##필요시
##종목
##Sun
##BME
##간격
##term
international
내재
저렴
pc
##xxx
##대별
theWebSphere
##요양
대여
realm
yields
considerable
103
mqsistop
unexpectedly
proceeds
##Stopping
ciphers
절체
Metadata
pretty
##retry
##경기
sec
talking
##시오
지우
ebXML
ADO
JUnit
##tpalloc
curr
##CLASS
ormore
계열사
##재정부
##별지
스토리
테이프
널리
##Binary
전문과
government
CR
Accept
##역
transports
Protection
##display
정밀
안드로이드
반송
helping
재무제표
co
열립니다
transmitterChannel
Since
namelists
##Programmable
CTX
##STOP
SUSE
uploaded
##복원
갑자기
##엔지니어링
chained
bIsEncrypt
##0000001
##Various
DISK
그리
AnyLink
##Drill
시동
##Checking
##profiles
##만들
소규모
135
Rename
subroutine
매크로
##Health
faults
##processing
##유럽
arising
Another
readers
transparency
##라이드
##액세스
비지니스
Owner
##아니
##리기
##부에
##툴바
equates
Based
##TRANS
##98
##빙
도래
반대
routers
세로
##Repository
호출자
##케어
hover
##융합
warehouses
오버헤드
순간
VCAEUE
##바이
Continue
Analytical
Motif
##황과
장의
전산실
모형
##추후
104
##격자
요망
booted
Off
whitespace
""
associations
##Putting
내려
105
##DETAIL
former
protects
##Retrieve
Alive
##Schema
resize
연한
##Reissue
TRPTYPE
BUFFER
differentiate
latch
rolls
##Unit
인적
goods
##second
##유상
##192
##5000
##취급
삶
##Whichever
##123
Javadoc
추상
##부품
##어느
willbe
##Messaging
##바운드
상업
녹색
acknowledgment
##TRACE
numbered
##MQe
BFILES
AmazonS
notices
거절
량
요하
##편성
overlap
consolidation
IDS
##qualified
CDN
›
##Channels
날인
leak
##Identity
HR
한층
##컨트롤
narrow
swapping
INOUT
WHEN
Layers
74
Argument
SFP
##SCA
Simulation
##lived
continually
subclasses
##호기
##Completion
##셔
##MVS
obj
##SELECTOR
MQTopic
bottleneck
##65
".
WTX
Certification
disparate
##options
##확
##Commands
한다고
아래쪽
허락
양호
시리즈
Education
##END
가져와서
##Programming
##과목
border
##DE
##병원
frst
##Files
##many
##Print
##일임
DIRECTORY
annotation
##느라
CSQJ
ee
NameValueData
##LGCNS
methodology
한눈
##DEBUG
##WBS
대두
##템플
##centric
##Development
assessment
initiatives
##Customize
QMNAME
GPP
securing
404
arranged
topologies
stdout
##durable
보건
배송
##Functions
conceptual
등등
supposed
##Attachment
##Store
unset
thesource
##bytes
di
Interchange
##잘못
§
COMPLETION
restores
포기
정보주
대리인
##ps
##매뉴얼
관계자
급여
테두리
대전
tagging
꾸준히
입찰서
요일
군
Vendor
관광
툴킷
##품
Exerciser
Exceptions
closest
abends
어려울
##독립
##Result
##INTEGER
LENGTH
POOL
다섯
##볼륨
queueName
layered
rarely
resemble
##Backup
##DMI
*),
STDL
OCIErrorGet
UUCP
가까운
##
##공학
investments
player
갖출
특장
##패킷
##Administrators
결산
Stack
94
종이
##Authorization
하부
녹화
artifact
cron
직후
알리아스
##인지의
semi
약관
발령
Sending
backlog
##Methods
gray
survey
slice
overflow
assess
익명
판정
shopping
Sendmail
강도
MQJMS
delta
주장
대칭
203
##VMware
##APPL
Roles
terminator
workaround
handy
##fail
unstructured
펀드
##condition
##20000
##82
Mgmt
pen
패딩
##FONT
##70
##ISP
선두
##project
##Tag
MQCB
##업과
발달
균형
##Enables
dispatch
##KR
##전기
오랫동안
Institute
dollar
##버리
##Scroll
EXTERNAL
Complex
PARSE
##LEN
associating
Optim
선제
SFR
HEAD
주가
Rows
preprocessor
decremented
FAILED
ObjectQMgrName
##DOS
##Parallel
##메타데이터
##기술료
유닉스
##Verifying
executables
빨리
funds
PRIMARY
결의
아무
##Digital
RPA
GUID
##Communication
징후
Duplicate
Envelope
assumptions
AR
JVMs
##제외
##thread
constitute
watch
spelling
eliminating
##캐스트
circle
##Phase
407
##rcv
##MQHBAG
diagnosing
safety
disaster
##사이즈
휴대
니즈
##Gartner
diverse
##루
##작동
경영진
##업종
delegate
crucial
##Assign
##PGM
whichever
역
##통의
학생
margin
온도
proof
shortcuts
시킨
국방
드리
verbose
Numeric
##kill
##Simply
constantly
##virtual
CCDT
##CRYPTO
##닫
wasexecuted
강대형
##ITEM
manipulating
##Smart
가져
##정규
낼
##Month
##부담
OEM
negotiation
유량
##도움
MsgDesc
포장
usr
##지체
대민
한국어
인터
theprocess
highlighting
##at
##단지
상응
Models
##플리트
*,
synthetic
##Effective
expert
visually
##echo
##적절
밴드
##Environment
BM
치
varray
submits
Place
unaffected
begun
acknowledgement
subtasks
MQDH
MQCTL
Approval
dvoid
##관한
소수점
악의
느리
##CONNECT
##IDC
##runmqsc
정함
##INTERVAL
paid
숨기
2048
unattended
Subscriptions
preventing
Defining
SCADA
withdrawal
Fact
##110
거리
ExceptionList
tailored
##=’
##SVR
Computing
##확장자
sentence
recommendation
##References
Traffic
Invocation
thebroker
##Alter
##FIXED
##Reduce
##Usher
authors
##ANY
CipherSuite
Nov
##Agentless
##Distiller
avalue
외국
##허가
제로
윈도
bugs
contracts
골든
URIs
industries
##케이블
mixture
Expiry
얼마
CIO
##예시
##Developer
##PurePath
saying
##Naming
welcome
extraction
html
WMQI
나온
##으면서
거친
움직임
Include
additions
##여신
assemble
Signed
##볼
107
anew
eliminated
infinite
KIS
employ
##HEAD
WORK
받아들일
##lled
##채
Strategy
##콜
##퇴직
경감
##배열
MMS
##″,
Engineering
##샘플
##enterprise
나라
##Retry
##색
periodic
adhere
미세먼지
##창구
##copy
uuid
##are
checksums
caret
traffc
integrations
LinkGet
associatedwith
retrying
summation
sizing
positional
transforming
##기업체
##엔터
##납니다
SPIRIT
corr
##맂
adifferent
CACHE
recovering
##라이센스
NORMAL
##뷰어
문구
##가변
Navigation
Duration
##ENABLED
##보상
##master
암시
Msiexec
임대
fork
##literal
unusable
##자용
placeholder
융
modular
Compression
ExitResponse
커야
소집
##add
transparently
Synchronization
getter
thevalues
NEXT
페이로드
Customers
##RESUME
바꿀
##DEST
➪
MOJIN
TransactionListener
MQMON
FIS
##Doing
살
##72
conf
##경의
지수
워터
innovation
##Must
consistently
deeper
##-->
flowing
붙임
걸
뜬다
##중심
저작권법
theerror
##LANG
EVENT
##시각화
이탈
wrapping
populates
Declare
rounded
##Element
Price
mounting
##Metadata
생체
증분
주차장
vulnerabilities
tied
##Ability
달력
##sample
##wait
##Similar
closure
##Alias
##바이저
titled
##VCAEUE
submap
파스칼
vMA
slots
Intermediate
보호법
견인
1997
##귀
##네
Member
##IIB
CAM
##Increase
bigger
broader
TEXT
##Hardware
symptoms
JServer
Troubleshooting
##기억
##eSQUARE
##오피스
pCompCode
RCS
Re
PVU
##};
subtotals
WOLFSSL
##\'
저해
##0001
##셀로
##함의
##허브
##나머지
##현상
##Large
도식
adjusted
SupportPacs
##상호
믿
이론
내외
whichthe
##이중
운송
스크린
accidentally
##Avoid
##명회
Prompt
긍정
##MASTER
##BYTE
malloc
Alerts
끊기
SubName
드릴링
youare
AggregateControl
subprograms
##Moreover
leverages
inwhich
##Transactions
##BACKUP
##거부
듯
##Off
정해
##＂
Username
unlock
rolling
##PCF
##CC
상거래
##키가
STEPLIB
##Developing
Bar
재생성
모색
종사자
actively
굵
붙인다
stability
increment
embedding
bars
좌우
##SDS
##부기
낳
##영문
중일
Problems
Hashtable
booting
ResultSet
##Case
IBK
99999
ILE
rfh
notifiable
##cache
##ARCHIVE
이해관계
광역
##제작
POSCO
depicted
Consortium
COLUMN
suggests
##exits
Life
newsgroups
Stand
급격
131
distinction
##Summary
권
마크
부산
bitwise
FIX
truly
retried
##Physical
##내장
##terminated
과도
lots
inhibit
##aware
solving
'%
didn
##env
star
Defines
ESXi
##endian
Spreadsheet
##－
amqsput
addev
토지
Fabric
##separator
expanding
quiesced
##TRST
매번
진정
자회사
113
foo
buffered
반기
##title
blog
Perform
SystemOut
대중
인프라스트럭처
Publishing
##Handle
109
##Lists
##부채
timers
##');
##나눈
col
Namespace
적응
##의가
DL
##무선
산업별
▶
Branch
시군
resultant
##인구
Enabling
kit
합니까
##급대
##Validate
Limit
York
번역
정교
encode
SVG
needto
Dual
##URI
##formed
yield
획기
몇몇
나타남
##Primary
##¡
감독원
##DBGet
##순
APAR
TXSeries
##위협
ATMI
##Alive
seeing
ADAPTERDETAIL
canonical
##TDS
pragma
conducted
##GID
suites
caution
accelerate
##TS
##협조
variants
##형사
MANAGER
공문
environmental
되게
isdisplayed
##구체
consumes
DOMAIN
##Initial
##색상
행정자치부
Mining
영국
Markup
쌓여
assembled
mysql
##문은
fatal
NEW
##방재
sothat
리전
IQ
네임
##Addressing
Clause
##ALLOWED
##Block
OCSP
ManagedConnection
##JMSException
ADSDL
derive
PARALLEL
##TIMEOUT
normalized
##RMAN
환산
##MQOPEN
##Modifying
Mozilla
199
networked
wrote
brands
Pentium
기술인
##scale
##SVC
확실
##Procedure
##Conversion
허위
배당
##samples
129
makefile
MQMT
DPM
Loan
duplicates
MQEVO
DataCenter
##터미널
subprocess
Stock
##혼용
##CARRAY
JPublisher
##Pointer
##SHB
##nbsp
epositories
Financial
위변
산재
##소요
책정
보험료
##보험료
##모델링
외산
collaborative
auser
abbreviations
##행이
ADAPTER
disabling
##연락
##88
POWER
설계자
직면
##틱
##snd
Packs
Uninstall
seamless
나올
Chain
instant
annual
##텔레콤
JTS
survive
Ⅲ
프로비저닝
##´
##반환
stdv
##OUTFILENAME
##약점
Workspace
passwd
EISs
PARTITION
확인서
도난
각호
##월별
##NFS
competitors
##MRM
할인율
##반려
일단
wantto
mqsichangebroker
sysplex
##Null
dest
퇴사
##CLI
purged
##Answer
##NH
##700
Sensors
receiverChannel
mechanical
##Implement
##Developers
##Numeric
DES
PSID
TASK
QuickTime
##TEL
pInputText
##마이크로초
##ROSE
constructing
minimizes
appearing
일부분
stem
Stopping
Postfix
##목
##mea
##Cognos
져야
datafiles
mathematical
204
accepting
consecutive
##REM
##Understanding
theconfiguration
looping
##Features
jsp
##기법
##Ex
Background
##리스크
fte
spool
395
분당
havebeen
Minimum
Procedures
Constraint
fprintf
Tru
provisioning
portlets
##Freeform
##DFT
트랩
감지기
rowids
wholesaler
intact
##MONTH
소프트
거듭
기사
총액
Cross
asa
Forrester
COMMAND
이끌
##replace
authenticates
Assembler
##서브
##풀
exposes
examines
##시청
##SYNC
추측
##Who
##depth
Connected
##NT
acknowledge
Identify
coverage
패러다임
##MESSAGE
insertion
filling
##compatible
니
budget
photo
RAR
thesaurus
equation
##Special
en
##DRM
##CURRENT
##낮
왔으며
complementary
##Resolve
elevated
##Good
선급금
210
접
##대문자
##Describe
##Feel
개인별
knowing
Activation
##Subject
발간
반도체
액티비티
##밋
absent
국산
JavaServer
보여집니다
Forecast
##선행
##복
##게이트웨이
correlated
##management
##Tools
이야기
##SS
corruption
gone
equality
visualize
##html
configur
타임스탬프
CRUD
위쪽
##Synchronous
##NORMAL
국
BAM
sell
clarity
##Cross
summarize
LD
mqs
##NEXT
견적서
##KIC
~]$
MTECC
ReplyToQMgr
##Submit
neighbor
sides
dictates
iPhone
##된다고
##발신
SVN
Maps
##매매
대략
##포의
revised
##SVI
수학
마커
agrees
Comments
블
GetFormError
푸시
mart
thefile
악화
늘린
DateTime
##span
이어집니다
gains
방침
눌렀
내부망
바코드
introducing
effectiveness
##ProFrame
filesets
CEP
OI
입회
##ICT
심층
사라지
Standards
USS
suppress
##느냐
TTAS
스타트업
##왜냐하면
##known
##SPACE
regulations
Feature
userName
깊
instantiate
merging
governing
룩
독일
ILinkGet
mqcc
mirroring
Snapshots
##RDBMS
declarative
clip
RGB
##APPC
□
브릿지
InputTextSize
Listsall
##Lob
cumulativecollection
unusual
DISABLED
이루어짐
##점유
비례
급변
Screen
markets
landing
###,
##Grant
1994
MEMORY
존속
플러그
holder
PASSWORD
nonexclusive
혼재
심화
beneath
##STREAM
##ibm
subsidiaries
##도와
##업그레이드
##Day
높여
instruct
##EDI
mediations
들어갈
##used
##인공지능
##스마트폰
불만
chanserv
telling
그러나
badge
stays
ruleset
flight
##주선인
##progress
moderate
MQSD
TCB
##DISABLED
##WPS
##Accounting
Maximo
customizer
rare
##상암동
##사람
##Timeout
##처의
가중
DISTINCT
chmod
recursively
##Execution
##Regardless
RouteToLabel
kilobytes
discretion
##고속
↔
##홍보
치명
##군의
##Space
##사내
##TEMP
##계약법
##Caution
witha
exchanging
malicious
##able
adatabase
anyway
##사법
2022
Publisher
##RC
##PART
##<<
toperform
aborted
##blocking
만한
##줌
잘라
##부대설비
SWIFT
Analyst
##Develop
toanother
inyour
overcome
batches
거쳐야
둔화
##슈퍼마켓
Extract
backwards
syntactic
##OCI
선금
##exe
편철
UNION
purchasing
prime
EULA
##REST
appending
unrelated
##Resources
fetches
touch
240
##IMPORTANT
OUI
엑세스
MQOP
GNOME
##ctx
’&
billing
##한의
##기초
##예규
JOIN
##Has
##GL
Sharing
휴대용
cold
##Normal
팩스
##debug
늘리
##Formore
Links
fulfill
##Successful
살펴
##격지
Audit
BIE
Special
indeed
운전
##YYYYMMDD
NTP
##자수
매매
##safe
transacted
enqueued
README
exhausted
매출채권
SA
theservice
Strings
byusing
instantiation
Inventory
translations
##반청
Controls
##swap
CSQC
ECB
resolver
Warp
##VALID
##SUI
##==-
##Library
analytical
##PRIORITY
익스
##CAPRI
preferable
dramatically
##cluster
structural
##탐지
가산
개인정보
##분배
numerical
TPCALL
성장세
송신용
scratch
##처하
##완전
MODULE
prefixes
greatest
PostgreSQL
Describes
manageprofiles
ascending
Follow
##CAUTION
건전
Supplier
##Help
공익
##Patterns
HashMap
##stream
avoiding
##blank
##CONNECTION
##IIOP
범례
writers
##sion
guard
CommBuff
##RESPONSE
##SQLJ
Ñ
Fast
Does
Locking
##판
차등
##ST
세미나
##중간
##랙
정합
##dc
층
losing
##Links
deadlock
수탁
블로그
Ajax
양이
Delimiter
##Size
##Eclipse
fractional
##integer
##95
광교
중소
##나요
ASN
줄어들
##매우
일자리
수원시
##storage
##Choosing
NON
BServ
##Re
SQLstatements
MQAIR
##UDP
realized
requesters
rating
Oct
referential
notvalid
Robin
##통
evolve
##고딕
Gbps
##CLIENT
이진
##모두
차감
조의
##Uses
역사
hook
contiguous
EVAL
beside
##입찰서
expense
##INTF
Range
꺼내
##Neither
enablement
MQFB
MQCSP
theother
찾아보기
codeset
Xml
bookmarks
Trusted
MQINQMP
ImqObject
calendars
INITL
SECTION
##store
Digitide
thecluster
QMB
##amz
##BLOCK
##READ
##타임아웃
##시범
노임
##간접
##요령
##지리
##Prior
1990
낙찰
찾아내
##AA
핸드폰
##마트
완성도
공조
##Specific
##면서도
돌려준다
##제약
Nested
##파티
##Pre
BIOS
검색어
Country
constructors
RSS
replicate
Garbage
##Hadoop
Counter
##Scenario
conduct
펌웨어
##IDENTITY
##TASK
##Inbound
##중등학교
Netezza
JEE
Tpipe
iptables
##DataOffset
compCode
SYSDBA
##원시
과다
##전자서명
과부하
Certificates
CHSTATUS
##견이
엣지
##대학교
Qmanager
##용도
oneof
향
##이메일
##빠른
mqsistart
Restore
USERID
생성기
방대
liability
##XXX
##configuration
##마법사
##Zero
##동영상
##ments
##MAP
solved
ObjectType
designate
professional
Subcategory
비트맵
speeds
##Force
##월말
emitted
Early
unconverted
NonXA
##-®
algebraic
랩퍼
이곳
알려야
##긴
##온다
##Runner
##목적물
##요금
시작점
Synthetic
답
affinity
##지급액
아카이
deny
##volume
downloads
취한다
subroutines
##Outbound
덮
deck
주사
##선불
실사
타일
##DataPower
##ect
##dest
모으
analyzes
preconfigured
Times
##Transport
##Until
##모집
##MQRFH
MQCFST
arg
762
CBE
andthen
THREAD
##63
공휴일
창구
interoperate
JBoss
thinking
##Adaptor
NODE
Bindings
DBLink
applets
serialize
Comparison
behaviors
Director
certainly
rm
가져가
999999999
상담원
##공장
##BEA
thedirectory
##cally
##Availability
##using
splits
Monday
Regular
workflows
##91
##폰
TORONTO
##Notes
##MocoCrypto
MQEnvironment
trip
##위탁자
apparent
##Bind
122
오염
힘
천재지변
세분화
처벌
##회하
Netscape
모르
basics
ENVFILE
INCLUDE
polls
##부로
##리소스
영향력
폐쇄
부각
JBI
allof
인덱싱
OPTIONS
Zero
##DQ
game
During
frees
builder
Course
##아직
##샵
III
##소개
##TERM
##Displaying
investigation
donot
ENABLE
assertion
##WAN
imposed
##최상위
manufacturing
qualifications
REASON
ADSD
MQMF
IDOC
WMLScript
Toys
Gradle
indextype
##Purges
##forward
##교육청
빌딩
문서화
##손해
포트로
돌
Visits
##거
rebuilt
revocation
##창출
Ack
접촉
mqsisetdbparms
##Handling
CSI
유료
##Power
##LQ
##광교
appends
XSS
Append
성장률
RP
##Down
##PAR
제일
부채
consequences
##BFH
CIDR
began
pthread
##아울러
##TRUE
conformance
draft
ddname
MINU
로거
성질
평판
##래
##폐기물
등재
Historical
wider
##월간
TOP
advisable
formerly
exceptional
##JNDI
Outlook
instructor
##물류
participates
subnet
unrecoverable
##workspace
다룬다
##코
##570
NL
existed
##열기
별개
##협약
deemed
##84
##SMTP
독립성
##인계
Defined
unde
redirects
##left
##위기
areport
##}:
Preview
피싱
##cc
FOUND
CVU
updatable
Translation
tRFC
##CIDR
returnCode
##검출
##셋째
##실무
실체
의심
##기준일
Third
CLIENT
헬프
zSeries
loopback
fictitious
ODS
부상
##CORBA
사의
##qmgr
##엘지
사기
라이브
##연산
##MA
인기
KST
threat
win
resumes
Specified
nine
led
##Calling
##Generic
##급사
확률
printf
ptr
LEDs
##NAMELIST
IDocs
WebGUI
AMSD
microseconds
elease
originate
기다린
실천
비치
##츠
casting
sold
Injection
refreshes
##Plan
MQBYTE
Dead
CONTROL
##모코코
Channels
interconnected
participation
##시켜서
##scope
");
농업
##PW
##도면
Synchronous
##Will
##network
##console
Lifecycle
Signature
toaccess
##Throughout
RemoteQMgrName
iKeyman
AVG
fired
overriding
slider
notifies
wher
placeholders
dimensional
PCs
##아웃
eth
##버킷
##ROLLBACK
DataBase
Networks
Quadrant
##Complex
Europe
initiators
ADDRESS
##문서함
불합격
##소통
##TTL
늘
핸들링
하반기
나뉜다
##왔
##${
##month
augmented
무한
전적
cookies
perfect
조율
##YYYY
##Workflow
하신
##Conversely
shouldn
zoom
argv
QR
행이
MQCBO
루프
loose
##buf
PAYROLL
REPOS
JavaBean
MyBatis
preserves
veri
emphasis
덮어쓰
지진
##요율
##Invoke
leaders
PI
##봇
restricts
ccsid
내릴
##×
dialogs
##Increasing
Sources
##Publications
##Static
의한다
##RFID
하이퍼
##TIMESTAMP
svc
3000
##정수
programmatically
Look
##stderr
##일본
UTP
다만
instrument
Tracing
##According
##generic
##AREA
datagrams
_).
##COMPLETE
##유비쿼터스
Transfers
DRBG
ements
Ô
##68
##잠금
STORAGE
부가세
##각서
각자
배양
usedto
imposes
##map
중개
##집합
자릿수
Rank
잦
classified
crashes
ILinkServer
시트
웜
영화
##401
##CIA
절반
Libraries
Copies
잇
FILENAME
rear
##account
##TYS
SASL
thecumulative
##content
##차별
최우선
##현업
깨지
fastpath
utilized
descending
##광역시
특약
##BIN
누리
##채무
govern
MQSI
weekly
ServiceUserID
##Servlet
##SLA
##케이
입수
지구
##즈
전의
Chinese
favorite
##Child
Kill
Forward
##XX
정식
##called
##박물
하우스
Undo
Palette
Science
금일
MsgFlags
Wiley
AppScan
trunk
TimeoutControl
##䋸
adpater
AirPort
##MINUTE
##WebService
##근로
##진수
accessibility
bundles
awareness
##SM
strength
Valid
부도
콤마
##ILinkGet
##Private
##Disconnect
##LEVEL
predicates
이동은
TCPIP
incrementally
##Device
147
Federation
BATCH
이니셔티브
##Region
demarcation
##certified
HEADER
##ssl
Aug
##seq
##Dashboard
##complete
dc
##Tags
##sub
TODO
##앙의
평일
CertStore
Mar
CAE
##sharinggroup
##Applicable
^)
ecovery
coordinating
smooth
##보증서
##굿모닝
Magic
agreements
downtime
##>>
##확약
##재생
locales
toggle
##Root
혼용
재발
##policy
relay
##버스
소매
##Deploying
HACMP
detecting
##리눅스
SDKs
chunks
불러오
##시공사
Cycle
보일
Provisioning
alteration
References
QMODEL
Placement
extracting
폴란드
Unknown
책갈피
##지오
##LOGP
paragraphs
Berkeley
지상파
##ActiveGate
operty
reveal
##Waiting
캡슐
##룬
##기밀
Try
##Framework
##Shift
체크섬
220
남길
prove
##hostname
told
comparable
부동산
##interval
ALPHA
##handling
LANGUAGE
1208
zeros
##어다
ship
라벨
타이틀
##송기준
Amount
regulatory
John
Pharos
eye
totals
bidirectional
스니
##partition
Dataset
##template
diff
Rentals
degradation
explaining
접속자
넘기
##리자
##66
엔지니어링
##킹
Filtering
##대행
IPL
별명
##DR
##1300
면적
쌓이
achieving
weak
Databases
##TAG
##archive
xxx
##스키마
##Components
171
올린
##008
플랜
LinkPut
DEF
ssl
Echo
Ⅱ
##고침
CKQC
##Subsystem
부천
##097
MQMFT
IBMsupport
Always
##간행물
Formatter
##용시
##recent
Letter
##Win
##해질
공기
철회
readability
America
##Extended
##Diagnostic
인용
##매수
profiling
binaries
커밋
separates
##availability
IC
##대형
limiting
PMI
GE
순번
TIBCO
underneath
themaximum
##바랍니다
133
symptom
tail
deregistered
pressed
"$
##Pattern
Or
performer
crontab
파티
AH
SEGMENT
##엇다
일보
PREPARE
Executable
NCHAR
loadjava
dirty
진
가짐
##결
달라진다
im
##보정
실험
##150
labelled
mid
innovative
httpd
Concurrent
Apps
res
consequence
##2141
붙여서
HD
onyour
구축함
##Updates
Attach
Permissions
뉴스
surrounding
vital
생길
후보
df
##generation
Definitions
##발표
passive
##스토어
돌아가
subsets
RETRY
orientation
##키는
withinthe
OSGi
Expert
##amt
PAGE
##BM
Esc
MsgFlow
##STATS
##ini
알맞
##부족
차주
##Subversion
ofthese
regional
##Finish
cart
linkage
ActionUPDATE
##참가자
해양
프로그래머
터널
Allow
컴플라이언스
optimizing
validator
##사무
theremote
161
collectively
퍼블릭
금리
##ROOT
403
mistake
##지부
출력물
XC
수기
DSS
블로킹
interests
pushes
cope
deregister
SOURCE
##현의
Received
theyare
PLAN
Quickstart
Insufficient
PUBLISH
HPUX
thelocal
단서
##침의
InterfaceID
competition
SSLCIPH
##집행
당신
승낙
보전
megabytes
Federated
signs
포커스
##어떻
프로모션
360
FAQ
hang
manipulates
audience
skips
당기
##readable
setter
##광디스크
##speed
음
dropdown
##관광
##filename
##TRANSACTION
walk
##offset
Extender
##Subscriptions
mailing
„
Emacs
warehousing
TGT
selectivity
uctur
costly
UnitFlow
##권리
Flat
##자가
##여건
씩
CRAB
selling
thathave
LIBPATH
환급
항의
##빈
Blueprint
exec
##Allocate
##기상
소지
ELSE
##조항
seamlessly
##+)
체인
bundled
##Receiver
Materialized
##십니까
RESPONSE
editable
renaming
whenyou
##GC
inherent
◎
##83
ofwork
FTPS
MQMO
MQIND
##black
##갂
NCLOB
Speedy
operties
distributes
suspect
자의
##복호
모여
##공제
Leader
##과장
wishes
backbone
Player
##을까
occasionally
tailor
JEUSMain
치열
OutputRoot
spans
agility
수원
##Capture
##IIP
prices
##Google
##Tab
Queues
##MQJMS
##ETL
slowly
hope
reviewing
ComponentData
Although
##Top
hides
candidates
theoperation
Jeus
##CORE
lit
mature
RecsPresent
MQSTAT
##relational
##Mon
##종별
VARRAY
##there
##공식
비주얼
##노트북
tray
##Refresh
##DTTM
Delay
Comment
칸
uid
checklist
##DOMAIN
143
allowable
decreases
locating
힘들
CONNECTION
##ATTR
##위해서
##실태
Northeast
BETA
ref
regarded
##BATCH
MSSQL
채우
Networking
대역
sector
##듯
Receiving
theinterval
스토어
즐겨찾기
selectively
##MQAXC
LRU
thefirst
Filters
thereport
##addr
RCVR
population
personalization
##Android
##민
randomly
##디테일
##FIELD
EMPNO
##Obviously
Dec
WINNT
블럭
##부가세
미완료
##전개
##③
운영비
geographic
RDB
##Initially
outage
Force
##PCB
트레이스
누출
authenticating
escaped
wrapped
190
##경
가스
스키
스타
##Variables
opaque
##JDK
Federal
German
Built
주어지
largely
##103
주파수
##*”
영문자
logins
##an
offsets
##EXPLANATION
plays
##names
##심각
magic
CEO
##증명
##statement
선택기
SRMERP
excess
Unified
개인용
JDKs
HS
MQSession
shards
##DFD
지휘
HSM
파손
##VITRIA
##Big
launchpad
1200
signer
redefine
착오
##가동
##리문
theoriginal
##Moving
Subscribe
##Extract
##alias
매도
##Actions
##구글
##봅니다
##Portal
FAR
##characters
Communicator
##Importing
##Transactional
##BEFORE
signifies
WARN
him
Board
감
Compiler
Onepass
callable
##DOC
??
환원
unsolicited
SYNONYM
##ONL
Spark
Copied
##음의
IPV
억불
$(
##복수
노
Itanium
파서
##사상
요청서
##Average
본체
출발
DBPut
DevOps
##원회
Principal
shuts
들여
##Analysis
counting
##BEGIN
ATTACH
##폐
##Troubleshooting
##부정
stuck
comfortable
discrete
##오버
부로
##9999
Privileges
ATTR
Font
##화식
##Priority
ds
Ptr
##CLX
##intensive
Popup
밀접
##보수비
초급
연구비
좌표
##노인
##SDO
consulting
Inspection
##QIBM
TPM
무효
##tcp
##they
무제한
forinformation
Mount
142
##총회
알려준다
##생의
##미스
WHILE
subtypes
inherently
BLOBs
##67
##CCSID
dangerous
##매출액
##공동수
refine
##refresh
¡
사설
treatment
음악
65535
renegotiated
MQXCC
ConnectionName
News
thenext
truncate
invisible
PACKAGE
BSDSs
trans
Pricing
너비
CLOBs
ior
ActivityCoordinator
WebtConnection
##지터
evious
yourapplication
수락
한쪽
세상
##2002
##사용량
안심
coexistence
recreated
##parent
##Launch
enforcement
Blocking
##끼리
기업체
##자동화
##진출
IA
##Triggering
lies
##청자
백그라운드
##Solution
##재무
##처분
##Operating
붙이
##플
수백
Play
DQMS
leveraging
##rm
allthe
**)
suppressed
bringing
SDL
##JSON
##필터링
##화생
문은
decomposition
##res
allied
##찾
cords
Registration
advertised
##LETTER
ChannelType
deptno
plaintext
##NAM
##sexecution
SSP
##rhel
따름
##69
##커스텀
##전시
employed
PDA
##지적
Installed
##컨테이너
recv
##Side
형사
engagement
Developing
neighboring
cloned
##>"
##flag
##알
인사이트
Survey
##메시징
subfields
epoch
##child
substring
##한증
EMS
##TEXT
medical
energy
IB
IOP
타이밍
OUTFILENAME
165
aggregates
##QUIESCE
businessobject
스캐닝
MQCHARV
##queuing
ProFrame
TEMPORARY
timezone
Capacity
PSM
rental
stroke
fect
computes
onwhich
##피해
사무소
ENABLED
SYNC
종결
HBA
누수
시너지
inconsistencies
impacted
##권장
##Gomez
네이버
##올바른
##오늘날
경량
VisualAge
notbe
수퍼
관해
##철도
없애
declaring
환수
##WESB
gallery
##대역
인정받
##cfg
overlapping
protecting
시청
##INFILENAME
흔히
POD
##Shows
subjects
인근
##부를
##api
xx
pie
Leak
manageable
##Structure
getConnection
##배당
collaborate
##붙여
##스팅
그런
##TPM
##negative
stylesheets
therequest
##br
##3232
emote
##REMOTE
##Applying
Aggregate
청주
회피
Award
##TX
Generation
##Operations
Limited
##PQSG
나라장터
##QUERY
스코어
Functional
금전
sFTP
감독관
WebAdmin
reconfigure
공정거래위
##개인별
##범죄
##DC
1970
ENTER
##Detailed
augmenting
##Profile
##Fix
##Opening
April
272
##<->
##전반
Social
USA
Constraints
Pointer
edits
todisplay
happy
Marketing
##PER
##잡
instanceof
Fill
##per
improper
##으십시오
DUT
00000404
pCipherText
토픽
Ferror
##−−
##근로자
##UUID
##계열
BRMS
tight
infrastructures
unacceptable
메세
##Previous
##ACCEPT
모범
comprised
theenvironment
dislike
지위
##Contents
##8787
걸려
##관례
시계열
UNKNOWN
assumption
violate
##당업자
Analyze
Bandwidth
{@
테스
쿠폰
spending
##facility
##Cisco
##Native
##저작물
##cates
##타워
##CLUSRCVR
##=/
cURL
Same
389
Assurance
arrange
##Exec
SAPGUI
MFA
intermediary
##CSQO
##dp
grayscale
##Found
IDENTIFIED
RESTRICT
##remote
똑똑
Logger
##deferred
weighting
##=＂
##Persistence
##Proxy
responsive
산술
##85
##책
Renewal
##해지
교류
##Quality
통신사
flowed
Partial
170
118
pid
##login
##보조
칩
toconnect
##join
unresolved
114
정해져
claimed
Done
350
##sw
PROTOCOL
거래처
Prefix
##svc
proactively
##Self
##읶
##김
Trading
##Adds
##Calls
rewritten
Webstart
violated
##Console
leaks
Secret
went
##Connections
사업단
Discovering
flash
##decimal
affinities
##BACKOUT
##DEPTH
bend
ENAME
scott
"+
SMDS
'**
다름
##법규
##례의
##LIB
layouts
params
##대우
755
플레이어
runmqlsr
##브
persistently
mention
##classes
AM
##option
정품
조속
SO
inconsistency
payments
reliably
cpu
##해왔으며
##Among
##Providing
480
dial
##음성
딥
##existing
youshould
Selecting
Caching
precedes
##Temporary
water
##People
취업
ALE
SCCS
geometries
Br
forcing
##장시
##ACL
접속기
##협
##Gentran
TmaxSoft
Transparency
관련자
##UCS
IFM
##기호
##물량
CN
##prefix
ambiguous
기일
isrunning
staging
##Everything
Desk
actionable
YOUR
##Account
microflow
##Unicode
cmd
말씀
##신호
##IBK
##ILinkPut
Sheet
##Listener
uniqueness
##Perhaps
Know
##Distribution
ODL
InterChange
nameof
Packed
##word
iPad
alters
##드리
접지
RESOLVE
basically
sendlen
Audio
TUXCONFIG
polygon
ExitContext
VMFS
checkpoints
dbm
##관할
##수준의
연구원
EMC
인트라넷
manifest
capital
리더십
EQ
abbreviated
LINUX
##건축
professionals
enforces
157
nesting
FileInput
##사원
SPI
ROLE
##공격
지나치
여지
##Bit
reserves
살펴볼
##drop
149
Press
##조건부
Visualization
등도
##개설
"(
impacts
##Lab
타스
Utilities
anerror
programmable
AccountingToken
confusing
indoubt
IPaddress
Alpha
Most
Python
##spool
willing
DECODE
##통관
##자신
MASTER
AppMon
TPRETURN
##텁
ectories
morethan
Staff
거래일
쇼핑몰
ONE
##여야만
##AnyLink
##연관
만나
nil
##values
Putting
##Nothing
##관은
asterisks
stating
octets
뒷받침
##도서관
선진국
나갈
BC
recurring
1521
##，
219
선점
##프로세서
중입니다
##Login
##Metric
isrequired
##Administering
##UOW
realistic
##Min
obviously
releasing
clears
가독성
알려져
##information
strlen
##Align
COMMAREA
EXPLAIN
Closing
WCF
Choreography
Retailer
theevent
Peak
##정당
필히
부서장
LC
##II
iWay
LPAR
##Initialization
##게시판
##투명
##본사
대외비
##・
compromise
550
separating
##해킹
입지
##사기
급격히
강의
144
##numeric
players
##FC
##Fetch
##Processes
##IFRS
Locate
superclass
201
##원활
띄
##Tier
렌더링
가구
Into
Allows
IOR
##Looking
reaching
##dt
##FORCE
apache
##MQPMO
힌트
Secondary
eaiap
소수
CSQP
##SYSP
##pm
##벡터
##odg
theOperational
pin
contributors
calculating
yoursystem
용지
##순환
##조달청
automates
아마존
장시간
##common
주소지
##messages
익월
Paste
##Stream
Materials
thetarget
##페이스
iterate
rounding
YEAR
Notify
evolution
official
##Ctrl
COA
php
drilled
##명시
##disk
##외환
현존
##페이
European
깨
##’:
SMB
substantial
bodies
varchar
stderr
MQOT
Continuous
Cassandra
prepares
DISABLE
anobject
##대주주
공통평가기준
punctuation
coarse
리얼
##Viewing
IMMEDIATE
위로
##DMB
dequeued
DEPTNO
신임
Cyrus
OpenConnect
cataloged
나옵니다
##뒤
##해줍니다
대장
탁월
##WebLogic
anymore
utilizes
##DEPT
##Push
equivalents
remedy
면책
##돼
intercept
OMVS
independence
##SCM
프라이버시
파일럿
##출물
ML
##밖
##example
Assist
reproduce
##last
협회
증권사
promotion
despite
Act
Updates
##소유
MVC
##소방
FLAG
##TA
North
purely
ofyour
octal
destructively
##program
워드
##Forms
##FIPS
##band
0600
Snippet
971
mqGetBag
##BUFFER
HOBJ
##Citrix
703
notnull
##testdata
##MQHOBJ
GatewayScript
##LOCK
##files
##=>
##대리
##지사
##74
runner
##FATAL
투
주어
실비
Relationships
##schema
나이스
turning
무응답
UMS
건당
##Dead
충실히
glance
##Provided
##ROMs
디맨드
162
##).
유로
##고지
##수요자
##수출
complement
Smith
purchases
##의미
focusing
deactivate
Cell
##Comments
206
##동생
공학
##Oriented
틀
펌
##일지
##의뢰
판
realization
##패스
##개방형
formore
##AQ
readily
Criteria
##팁
Webserver
##Notification
executive
Recording
##CH
react
##REPLY
##purpose
science
generalization
##파생
##Acrobat
##액티브
리뷰
가리킨
##신단
OC
##Parsing
charset
requeue
##Narrowcast
CLH
##OHOME
##xid
##$_
INTYPE
ORDVideo
GLOBAL
수취
무방
현저히
도서
급
positioning
VB
speaking
LOCLADDR
iLink
##image
##손익
유치
침체
canalso
이란
900
MODIFY
hear
defaulted
logos
파괴
무역
⇒
사태
지문
##RETURN
##선처리
폰
fastest
zipped
installver
Calls
totally
##추
STOPPED
저축
차입금
##납입
Split
##깁니다
##AR
##404
##코리아
##뱅크
##mand
Migrate
atransaction
PCFs
##provided
##HIGH
anexception
Shutdown
responded
시세
encapsulation
##part
##May
scopes
##티스
overwriting
낮추
SUSPEND
LINE
머리글
MsgSeqNumber
Policies
mistakes
COD
INI
0200
USENET
multiply
shortage
forthis
forecast
출석
'{
창조
환율
탑
##vtadmin
피해자
##칭
Many
##platform
##Well
로케
##광
##flight
stacks
0000
쌓
갈음
진도
##Uninstalling
remarketer
아니요
ancestor
252
Displaying
##Shut
deployable
pertinent
##97
응대
freeing
Declaration
impose
degrees
Rich
fees
141
Interactive
기준일
mea
WBIMB
rise
오디오
Tech
mass
depicts
allocations
SQLException
LOCK
ant
compose
##Graph
##작업자
approve
MQCFIL
##==
##TE
##ClientVantage
rpc
##WebT
stor
ebSphere
tickets
##%),
##pool
덧붙여
##행정자치부
##도서
EAL
##Nevertheless
Timing
fresh
##Release
여권
Banking
동종
옮겨
##랩
##Ask
neighbors
##Fill
Boot
##벤더
##강제
##77
Mastery
126
consolidated
##Technical
explorer
레포트
##demand
REMOTE
conflicting
relations
##ADD
##대해
##OF
##sys
MES
닫히
##reg
##문명
selective
##>).
collapsed
satisfying
Badge
Ping
irrelevant
Blank
MQWDR
##Though
배선
Sold
drawer
통관
##Decision
carrier
CONN
BWMAGENT
StringLength
encrypting
##reco
DataOffset
##TOE
TraceRoute
ITSOElectronics
ectly
##ciently
##BAPI
##입시
##AUTO
##육
둔다
종업원
##노
느려
Apdex
##육성
쌍방
교재
주전산기
tpstart
##PASSWORD
submenu
지배
##유해
Viewing
decrypted
servicing
transported
slight
##Administrator
##DEAD
취지
도급
versioned
##512
명과
leader
phones
problematic
directs
UX
##인당
Sort
##Think
grids
RUNNING
Davis
Reverse
##우수
March
mm
frontend
industrial
##스레드
##Clustering
관해서
instr
trips
defobj
##Aug
월보
##TRIGGER
Stylesheet
thestatement
paged
##nic
dba
##┃
mcd
##튺을
##Lock
hr
##GHz
##220
affiliates
LOOP
BUS
##EBCDIC
##부천
unlocked
aim
MERP
구제
##방범
##Planning
01962
Electronically
##Feedback
sequencing
gave
clones
포착
##보안관
화물
관세청
##디바이스
도전
##결국
ST
tolerance
##success
263
##ONLINE
Major
netstat
##production
cleaned
##non
신용카드
##ADS
Facebook
##청구서
hello
##250
centrally
##공백
breach
##Bound
JWS
##SVRCONN
##Definitions
##Collector
goto
ona
argc
원상
Expressions
cooperating
##completion
##Delimited
솔
journals
VERIFY
AUTHINFO
배수
STANDARD
##DPOD
gcc
##지원금
ub
bucketName
theperformance
##Retrieves
experiencing
##Making
themost
worst
러너
##PARAMETER
Critical
##소비
##책의
168
Draft
backplane
heartbeats
amq
STEP
##에선
##DVD
##꿈
부적절
SCADAInput
coincidental
소득
연차
##내외
##대회
갈
exchanges
177
##프
##전문과
Webservice
마일리지
Empty
##해짐
국유재산
ING
가계
회의실
##peer
대입
##양의
마침
namely
##Checks
##ner
##operation
##Establishing
재현
band
Splunk
Represents
pm
##악
##구문
##FIX
MPP
interrupts
disadvantages
scaled
##SSD
perfectly
edges
facing
IPTV
##CORREL
BLOCK
##Mediation
agency
CMDSERV
MQEPH
setjmsenv
fo
rlogin
Adopter
BPOs
KBs
isavailable
thenetwork
장단점
국회
된다는
건별
##국정원
enhancement
리서치
##Instructions
breakdown
##단점
##SC
PDS
##개국
수질
##노동부
"/
##최고
theoperating
##타가
++
entitled
Startup
￦
JAAS
무리
##액션
##유의
##배출
launching
185
##Array
EIMS
offices
snippets
evidence
discussing
##화학
##연의
DBGet
번의
hits
PCIe
analyses
조건문
Enables
thesubscription
##Exercise
WaitInterval
일본어
대다수
intothe
youneed
avg
##doc
Wrapper
스탠바이
프런트
theorem
##tmax
주최자
##OZMQML
##0610
harder
NE
##ENDMQM
라우트
OBJ
CONTEXT
QL
##배부
##TSF
ensur
##ush
nothave
노란색
넓히
##HW
##커머스
"]");
natively
art
시킴
##Organizations
extreme
느림
BXML
scales
PA
만료일
책임지
##configured
##
theprogram
##816151
quicker
직위
##createconfigurableservice
맡
##태풍
expressly
TIMEOUT
미처리
Multiplatforms
##cdrom
269
undone
##순이익
marketplace
warrant
##획득
##FTE
사우디
##255
QueueManager
Has
resynchronization
soap
Unexpected
##DBIO
reserve
FixPack
pipeline
SMO
##="/
env
dots
stereotype
slices
장운영
ITS
registrations
Linear
Macro
serializable
##token
##SEGMENTATION
##COMMON
showed
##Jul
Derived
Palm
tmboot
판교
BFILENAME
Inter
구한
격차
##how
##sales
##Logic
##팔
443
##접속기
##프린터
인수자
##Label
theproduct
isinstalled
##depending
기인
216
importer
##UEM
powered
하지만
##상주
##방문
##예보
휴일
##환자
##무역
##유동
충전
deploys
ConnectionManager
BOOLEAN
151
concatenate
195
##끝
##Human
##range
smit
absolutely
Buses
전시회
##통상
##PS
나타낸
##WID
VMWare
geographical
전수
MapReduce
##Reset
##Defined
##Perl
elementary
##송신자
procurement
Hint
DDname
##encoded
printable
tapes
compiles
DEPTH
Panda
estor
thenew
YYYYMMDD
##자유
##other
##location
slowest
CLUSQMGR
DQM
Normal
##def
지득
곧
Practice
동양
education
Smartscape
trivial
155
optimizes
reception
sufficiently
Secured
ejb
구상
내년
##주제
##프레
덜
consent
locates
##consuming
chat
##Audit
##파지
Credentials
##references
##색의
FileGet
텔레
Period
Telelogic
thiscase
Accounting
JDeveloper
Hosts
##Disable
paired
bydefault
fly
pdf
##MSGS
abbreviation
ATTRIBUTE
##first
USSD
Geography
baffle
EXIT
MQCFIN
늘려
##STATE
##spec
authoring
characterset
0000000
##Section
##Receives
CASCADE
pPlainText
##POL
POA
ecor
##Analyze
erase
recovers
##외주
##따른
##데몬
지양
친숙
이윤
부응
##투
##Shell
communicated
Bigdata
##Loading
agile
orderly
beneficial
runmqtrm
##Automatically
alongside
##main
명단
상계
##RO
떠
##Websphere
vulnerable
APF
Deleting
converter
Disconnect
145
##다이나
본질
여타
～
네이티브
##블록체인
##캐
Offline
Choice
siblings
일어난
##LISTENER
정체
##탈퇴
##will
volatile
##⋅
##휴지통
CSP
##VALUES
##Initiation
##connected
preliminary
##MIN
assertions
pipes
Tagging
bounds
Regression
uploading
약화
##자식
guess
##exibility
ServerGuide
##release
세대
EDW
##Controlling
##WAP
qsg
DoS
##Prompt
##CALC
##begin
DllMain
##typ
wmqfte
##squeue
statistic
tomake
thisinformation
##BRX
하천
의결
##쟁의
##71
##재단
##기계
원리
근로복지공단
AA
wmq
launches
##Identifies
##Hconn
stress
tick
##engine
##역과
##초과
균등
##철수
##라우
멸실
breaking
137
##모형
바이오
##관심
##연수
Structured
XXX
캐릭터
communities
##Individual
finite
156
opt
타켓
##조체
##리더
confguration
LTE
RFCs
TextMessage
ADSI
AlternateUserId
187
INVALID
만기일
##테이
analogous
theagent
inquires
##Left
wall
운행
graphically
##FILENAME
er
UDPs
##tpreturn
nearest
조명
##RESET
spacing
ALLOCATE
통장
GMCONV
incarnation
##Removal
myqueue
ORDImage
Σ
typeof
진술
##73
서약서
##임금
윈
Retail
TOPIC
시급
passphrase
"<
LEVEL
userID
##관간
실물
optical
비록
##전역
인천
##항공
펼치
shouldbe
triangle
FLD
##net
Dev
##red
ships
##contained
##관찰
공중
customizable
fulfilled
부진
ONL
##txt
RELEASE
##=:
##가스
Dependency
##Form
데모
##without
aimed
##SECURITY
thecorrect
statically
confirmed
Exec
회전
educational
##Subscribers
MessageType
EarthWeb
interoperable
Struts
##
vulnerability
AUDIT
roster
ImqBoolean
wml
##Ther
ofmessages
preferably
띄우
Small
##Office
개략
##영리
##비와
electronically
incorporates
Modifying
snap
전액
싱글
Dummy
##민의
##향의
구애
confirms
alternatively
Cipher
Compile
##gt
##Role
##jeus
##Third
CLNTCONN
254
federation
##행실
내보낼
Backend
##Reverse
BWMAgent
166
MQStart
-)
PHAROS
##Nov
Guided
ini
ack
##Encrypt
출현
discussions
##Records
##Elements
pub
##Nested
##525
마
PutTime
Schemas
##마당
터
##"),
##salary
LRSN
##MEMBER
COMM
BWF
MDENC
##2102
bounding
appli
BYTES
##bucket
RTCP
averages
acknowledged
##Begin
기명날인
총원
##성함
##연
##보전
징구
##machine
ext
experiment
##MQTT
GA
Attachment
matters
##거리
베스트
갑의
위배
WBRK
clearing
Licensed
부인
##퍼센트
##MOS
XMLElement
odd
##Profiles
139
##Alt
송금
pressure
subcategory
collapse
Listening
1993
worse
##소수점
전표
세미콜론
Short
인포
##LABS
usefulness
##AFTER
Percentage
stripped
contextual
Bad
Which
aconnection
rectangles
charges
##Category
Jun
MappingNode
##Analyzing
lift
##Serial
formatter
##025
##UNDEFINED
잠시
STERLING
Macintosh
mesh
요르단
brush
INSTEAD
##getProperties
##ImqString
algebra
RESETLOGS
MANUAL
##재무제표
교정
응해야
##RM
Paths
Bit
##Ideally
Friendly
##Window
금품
오름차순
##nulldata
Mbps
GDP
의지
towhich
163
disconnection
mortgage
loadable
house
##대통령
산하
##증
journaling
gained
##ent
##Year
PMR
tpmC
##○
CH
playing
강남구
둡니다
회색
specifc
알파벳
starter
##슈
##립니
##나타납니다
WebDAV
producers
된다면
additionally
inaccessible
##pass
dollars
##seconds
lineand
themessages
Selenium
슬라이드
##화폐
##Unisys
CONVERT
##Binding
unquali
##주석
manufacturers
hypervisor
tie
##GERP
##%"
##CSQC
##SDR
substitutions
Old
Sept
sounds
##공람
cc
uploads
MQDistributionListItem
##TCPGW
##—>
ORDAudio
Residency
appr
결론
divisions
Threshold
PTZ
intention
기산
##전통
##플러스
encrypts
##’-
##개인정보
##ITA
사상
subtract
Child
occupy
Mainframe
남겨
picked
##jsp
##은지
그린
##칸
공략
도형
릴리즈
육안
##FileGet
##JTA
CES
##대전
##realtime
##79
reachable
DOWN
##Much
##벤처
##드라이버
##행문
##_[
##face
intersection
##throws
TopicConnectionFactory
Stateless
Raised
혐의
bay
SATA
DEC
TPNOTRAN
##Partition
Indexes
discarding
##rcvbuf
##lsService
##RESULT
CCWARN
chroot
올바로
##ENTER
ICC
PDU
localqueue
BookingServiceProxy
**';
PATS
본래
XQ
##거래법
호스트명
##커넥터
##Very
cities
##시뮬레이션
carrying
Revocation
Authorities
ONLINE
##채택
아이피
##웍스
위상
##uninstall
rejects
223
197
##통화
WARNING
##침입
급속
##대에
증
##체험
투자가
##오의
계기
##소재
seed
##위하
##Convert
ResetContentDescriptor
singleton
##boot
informing
navigating
##차이
##Too
파급
뉴
에이
RADIUS
단속
##해졌
##스타일
technically
##87
##허락
Accessing
##Forinformation
theproperty
understands
##용자
Updating
##PHAROS
##Despite
Here
Applet
legend
theresponse
dashed
RedHat
shapes
##식수
##거래소
PER
요양
DTDs
##PaaS
INFILENAME
struc
alphabet
MACHINES
PMML
##Fortunately
operated
SKIP
전공
Tester
gigabytes
pivot
LT
##0300
##IA
downgrade
reasoncode
##Wrote
에디트
Almanac
ough
thetime
thisparameter
##hour
vast
balanced
cores
##추정
테스트로
productive
AG
Dialog
mirrored
말일
도서관
isdefined
Threads
Deploying
ear
##농업
ora
중급
fifth
##CHARACTER
이기
##CP
NIST
##most
manipulations
##원천
입체
##록과
missed
확신
염두
Icon
repeatable
satis
##xes
fragmentation
575
##과금
constrain
adapted
Calling
##Offset
뺀
보였
interference
annotations
fraction
French
##AD
##면적
취한
여성
일으키
MQSUBRQ
##UNKNOWN
##AUTHORIZED
##CMS
##loaded
speech
Liberty
ESTAE
##Highway
tpinit
modifier
##Inquire
##836
##FILES
ª
RFMs
##CheckCallResult
##ict
transmitting
requestor
Balance
대통령
사용인
##모
##외국인
likelihood
고려가
221
감축
불문
simulated
가트너
세관
##MP
##진의
Excellence
##둘
##명명
청구서
텔넷
##Row
ISMP
discovers
TERM
nn
##Available
Expand
##천억
##용성
손익
##Gb
##일과
##111
RollBack
Tel
됐
MQZEP
MQACH
##dynamic
ICF
iterative
visualized
##Especially
Mappings
Why
Partners
peripheral
Signals
##help
전시자
ZETA
##남
##Negative
PSP
Retrieval
##IE
tms
forcibly
inappropriate
CSQX
##inetd
RFM
##잉
MQeInput
OSE
##CONSUMER
CMID
eMQ
asdescribed
miss
##Fast
serially
UserData
보관함
재료
##등록증
윤리
롯데카드
##증필
##IPS
LANG
superseded
Arguments
flagged
redefined
##Topics
NEWLOG
PEM
setmqaut
Adaptive
##LL
##Receiving
181
forever
decode
railroad
eclipse
##min
부르
##사진
LCD
casts
##REPLACE
<>
##be
LOGGING
ADMIN
##Per
freeware
##cell
##Bus
##-)
assembling
Tandem
##바로
##단기
Gigabit
##360
수배
Destinations
ch
cannotbe
tunnel
aboutthe
executives
Cases
##전이
RESUME
ARP
Matching
##레
TEMP
##NPS
died
##procedure
Locators
pollable
lar
kernelthread
eceiver
##Never
HIGH
##채용
입각
##그룹웨어
Superdome
##enter
Accounts
당초
싱크
laptop
억제
##xls
납
유가증권
##EXECUTE
computational
191
IPCS
##lt
지하
워크스테이션
대상물
##delimited
##CASE
##World
DAY
켜
SOCKET
lookups
delimit
OWNER
비하
subtotal
fetching
플래시
##마련
컨퍼런스
thatcan
Tests
세밀
CO
KR
Smarter
##jdbc
Converting
##interactive
responder
##Entity
accompanies
millions
Realtime
Ready
duringthe
주당
##Inside
RosettaNet
전술
Alternate
##8441
ces
CSQU
##CodedCharSetId
replicas
LGWR
##SEC
dissemination
응답자
DataStage
##사이드
MapMessage
REFs
ReasonCode
디스패처
efer
tends
##자치단
##시공
##체가
##실습
##테크
##직무
끊어진
Baseline
picks
##topic
##WML
##Hub
##Home
맞출
##EXT
##hoc
##Partial
Typical
iscreated
enhances
confused
Importing
##마켓
##환의
##APPLICATION
##할인
스캐너
OSS
##대수
Ship
조각
loses
bypassed
erroneous
MONTH
##예금
websites
Edge
##Recovering
Learning
보도
##Understand
질병
footprint
TC
DBApply
바이
##컨
##최적화
##nm
##runtime
Hyper
toprovide
부와
hiding
##coded
CE
##","
architected
SUD
CLR
compensate
Sysplex
therequired
Rendering
abc
invalidate
Determination
hundred
##MTS
EventBody
##RCVR
##Central
##글자
CDATA
dealt
375
##문과
Inputs
##NXACOMMON
tenant
##XPath
camera
##applid
MDMID
##º
XAER
HFS
fteCreateTransfer
INITIAL
##workflow
SecurityPEP
cvpb
법정
##연장
입사
부대
yyyyMMdd
biggest
tidy
IETF
OU
##한화
기명
십
옮기
##®.
##Brokers
253
##1234
FileOutput
##160
unspecified
수강
##소득
공항
##중화
##개년
계절
184
##피
저희
adjusting
Age
##’;
##Items
##그래
desktops
##sized
DTC
heart
##무엇
val
javascript
##올
##수입
피드
##증거금
Phone
지에
##브이
##절의
##Entry
acommand
Helper
##REFRESH
difficulty
132
136
##xa
ExitReason
SIB
durations
stamps
##make
burden
tuned
isreturned
포설
##560
##대개
##build
multiplicity
청크
##UDDI
##0102
fulfillment
##타의
##소비자
metatopics
INVENTORY
SAA
Specialist
imagine
CSQN
##EIS
##기년
0000001
##2058
UBBCONFIG
모서리
AppleScript
increments
철도
##고정
제주
사외
##Sybase
##current
partof
##우
##타사
##결론
DIS
Automatically
orphaned
##windows
##이자
desk
##Statement
Trust
Behavior
768
dash
exceeding
##top
##auth
배달
바뀔
배터리
iterations
subflows
표지
categorized
235
##REPORT
222
##머
##STAT
충실
외부망
##하우징
모아
포스트
##했으나
##090
무인
Readme
callout
pooled
aremote
reservation
PUTAUT
##MQOO
dumped
##CLUSSDR
신청자
willnot
MessageConsumer
theprimary
##req
skill
##용인
##750
whichis
##옴
Debugging
behavioral
캔버스
##합니까
##불법
##Dec
dispatching
##COL
##BINDING
##EMC
DataBlade
GOTO
KAT
##NAMES
철근
jeusadmin
VLANs
uS
percentages
##License
##소송
Switching
inefficient
importantly
autorun
##AppServer
##취합
연령
##전산망
175
UNS
##연기
unchecked
농
발효
식품
usedfor
subscript
myProc
exponential
능률
견고
##후속
Orchestration
afford
##year
emacs
reusing
SD
##실사
DAO
##컨텍스트
Sell
지닌
페일
##카테고리
오늘날
얼굴
##로봇
andpassword
unsubscribe
seethe
들어올
sleeping
Escape
그냥
cics
stacked
notsupported
Alice
##Columns
종류별
포럼
배관
불능
##원이
##Steps
##col
Vector
exposure
Initiator
1234
intensive
Workplace
WLI
BMS
Predictor
pushing
국정
터치
##MQCIH
XmitQName
##Competitive
MQPower
Containing
territory
타발
offending
sudo
##NORM
fsck
pOutputText
MATERIALIZED
##kB
##BSO
##rights
CMYK
ConnectorRep
presenting
RFP
강사
##직
쓰레기
faces
lengthy
컬러
generalized
단의
";
##징이
UPS
하중
##안랩
##탁의
characterized
##첨단
맞춘
asfollows
MC
모코코
reordering
instructed
##SDK
NOTICE
ITERATE
##주식회사
Translator
proactive
##Includes
lie
ANT
##EC
담긴
##Draft
CMN
재배치
거점
predictions
##wsdl
##약관
##NMS
정해집니다
ver
Lite
##guring
anyother
pathnames
setto
Directives
youto
##율의
##신한은행
MQXEP
MQAT
ㅇ
##rule
##ignore
ACCESS
##Represents
##attributes
##Workload
##named
경합
ASYNC
234
##QTAT
HAVING
##HY
HASH
LAB
##BServName
ED
glass
##break
##ISFileSize
##①)
ANALYZE
eason
optimum
transmits
정치
적법
##규
##Wizard
간결
PoC
증명서
lacks
##proxy
dspmq
Commercial
eAI
바라
바라보
CSR
##DDL
##연체
iii
comprising
##약정
##조작
사무관
exposing
grammar
ids
265
badly
exponent
qualifiers
##Correlation
넷
##연간
규명
mobility
랜덤
피할
시큐어
thecontents
##wise
RemoteException
##MQPTR
Governance
##을수록
침투
inject
aswell
contributions
blend
Exercises
##수원
적립
extensibility
##ple
##types
Could
##Feb
aliasing
##BC
##이과
enrichment
불입
ODVER
Division
Icecast
sectors
LE
SHOW
hadoop
##iRetCode
REQUIRED
HelloWorld
##ADDR
remotequeue
##recover
디비
IaaS
강
##력
##UML
##장점
Stateful
answered
Between
coexist
IVP
nonexistent
초반
##을시
##tag
프랙티스
##위반
thespecified
orange
SOAPInput
Alter
##항상
편리성
관측
##조성
엄청난
##폭
##Problems
SECOND
BETWEEN
PPP
banks
##GW
Debugger
Faces
450
##friendly
273
Gets
프랑스
##크로스
밝혔
VDI
MT
정밀도
##MARK
takeover
Entries
##valued
toensure
campaign
##Arguments
cleanly
##CorrelId
translating
Diagnosis
unload
Instructions
MBeans
walkthrough
Keys
##립
##expr
sup
pictures
arc
applica
2147483647
##Variable
##파티션
waste
math
##STORAGE
##HCONN
##bits
##Basically
reconnection
nroff
Datatype
##Decrypt
TPFAIL
##pbszUserKey
messagedescriptor
##¯
globaltransaction
Yantra
kernelthreads
##Media
개통
위원장
분해
합한
부수
ok
compete
PARM
##Exits
##Maintenance
minimizing
##RISC
unix
##맞춤
##Controller
##변
##Setup
ensurethat
unpack
\)
Purpose
체납
강한
ofan
American
##POOL
##분석기
##ISC
desire
1500
게시물
MPower
231
combo
폭발
해야함
SIP
Timestamp
시켜야
##밖에
주무관
danger
tax
butthe
##Apart
thedynaTrace
csh
theend
Configurations
Reading
##im
##원래
##채의
Float
##OP
Coded
핸드
VA
circuit
lives
##formatted
##선도
단락
letting
bootable
TAB
785
MONITOR
passticket
##internal
voting
ISSUE
시그
야간
immutable
abroker
PropertyGroup
Tripwire
QMA
CRS
oups
eady
intends
##lenames
##지불
싱가포르
추
##최소한
##국회
##올리
기구
인접
##였음을
Share
reasonably
##Email
##UserData
Customize
detach
##UNIQUE
437
##CONFIG
스냅샷
Syslog
insensitive
##Tasks
##cert
##수사
toan
파란색
##족
partly
XOR
##알리아스
Growth
##매입
Determines
##설문
##적정
##지로
##간단
##ASP
Caller
##Could
SF
##coupled
토요일
299
DCOM
##INSTANCE
corporation
superset
Suspension
checkout
신주
##매일
thestructure
##이럴
localFileName
correctness
inverse
clips
179
##2394
##Upsert
ServeRAID
retaining
chl
ES
acted
##nn
ActivationSpec
classloader
##Ad
SNAP
##8859
##SEGMENT
MQIMPO
boots
abcDEF
DESCR
대외연
MythTV
xterm
##Sycros
##INHIBITED
Telepath
metricis
jobswere
ead
##XOM
ograms
dividing
invalidated
overwrites
spanning
income
FATAL
NETWORK
Scripting
Driven
thereof
CFRM
TARGET
##inc
##도난
##결산
−
##초당
dictionaries
META
MQADMIN
유망
최소화
##～
항공기
##1998
##달의
가족
수사
첫째
##패
invoices
##Groups
##True
##WHEN
CTG
##INT
fixing
Mandatory
Payment
Initialization
267
al
이동식
##BIE
##정해진
plot
##삽입
##입출력
##FilePut
DCRUM
##commerce
ERR
thisdocument
##CM
152
runmqdlq
러
theexecution
##Classes
##Reading
impacting
thelength
##device
ENV
구할
##89
linguistic
courses
Controlling
##RAC
##IAM
##MySQL
HAS
##9011
##분합
##TPSTART
##Ⓡ
##calc
##media
errno
##FAILURE
##CMN
spooled
structs
TryCatch
MULTI
grantee
oe
Photoshop
STATCHL
##lang
실용
##집단
260
기하
시방서
802
##bserv
##CSV
sourcing
자리매김
Disable
대규
##해상도
queueing
ll
responsefile
Both
containsthe
물가
usernames
derivative
물건
##표출
부실
생존
Tape
##국외
아예
##Validating
DataInsert
propagating
Listen
##노동
매수
literally
uninstaller
Ignore
##IRUGO
발췌
기재사항
##대표자
932
##Amount
spoke
페이스북
##큰
REPORT
streamline
총계
##RECORD
JWE
basedon
gathers
emulation
coordinators
feasible
MQXF
##그것
상향
Too
nolonger
theprevious
complies
##ready
disappear
##Architect
##차후
다년간
##호환
MEA
##Scheduler
##Relationship
##ber
predicted
unrecognized
##해집니다
##Stateless
內
simulations
Deregister
Candidate
##JAX
##SELECTORS
##버네
##branch
##outbound
Headers
따옴표
haven
Characters
groupchat
##퀘스트
joint
포드
LIB
Recv
PCTFREE
CoS
TPEV
PCT
eceive
Figur
additionalinformation
conclusion
124
thanthe
concentrate
##활
상관없
UNIT
홍수
명백
정관
##아의
적인
Deployer
bases
##do
restrictive
copybooks
##스캐닝
##share
취해야
##Stopped
별다른
어려워
##건과
인지도
Postcards
legitimate
167
158
224
cleaning
##us
잃
아닌지
forall
TPNOREPLY
출하
Relational
Mark
subfolder
##롯데카드
##Merge
Construction
고안
KVM
##펙
##스로
396
##자기
unencrypted
##DISCARD
Keeping
toyour
speak
tochange
Images
stale
scrolling
gaining
labs
##명칭
masks
##JCA
Anylink
##my
##Declare
연합
##컬
SEC
MQXCLWLN
CNT
Middle
##layout
##∼
##0200
ProcessName
Sametime
Threaded
FREE
Leveling
StrucId
ARCHIVELOG
areavailable
predictable
resynchronize
##Deletes
##짧
##주어진
##여서
##동이
폐
Journal
스프레드시트
가하
벤치마크
누가
seek
##product
##Lets
레이
##RESOURCE
##Born
죽
거주
OpenShift
##인도
##selection
##timeInput
##Others
230
separators
Green
##특례
과목
인벤토리
138
##생태
##협정
isset
explanations
##Invoking
RETURNS
개로
engage
ultimate
visitors
##Welcome
153
##저명
##부담금
##making
billion
오히려
##final
원할히
##타부
##캐쉬
##Cube
올려
##경과
⑤
queueManagerName
Orders
wiring
##FG
##House
Segmentation
organizing
thatcontains
tospecify
unnecessarily
측정치
supplement
APPLICID
inadvertently
##주당
deviation
##cut
usability
##Image
Scheduled
merges
##주주
evolving
키움증권
havethe
accounted
바닥
지워
##=‘
CLUSNL
Appl
MQSETMP
establishment
MDFMT
senders
vim
##CONTROL
phrases
##2130
##CHANGE
OPS
sed
##진료
BPD
keepalive
Xandros
aN
##global
pwd
bat
##WARN
##Coding
##6600
##동양
##JEONSONG
##부장
##LF
암호화
warn
##Determining
운
##=[
전쟁
Unitflow
Checks
밀착
##스럽
optimizations
292
numbering
##NM
폐기물
##코로나
shrink
134
upstream
VAR
"-
##Cell
faulty
※
번이
표면
예금
##Signed
##Employee
relevance
setuid
valueof
thesecond
##cult
##Tool
##이해
XAResourceManager
contacted
quotas
MQAXP
##주서
disc
logfile
Throwable
Bob
##Engine
confirming
##menu
equivalence
Uses
##기말
##컨소시엄
theproject
##시세
imple
AFTER
회귀
##Subscriber
Redbook
movies
애플릿
콜렉션
engineers
prompting
00000000
wraps
##argv
##limit
nonnull
wasused
##Ⅳ
shipment
##BAD
콜백
##ImqMessage
setProperties
afterthe
##수도
##브랜드
##하량
##희망
SSE
##강력
Notice
혼동
Latency
Compatibility
strmqbrk
##MQCD
elect
##Minimum
##당신
##_”)
플
##누출
commandline
tostart
appeared
Fully
##Lines
##반시
##any
본점
의류
rack
핫
##주사
Coordination
indices
ASBITSTREAM
REPEAT
##John
##bank
의존도
enum
281
##쇄
숨겨진
##재등록
##빈도
##편의점
##;)
수석
##포시
analyzer
##경직
법무
Cities
Acquisition
##227
nuclear
activates
violates
stdin
##switch
commented
typedef
DISCONNECT
##setup
upthe
##filter
PDE
anexisting
구인
##WBI
Explanation
##readfile
곧바로
clerk
qualities
Parse
##백신
##ASYNC
##yn
##지우기
횡적
Borland
##QSG
CommandScope
##zone
executeDailyBatch
##IND
NSK
SNAplus
Novell
serviced
테넌트
XMLAttribute
Datatypes
CHLAUTH
gradient
##mqft
##LIVE
MQBag
##MQCA
GIOP
WebSnap
rmid
XMLElementAttrVal
Privacy
##별표
인상
##CVS
느끼
##full
에도
##Small
락
semaphores
CHL
##공업
빠지
##석의
##Tests
배타
sensitivity
##수치
##만료
지능화
##Prerequisites
단기간
##KMS
MQP
Created
distinguishes
##개편
수법
다각
Scalability
완
##들인
PASSTHRU
subtle
virus
GPU
recall
##Append
트랙
##EXTENSION
##제기
##좋
응
##작의
Supports
픽셀
considerably
AMQERR
deactivation
Streaming
Frontend
emails
texts
PLT
That
##Maps
##each
VMs
##Browser
California
Electronic
##ITS
thebusiness
thetransfer
##부내
scores
hierar
dateTimes
contacting
##펫
SiteMinder
##Lower
##Kubernetes
HBINT
##':
169
JMSAdmin
발생량
ApplId
##2059
BZFlag
##sync
groupName
bankapp
Updated
REVOKE
##COLUMN
##inbound
Aws
SRT
flush
Insights
Labs
##노력
##관리법
##강사
##MHz
근접
anticipate
challenging
Understanding
##해석
##Mode
##인과
다이나믹
##normal
##법무부
throughthe
##Package
##하이브리드
extrapolation
##한데
친환경
159
##Patch
조언
PU
커머스
##제반
##신파
야
August
##Administrative
NICE
unitflow
194
Unlike
노인
인스
##Cost
##catch
se
간섭
확실히
Mixed
계측기
스포츠
WBM
INIT
##gurations
runmqckm
319
##matching
MsgType
##Subsequently
##QMgrName
##qm
APT
##change
##Thisis
##Sensor
colored
atable
delegates
classic
##MQCNO
prebuilt
삼각형
Cerner
상점
renewal
LIL
uname
##리부
classify
DIMMs
##Completing
##지드
reconnects
##ICMP
definitely
##Coupling
감독자
+=
Partitions
##NLS
SAL
##li
##DestBuf
##JCo
##MQIA
NULLLiteralFill
TAIL
WholesalerA
estart
##ACTIVITY
becausethe
##Archive
##rpm
##conn
odbc
##silent
올릴
팬
롯데
##Together
채운다
ecosystem
##lpp
##의식
##선형
##113
##Filters
IPSec
대사
충북
##보증인
##화살표
도표
##˃
##MSI
##ACF
intervening
##MON
Inherit
Identifies
ampersand
##수직
저감
국립
##2022
미연
HostGroup
iterates
Factor
Notepad
##Supports
현저
clipboard
##Transform
HttpSession
PW
다큐
##캐시
브라우징
YYYY
176
##support
friend
granular
기호가
##DESCRIPTION
ellipsis
지우기
confuse
*#
nobody
미미
##GPP
Char
foryour
wheel
pauses
unmanaged
music
##501
req
##tenant
##Spring
라면
##시대
Numbers
curly
localized
##Implementation
defaultvalue
##Parse
CONTENT
##URM
로써
##153
batching
##CS
Jupyter
sink
거래자
##객
advertise
##Netezza
##She
32767
##SIGNAL
unreliable
DUP
Rhapsody
pseudocolumn
OSD
##KIS
##Nameproperty
XMLElementAttrIDVal
##4052
bya
##EAM
임명
##자는
특급
##정시
leveraged
advertising
CORS
##소셜
##Uninstall
##Sign
softcopy
INDXTYPE
##유지관리
193
그때
Portable
##DLL
##’),
##Occasionally
##입장
직급
Credential
선물
안건
주말
##쿠키
지자
##혁
상대편
찾기
##Container
thecomponent
##PCI
Gen
InputRoot
ITEM
unaware
divisor
prioritize
excludes
compromised
##Language
카
음수
인공
신경
##경분
persons
ARS
##EZis
##주차
transmissionqueue
alpha
throwing
MessageProducer
DEFTYPE
Trailing
##Generates
##BY
##CONV
##증자
employs
followingexample
atleast
ZDC
cf
Random
firm
door
plane
좌
##코스닥
##가입자
##달성
peers
##LET
##852
dbnode
tip
Association
datawarehouse
##Jun
##NAS
##0101
##Delivery
##DROP
MQCO
emulator
modelling
apt
Acceleration
initiative
errormessage
Fan
DataSet
Appliances
##Alert
##스크립터
sNotice
RW
PowerPoint
##METHOD
Qt
APDU
##Loaded
associative
SCNotifiable
##erent
Licenser
#</
elvis
oxy
exhibit
poorly
##수취
뜹니다
척도
##svn
evolved
runmq
##SCSQPROC
##Join
##Manually
##보험증
바디
##databases
기밀유지
##실명
##ADAPTER
alerting
소분
##+,
##등등
Related
unbounded
resort
##Systems
DataFlowEngine
##비지니스
##칠
cust
##bean
잠재력
주행
toconfigure
행과
scratchpad
DOCTYPE
##Boolean
KOA
##140
SNDR
Graphical
##기로
##Forrester
tap
돌발
groupings
checker
##Augmenting
##bat
##Style
##pid
faced
patient
재검사
나타
##MES
중반
##region
행렬
힘든
IPR
massive
disclosed
209
ofall
anon
Wallet
ignoring
312
interpreting
##시스템즈
##mon
iPaaS
##adm
facets
accessor
##pane
##unique
Implementing
##Color
mini
Ruby
##MAC
##원에
자산관리
파산
thenode
##6000
deallocated
italic
prematurely
##통장
weather
##primary
Korean
tbESQL
emit
##RESOLVE
##FOUND
0320
themes
idx
##PAYROLL
##불량
##stat
##BWMAgent
Heterogeneous
##CMDSCOPE
알아본다
##➪
WMQFTE
SHOWING
졲재
SPFILE
##clauses
WebtField
servant
##cantly
##however
Designing
알아볼
##이기종
총합
##⑤
##기사
성향
economic
1992
Eligible
글씨
부탁
##78
dll
##Knowing
##건물
논문
cancels
isspecified
##넷째
mqsi
##Restore
국적
사업체
##멀티미디어
##화일
##BPR
##도출
PLC
2059
##재고
##125
백서
멈추
slides
slashes
##Granting
webserver
Javascript
##이지스
##쉘
##Authority
REAL
BDC
##MST
언
공연
##동력
##그럼에도
##lock
stat
숨길
Grant
프리미엄
simpli
isalso
areused
##’).
GERP
repetitive
##model
iKeycmd
connectedto
lesser
##OPTS
##encoding
reasonCode
specifics
##old
들어간다
afile
crossing
##compress
vocabulary
facade
Compensation
exiting
ATOMIC
##Apple
##_*_
thefunction
##Enabled
SHORT
DAD
올바른지
##QMgr
XHTML
##forget
involvement
내비게이션
SCOPY
##issue
destructive
QUERY
stopwatch
magnifying
Investigate
##마을
Washington
curses
##sndbuf
MQPutMessageOptions
##tran
##DSYM
##intg
CoClass
##++):
eld
OTSPolicy
esponse
##Tuning
timings
##even
##시정
##결합
이어
예규
##도중
##트럭
이식
마무리
##식품
Progress
##spoke
##Split
earliest
편의점
##니즘
amqi
Verifying
CSQSNAP
##VAT
Seq
체
tocommunicate
##QMNAME
만전
##Substitute
##Separate
설계도
everywhere
##4096
신중
##370
건축물
광주
##격차
바람
##청장
아울러
##빌드
##can
acknowledges
##Results
radians
맥락
프라이빗
bwadmin
visited
신품
EAIBK
##ONLY
##Phone
##Concurrent
photographs
##핀
채무불이행
끼친
자본금
Need
##러시
##Explain
##ons
Books
Transmitter
##projects
ROM
##ｏ
떠야
실패율
320
TFT
기금
생년월일
출판
번들
2085
다년
##드롭
달라
assure
Requester
##soap
fd
##인터뷰
##WBE
automating
Gateways
histogram
animation
##Hybrid
footer
noticed
바꿔
내포
installdir
매개체
##팩토리
iscalled
extensively
NAMES
##Auth
Should
MAY
listings
benchmark
무한정
dictate
##||
슬롯
eligibility
##BAG
APPLICATION
timetable
TRDUP
##SAF
GMVER
attackers
MQSERIES
##PostScript
MoviX
promise
##Jabber
'-
##REF
theSYSTEM
STATISTICS
WNDS
RNDS
CompletionCode
##Reseller
##단원
cracker
##BDE
oblem
millisecond
##¾
걸릴
움직이
부가가치세
##증표
consolidate
pace
##Market
recompiled
##384
##93
##RQ
태풍
이행함
pops
##권자
시제품
Moving
STATE
xsi
logout
율
국고
민원인
이용이
##ATM
시티
자정
Different
##통한
corrections
outermost
LEAVE
##MOD
번거
##역시
매트릭스
DA
glossary
##Silent
##Copies
unmodified
안함
느슨
BPR
Linking
##FLOW
##공용
##건명
##최적
CloudWatch
##Azure
##매월
##광역
PG
최다
Detection
송부
중국어
asystem
SYSPRINT
dispatched
prioritized
aggregations
HTS
froma
Appearance
attractive
ground
underlined
##Architecture
##117
노재현
rjaehyun
법무부
부스
##CFS
UEFI
##supply
thecharacter
##sysc
셈
##행동
프로덕션
##872
atomically
inquiring
’).
ROWNUM
Then
dispositions
ImqQueue
밴
대피
Outcome
dp
##저희
평
##total
jail
##사업장
Distinctions
Mailbox
RR
##휴직
vSwitch
##editor
##렦
iRetCode
MEPIS
PEAR
wholesalers
XSU
##NG
alr
CANCEL
인티
##한국어
국외
통로
미칩니다
모임
##스캔
창고
1415
표기법
컨셉
##Unique
테크놀로지
유명
QSYS
##의서
##업명
##서면
가할
##쓰레드
PDFs
toinstall
Don
##modify
prototypes
명목
SR
##specify
Defaults
mqsicreatemsgdefs
333
##Synthetic
##\<
##module
##con
Hard
예보
편익
##보급
NMS
DAT
##마의
나뉠
rid
exited
TRIM
commerce
##Transformation
Consulting
tutorials
433
Synchronize
disallowed
economy
cooling
##IC
##BMT
파트너십
이더넷
##주차장
##RFP
subfolders
Scripts
andselect
payloads
exploited
suitably
##COA
351
530
##LAB
NoSQL
Scan
##apache
agencies
mounts
SSLv
Found
posts
종가
계수
##130
##objects
닫힌
Uniform
Optimizer
##fields
Engineer
##mation
##exception
writable
쉼표
##Relational
##False
Publications
seq
##───
메지
DataObject
##Thanks
naturally
offloaded
motion
ifone
##Thedefault
##bas
PE
##원오
##vitria
Anonymous
salaries
##Theapplication
TT
ksh
nondurable
FILERECEIVE
FOUNDATIONS
CONNECTORS
EventOrigin
expenses
##Attempting
장부
##MANAGER
##관이
##분장
사용료
##수당
##380
portals
frustrated
BE
##글꼴
생긴
##NSCP
##라우터
이뤄진
154
간략히
##checking
탈피
##_.
incur
##BRK
207
##-<
unqualified
##몇
자발
##접근성
지형
직장
##BT
##Converting
##Manipulating
넘어가
presentations
convey
duplicating
##cloud
의약품
##VR
줘야
321
quantities
##PVU
##°
운반
랩
howto
##exible
##nds
##KS
threading
##Debugging
HBase
unhealthy
Minute
differential
finer
eventName
##quality
scoring
##분당
주권
harness
##Compiling
흡수
par
Validator
ME
##pt
사각형
턱시도
monochrome
펜
##Publication
SVCTIME
sake
##MATCH
재가동
BOSH
BOM
SDWA
ImqQueueManager
##멤버
인보
viruses
masking
followingtable
MSGDSC
##Disposition
Alphablox
##FALSE
##cycle
syslogd
DSPMQRTE
비워
##Pr
##INTERNAL
collisions
Emp
Sports
JDF
ManufacturerB
ocessing
FASHION
##Manual
불안
##낸
SHARE
기준선
##수지
보충
##입찰자
webMethods
Track
##조원
##CTC
QMQMADM
gradually
CUSTOMER
Takeover
##으시
##공원
##농
Bluemix
clarify
##기대
##톤
철수
notbeen
##자면
##WRITE
plenty
232
215
##연락망
과세
지방청
코스
##편
청소년
FFDC
면한다
##MDM
##Implicit
##ENTITY
REFERENCE
rounds
해설
바뀝니다
Extensible
refused
##대내외
decoding
##rich
illustrations
##MQM
##일생
##Tracing
정성
##증빙
charged
채팅
중시
##성후
##단속
relying
Directive
specially
isonly
Hostname
activating
Feed
thedocument
Partitioning
interfere
##021
drilldown
##Platforms
bulletin
##Automated
##아규
보통주
##rate
##IFM
KRX
descendant
reversed
ge
indications
Bulk
RETAIN
##EAIHOME
Dave
##val
##Updating
anytime
SoapListen
Requestor
##BD
homogeneous
##GPKI
East
CSQH
halt
##ACTIVE
ACE
##AC
adocument
Associated
##Position
##ftp
Voice
transportation
TUXDIR
##XQuery
subqueries
##InfoSphere
##tx
ORACA
VTAM
GTK
##precision
cancreate
##얼마
equest
topicName
SQLLIB
StatementHandle
JNSServer
havedied
eply
##minute
녹음
역동
##상승
##조기
##｢
각서
대리점
등록번호
##응
##library
##단시간
specialists
##CEP
테마
Uninstalling
대분류
증서
migrates
saturn
thereare
hackers
164
##CERT
clrmqbrk
부트
##deployment
신체
##Major
총칭
자치
##drive
anumber
nest
241
##FLOAT
##이곳
##갯
families
##fstab
fax
##Performing
##package
##타이핑
##라벨
##PERSISTENT
도킹
mte
Slot
끼치
카카오
SITE
양수
##대처
seeking
liable
##Upload
##receive
Points
##mq
##Units
##Nonpersistent
Prepared
Hotspot
anti
encouraged
##must
refined
##commands
Coding
##죠
자로
##leading
MITime
##그리
horizontally
Ada
테스터
##Atlantic
BUSINESS
팝업창
representatives
##게스트
MQCHAR
resend
asubscription
위탁인
WSP
타행
XD
##밀의
Ware
SELF
Makefile
##REFERENCES
NOLOGGING
RNPS
WF
##웎
Knoppix
roductPrefix
##WebtBufferException
맀스터에
eating
wildcar
thanone
##Instances
FAST
리뉴
관행
간행물
국세청
##감독원
Assessment
buying
responsiveness
##except
Hands
##Hint
BEFORE
ARLs
##바인딩
Gap
마스터플랜
tocomplete
##19991
##맞
mqsireadlog
##Copying
##report
##mapping
PAM
##경기도
전처리
MOS
주거
LESS
##yyyy
214
institutions
Rose
Generated
stats
##모음
addNode
consoles
243
White
##Integrated
##>”
##servlet
211
besides
##Highlight
280
제경
##PROC
외화
선적
introductory
##Best
##호우
장벽
Hybrid
Members
1987
theOracle
Limits
thegroup
입주
##동부
역방향
occasions
heuristically
PING
##EGIS
번만
##부록
JRules
##Lastly
stronger
Opens
EGP
collision
renders
targeting
##Preferences
##functional
stick
호출기
thecolumn
264
##보내기
AnalysisServer
simulator
##107
micro
*).
##WBIMB
Parts
Position
HttpServletRequest
DEAD
미들
프리젠테이션
##알리
하한
분량
##FIU
DefPriority
##INHERIT
Veritas
‘{
미정
VRA
Pilot
Coach
WWW
ENNAT
##Specified
IPX
+[
bob
##Vulnerable
##XMIT
TRANSPORT
CARRAY
featur
FILLER
equations
theresult
##CRAB
종전
##사업비
##정량
##관리비
국정원
활발히
##stack
Asia
##색인
##Pick
Things
##메트리
##PMS
행복
##프로그래밍
##Added
보험금
방재
##행시
##체감
인명
thisoption
complements
입힌
183
NAMESPACE
##DATABASE
금요일
cert
##descriptor
##constraint
발생기
##Removes
##켜
미충
225
##’);
surround
소정
유보
틀린
전용선
##부모
##Almost
evenly
invalidates
##colon
##Hash
148
unzip
일간
originates
226
##ILinkHome
플레이
##남양주
##함께
필름
workers
현안
##틀
내린다
Everyone
MessageBroker
thesession
##Low
930
thereafter
##귀하
##Agents
bytecode
balancer
San
youmight
##Automation
theimplementation
##Sends
##재배정
ContentType
왜
Postaction
##1997
한가
##amount
topological
insuf
##121
##Integrity
pound
OpenAPI
Mid
##DS
bounded
weights
##Positive
LSI
NS
ZONEZERO
EH
succession
BWMSERVICE
##CONNAME
fuzzy
##UR
##PROD
##게다가
##Terminal
##identifier
InitialContext
Payload
PMVER
SAMPLE
APPDIR
sysctl
JPA
xs
##&&
Rewrite
pOutputTextSize
##저율
##HOMEDIR
Exclusive
WNPS
qualifies
SEBI
errhp
PREVIOUS
OnePhaseJTAResource
Justification
ocesses
solves
##trip
미수
원한다면
##정정
##인정
QManager
##어떠
svnserve
##축적
Leading
Mean
Considerations
SHARECNV
집약
ObjDesc
로서
grown
##0002
##덴
시사점
XYZ
##감소
중견
##SNS
KICS
acluster
##Proceed
Propagation
248
##bar
ceases
##Entries
CHANGE
##인간
##술의
##210
제언
거두
Flows
isbeing
##BL
##PKI
EXISTS
FIN
thank
manageability
pertain
##징후
EX
이해도
직렬
마친
##수표
373
서고
##013
Manufacturing
##Technology
프레
##암호문
theattributes
##either
tosupport
os
setof
##LONG
IntAttrs
occupied
프
XX
##Turning
SYSIN
However
restricting
##Metrics
rightmost
Severity
Sampling
##less
TMs
##부산
대체로
할당량
주금
##당분
##Relationships
Cut
Floating
##관서
애널리
infor
func
shorthand
resuming
##segment
{}
프레젠테이션
STD
##defines
Cards
adjustments
cord
294
Loss
LOW
″+″
MQWQR
Locale
photos
##INST
Queries
INDOUBT
##recovery
ApplType
CT
ITCAM
PO
setthe
advantageous
syncpointing
레파
EPS
Sound
Chapters
##IPV
EMPLOYEE
##REMON
##Everyplace
theoutput
0210
##기열
nonnumeric
HocIndicator
theLOB
iterators
##Fortify
EMACS
uctions
##uid
##커넥션
##XQ
기자재
##학술
동부
"/"
##오늘
OE
##real
'.
##안전망
뉴딜
보여진다
##요구서
##Font
torun
173
;)
##94
clouds
##임직원
가져옴
트랜스
Fulfillment
Vertical
Specific
synchronizing
BPI
DataDelete
##RPM
##레이아웃
shot
%%
supplemental
##restricted
instantiates
modeler
guideline
마음
##effective
면허
##DMZ
##apply
Hit
##HBA
실무자
##택시
##져서
동료
GoInto
tb
가량
##Provider
##룹
##KOREA
cooperation
friendly
italics
aq
Jobs
theselected
##Searching
divides
survives
178
##룸
##AN
Practices
posting
screenshots
Clean
summed
timeline
##Avg
becreated
hire
thousand
##현지
Than
thetype
에코
##Onepass
##쏘
##fast
##sal
SORT
JWT
##LED
##백본
##CSS
Interoperability
##RSA
낮출
##비활성
registries
##RAW
Orange
Beginning
logistics
rcvbuf
Answer
Identification
classifier
WMC
HL
##정보용
##;<
minOccurs
newsgroup
##fd
CHAP
STEW
MONCHL
buildserver
COTS
wc
sprintf
OPMODE
ExPlex
CipherSuites
REFERENCES
랭귀지
##fastcall
andyou
DATAFILE
##Tables
시책
벌금
##표현식
##인터
침수
문헌
##목차
뚜렷
대조
양은
성숙도
##이터
송출
spectrum
decline
Disks
##DIS
Stores
##Reasons
개척
##mqs
DTT
붙입니다
thorough
대학교
추상화
검찰
isprovided
인포메이션
브
##Applies
popup
월요일
ITSM
##부동산
복귀
친화
betweenthe
##쌍
묶음
disappears
1605
Automated
##SKIP
##none
##Would
journey
##CLASSPATH
tabbed
##SYSDATE
##Imagine
전장
##국방
290
인입
September
##Endpoint
fnd
##네이버
IOT
##카
2025
프로토
pkgadd
delegation
##Restricted
accessto
##repudiation
meansthat
##Backing
##Resolving
##Four
#)
##Requires
##CONTINUE
##Filtering
encourage
resolutions
TraceTag
contributed
##pdf
인터럽트
##MQOD
313
내수
##columns
theinput
prevention
‘-’
oc
debit
GBM
##종속
251
Consult
##ENVFILE
anylink
##╂
CSQE
##PSID
nonbrowse
##sendbuf
다룹니다
##0620
##=""/>
##선언
flavor
LTSP
ifconfig
thetransmission
bands
생겼
describedin
##도금액
XIDs
TPNOBLOCK
Flashback
thefields
Manufacturers
##WebtServiceException
##="#
##CACHE
과태료
##Round
##주도
테일러
케이
지어
weighted
hotspots
Upgrading
PTFs
outages
ibmwebspheremq
##제어판
##TPS
중도
SOW
##토
쟁점
Temp
174
DSNs
BROKER
ENCODING
Finished
만든다
##logical
thesize
Businessware
CTS
HYBRID
descendants
##than
##uuid
tpforward
Jul
smoothly
##Companies
developerWorks
resembles
assistant
unhandled
340
##notification
##Scope
##당일
시가
233
거대
가상현실
##셔서
OP
##127
##009
가전
fair
redeploying
IR
themethod
##180
##BB
RQMNAME
##SPX
identically
##ro
##dump
charting
##rows
##Actually
pinpoint
formulas
observation
refreshing
misspelled
##drag
흑자
640
환매
ordinal
##범주
postaction
##His
Boundary
여야
RCV
##short
Issues
위축
정전
durability
SubIdentity
##listener
##노출
##Near
Backout
hConn
Eligibility
750
##Success
MREC
diskless
##php
##Wed
##SDL
##목적지
##편철
SLF
PART
spell
linker
ChannelMonitoring
##errorq
##WOLFSSL
##Translate
##dvoid
mio
##">:&
#"
ovided
Reordering
##Procedures
omitting
명백히
##내보내
목표치
고전
##충당
257
Restrictions
0001
##CUSTOMER
가져왔
##IDS
emulate
##168
DDoS
##윈도
편하
##what
mqsicreateconfigmgr
Resolving
SPARC
217
##creating
##Multicast
workspaces
marking
UserName
ASF
##상대방
##수행자
Slave
thenthe
##스러운
숨긴다
sized
South
negotiate
##MOM
논현동
질적
Every
##Tomcat
소형
##102
##바코드
##검진
##BP
OCR
통행
##보이
##Fri
##Constructs
EOF
accumulate
##부스
##DISK
Friday
fires
shifts
tedious
intentionally
revise
Forbidden
bubble
isto
Overwrite
##Korea
ACTIVE
행은
sale
##142
205
DUMP
uninitialized
VPC
하둡
##비행
월말
##REGION
temperature
telecommunications
내림차순
RNAME
NetFlow
compensating
STGCLASS
##float
##TOKEN
EnvData
Blocks
☞
##PROGRAM
orchestrations
##November
helped
ClearQuest
##QA
##=(
audited
’+’
변환기
##AUDIT
SUBSCRIBE
SAVEPOINT
LocalTransaction
##CWYAP
Abelian
TuxedoServer
geocoding
altogether
demonstrating
contributes
workshop
폭주
차기
애니메이션
##migration
##당해
##Tree
##SAN
큼
aspecific
road
leadership
##Fault
##언제
SMIT
##Resubmit
subsidiary
##Settings
청년
##추세
##pattern
Vuser
answering
##사별
##Snapshot
NTFS
reinstalling
조직도
iv
digitally
debugged
INFORMATION
염려
Contribution
##을지
##ejb
##Man
수출입
##잘
재검토
DataUpdate
Airline
leftmost
magnitude
182
overloading
roadmap
Bug
Silent
##ONE
##미완료
ranked
잔금
chances
물질
소리
채움
Swap
EOS
##go
실내
NetworkVantage
PPG
##Factor
Delegate
OMB
##visible
##Roll
Doc
##failure
SDR
##비트리
##훈
Matrix
shop
##Flags
listof
##//<
##td
youuse
##Implementations
playback
bespecified
interceptor
Have
bi
truth
makers
usedby
##Thrown
healthcare
MQDXP
##FIS
##adlex
preaction
##writefile
PRODUCT
mes
##MAIL
##AT
ISA
운전자
substitutes
##router
Fortify
CHLDISP
MQBO
MQIACH
intrinsic
##Front
끄
##verbose
Oracledatabase
acquires
MBCS
교육청
##SORT
##짂
##TNS
populating
Greenplum
##LANGUAGE
communicator
≤
Facade
beforeCompletion
WebtConnectionGroup
##도연
##CLTCN
TSPITR
##DIALOGUE
opriate
갈수록
##}\
잠금장치
BL
학술
##수시
##뉴스
##custom
dd
##운행
AC
##Polling
##자주
##4119
담겨
경찰서
분의
##어린이
##480
Folders
##④
##유가
##Eventually
tunneling
##와서
##일방
압류
워크숍
##믹
석
zeroes
246
##existent
difficulties
daylight
폴
stocks
‘/’
rotate
하수급인
unmount
체크포인트
##도착
가결
interactivity
Guest
##지분
##차장
##임원
분명히
유포
dark
##cost
##널
##Supply
##005
표의
수정과
##IM
inan
##Bold
##납기
Syncpoint
Hconfig
##ADT
Compliance
실효
documenting
ect
shorten
##IIS
##006
webpage
Light
GoSpace
usedin
underscores
defective
##Along
수표
연말
한계점
##ACCESS
##영국
접미사
##Converts
MIT
parenthesis
ancestors
##struct
chaining
Pixel
andclick
##STATISTICS
##근본
predetermined
upward
prod
##문제점
ZoneZero
TmaxData
0610
##Modeler
subsections
inactivity
ASC
OpenFlow
hashtable
##Adapters
BOX
##SFG
Wed
LNQN
##아카이브
Flume
##linux
xdm
##기번
Teradata
가비지
CRTMQMQ
NOCOPY
##ename
CipherTextBlock
##lters
AmMessage
Xid
signaling
vNetwork
OCIInitialize
eBook
##ciency
UCP
##020
합작
##소유자
##속의
Scheduling
##드가
Tibco
commitments
vehicles
##치가
##Activate
userids
##Upgrading
##Hcon
##재시
##던지
마을
Developers
##문장
learns
subtrees
242
##Stops
농도
Water
흥미
Treat
Remember
miscellaneous
BID
##VAN
EDIFACT
들어왔
ideally
##Yet
##표지
interruption
parameterized
et
SUN
Dossier
##자사
한꺼번에
슈퍼마켓
gaps
##세액
노트
타깃
evaluations
Innovation
##사로
thisis
Deletes
traf
##headers
상황판
decoupled
groupname
##Guide
##CLOSE
##홀
판촉
Sizing
Extra
enrich
RACROUTE
reflection
browses
paused
musthave
악취
train
##MQENC
고치
##postaction
##age
Diagnostic
##시큐어
retailer
electrical
jumper
##OMS
##024
CLASS
airweb
√
##force
Height
##완화
occured
##Bank
CSQQTRMN
exp
##MIME
ZONE
회차
##2162
003
Intercommunications
dim
modems
obligations
PutApplType
ARRAY
DOP
pic
PlainTextBlock
AggregateRequest
supportcenter
APs
dthome
completioncode
TMF
thedead
##노테이션
cal
ence
efor
requisition
ACCTQ
CustomDatum
toidentify
##nished
thespeci
aside
##으려는
##결의
반올림
MIS
필
##식성
##발견
copyrighted
announced
##-,
##미달
WebRTC
constitutes
CSQINPX
##수용
##Enabler
##binary
##기술력
CTC
전형
동력
##MSCS
andto
SOAPAsyncRequest
mapper
unsuitable
##REQUIRED
finance
372
influenced
colons
##Cancel
uns
JACC
성별
##installed
CARDINALITY
tangent
##절대
##tbl
finger
##jre
##Executing
grayed
supervisor
보행자
반경
227
##register
thumbnail
308
##워터
##Route
지킬
mstr
##자정
Purchase
##DBApply
비인
##대여
Composer
##우트
##Optim
센
##디버그
##Received
MIL
pertains
ldapmodify
youmay
##4000
traverse
raising
##Routines
CharAttrs
##​
DTAX
##Synchronize
bridges
Breakdown
landscape
played
thestandard
##CPWR
localization
##structured
##QUIESCING
##Foreign
Foreign
loyalty
##Hellman
hypertext
eventual
##Indeed
##done
deliveries
##Activities
##RF
청렴
ld
##ahead
sit
강좌
Safari
TOPICSTR
advertises
##office
##느린
##xFF
dev
네이밍
1989
finder
EDT
##ROWS
Usable
익스플로러
EIB
RESETPAGE
MQCBD
MQPD
Stopped
393
##초생
maxOccurs
##=%
##NVD
displayable
##yyyyMMddHH
##cbl
##‟
UNICODE
##comm
gc
##Body
##STANDARD
MQeOutput
##FORTRAN
##Enumerating
pinned
##CHAINED
mailer
removeval
Notifiable
##SAXException
inodes
runmqakm
eceiving
239
LOGFILE
CONTROLFILE
신분
전이
영수증
##비중
##사본
Visit
##Partner
CAD
##Throughput
Meaning
AMQTCERT
신상
RS
##는데도
추첨
인감
##보험의
##Tracking
REQ
대행자
인해서
##：
theprocedure
##restart
##휴가
##독점
##어음
##™.
denies
exploring
##abc
##DECIMAL
수탁인
##배상금
장표
에스
##수협
##96
ism
FlowOrder
bear
suffixed
##Types
##edge
##insensitive
##우위
BOR
pg
304
유즈
Rack
##카탈로그
비해서
theassociated
MTU
##Requirements
HQ
##캐피털
##Decoding
Named
##양자
audits
aviation
deallocate
##Firewall
##PK
KeepAlive
ApplIdentityData
SYNCPOINT
resized
##ExitParms
재판매
성숙
BEP
deliverable
churn
dt
##meta
fordetails
ALM
anda
##required
##당기
##바꿈
되돌린다
##tem
freedom
defer
##window
February
핵
Notebook
retailers
holes
심
disruption
##quote
ITSOMart
Specifications
AUTH
##3270
BUFFPOOL
##재처리
CCFAIL
##CANCEL
GPL
FreeBSD
Increase
mv
cartridges
##VARCHAR
OTHER
##LIMIT
##padded
Substring
##sap
##Unhandled
ORDSYS
securityfilter
UserTransaction
integratedwith
MTA
WBIPostUpgrade
##䍄
chy
wer
MIAS
latches
##정보처
##과시
장기간
JSR
arethe
##스톨
##Duplicate
promotes
줄임
##EDW
virtualized
Hang
aclient
Speed
##정계
##음에도
##보험법
widespread
##attr
525
mqsireportproperties
##configure
Delta
##Observe
afterwards
익
##의해
기후
##190
양상
##올해
strengths
MINUTE
##Computer
이거
##230
##we
##plugin
##Menu
##quotes
##relative
##Explorer
tabular
오프셋
##const
##shell
가득
##대해서
##황
##Daemon
Associates
회로
##Identifying
곱
##무료
##although
indicateswhether
inaddition
MessageListener
Glossary
reinstated
##\\
laid
Stage
INQUIRE
Reduce
Caches
Notifications
consequently
mountpoint
##Selected
artificial
##destination
##UNIT
correction
##board
tech
띄워
Investment
transactionally
beperformed
##Populate
내놓
BRKR
##try
SUBSTRING
찍
''
##TOP
variance
cars
##transfer
##Stand
스피드
##Trusted
친구
##연합
Cable
PDM
##REG
linux
어린이
##cm
##market
##FORM
RJ
배우
SFG
##0320
brace
Study
CMPCOD
MDCID
이지만
Mary
리모
Terminator
hostvariables
대상지
##PRIVATE
##CO
FMT
resourcemanager
UNUSABLE
DOs
AMH
IBMIntegration
SVRNAME
ojspc
OTN
failur
ersion
reveals
장과
##TOT
상하
교수
##조절
포스코
##편리
Needs
booking
heartbeating
lightly
nominate
##INI
conducting
##대쉬
OpenMCM
아파치
##일지라도
encompasses
가로등
소재지
##악의
aserver
##Explains
tilde
mqsichangeflowstats
390
EXT
536
명심
##인명
적발
Impact
참가자
tothis
##JMX
##인재
##inch
##mount
breadth
InstallShield
shortest
WPRCSDB
submitter
NTLINAKOR
##recv
이용기
Balanced
##OLTP
Per
클립
플레이스
##좀
##act
##Baseline
##795
##hash
ScriptTest
inability
aseparate
blob
onMessage
##종류별
##THREAD
EntityName
에디션
median
##Token
thelast
summaries
thecall
##Exporting
trimmed
##returns
isan
##factor
reorder
스트리
재질
병
##우량
##EventBody
오프
237
사설망
fol
aids
RESULT
##각각
##전시자
VGA
aprogram
##운송
베트남
##Wildcard
MQMI
NVL
PGA
##Fact
LBS
ACID
##빌더
feeds
##Middleware
RUP
essence
GTF
SAVE
MQSTS
borrower
##9080
Kim
Symantec
##acct
##는다고
VTCAM
Attempted
MDCSI
TriggerMsgPriority
##yyyyMMddHHmm
##청사
rectangular
cur
Demon
KAC
##FDS
FDS
vt
precompile
두께
TPN
##zwSAC
fixpack
##체크인
FOREIGN
##LocalEnvironment
토양
MQQA
##SEGMENTS
tpconnect
KEEPALIVE
removeref
##empSET
willrepresent
##GEOMETRY
##GEOM
PlaceOrderProcess
proportion
correlates
congestion
observations
destroys
이동후
판결
ERD
fiss
vtparams
수거
##supported
ALIAS
##unix
##누적
##0800
##axis
##건전
링
##프린트
##불가항력
둘러싼
발명
관습법
hardcopy
datafrom
modal
ORANGE
Computers
SQLServer
##ARM
213
war
Dimension
##증설
##관세
평소
##secure
진보
Mr
MbElement
##Created
SLAs
##mnt
##Overrides
##Predefined
##post
##메인프레임
벤치마킹
hyperlink
218
303
##fixed
REP
높임
다운타임
리딩
##FAULT
유스
DDR
나이
XE
Aria
Disclosing
BYOD
Website
concise
##these
##105
수신기
##INQ
termed
Canada
tpsvrinit
이동성
##POLICY
suspicious
tooltip
traps
##document
##man
##activity
RDP
airline
##FW
보여질
##설립
빈번히
고정비
##엔지니어
Generating
Roman
##대상지
##structure
la
Let
ofeach
theentire
messageis
cooperate
standpoint
Reporter
##MDX
enhancing
##금고
AML
##205
##클립보드
rfc
##SATA
fans
##접근권
##연방
##원화
##Football
NXACOMMON
##LIKE
##SQLException
##SFR
행자부
##CAT
옮겨야
EZisV
Suspend
##STRMQM
##DOCTYPE
##화물
##strcpy
XCube
antenna
##분류표
ciphertext
pads
##Inherit
TriggerType
##Resets
century
SNI
HEAI
swapped
##관급
##ptr
filetransfer
##Speci
##Syncpoint
AUTHTYPE
##>>~
##jeusadmin
RETURNING
Trash
##거래자
InputParseException
##AmazonS
oblems
##Os
Activate
페이징
##RULE
##CITY
아무것
존중
##다수
동반자
아젠다
Sector
EXPORT
##108
##용품
##ls
##Timer
demanding
##Range
DMS
##Quick
THIS
##Attempts
ExitUserArea
deliberately
##OLD
travels
curl
##MQCONNX
응한다
aWebSphere
asshown
canspecify
Pooling
mqsilist
202
인계인수
##지주
##원문
##XSS
스트링
Cartridge
빠져
NULLs
strip
238
##데드
defense
EVERY
##Infrastructure
##번지
취합니다
WebServer
delegated
275
311
시일
Elapsed
접하
기울이
법제
##졲
시나리
Trend
다량
##Themessage
inorder
sqlnet
Copying
DefinitionType
535
383
ApplName
나눔
틀리
245
parm
toexecute
Shortcut
##encryption
##Conditions
investigated
PreparedStatement
methodologies
Auth
##커맨드
인출
theindex
LET
fun
wires
alarm
##quali
##just
##Machine
##Triggers
adjustment
부산은행
Margin
Lines
컬렉터
구조물
##당시
attrs
bx
##외기
평상시
##가져오
##000000
APPEND
DFSMS
RemoteQName
##WORK
eg
선불카드
Unica
resp
덕분
Applicable
Shareplex
LUWID
##ware
PROFILE
MDBs
##FILTER
POSPIA
XMLType
FORTRAN
Allowed
##oneagent
##ESXi
messageflows
##dbfile
선취
startDate
endDate
ules
##rofileCredentialsProvider
Mailer
esult
incurred
exploits
thischapter
roughly
dat
원만
신청인
MEM
acquisitions
연금
##현존
APIM
##관함
rebooted
exhaustive
##UNLIMITED
숨
##※
ACF
exe
##하루
##Audio
aspart
##수퍼
##coordinated
pasted
mqsiformatlog
언론
MY
##ARS
##하인
##출원
항만
몰리
redeployed
amongst
endian
nth
cash
##CELL
categorize
##execution
hangs
##송금
한해서
##조차
##제휴
270
##책정
##유즈
##차입금
##표현
인다
Adds
##CI
구사
##socket
아이폰
청취
전기차
##전망
불명확
##Notify
클레임
DE
welcomes
theattribute
night
notsupport
anattribute
hasthe
커질
programmed
IGNORE
meantime
##2289
correspondence
Week
참석자
Locations
suffer
deliverables
thelocation
isexecuted
maximal
Nessus
thiscommand
##Strings
frustrating
simplifying
##>-
wherethe
##Establish
gauge
pulls
scoped
##믹스
Securities
##환매
##인은
돈
MQCFT
예고
##셰이크
기다립니다
WOC
##preaction
useless
notations
inother
thecontrol
##Seq
theMicroStrategy
##HH
Rental
##DML
Upsert
Stub
Padding
LVM
UNC
일요일
##next
조제
SoapCall
##Still
##Hard
##디의
이퀄라이저
ObjectString
Way
RetService
##Views
aims
Trainer
리터럴
TBR
apostrophes
##*),
mqPutBag
MQCFBS
Returned
ofinformation
trick
##SYM
채울
burn
큽니다
1800
IPsec
MsgDeliverySequence
##동기식
GCC
MONQ
운동
tmconfig
UDL
sar
nonpartitioned
##IDL
##exceptions
OSF
STRMQMDLQ
atomicity
REC
##DEAL
##DONE
스탬프
thelistener
##retryCount
MQDistributionList
FLW
##BFILE
Pollable
##ﬃ
##tgt
FDP
eqn
emove
chive
Miniloan
attaches
adjusts
##Restoring
ODM
##8601
달라야
##가령
KDB
##치료
##사인
선박
EUC
330
##솔
우리투자증권
EMB
##프록시
##THE
##제조사
김동욱
squares
##registry
감면
##MSSQL
##auto
세종
산불
##cause
accelerator
초월
fingerprint
surrounded
##owner
##optional
##1414
##Limits
LRECL
##Portions
##범용
학사
요령
생태계
되돌
기조
Imports
beconfigured
##일관
DETACH
##Capturing
##POSITION
Effect
밑줄
##Company
##1415
##GAAP
##낼
strmqtrc
상회
##ENV
##Presentation
247
##Clearly
대중교통
##공부
구독자
##Wire
지키
##실증
신분증
토탈
##raw
StreamMessage
isstored
##용지
resynchronized
awaiting
IPPROCS
483
이노
##Measures
whichyou
CSA
thismessage
aresult
MongoDB
specifythe
##APIs
Weblogic
##Hover
roots
hypothetical
##Pages
Git
csv
##거시
Operators
환불
##Interval
셀프
끊임없이
AgentlessMonitoring
##유일
##relation
emphasize
computations
TextInput
##Parser
Days
##Capacity
##해시
Buffering
##후행
PROGRAM
선발
rings
striping
##TOO
통칭
Slides
##Publishing
honored
##gateway
력
스케일
varied
ManagedConnectionFactory
받아들인다
##대국민
MQIT
BODY
West
Transparent
Width
Lee
Pane
셧다운
##certificate
##Combinations
100000
OTA
Instant
paint
##SOCKET
##presentation
SCO
Languages
Otherwise
NVARCHAR
ow
tpgetrply
LUN
##HTYPE
downsampled
##DBFILE
dbExpress
Clip
LoggingFacility
geom
##Prohibit
ParmBuffer
eam
##BIZ
Super
##주변
조사표
FACT
##대구
##빠르
##국유재산
ESC
##+"
UPPER
등기
|-
detached
트레이
##UnitFlow
entirety
Must
##Databases
##>,<
reinstate
BIPGEN
STDOUT
permissible
reloaded
##였으므로
##subject
알아내
재무회계
##Raw
무작위
##2023
##칩
##Tagged
multiplication
truncates
COS
+,
##Cast
났
develops
견해
fraud
ROOT
decreased
##Connectivity
″″
exclusion
##maintenance
표로
자격증
Deep
된다고
##바이너리
couldn
Expiration
##체재
군사
510
anticipated
##Template
necessity
margins
오토
##예술
혼잡
##768
미납
OutBound
##REPL
Completed
decompilation
##White
thesecurity
usesthe
##jms
##BServ
Performing
intercommunication
ResolvedQMgrName
Ordering
##유효성
##PurePaths
##collector
isenabled
notavailable
bechanged
annotated
thumb
Servlets
roundtrips
unloaded
##인천
meetings
##드래그
##제원
backslashes
objectdefinition
MQCACF
극히
##공항
##Cursor
##Replication
gen
PARENT
##쿼
Applying
minimized
##DH
IDP
협의회
협동
##BSD
460
##네이션
##티지
ubbconfig
ZLIB
통합체
##TBL
stuff
Latin
CSQI
xxxx
Facilities
MQXWAIT
##Unknown
Interactions
지하수
##사설
SNC
CONFIG
##Dir
##MAINT
LUs
Versions
drawbacks
##IDE
tlisten
WSL
CLEAR
사료
Namelist
INDICATOR
GT
schar
부울
##timeOptimizedFlow
ACORD
VARYING
##INTO
XAException
reportmessage
codeMQRC
STRUCT
SHUTDOWN
JML
wasa
emoved
##Befor
##SYSSTAT
Fusion
checkpointing
##grep
##MIB
##마킹
##PROPERTIES
##자전거
워크플로
competing
masked
VD
pageset
tolerate
담합
##km
경찰관
youwill
bitmaps
##MQADMIN
떄문에
쌓인
##trusted
Assume
mqsicreateusernameserver
Consider
DYNAMIC
mkdir
Hide
adopting
concatenating
sooner
##생략
##암
havea
##비고
indentation
NameValue
CONSTANT
wrappers
wholesale
##장벽
Auditing
nodeagent
papers
##약어
공부
##mentation
예비품
189
Premium
다이얼
화상
##커뮤니티
Daily
##신고자
DETAIL
교
2030
선량
잠정
##불능
harm
jurisdiction
##MQMessage
disassembly
Regulations
##nish
thereis
theunderlying
octet
safer
aname
##Risk
클린
FASTPATH
syncpoints
CentOS
consensus
##Being
grace
theparameter
ith
somehow
Linked
aredescribed
remained
Constants
권역
소화
##싱하
##연수원
culture
smarter
##declaration
바꿈
RTM
ele
explored
##ring
semicolons
curves
presses
internationalization
##unsigned
##지나
##연산자
##PROCEDURE
anetwork
greaterthan
Decryption
##™,
##심볼
##교류
Soap
##RMI
forz
Requested
‘??
QueueConnectionFactory
##DYNAMIC
콘크리트
##XSL
subscriptionsthat
##play
mi
##웁
MDREP
##2136
areincluded
hasn
density
Identi
##핛
TCS
##②)
theresource
polled
##AWDS
##SPIRIT
UTL
MQGetMessageOptions
MQCBC
##TmaxSoft
ImqMessage
tprecv
##Rem
manifold
맀스터
PropagationContext
ogramming
beavailable
‘.
##휴사
##KPI
##Debug
##wrapper
산업재
##OR
커스트
차세
##Grouping
Black
##편집기
##테크놀로지
PutMsgOpts
기업인
##LINUX
##캐피탈
Coordinated
##KOA
##↔
출범
날씨
Triggering
##Verification
##더불
SOAPRequest
regenerate
Subsystem
MAIN
Preference
##Generating
##Relative
조화
기상청
##정보망
미션
##가시
혁
##핑이
##패드
fitness
itcan
isno
MSGID
##Namespaces
substantially
Clone
yours
필한
단편
451
##Extend
##2048
##Descriptions
hostName
prototyping
연중
##city
upcoming
Question
Pair
##낙찰자
##제고
##충분
공존
CDC
법제도
제안자
시건장치
발행일
MHz
##선물
모빌리티
##Social
LLC
남김
결여
산업용
logLevel
thefull
##INVALID
##규약
##아키
SSPI
repaired
regards
LSN
##position
해싱
Analyzing
purging
##accept
Origin
Fonts
##Segment
peek
thecause
foran
Converter
개혁
wasted
reviewers
##먼지
##성향
상법
##단과
##FETCH
##보고회
ratherthan
theexisting
##selected
alphabetically
Streams
Tx
##슬래시
##그러므로
conceptually
905
RIGHT
##Definition
Enqueue
##syslog
##SUBSCRIPTION
##tr
##Book
보냈
tmp
rcp
Failback
')
Subtotals
guided
FS
위안
sitting
##EMS
labor
##────
##벤
Scanner
authoritative
ECI
##WMLScript
FACILITY
accommodated
IndexType
##PARTITION
퍼센트
353
##stdout
FF
println
MDVER
replying
Scaling
connectionless
GRUB
direc
##sum
##TUXDIR
MERGE
inet
단축키
mqsicompcif
Retain
Nonce
Symphony
##ushed
qName
누르기
Noti
##METADATA
Paradox
##scmp
INN
elemetry
iDisk
##SERVERS
adversely
정인영
##133
한한다
징계
SHELL
##준기
창작
경상
##4100
대우
##현실
평점
Overhead
humans
readiness
##established
짐
##Alternative
해줌
##MMS
##Mixed
##스케줄링
##ALREADY
##CONNECTED
동원
⑥
일대
##수료
baselines
시안
공원
##USR
URM
##준공
youcannot
##Previously
##Hot
##윤리
Repositories
hourly
##Starts
온다
##특약
욕구
##특화
안전사고
수년
##Aggregation
EXTRACT
뺍니다
beta
Breakpoints
instantly
##Kernel
tm
ojdbc
Manually
Toolbar
동반
##외부망
##usage
가져간다
188
339
위급
불공정
<-
##위수
NFC
AVI
##LINKtoLINK
##135
##namespace
theitem
EP
notifying
##Clusters
AB
Encina
##Taking
##National
libmqm
SelectorCount
Keyword
​
때로
emergency
isconnected
SharePoint
scenes
andthat
##Synchronization
modifiers
circles
##Hold
midnight
Idle
overthe
##Sep
거쳐서
의결권
415
Moves
##UserMonitoring
PROG
##USERS
Preaction
FILESEND
endof
##Anything
syntactically
designates
dog
ofdata
##환
surrogate
돌아갑니다
NRT
##Segmentation
Actual
##processor
##Atomic
쿠
증가세
converse
##Symptom
##WebDB
##PARAM
INSTALL
mediated
mediate
pluggable
##적재
은평구
PRIORITY
DDnames
##UNDER
tremendous
FDL
##yyyyMMdd
##nhis
Trailer
##Matches
Arrays
##MQINQ
Ways
Mouse
##TITLE
##TUXEDO
WSH
TLI
원부
Resolve
신고자
befound
##Elevate
표시기
EM
##DevOps
VTPARAMS
##;,
##Conversation
comm
##ifo
unitof
ServerSession
##releases
TPNOTIME
tpsend
##Liststhe
MCNotifiable
deploymentenvironment
contactyour
TreeDirection
GLACIER
ITSOPModule
위약금
##수주
오용
맞춰야
끊어졌
IMPORT
경미
##해져
##학
판독
##로그아웃
andis
Three
##증기관
reassembled
##Toolkit
##Personal
docker
##질서
Editing
##프리
##ABC
크롬
##MFT
추경
toremove
변제
warns
##배상액
자연어
##매년
##펀드
##포메이션
##Assured
merchantability
##Finding
contentsof
720
##CLNTCONN
##SQLCODE
228
Poll
##판의
##EU
carriers
022
##DO
##Adjust
Drivers
##PG
310
##tomcat
##~)
licensors
Insurance
IEC
##진척
##정성
9000
사적
AV
traditionally
##문구
##Government
Licenses
##3650
##050
스튜디오
##미터
##147
채무자
##움
극
whereby
##CREATION
넘어갈
thesample
##before
thepackage
toset
##Delimiter
##chanserv
ECC
reflecting
##ExitContext
파이프
‘_’
충격
##external
evolves
cheap
rotation
changethe
##REALTIME
APK
ts
thisexample
JS
eases
##keys
Exports
colleagues
versatile
rewriting
##secret
##Installer
입법
##SNDR
repetition
MQRP
##ture
vertically
Hour
매달
iTunes
thepower
PXE
recycle
투자액
선호도
##이론
##라이프
##pre
교육장
##MpowerEZis
##tables
CATALOG
갔
##Publishers
multilevel
##Blank
NAMELIST
디테
료
pod
replied
처리율
##240
##BRIDGE
##COD
MQCRTMH
엑시트
Targets
GMLOGO
SHOULD
##Subtype
DCM
friends
##capture
arbitrarily
tmloadcf
공람
inch
##checkbox
##스팸
byteArray
CosTransactions
##Signaling
SubscriptionsMetricof
deliveredcontent
afterCompletion
SOLARIS
Owned
kes
OOA
activequeue
soapUI
+\
##orgs
esults
ratios
##icts
typesof
걸쳐서
##AAA
##8967
bluspac
내려가
아동
방치
만의
창립
디렉터
##SHARE
##designed
##xsd
##군데
outliers
사이징
##Durable
Inline
Beta
##edited
##Member
authenticity
##Linear
OCX
##힙
Zip
##남용
트랜드
승계
##choice
부주의
누릴
노후화
##MQParms
##롤
435
##outs
##간인
##인계인수
꼽
johan
##명만
##지침서
식물
세무
이질
승훈
shownin
JPD
correcting
quantified
subtraction
Addresses
subtracting
249
##PROG
##대칭
Transition
##대사
##=!
suspension
##19116
의문
navigational
##Passing
ambiguity
##억불
연구실
화학
미세
MDS
##키워드
##가용
왜곡
뒷부분
비밀문서
ratings
##iOS
합동
##그램
신흥
##제조업
##에이
SAFE
misuse
##세탁
inspecting
DIT
~/
selectthe
nameand
redirecting
diagnosed
심지어
##구독
visualizes
enumerated
Collections
andother
##Sum
##Hello
##202
##지일
##KISA
loans
uniformly
afterward
invariant
##Analytics
##DSN
Previous
##Catch
Rest
revenues
moments
removable
모의
광고주
불허
dltmqbrk
CONMANAGER
abetis
decoupling
poison
MNOs
nonshared
CharAttrLength
##SUSPEND
보행
sa
택
신상품
##안의
##가버
메인타이틀
##메인타이틀
##나중
##본제
shortly
oi
##디언
NCRs
판매자
approver
##FASTPATH
SQLCHECK
nodename
CVAM
##*-
작전
sentiment
##PRE
##Asia
memo
**/
CMAPPER
##ISMP
##ALTERATION
downsampling
##SECURING
##‹
acquiring
thebuffer
##디맨드
파스
##합리
RUNNER
##DTD
##출자
advise
XI
##Immediately
uninstalls
##0100
DER
queueManager
##891
녹취
##json
##행상
올라온
본조
Bypass
쓰레
##실내
작년
JREs
Compact
isignored
##체로
##지와
Notices
confident
3600
229
348
##xxxx
쓴다
##건당
##기상청
윈도우즈
택시
아우르
수업
##prise
mitigate
tohave
Primer
##Scale
MOD
##BIT
##별로
standardize
Relay
##VLDB
##xr
상생
globe
##운
관계없
ellipses
sphere
Toolbox
285
CloudScape
##Templates
##Knowledge
CBO
Like
거친다
toolbars
hyperlinks
근
##수송
##섹션
##Measure
docu
##EVNT
##구시
딜리버리
Hibernate
##못하
equipped
toprocess
위해선
부른다
Attached
서드
오퍼레이터
BytesMessage
parents
##elements
Manger
##Instrumentation
achieves
Waiting
notions
Licensing
##ENABLE
Splitting
Hotspots
Percentile
Pick
##201
Favorites
standardization
quarterly
##가로
##161
##시큐리티
##터리
toimplement
##Samples
##Callback
NOCACHE
##bb
##조인
##미션
archival
##118
suspends
unordered
##DataSource
##Redeploy
Performer
오른
thanks
penalty
',
##demo
subtab
PUSH
##선거
##Bindings
##>_
ABETKT
bxets
BXETS
##공격자
산돌
specialist
##Sharing
Ilink
RA
RANGE
COPYPAGE
mqBagToBuffer
sever
##TPINIT
##탐
##ws
declined
##실질
SERVERS
ResolvedQName
EST
RPMs
compressing
##심의회
coach
Verified
Aqua
산단
THAN
##PENDING
Precompilers
마샬
RFHUtil
##ADO
GSM
##TRANSFER
Privilege
부동
remoteFileName
"\
SYSTEMiER
OpenOptions
##;/*
TPSIGRSTRT
타이머
metacharacters
vsftpd
##CWYEB
downgrading
Glacier
datadictionary
tosend
spawn
##스택
##EM
위조
수월
Japan
suspending
DBRMs
ENDRBA
TARGQ
MQCHLLIB
##안문
##GLOBAL
##명확
##»
공란
일일이
##나가
코그
##030
OpenStack
##포럼
열쇠
##벤트
재량
TPNAME
applicationprograms
##Communications
TAM
adequately
unambiguously
Pending
Disabled
##1996
UserNameServer
##groups
##permission
##전형
시행착오
편이
unnamed
##00000
적색
##Thin
휴가
【
##focused
startServer
bpe
650
｜
연혁
##section
306
코팅
##저널
##WAL
##물보
##Meta
Trial
##양호
445
mayhave
Medium
교통사고
팜
##양성
##layer
##Dashboards
FailOver
##미만
모아서
##데스크톱
Works
Brown
Triggers
##Thevalue
##show
ObjectMessage
forming
thenames
##할수록
스틸
##points
##Queries
nnn
Germany
색깔
msgtype
##신후
CLOPT
splittings
DLLs
##Permissions
aresponse
##Bottom
##Aggregate
onload
unreachable
Launcher
##Packages
plugged
complexities
games
branching
##\)
##로고
우대
피크
thedefinition
errormessages
IPPR
건너
##Uniform
aset
ob
varieties
bonus
vari
resident
broadband
Score
##Named
##롤백
performers
##막대
##좌표
배율
##RPA
##라서
CTI
spam
##203
cancellation
mightbe
toindicate
##BR
Outputs
Agency
##해진다
##전선
REMOVE
##NameValueString
MiddleWare
UK
MQWCR
##인치
##훼손
abvan
ABVAN
Diego
rebuilding
mqBufferToBag
BackoutCount
ConnectionConsumers
##sa
##요일
AO
AU
BFS
##SF
##":"
##LINK
더미
##모습
mgr
ECHO
enjoy
album
Samba
Julian
resubmitted
Able
아규
wise
》
##Supplied
##Causes
이동형
MTEEN
CONTINUE
##'><
Ask
불입액
Webservices
ImqBinary
Printer
SAPCall
##Σ
##Manufacturer
ManufacturerC
hostAddr
artboard
xscmd
ofOCIEnvCreate
Fetchmail
oot
disconnectable
waited
##Telnet
납세
무선랜
원재료
##프라스
##Composite
선보이
##Origin
벗어난
##화시
##노스
산업단지
출입증
##잭
두지
##행방
Snap
logfiles
thepassword
출입국
Fiber
##파견
##Username
##Anyone
CAs
##Securing
##GRP
London
Centre
##신문
Crash
DEM
졌
##­
명예
에듀
Robust
fractions
navigates
##식별자
##변형
##스크롤
##premises
departmental
reinstallation
approvals
병목현상
##connector
SFA
##Interactive
grey
Areas
244
315
##dat
##RECV
##선진
##550
decreasing
IntelligenceServer
##PMO
##ML
414
일목요연
##의도
##COST
##영시
##native
습도
여행
##행보
emphasized
영리
##sessions
valueis
accessthe
jobsthat
Exits
thestring
##스크린
hole
분포도
##'),
##Matching
Apr
##Need
Portlet
##_<
negatively
##middle
togenerate
##Did
toother
##Flash
ranking
Timeline
theresults
Http
Cookie
##Via
##산업단지
##OFFSET
##"></
possess
toolbox
Filename
구직
APPL
thedocumentation
줄어듭니다
개소
록
coherent
##cess
Percent
grand
depths
sid
DOC
시스
Diffie
XL
학계
##Changed
208
##ROUTE
##Indoubt
DI
biz
원화
##2035
##Studio
삼성전기
어려웠
##"[
##STARTSEQ
Storing
##출하
##CMD
mathematics
enabler
regenerated
Resolved
##CSQJ
reopening
##Combining
머지
lsService
achannel
synchronizations
##loading
##restore
마법
구함
텔레비전
WTLS
interfaceId
그릴
pseudoconversation
ApplicationVantage
##ModelAttribute
NoticeVO
아티
eMoviX
TIFF
Bookmarks
sshd
tpbegin
Ⅰ
코스콤
##기록원
multiuser
##overwrite
PlainTextSize
InitialVector
##ITSO
EDU
vile
ifid
theMQGMO
MsgToken
MCM
##지휘
##⇒
helpers
PEAI
JNSLocal
pins
NOARCHIVELOG
##warning
##132
##번하
합계액
매각
##Live
NCR
##수작업
LEFT
##106
themigration
##타행
benchmarks
##visual
##ProdData
ISC
##Firefox
OLD
미터
##AES
##ce
말소
Associate
알린다
##shows
Tips
portnumber
taskbar
##unless
##Considering
259
271
respects
##Characters
##save
undeploy
##한법
##관세청
임상
##키보드
Backbone
##Folder
##ROW
navigated
##Assigning
##Comparing
cockpit
Break
##손상
##Images
##dn
##license
」
민형사
spends
##ZETA
##Including
Styles
286
pulled
186
##달력
##DV
잘림
335
##Same
##사업단
##LAN
##오토
##프랑스
나의
##쇼핑
북미
##지출
감정
##RMS
탄소
서적
모를
주시
전산망
dbms
Bootstrap
##nite
storedin
##VIP
우량
bookings
Guidelines
Hints
dltmqm
503
promoting
remembers
##DLQ
##pw
##신일
##TimeOut
##resolution
createa
aging
exclamation
ser
theexception
youspecify
isgenerated
##arrow
contributor
Indicators
thatwere
##504
##Monitors
weaknesses
conveniently
mandate
flaw
anexternal
dictated
브로드
##StrucLength
ebMS
1980
##tems
nevertheless
substates
compo
oper
substituting
cre
냉각
##CWF
빛
##머리
Algorithm
##주최자
앞선
json
Outer
wouldn
thermal
recompiling
SHM
##Pressing
##전년
특별법
SSI
’)
SecurityExit
degrade
Movies
Salary
##internet
classical
escalationReceiver
Appointment
##UMS
IntAttrCount
Resume
거나
##MEMORY
##SR
CPS
##esb
심의회
Triggered
##XCube
##>),
##Mapper
BSC
##empno
nonthreaded
##Ⅱ
신문
반복부
##재분
Tablespaces
##0008
##kdb
##datalen
##inittab
MQMNAME
##RE
##SCHEMA
JMSMQTransform
0800
dblink
Brick
filespace
adeployment
##BFGCL
narrower
rolledback
IWA
##표상
IUT
##기계실
##PROPERTY
resourcemanagers
DSECT
selectorwith
clearingthe
ently
STATQ
IUnknown
Finit
Keyref
aud
DLM
##high
##종이
ko
##큐브
프린트
동급
좁
EDA
##시정지
##Coexistence
##❷
HWP
BB
Emitter
비상시
칭함
넘긴
##MEA
그치
일과
지켜야
unsure
asymmetric
intercepted
520
SDSF
KEEP
내로
##collection
##증기
##타당
LastName
scalars
firms
borders
##live
계리
recreating
studies
시운전
향응
예정일
##<=
##recommends
##unknown
8080
furnished
CATALINA
▪
##지령
들이
##메신저
##습의
스위칭
적격성
##Deep
Alternative
##비대
##Commerce
취향
##세기
비행
DAS
##FAX
전항
##예정일
##Ethernet
일으킬
##카운트
VALIDATE
##가망
Wave
##="{
RDN
acl
bethe
##가중치
##MQZ
##Listeners
mechanics
remembered
unprocessed
pReason
lasts
wealth
##Paste
die
usethis
Incidents
parallelized
SS
thecontext
wascreated
recursion
##Encryption
Picker
##Collection
samename
##Inserts
notexist
anappropriate
adheres
sentences
Footer
공법
##광주
균
Concurrency
Proframe
Exists
conference
Situation
휴지
##㎡
isdescribed
rep
ellipse
modularity
strange
proportional
DataTracker
Qualification
칠
##Potential
소음
##HOS
드롭박스
experimental
expander
beable
미디
콜론
##INTERFACE
수출액
##CUST
Sport
PSMODE
##Expiry
QType
##Occurs
QMID
InhibitPut
REGION
##De
##이즈
Directly
facilitating
ResourceException
DefXmitQName
##RemoteQMgrName
##따옴표
조흥
##items
holidays
thispublication
Approve
SERVICES
mailboxes
SELS
CCOK
ODON
Billing
INCLUDING
Tcl
##메리
##ProcessFinish
천이
489
transportable
##Separation
RPCs
JAXB
Unavailable
IOS
WebtBuffer
TPCOMMIT
precompilation
Params
Precision
thesesystems
adjuster
##cBfh
스켈레톤
dpt
##"..
##LOBs
Inclusive
##===
Swatches
strmqikm
stoplist
equests
Explor
waittime
마진
##체크아웃
구한다
÷
외국어
##Know
시방
재기
preserving
wellas
MPEG
CSQBRSTB
5724
MIGRATE
##3215
DP
COMPUTER
거짓
##Associate
anomalies
##DCE
thelist
##contrast
USERNAME
theformat
ofthose
genuine
##Attach
Depending
##Optimizing
##stage
##Parent
mqsichangetrace
##Issuing
##Licensees
##드론
##"(
ArrayList
##노후
경진
원의
##학생
anexample
encompass
##parser
STORE
HOUR
261
##Whereas
##NXA
tps
Trader
차액
##HR
geographies
##232
Recovering
들어간
Mart
messageId
##외국
Browsing
Navigate
##Editor
317
##managers
electronics
##특이
##CNF
##CLP
Approach
##주정차
##초안
##베
##르
secrets
##life
아날로그
MacOS
쇼
BigData
삼성카드
##해진
비추
SEI
##비전
nowait
RTYTURNCNT
##SSH
이클립스
주최
DOD
Supplement
##Dynamically
TopicConnection
##Floating
thisproperty
dormant
Recognition
스킬
마쳤
ISV
TPSVCINFO
독특
Jenkins
invest
Queued
##PID
Independent
Timers
theprocessing
percentile
tester
##Whenyou
Possible
hop
##Transferring
VNC
##HOMEDRIVE
esb
##실에
슈퍼
인원수
스마트카드
preface
Isolation
TN
보냄
봅시다
Addison
stereotypes
##Lookup
swimlane
theright
onlythe
todo
INTF
infrequently
307
301
Clock
Near
##외견
##하이퍼
##DOWN
거래제
옮긴다
counterpart
TKSERP
##HELCHS
wake
들인
COMMITTED
장려
der
밝혀
##Autonomous
NBP
*)&
##Grid
##NetBackup
##USA
##Tells
rearrange
choreography
##Reilly
examination
##Essentially
Era
##ROWID
##Pay
Equal
comp
quoting
PRIOR
MQCFGR
MQCTLO
postal
keystrokes
러시아
축약
partnering
##WebtoB
##April
##loop
문과
GMO
압력
md
COMPATIBLE
Mandrake
##development
lp
##HTTPThreadGroup
LMID
##일자리
##미결제
##proframe
##내부망
469
ek
gid
Clipboard
hostvariable
##《
MQeFields
Guardium
alt
##decision
myfile
설계사
forprocessing
sndbuf
##POP
##="[
XEUS
GATE
강동현
Lob
SQLData
StatusInfo
SignalSets
inalphabetic
DMPMQLOG
ITSOGood
clipping
processorsonline
keywor
wizar
SUBSTORE
reopened
inone
conclude
##제주
##1330
##기능사
철거
청소
Telecom
CMMI
Calendar
도용
prefixing
면담
functionalities
velocity
QMGRNAME
cleans
##PLAN
Even
NSCP
MODBC
##피그
##수에
가처분
##단축
MQclient
##SupportPacs
##ECM
WKSTN
unconnected
Excluded
##Frame
##물자
##International
학위
##Ant
theshared
##폐사
Companion
abandoned
notarget
##Whatever
EXP
싯
Fatal
##%/
##컴파일러
##성격
shaded
developments
해산
##EIMS
챠트
##Selection
##적합
힘입
Analysts
상정
##Threshold
##115
##Screen
##SCC
confgured
adaptive
##시군
##완료시
방금
혁명
추론
알릴
Bold
suppliedwith
Fire
외래
철강
Terminate
satisfactory
MQZID
##클
##EAIBK
shallow
insignificant
thedeployment
##Bytes
##Entering
fileName
versionof
##Internally
##Warehouse
##capable
deadlocks
alocal
PDUs
##Logger
continuity
Describe
용인
귀중
theintegration
modelled
whetherthe
##신청인
##슴
##Care
DLP
casual
##Abstract
rational
##Keywords
transmitters
consolidations
uncheck
##걸
##휴대용
Trade
##PoC
테이터
Dollar
logistic
scatter
downward
cage
preset
봉함
부작용
Robot
대응력
Adpater
임치물
CLWLUSEQ
DefPersistence
##핸들러
ConnectorException
##PB
Math
##ResultSet
##Traditionally
##TEMPLATE
##book
CSQCAPX
MaxQDepth
PutMsgRecFields
AIM
Officer
lessons
##DAS
##포크
맞춰서
datastores
Me
##TABLES
QMQMSAMP
fileset
##netstat
##IVP
elegant
Blue
##수년
Coverage
##DUT
##000002
precompiled
##CRNGT
##arguments
Guides
##SCHEM
NCLOBs
Dimensions
##"\
##johan
VMkernel
##욲
##Listsall
##튺
flowto
Orientation
##마명
##hostPort
’-’
Codexa
theamount
Backups
##남부
##대하
##032
##전수
##정액
소모품
##다이어그램
holistic
prone
##integrated
thecustomer
suppresses
SRRBACK
STARTRBA
##ConnectionFactory
amend
배포판
따를
##자일
QMName
연계성
##SUN
##적격
Author
늘어날
폭동
##천재지변
Cobol
##USERNAME
tprelay
authentic
decrypting
##Deciding
##COMP
287
네덜란드
결코
##여성
도약
자연재해
2023
찾아볼
Hypervisor
TSM
일마
##인상
COMPUTE
modifiable
sine
258
XMI
paying
uncommon
##THIN
counterparts
XXXXX
##Tutorial
266
##Goal
성분
##록
spare
근무자
##금일
##RELEASE
불용
##법인세
##유닉스
wasn
##제재
##가자
숙련
Requires
##로우
Dell
세제
사소
##시뮬레이터
Seed
FAIL
##상시
holders
##유량
itto
asan
oneor
alist
##cf
##문화재
328
트위터
CLWL
RETRYINT
MQS
reboots
spreadsheets
으로부터
OnLine
appreciate
##contact
explosion
isrecommended
##104
Francisco
thereason
arequest
untrusted
multidimensional
inbox
healthy
badges
##Keeping
multitude
##주선
595
##450
PRM
mutex
악영향
##baseref
tricky
##ity
mutable
supersedes
collaborations
inception
elaboration
invited
##답변
##MACHINE
##수배
##즐겨찾기
##도표
미결제
##FIFO
Energy
CX
##수렴
대답
##기업인
서지
##수정과
VITRIA
television
##Match
##pos
airgwsvr
Simulator
Swing
##CCI
MatchOptions
MQIASY
##플레인
##REPOSITORY
VUE
dealer
NP
Emptoris
ROUTING
plate
리허설
XMS
##LOAD
msgID
##daemon
##Divide
##Handles
Conditional
##Mid
##md
VP
CSECT
headline
paradigms
##orders
Approved
commission
RG
TPACALL
PCB
열릴
LANs
INITRANS
RESOURCE
ANGCOL
MCAUserIdentifier
취해
##돋보기
DDS
##Jan
ORG
OCCURS
lengthof
tbl
MessageId
##ImqQueue
##Fails
ROWIDs
BaggageServiceProxy
executionswaiting
Hmsg
##ALLOBJ
##Cr
LRS
EtherNet
HTH
CloudTrail
oratext
''{
interconnect
##driver
찬성
게을리
InBound
엄격히
##연구비
##부대
Union
abusiness
돌려주
orphan
##증대
##lp
##5782
##검색어
##https
##exec
ROLAP
thetwo
##Thismeans
##Postcard
thisqueue
ispossible
탈
##인수인계
##당업
tampering
interrogate
491
닷넷
##actions
Proof
PASS
##ODS
##패널
WARRANTIES
##Minor
이율
##개혁
SCAN
##토의
Basics
SALE
전자파
역순
##Cut
GUIs
##nodes
newest
엘지
##CCC
통용
##Beyond
##SVN
##shutdown
이종
최첨단
forwhich
##인해
느낌
음원
LP
걸림돌
지방세
##디스플레이
떨어질
LS
Redwood
Directories
theform
beforethe
##rmation
onthis
Dispatcher
Xpath
##ORB
##endpoint
forgotten
##tools
narrowing
##EXPIRATION
MQZAS
소폭
중동
##Stack
##NIX
alsobe
INITPARM
##USERID
##Alternately
##some
agiven
skeletons
Sent
callers
##CLR
조세
359
Choosing
generically
canaccess
##ALIAS
주류
discrepancies
Categories
##browse
Seconds
##DUMP
##hours
디스
BPMS
IdP
##ALM
##NON
OUTER
이수
##AL
stepping
jumps
##386
Mask
##상공
BK
##펜
Ver
99999999
Turn
블레이드
ABGWSVR
연결선
duties
engagements
##Executes
ⓒ
Manipulation
전월
##DBCS
ResponseRecOffset
##sequence
##파라
noting
Restoring
Direction
cumbersome
draws
522
##파싱
unprotected
##COLUMNS
mandated
액셀러레이터
homes
##레거시
SSM
##Hey
애드온
##udp
scrollable
##프로파일
조작자
##PRIVILEGES
bool
subclassing
Iterator
TMM
인스턴트
##COMM
Dequeue
##남양주시
##Leveling
Incoming
thetablespace
##typedef
CharacterSet
underwriting
varrays
##dept
IOD
TPBLOCK
**)&
##Callbacks
##UPDATED
wasissued
thetechniques
IBMMQ
##HDS
##ImqItem
PDFMaker
ARN
incr
ovide
5274
noticeable
##Redo
thenormal
무효화
위촉
징역
##MY
##기준서
331
저조
##참석자
opinions
visitor
outputq
전염병
blueprint
videos
##Notethat
venus
##캡쳐
점선
##여의
Optimizing
Listeners
##>_<
##alive
410
##때로
들인다
당하
성적
WITHOUT
##대분류
배너
##의약품
##2024
specifiedin
Starts
theversion
감동
inexpensive
universally
Tim
##국민은행
‘[
비대칭
optimally
##Traditional
maturity
할지라도
262
##®)
##NICE
##청자와
##안보
##after
centered
viewable
Successful
##VAR
##Xmx
##청기
채로
모바
SANTA
개개
##비실
##ISSUE
##전표
Mission
##Modern
pursuant
##안심
##트시
왓슨
fles
frequencies
##핀테크
자제
Music
원에
양수인
합치
##수명
##가정
양자암호
띄어쓰기
Organized
Keyboard
prop
anindividual
aproblem
##전행
##MQAI
##7472
Participant
MQAXC
토글
applicationserver
##Themaximum
gzip
##HDFS
scanner
synchronizes
obey
erased
inspected
thecontent
##Question
toread
yourown
VS
아파트
##coding
##131
PUB
순이익
##으실
장중
티켓
안보
Performs
ODK
anarray
##Storing
datastructure
XMLdocument
useto
imperative
MQCACH
소중
오버로드
##SAMPLE
표적
##PREPARE
##SUM
ink
stacking
##Collaboration
sur
meaningless
convex
환
Mon
AUTHORIZATION
leap
RIP
##습
##*(
##mod
Recommendation
##캠페인
tuxedo
Well
스텝
DID
속보
DUAL
##inhibited
QSTATUS
##Called
##국정
올라가
##bridge
##사용법
FW
##QMQM
IRC
ResponseRecPtr
양행
똑같
xsl
PP
KO
##858
grade
Branches
##Mount
Collab
BFA
지로
##EXPRESSION
회복세
Hand
Attempt
BatchAgent
spelled
skipping
별송
subordinates
Original
Mins
680
suffice
##learning
replacements
Highway
Reserve
areusing
presumed
##cv
fn
windowing
##-*
SCADAOutput
부등호
pruning
Sycros
##Members
##TMAXOUTADT
OpenKit
##ARG
Booking
PMON
Bookings
##ESX
JMSBytesMessage
qmanagername
MYFORMAT
##WebAdmin
SPACES
STS
##FD
IntegrationServerMain
BipSampPluginParser
OnClick
##WebSnap
##lob
internetwork
박상호
sqlj
swatch
nawk
keyName
ChannelStatistics
Stunnel
ovides
eturned
INST
INSTANCE
restoration
팔
##failed
50000
조례
##ㆍ삭제
건너뛰
##사무소
임차
hp
engaged
##accessible
Firmware
dependant
reo
##정보주
##userset
트윈
일지
##로드맵
381
##Designing
DBADM
591
198
constituent
CDE
##MQInput
475
Instrumentation
##로딩
##귀사
##역사
수위
관건
##보내
전자책
##충족
CLNTWGHT
##Price
Notation
624
에만
fragmented
##have
Starter
packagename
##효로
respondents
##Probe
##방카
277
나눠
##264
##040
##Jenkins
##소인
##mstr
##팜
##적극
##031
Redis
Hours
##기인
##을까요
계산서
prediction
##워
##행자부
##청건
주위
##ʼ
##위험관리
PLM
QueueReceiver
acall
insure
thequery
thisvalue
theproperties
##foo
##상황판
클리어
QUIESCE
##SUPPRESS
attaching
ZZ
wanting
JMeter
collectors
isautomatically
##>:<
isperformed
##Production
todefine
##Roles
applicationthat
Final
Colors
Sunday
foruse
##Placing
독창
div
##릭스
몫
##박
PurchaseOrder
##MULTIPLE
mqCreateBag
Bulletin
인라인
##two
cli
constrains
##Privileges
HANDLER
IDG
동의서
434
##CIF
총합계
sun
##su
jumpers
lights
elaborate
MOU
전과
달려
위함입니다
##ind
개론
##보험금
##trans
FiSS
명부
축소판
##Interoperability
ourselves
##HOSTNAME
전량
##IEEE
##CSQU
AVAILABLE
FRR
##BIG
##LOGIN
Buffers
isselected
youcreate
Picture
Equipment
근처
##검찰
##reject
Replacing
##PV
##NRM
organisation
##entity
##wps
##swesbpa
##customer
GM
MDOFF
Guardian
AMQSAMP
##upgrade
##위임
wasnot
analog
슬래시
532
PDP
COLUMNS
##sprintf
Fred
보낼지
JavaEE
AmReceiver
MQProcess
hostnames
##brmq
CHUNK
##WebtTXException
송민섭
김상기
##Illustrator
testfile
eleases
oduction
##스피어
내려받기
의장
##신용정보
따라가
##분에
##ILinkServer
ILinkQManager
Ahead
##POC
한자
노무
##계표
##DL
##SAM
##수산
construed
##Overall
proved
BizTalk
##부득이
slip
##Coherence
##효력
Altibase
항온
LABEL
theoretical
companion
premises
행태
Standalone
##administrative
육
돌려
##홍수
accidental
##>/<
ASE
mqsideploy
##MQSI
chars
도메
##영의
##1001
고부
##정밀
써
처방
졸업
애자일
초대
##왜
##PA
GMTTIMESTAMP
##English
warned
ported
열린다
##runner
##Commercial
ECMAScript
Saved
powers
SuSE
oci
explanatory
##Printing
vpd
요함
##포괄
correlationId
##sdk
##pages
305
그동안
cutting
##인감
DRAM
##복잡도
PREACTION
부칠
동그라미
파이프라인
관심사
##204
noise
excel
##비스
후반
Advisor
##bound
QueueConnection
governs
##Caching
되돌아오
변상
##Permanent
##Alternate
refuses
intermittent
##Operator
EntityType
##Layer
현물
iSendLen
provisioned
감당
##Continuous
##processed
canhave
##Resume
informative
##Incident
##applications
##unit
unfamiliar
pilot
##거전
##Maybe
굴착
##ㆍ매출하는
의식
문단
##Transactionality
SERIALIZABLE
CASS
Tags
되돌리
##교차
대수
##tiger
옵티마
twenty
reusability
##sions
aborts
##ness
##lls
##Compensation
pasting
본청
##보여
749
##FML
Wild
끼칠
실행력
##산업은행
bezel
DSA
boards
LWST
##TOTAL
##NetBIOS
##매치
해체
##WWW
재분
##OLE
##RATE
##published
cylinders
MQQT
MTDI
overly
FrameWork
삼성증권
##Workstation
##neutral
##argument
advances
InteractionSpec
Claim
reassemble
trptype
MQCCSID
##OWNER
##튜닝
street
thebeginning
##Bserv
##useparams
##괄로
Sever
Populate
##낭비
indent
##ECB
multiples
##Structures
perl
crop
조상
insecure
원자재
RESOURCES
##거래일
saprfc
VAM
DECnet
##Makes
DATETIME
3980
##TABLESPACE
Foo
tty
SEM
wid
Else
Joe
channeldefinition
##OTS
si
scorecard
tns
##maximum
PCTUSED
##deptno
theW
BATCHSZ
JMSCorrelationID
fc
##IEAI
TrueType
무력
idiom
OCFS
dBASE
##뭅니다
##IllegalArgumentException
##MyBatis
FSD
JSL
fected
Recipe
adata
theorder
도청
##하천
심볼
##129
부의
##MDB
##소별
호주
preselected
##부설
##resolve
simulates
tens
피보험자
##접
##win
IFRS
##일상
aresupported
ofWebSphere
servername
amqsputc
replicates
##Indicate
employing
##Ping
##민감
##음대
##외장
ITA
##기자재
##관측
기본법
##법제
산림
보조금
훈령
역추적
사각지대
tweak
jars
Through
##일마
##MODULE
##Contrast
pervasive
##Ultimately
spots
uncomment
##mails
TAR
forums
해약
302
316
##나타냅니다
##社
팁
##스톱
##RAM
##방망
sits
##유선
amqmdain
POSTACTION
##890
##중분
thissection
suits
##진화
당연히
##555
Printing
PIM
액셀
기술보증기금
##testMgr
##exclusive
##Incorrect
##DOUBLE
##성실
PURGE
##privileged
incorporating
dumping
##안내서
샘플링
강하
오케스트레이션
충성
ZDTP
joblog
Cryptographic
thatcontain
contributing
##Allocation
cool
couldnot
watching
##initiated
dT
PNG
Bluetooth
Mobility
##아시아
##obj
Writer
##녹색
##503
##사명
##STEP
광학
슬레이브
##다스
훌륭
##robin
gender
##Modeling
applicability
environ
corners
deposit
repetitions
successor
useof
haveto
TRANS
##Compared
진행시
309
investigating
forecasted
Movie
filler
batteries
##비정형
브라질
##216
##샌드
clob
##Publisher
clashes
##채움
MultiSource
해답
correlator
##QoS
taskid
LPA
vote
##Profit
##드릴링
##변의
notspecified
probabilities
engineer
WE
nohup
XS
##내기
빨간
enforcing
##syntax
##식이
##catcher
PMLOGO
decrement
IPF
##너와
##sNotice
ModelMap
traceability
##3000
PPPoE
gtk
TFTP
Sally
##ASM
##PUBLIC
##Indexes
committee
LoadLibrary
##edu
DIAGNOSTICS
VantageView
forWebSphere
byspecifying
부화
##수평
ACME
NY
vuser
thisfield
setmqenv
fg
subtransactions
##DIST
##앆
justification
$_
내화
##szbuf
##CWYFT
##_*(
CRMs
##홍석
##trd
CERTLABL
##SVRCN
##MQQSGD
eates
##uence
##nity
signify
##송수
BANCS
ILinkCon
##정합성
재료비
산식
##유니
Pure
Its
parity
conformant
differentiation
##Optimized
Independence
relink
MMC
##Operational
819
QueueManagerName
양사
개찰
##수탁
Capabilities
폭우
예치
##Notices
##folder
IBMproduct
##통사
##가트너
반품
unreadable
283
converters
살펴본
ER
오차
TAC
##냐
빨라
팬데
대대
assists
##Saving
LF
FolderBitStream
=)
ILINK
breaches
Visibility
prospect
\\
##Opens
"".
278
deletions
시현
shifted
Without
##fiss
##바이오
competitor
##LTE
##차주
##펌
##에게서
교통량
reputation
accelerated
##MERGE
regex
아마
##소형
##워치
##Listening
##280
Healthcare
onlyone
Assigned
##msgflow
detailing
AAAA
SSLKEYR
##triggered
Selective
이뤄
찾아보
##idx
So
themachine
YaST
##OverviewdynaTrace
Regions
##merge
##Connected
##Whenthe
##Comparison
toupdate
toany
##kernel
touched
Again
thememory
tw
hierarchically
IntegrationManager
geographically
##보도
ClientConnPtr
GetMsgOpts
343
##레이어
##매주
usinga
systemadministrator
##self
Ticket
substate
##lowing
##Derived
indicatesthat
favor
pose
datasources
subcategories
Southeast
341
doubled
##Expected
Allocation
##킬
##전처
달기
##IFS
Datafile
##예컨대
실장
Recover
EAIHUB
Preserve
##Rotate
Sony
hashing
##쓰레기
대응책
델타
정상일
MQCI
##Businesses
illustrative
KAINT
##안기
##sysdate
denormalized
Flexible
안티
partnership
##requeue
warm
resetting
MAXDEPTH
MQCFSF
ParameterCount
##쿠
##성일
##DUP
sap
##Bring
##ibesi
telephony
##drivers
##SIMPLE
BUFLEN
AID
##delivery
##LAGCluster
##테넌트
##Thu
##rec
netmask
##100812
keyring
지난해
TMQUEUE
##더욱이
심평
그레
##아동
Bell
theschema
itwas
forthat
Synonym
Retrieved
stty
aprevious
thehost
##PowerUpSelfTest
eDiscovery
Doe
##''.
javac
##WANT
KCB
SVRGROUP
##=#
##OO
##svchp
##EVT
##studentnn
##pragma
눌려
capacityavailable
##홖
##aliasing
TComponent
##SECTION
김동준
엯결
VoteCommit
collectiontime
plusWebSphere
eTapestry
isfailing
eceives
ocessed
##Calculate
DBWR
adverse
##Rows
##Maintaining
SYSOPER
##Initiate
yourapplications
payable
rw
권유
총무
장래
##Traffic
##시일
##닷컴
Graphic
##integration
찾아가
실용화
도우미
##Dummy
##Leading
센싱
USD
##both
##KVM
PROVIDERVERSION
##보낸
deviations
##320
Anti
판매량
##결정자
중부
미결
진행상
dialing
userinterface
postcards
ofany
##EAIHUB
옮길
elapses
mqsicreatedb
551
##YY
FB
##자로
##단순히
통계청
##알선
##형성
##Future
직결
drawback
##수상
scientific
reconnected
##CAST
>,
<,
##SQLSTATE
lu
##조립
expectation
420
##conntype
reverses
##weight
284
##Resolution
부류
##LCD
impression
##담
퇴근
부사장
Helps
##체인
##경량
##추천
##간편
Station
밝히
##binding
아무리
세워
적혀
##짓
Rebuild
화이트
supplementary
##Closing
PTP
##Thisinformation
##balancing
pseudocode
PROC
Fee
##RTSP
장애물
aggregating
##Inter
##Splitting
theuse
nicely
permitting
impractical
aprocess
Shut
Zoom
They
Labels
reclaim
derives
##Integrating
##metadata
ia
smartphone
dozens
trained
consultant
##스킵
##침체
377
##실현
재원
랜섬
CMD
##구직
##na
##downlist
MQCUOWC
Filed
typeface
facet
reminder
##ence
##editing
thereferenced
initialvalue
elimination
recompilation
formally
TIMES
##7017
##얻
##나갈
##템
##폰트
##RW
측은
##갈
##IDX
SND
pencil
바뀐
Filler
##Credit
토론
UC
Centers
인텔리전트
SubLevel
##Fruit
ACCOUNT
Consistency
PT
depict
reestablish
redelivered
Ok
UsernameToken
lease
Shadow
transid
UR
mqAddInquiry
TransportType
기업어음
##킨다
말풍선
##세관
ordocument
##js
##FIRM
SCC
##커서
##technet
20000
theroot
vmstat
Frameworks
swinstall
Photo
school
##audio
wonder
valued
원오
cylinder
##terminal
carray
userlog
##가단
MAPPING
완공
##407
CIF
Productivity
##일까
IllegalStateException
##국제회계기준
specifier
##522096
##|/|
TRUNCATE
del
##Telemetry
##Jolt
fle
JMSType
LUW
##SELFTESTING
MQManaged
implementors
adistribution
##42000
CIH
##OpenShift
##µ
":"
MQDestination
MQConnectionFactory
HDR
TPNOFLAGS
Archie
spiking
Preface
PHPCompute
PeopleTools
##DAEBU
securitytoken
강대현
##병근
ded
jade
svnadmin
iTools
eviously
##찰시
침
지명
##등록대장
TRLOG
386
##ext
HLR
geography
##Explore
##면세점
unmatched
##FDC
##Logs
##．
##저작권법
개개인
갈등
##공휴일
양해
커버리지
MQfor
조심
authenticator
honor
")
HostName
291
##Authorizations
회의록
##몇몇
=(
##버그
모방
##BOTH
법인세
##강도
일평균
해양수산부
##소관
향하
둘째
##109
ruleId
버리
##;.
##therefore
##was
##Id
Tue
수행자
방카슈랑스
##facing
popularity
##납
메가
##유니코드
interruptible
MASKED
327
UserId
364
~/.
TOOL
##들일
##Navigation
Within
288
##대안
##생체
급성장
재활
유추
자립
##Improve
각도
전방
China
##非
##꿉니다
슬립
##인포
FrontLine
##350
엑스
ETRI
앞부분
Crontab
1440
재등록
##Demand
consequential
DEV
표창
theMQSeries
isassociated
erroroccurs
ofcontrol
##ltering
##Propagation
accumulation
dialogbox
ableto
objectclass
aninstance
새벽
Logon
mqmtop
seriously
##available
suffixes
OMS
calc
##력구
##has
Includes
dozen
##011
subnets
##rest
Erase
Runs
##Duration
measurable
maximumnumber
385
Overall
thedevelopment
##Known
OpenSSH
internals
##301
PACS
탄생
광섬유
인수인
소계
서비스업
Quote
youroperating
Purge
##오프
##누락
이스케이프
사서함
##scott
정지로
로더
subsection
##aws
submachine
repre
ill
aspeci
##shelf
RAD
GATEWAY
##tracking
rsh
사망
##여권
##가족
Imported
laser
##Passwords
##니퍼
TOT
##Multicasting
##Siebel
랜
그만큼
코덱
##컨트롤러
##Drilling
##direct
##BWMAGENT
CALLER
RUNMQLSR
DEMO
CLWLPRTY
##EMPLOYEE
##─
Dir
multilingual
lay
hardened
##Inspect
directing
##match
##Mb
##reason
CEMT
TPSTATUS
##221
닫힐
Trim
##비록
##CUD
##[%
##ACC
NFV
대만
thirty
##Earlier
Endpoints
NTLM
BKJ
nslookup
reassembly
##Plug
##"<
Levels
##시트
1991
MDMFL
INTEGRATION
##Structured
motor
##EN
##Programmers
tpenqueue
##ABAP
##tool
일중
##QMG
##lf
CRTMQMCHL
565
수신일
##shadow
##Closes
getopts
##플렛
Guaranteed
STRUCTURE
renames
##her
authorisation
pk
therecovery
savepoints
##resume
##HALF
docs
##611
echoserver
##ACCEPTED
untyped
MQGETcall
##strlen
COMMINFO
덮개
serviceDeploy
디스패치
##ROWTYPE
##SCRAP
fullword
LOV
LILO
BusLogic
DSYPATH
IAppServer
irreducible
bfile
##hostAddr
니어
TSFI
MQversion
noncurrent
ompt
UDCP
everyactive
Closed
##계열사
##표기
패널로
##UCP
##보호기
정액
##등본
##bwadmin
달라서
##=`
봐야
##국립
Edwards
Defense
##ns
적기
##ATB
requisite
##₩
##철회
Making
도심
Loadbalance
토의
##IPTV
##철저
##Prerequisite
adefault
therepository
##146
##멸실
##Fully
##Collecting
PPT
##Assistant
##Globally
cm
Artificial
##repository
UNI
##강
치수
##창고
늘릴
Care
바를
열정
Initializing
tomanage
Graphics
##Invoice
DestinationData
##절체
Conference
opinion
DataDirect
296
twelve
##0003
##원별
크리티컬
##무결성
XXXX
심장
##Callee
##주소록
Catchpoint
##일인
surveys
요금제
##VoIP
##Premise
차수
technological
전선
##이용료
심리
RESTART
##SKBM
Inside
##플랜
샌드박스
TAP
##LS
MILog
수생
##북
멀
Sections
94065
thesection
##quoted
‘-
whilethe
##clients
intercepts
eServices
매력
testers
aligns
thenecessary
messagesfrom
COMMENT
##easyTravel
##serverconfig
cascading
datato
chronological
Truncated
"-"
availablefor
axes
##Reporting
otherthan
Explore
##directional
wishing
talked
TCAM
##안자
##진입
tiling
toString
mqAddString
Intra
MIMessage
대괄호
##EUC
##혼합
##Mar
generators
##offs
compartment
##ate
itsown
Governing
##손
Assignment
흐르
##티어
BWM
가져와야
##회의록
##Performs
##Predictive
campaigns
Leave
rework
chassis
##Dropping
##ax
Minor
##more
##SA
GROUPS
##*+
Capability
##기록부
부점

denial
senior
illustrating
371
##270
probable
##Docker
##식기
심도
FTA
Individual
stations
캘린더
워커
advisory
9999999
션
월수
싱크홀
##FTPGet
MIDate
adirectory
BACK
GMCMPM
PSB
MDRQ
spooling
##mysql
uucp
##mands
##TERMINATED
domainname
dequeuing
##였으면
컨버전스
HOSTNAME
Quickr
변동비
##CHARSET
WILL
equivalencing
FLUSH
bufferpool
##4690
thetrigger
Marking
qname
MQSEL
##피싱
ResourceAdapter
##EXCLUSIVE
calculator
##ImqQueueManager
MBeanServer
Fulfilment
MSS
projectName
sparse
Indicatesan
manytimesan
##norm
QMC
gradients
AIRLINE
##vip
##Returnsthe
GBL
examplebucket
JRLY
opagated
DBWn
DFS
seldom
##데이콤
##색시
##위원장
헌법
##⑥
생산자
##사정
Separate
##에디터
ascii
##BWM
emerge
characterize
Functionality
##Yantra
XMLHttpRequest
Encrypt
##텔레
했으나
##스캐너
STP
OpenEdition
Organizational
고칠
##인하
오동작
##하고
시한
리빙
##공문
##536
Destroy
스피커
##qn
모름
##수령
##delivered
##Authorize
collectives
##Between
##Lowercase
Endian
MORE
##지진
넘어온
캐비닛
걸렸
생물
유가
##Learning
혼선
우선시
범인
##FUSE
##국민카드
외형
approximation
_)
쌍방향
##시간대
RENAME
##WISE
OSPF
constituents
지면
##공고문
일종
##DTM
##Ramp
대학원
봉인
accomplishes
philosophy
##Specifications
##Comment
##독일
##잠재
완제품
IVR
##다섯째
패션
##비디오
북부
##163
##수별
##노란색
##설서
##반도체
수백만
들여쓰기
hereby
promptly
##OpenAPI
Disconnecting
auth
JMSReplyTo
isimportant
connectto
orother
MQPER
##Continuation
gracefully
RQSTR
##자당
calloc
redundantly
trending
obscure
anchors
##week
ulimit
ABEND
thecertificate
##Suspension
toretrieve
withan
slows
##Argument
andtheir
Downtime
Counters
lag
atime
sameas
Init
baggage
ensured
##그동안
파일등
대손
널
consultants
##Connectors
Greater
이지스
##샘플링
Nothing
유니
##Wesley
##tory
forany
##ally
expressing
misleading
overlay
agroup
##Compression
Dependencies
##pwd
##1111
rebooting
##Kerberos
##WMQI
##BPO
TPETIME
할애
Responder
notebook
639
박사
##일수록
하향
##접지
##Interaction
LNX
heuristics
MTD
VDMgr
##──
boost
##Balancing
OSPFv
hiredate
골드윙
##116
##mqrc
##766
offloading
CLIST
Recoverable
reestablished
##Registers
MQDLTMH
##GE
지킨다
##면허
##가구
decoded
Db
비우
===
pkgrm
Pop
난독
##Introducing
공통부분
PfnNumber
##이각
MDGID
RFNVS
##amp
commentary
##관련자
BREAK
Chief
Lambda
##Rect
inany
avail
XFree
출연금
AMDs
구성비
BatchGW
소비량
Conversation
Serializable
STRMQM
OBJTYPE
CloudFront
##Prepared
##VAL
##③)
MEMBER
##DESCRIBE
Ann
getty
LK
passenger
1160539200
concludes
##NEPTUNE
MQSCcommand
##LOW
ARCn
SUBSTR
thegateway
리얼타임
##Clears
Loadrunner
PutDate
MTOM
dogets
logicalmessage
759
954
순서도
Exadata
##김남규
##odata
##Xid
BPLM
##nCount
##20020215192343
##아바
obk
##scrap
##intot
##intraot
##obk
TAL
##CGI
tk
Passthrough
1064
hashit
Liststhe
##SubscriptionsMetricof
repositorystoring
##Includestime
wasad
opacity
MQOptimizedFlow
SCPollable
MCPollable
SourceRequestDescriptor
NotifiableSourceConnector
##goal
##MQCFH
##OBJ
TPSVCDEF
ITSOESB
hostPort
MessageSetIdentity
##XMLParseException
##>#:
fileInputStream
mydb
VMPS
Incremental
##Person
돌아오
사생활
##대통령령
Toggle
##unitinvoker
##수일
##Symantec
Passive
##classpath
fi
##settings
##Configurable
##듀얼
housekeeping
##휴맥스
##Chrome
ITU
SIEBEL
##email
mteagent
##통하
여정
가져갈
갑과
Ezis
##oNline
소상
NOTE
##은데
##주전
notneed
나뉩니다
예의
distinguishing
DatabaseInstanceMgr
289
당월
##\”
##유휴
이원화
##기금
수송
국무
입출
##토지
##흥국
canchange
열과
##Refers
##NUM
##}]
##Partitioning
JK
예전
complain
eyes
watchdog
##Beginning
##person
escalations
entitlement
##INFORMIX
##ADMU
BPEDB
specs
##Watch
className
KISA
multitasking
인시
##151
Sat
Due
bounce
crashed
##전합니다
직속
KRW
##675
FAQs
##플레이스
##145
POJO
##잔고
604
##Requester
##TRAN
"]
소방본부
regressions
ofOracle
TopicSubscriber
destroying
isspeci
amulti
disjoint
Commits
##안건
EDMS
##BACKED
##Failover
##AccountingToken
France
##로움
##별명
instrumenting
##monitoring
##Nodes
##Background
dothis
blacklist
Passing
subgroup
thedescription
##502
finalize
issent
##Lifecycle
virtualmachine
##PI
pain
undergo
hooks
studied
compelling
관로
##170
##보수성
bea
Abort
accelerating
shortened
터키
헤드
Fundamentals
에이징
ABCD
##MTECC
Adapting
Structures
##tomer
tailoring
opera
intrusion
traversal
##ated
programminglanguages
##139
##history
##Improved
Ownership
##2111
##single
##legged
002
Indigo
402
Lib
##MAIN
‘*’
목요일
EB
findings
additive
##Actual
theadapter
duplex
건지
규율
##AMT
##날인
##더욱
##141
##캔버스
일차
##comp
절대값
STRMQMLSR
CSQXLIB
고속도로
MGR
원치
##Bar
PDAs
##Servlets
grab
325
##std
tbSQL
PARAMETER
##Bridge
rebuilds
PRINT
LTERM
PutMsgRecOffset
SelectionString
##8560
##Soruce
397
"-//
booked
푼
##since
SIBus
##extended
handheld
Protocols
Acme
Redundant
##평문
##equals
##SUSE
##cat
##Combine
devoted
representthe
##news
suffers
tcsh
capacitor
Virtualization
##VC
노선
##첩
Verb
KiB
흐리
##Datatype
setValue
acharacter
MQReply
MQJMSTransform
Atlas
##Directbridge
##BufferLength
CONSTRAINTS
밤
aglobal
##UNUSABLE
JNLP
MQHC
libmqmxa
ClientIdentifier
CEDF
qmail
documentjob
tempfile
HOLD
andproperties
ApplicationProgramming
QMQMJOBD
AppleTalk
##ImqObject
OIDC
CWSIS
nvi
SCBK
8218
rough
theinstance
개봉
비고란
##통계법
급속히
##유발
뛰어나
국민은행
검지
##ALIGN
독거
자전거
##스가
착신
##시안
systematic
ISAPI
##VIEW
reenter
중소기업청
지식경영
MQHCONN
##StrucId
LoadRunner
수검
##터로
##WINDOWS
중이
##시한
##합의서
다발
표식
overheads
XAOpenString
##Multiply
##LC
Ring
##610
593
FtpServer
jndi
당연
##Permission
##cardinality
+"
망의
BASIS
치유
호우
항공사
##지문
실감
instantiating
Denial
##Conditional
visiting
##tpacall
넘긴다
268
##부호
279
″-″
##also
314
355
##packages
InfoCenter
##GigaSpaces
##구인
##행정부
##MPowerP
##Bin
suddenly
##paste
tomcat
##Transmitter
나노
넌
블루투스
특허법
##Word
Threat
Ad
##장표
주소록
##AF
PF
warranted
##종덕
##모빌리티
듣
예술
진동
bpc
##한계
발신자
조견표
Cause
##에버
##EMPTY
##러너
##Lowest
undertaken
Releases
withother
topmost
anyof
Descriptionname
전점
초석
discounts
329
MUSR
##Limit
FileName
관람
PartnerWorld
Concept
##혜택
FD
Deactivate
사양서
쿼드
thetop
##Hosts
toallow
##starting
##processes
outdated
Opera
PLTPI
interfacing
##httpd
Utilization
href
##agents
Writes
Upon
##스탠바이
eCommerce
매설
##MQCLOSE
##182
이사의
Retrieving
##MONITOR
ofits
helpyou
Entire
Sep
Diagrams
indented
decomposed
##tive
##gram
bearing
eachother
cleaner
##155
DEL
##META
##SZ
##sp
투망
낸다
proliferation
##Regional
objecttype
인스톨러
어긋나
439
##CUBRID
##소화기
neural
Optimal
Safety
grease
intoa
우편물
Reliable
이스라엘
원거
Slice
##WriteLine
##출입국
##REMOVE
CORRELID
##CATEGORY
marts
Freight
portType
##backout
UNDO
MaxPriority
OriginalLength
ImqCache
##온도
Implement
Compiling
ITM
viable
##601
Manages
##uri
##Switching
##시그널
##호출자
MDFB
##2242
CurrentQDepth
BASIC
##capicmd
occasion
okay
fundamentally
Yellow
##FA
Delphi
subcommands
##EAR
aws
##BZFL
브로드밴드
트럭
##dll
Worklight
Wo
##ALERT
TIP
##Coordinator
##Width
thecursor
SharingConversations
reviewer
꺼짐
andencoding
LTPA
##Week
FileTransfer
##fte
##Thisparameter
##cts
##은평구
##XID
##ExitResponse
##ALTERNATE
Attempts
홀로그램
##PRAGMA
##SKB
buildclient
sea
FORALL
envhp
BookingServiceWSProxy
ParameterType
##MQFMT
##2193
##CVB
JANUARY
##dbExpress
TClientDataSet
president
elds
APPLTYPE
Altura
topicObject
softwar
SAMP
zEDC
##DLM
일천
양산
변호사
##물가
##세의
##자연
##용례
SX
##하이닉스
416
'\
##ILSI
JUICE
JD
##head
suffered
##verify
##Appliance
##앤드
Backing
##850
##Ending
##Rebind
##TSO
##Certificates
##Missing
remedies
##CommonBaseEvent
LogFileSize
Attr
##Financial
##HIMS
studying
acomplete
##Final
stolen
323
##Renaming
hops
5655
상한
퍼포먼스
##시에
인허가
##기후
바이어
교사
[...]
