것
수
일
등
년
우리
말
월
중
경우
사람
때
명
내
나
전
그
때문
가능
한국
만
필요
제
개
사용
저
지역
생각
##원
시
서울
시간
후
관련
번
미국
이번
점
조
진행
결과
문제
위
발생
시작
운영
연구
지원
곳
경기
확인
당신
억
다음
환자
기업
정부
대표
국내
게
하나
원
시장
상황
이상
세계
이후
차
현재
사업
중국
금융
모두
정도
최근
기술
해당
학생
뒤
코로나
사건
선수
교육
등이
제공
서비스
이용
분석
사회
개발
분
참여
학교
거
가운데
정보
사실
방법
대상
앞
설명
중요
문화
친구
여부
조사
대
건강
관리
국가
대통령
평가
데
마을
올해
경제
포함
등의
증가
부분
지금
지난해
##자의
관심
김
씨
활용
예정
적용
확진
결정
투자
이날
영향
활동
약
회사
계획
호
직접
집
규모
건
기준
감독
회
추가
기록
주
과정
##기관
모습
내용
세
이유
처음
제품
행사
볼
관계자
아이
동안
자리
##팀
일본
이야기
일부
치료
여기
기대
병원
여성
이것
끝
개인
당시
판단
달
구청장
여러분
사이
##씨
팀
위치
의미
경찰
날
##위원회
명의
구성
상태
프로그램
효과
공개
가족
설치
준비
그것
원고
##센터
##간
검사
규정
가지
자신
발표
국민
변화
주장
마련
부산
적극
만큼
전망
계속
사진
고객
속
오늘
도시
##일
마음
방문
시행
환경
감사
총
##병원
추진
실시
##회의
수도
지급
전체
##시장
항
노력
의원
업무
확대
기간
의료
예상
시스템
기존
간
사례
상대
이름
오후
대부분
지방
산업
중심
정상
관계
배
성장
고려
지속
인정
북한
가격
생활
주민
사항
일반
미
안
손
##사업
정책
주요
방식
법
특별
회장
돈
신청
##법
부담
인
경험
요구
이하
개선
영화
게임
물
우려
전문
아래
유지
직원
분야
무엇
지적
시민
제출
판매
시즌
목적
영상
해외
전국
구조
공간
데이터
피해
위험
사고
선정
학부모
이해
공동
여행
미래
기
자연
도움
생산
감염
시기
기능
제안
국제
위원
상
상품
구
강화
사랑
##관리
##시간
##시설
시설
연결
개최
성공
역할
##정보
발견
자료
신의
대회
비교
의견
눈
의사
수준
기회
개월
건물
현장
교수
음식
뿐
줄
선택
조성
저희
오전
지정
##전
최대
문
참석
층
장
계약
위원장
사
은행
겁니다
자
강조
주변
감소
처리
몸
##지역
밖
여자
반
글로벌
##조사
수행
너
역사
대구
집중
걸
도
알
자유
##시
체험
해결
대비
현지
수사
##학교
확보
비용
인천
발전
입장
대학
남자
기반
안전
웃음
조치
운동
부족
기관
일정
조례
요청
자체
##교육
공연
난
예방
실제
경기도
##명
안정
방송
검찰
인터넷
지
보호
주택
소속
군
변경
##장
확산
업체
##은행
##기업
증상
도입
전문가
팬
##부
길
##중
도로
차지
대출
후보
이전
제작
행정
단체
가치
인기
혐의
거래
하루
얘기
평균
보도
국회
힘
##위원
단계
부모
##장의
형성
그녀
부동산
거리
이곳
##기술
지난달
수익
공급
신고
리그
온라인
제외
차량
외국인
외
제시
취소
차이
범위
모델
마지막
##지원
방
##나라
상승
전자
나라
선
효율
존재
참가
장애
신종
행복
파악
조금
최고
피고인
특성
보험
자기
내년
방향
동시
바
제기
##보험
기본
가정
산
작성
중앙
과거
책
뜻
호의
작품
트럼프
그룹
##대
각종
회의
##기간
규제
보유
원인
소비자
대응
##계획
살
국의
진단
자동차
부탁
인간
작업
##활동
수술
조직
목표
경쟁
걱정
##관계
주목
주문
전통
콘텐츠
인사
과학
유럽
삼성
해
소개
실험
결국
어디
##문화
남성
말씀
검토
금리
구축
입
자금
달러
공
##리그
대신
활성
중인
공유
정치
않
인식
음악
제한
초
책임
어린이
성
구매
대화
고의
반영
설립
장관
협력
##단체
그동안
현실
세상
사망
주식
표현
전화
예
공공
적
새
장소
혁신
아파트
우승
논의
출시
시대
호텔
경영
논란
누구
수가
전달
제도
남북
행동
축제
질문
내부
특징
판정
핵심
##업체
영업
확정
박
광주
방안
수요
형태
등록
청소년
유
제주
강
조선
행위
특정
##결과
사전
수업
올
정확
청구
지도
한편
향상
능력
삶
업계
학습
최종
당
법률
종합
##특별시
정신
이상의
영어
선발
천
근무
분위기
만약
합의
추정
우수
장기
인근
##바이러스
##대회
차례
인상
카드
축구
시험
이유로
속도
학년
설계
정의
자녀
심의
##안
공부
매년
관광
반응
공격
공무원
쪽
건설
전략
남
에너지
희망
배우
가입
##와의
스마트폰
의혹
##사회
##산업
##성의
기자
고용
위반
진출
##개발
담당
성과
##회담
디자인
보건
연락
하락
여름
소극
##차
이동
스스로
예산
##환자
대형
##사
해석
분기
채
현대
##서비스
소리
공식
수출
향후
논문
형
##등
##그룹
##복지
측정
프로젝트
시도
북
바다
조정
기억
발
승리
거야
디지털
##서의
동의
이란
무역
밤
아들
본격
요즘
청와대
언제
편
선생
##금융
##대표
독일
신규
최초
소득
##행위
나머지
원심
오
절차
##마을
중단
꿈
삼성전자
민간
교통
##경제
영국
지분
스포츠
산의
소재
조제
##생활
양
목소리
경북
##정책
도지사
고민
##폼
민주당
주제
##당국
통합
##대상
구체
프로
집단
##투자
입원
인구
브랜드
외부
모바일
금액
선거
##사의
전환
예측
기획
전반
위기
비율
추천
박수
사태
##공원
암
삼
질
공사
나이
어려움
##대의
심사
현상
토지
소유
컴퓨터
실적
상당
법원
자원
무대
조건
결제
동물
##의료
베트남
##본부
글
##검사
손해
연기
백
상담
세대
연속
아시아
##회사
체결
비판
일자리
반면
출신
통과
투자자
촬영
도착
얼굴
##고의
기초
열
불법
피해자
보장
##위
##상의
크기
이익
위원회
등장
성적
문재인
##부의
차원
협조
매출
출전
노인
별지
##과정
결혼
최소
러시아
신경
기재
중소기업
홍보
전시
스마트
소비
해요
전기
피고
비
대책
맛
플랫
##관의
##환경
판결
의무
청년
의심
소송
바이러스
인수
순간
훈련
회복
종류
주가
버스
기분
언론
성능
골
사장
협상
면
이벤트
부과
측면
바탕
안내
항의
광고
통신
소식
드라마
소외
이내
##인의
협의
남쪽
남편
지구
수입
머리
부상
롯데
센터
아침
##통신
진료
불편
##시스템
엄마
동일
폭
회원
가구
펀드
아동
신용
##계약
비중
내일
딸
노래
예약
바람
매일
##협회
초기
서울시
정
##항
인도
##도의
반대
답
##만
##기의
식
개정
##업의
사유
요인
체계
자산
영역
아내
수립
공정
위탁
규칙
여
앱
##시의
공장
혼자
옆
단지
북쪽
##사항
연
개의
무료
일상
마스크
그림
주관
마무리
아버지
범죄
##기준
예술
시점
긍정
##주택
완료
감정
기여
관광객
재판
이용자
원칙
이미지
발행
대한민국
접근
겨울
공시
불안
격리
구속
저녁
혜택
보안
거주
##제의
양성
처분
##물의
측
감염증
경남
방침
언급
상호
질환
보고
##평가
주의
##처분
##금리
신뢰
선물
근거
발달
연장
승인
네트워크
승
##위원장
평화
이건
##동의
생명
구단
순위
식품
동쪽
장비
요소
배경
연계
##처
상고
유통
피부
##호
부
길이
노동
접수
나무
취지
뇌
병
권리
##질환
##주의
만족
계산
서쪽
직장
불
명이
자동
전날
주도
블록체인
##펀드
##실
##군
검증
채권
이용한
작용
교사
전력
물건
부문
도전
허용
둘
악화
로봇
##선
국립
금지
##연구
점검
재정
대기
##비
스타
법인
확장
금
최
제조
수집
가을
운용
약속
질병
증거
##대책
가수
어머니
완화
자율
네
기사
복지
사정
종
반복
시각
다양
음성
##존의
분류
구분
##만의
미세먼지
본인
홈페이지
방역
투어
기계
기각
정리
##말
인증
출연
의지
##분
소통
##치료
스트레스
건축
인력
##간의
선고
계기
허가
##액
##공사
변동
초등
표
투입
표시
거기
접촉
노출
세포
얼마
술
##정의
##판결
##주
카메라
셈
장면
측은
나의
아무
##광역시
취업
유일
한류
서류
##지방
요리
##수의
울산
암호
##식의
할인
근로
식당
종목
손실
##명의
느낌
지식
평소
보수
직무
단순
부정
두산
참고
작가
투수
포인트
강원도
보통
특허
옷
##비용
설정
##관
임상
화재
##법원
##점
장점
식사
직업
편의
이용해
##심의
심리
차별
국토
교회
##골
관측
교체
간의
##제도
관찰
##방법
민주
시절
뉴욕
땅
통계
흥미
매각
##대학교
전쟁
##구조
##리의
##대출
메시지
우주
종료
분양
전부
긴급
발언
신체
##도시
거부
##처리
달성
대중
생태
공기
갈등
##천
매력
주말
이달
중간
##자금
동료
실시간
동
##가격
##품의
##원의
상의
감염병
한계
배치
개념
아이디어
공원
택시
어제
##법인
##장애
재산
실패
손흥민
##자치
육성
해소
빛
대전
경계
유의
섬
특수
언어
##자료
녀의
##단의
프랑스
##체계
운전
개별
납부
클럽
경쟁력
후반
비핵화
다리
충격
인생
오픈
보상
창업
독립
위법
상장
##선수
취득
##자산
지점
애
##트
수치
정한
##카드
구글
결론
인터뷰
임금
수상
방지
제재
신
제거
세기
##게임
##성과
기법
활약
자랑
##운동
편리
대체
인의
반도체
분리
본교
배출
통보
##수
채용
홈
흐름
출발
부진
공소
연간
골프
##체의
##금의
조기
물질
정기
##연금
이제
##권의
과제
숲
월드컵
탓
통화
득점
북미
##국당
초과
##달러
##건강
절반
급
유전자
화
주세요
채널
홍콩
변호사
##산
모양
한반도
메뉴
멤버
라운드
인하
구현
경
##국의
수용
개설
표준
빅
페이스북
건립
유리
루
##체험
지지
산정
분의
기념
완성
##외
곳곳
부여
구간
주최
뭐
파기
목
심
##거래
영
##증권
부당
기타
##상품
질병관리본부
##청구
처벌
##화폐
이행
사과
발굴
팔
수수료
##안전
전년
위협
##능력
마케팅
웹
위촉
##연구원
작년
##축제
수정
수의
날씨
실질
##대학
필수
유입
진입
의식
##물
그게
그건
##이사
##결정
한국인
꽃
호주
아시안
보존
부부
치매
외국
전남
취약
근로자
사업자
커피
창출
당국
임시
##난
올림픽
문의
공항
효력
##자원
##억
보관
구입
사이트
품질
최대한
졸업
당부
현금
지시
진술
국무
류현진
도의
등급
의장
대의
설
봄
##구의
현
미디어
운행
결합
감안
강남
듯
전용
##과학
알고리즘
임
별도
인지
기원
##시대
마찬가지
수원
##정부
##교회
그때
신속
만한
##절차
##반의
높이
신호
조의
복합
대가
추세
관객
이사
##업계
최선
포기
화가
조절
대로
출석
아프리카
등과
매매
고통
보고서
##날
##협력
상상
방과
주주
권
저의
자격
재난
##효과
제일
##행사
차단
인공지능
예전
그곳
착용
증권
##공무원
바이오
##데이터
교실
연령
원장
##지의
교류
카페
매장
인물
정비
화면
당장
강제
부인
##급
##업무
완전
노
극복
동기
덕분
단어
단위
한국어
화학
지연
재료
발급
전파
코스
검색
##후
원래
##조치
누가
농업
##군의
코
자본
손상
뉴스
배송
평생
왼쪽
##장관
##친구
##계의
개편
모집
회계
캐릭터
증명
##기구
주기
통증
##내
##부서
통제
금감원
실수
##약
급증
연관
소요
성인
학년도
유도
##중앙
폐쇄
제주도
대만
전북
##량
수비
##아의
##태의
하늘
가게
투명
전면
리
선임
도널드
자의
심장
실
오른쪽
집행
집계
성격
작동
세금
분포
온도
시청
요건
주년
국도
스페인
갤럭시
폭력
의료진
증시
의결
직후
사무
역량
유명
##공간
실행
이게
과세
값
상처
##번호
기금
나선
연구원
동영상
매수
##용의
##신청
실천
저장
합류
완벽
문자
유형
임대
비상
유발
카카오
메이저
##의회
가량
유튜브
##소득
권고
최저임금
사상
점수
##상태
홈런
##재단
거대
야구
##량의
노동자
비밀
##산의
막
##예술
유출
임원
유행
보조
답변
수학
예비
낸
스타트업
진화
즉시
판
##재산
절대
식물
부서
강릉
체육
기부
다수
초대
양의
임기
간호사
잠시
움직임
성분
김정은
투표
##가능
##조정
##보호
총리
충남
##운용
징계
계좌
애플
대법원
주식회사
개국
선별
국내외
의도
응답
파
여론
실내
도서관
누군가
선언
약물
한화
공모
진로
일대
절
주거
개방
폭행
##가의
물품
##운영
매체
실력
근처
##공단
계절
장치
사무실
네이버
바닥
##당
학기
칸
기기
소프트웨어
##물질
싱가포르
마이크
개정안
종이
##보건
키
노조
입주
사망자
풀이
##년
실현
자가
지사
##집
토대
##지사
주위
균형
눈길
백신
기후
고개
상징
##반
응원
계곡
상반기
이슈
##금액
오늘날
세부
##이익
클라우드
일제
신천지
역대
##심사
생성
복귀
태도
건의
##구역
폭발
자극
지하
아빠
##사가
##사고
명칭
객실
##행의
유동
여유
시행령
피
편안
##축구
문서
경고
상위
유치원
이외
##선거
##면의
합리
하반기
입력
단독
초반
선호
해제
보완
고등학교
##본의
기대감
세트
자전거
치열
##식품
놀이
인도네시아
##종의
밥
##과장
반발
비즈니스
철도
##부가
숫자
하천
시선
할머니
인권
##연맹
매입
입증
##민의
재의
표면
강의
인원
저축
해안
가요
고정
##학습
##분석
테스트
항공
연습
설문
임명
가슴
모임
면적
싶어요
치료제
관점
정규
미만
폐렴
##길
새벽
실무
인프라
##공인
##개
전원
종교
개막
출산
##달
##상황
경향
폐지
란
지배
미안
권한
부회장
##초
지출
멕시코
이틀
원내대표
당초
##자동차
직
주차
담배
준
원활
주인
비행기
검출
조합
무리
축소
형사
경로
시범
서식
부품
##야구
귀
노후
첨부
문제점
자식
동반
교환
핵
##행정
담보
##회
돌
혈액
수준의
점유
##등록
지표
##체육관
지수
산지
##교육청
##분의
중증
군사
박사
이의
##청
항소
소
##프로
참가자
주소
법안
혼란
관할
낼
##테
별
내지
지자체
공감
추억
변수
##지수
체의
재개
##회견
타격
장의
적응
휴식
토론
위의
친환경
도구
포장
잠
단기
은퇴
해양
위로
재배
봉사
법정
압박
침해
생존
이때
순
경주
화제
의회
만성
투
바위
당사자
##속
##분야
##설의
교육부
##종합
상관
##가치
보험료
태국
도쿄
내의
자문
사안
데뷔
##쯤
충북
##사실
센서
건가요
신설
충돌
지하철
개혁
신청서
##전문
##국장
소화
조각
과도
대상자
유사
윤
중소
극
역
목사
정체
##문제
콘서트
당일
지명
소방
추적
사용자
관람
사법
획득
쇼핑
전개
죽음
##시험
이사장
일치
경기장
기소
브라질
축하
시청자
패턴
##초의
캐나다
##접종
가입자
곡
파괴
촉구
업종
누적
관
##허가
색
호소
역학
보급
촉진
섭취
메일
강원
배제
소상
낮
일시
보건소
호흡
원의
적정
아기
허위
조언
취임
##전쟁
체제
오염
요양
사기
코치
주인공
##부분
혈압
가동
플레이
사찰
분쟁
연출
형식
담임
창의
주차장
부작용
선사
이론
동네
미술
반려
전송
참
법령
중구
확률
벽
이웃
##법의
신한
이송
##정상
부위
##올림픽
둔
겸
심판
우울
농
고도
비디오
면역
##공항
대처
유치
회담
마리
현황
임직원
물리
징역
기온
야외
제어
예고
인류
##지구
수리
재무
커뮤니티
포항
환송
숨
강도
통상
고령
구역
고급
전세
수단
학원
인용
##기기
통일
연말
##조건
평양
청주
##생명
화장실
경력
##의원
정착
무효
대안
이닝
의뢰
황
교육감
직전
케이
이자
탄생
농촌
맞춤
##스타
입국
이메일
풍경
원격
나중
박물관
한정
##동안
##발전
마약
##격리
반환
잠실
##관광
왕
조작
개입
배달
수면
관여
결승
솔루션
##경기
협업
터
유효
협약
항목
신라
폭염
##단지
요금
파일
지진
채택
##소의
##연구소
초청
용인
동생
깊이
무시
##프로그램
##서식
##방
태풍
후원
진실
둔화
영향력
벤처
모니터링
접촉자
강사
인재
우한
##위기
노선
관세
비난
부장
##동물
그걸
임신
서버
대북
접속
##청장
상용
패
하나님
접종
올린
시중
캠페인
적발
수강
대한항공
##전이
신문
징수
##사이트
탑재
국정
##규칙
급여
열정
##지도
마감
출범
운전자
동작
무게
추구
##식
##파크
총괄
개소
홀
가계
국방부
명예
경비
도심
상환
보증
배당
본부
범행
제약
##사업자
지불
지상
휴대
##교통
##건설
입구
##장치
##기능
정원
단백질
##예방
짐
수급
눈물
시리즈
훼손
둘째
근본
민원
복용
인공
##기한
헌법
발병
기도
선박
연휴
퇴원
송
환불
##폭
운
선두
외교
##거리
##합의
뭔가
민족
정식
여건
##박물관
선출
배터리
##암
성립
##방식
소셜
불만
종전
관광지
강남구
증
시내
주간
부지
##등기
농도
##플러스
라인
그간
자살
밑
산하
##여행
##시민
발열
##시가
자세
공포
##방송
##협의회
##측
마친
##사건
##티
복원
감시
체력
평
발휘
각의
##진흥
당황
면접
소녀
##전화
검진
근육
방해
도출
돌파
##변화
안심
긴장
무선
강연
한진
##학과
존
##일의
세월
회수
단장
디스플레이
##선이
안팎
전의
가상
출입
추출
서면
추석
최저
제정
첨단
주력
통지
슈퍼
남부
명단
댓글
국회의원
##책임
콜
터널
퇴직
서울대
점심
타자
##실장
첫째
연주
옛날
함
##값
악의
유용
##혁신
농협
준수
춤
충족
##혁명
영입
부천
거론
출장
입학
##검진
코드
프리미엄
전공
안타
지위
제게
창
##형
재생
지도자
조원
##무의
##사유
홍
감각
청소
억제
필리핀
성폭력
재미
##신고
만들어진
##개선
수십
티켓
지형
대학교
융합
##단
##당의
이걸
공동체
편성
이탈리아
앨범
정당
##뱅크
천안
무릎
계열사
공인
텔레콤
입지
칠
고유
##협약
부산시
연금
공익
표정
##바이오
상가
단축
전형
##총회
대사
##회장
##컵
패션
국
숙박
서명
증진
축
과학자
고기
세종
만기
독서
십
매
고발
##세포
사모
고속
중계
유해
수백
##진의
여파
채무
리스크
응급
처방
간호
월드
의문
##결의
##인력
##여부
계정
인접
대학생
##직
경과
흔적
청
위축
어깨
오랫동안
정권
전제
대답
가스
##나
오해
단일
증권사
부실
질의
사이버
문화재
본사
수영
의학
감상
분산
시위
물량
승부
의의
수석
휴가
중학교
부채
별표
트위터
중의
정지
조화
##질의
##동
소규모
상금
독자
토트넘
설비
상업
고향
연수
##국가
편지
하의
음식점
테
의존
조심
소장
##역의
휴대폰
##업
일원
코리아
교통사고
화장품
사립
심화
수령
취급
샘플
##방학
주지
##감사
건조
발송
##대금
초점
관중
면제
분할
방학
##규정
호흡기
일각
##전략
등도
대변인
서구
당선
성별
##연합
삭제
다섯
무죄
지대
명시
과장
터키
변의
보조금
차관
##병
##체
부처
서로
용기
##대상자
수소
##개혁
품목
문학
##교사
난민
##증
##모델
진주
가맹점
패소
종사자
##비율
양국
가질
정서
화웨이
조명
패키지
##재의
자치
##발
관람객
번호
##내용
##배상
충전
배상
파티
법리
전시회
드론
##시즌
여의도
##방안
건축물
광
우린
##보증
연방
진심
재판부
부근
우유
경관
창원
측이
##공장
확신
유엔
여야
일환
장식
현대차
모형
오류
정황
남녀
풀
연봉
석유
쇼
텐데
파견
도서
도달
유래
##존
권력
가방
무기
상승세
레스토랑
날짜
존중
계의
가난
용도
전담
망
##에너지
동원
진정
수지
명절
##이전
제목
시정
식의
##작용
쓰레기
매도
##주행
##관련
개성
코스닥
출근
좌우
제조업
디
##교실
실점
서부
자회사
격려
##훈련
총장
손님
##등급
##킹
##가량
주체
이중
환율
##규제
##조직
테마
형상
감동
태양
착수
칼
기침
캠프
배려
위생
콘크리트
유아
등판
선도
거래소
기한
처
지인
수탁자
영양
폐기물
##국제
변형
##세
간사
##폰
도중
등교
명령
##계층
생물
##시티
생일
##도
아이돌
모
준공
선의
조합원
##선생
##언스
채취
파트너
학급
아무것
냄새
탄력
무언가
핀테크
종의
감
##명령
조달
고양이
토요일
개통
교부
양식
업
낙동강
실정
방어
부착
며칠
전역
싸움
감성
전주
##조
정적
목록
나노
##감독
구의
산림
지침
##감염
외의
입법
위임
##골프
기의
쌀
실태
저하
스타일
각자
철저
만남
초래
##부문
다저스
숙소
챔피언
##홀
##료의
##청의
집회
체포
비행
북부
생길
민
##십
##범위
##호텔
##체육
티
아이폰
입찰
후의
정밀
물가
자발
집값
##구청장
보강
와인
격차
##앤
##협상
벌금
##신문
대구시
거절
연동
과일
편입
매주
하위
탑
귀국
##급여
보험금
모색
##진료소
대결
예능
전수
여수
흡수
##형의
워싱턴
양상
사의
##안정
시사
대다수
침체
완치
금메달
소집
흡연
##기
병상
##현장
정면
##경찰서
##치의
과목
##폭력
짜증
리더
압력
열차
진보
수능
해의
최신
##보장
포착
영리
덕
녹색
조별
의약품
보인
코스피
감지
##채권
믿음
동참
안건
##도로
##원이
대량
단속
구민
도내
절감
##선의
응급실
번의
소형
##원장
##케어
어린이집
평등
상사
부대
다행
어른
천만
##드
##어의
##협의
##이유
담당자
##국
뉴
가짜
간담회
##님의
유물
적의
##작업
##요인
문건
상공
##준비
찬성
논리
##수익
희생
분노
번역
여당
신장
##수당
단
시공
습관
##초등
조항
유전
라임
밀집
##구장
애플리케이션
협
팀장
##회관
과실
톤
해상
증세
차세대
송금
전후
순서
폐기
걸린
붕괴
객의
뿌리
시술
단점
##제품
염증
승객
가공
최적
전액
산소
투여
##책
엔진
결핵
목숨
##리
군수
##코리아
##농구
구성원
뭘
게재
일반인
##그램
##월드컵
구청
중동
자카르타
##인과
폴
판사
합격
맥주
발의
법무부
분당
적자
잘못
아마존
새해
##곡
테이블
석
##장비
##영장
영장
##소송
비타민
밀접
##관계자
리의
야간
##호의
지체
상대방
광장
##생의
단원
시가
투자가
스웨덴
예선
끈
##학원
재발
비전
##파
장이
오프라인
위주
경매
고장
동해
경상남도
농가
관내
평야
##성장
농구
변
사업장
선행
즐거움
진전
명소
지목
감기
##건
신축
료의
해지
재활
유기
사후
플랫폼
먹거리
편의점
성남
돼지
대행
##항의
##선언
뼈
##벤처
특이
사물
유적
##판
공정위
도모
동부
한글
골키퍼
색깔
금요일
장르
예금
##백
잔
노사
전설
선수단
대리
혈관
음료
##사용
지난주
청도
구멍
##봉사
##촬영
공격수
산출
검체
##여자
예외
바에
실망
수당
임의
원정
상실
트렌드
아이템
가속
##술
체중
엔터
개관
복구
신임
폼페이
블록
합동
챔피
배정
##판매
협회
##고등
압도
##노동
유무
세운
##문
후회
살인
극단
금속
허리
슛
기조
연극
주행
보호자
인체
연대
양산
##학회
창조
스토리
##셋
부총리
제고
해명
운송
출동
퍼센트
보전
##때
##공연
접근성
##표
무상
선배
##방역
입금
공중
프리미어
##분쟁
한때
방탄소년단
역전
규명
신발
감면
아티스트
중점
건지
현행
벌
인종
##부장
후속
마당
김치
탑승
당한
##상담
양도
여지
##등의
##가족
사이즈
융자
페이지
##임의
자신감
한도
시뮬레이션
소나무
종사
##주도
룰
소유자
교육청
##천의
급식
물류
중독
미소
수렴
갑
최소한
연구자
방치
##기록
이혼
종로구
##유치원
지능
충주
이목
추락
##신의
##증진
변동성
소년
유죄
헬스
경위
##즈
수분
핸드폰
공제
##연합회
##체제
경상북도
##약의
중반
거짓말
고위
계단
부사장
열기
징
##해석
메르스
##소
대선
고교
다중
베이징
면허
세력
환영
해결책
엔
군인
보
상생
구상
응용
등기
치과
상당수
공고
##캠프
광주시
##이용
문장
##위의
월요일
계층
비치
동선
플라스틱
불안감
수여
기쁨
민주주의
개시
건수
접목
##인식
국경
##참여
언니
어르신
##수지
한식
뒷받침
##차량
런던
##투자자
예수
동아리
돌입
빈
매출액
여름철
##상
색상
일요일
등산
그날
무렵
약정
수량
중복
박근혜
컵
대외
소독
간접
박스
##수사
포스트
특화
행보
결의
복
매월
##특별
준용
개학
재고
젊은이
이태원
##영상
기독교
상영
가사
합성
블랙
##용품
연합
함유
발목
집안
보건복지부
극장
##변경
차질
서
도민
피의자
강좌
지의
스크린
감염자
윤리
기구
아쉬움
연임
산불
청약
유력
##시청
##방향
챔피언십
철거
신분
##지주
창립
추후
산책
보일
##투어
##왕
조회
##주민
골짜기
사용료
조리
동서
##재료
크리스마스
자제
##화의
##담당
신도
아시아나항공
모래
공직
이적
##기금
성향
##교류
친절
항공기
업데이트
##수행
원전
야당
본선
설득
과태료
잉글랜드
##기반
방문객
야생
백악관
##감독원
임무
확충
패스
쇼핑몰
손가락
합병
병역
채소
버전
시인
순환
번지
몽골
중부
후기
##도서관
토양
대주주
서초구
도덕
##공개
침대
육아
기둥
##공학
연구소
한
순수
성폭행
전기차
시티
상주
분자
빚
##수준
자영업
트
세미나
발명
선제
페스티벌
연예인
양쪽
우울증
금연
너희
##연도
##규모
##쇼핑
순천
잠재
##오
체크
부각
볼거리
원리
상인
승용차
게시
근대
용량
추측
회전
안동
##고등학교
소음
신중
전라남도
본래
##의무
##진료
고
댄스
가시
##요금
해운대
물고기
##확인
강점
소문
노원구
채무자
주사
공주
메모리
직면
일방
민법
개장
섬유
##게
##예산
##사무소
기상청
##서류
백화점
틀
유족
에이스
소설
축적
##진단
노하우
##교통부
한쪽
척
증대
시상식
##요소
통
두려움
부스
##강의
지휘
마운드
구로구
##역
##재정부
기술력
수년
당뇨
퇴근
승진
##심리
고대
호수
구름
태
##점검
공통
호서
조세
성질
신약
소아
청원
##미
대여
##스포츠
고조
재단
타인
반소
압수수색
용역
취재
파리
땐
대법원장
전투
##건물
강서구
불펜
드릴
문구
##객의
공단
개봉
대중교통
연료
발사
관장
국적
최다
장기간
시너지
욕
좌석
점포
##방지
용어
소지
승점
유학
미국인
##석의
간격
구조물
횟수
특유
출국
고시
중순
흥행
혼
##의의
의거
산업의
##목적
수비수
강세
얼음
고지
##편의
시세
유포
##재난
##하우스
진영
대목
줄기
신입
사내
원금
내게
##경영
임상시험
##교의
위성
##텍
각국
자사
디자이너
##업자
자국
치킨
인플루엔자
무산
##터
##실적
두께
상표
재현
상임
이상인
이탈
수천
학술
광역
동점
##피해
한인
##장과
만료
형제
##시행
##속도
##사례
재건축
일주일
직장인
한강
##범죄
극대
포털
화물
연인
시설물
낚시
묘사
정해진
해변
호응
음주
신인
보육
차기
완공
소스
경사
지리
교원
##주일
재학
여행객
성사
궁금증
살해
총선
발효
##채
사업비
증언
기상
##학생
대우
물론
프리
화성
일자
서민
원천
관리자
면역력
가해자
브리핑
농산물
구강
의자
##환의
##비의
##진
##회계
할아버지
매치
##버스
##수술
##영화
고위험
국방
첫날
포
보편
그라운드
입자
시나리오
위상
##현의
당뇨병
급등
##통신부
골목
카카오톡
병행
##발생
진도
중재
계열
밴드
취미
넥센
속한
학교의
변환
해킹
고가
결성
해체
약국
통장
이거
재직
지적도
체감
만일
주자
내리
독감
##수업
수탁
##미디어
소멸
국장
인당
##문의
교장
만화
출자
##시기
지붕
##페이
부합
미군
벤투
배포
개발자
땀
패널
탄소
##인터넷
분이
전라북도
##지표
유니폼
경찰관
양자
저자
폭로
정확도
구미
해수욕장
유료
세균
군산
침
##추진
플레이오프
세무
##시리즈
##판사
비리
발현
총회
총재
잎
주일
모듈
한눈
민사
수록
도약
정산
##감염증
독점
실종
흑인
시에
죄
##근로
농지
안쪽
친
선진국
컬러
여권
칭찬
##기사
시신
대법관
##흥원
##단계
급락
빌딩
솔로
혼합
출마
발령
고생
하로
지장
불법행위
불교
##모의
저기
전이
외출
북측
동향
##회가
환경부
만의
반박
##봉
소관
음주운전
물의
라이브
택배
##방의
치아
##경기장
동굴
멀티
내역
##금지
진상
타이틀
##팝
본질
셋째
##주인
상무
모의
##보고서
펜션
저작
리조트
저항
하락세
포괄
애초
빵
##차별
패배
장착
거동
투약
##랜드
재해
##배
화상
기량
##조합
##소송법
의류
##쇼
진
사료
창건
이력
표의
골프장
중기
해고
##특성
파워
지향
##거
입사
주류
성장세
이강인
하노이
운항
아르헨티나
##세의
##팬
행성
##정도
테러
언더
##것
연체
탐색
##뉴스
한데
한은
실장
서원
모인
방영
피곤
##오염
대금
넷플릭스
공략
##표준
현안
퍼포먼스
가중
소송비용
예배
중심지
차트
스튜디오
기증
태양광
출력
발간
아트
항소심
##룸
학업
수직
##명회
##대가
수련
교
포럼
증여
가이드라인
##대사
컨설팅
모자
교정
미생물
현직
다이어트
허락
##산업의
##격의
목포
유로
##심판
공소사실
대륙
##탄소
질서
논쟁
우즈
뮤직
타
진동
잡지
철학
편집
걸음
인테리어
##매체
진학
의정부
타점
안녕
전산
납품
치유
##공급
주한
먹이
연애
##전의
후배
강요
국면
강아지
##실험
미팅
대지
##아이
주전
오랜만
초등학생
시력
뮤지컬
창고
석탄
신탁
수상자
중지
버튼
결심
기름
해발
##의견
능선
##화학
##보상
한국은행
공백
##폐기물
방북
##담보
탈
##포의
송파구
유예
항공사
상자
판매량
동력
행정부
필터
권장
##광장
기업인
가족의
원형
연도
재능
전신
시책
환호
파생
귀가
##손
관절
##의식
적립
무인
판매가
##관은
공연장
##포럼
##면적
해설
성명
##반응
명성
용
맥
협의회
네티즌
탈락
##대비
경기력
학대
눈치
막판
와의
환상
에어컨
버
##전문가
발원
사인
지원금
포수
미세
##콘텐츠
건데
견해
음식물
##닝
고문
일본인
##요원
통행
##순환
약화
이용이
대략
이스라엘
국민은행
##지법
##공의
교과
진흥
선전
호날두
고양
파손
행
전무
개체
##라인
정자
정성
육
##결제
모드
중대
정작
혁명
소수
목격
##글
미니
소감
주파수
출생
지각
##해의
안방
향
성실
운반
##직원
수질
자리매김
##고개
외교부
채권자
뇌물
##중학교
고백
항생제
김해
이례
##노조
공지
레이저
음원
##애
프로세스
솔
에스
##역사
교량
추산
##뱅킹
미사일
생체
피로
행운
주축
내기
부의
파업
호기심
겨울철
##무역
##결
##후보
##중공업
활력
지문
직권
맘
인연
관행
생물학
베스트
재원
##우의
실물
이집트
원료
지은
결승전
동행
백만
##생산
자택
농사
용의
곤란
분배
감당
선적
##공동
틈
##철도
창작
##판정
단서
학
##통제
##교
자격증
수명
승계
포스코
##법률
케이블
수영장
##지점
전문의
함량
증인
##중의
##투표
##클럽
팝
선형
중견
체류
창문
경찰청
포토
##정신
기저
##평등
품
구로
조처
영광
##청소년
서산
생애
##증후군
상하
태권도
유가
경유
##디자인
횡령
배우자
하
중국인
철회
거점
철
이상한
제천
##소득세
##자본
##요건
속의
회신
남용
보행
안전성
공약
호전
금호
클래식
표기
##승인
임진왜란
편견
승격
##실의
내수
군대
신청인
정의당
인성
결함
##원은
상류
##요양
대원
##임금
인형
힐링
제휴
온천
추첨
수주
방금
증가세
콩
펜
##설계
리스트
영감
##지급
가전
##시트
농경지
##위험
변신
신한은행
##평화
예술가
명품
밭
계약서
공룡
거짓
##지대
폐암
의사소통
##급식
경증
##강점기
주시
쟁점
클
폐
겨냥
갤러리
고속도로
##교수
왜곡
회사채
##지원금
학문
##향의
옵션
실업
##수가
라디오
남원
통의
##주식
상시
부자
뷰티
국세청
국채
##행동
외환
가이드
##면
비트코인
랭킹
특검
모범
매물
마비
안보
사면
귀속
제조사
##경영자
닭
영수증
농민
합
성경
탄
##영역
##담배
루수
납입
자아
손해배상
개척
공매도
청정
컨디션
##협
본회의
호에
추모
생계
파장
농장
사연
간부
##표의
이산화
##광부
불량
결혼식
교차
##법상
청사
대피
인보
방사선
애니메이션
저소득층
후손
영화제
##전환
상속
항암
##지부
백제
메인
상권
여행지
내륙
금전
위안
연일
##서울
게요
아웃
##주가
##수요
##정지
부재
매달
##계수
환매
스위스
구비
용산
발주
저번
항체
##장기
짐작
##의사
입시
##례의
##포
트리
##기법
압
게시판
연산
양이
기운
동장
데이트
임대료
광명
단말기
기차
조율
##데
불가
주방
##소프트
동구
면담
발길
양측
동래
##신청서
클래스
서양
살짝
합병증
##수석
##문화원
라이프
종양
노드
빈도
신뢰도
##병의
실감
팔렘방
연설
모양새
##아파트
전직
수위
고령화
감축
베
영구
말레
##농업
업무상
삽입
고전
##앱
함양
영웅
운명
인쇄
베테랑
금품
##경쟁
##코드
바이
##죄
차선
##협정
연내
주재
국무총리
탐지
알레르기
우세
##수칙
##련의
쯤
경영진
##통상
협박
갯벌
##계좌
저감
정치인
##손실
혐오
매진
면세점
수신
셀
분과
무사
감수
##금
광범위
납세
##공제
##쪽
후보자
탐구
##촉진
##복합
##상자
##인증
개막전
출판
##부와
몫
탈출
평창
해방
보충
리버풀
타임
인명
압축
마드리드
간염
##패
흉기
차장
트럭
잠정
이식
##칼
사흘
생략
##신탁
간판
정규직
아베
일산
##의장
리더십
코너
등재
서해
##나무
사퇴
참석자
##이시아
크로스
물체
외곽
##원인
날개
애정
##과제
산재
그랜드
마포구
근접
##부처
##타워
##니다
소액
한복
내외
회피
마이너스
분해
연패
규
비례
##보호법
소금
이재명
##광고
슈팅
전인
##네트워크
글자
미터
매니저
위배
증폭
이젠
그릇
크리스
샷
수확
##관리법
형의
국외
치료법
##제공
올스타
##재생
중도
##발전소
봉
##사와
신혼
긴장감
우즈베키스탄
급감
음압
##현상
박람회
잔액
네덜란드
춘천
##준의
조류
##오픈
셰프
교직원
업그레이드
##제
행진
예의
통신사
표창
상향
비자
충청북도
부임
각광
우위
잠재력
스타디움
마켓
임차인
녹음
##사단
플
룬
내면
##술의
##인구
##전자
성범죄
광진구
그리스
욕구
##보험료
맛집
월급
바깥
##주체
악재
간식
미술관
벨기에
외신
피트
신화
우선
취향
금원
링크
숙제
호남
##경찰청
제자
##대응
공정거래위
##항공
행사장
쥐
결
지반
##돔
구별
간직
부활
시골
임용
##세계
지갑
과다
##통화
맞대결
누릴
사우디
미드필더
한우
충청남도
코트
##사무
실증
육군
##설비
임대차
##투
지리산
판문점
##경로
장벽
경찰의
균열
관악구
복무
투쟁
더위
외래
##경찰
과잉
악기
이슬람
##정비
곁
거지
매개
브렉
외상
공무
##공동체
##딩
강당
구릉
##위가
##쟁의
고양시
##더블
류
##터미널
동남아
##신용
아르바이트
인천시
시계
##기본법
고등학생
광화문
##균
히어로즈
##단과
입점
기적
골든
##구성
##성능
효능
이해관계
여사
##노동부
통영
대장
침입
흙
경상
##노총
활
소환
반사
인건비
흥분
신원
##사진
여객
산입
소의
누락
소견
개원
코오롱
가로
방면
실례
불리
책정
부패
##대행
변제
##슛
컨
냉장고
원유
유관
타선
투구
대립
##전처
성의
인가
최우선
출원
아산
블루
경연
나름
인지도
한미
도보
레알
##가액
스케줄
식량
국산
산책로
학생과
투기
표본
지혜
동이
##부담
추격
##망
강행
약세
가의
##소장
##팀장
관심사
고척
금강
렌즈
유산
국어
노트북
연승
무덤
수습
실효
성추행
넌
시일
##번
##집단
##음악
제임스
##단위
##연대
전문점
수요일
야기
여신
치즈
통로
한방
수험
탄핵
열람
발매
스카이
마크
거주자
공화
##지
##플
주석
작전
대대
곤충
명목
##코
공존
블로그
신청자
평안
맥락
랩
##화재
##지침
각하
폭포
가축
대변
외모
##해양
구경
장학금
의상
드루
##인권
##농단
유인
제의
##안보
드라이브
토론회
##요법
타구
포상
##가입
메
생명체
소위
피아노
논
##수수료
요금제
시흥
치명
삼진
팀원
포스터
쿠폰
넥슨
척추
서기
노화
집중력
양육
마
##톤
수색
전염병
파주
공이
전임
압류
취재진
장악
구제
##션
견인
고수
##역량
스프링
##랩
변호인
시의
금고
결과물
절약
착공
수차례
과기
##문화재
김천
리드
복제
코인
교과서
##집행
이득
권유
법관
교인
포지션
무장
여정
##음식
강동구
여섯
파산
비트
대조
평지
##취소
방출
##구
##매매
라면
알코올
구도
탈퇴
게스트
흰색
화해
주입
메시
동적
##사인
##중심
백인
헌신
##품안
페이
컨소시엄
##통합
첨가
염려
프로토콜
신앙
끌
##경비
침투
택지
김광현
프로모션
##봇
열풍
해외여행
전술
바퀴
학과
계신
구호
##르
##마트
노동조합
##여성
전적
호평
##촉직
입맛
환
신생아
##타운
전염
원주
##인사
##랭킹
##놀이
##사랑
보복
산이
일명
##임대
장난감
등지
염두
고립
현역
순차
원화
외면
실용
학자
바르셀로나
밀도
하원
바가
과징금
생선
수거
토로
언덕
케이스
워터
케어
간주
##생태
조립
피자
용산구
철수
##학교의
두뇌
데이터베이스
안의
콘셉트
##작가
초음파
공적
##정
글쎄
굴
축조
장사
유방암
휴일
견제
##아동
로이터
##양의
소폭
##조달
자진
양념
모기
##처벌
내달
리츠
##협동조합
마트
오가
기가
주신
도래
볼넷
혼인
##리스트
반납
연루
##상환
뒤쪽
민속
당사
가설
파도
캠핑
궁극
##산업단지
권역
증정
우측
선포
##재정
열매
각기
응시
권의
통산
##해제
##바
##노인
연준
미얀마
영등포구
끼
새끼
##카
커지
이바지
화이트
레벨
프레임
평일
로비
환급
성희롱
원자력
선발투수
일선
남지
장군
##외의
시야
##청원
확립
부도
능동
뇌졸중
커플
국세
천의
클러스터
다툼
스피커
하드웨어
##저
의제
흥국
##식당
탐사
인터
하나다
정례
영업자
##토지
목요일
신비
##극장
패스트
##거부
##혈관
김포
가정의
호르몬
성남시
##원대
##조례
사원
##전형
앤
##소리
프랜차이즈
오리
생산량
인적
성매매
공판
상점
##기획
##지정
##탑
무한
##의약품
전방
##유지
공방
안양
압수
##여건
서브
한동안
일괄
##관이
지구의
케이크
##사원
존경
무더위
##성모병원
쌍
극심한
선진
연초
다짐
캘리포니아
종일
형법
창구
화장
추
원이
불참
고창
##연의
타입
##위반
##령
타석
##간담회
액체
##제한
병동
체온
##계획서
수산
무늬
사단
##수단
딥
연안
교민
적도
채로
##설
예산안
##소유
주실
소진
##표시
푸드
소원
동계
세의
낭비
##내역
창단
유상
공학
##리조트
하동
감옥
총수
불꽃
감자
갱신
룸
##샷
변이
##터널
그거
##인원
무단
운동장
##동과
맛과
이듬해
톱
##요구
의료비
퇴직금
액션
제사
대두
##원회
##정통부
검
고리
공업
군의
##싱
동결
##봉사자
오피스텔
기성
##종목
##대장
루타
여력
합계
사라진
말레이시아
이마트
출구
스윙
빈곤
출제
당직
표명
복지부
미션
사막
##선과
서의
##강도
##영의
통계청
해산
관통
선호도
이용객
명문
수시
##유아
궤도
연세대
##염의
신세계
곳도
메신저
단행
조국
석탑
이민
모델링
모니터
##면허
##제재
인치
발부
공모전
가처분
##모형
판시
병실
실체
굿
승무원
총액
##테크
바닷가
분실
스쿨
##바위
리바운드
##썬
그분
약관
##트랙
다운로드
해법
민의
오빠
##촌
비정규직
상원
녹
반전
하향
세제
커버
수평
학계
독성
국악
조짐
골문
아픔
##보도
북서쪽
여행자
량의
진료비
당의
법인세
독도
규격
우편
##습관
분비
소망
##코스
항구
담
박테리아
칩
##마켓
무
클릭
소변
##소재
걸로
실명
필름
##셀
심혈
중국어
단기간
내장
적성
해군
포트폴리오
초콜릿
개수
근절
적금
##보전
##시각
맨체스터
악
독
##보건소
복수
서해안
먼지
위장
정답
외식
책임자
##수입
아세안
##백화점
사무총장
사령탑
개개인
이온
내원
##부채
키워드
##데이
참사
더블
시상
슬픔
지원자
침묵
지류
근저당
##투자가
털
특색
##포인트
전당
라인업
법칙
대표자
중고
##결합
보석
걸까
회의실
육박
##책임자
일과
과시
연상
보정
##기일
골자
##젠
이민자
##브
##공헌
이색
집권
터미널
신분증
영위
잔디
허브
##거래법
검거
멸종
단의
플러스
벚꽃
향기
수산물
이동하
조현
키즈
계
##델
월세
걸까요
우호
대개
항만
관건
몰입
##대전
독려
표지
##미술
##조선
누나
천연
배양
피드백
멘
도박
악용
책상
텔레비전
목회
합산
##료
##리가
출토
노트
신흥
##영향
거로
웹툰
##가구
실험실
폐업
노무현
모빌리티
평가전
##일보
교훈
화석
출현
장려
폰
##신경
##고용
##정원
면의
식단
안전사고
##서원
트래픽
중앙은행
정점
##통
한참
꼬리
재심
##부부
정관
표적
송도
##작품
##연수
장시간
##만족
엠
##채널
##거래소
남산
메달
선명
스트리밍
눈앞
간섭
시진핑
서대문구
대인
홍수
그루
청산
##부에
고무
만족도
자립
##유의
채팅
치
##이의
황금
실습
자로
망막
사냥
레이스
배분
상기
공립
불상
쿼터
문턱
대부
재차
실리콘
리모
##기자
내성
##러닝
##플란트
##스리
편이
롤
선제골
코딩
고성
##공
해산물
왕복
공감대
아마추어
배구
상습
공용
여학생
##진과
유나이티
암석
아레나
공통점
곡선
소모
인천광역시
게시물
말소
지도부
상응
배부
동산
어업
경치
한옥
와중
자락
합작
부하
##대학원
가옥
홍역
수백만
장수
평면
절벽
고소
##장소
각별
민생
##공기
영세
햇빛
원가
시연
토크
부양
기세
고려대
폭탄
인센티브
##가스
유저
구장
상속세
하중
본관
그래프
오사카
단식
정할
참조
각지
공군
암세포
재
상설
여가
저조
하자
전격
딸기
화폐
환기
저해
상정
위쪽
만끽
방위
좌절
토큰
자생
보증금
지지율
대남
내셔널
성숙
##두기
보람
토
일의
화강암
상품권
마일
환전
세액
국무부
인과
포즈
##섬유
체내
##스카이
시멘트
양해
워크숍
식별
좌측
캠
특례
레드
해임
언젠가
스키
양극
집합
사당
부가가치세
블룸버그
##무자
##지식
##근무
##송의
수긍
로드
큐
##채무
영남
검색어
고위급
종로
연평균
거울
혁
디저트
##너스
예매
책의
선교사
역설
저지
철강
비서
##담당관
경보
망인
##내과
까닭
기념식
이나
쌍용
포용
##관광공사
진천
행장
페이스
##요리
기점
성취
회식
가세
##비디오
구금
양천구
공표
##소비
알리
외화
심신
##시행령
불공정
농림
기장
법의
##엠
뉴질랜드
패러다임
발판
친척
선조
검정
경품
보물
##박람회
물놀이
의결권
##동기
시리아
동화
원조
사랑과
##조절
대항
##원에
그해
폭락
사생활
잔류
문항
트레이드
적시
가마
파급
이명박
소실
##변수
공세
원내
##동향
단풍
##자격
##절의
##보수
승소
조상
최적화
변론
형편
향토
시가총액
##보증금
파크
묘
폴란드
요양원
전승
##종
수강료
북구
인터페이스
##현황
연의
##아트
침수
그래픽
하부
악영향
##열
화요일
메리
강구
아이스크림
안산
전시관
북동쪽
만루
거주지
컨테이너
연못
치료비
중개
##틱
##트리
외국어
구리
고안
유역
영혼
일간
회생
교내
손자
벤치
거래량
자연환경
과반
경찰서
##문서
회로
##색의
상법
유가증권
지상파
반찬
##삼
신부
잡음
지질
댁내
##넷
론
증빙
샘
자궁
지방세
혈당
열쇠
와이번스
쉼터
의료인
읍
##천과
교의
빅뱅
적시타
##일수
실형
수송
캠퍼스
##카페
줄기세포
가상현실
추위
불행
금강산
내신
강전
##융합
##홀딩스
유증
엘리베이터
충당
##오의
최우수
정정
가뭄
출퇴근
요새
체험학습
##숲
매칭
유선
한마디
시비
생태계
헬기
자재
조망
고령자
##형태
기지
무실점
##튜버
##자문
##경험
육상
교감
내년도
##본
모금
천장
부가
매뉴얼
뒷면
지난번
양주
약점
청탁
램
휴업
승차
캄보디아
정신과
속출
사무국
##복무
##감시
선점
원본
유망
발전소
경감
한전
동양
결실
정문
배열
수장
가담
나흘
##섬
보이스
##한국
단가
아이디
시흥시
벤
##미술관
문헌
##강
##통계
무용
정량
검역
강점기
##저축
다운
창업자
##인상
양승태
기숙사
모험
성원
상급
파트
고찰
기아
##의학
여비
컨퍼런스
취업자
환수
대학원
오토바이
화산
신념
수컷
##기계
신용카드
교복
라이트
##유공자
주름
크루즈
##육
##타임
너머
정형
##비리
응답자
##보안
기피
반성
##남
상부
##영화제
##침체
##증서
##효율
아시
로고
희생자
세리
강경
업소
##소비자
통신원
태평양
작
생리
실전
사각지대
##우리
스님
세로
마의
수혜
##세대
##타임스
기아차
색의
상단
고추
띄
성당
인삼
학부
##운송
농담
##키
암컷
레저
분식
스티븐
만세
##점수
우승자
아래쪽
전통문화
계승
산업은행
##스토어
청각
셋
##이상
##부담금
공조
샌프란시스코
##마당
마산
##대에
양보
탐
남서쪽
민간인
우회
테니스
느티나무
베를린
카타르
취한
반의
베네수엘라
##모
##투수
입체
##링
안면
##행
야채
분량
반입
기인
아카데미
임산부
포구
특혜
길거리
이념
버디
보스턴
재벌
중시
##사람
사적
당진
가산
소재지
컴퓨팅
도봉구
해커
공로
농어촌
정무
거래일
##타자
곰
복음
토종
차이점
떡
방송사
토스
속초
오렌지
##벤
한자
출간
##층
##회복
소프트
집행유예
영화관
터치
씩
##박스
상상력
코리안
플레이어
광산
디바이스
##이스
요원
##포스트
비극
업적
발걸음
##모집
트윈스
구원
종업원
사방
##무대
복사
##위탁
광복
객체
대세
행렬
촉발
요약
##홈
##처장
입건
##전부
소매
##제약
엔지니어
핫
급속
유감
##체험학습
##증자
대통령령
장난
수요자
스페셜
##침해
과열
##이득
번식
##갈등
미흡
퇴장
자릿수
당첨
도자기
분열
연중
##보조금
리듬
결산
말라리아
콘
자부심
바닷물
##온도
창원시
현대모비스
특별법
##스가
목적지
한시
개막식
풍선
착륙
분담
속성
품고
안경
당기
양심
##축산
민정
김경수
저출산
##필드
우체국
면모
쌍둥이
태아
##월드
##세가
남동쪽
황의조
쟁의
주거지
푼
##고객
미성년자
구릉지
사양
##국제공항
여기저기
에코
급성
널
포도
체납
가늠
멋
화합
작곡
민관
통학
자치구
오브
정류장
##남의
탈모
베어스
##로직스
교재
관문
##플레이
신생
심층
동의서
원판결
부엌
음반
호선
스피드
##합병
상한
국물
장애물
산업단지
레전드
##보존
푹
타율
텍사스
##설정
원에
수동
전선
옥상
우버
교역
익명
삭감
핀
##인
졸업식
두루
오케스트라
에이즈
노원
##모임
##변동
성동구
##미의
동등
놀이터
파격
인자
##풍의
##활성
##청이
런
여행사
동아
사가
해리
돼지고기
역동
탄성
신곡
욕설
국정원
부속
보류
온실가스
동대문
##강사
##근로자
##토의
세입
체육관
울진
합법
##청정기
남의
화질
바지
##응답
품종
증식
재량
##눈
습지
하이닉스
대입
앞쪽
##주사
존재감
서울특별시
담장
입주자
##발명
##치료제
용서
활기
코팅
구매자
눈빛
골절
종결
낙관
말기
##대교
행태
##공유
은하
독립운동
철근
첼시
신작
정립
드
거실
오일
거품
##창업
##제어
러브
답장
추이
종시
##전지
비결
카풀
대법
정통
하우스
임차
출루
송치
겉
위암
짝
주머니
시내버스
액수
횡단
단절
흑자
경신
화순
위조
두통
배후
고래
글씨
증여세
장터
시군
단면
커머스
주총
응력
이승우
설탕
권위
우대
마찰
교통안전
로켓
수사관
동남아시아
납세자
커뮤니케이션
이라크
갈색
고액
음향
방송인
국비
수반
출하
##조의
##견
저소득
착각
비만
소멸시효
대사관
띠
마이클
전복
입소
악수
##기본
회동
오피스
인턴
하도급
제로
마포
법조
티셔츠
특산물
##회로
##신호
문화유산
명분
##감과
판매자
욕심
유류
유권자
보행자
조군
순매도
##팩
후문
재계
뭔지
태극기
시드니
수축
자존심
청중
식이
완
노래방
하이브리드
선착순
##시립
성도
권익
##유가
출혈
유네스코
불신
사계절
타깃
봉투
##길이
시속
타결
의병
신자
##경관
사용량
우물
녹화
노예
##콜
##족
##연계
통일부
##마의
##보조
경쟁사
양사
대접
입양
입단
보상금
전사
대출금
##부품
##광의
동작구
##법령
자외선
고집
##워치
오디션
창의력
군데
방문자
소식통
병력
카자흐스탄
무증상
사자
##피
껍질
착오
계란
토너먼트
네트
영암
주심
크림
수심
특강
자매
사임
##안심
지방세법
꿀
##물량
여동생
책임감
##통신망
산모
가급적
범인
잔여
알뜰
외관
##세액
디스크
떼
오른발
감사원
야근
##항목
기부금
리서치
##증상
선거구
##완화
잠복기
샤워
고온
##지인
정전
용돈
##당과
##부총리
기슭
디즈니
소방관
에이전트
##콘
배틀
중학생
순식간
작물
##차익
##핵
국고
포상금
##병상
교차로
부유
촉매
물결
남측
##법칙
땅볼
구두
상식
따돌림
베이스
##노
걸림돌
##제안
손목
일가
처지
##전기
수원시
타워
주역
각도
##부대
언론사
의대
하인
분지
회의록
순조
입수
##망의
열흘
위즈
공직자
##먼지
##지검
입소문
세탁
제약사
악성
붐
융
황희
기무사
연맹
풍요
비유
대웅전
구동
##푸드
봉쇄
천안시
로마
개미
사외
넷마블
완성도
지친
마사지
환승
개교
안드로이드
병사
군집
경쟁자
무더기
##강화
법제
전망대
전월
코엑스
대나무
##학자
요지
충
##기술원
도장
액상
표출
연골
정화
고사
불복
둘레
##교육감
##성분
##방문
사운드
히트
##선거법
충청
연락처
고등
곽
유가족
식중독
도시락
암반
아일랜드
전례
##향상
우산
수감
박원순
##입
가까이
소명
마라톤
메이
공휴일
온몸
서점
##석
##기지
##어치
봉안
테크
바둑
일행
강자
##가정
노동당
일곱
관료
제반
##혜의
마루
평택
촛불
사업체
##세력
귀추
##행복
위안부
협정
일품
치안
엘
##목표
박병호
자산운용
현명
친화
정직
미용
육지
##노트
##니스
장부
##빌딩
##박
##기온
명은
햇살
부적
병합
정수
머리카락
제작진
구사
사법부
소득세법
발음
시카고
달의
태블릿
##주기
낙태
학력
총력
##유통
행정소송
무력
##상표
마실
각급
천식
##각의
##텍스
##경보
##단장
버섯
가톨릭
목재
##운전
수법
만인
부대시설
##손해
차등
##운동장
바이어
트로피
##민
##주주
싱글
러시
아이콘
거액
석방
시가지
스티커
인출
##상승
건축가
효소
와이파이
사설
그림자
장인
취
세션
자동화
보름
##특례
로버트
폭우
##풀
하교
관련자
경정
##공시
박항서
정차
##투스
하나하나
대리인
벨
사우디아라비아
바라
수중
##혁
타이어
##감소
취직
혼잡
안개
실책
학부모회
여인
자정
낭만
남동
협동
재건
호랑이
##페스티벌
##혜택
엔트리
##통의
크리에이터
순이익
제동
컨트롤
칼슘
조카
조종
##회원
사육
##겸
유소년
먹방
생활비
씨앗
전일
##주간
##사기
방이
뒤편
회원국
징후
방한
##복의
일기
아나운서
예보
##업종
호재
##취득
업로드
배의
휴양
수칙
왼발
##상거래
향수
##디
양호
성형
동상
##경의
본점
##캠퍼스
주부
위헌
국한
##물가
본소
명동
영하
용의자
제압
청취
송파
핑크
##반환
##계약서
고충
구정
##자
##은행장
보좌
지하수
중수
##유형
송달
요구사항
증액
##약식
##지회
좌
명도
폭풍
이모
렌
하이파이브
##몰
축산
습도
헝가리
서식지
매립
코끼리
형평
##영업
김현수
우정
공예
미달
스캔들
척도
텍스트
##휴가
실사
공헌
나간
제발
속이
의존도
##내의
##다의
##마크
천연기념물
숙지
장병
구실
##회의소
가압류
파운드
영주
##벌
##릭
심도
##자연
민선
누리
술의
준우승
##정보원
##일정
수제
문명
##후의
학회
콘퍼런스
로맨스
무주
##지출
주당
##동력
대면
##업소
통역
과자
체인
##친화
토끼
면책
심폐
퇴사
옥
가맹
##공정
분위
원자
##실과
격화
##작
헤어
국군
컨벤션
바보
전동
고인
판의
남녀노소
레
##분과
사직
임야
김성태
인민
국제축구연맹
##파일
공평
중력
확
트리플
문신
##봉투
어선
또래
##배구
탐방
입대
약자
알릴
##속의
관절염
##로봇
##구민
하단
샌드박스
강변
##문인
의료법
##란스
##건의
적부
향이
여럿
##조작
개인위생
이수
직위
스태프
남한
휠체어
##용역
시료
##선물
안테나
법무
외형
##재판
##아시아
발족
장래
습득
지면
장례
##담당자
포천
태그
##츠
신상
농부
도주
모른다
결렬
호조
강북
어둠
할리우드
중년
해운
제보
반등
체크인
소방서
##메시지
퀴즈
대치
활의
산부인과
##저널
난이도
공영
승려
비위
자란
##윤리
둥지
강간
추경
##벽
##측정
##지와
인문
##황
##노동자
경료
##곤란
##플랫
전류
유격수
김제
##적용
데이
뷔페
##보험의
회화
각오
참전
연쇄
##구매
트랙
##통장
배척
##약관
후베이
프린터
모터
증설
은폐
황제
태극
역의
예년
##참가인
사업주
서술
벽화
구급차
급변
정취
접전
찬스
토기
초미세
광명시
데이비드
로그인
##제작
재질
원숭이
##자책점
##공업
동맹
##정리
모순
롱
몸값
석의
심의회
##머니
머릿속
개조
토마토
어딘가
강풍
스틸
번영
달성군
연구실
##벅스
옥수수
##경쟁력
육체
사무소
스파
##텔
스캔
전과
고종
선교
청주시
##처의
수수
시효
##샵
구독
장거리
드라이버
##나의
모텔
감리
청송
##어음
은평구
코호트
향교
무슬림
내로
위력
도매
산학
##납부
스펙트럼
인장
풍광
무작위
동아시아
축사
절단
##수산
견이
직관
##스타일
샐러드
교통량
특급
##자리
구토
##원비
##탕
##요청
다이아몬드
마술
중립
한잔
##민원
박성현
마늘
댐
##열차
견적
소주
##조성
매수인
결단
신이
몰린
##경색
에듀
리뷰
문법
자이언츠
침식
장내
정은경
지름
주니어
거래처
원동력
파란색
마리가
오디오
##물품
##찬
현존
##수다
일본어
영양소
조지
대용량
하류
여수시
##밸리
주유소
내진
유망주
리콜
김재환
학사
종가
경합
이재용
##움
배임
##민족
##무가
호투
##전담
감탄
##건축
유착
황교안
##자산운용
메이크업
떡볶이
염색
예시
빗
결재
##남용
##링크
사형
##대우
선비
발렌시아
푸틴
정준영
근원
##직의
역임
##장벽
오너
##확대
##라이프
발탁
##참가
당원
용접
마디
오페라
의외
이대로
후유증
##비서관
##언의
##부지
대한축구협회
##집의
추출물
오인
처의
##신
기념품
풍속
미투
코미디
송부
##칭
할당
##대사관
열광
##점유
뒷산
시그
단정
이쪽
##판의
논산
빨간색
논지
재편
##검
##노동조합
##학대
액
청춘
전극
##예약
법규
##사로
존속
##축
당내
##분리
##병동
##블
노란색
##하의
퍼트
유혹
렌터카
횡
홈경기
공기업
탐험
질투
조식
하차
산간
구형
집의
##청사
영동
명예훼손
##전시관
산줄기
행의
학위
##아산
독창
알선
##로페이
포르투갈
사거리
##세트
박차
마스터
듀얼
##마비
##케이스
##징
##구간
##현
##단체장
동남
##코로나
함수
교육비
다큐멘터리
고강도
이성
##족의
##학부
##만큼
가열
별개
인위
가치관
제때
케이티
라이벌
맥스
퇴적
충주시
##감염병
목욕
##사법
##창
처우
외무
최장
형국
##폭포
입장권
파문
지역구
##안타
레이더
몸무게
필드
##북
##상금
칼로리
메커니즘
점진
##에스
추론
특약
##순위
##명소
서비스업
##유출
양수
광학
정시
수술실
##면세점
문화원
정월
난방
##중단
배수
타수
##변의
기업가
##방해
##재판소
군민
레이
색이
각막
벽돌
급속도
##예선
벌금형
만점
안과
일부분
주연
셀프
수십억
일당
##댐
##파트
엘리트
골퍼
기와
라오스
##남부
중화
골대
##포가
금천구
헤드
식감
침착
코스로
##실에
##큐
만찬
발이
청렴
스카우트
##개시
##분할
키트
프로그래밍
고인돌
드림
공공시설
복장
절경
동전
대리점
식생
맞벌이
##원고
##단원
햄버거
##스
수고
브
사이클
안산시
한숨
오리지널
납치
신성
에도
식재
##규명
블
아랍
챌린지
컨셉
성장률
조개
음력
동남쪽
부상자
문체
##안의
철새
취득세
직선
전념
미비
대역
균
판독
부설
가액
에어
냉각
접시
복도
##유치
일회용
조가
길목
지역민
겁
##롬
남대
계류
비준
변위
반품
청결
일탈
성지
연차
코레
##굴
김동연
##구단
관악
귀사
맹활약
달걀
밀양
유서
눈높이
##미군
계약금
딜
교대
보유자
수납
##비전
##벡
대주
##실태
결석
뚜껑
장례식장
자질
진압
##휴양림
뮌헨
힙합
옥외
플랜
추상
무제한
##틴
근래
##수상
메모
워크
야경
고열
비누
기승
##특위
##런
타이거즈
어가
건설사
건설업
아토피
운수
金
연고
전지
덴마크
꼴
알츠하이머
텔레
중소형
##보유
손길
중징계
##입원
공소장
진한
오버
샌드위치
##드라마
간과
##증가
풍력
##막
거제
측근
##계곡
창설
양파
켈리
녀석
정년
##책의
산화
리스
##파의
합의부
머신
찍
##전달
월스트리트
해경
특허청
후반기
범죄자
몸매
스테이크
자선
저변
웨딩
##편
##이론
보좌관
생후
우
블랙홀
##부동산
조현우
해촉
하시
참관
백업
맵
##국립
##리스
섬진강
매수세
##수급
줌
##해수욕장
사격
적다
##소스
콜레스테롤
##력사
메디
헬로
##록
세인트
양현종
우량
##향
##군수
##증명서
##육성
##인하
위자료
단일팀
주십시오
안내문
##조항
연예
후임
체질
조업
##패스
김학범
재래
##양식
증강현실
킹
선방
기술자
##한의
드레스
세수
담합
외과
이해찬
##게임즈
##피싱
##사령부
##특구
접합
견학
##구이
방통
슬로건
##원단
산림청
교육장
이용하
복부
경지
출품
중심부
##징용
파란
주먹
##밥
봉우리
##텀
##수영
감정평가
종속
톡
초보
심정
##엔터
인조
구직
반대편
인문학
##일자리
##부여
전교
식습관
발동
소고기
##지로
며느리
후면
지주
축복
영원
최첨단
야산
##박의
오스트리아
협동조합
기호
컨텐츠
구독자
필자
포진
##헬스
성동
삼성물산
##북부
신나
브라
포의
호출
##내장
기지국
킬
##과세
어촌
##피스
식탁
멀티미디어
은행나무
항암제
대장암
##시점
성북구
린드
전진
##식사
출고
수박
퍼레이드
##목록
임신부
유방
팽창
##제출
양의지
수인
일출
##해결
러닝
칠레
##서
##보험법
마법
빌
신촌
판소리
천재
특기
해상도
##배의
방송국
죄책감
불빛
도마
##양
가성
##금고
성황리
대내외
##평야
사드
강정호
공문
서예
##사정
백성
한양
충실
가죽
공론
그릴
로드맵
##성향
백종원
증후군
엉덩이
보드
소품
##뷰
휨
비석
##하중
용지
##과목
상해
##촌의
해역
씨름
산악
약사
학교장
에피소드
한라산
선원
회관
은혜
돌파구
신조
##회수
목이
얼른
통신망
##징수
두지
집착
총기
신선
차익
법인세법
게이트
양은
타이밍
##마케팅
구가
##소생
상세
마다
멘토
인파
중저가
자산관리
군락
##홈런
##국회
불어
어플리케이션
중산
지지자
사지
욕망
##브랜드
##식물
배드민턴
울릉도
연꽃
새만금
등대
남미
강타
음악회
직속
리니지
천억
막바지
케인
도면
##밴드
냉동
강성
바비큐
경제학
세관
##음식점
추신수
##역과
##소유자
##맨
교섭
중환자실
##솔
##업과
김천시
몬스터
지성
요가
강진
##자치단
##수욕장
약품
의약
목조
광물
해저
오바마
일종
내재
언론인
보훈
편익
##주석
이낙연
용품
자본금
이은
밀착
본문
장미
제방
중위
예술인
조형물
개칭
##분양
부구
건너편
단말
삽
##범의
한창
##개편
만이
삼국
서초
상고이
갈래
기미
전주시
##제기
별명
세일
##예
##베스트
판교
소화기
##실로
##주차장
착안
암시
사업가
중원
##생물
해수
빌라
##컴퍼니
##살
비주얼
퇴행
공수
알파
성수기
파울
##저수지
##약정
##사태
##브리핑
고용부
청도군
밀
성산
슈
퍼즐
심근
상반
##예정
불황
##아웃
혈중
포부
공천
파열
테슬라
스타트
납득
악취
취약점
초고
##전망
보궐
공청회
양형
기업체
해피
로스앤젤레스
##센서
무분별
장담
흡입
영재
콜롬비아
부친
리브
성금
종식
재즈
큰일
관제
개인전
모방
월평균
고취
세입자
##평
미추홀
스폰서
벽면
포화
대교
닷컴
고부
포스
##재
##블럼
출처
모스크바
뷰
넷째
사우스
급성장
##모드
사리
워킹
티저
미스
세탁기
타이
교도소
만연
말의
리튬
테마파크
동성애
스코어
명지
가부
대미
사본
##질서
황토
병풍
도로는
아랍에미리트
신태용
도봉
하네
절망
진짜
경로당
핵무기
대칭
##호흡기
휴스턴
성부
국지
돌연변이
##김
##닷컴
팩
##중개사
##사상
##어린이
주점
엘지
지휘봉
불로
낙찰
##털
어류
남해안
점령
공범
사촌
배신
덩어리
부리
카테고리
수락
생산자
박탈
입술
잭
소각
##예측
셧다운
단층
##세운
청문회
총무
식민지
영토
폴리
동메달
항공편
한국전력
감액
청장
리얼
파키스탄
악순환
참작
##읍
코칭스태프
간장
농작물
망원경
지니
슬라이드
폴드
함안
테라
이기
하청
##밀도
신형
##인프라
민간단체
녹지
동호회
##도구
경산
설문지
##발표
락
전락
탈바꿈
판로
##불
차입
호인
야드
라운지
강서
최정
개그맨
영문
서귀포
사명
재임
##복구
고구마
##원칙
청풍
등극
필
목격자
문양
발암
동대문구
##예고
아홉
##주자
에릭
전철
광경
보답
사라지
힐
환원
##미팅
수출입
##패턴
##믹
박정희
되
입상
경부
의정
점프
##접수
내과
유기농
##자유
인슐린
##웍스
##너
음란물
코어
##솔루션
교착
미지
행안
현대캐피탈
수표
준결승
펫
직결
유진
르
##록의
##보훈
챗
정상급
감소세
장성
간암
케냐
광양
##부과
주둔
기록물
##병실
부두
파스타
돌보
##격차
본능
삼척
온열
산업재
산행
중건
술집
삼겹살
항이
물리학
주권
##지향
명명
찬반
일본군
##여고
##법규
동물원
함정
##출원
원시
##기업인
##홍보
렘
삼성증권
깃발
제자리
고심
간병인
나경원
재택근무
##일자
월간
##희망
북서
##흐름
##건수
헤지
만전
리포트
##사이
##동아리
##볼
징역형
동문
프린팅
톰
##베
노벨
구석
순천시
도발
##메라
중추
소가
##연
##순이익
바르
유적지
폭언
회색
스위치
복숭아
격
이별
##부족
실비
누
사역
퇴출
오더
패킷
##연장
조장
숙명
불길
국영
개인별
유전체
저스틴
컴백
휴가철
자존
텐데요
식욕
의향
해답
모욕
##창출
섰다
산체스
초록
국기
패밀리
하드
탱크
장마
민감
중형
계측
의안
##계열
알루미늄
질적
독거
##기회
이용료
##고리
##정산
휴게소
정제
도청
방콕
경제성장
항산
##교체
윤곽
은메달
질주
##설립
과천
유병
연전
빌보드
몰수
인격
시간대
##휴직
##역학
투병
양주시
##걸
캐시
파트너십
캔
도난
수온
##색
자본주의
호황
제철
트레이닝
새우
보트
##팜
##성적
법무법인
휘발유
벼
시립
##보험금
부피
베이
고요
##때문
기내
오징어
교통비
부산항
일한
친분
내시경
상표법
볼턴
메세지
##엑스
서적
신년
선이
작곡가
불발
제작사
##활동비
연면적
구미시
공작
내서
장갑
항해
쿠팡
극우
##포스
##편성
해양수산부
김장
육수
개량
알찬
환산
승자
의구심
시한
##핑장
인허가
생
카지노
포트
엑스포
여덟
결선
영천
괴물
구급대
주저
프로듀서
##농
지역인
##판단
출판사
입안
숯
전장
헬
##저감
##꽃
시차
절제
품격
##여의
이체
편찬
화력
##라운드
산세
##발의
오리온
주소지
##톱
##소가
일몰
동국
라돈
접점
##천시
나비
##상국
찬양
억압
헌혈
남서
너비
조원태
증거인
##통지
##품
턱
발산
품위
전성기
##줄
소홀
약이
김대중
대표단
초저
##수명
유림
##채용
원산지
다량
##종이
마취
대국민
일감
후원금
시트
아이스
학점
단편
햇볕
설득력
##면역
앞바다
피난
##장사
잔치
이관
고층
당산
데일리
지에
되풀이
소질
##날인
북한산
##원자력
##학급
보험업
이정후
벼농사
브레이크
부호
강수량
노동력
##키트
주상
통치
나이지리아
제작자
##택시
##코치
##온천
##체인
조양호
명인
어린아이
증축
아메리카
범주
걔
동포
블로킹
돌풍
시편
뮤지션
펜스
판명
일화
보이
##시절
밀레
경질
##문화유산
수목
에볼라
기리
이노베이션
김영철
무주군
##축의
상륙
그늘
납
워
##체가
병원장
본원
학살
##중지
중남미
하동군
##관리관
루이스
스토어
##청문회
록
일관
대한체육회
##원가
##지분
##스와
텐트
레시피
##엔
판별
뱀
맞은편
남짓
##대구
본청
기단
어음
질소
고비
야구장
식생활
##송
통사
##캐피탈
##기소
독특
막걸리
립
진열
승낙
효자
출입구
중식
성균관
관사
##썸
##부진
##국자
당국자
기밀
무승부
화물차
##시내
관습
하와이
##드릴
##디스크
지경
장애인
니
수혈
분단
##한도
방의
애인
허벅지
엑스
양지
##동산
합창
칠곡군
한파
뉴런
결장
상속인
경작
낙폭
증권가
##부로
골드
시동
##보드
막강
##립
##진출
기성용
숙성
계발
##둘
마라
안성
조건부
은평
팬클럽
부담감
수와
##워크
애리조
부산대
##폐지
상봉
스테로이드
파울루
답방
환지
##전시
어의
브라운
치의
##장에
라이
중턱
골목길
남학생
천주교
##목
누설
탁
잠복
염원
##분류
국보
차입금
서귀포시
##수학
게이밍
자막
메타
꼭대기
연어
퀸
##기록부
끝내기
##팔
특사
익산
시니어
근무자
공사비
부검
호가
##저하
##가입자
싱
반송
색채
키스
반기
점용
정세
##미사일
효성
##총비용
##범
비닐
놀
공법
소련
하루하루
마일리지
운전기사
유대
##수수
영예
판례
##연료
영등포
컷
설날
계급
뱅크
베타
부수
산타
놓
리가
설령
##전력
조선일보
기념행사
경협
자활
##山
참가인
충적
##웨이
만주
흥
재앙
채굴
내실
##끝
세이브
##영
금의
활동가
입장료
실기
웨어
캐스팅
과반수
당혹
열망
가습기
직격탄
위기감
기장군
지부장
김학의
비빔밥
탁구
부서장
자백
직종
##권리
##댄스
왕래
봄철
박인비
제언
노르웨이
벨트
플라이
##추천
박막
항고
##엑스포
의과
기용
유학생
상계
신고자
경상도
##콘서트
화랑
두부
쿠키
범람
독보
세울
일교차
##상품권
##농도
##안건
##이행
케빈
부식
약의
항균
벌레
건조기
고소득
바늘
##레저
강등
##무용
용암
##규
군산시
##계산
농성
노회찬
원단
보컬
족
일체
기일
##확보
추징
빅리그
##입찰
누리꾼
변조
거리의
예절
트라우마
마신
넥
휴양지
##대로
##기초
방화
최상위
##응력
부가가치
수억
지주사
##청년
##주식회사
성벽
팁
응모
근
방법론
##부위
부담금
서산시
비대
정부서울청사
번만
라
강국
번복
공사장
상어
아메리칸
##소통
##중앙지
사옥
북동
원작
스티브
화소
겁니까
닥터
전도
침범
차주
민중
기류
현행법
대관
##유입
##훈의
정우영
음성군
막내
파이
변상
##총괄
운영비
실생활
관전
필요시
바깥쪽
의료기
##총생산
중앙부
다이노스
골망
신빙
비의
##부스
차액
사망률
회상
생전
사이드
태안
지부
##삭스
경량
##제조
멤버십
경각심
셔츠
손바닥
버린
잔소리
녹차
##다리
재산세
접경
프로필
홍대
농약
증명서
세분
간혹
재선
어시스트
한발
##활
수몰
석면
보험계약
부회
슈퍼마켓
몰두
세븐
간행
멘토링
최우
부응
##외과
사무관
쇠퇴
##코인
쇼트트랙
윌리엄스
종자
감찰
경선
혈장
와일드카드
통관
직경
외벽
할
생존자
소자
함성
풍화
부결
##규의
투숙객
출입문
수건
여왕
접대
풍미
인계
특가
앵커
달러화
화순군
영남대
어젯밤
가정폭력
돔
흡연자
혀
튜브
##민주
플래시
프리킥
##루
영덕
호우
신재
캘리포니아주
현판
##체육회
무의
그리핀
비서실
세율
초월
맡
동북아
해안가
##약국
절개
##고속도로
불고기
픽셀
등등
퇴치
식구
##순
근력
임대인
##추적
재무제표
신입생
들판
사스
화의
휴게
부의장
##폴
##기념
이순신
면세
콜라
매직
분주
늪
##분포
정맥
아프가니스탄
윌슨
내정
##미래
주무
스미스
단골
살균
미스터
처치
전압
##주관
단거리
##기념관
##비르
마주
과언
초록색
메이커
##근
표지판
##행과
태조
##실천
경호
이튿날
건보
##핑
라이선스
##학
항공권
보너스
원룸
원주민
유람선
거란
이어폰
##고도
만회
불씨
질량
청와
감염원
수협
에이
국수
##돈
##칩
선로
자연재해
로컬
보리
수성
안구
경락
서남
이정은
##언론
강백호
모던
짓
표방
셔틀버스
팝업
제안서
가전제품
대본
##품질
공산
드래프트
서열
오지환
##물류
복통
평년
##택지
##워킹
바이올린
패치
평상시
수다
수에
오이
보성
##선고
영정
강제집행
##실내
산전
울진군
지하철역
희
인증서
수학여행
##농장
상여금
릴레이
봉화
이견
##전용
##입자
##조사단
책자
##테일
##빈
나주
그쪽
고추장
단체전
반경
타협
가닥
손잡이
기내식
비서관
크로아티아
물줄기
##현대
분화
빈소
##둔화
고구려
스페이스
청구서
라벨
테라스
고분
고난
남방
우연
침략
##니얼
외야수
롯데월드
경의
##관찰
석조
##전당
집안일
스테이지
왕자
원자재
##조회
공짜
분만
##관리자
##월
취하
골드만
김하성
##데시
##출납원
자취
공급자
주스
##율의
부적합
기억력
##관념
벗
앞뒤
롯데호텔
계통
##언서
재취업
한겨레
키코
화두
##표현
##단가
기체
해맞이
성적표
직급
선택지
평판
항일
음의
설교
다국적
준하
##용지
최강
##검증
규탄
##서장
##관절
바나나
펀
관중석
##왕의
왼손
완주
역습
##취약
##통신문
서북쪽
픽업
##호수
##러블
오차
##정치
양면
##호가
가중치
옹호
국공립
##딜
당선인
뇌혈관
초안
동맥
겸손
인텔
초조
마냥
합창단
이불
연이
잇몸
신사업
월경
필두
##장려금
동학
오신
교황
품은
보직
논평
##서가
서리
##보고
지탱
유교
전화기
명상
우승컵
암벽
병원체
카톡
감량
##경력
##통신사
수익자
##총장
지자
##어업
##당은
원리금
명의신탁
덕아웃
마이
이스트
블랙리스트
탈세
안주
텃밭
사기죄
##위치
##학적
##농가
##시설물
오락
##공고
모션
민박
##파티
가락
##비밀
일생
체크카드
몸통
##승의
##파괴
##배출
##재활
동종
테이프
샤
육류
교통수단
독립성
니코틴
실외
후방
심문
산업용
##활용
상회
호환
운임
센트럴
소파
복권
##실습
이주
##우주
##빛
실린
##법안
석사
영아
디테일
원어민
국내산
##식이
랜드마크
##연구회
##유
도메인
토마스
예견
잔금
##공부
##계산서
시조
방사능
가미
존슨
용액
충성
계명
계수
##리자
중상
예우
##운행
베일
미용실
설계사
인사말
##돼지
양키스
불허
##병증
비무장
##신라
에버랜드
짜리
잠자리
숙련
해준
행인
##인먼
동성
토목
배당금
##지소
##인재
심야
건국
마우스
##교환
안착
##소방서
파주시
지회
울타리
학식
펌프
래퍼
특권
시간표
현수막
진리
조종사
기간제
주어
촉각
피로감
서머
회복세
효용
변모
신차
은행장
강물
반출
툴
서포터
현미경
신사
##웨어
단연
쇄도
##중처
응급처치
제지
모발
두기
기판
성형외과
간호조무사
파이널
여긴
##단속
경제학자
##거동
투자처
소위원회
적법
능이
##설이
절정
알리바바
빙하
##욕의
##무기
##음료
클라이언트
경영자
비어
마틴
화보
##절
탄압
유치에
##수출
##글로벌
##로라
해남
##능
현대산업개발
라이온즈
파인
염
부시
경도
표결
스리
산사태
##관광지
인터내셔널
철원
헌재
##부회장
##부세
승마
남극
적대
넷
만두
내포
실버
일조
나트륨
진통
조경
토사
정국
산발
##집회
오찬
##손상
제소
모건
##모빌리티
상임위
##유적
선장
워너
사고력
돌고래
요리사
천국
충동
고산
여배우
합격자
신주
대청
##수용
브로드밴드
곡물
목동
친정
북방
##컨설팅
영농
강소
위패
유총
찾아보기
옆집
일간지
축산물
스트라이크
반장
본사가
##작의
타지
명당
파동
직구
남아공
염소
##예금
##비행
경복궁
온종일
##들
결핍
어필
카트
몇몇
줄다리기
피보험자
##수습
진천군
상고심
청백전
로그
##가요
장어
매장이
적기
내각
##사지
##상인
법과
##코어
##합창단
이대호
##스트레스
회부
오승환
행정리
대박
풍
볼트
쿠바
욕실
충원
##활의
구직자
유령
유익
##재해
사우
##세법
직영
##유산
방증
##강좌
부본
병렬
예탁
##접대
동정
식료품
누군가의
지칭
용이
우주선
##로드
해안선
이동해
나미
쇼크
유추
고택
간척
##스톱
소송대리인
소니
극도
전셋값
##토론
살피
장례식
편차
엑스레이
교단
흉터
발자국
##복
근육통
지휘자
자긍심
산맥
##효능감
당도
좌완
##발표회
산기슭
##개월
프로포폴
##경매
미주
기념일
삼각
##해
태권
보습
매트리스
##상과
중고차
앞면
음료수
절터
##지연
이글스
송환
중거리
소사
참고인
트윗
거니
보일러
남동생
가루
##팩토리
##노선
##워
##영어
예후
호기
유체
##라이트
국왕
##함의
독재
승률
유실
차종
청년층
전반기
피력
##계망
계엄
##수처
##옵션
골반
발상
정치가
##양성
터전
적합
간병
행적
지주회사
회차
##청과
##매수
사회관
##멸
구보
링
멜론
각인
프로세서
##차이
필기
조문
팔꿈치
진드기
##천만
전량
##성동
초당
##연기
##디스플레이
신예
연명
송정
슈퍼주니어
재물
##어스
가든
##황의
산호
손질
타이거
##가수
기암괴석
영상물
대문
##무
##지청
북극
##광
기준치
십자가
여객선
경희대
유산균
밀폐
구제역
##보상금
퀄컴
항변
잔인
배추
실상
맛의
로즈
##공예
스케일
미스터리
가래
출입국
햄
미드
도로변
강호
퇴임
입주민
유휴
스킨
갈비
소득세
급수
백혈병
##하나
고기압
기하학
성장기
토요
이산가족
진안
##핑크
##당사자
상한제
분수
액세서리
진주시
중량
삼촌
돌출
식수
영양제
전단
다각
괴리
갈음
##상공
대타
기치
휴대용
당면
보스
컬렉션
양방향
밸런스
남매
방사성
비법
보잉
삼성그룹
헤딩
도급
난임
전작
건축법
##무효
논농사
폐교
하룻밤
##부도
외로움
근간
하이라이트
무형
국부
생육
휴직
발진
##수집
일터
아람
##도민
고금리
##정당
##점포
무리뉴
##투쟁
북면
역투
사해행위
랜드
주중
물길
사춘기
거북
굴절
국민연금
갭
수두
배합
사상자
##림
앤더슨
경부선
##어린이집
##접촉자
낙지
니즈
동요
가르침
##구제
분말
유니콘
강수
버리
##적자
전두환
결집
실무자
재조명
약제
시실
##문학
도산
전한
##허브
고농도
수익금
매료
프린트
쇠
상위권
기생충
##호르몬
##중독
피츠버그
##접촉
원상
김신욱
대전시
대의원
모사
구절
궁
김밥
오토
##전시회
스승
천사
양천
매도인
수조
송출
##철의
시어머니
##뿐
아스널
거행
세브
후퇴
##장인
자궁경부암
##유발
##선택
판매사
##반도체
강우
이재성
계엄령
##밭
등반
자갈
능
델타
반격
양대
연탄
##관장
격상
지지부진
##특보
치수
##쉬
아리랑
##고시
확인서
폼
##간호
규범
가혹
##작전
콜로
통째
원로
종량제
부제
프라이빗
##내륙
서핑
아날로그
시외버스
경청
현대인
##증명
집필
루프
##드린
전입
##학당
##타의
##건축물
내국인
##매출
##객
홍준표
문전
신년사
교섭단체
고갈
안락
굴곡
구한
밸류
비하
정유
주치의
인대
옹
유지관리
단체장
##총
##광역
가디언
올리브
투숙
정렬
원소
출금
군중
교란
세출
수변
쏠림
수천만
외인
##장터
##리츠
국감
##돌
페루
울음
킬로
다이빙
우월
여주
멜
펭귄
폐사
핀란드
금융업
승패
교구
난의
전투기
충적지
바디
나사
경직
평점
설화
교양
손색
시사점
어휘
가명
청구인
수호
달리기
로스
팔레스타인
이윤
농악
발돋움
포유
시공사
조합장
과수
엑소
분사
하트
시식
밀가루
벙커
몸싸움
귀농
공소시효
거치
부호화
##화력
금천
쐐기
##부서장
##주의보
승선
##전선
변한
연주자
곰팡이
도리
후인
사체
핸드
기력
문화재청
비관
##이온
의석
동호인
친서
동북쪽
양반
모서리
##운
장과
스트레칭
##수립
박쥐
##스쿨
벡터
##산이
국빈
파이터
숙종
닛산
지지층
사령관
수료
조약
학술지
공해
반칙
##화장실
놈
해병대
가비
##스퀘어
차림
로테이션
남아프리카
이재민
중금속
상소
##단층
부통령
##타이어
손학규
##의도
마카오
광저우
산물
객
밴
밤새
동조
다발
곡이
실어
탈피
야수
##척
키움증권
기무
인플레이션
몸살
현지인
세법
경작지
책무
도정
시합
빗물
타운
수돗물
득표
막지
##테크노
로서
우크라
고루
원대
중첩
솜씨
정복
내야수
내비게이션
냉전
부칙
문인
##보좌관
##운수
이력서
해본
라이언
홍삼
닭고기
사회주의
균등
의견서
방광
영도
소방청
캡슐
이베이
헨리
복판
출발점
바를
우드
망명
출격
황사
소동
산란
묘지
##소녀
권단
함양군
##노위
문경
오산
##학위
기종
성찰
즈음
가드
손주
국책
##증시
##육의
스리랑카
논술
발광
태양의
향유
하강
##희
##차원
완주군
임계
항원
췌장암
방산
##행령
리터
속옷
요트
의전
##모양
관념
샤오미
##이자
드래곤
하계
기수
공분
##연령
천체
정계
산상
레버리지
그물
##도요
시공간
##지가
##대원
숲길
별세
##보가
회귀
관리비
희망자
초창기
##변호사
이승만
편법
##고법
##전남
션
스펙
퇴진
토론토
직진
극의
인디
사우나
처방전
건국대
돌발
디젤
##발달
국소
##시도
승기
인척
모씨
벤츠
재연
빈자리
적외선
심어
유능
전경
어워드
화천
##용기
효
본명
경련
##권한
##항암제
##테마
인권위
증거능력
스페인어
한양대
드린
반지
대진
##견의
남과
만을
기획사
공의
##특허
대규
케미
머스크
위약금
굴착
플래그
서대문
정기예금
##실질
순회
발발
낙
진통제
발레
갱
사칭
골다공증
발작
시화
경인
국제기구
통폐합
장자연
적폐
##권익
소론
대동
이분
스팀
게이
간호학
조롱
건너
##스키
재외
낚시터
스튜어드
장중
##시장법
심뇌
존의
순찰
트레
유급
부흥
음악가
오른손
갑상선
저서
탄산
##머리
##견이
평의
점막
##함수
유보
##동포
##백신
게놈
빨래
고체
##창고
노릇
전향
초상화
요법
복직
번성
원안
무궁화
하소연
##각
저성장
##도청
장외
중과
주효
부평
린
관의
키보드
##달의
낀
심리학
웰빙
마니아
타원
커리어
루트
##컨벤션
고분자
보청기
설립자
실거
##요령
박지수
##사령관
고을
일수
윗부분
##페이지
섹스
알파벳
과수원
경이
피부과
피터
유공자
날인
상쇄
소급
장흥
중앙선
포획
중창
##행진
당정
화답
영암군
필승
경총
재항고
제척
다니엘
##게요
##별
누출
하신
카리스마
비료
영양분
역부족
##해변
##보강
시위대
##맥주
당선자
송이
도둑
범람원
##우드
장학생
다크
불평
솟
작사
북상
싸이
지참
장학
윈
##국민
세척
독립운동가
##일인
##담
광역시
휴양림
채운
##학의
##안내
탈취
전립선
선거법
시집
웨스트
아저씨
배급
의논
고려인
살림
##스테이트
기념비
대위
블라인드
염기
이단
##양도
선거제
이청용
##선위
마을금고
##결핵
파라미터
섭
세계인
기어
공구
프라이버시
##절감
손익
기관지
서남쪽
##공화국
##목사
해수부
##온의
건가
##지지
마모
만족감
생필품
번개
영유
작정
무기한
팜
송의
##철
남양주
##이력
##대리
김병준
##향교
연기금
##보안법
취락
##속국
발표회
대역폭
화합물
카
##시스
한림
불화
왕실
태백
남구
장남
경내
기념물
##여대
##차트
거창군
##서울대
##손해금
복식
정조
편도
침실
남북한
##극
금성
##디의
풍물
경비원
건데요
전광판
노년
##역할
시킨
팟
참모
서당
원도
묘역
영변
은성
요령
스팸
홈플러스
구인
반죽
강의실
도용
혼선
도가
주범
민심
진작
카를로스
해부학
##뮤직
아크
파편
자태
홍영표
쇄신
##특례법
함안군
한국식
별미
##엔진
달력
튀김
우루과이
큐브
낭독
후보지
농축
탄수화물
##녀의
빔
##밑
##카메라
단양
##얼
그리스도
##바다
멜로디
듀오
근황
##봉의
침몰
블라디미르
마스터스
외야
김부선
자치회
##폐쇄
끝자락
##메일
버블
##소설
무지개
명함
최악
매점
시제품
관리인
신용장
##패의
##처에
창작자
교도
고소장
흐른
기관장
##방과
수도권
유스
##틀
##닉
진의
##구호
여타
##히트
청문
산자락
##동부
가평
한라
왕의
브로커
곤
실마리
상수도
##연락
증자
회귀분석
추계
무허가
##고문
##루이스
핑계
극찬
가천
해수면
협곡
인데
색소
진공
##조사의
##널
편향
시드
외주
##당시
객석
원자로
수순
##차장
호반
양도세
취임식
정부세종청사
##수련
패드
원서
멸치
자가용
##천억
초석
메가
##선정
보호구역
녹내장
흉부
금산
특구
정상부
방수
개항
감귤
선풍기
화살
사범
플라
추방
##가지
신세
저마다
##조각
채의
애널리스트
스토리텔링
한몫
영종
모유
##분배
낙동
야권
르노삼성
입증책임
의심증
일실
##맘
##설치
씨도
광고주
혼동
시애틀
성행
김연경
최대치
봉합
##기재
##평균
탈환
한의사
심석희
남한강
입소자
기망
##힐
밥상
이상일
원재료
##가공
여드름
적격
거미
재화
사고방식
구애
형광
해녀
육의
##극의
##민속
쏘
등산객
토성
##담사
시판
개간
마진
항복
월별
울
검열
영조
##그라운드
마인드
달빛
콧물
귀환
백자
절로
라틴
동명
비대칭
염전
불문
원상회복
##저항
라리
정려
##등록증
##마
유머
##이체
풀기
관세청
구석구석
고군분투
현관
다스
휴관
연성
훈련장
민원인
피서객
개막이
##조서
팬데
동반자
실크
페인트
맥도날드
나열
퓨전
전할
접착
블루투스
웨이브
동거
당첨자
변질
심경
천문학
이동성
배트
만취
원거리
부산은행
##해고
##불안
개인정보
에러
관서
웰
완도
칵테일
복리
취합
땅콩
미가
목표치
##통지서
##저장
강박
항로
고분군
##횟수
분출
양안
##배당
소하천
##준
특집
프리랜서
임팩트
트윈
카운터
개표
체형
예치
벼랑
발리
물자
##창조
##약품
심정지
공황
계면
테크놀로지
연합회
##캐피털
김제시
##종결
나이트
그대
##고요
밤하늘
퀄리티
판타지
##검토
고마움
흉내
채집
##커
평정
핸드볼
설이
첩보
##운의
뇌파
##가전
코너킥
##실시
내전
궁중
고해상도
##기인
엄선
충치
해물
윌리엄
##테스트
##전공
리기
마블
블랙박스
##자나
청자
백두산
기본법
##탁의
대승
##기각
##관청
##제생
치마
##저의
##종료
섭외
미역
킴
##버
##전통
해발고도
남강
##이후
##차이나
농업용수
강경화
등록금
전학
습기
적립금
나기
포맷
##형성
전가
기념관
국산화
명심
냉정
달인
##춤
발사체
크리스티아누
대우건설
수교
##사자
몰카
오름세
##휴업
청송군
주의의무
박지성
된장
##마진
##채의
저쪽
풀리지
나물
해독
위계
입성
결손
의성
##펜션
##지도자
인공호흡기
##오해
##렌
진행자
사물놀이
딜러
개업
사은품
증발
개구리
근거리
관공서
안락사
노년층
##상가
브이
황과
급부상
##온
##크기
##용량
착취
킬러
##도서
전속
일축
테헤란
거취
냉면
라스베이거스
휴게실
존스
정장
누군지
참치
어항
공석
율
##직업
노이즈
이승현
묘소
올레드
음란
신인왕
교시
피칭
상황도
가야금
외교관
화분
##발행
식용
배관
꼬마
중도금
##증이
경영난
신용도
##서부
흥국생명
##심의회
이해관계인
항고소송
정거장
알렉스
알바
세계관
체크아웃
동창
잉크
파이프
정반대
리딩
수용체
감이
흡착
민요
##시한
카페인
새싹
폐수
진척
조던
관례
고공
##기와
클리닉
도우미
열대야
인도적
기독
전보
##교가
각계
##재정법
##배송
다인
싹
##동맹
커피숍
약초
킥
성곽
뉴캐슬
##충전
메카
어미
##자극
##경연
신경망
수은
애완
##칸
생쥐
연기력
팩스
소설가
마이너
덩치
다면
판결문
##우체국
##마리
필터링
성북
##조약
노인정
##사회단체
골밑
실수요자
##구청
운동화
##연설
지폐
경화
총격
스테이
강정
동물보호
서른
초입
신학
노숙
심포지엄
##레이트
받침
##자도
##콘크리트
하사
##금지법
전환사채
##시책
진도군
##경과
진찰
재가
홀로그램
낙엽
콩팥
##봉과
미디
구이
아의
교외
##레이
분장
프레임워크
##읍성
스위트
가로수
갖가지
지배력
좌파
##숍
컴
특례법
무례
상근
유대인
울림
##지시
##안과
위법성
골수
##승
인후통
삼척시
살의
과외
하버드
##보
난동
정오
지병
혈류
##졸
추종
제구
아시나
보령
연필
##낼
아이언
문단
태양계
##퍼시픽
루머
다산
자처
적색
고품질
자형
##아카데미
동지
청의
##농협
##상업
##킥
지옥
##트럭
삼각형
뜰
저것
항아리
박찬호
요하
로하스
구하라
공론화
##뇌염
고창군
##보호관
레몬
굽
센
셀러
몸집
감경
토의
도피
감금
##헬기
##미터
대란
드럼
낙후
가변
##유도
사각
배임죄
##악의
연료전지
차출
임성재
##공무
조이
##제거
이마
방사
팬덤
서방
##확정
적료
상황실
종신
추심
페르난데스
퓨처스
씨티
바이에른
재킷
성령
##벨트
정액
국제선
마음가짐
##쇼핑몰
##외교
드리블
경진
연예계
별장
가산세
김민재
수성구
전세금
컵스카우트
##릿
계양구
당근
##필
전염성
요점
꼴찌
##머신
산후
농어
마두로
김세영
##혐의
비대위
취업규칙
부사
정수기
염색체
##폐의
복싱
강팀
##수도
대응책
지훈련
제이
영월
실효성
접합부
선착장
온돌
호감
##논문
충만
양양
##한
배신감
연세
소량
생의
루가
##가든
치사율
실리콘밸리
##감면
후생
신안
##임용
목장
헬멧
가정과
매트
기저귀
섭씨
부업
##크
튀
노고
진흙
농경
병변
퍼스트
에탄올
증례
##사찰
청사진
일회성
보호수
다승
##위성
균형발전
##수목원
##구균
##국악
디펜
##가인의
완제
피겨
오존
자손
##쉽
찬사
작업장
##배우
##증과
동백
외무성
형량
노동부
##적의
사이언스
도루
방조
##라이브
댁
분경
빌리
임하
궁궐
왕조
엉망
##컴퓨터
방조제
요충지
조선업
중등교육
로버츠
##행태
마크롱
고성군
르노
하방
가집행
##가로
증오
찾기
##진행
혈전
변호
필연
플로리다
방재
성주
댄
명맥
비소
검경
노동계
개헌
타로
볼륨
패스트푸드
송장
안성맞춤
하지
글쓰기
개연
멧돼지
양말
승의
##요의
트레이너
##배치
요르단
육안
조직력
가용
##양자
파월
완승
두피
세정
##맛
레이싱
사교육
소신
##겁니다
악몽
홍보물
찰스
불매
##홈페이지
생가
발병률
##학술
닷새
최저치
급진
전세가
누리집
##정권
##임대차
김관영
겸직
명한
부산광역시
종중
색감
일본식
기말고사
##서에
진단서
원점
##일지
비염
다도
격자
본의
##애인
주택가
##유동
김정숙
##통증
국제통화기금
##주차
결여
차감
훗날
국화
캐
클린
본안
자랄
무안
이국
준비물
##베드
##레
온실
##관세
대유행
무형문화재
##태도
컬링
##방해죄
##비트
##출장소
사각형
랜덤
미네랄
일차
프레젠테이션
사용법
낙상
서재
주로
남원시
##스토리
명예퇴직
##그
치중
밭농사
재조사
집무실
##천은
강판
재단법인
베스트셀러
텐센트
유원지
중간고사
닉
테두리
##자재
망치
##매각
##전과
으뜸
독수리
난항
정현
사표
리오넬
이주민
수개월
##린
충전기
할지
재학생
가을철
갈망
자각
미혼
오션
난관
제명
##디지털
양평
군부대
동제
귀댁
충고
##앨범
액티브
증기
구단주
납기
기생
파랑
공상
신랑
불면증
당구
노령
종점
##공학부
귀띔
##상황실
도로공사
추행
홍남기
시구
발원지
지구촌
롯데마트
신호등
호박
대충
고압
##문자
필립
담당관
선율
##매장
##지진
청량
중성
해시
##로로
가업
##개정
##진에
회기
##리아
설악산
귀신
아모레
근속
제인
사탕
이모티콘
##감도
기술인
방접
휘
카라
도서실
성과급
지급액
탑승자
##외상
안보리
서북
화전
배향
이륙
방울
센트
전구
누수
체코
캐피탈
번창
꺼리
생식
비참
휴식처
소유주
단과
비방
저널
고흥
활동비
칼럼
수액
베이비
하수
문어
##다양
한약
차용
은산
세라믹
번은
토니
경성
고난도
답사
심장병
김일성
##종사자
중랑구
소매업
브룩스
##대리인
대성전
행방
미의
##인간
옥의
유량
기복
민속놀이
##압력
안전교육
묶
네오
##항공사
빨대
출연진
##감정
규율
집약
학자금
혹
그린
##딘
파킨슨병
크리스티안
특별회계
조현아
압축강도
변명
배럴
비둘기
친밀
굴뚝
평온
에세이
쿠션
기습
##알
슬기
반론
내력
명산
하순
양적
인공위성
초빙
노로
초중
면치
##공직자
물꼬
경계선
저온
일식
동경
모시
감천
얘
추돌
단맛
정선
옥천
추월
##자전거
공전
은닉
##매입
국교
##수사대
##좌상
열처리
몸체
가한
프런트
요일
질감
특산품
계약자
간극
유흥
미사
공격력
철폐
천연가스
겔
애틀랜타
##페어
##대기
암흑
불완전
##룡
장로
##위생
장신
##에프
세터
보금자리
##비중
##모닝
##교육법
사도
번이
호스트
참나무
뮤
냉장
놀라움
##주의자
전문직
오키나와
아인슈타인
냉방
항바이러스제
반포
저촉
양산시
##뉴
각호
정읍
중론
농공
##구속
교보생명
##구조물
산록
개최지
수목원
뭘까요
봉사자
타임스
모회사
활주로
##지에
팀워크
눈썹
세심
##정류장
모티브
페어
##덕
재결
##매치
진료소
##검찰청
##기도
##성
완비
역차별
미륵
일례
공언
##시위
##도로공사
자기장
당진시
##모씨
안희정
##재심
##채권자
생기
시체
온수
목걸이
검수
##택
케이블카
깃털
기질
휴지
레슨
방정식
면회
자비
횟집
사라
시험장
대포
##원리
네이처
자매결연
백두대간
잔존
연합뉴스
##회귀분석
커리큘럼
실로
귀책
##하락
설의
원피스
전해질
음
자수
손발
박모
수족
골격
공매
동반성
모신
저력
풍수
직계
비말
부정맥
고점
김해시
##감찰
##추행
##국민학교
##방어
빛깔
단백
정박
##취량
동성애자
도전장
철학자
원두
왕국
웨이
아이슬란드
조쉬
축구장
아미노산
##앙의
입문
파이낸셜
차명
포렌식
김용균
적십자사
##위생법
김명수
##제회
판도
결말
개회식
열량
돈의
알람
말다툼
육질
베개
치환
동사
헬리콥터
빌미
뜻밖
연습생
봄의
##포구
방파제
두각
옹기
##클래스
효로
대상포진
##취업
장세
역점
##망막
나달
##기관장
밝기
재촉
명세
숙주
후각
입이
인덱스
의례
법학
낳
주지사
갈증
혜
##송금
##커피
방점
대에
포드
##선교
매니지먼트
유명세
충청도
내사
재판장
##강령
낙점
##산단
##공공
권영진
견적서
악마
서울역
한정식
분홍색
##아가
서문
##편식
연구비
왕따
전시장
백색
##프로젝트
믹스
밸리
역전승
범용
고질
층간
페미니즘
액티비티
##랭
소성
##필터
포체티노
종합부동산세
가등기
재기
##금이
수프
성급
절도
인내심
범의
공교육
사교
램프
그래핀
미쓰
##보관
촌
그치
카카
후폭풍
중진
한나라당
리처드
##결산
인분
뇌경색
대학원생
가정용
유수
고서
##포장
쾌감
긴축
##윤
단추
자연산
경색
스텝
연사
백혈구
##위크
과거사
겸임
##기원
사회단체
승부차기
수출액
##테니스
김현미
창녕
##로스
제프
##아들
철쭉
트레이
초원
엄지
상담원
관상동맥
우도
발가락
배기가스
시험지
##교정
김태형
한계점
머니
대강
안내판
부원장
##체결
패권
인과관계
##픽
한중
코칭
편중
포천시
##개방
구위
대구경북
##추
##태승
##가상
##변위
삼계탕
유닛
웰컴
발화
가결
##옥
독소
##의뢰
레스터
안철수
양궁
휴전
카운티
##존중
메디컬
낭
숨통
스즈키
풍년
##습지
업주
상무부
공시지가
좌익수
교각
안압
##전등
패션쇼
##펀딩
사회생활
닫
수자원
모멘트
피의
거북이
공과
직거래
조형
메이트
펄
##주시
송림
샌즈
네이마르
##가단
고배
고시원
##약자
##진구
불기소
##자치회
##강과
##군사
세팅
소시지
금이
모레
리프트
단련
모하메드
중요도
꽃가루
구슬
배차
##영양
미성년
동북
용수
대검찰청
한동민
##취지
##앤드
지오
로또
꿀벌
##주문
정글
##비교
##학기
태운
텍
친선
한식당
온난
허점
##표지
노을
##실업
노린
적중
한의
전범
무상급식
출하량
연대보증
그린벨트
손혜원
##균형발전
융자금
공탁
작업자
겸비
대수
유리창
장만
오븐
손톱
##락의
##파워
안전장치
소란
##감각
시행착오
중앙아시아
사위
##사용료
##원사
폭스
##면접
수입품
물리학자
##섭
##탐구
##이미지
증감
비문
##연수원
롯데카드
기탁
##삼성
편취
##응급
제왕
왜관
훈
좌회전
적층
##완료
##금속
잠수
버릴
난간
##계정
##앞
##마드
제작비
전해진
주선
##품목
##발굴
추궁
돌기
오프닝
##은의
대손
울릉
##취급
공안
다변
중전
조사단
금정
강남스타일
노골
아쿠아
풍습
##개최
윈도우
주의보
개점
주기도
쇠고기
뺨
전폭
득의
온난화
급상승
쿨
저항성
예선전
이동한
서사
역류
대출자
적격성
상당액
영재교육
월출산
##공립
목욕탕
관용
대관령
여객기
곡식
데크
##사장
거버넌스
우선시
오감
체조
연한
명실상부
순례
통운
성전환
마리아
에어부산
레바논
균주
담원
##맥
##거점
서한
고령군
##찜
그랑프리
청력
##싸움
이직
물감
봉지
감격
방글라데시
모세
기형
대산
##확률
야생화
키오스
##봉이
대치동
노숙인
격돌
체육계
##경협
총출동
안치홍
번방
보이콧
탈의실
전환점
승합차
##빵
흠
손녀
##펜
피라미드
동방
웅진
재테크
소양
카누
공화국
재능기부
##소독
필라델피아
투신
##변형
##구도
모바일게임
왕세자
결격
멸실
역세권
폐원
장승
국군기무사
부연
##대남
스코틀랜드
반대쪽
이리
포크
평창동
객사
병의
콘솔
##성명
매너
##상실
체외
하이드
뇌출혈
로밍
수로
##비시
##쌀
##도우미
뚝
프라임
방제
##샘
기고
둑
이동경
유은혜
신보
윤석헌
##사위
덕유산
탭
품의
##곡선
합천
##정식
직행
비축
##조리
상업시설
평행
수치심
킨텍스
예방법
대마
자행
패혈증
안양시
선발전
행정청
비앤비
시작점
원망
고베
플랜트
즉석
선상
소나기
제비
후원자
항문
벡스코
잠수함
대화방
노약자
벤치마킹
매해
산길
궐련
침팬지
한국학
##환급금
##사면
김태우
동탄
남대천
상장지수
강습
출항
출근길
주길
##득의
평형
조차
갱년기
커튼
시그널
대국
##베리
대담
##음의
포식자
엿
철분
##믹스
현물
기로
기원전
##총의
지정학
별관
제네시스
##단절
##위즈
국민카드
나들목
뇌전증
필로폰
##선사
소정
와이어
발명품
자들
젊음
##약서
탈리
##폐가
매표소
애착
원년
생수
포르노
제주항공
코스타리카
##소음
연천
##우편
억새
연장전
개년
거시
##성장률
박해
##개의
##승계
최혜진
문희상
송구
##안전망
용담
주성분
특보
창간
통풍
게이머
전차
짚
##철학
타일
말일
독주
사슬
##운전자
##사거리
##집중
두개골
화성시
순방
##놀이터
##회생
단지로
추인
##동구
##미진
본형
커브
모토
식자재
소포
절리
잠재성
리우
레고
이면
모의고사
먹을거리
##레이스
림
골프클럽
##방정식
도핑
문진
취항
편백
코픽스
분전
##체전
##종양
오만
러프
구획
스키장
##식과
호실
##포털
물음
금주
##작성
교리
개인택시
도망
관세법
불의
강원랜드
##가이드
교동
전공의
스루
##합
비닐하우스
##균형
승강기
전진단
올레
우의
격투기
##수렴
김민
오송
산은
금호산업
취학
에지
프라
##탄
쿠
페이팔
오지
낙하산
트로트
제게는
스몰
호칭
회계사
##폭탄
##태그
시뮬레이터
비상사태
재실
##바이
중세
할부
간선
##부상
##양상
입도
약수
##유무
산후조리원
장현수
에인절스
당권
##화면
해인
아사히
위스키
브라우저
스틱
공은
하느님
##리거
브라이언
도어
조수
아부
콜라겐
##질병
##캠
##밍
갈대
공실
도선
##웹
채무불이행
##임상
이통
##잔액
##장단
난치성
스터디
닦
울리
허무
##텐
어온
몰
우여곡절
개울
국유
피아니스트
치부
선회
부정행위
탄도
절의
봉산
황색
황반
연행
수계
텐
커쇼
계파
비례대표제
둘레길
베리
계양
히어로
포옹
붓
##밖
제스처
지식인
조끼
요즈음
별빛
난소
비거리
랜섬
입출금
몰락
##응
전소
이용대
총파업
향방
##구가
##인자
행정관
개축
낸드
##태평양
공시가
매티스
지방도
한국감정원
##군청
정품
트랜스
최순
포스팅
제니
부주의
##톡
괌
##소개서
##창구
##치유
상하이
도요
오한
매화
집중호우
아가
저점
꼬막
유관순
뼈대
심전도
농수산물
##항만
약효
애국
##밸
에릭센
구립
이재영
폐질환
##면사무소
박종훈
기반암
티브이
기전
유권
##봉산
연기자
뱅킹
미분양
틈새
마구
에프
발전기
조달청
열연
##합성
집결
##기증
목적물
감사관
밀워키
##투호
탈루
신의칙
청동기
단종
성씨
##동료
서킷
프레
젠더
리비아
가문
열지
인내
전립선암
제물
출고가
렌탈
썸
##비로
근교
##이드
##고지서
##주한
수술비
##고지
택트
민가
이동국
##추정
##소위
특활
임종헌
##매개
경북대병원
이동식
심플
초밥
샴푸
데스크
방범
##피의
택
똥
성취감
공산당
우발
막대
깨달음
본성
##이동
##렛
펀딩
희석
##장년층
##소나
팔작지붕
운문
산골
파행
명부
선천성
젠지
손아섭
분담금
##행법
##교섭
혜경궁
전대
##법위
##학술지
국립보건연구원
학창
느
이스탄불
##계획안
##업진
빈혈
생동감
코믹
풀타임
라우팅
멜버른
넓이
유니
우익수
울산시
##증대
건설업자
##탱크
##이사의
##근무자
생리대
##확충
예산군
바레인
##공모
사행
##대왕
사시
순대
응대
스케이트
제곱
잔혹
퍼지
보수가
공정성
해조류
금오
사교육비
버거
섹션
못
피싱
##빈도
원생
반란
규약
상주시
이주열
효행
##비치
##마루
배석
##분권
임시회
쓰레기통
학비
경부고속도로
펜싱
장교
견고
제트
인감
작별
입학식
막말
장염
재채기
길가
만개
통찰력
낙인
을지로
투영
미화
##변
궤
##내시경
수비진
##대변인
##스코어
##방지법
신상품
피지
꽃잎
내용물
##나기
안목
메밀
현대식
교제
후안
소용이
돌진
양분
반점
뉴욕주
##관제
캐디
특허법
남양주시
실종자
일률
##국면
기보
포항시
##기독교
체육회
##할인
스캐너
나뭇잎
열세
건당
설거지
##정체
체리
실의
##스크린
신병
휴먼
##네트
##폐기
리치
천지
산호초
삼거리
토속
진에어
신진
쾌거
관아
##묘지
이스
공채
##포식
화개
김성수
##공기업
##악화
늑대
헤더
도표
친목
담론
만장일치
연주회
암기
명물
자금난
아담
약식
지뢰
##기억
##전적
##확장
대어
##학관
##예배
##챔피언십
심결
트랩
태양열
간헐
인맥
향의
제리
우천
킬로미터
김수현
신경전
술자리
죄수
코로
대림
대전의
쌍방
##대체
피질
대등
불린
당대
야구팬
파나마
점거
교통망
##례
##여력
청룡
##보호사
##약물
동법
보라색
면도
식기
난리
거창
잣대
고화질
세미
##섭취
결별
빙수
활어
염분
르네상스
선택과
감행
잔고
경구
##군인
##테마파크
##보트
조선인
방망이
눈꺼풀
##다이오드
##법과
##찬의
친족
##주변
##보통학교
마닐라
찜질방
시안
쉼
안마
협동심
디렉터
박자
징벌
시초
우상
성함
핼러윈
성대
꽃다발
말미
##스튜디오
제격
고등교육
스트라이커
샌더스
##홍
라모스
자아존중감
양수인
미식
근로복지공단
젠
결원
전교조
불사
예천군
박영선
낙태죄
스킬
궁전
항쟁
파라다이스
집들이
호세
얼리
장단점
##대역
##이야기
스톤
##센
##랩스
회의장
스퀘어
##공산
디트로이트
오롯
반월
강북구
마중물
정동
##총액
복잡도
신영
니혼
황인범
덕산
오세훈
패스트볼
수산업
##인회
특감
범어사
훼철
명륜당
경리
정돈
제국
경영학
아이패드
밸브
강과
게이츠
사제
아실
극동
내주
민화
##인도
후진
슈퍼스타
인선
송신
상벌
여과
##고가
자폐증
영산
사학
하구
##경정
자기공명영상
담양
괴산
말자
약진
카레
환절기
##맵
바구니
접착제
탁자
품절
##별의
##구축
벼슬
교습
시신경
나뭇가지
아스
에티오피아
포도당
##벨
적응력
##시인
미시
##행렬
산채
극한
등락
민물
점주
지카
재무회계
##브릿지
묵시
종영
##고발
치명률
##자기
어벤져스
영의
인승
가나
##경화
##메뉴
더미
마녀
도포
보라
선한
##고
군부
##갤러리
명과
각각
##치료사
박물
일관된
완충
모태
빙상
보통주
접견
산업체
헌법재판
척수
조코비치
환경미화원
##제시
##스와프
탑신
강남역
강압
##수리
밑거름
블리자드
##펫
외계인
아이스하키
지스타
채색
수의사
미모
이정표
슬라이딩
스트림
##파인
불명확
수퍼
점토
워즈
##스테이
재판관
모친
코웨이
담판
##플라이
##고사
기입
##가게
##플레이스
소방차
저작물
매니
진급
##탄력
야영장
앞날
로맨틱
그걸로
돌담
##듀
직감
##컨
호두
바지락
고착
지층
폐해
수식어
카슈
미지급
졸업앨범
방중
나이스
기하급수
박용택
이정현
김영권
탐사선
##공격
개소식
##농산물
논산시
##반장
수기
엔지니어링
에디션
매운맛
##구인
들
실리
귀족
##항이
프레드
크리스천
유언
그림책
노폐물
게임즈
어민
벽체
제주특별자치도
열사
##클리닉
##상장
포브스
##부령
##개입
수해
영산강
동인
봉황
##점용
횡령죄
나루터
대도
##대인
반문
이래
유모차
방전
쓸모
소름
변기
몽
##캡
##필름
##창업자
입영
장타
##예절
최전방
봄꽃
리빙
설계자
##패션
아키텍처
이천
##소년
##격
##관광객
무주택
읍내
##재인
법당
액정
성패
딜레마
말린
##포드
##쓰레기
환멸
공예품
##케이
집사
운전사
낙조
연변
연령층
##열의
##새
제각각
##다니엘
고속버스
질타
금상
보증인
이스타항공
건재
주휴
산촌
##리서치
의성군
##세브
광산구
분임
곡저
##라가
응원단
엔딩
단시간
윙
색인
미인
침구
컨설턴트
여우
본토
비명
##구획
실망감
혼재
칫솔
유화
불소
##스님
##리스크
타개
##유기
김태균
유배
##현안
##보육
입항
수작업
홈구장
암살
젤리
이공
과부하
##심이
망상
카니발
그리드
원예
수문
별의
생명력
알츠하이머병
수화
난무
##초과
확실시
측량
박건우
교과목
다윈
##비서
중견수
대한의사협회
방호복
이걸로
미로
인사동
테크노
##콜라
내국
사와
보증서
일쑤
매개체
최고점
존엄성
밀린
공문서
전용기
##탈의
노무
로저스
병역법
도립
##배분
분수령
나자
매몰
##법시
체격
애호가
##염증
##챗
선반
##백의
##증거
##정서
대뇌
선글라스
량
세인
나위
심리학자
그레이
투과
##대화
청소년기
성기
##정화
혈
타진
소방대원
대명사
보루
소비량
##출장
펀치
사수
플립
선거관리위원회
티몬
##드림
##학력
목돈
공보
오거돈
##상고
마애
레일
##발급
바래
모둠
서요
계실
조도
주니
영국인
자석
전자파
지름길
트레일러
배낭
모로코
신문사
녹십자
##쿠폰
기만
은의
##수정
사과문
바닷길
변종
로보
전달식
##인민
##코프
##배상액
구포
안부
습격
장단
시발점
정이
##주소
활로
마침표
표절
알렉산더
파이프라인
낙타
선천
연수원
쥔
소비재
변비
선수촌
##아메리카
간행물
진료실
##정은
양식장
##산림
##교포
##인플루엔자
차우찬
박세혁
진위
젓가락
소극장
매운탕
천둥
계약직
##재배
수리비
필러
저격
싱어
데가
연장선
아이러니
기약
서지
기차역
서바이벌
고지혈증
각
종단
##검색
일평균
표류
##서열
복강경
증강
연립
캐피털
##억제
총동원
엘리엇
타다
차상
문중
##정수
##수탁자
##강연
##아시안
선체
##권
간접흡연
##창의
군내
실업자
##업인
리틀
살균제
수염
우파
릴
병문안
페스타
여름휴가
##지리
##서버
이월
말초
전시실
응시자
##나이트
여아
성명서
클레이튼
배당주
급매물
콩고
창업주
혈청
프레스센터
##농민
수용자
감도
우편물
경제력
재검토
롤러
##효소
순항
스콧
춘
##마스크
비로
외치
잠식
##소수자
신변
##감리
이르지
행정명령
서훈
##운산
선관위
##부양
라파엘
김부겸
##대학생
##소방
경남은행
밀러
유승민
흑백
가로등
극단주의
사죄
과속
##진영
##추세
윌
성서
피서지
##포트
교무실
시베리아
아스팔트
맷
운동가
컬
루키
연유
만물
선동열
외국환
휴식기
##동원
##불명
##변인
피해액
##단기
##베이스
##묘
##피해자
총회장
김재호
집성촌
잔디밭
사채
생김새
##음
##설명
##담회
코디
##충격
사다리
라이더
나스닥
매개변수
지양
스탬프
##주공
사주
##연습
##증도
틱
매립지
로저
##자율
공공성
직간접
기조연설
거처
숙박업
공격자
인방
이영하
##황이
##일반
석재
본류
##유서
국무회의
예천
경산시
팔찌
이영자
퍼
향연
서정
폭주
버터
와이프
승강장
고국
데이비스
적임자
편파
매혹
불꽃놀이
독이
테드
일손
연례
##일과
##과학자
진달래
양해각서
의복
치주
디플레이션
불이행
감내
##정과
##동굴
처장
##클러스터
고율
##성산
팽나무
방위비
##산정
##실무
##선부
##채취
##현미경
무지
스트리트
처녀
##고기
율의
운치
양손
클린턴
정가
대명
거장
광안
강인한
##화가
유골
이완
한국연구재단
자료실
화훼
난청
##탁
황산
항공업
##티코
가람
##진술
장하성
가덕
조정안
##연금법
구상권
##욕
작업실
코카
묶음
폭격
승강
유채
재심사
고독
언행
사려
휴면
열화
오프
테러리스트
수학자
배변
은유
##오브
##유리
대작
##정액
락의
공익사업
초속
세계유산
가점
재수사
위례
##폭행
설명력
감명
##서점
시경
개로
주사기
버팀목
문과
잔해
##리얼
파마
셀카
총알
혼수
##침
데이브
연가
소라
우라늄
##침대
금년
무마
공영주
천동
##스페이스
##억제제
##재판관
페더러
주채
김경문
##공여
정합
설명서
##매니저
마이닝
에르
칼국수
엑셀
로열티
찜
이화여대
화사
구출
담요
레오
테일러
직책
말투
상거래
태클
소개팅
무관
도수
##록지
단국
원주시
##부정
더그아웃
등산로
탑승객
입당
본건
도파민
재가동
사활
훈장
##증세
결의안
##연결
이재원
무패
도운
##이자이
승수
전언
##트릭
신용보증기금
장충
##신고자
텀블러
일러스트
##전파
부조리
특단
##소개
유속
청바지
입각
행복감
##개념
피난민
인화
##련
찬물
##벤투
부안
울트라
구속력
과대
중앙동
마이크로닷
격인
##발견
김동원
강원도지사
비상근무
##만료
수복
축구팀
북경
##스터
##탐방
지중해
간질
이것저것
가마터
배지
스파이
중문
성황
수선
전자레인지
국사
앙상블
##포로
관철
제이미
백지
청담동
맹
족구
개강
의아
쏠
볼리비아
페미니스트
##고서
동맹국
기하
파출소
양육비
자력
##폴드
일단락
하회
##임원
체인지업
면사무소
##청년회
##里
직물
통용
##환
##비스
프로그래머
발톱
민족주의
센스
베드
마이애미
윈도
개와
채점
따위
역경
얼
##렌즈
재수
퍼블릭
합법화
메탄
수일
좌익
뒤집
정평
##관리사
##차단
소행성
초상
전도사
김진태
관영
##사이언스
빅딜
##카운트
광양시
병설
##병원장
속임수
담수
적재
예고편
탕
우회전
##패널
빙
시련
자금력
인도주의
로펌
명장
관직
##예정일
손수
방류
크라운
곶감
스핀
##마련
순번
참패
자산가
경포
대열
행동주의
상파
조원대
지방간
##회피
박지원
김상조
문책
##문화예술
##확산
제관
##코트
핏
휴무
바리스타
##형식
호스피스
버그
##체력
##중간
암울
친형
앨
##다발
##개설
##대첩
캐주얼
코앞
완수
콘테스트
양각
미러
##설계사
비하인드
성교육
##공대
##신청자
매크로
##해운
##발광
보임
애경
##입장
신호탄
예타
##금회
파생결합증권
기판력
힙
사슴
각성
쏜
##백만
##밤
연회장
기틀
차후
##블록
래프팅
##락지
계획서
안전벨트
코스모스
즉흥
기득
선녀
주파
##수와
살포
사익
켠
신진대사
학군
하프
건선
관광호텔
김포시
##고속
북태평양
##갑
##아래
아틀레
부영
##격투기
손소
##독제
알고리듬
샵
파라
지열
이빨
크라
스탠다드
##트립
도르트문트
아울렛
기자단
##종일
스프레이
숟가락
##언어
환각
측도
방어율
종과
심기
한국전력공사
함부르크
##석유
##파로
응방
##입법
##절제술
##치과
대가야
우완
##교직원
용출
옥개석
##보이스
교육자
첫해
인멸
프랑스어
캔버스
우동
일인
참견
스파게티
##스케이팅
나치
샤이니
메리어
대웅
##설명서
밑반찬
재일
시각화
배타
통계학
옴부즈만
##쉼터
##계약자
##오케스트라
안전망
속내
루카스
궤적
회자
##탐사
인준
개각
정주
##출자
임종석
문선민
심부전
##단독
진안군
##말의
남동구
남대문
워커
김구
카운트
공급량
입감
메뉴판
중개업
##면허증
북서부
가족력
망고
화단
일용직
앨런
해결사
용납
##절리
대상지
파의
초고층
죠
혼돈
##윈
##정이
해열제
기증자
소백산
잠적
범한
##우가
펭
##동시
물놀이장
손맛
##인터내셔널
숙원
초계기
손보사
山
주주권
자격정지
점유자
금오산
덕수궁
전처리
몸짓
가위
바코드
금형
일지
잭슨
춘천시
##견과
##가드
축의
줄무늬
욱일기
립스틱
소행
고치
원사
야영
델리
수첩
소수자
성화
인포
도자
변인
##플라자
##예의
초의
엔트로피
불륜
진입로
남동부
대검
차체
조선소
담대
발행인
##울루
경영계
##예술단
탈당
산지와
금동
대좌
편마암
에이치엘비
##증지
##우유
의료관광
부다페스트
사무장
숯불
교촌
별자리
끈기
말뚝
프랑스와
습의
제제
물색
유신
블레이드
산적
좌절감
##소속
분비물
##인정
함의
이질
모디
##사이버
다자녀
피상속인
미수
##아무개
##합동
용추
선산
갑상선암
등장인물
장구
스케치
##캐스트
광복절
이치
거미줄
풍수지리
광안리
##치킨
스마일
한국사
불응
다이렉트
공복
폭파
스탠더드
평탄
##담의
의뢰인
기본급
파우
소생
물방울
라이브러리
잉
입실
배설물
구치소
세르비아
##주지
판매점
울주군
경마
##부인
신명
##모멘트
메르켈
반증
구충제
##체크
노조원
설전
망언
석축
좌안
폭스바겐
밴쿠버
미얀
죽
메기
노후화
물성
내구
견본
하이
할애
플로리다주
후송
전래
기념사진
허리케인
종말
여고생
장시
슬라이더
돌산
동편
황재균
탄광
경주시
와이즈
##교과
백승호
촌락
기산점
##氏
여운
금일
수하물
원은
고품
처형
대여금
소장품
노랑
소식지
조리법
특전
딱지
##화물
김종민
아치
##나자
국제공항
식음료
##수력
외계
강재
영업소
쿠데타
##미스트
토머스
##두께
퇴
여지도
람
소강
참여연대
재임용
염경엽
##파견
##무호흡
누각
표장
김연아
실화
애견
정밀도
엽서
첨
##궤도
레포츠
##빌
기자재
구급
넋
에너지원
##럽
##운동가
레슬링
미술품
불우
아우디
범
조셉
메트로
선례
총량
김태훈
##넥
보험자
저술
반딧불이
##출연
포스코건설
우대금리
##티슈
##사업단
일반직
대덕
##공연장
##의대
##농악
리뉴
금식
앤디
아바타
리얼리티
선주
생사
척의
돈가스
파일럿
낙서
유성
징용
재검사
어지럼증
##시아
##불량
비수기
미공개
에드가
미학
김상수
김현
선동
철제
구자철
희비
##전법
##배정
##산화물
생업
강릉시
##현금
##기상
약사법
운봉
공유자
리본
주임
다방면
각질
증원
##송이
폭발물
영적
유흥업소
보살
상온
중심가
##수면
##아일랜드
지도력
##화합물
압구정
##외국인
나들이
청동
에폭시
마곡
메츠
##사업소
암초
사이토카인
##신약
전준우
허익범
정수빈
암자
당산제
취득시효
군포
숫
귀하
강탈
숙박업소
위아래
스릴
북유럽
뻔
말리
정석
열거
디딤돌
세라
다방
마을버스
천명
##푸
기선
이승호
##의자
##흡입
분기점
##수법
멍
입담
##공방
##상작
죄질
숭
선돌
문예
랜
겹
##이름
매거진
해수욕
식초
##측정기
홍보가
고춧가루
약수터
스탠드
제품군
극본
마중
별거
창피
옷차림
친지
수입금
유니버설
비키니
단언
##텔레콤
스텐
급물살
이동욱
##블루
선하증권
##청소
출소
조재범
##임금법
시냅스
감식
송영무
##감사관
##수관
혜성
바울
##저녁
코노
어묵
볼링
영화배우
휠
금번
##비에
상여
포커스
민영화
감고
대파
계산대
전반전
##사격
##소와
밤중
저주
유쾌
웨
약탈
자부
고아
사이다
박유천
##구와
세무사
맞배지붕
##사과
화원
근린
##스타디움
오스
신경과
대차
##항체
하한
##사범
포문
##액과
##관절염
내실화
외지
##국도
##측면
힐튼
인원수
계곡물
후대
트립
발단
이타
조부모
취사
벌칙
삼림
##머의
근시
##마스터
필사
절친
평택시
광섬유
명태
##요한
제일제당
##세탁
축산업
신천
도심지
연화
가칭
서진
개발제한구역
##훼손
호국
류중일
넥센히어로즈
##특산물
어주
##심장
감칠맛
철골
곡성
바우처
칼륨
콩나물
변혁
##지능
대추
회사원
좌표
##이식
사인회
청계천
##장도
로얄
기색
동방신기
김정일
종아리
첫발
출범식
##전사
##프렌즈
신동
고주파
삼산
집행부
중장
예술단
국유재산
필지
초구
향나무
김보경
오재일
##조정관
가본
프랭크
형벌
학장
풋볼
미납
##스파크
동업
장차
##잉
댓
닐슨
동식물
접
아미
유기체
한옥마을
##구병
명기
피부염
세네갈
##교과서
##불의
상영관
간첩
##타임즈
우안
최종구
##사업장
특위
소송비
##착취
군현
범실
추진력
에이전시
냄비
대성
승승장구
업자
회선
액자
통찰
##국과
숏
샘플링
번호판
웨이보
불합격
분도
대용
보안관
수혜자
재위
##주제
우익
전하
밀란
봉착
해미
해약
##보복
고소인
앙의
승부수
아약스
구광모
오재원
##청산
전라
임베디드
동년
연민
연신
트래킹
고등어
고용주
돌린
벌집
갈고
북동부
자성
안장
온기
봉수대
김진수
왓슨
다우
##대별
발자취
##유사
##전시실
해태
안정환
행량
##대여
##탐색
##유로
##절염
견조
덜미
카르노
##청문
##상한
김강민
##고안
##산지
서강대
안무
앤드
예언
본체
낙하
검단
굴복
중생대
사명감
망의
삼성카드
먹
중학
역주행
재회
인구수
노스
손금
동승자
상체
카이
##조류
##지하철
##유원지
##소견
개회
전시물
##입시
더비
최태원
##절벽
고우석
무주택자
##양육
농심
##본인
##사무관
마린
학제
어학
서울산
모녀
전두엽
악보
체
##반원
속담
함유량
트렌디
험담
##컷
이사로
니켈
효도
전등
반감
안정세
거두
부인과
편두통
##비즈니스
애도
시청각
샌디
래리
저작권법
식도
부시장
갈림길
어부
매회
최전선
장자
##청탁
##배양
권창훈
탄천
게양
피부색
조각상
번화가
##갈비
평이
개인용
뒷문
공터
폭동
##전문점
위임장
비즈
##편지
수영복
심고
숙취
구전
##드가
컨트리클럽
밤나무
쿠웨이트
모의실험
입김
가려움증
발각
##연한
트랜스젠더
잘츠부르크
에픽
역외
제단
죽도
##거래세
신안군
사멸
##특별법
임면
결핵균
렌더링
##파출소
##턴
능률
##공법
해치
예정일
대왕
껍데기
인피니티
##표가
월마트
셔
용병
수용소
공권력
국내선
진원지
매실
##구성원
자네
전출
방심
스타크래프트
도안
지질학
폐허
부산물
격파
##간섭
노면
##지체
자필
##테이블
태종
##우수
총체
동월
##불능
원산
유로파
염력
대장균
태세
해트
득표율
국립암센터
힌트
환호성
찌
유대감
온의
표가
##핏
타사
생물학자
옆면
세례
하체
시네마
박주영
스릴러
백악기
의기투합
발코니
민물고기
혼입
난제
##염과
검사장
미네소타
백두
솜방망이
파운드리
김혜경
##과열
분청사기
복귀전
순창
총면적
심방세동
윷놀이
영업시간
삼바
##성당
통근
소용돌이
교문
진해
운동회
캐리
암수
##표면
왓
##구로
##유물
##신부
감쇠
경의선
타순
김종규
라이엇
##총회의
##상관
분조
##농공
빵집
귤
필라테스
창가
스쿨버스
시퀀스
명사
##심판원
실속
맥박
전라도
융통
인솔
비품
가교
장해
봄날
출산율
식전
임원진
백서
##전압
피로도
설상가상
##보증인
예단
자급
김민성
아이즈
##메이트
본지
##지형
노사정
##지구의
꼼수
민병헌
조선총독부
최종훈
##주거
심재철
분뇨
##부평구
설시
전부명령
해프닝
줄거리
사하라
인영
도깨비
모음
재료비
만능
베이커리
웨이퍼
최후
지평
발제
##리언
하진
교보
고지서
포로
주변인
재치
댄서
투석
##인은
스낵
부류
캡틴
황새
남양유업
##기후
서천
르완다
상징물
썰물
반향
한가위
체스
##각서
하산
신세계백화점
##람
이종
##규격
##수영장
##하수
##조명
##기술인
찬바람
한지
퇴적물
##퇴직
폭등
##세기
탄강
##질문
금정구
변호사법
유한요소해석
빗방울
플라자
수행평가
델
바닷속
썰매
##핀
##란
아메리카노
##질
불법체류
뉴딜
연희
포석
다문화가정
큐레이터
관리법
성전
알칼리
스플릿
우전
원아
붕
희망퇴직
준법
남문
교포
양성자
액면
수만
삼성전기
##특화
카펠라
건아
집행정지
##전국
국립대
파전
후쿠시마
제대
커
랭크
무드
데모
페이퍼
화목
광대
성탄절
착시
해돋이
모국어
옆구리
워커힐
이비인후과
찰리
이코노미
##치
싹쓸이
병원균
##전기금
스탠포드
수감자
가를
농산
관입
카시트
형질
##절개
회고
고학년
경륜
인비
상충
포그바
인기몰이
디비전
모우라
응원전
준공식
##예탁
##장률
수형
면소
##석탑
홋카이도
퓨
직제
노안
상수
두세
무명
천재지변
파노라마
동일인
페덱스
##러스
미끼
연락도
음색
삼양
크리스탈
우진
##젼
##넥스
제패
비약
잉어
김선빈
##전도
유비쿼터스
병리
##반영
##분담
퇴직자
히말라야
니콜라스
포니
속국
##치료실
윗선
열전
##엔지니어링
선대
추가경정예산
거문
계룡
##소방본부
명창
##부산
어종
주포
등록세
존부
사업단
요한
수역
건과
폴더
명암
가야산
녹조
대환
박해민
##순의
잼
보가
칼날
벨벳
조직원
교통카드
예멘
풍자
행선지
맨해튼
로스쿨
##절약
##떼
마커
회비
치약
남단
러블리
##방침
애용
소울
무급
거시경제
한낮
불운
##단식
##워터
구와
##대표부
추대
가지급금
판빙빙
이양
지명타자
절세
뉴시스
디그
행정력
외압
이남
수임
문화예술
##권역
수뇌부
산면
금호강
읍지
부어
가솔린
성년
모일
칸막이
왼편
장력
멸
마카롱
동승
도형
붕어
현대건설
기공
장대
엣지
데니스
동면
##압
조선대
원통
저널리즘
뮬러
왜군
##간호사
지지가
##풍속
##스타트
##재개
출납
##석과
대타협
##징역
##지킴이
기본소득
성토
자구
##관측
교무
보온
루나
볶음밥
##명이
##한방
식민
깃
베토벤
한약재
레진
지팡이
간척지
능가
귀걸이
슬로
본보기
버락
하와
소지품
##루트
식물원
연비
##자랑
쪽지
칠곡
##레이시
실직
개진
미나리
토착
##훈
토막
이상민
귀금속
보사
제일은행
이철우
소거
신학기
출사표
셜
출전권
산나물
##나루
##천이
##균열
토지구획정리
말지
##톡스
밀크
완제품
가곡
##니
숙면
발바닥
##효의
구타
자지
제이슨
압박감
레코드
바흐
레지
지기
측정기
의가
시댁
잡초
발등
##지배
진폭
##팁
기안
코리
특정인
자초
화염
##뼈
##물건
돌방
##장려
골재
승산
석불
##사슬
##자체
바텀
결막
래미안
연제
세르히오
좌전
##간접
부천시
폐광
대실
토익
반년
욕조
상암
##무형문화재
견과
건전
스물
면허증
##펌프
공공장소
양립
아연
하얀색
주의력
발라드
##연휴
빨강
사살
글의
고고학
산청
##석이
아랍어
엄두
트램
쿼드
골조
모란
상존
미쉐린
##비엔날레
이정미
출연금
과소
##중재
목포시
뽀로로
##펙
면직
##무늬
한정판
플랑크톤
아주머니
개당
게임기
청소기
낙담
흥선대원군
괴짜
##체증
비지니스
열등
악명
블록버스터
증서
비흡연자
워치
딸아이
사투
메르세데스
까마귀
스프링클러
총력전
미래형
불식
##건조
빈발
##참사
시계열
신협
석회암
콜레라
##알레르기
웅진코웨이
주무관
유라시아
##급자
##어머니
골관
신일
건축주
##장법
머릿니
대단위
즈
팥
글귀
통역사
빌드
소풍
안무가
코미디언
바랄
종교인
이해도
무공
##결혼
열의
에콰도르
보호법
##뒤
##튜브
포탈
딘
##프라이즈
연재
유기물
잡화
이용섭
웃돈
민자
클로
중산층
계룡산
##이치
흑사병
##토크
령
##탐지
내정자
강단
하이트진로
체납자
풀백
포메이션
낙마
##합의체
구유
##특약
클레이
리모컨
미백
족발
가실
일광
조깅
##잇
고풍
곱창
끼니
유의성
마차
선불
피닉스
주공
읍성
난자
포퓰리즘
군단
지점장
##스터디
휘발
합금
번트
무이자
팩토리
##마취
##사나
백의
대표인
##밸류
항거
관람료
아프리카인
자연석
##과실
##진동
군청
체불
난소암
의왕
##메드
한화그룹
유안
##보료
##신학
##세율
워라
대형주
소아마비
##연이
통영시
구례
과처
홀딩스
엘리자베스
레인
리허설
평방
##서로
자전
통행료
와해
수업료
까치
상차림
드라이
##용사
광택
리메이크
상은
젖
웅덩이
운동량
색조
##모듈
압승
##이민
따름
로리
크레인
기본기
##리카
챌린저
##만족도
월악산
사시사철
중후
수서
등기부
환급금
##동이
아산시
철길
##선박
평창군
울릉군
툇마루
투표소
##부패
##재원
군자
##유예
다층
##바둑
##국외
슬래그
##발병
삼층석탑
##플렉스
조사의
일전
유심
강가
선미
중독자
공자
이곳저곳
벌기
만료일
##고와
스테이션
##타
우간다
상추
사투리
덕목
찌개
캐슬
원목
집적
봉인
소로
하가
적설
서울특별시장
재팬
왕좌
별칭
타임즈
보험의
공격진
입식
친선경기
##릉
온천수
##처리장
레인저스
호텔신라
원투
란산
산단
버노
고용량
청신호
##상호
##수준의
원희룡
##조형물
강성훈
##부문장
분묘
피보험
유강남
노인회
용소
루이
참지
뿔
음모
이노
청색
호화
수술의
오시
수월
나이키
##관람
모퉁이
야후
수수께끼
여길
동정심
열중
컨베이어
전자책
##볼트
습성
달도
##곳
##패드
신전
얀
생화학
아밀로이드
##실사
전업
타슈켄트
원당
브루클린
밍
안치
처마
항성
파고
수정체
##판독
##롯데
신동빈
총경
유성구
시찰
##집행정지
월성
예결
##충당
선수협
허경민
신평
##예술제
컴퍼니
요정
##프리
무술
건도
##스로
지드래곤
##오피스
체지방
명세서
위층
이브
##휴게소
사비
에드워드
현무암
그리움
구심점
##예술인
##계발
증거물
연마
김영삼
산양
만지
텔
장편
당나라
상도
시음
처짐
##대리점
##분지
##재가
진수
유희관
감산
##전망대
##법조
레일리
##경남
봉수
비브리오
엽
창호
##립니
입회
노즐
크롬
리베이트
체증
##헌의
자유주의
공대
복습
천문학자
솜
노량진
통지서
베란다
남한산성
김재
대기실
##벨벳
##체조
##잔치
##해안
사신
버드나무
제안자
감별
컴포넌트
자민
##훈장
빈곤층
펄스
핵융합
##커스
김성현
최용수
##수령
##재판부
위중
박용만
##금융업
학예
슛돌이
익산시
등부
##장상
문언
독립당
방위세
갈치
하얏트
에스컬레이터
룸메이트
해동
오른편
리눅스
##융자
트렁크
여관
공신
협찬
##혼의
비엔날레
연주가
플레이스
터너
수신기
심미
선결
형형색색
도성
심이
약재
결속
좌초
##마티스
마우리시오
재투자
##당원
증산
구세
##라스
##사이다
박용진
급등세
기흥
##지역인
구도심
광주은행
정책금융
환경영향평가
센싱
##연습장
대한상의
병용
조개젓
##펌
마음속
부평구
대마초
스토리지
해바라기
용해
보름달
거포
지휘관
##통행
교직
걸요
살충제
자루
유념
유충
앞이
메트
탈수
대동맥
실탄
요미우리
합숙
고발장
힘줄
##플랜
온톨로지
채혈
논과
##로프
장려금
억류
##독립
##국인
동률
간이식
지단
##조스
귀촌
남해군
공여
##령부
죄책
##피고인
신항
##그래픽
시리얼
켄
코멘트
브뤼셀
후드
##수량
순종
컨트롤러
##원소
향신료
시럽
##게이트
미혼모
수준급
샴페인
##커머스
에이미
홍성
유의미
랠리
풍토
버핏
단합
세단
보형물
유두
저당권
##통일
황태
##시험장
관계사
박혜진
폭투
병무청
##보유자
##지휘
하곡
##복귀
통일전
##여러분
##합계
지맥
온양
조림
주문서
왕위
카탈로그
안티
위해
매스
모공
중일
핸들
광진
인스턴트
득
심부름
덮개
피켓
가산점
사치
수면제
퍼팅
세이프
순응
##비아
옥션
소래
오클랜드
플레이트
##슈
비보
타르
##통로
코일
순국
쌍방향
##교원
운집
지방분
##형상
양도담보
김민정
콩쿠르
##밀착
##직무
구룡
##사역
결식
아자르
발대식
괴산군
폐막
##군민
이동형
##토론회
##조영
좌굴
멸망
미생
센텀
잡스
가출
앰
승천
##골목
지요
##셜
원수
아가씨
구매력
오실
엄벌
경호원
##동지
콤플렉스
낱말
##온난
사재기
넥스트
클립
근심
샘물
동유럽
##클
##패키지
북촌
토질
변국
라바
수용성
스파이크
통나무
이병헌
감나무
##듀스
##내막
원광
혈소판
동두천
중류
##세무서
##형사
신관
최형우
가르시아
채무조정
친문
분변
달서
##강변
##알코올
생활상
사업소
##아드
계몽
##상사
아랫부분
푸
생강
##몰입
세일즈
프로토타입
##태세
오아시스
독재자
대천
홍천
역도
형과
플리
밤낮
##상대
녹취
인심
목과
당분
오메가
전매
##독
학내
스타즈
광원
주막
유통망
합심
수포
봄기운
톰슨
##사관
할랄
##실현
호모
제보자
아현
조력
##문학관
##추출
##산리
김광
교계
옛길
##부사
가산금
도과
대림산업
##상속인
##굴착
신도비
제향
부활절
땅값
함덕
체급
우표
아웃도어
티비
점자
카펫
선입견
교토
빈약
창안
쿠알라룸푸르
만류
본국
성수동
##리원
신경외과
##충돌
폐가
산도
##전송
킹크
섬유질
##역서
##낸스
##줄기세포
예배당
복역
폐경
##이용자
지구대
판매액
해이
태백산맥
비장
##스탠리
##음악회
##중개
각계각층
저탄소
조산
대판
연천군
##사령
##예방법
##확진
쌍계사
그램
친필
배나
밀라노
어패류
수취인
캘리
##국사
오갈
신석기
국밥
숙식
평화통일
고관절
여념
과소평가
공명
동과
##스카우트
##못
저항력
내심
파이어
군림
로열
남서부
이용권
다빈치
작성자
달째
스토브
윔블던
##출판
##시안
장엄
폭소
투지
한샘
배기
수천억
고고
도농
관개
##트레이닝
광교
강경파
이지영
##결핍
창인
##풀이
이명희
주종
##관리비
##기대
영천시
후학
국민체육진흥공단
##소프트볼
권준욱
권순우
급제
아테네
떡국
인천항
패트릭
렌트
스타일링
화주
지킴이
넘버
봉제
인사이트
외투
레이디스
커리
쌈
채식주의자
판권
수취
행세
버릇
사나이
연고지
##추가
##맥스
편집자
참외
바비
##삿
비바람
묵인
장날
##최고
##닉스
경전
연회
##특강
대니
##리티
공관
용두산
학칙
산동
콜라보
대하
로지스틱
억대
상트페테르부르크
역전패
유례
클리블랜드
##센서스
한화투자증권
품귀
##산면
조상우
자유투
카잔
뜬공
##화상
가평군
平
누진제
브리검
##권고
실소유주
작목
헐리
애국가
죽인
앓
주사제
보톡스
빅토리아
팟캐스트
오라클
기동
쥴
가운
물기
강연자
색은
안내서
선과
무능
강인
젖소
눈동자
##아침
가야
데이빗
##우자의
##피아
하모니
어드벤처
지네
의중
디폴트
##치매
##자동
저류
##통보
존치
얼라이언스
##선인
저건
##표본
대한제국
전전
환부
##원료
감바
사암
폴리머
헌장
펠리페
금값
주루
부문장
전사자
황하나
회담장
한국과학기술원
##팰리스
##방위
##수계
##변상
가발
매트릭스
전권
디스
자유도
전통주
기압
입석
낮잠
후반부
왕비
포티
양치질
창덕궁
글라스
진가
반값
알약
##파이
##확인서
무기질
이승엽
랭
질책
##잎
##파생
오간
세븐일레븐
##김치
아폴로
부유층
서편
묘미
평촌
김지현
##출혈
장려상
고독사
당과
손실액
##옥의
##소자
부종
강관
연호
김승규
鄭
석상
지동원
유소연
##위안
##특수
##첨단
수급인
도로망
서초동
김효주
동창리
권아솔
의용
전파력
##백병원
신리
배꼽
철산
환의
디럭스
룩
짬뽕
라운
후식
모래사장
브런치
##근거
마그네슘
예루살렘
청라
구주
이북
천문
##응의
음악인
비평
권위자
통할
정신력
식견
독해
안간힘
아이유
편곡
관청
풀린
내연
아동학
생물체
번질
해마
바이크
피처
수구
교두보
이변
재소자
예원
동대
안중근
단상
중용
해리스
상록
레스
공극
봉화군
재택
원청
최선희
최주환
##흥청
구종
한성
정정용
##대본
폭설
호치민
칭
##료가
후계자
외식업
스테인리스
권총
도금
프로게이머
남향
가마솥
썬
부조
내적
강철
루터
소나
지울
다시마
토스트
관동
오색
직인
할로윈
허약
보이지
인회
##힘
소방본부
일회용품
페리
앤드루
이겁니다
행이
친밀감
시추
교전
##굿
혼전
김민우
하이퍼
민원실
은어
적십자
홉
세습
조폭
##산소
##탁구
##생물학
입법안
##출신
슬래브
복선
##노드
응우옌
선양
##나인
##유해
수개
미신
송편
##퓨
닭갈비
에센스
토핑
패스워드
트러블
여명
##키즈
책장
구조대
하수도
##인단
군함
기준점
리플
##배상금
소기업
김범수
자책
설레
밑바닥
보드게임
관리도
표준편차
새의
아서
성인병
##그림
알짜
상암동
향응
사극
부동
##조기
##장면
##역이
상지
교도관
고속도
키르기스스탄
스트로크
기념사업
##샤인
##영회
부양책
대권
##테크놀로지
뎅기열
##재와
##중심지
발주자
한금
출장소
충북선
입후보자
세조
원더
지민
짜장면
녀
##세일
피스
입기
엔젤
자바
##접속
유제품
남이
갈비뼈
악어
고품격
과학관
이과
배너
주유
유산소
유세
셰일
선구자
블로거
수압
다섯째
도예
제국주의
뇌사
##사이클
대회장
정예
상한선
##중공
##평론가
##서비스업
요로
정찬
애로
위드
망라
애경그룹
##보고회
부녀
광둥성
호가가
정의용
도당
수종
김강립
부산직할시
##철폐령
수화물
크루
이민호
명령어
비밀리에
막이
요율
어딘지
기린
독촉
우기
일주
알지
버즈
북극곰
꼬리표
링컨
고갯길
##병리
산천어
한판
다각도
리버
한천
서독
재범
##염
곡류
##캠페인
연정
영서
##누리
이랜드
합의점
이용의
시승
##닷
위도
##이내
오피
동천
비화
건강보험공단
이대성
여종
##남녀
적한
##쿼
논현동
불출석
##장로회
##계획법
유생
박병대
예대율
이천웅
조세범
##지반
##에이전트
##이래
릭
스탠퍼드
초코
매핑
동양인
쇼트
##궁
수정안
수증기
판촉
미아
브레인
점원
옷장
비산
독일어
세무서
##장애인
프로파일
멘탈
뭉친
알콜
근무지
신간
##교차로
보태
##금은
바퀴벌레
##발언
타의
##터치
한풀
일조량
캠핑카
##경고
##명단
이성계
제어기
##용어
공인회계사
##텐트
침습
세아
이진
정근우
##발전기
반일
##활력
솔샤르
##소원
강민호
면면
수영구
유시민
자립생활
급체포
##지주회사
영빈관
봉화산
예수교
종목별
##세무
보고회
상점가
충주댐
##목적물
페스트
##레스
워런
교육용
야식
템플
볶음
호스
신축성
추수
져
반쪽
##파트너
구석기
팝콘
임종
시리
완납
베어링
통원
적혈구
해파리
철판
##케이블카
표고버섯
몸길이
베르
##규약
미분
대령
김재현
유턴
##파악
##압류
윈터
##어선
성체
조계종
산성
변화구
리라
계상
백운
밀알
박나래
용인시
##평생
논밭
##영제
중등
성주군
고랭지
##복원
예금보험공사
##요구서
##불상
초량
탄성파
개그
##스팅
혼용
조인트
자야
수족관
광고비
매듭
천정
권리금
색칠
콤
도끼
##매트
난도
산수
##전체
좌지우지
콘돔
당위
선후배
##자신
괴사
##십의
영성
##헌법
##스트링
외산
##용액
민영
##모바일
##사도
활성산소
##엽
##추구
성종
##창작
조지아
건축사
도봉산
청담
승부처
##관리기
블라디
국판
림프절
최지만
보건부
김규민
근린공원
##드래곤
##나노
소결
부당이득
##수치
제네바
##기장
넥타이
##수에
절연
소지자
노송
##태
달팽이
시티투어
귀결
##경찰관
판단력
스카프
정신병
허혈
서커스
독서실
##반부
난타
장모
뉴저지
후자
괄목
뇌종양
##토가
애벌레
복합체
비통
탈레반
재활용품
여행기
절기
순교
도시민
반군
##고교
성취도
집집
석등
고위직
법사
시황
국관
영결식
##비상
성천
##부지사
도동
지세
분류군
운문사
패닉
직렬
추리
##브리
##고추
##점인
실세
피폭
외지인
공산주의
직시
채식
브리티시
중이
피신
소인
김치찌개
##니아
피험자
캐리어
단결
노보
올드
플로
응집
최상급
봇
리보
노벨상
명나라
##빅
김동현
##웰
자폐
##사료
시사회
유품
희생양
오다
종용
온누리
##시일
##침입
과점
무함마드
앤서니
구하
위용
성리학
비업
현대제철
이대은
김영록
이강철
난색
종부
우륵
이용찬
퇴적암
##골재
법정동
##군락
브라이언트
판매장
소아과
##횡단
프레스
가와사키
사회학
개요
종족
보호막
이주해
크리에이티브
휴
분수대
화자
쏙
일류
##뫼
감점
실존
앞마당
신라호텔
고어
기와집
##스테이션
댈러스
사회봉사
비경
끌기
이기면
배심원
연말연시
가금
횃불
에스트로겐
다윗
해송
지사장
선서
##카운티
평론가
##근육
영장류
##항공기
집단생활
체육공원
창궐
뉴요커
남중국해
보양
영도구
탐방객
해남군
병세
##대수
한국개발연구원
##잉여금
##기조
제청
무디스
동리
##합치
금당
이어가기
중과실
산신
보철
주산
도로법
향사
##용중
물병
갯
레이어
재충전
도비
퀵
인도인
겉보기
페달
실과
가속도
유니크
애니
성형수술
##주름
제이크
##구입
책방
한탄
공신력
병과
최단
스프
비스
##기밀
반열
##렉
최소화
발포
차수
북항
##스마트
사법연수원
자평
친일
##동네
다각화
##가루
김영
중환자
##잡지
##칼의
골격계
송수신
통신비
##감독관
데스
##인수
##펀치
농기계
복안
석학
관망세
갑론을박
수십만
리얼미터
연착륙
퀀텀
초선
##재로
본회
##기독
하안
도요지
청구취지
고려가
##햄
박사의
숙박비
퇴거
토탈
로
증착
식비
창이
주황색
광합성
무의미
신정
설계도
설명도
징검다리
감형
괴
터보
역행
토미
실재
지미
##나이
한바탕
나폴리
하워드
멤
미꾸라지
도요타
##시술
분신
후단
효의
##문화제
##위협
캐스터
공학자
직지
##버그
##짐
##티스
행하
최고령
##사무국
반정부
힐만
양동근
포백
거용
비탈
##청정
##사업비
착공식
##공판
수생
스포츠서울
화천군
신주인수권
북한이탈주민
##당뇨
서낭당
의협
강감찬
지소
공습
지원서
오타
카피
감독관
자물쇠
##주스
수레
##노력
채우기
뱃속
속마음
직업훈련
##전류
요실금
##자임
탐정
외침
승화
빈민
분유
피크닉
##제인
게리
캡스
나토
##신화
##브레인
경주마
퇴색
동절기
불순물
정경
생산지
레드카
##국수
##여론
##랑의
임업
등원
##동의서
중엽
갯바위
##보미
국민대
이율
아태
##간격
박병
홈런왕
서다
##청약
고노
눈덩이
주미
싱크탱크
##무개
정동영
김문수
마커스
##욱
집터
어획
퇴계
등하
내동
라니티딘
##실력
다정
쓰
수녀
대비책
##잔
피크
슬럼프
과업
##대항전
계단식
비닐봉지
도교
##즙
내리막길
여행용
볼펜
기산
제형
과당
버지니아
치어리더
창밖
##잡이
마스코트
카르텔
모닝
지남
고원
판매대
운전대
닝
행각
##인출
모뎀
견지
##양면
스가
##포메이션
##여당
##식물원
테마주
##부전
천변
기초자치단체
安
양당
##조계종
##중소
##경주
##창원
스타벅
하역
성수
##제주
신사동
오미자
패딩
##스메
야구단
아크릴
앞부분
외향
셔틀
##박사
강연회
부인의
궁합
과식
핵실험
마야
진두지휘
##세상
마사
##기가
수유
##생각
판가름
##데스
##다비
수저
잇
스테레오
##겔
먹구름
##추출물
동백나무
##자수
곱셈
##리더
리용
##커뮤니케이션
##살인
물집
광선
오심
피복
고덕
기울기
##행인
##처방
스털링
회복기
삼정
개동
박삼구
이범호
##개정안
##획단
##만세
허재
속리산
##洞
수군
##선발
도량
축성
옥구
유명해
스노우
개명
야망
매기
##출력
젓갈
##자분
마흔
부가세
고속철도
감세
문맥
야심
치료사
팔다리
성품
가창력
포레스트
젤
디너
이데올로기
긴박
배아
멀미
영접
유한
태반
가동이
뺑소니
##진압
세종대로
오답
장마철
관이
중재자
소프라노
출연자
##감지
톱스타
구성요건
##동맥
어귀
화물선
##여비
##어비스
빅스비
##유래
##신보
야학
사문서
과천시
철마
위촉장
도급인
콜라보레이션
속인
카스
청나라
휴학
##큐브
패러디
토리
옥계
본업
결항
##룩
##오류
##블의
어머님
빈틈
퇴학
서거
스포트라이트
낸시
벽지
뇌세포
##진학
자판기
##형제
대리석
도림
동동
유전학
공생
박동
비늘
홍채
##녀
계보
##해소
기강
지중
역세
패전
세컨드
##파가
##명부
유구
무고
결절
박주호
##장이
##구력
릉
리시브
기술보증기금
박동원
##광산
노역장
우리금융그룹
호암
##변환
사이드카
신조어
가격대
강화도
러셀
갈매기
앤드류
알프스
##폴리
도미
템포
서랍
부지런
니트
포켓
불타
하정우
출입증
롤러코스터
악당
운송장
유재석
대행업체
흠집
##게시판
우후죽순
성관
중서부
동공
부화
수여식
면장
장암
트레이딩
대항전
관음
휘슬
수아레스
생장
현행범
박스오피스
##도립
연혁
상조
조서
자해
다자
구안
하태경
##기록물
들녘
이형종
##연구관
군사분계선
조명균
##계약직
노컷뉴스
##땅볼
##호에
전치
##농성
담도
석문
##한제
비탈면
예술제
##여래
슈어저
주봉
##이것
펩타이드
수진
만석
회계감사
템
간밤
새우젓
씬
스위트룸
빕
곤경
수식
미지수
##볶음
생년월일
말문
유니세프
평균값
유창
탈선
후임자
미셸
성악
형제자매
대양
##명세서
금빛
계량
##히어로
##모터스
##주장
페로
현대그룹
사직서
##복식
담화
변곡점
회유
##등본
성시
수세
정의선
##계열사
수석대표
##악단
기폭제
만호
향정
기록관
##재결
선운사
광배
후쿠오카
참기름
직항
외환은행
프러포즈
브릿지
스킨케어
주재료
전쟁터
절제술
감자튀김
살아요
겉모습
이세돌
우럭
학생회
고모
오줌
숙녀
탐욕
투사
시약
숭배
케이프
꺼
용감한
박태환
트라이
##작물
그리스도인
길고양이
엔드
근현대
숨결
##취록
몬트리올
등심
##소식
정사각형
업고
볼보
우와
증권업
화약
##촉식
칭송
##슬
완결
싱크
예술품
##가가
관광업
유타
##우스
윤석민
##슈어
현업
독식
천수
##탐
신시내티
반딧불
타미
관망
금감
정부안
가인의
##나들목
코파
특설
정근
박남춘
##경영인
기흥구
구암
경제자유구역
##령상
##실명제
도넛
미연
##다스
성범죄자
아줌마
헤드폰
런닝맨
##명과
표로
##캐슬
매연
물동량
월남
플러그
설마
기부자
튜
이수한
의족
##새의
프리즘
##생과
변천
##온난화
##세미나
안드레
저커버그
업인
##갱신
열과
##닭
열람실
##정심
금메달리스트
완구
안저
흑
##전염병
##콩
충무
업의
김성
미동
고삐
레프트
##용자
이건희
산봉
관성
##전투
초동
파쇄
##검정
혈세
기득권
##후기
##스펙트럼
연구회
웅진그룹
인양
##채무자
림프종
안우진
함평
태화강
##유틸리티
거제시
메자닌
##원전
좌상
##선임
정세균
##말소
무증
구림
미라
사이먼
쾌락
탄자니아
액셀러레이터
캡
회개
찌꺼기
##인형
성안
소소
주조
유황
스카
배웅
모교
서양인
개그우먼
##땅
던전
부에노스아이레스
발신
마리나
분석가
뒷좌석
누계
메뉴인
서약서
미온
##체로
밑그림
##시마
밤사이
여천
##클라우드
불명예
##압박
##모텔
결사
결정력
차관보
숙의
##발사
이소영
##득실
##성기
분진
##챔피언
##측이
##도움
##예산안
朴
##성전
선정당사자
무당
에이치
위너
푸른색
##도면
정하
측정값
티타늄
##연방
촉감
주방장
오로
##심도
프랑크푸르트
스쿠버
함축
##악기
민낯
##예보
##던스
반세기
옷감
##사무실
##련관
##알고리즘
아스피린
##상선
체액
##얀
재협상
오작동
뱃길
넥스
섹터
하남
##플랜트
남용한
##마라톤
##금과
##재지
정모
장기전
부경
본격화
김진
##기적
신재민
김용범
히딩크
임도
박민우
자책점
뒷바라지
##수행자
##릭스미스
익스프레스
막국수
넬슨
엘리
태백산
창조적
바다낚시
##보완
장도
반항
##세요
강력범
포장지
로프
고지대
구내
##도장
서빙
에버
경악
##팟
레딧
명가
천시
고성장
유로존
##연극
더블유
머
답안
자이
할인율
무심
애환
눈가
##통념
출몰
이맘때
야시장
##비나
##낚시
밀레니엄
다이슨
최남단
##순서
##버거
배점
정찰
국선
혼합물
급선무
##함량
##토
서신
##맹점
성우
동의보감
원론
행정동
##중계
미산
백미
복약
결산서
서건창
선순위
극명
복당
정론
스마일게이트
##챔피
##휘
##신성
##융
단청
방미
##주치의
급경사
##정사
인천광역시장
셔터
아디
##디자이너
편집장
무얼
아몬드
학습지
##시료
꽃길
##왕국
파충류
제겐
만과
교통편
손수건
##정신과
양복
설사
송혜교
터득
##습의
쉘
##불가
침체기
셰
상병
크리
근사
총비용
신선도
마리화나
연회비
실용화
오크
나체
태생
아프간
##혜
시국
역풍
불능
##중소기업
웨스틴
용적
불똥
웰스
의석수
##조선호텔
티브로드
둔치
비슬산
##예정지
볼티모어
입원실
무학
복의
선거일
투자액
덤
여진
##오버
금기
파스
존립
굴욕
자서전
혈액형
노래자랑
물음표
모스
패널로
호주가
##급기
마마
##페스타
종묘
테디
유투
동창회
화기
병가
예식장
가온
탐지기
##공과
배급사
감수성
세로토닌
쟁취
한남
금광
##가인
목공예
서장
진출권
세종문화회관
카이로
조모
기권
맞불
뒤집기
묘비
차로
##재무
석차
하재훈
법률안
창당
축대
조혈모세포
##신경망
##불교
##익
송암
제방을
가집행선고
길드
서촌
직군
##몰의
딩
축이
후반전
이지만
코디네이터
의리
가히
웜
발끝
일보
천문대
마법사
안전모
인질
연습장
현관문
묘목
케이지
##컨티넨탈
백범
마리오
##사이드
##간부
지렛대
박세리
##상권
국과수
명만
차폐
##비빔밥
팔과
##레일
분쇄
##계통
황소
안구건조증
기에
##컨트리클럽
고증
##수강
장년층
박정
##호흡
열혈
월가
전월세
성윤모
##귀
보합
##동자
퇴소
마애불
헛스윙
통신구
##미약
산내
##천변
론스타
취수
나루
어촌계
성산면
산신제
전각
플러그인
군데군데
원더걸스
잉여
구덩이
버킷
거인
이용은
차이나
나날
워드
솥
차서
핫도그
닐
##후군
이태리
자만
초심
조수석
수속
바라지
눈병
전유물
산술
##불고기
산티아고
##타이
한문
여고
담기
통념
옹진군
케이드
##관서
식후
캄
병영
부기
트랜지스터
빈손
설악
저마
짜임새
세스
포워드
##원서
봉기
동갑내기
주춧돌
##성공
이성열
기립
오솔길
이사의
김정
주주명부
##미수
피지컬
##롱
심부
##시공
내란
수탈
##우승
영화인
김광수
정우람
김준호
합참
생식기
매설
남양
부산진
학교운영위
경험칙
식품위생
##개량
네일
파우더
교명
숍
역삼동
신음
판매처
육식
보시기
외도
브루노
로션
호명
장신구
연을
소회
##베이
글쓴이
##화장품
환대
행정사
물총
윗면
##한법
미토콘드리아
##삼거리
##마커
틴
쉰
벚나무
실익
엄지손가락
은하수
서밋
##서명
더스틴
예비비
##감량
쿡
차임
학습장
##개발비
##전증
안도
오프사이드
##자녀
다득점
주산지
##테러
보우
위장전입
철원군
##사채
체납액
목판
연곡
보증채무
일신
##등부
##휴양
##내성
현종
왕산
##국은
풀장
앨리스
빌리지
번역가
호찌민
세안
대당
회용
골치
밀봉
충신
마네
암묵
강대국
거주민
옷의
홍어
동봉
초여름
용천
진취
소피
편승
화도
탈해
닉네임
대리운전
##다운
밤샘
운전석
노점상
##오일
공설
송한
##시범
청계
##수표
##호스텔
복면
매가
분화구
서술형
일용
협진
##득점
역내
##셰프
두레
조력자
복호
올인
##보정
은상
##분위기
오버헤드
진양
##절차법
비아
##컬
##합창
주문진
퇴비
만민
##전문의
최고가
##보스토크
##개척
출렁다리
특별상
고사리
약체
##윌
양진호
투타
표준지
##조처
##여단
중심축
최강희
총영사관
사무처
췌장
新
군정
덕망
흥덕
데로
핑
##명세
지퍼
예정자
찹쌀
자인
일절
허공
계산서
##도상
메탈
##위임
일임
껌
밀의
신과
시금치
전열
귀향
신지
직불
졸음
설리
촬영장
##포도
자유형
내야
발롱도르
##세제
자유자재
##데스크
귀감
확연
물놀
##접근
전어
##수축
특판
원미
##뜰
골머리
크리스토퍼
##여행객
하버드대
##여가
내인
##분기점
헤딩슛
강동
라이프치히
##교육장
협상력
풍의
##척도
그제
극장가
남태희
##공시지가
##촌은
##시멘트
회당
장안
##장학
##상담소
파탄
##백스
##검장
##신라호텔
##소집
절골
과실상계
결점
게이트웨이
일어
꽃게
럼
유비
안토니오
##템
할인점
러시아어
과오
광업
교우
칼라
긍지
격투
마술사
그네
대납
기근
유정
벌이
변칙
히든
수력
디디
만화책
참배
부와
##코리
키친
식기세척기
아라
##직과
다비드
##코너
대학가
더덕
희소성
리우데자네이루
미덕
모터스포츠
인민군
이영표
##앙
만발
이슬람교
산업별
일동
##토막
세그먼트
노비
##스루
위약
자본력
군복
연출가
콜드
후예
방호
##남자
원판
##초기
##데크
폭도
선인
##세에
인부
모드리치
보수당
팹
오타니
석회
##수자원
정운찬
##마사회
옥산
태안군
##모니터링
##저작
남면
례
현산
왕궁
오스틴
거북선
서유럽
우크라이나
버퍼
##페이스
각이
슬리퍼
싱크대
단자
즉위
된장찌개
##닥터
##공작
여군
선처
동아일보
뮤지엄
동업자
유임
위엄
정동진
내줄
온스
글러브
코코넛
##브리지
무기력
익사
어딜
##단련
연서
보세
피임
레이블
유고
##인물
불경기
세정제
수풀
##스퍼
##미가
영양가
영양사
##위로
초급
위키피디아
##미용
동헌
대졸
분광
군포시
선량
##통과
아우크스부르크
아우라
중성자
석권
결연
분대
안전띠
투기지역
##고속도
##임시
##경제자유구역
분향소
##원천
울란바토르
아무개
방죽
유엔군
##플라스틱
##출시
산학연
##해역
단체교섭
달천
##양수
교지
##불편
##채납
병자호란
대호
특수교육
산삼
적설계
애교
하키
발명가
위크
동재
히터
장바구니
정년퇴직
지망
##이터
바닐라
##뷰티
바자회
미각
빈민가
타파
보살핌
콜롬비
검찰청
리사
보호구
과한
익스
여의
캐쉬
이방인
물린
몰래카메라
건강식
이종석
장전
감전
선풍
첩
한솔
김지은
##비즈
구술
입상자
위로금
신경통
로스터
유모
##그래프
풍랑
백암
앰배서더
가감
##스나
마한
##선도
주거비
로드리게스
대장정
##소비세
이용규
지에스
옥탑방
이지스
##해경
김혜성
노총
사재
##모니터
농업기술센터
우중간
비뇨
고메스
행불
##입상
남이섬
프렌즈
롯데시네마
자말
스크래치
전산망
현혹
탤런트
파운데이션
관람석
빈센트
윤기
##식량
라마
망설
호적
근방
##장식
공금
##권력
속설
격분
약도
획
헤드셋
의문점
##레이팅
밀수
##렙
탐험가
해일
튤립
적당량
타이완
계원
전원주택
저혈압
##교로
배회
##스에
경계심
위기관리
접속자
노점
초지
##정기
동호
에드
##장부
중생
##병력
##사망
전조
제설
요람
##도액
##항쟁
열수
##입국
##피크
디에고
원스
지방산
비옥
##방사선
안병훈
윤지오
외연
유한양행
간사인
생보
임병욱
##선거관리위원회
보성군
추징금
초순
화강
정례회
유학자
##환원
전파자
율곡
공동소송
왜구
##단면
선보
왕인
레오나르도
반주
한울
빈티지
격의
##청소기
표피
난다
셰익스피어
짝퉁
부추
##정범
광어
아르
허블
김정호
세속
몽환
낙선
##리치
서약
지평선
큐레이션
막대기
배역
까지
화난
경조사
황폐
심볼
수어
럭키
휘파람
명승
팻말
덕담
도축
시연회
전기료
헌정
##골드
##호로
##국을
광고료
##반대
##전원
무예
즈음에
저널리스트
##혈
루카
상피
##노출
##사전
농구장
뒷심
자책골
수초
##지명
##요금제
화산재
##화질
기암절벽
수관
진풍경
기우제
대책위
남하
순직
박정환
소청
성내
##계부
서민형
경합범
만다
위시
조교
역이
좌월
뉘앙스
미녀
영사관
부끄러움
격식
베젤
속보
목도
수신자
알갱이
고단
##기견
산속
##본드
판화
##회의실
슈퍼맨
에스더
노키아
브로콜리
오케이
문수
무용수
##칠
##메이커
강사진
협심증
##보증서
방관
박진감
무방비
##원도
체질량
시시각각
##용
호위
##어가
군무
중급
사택
차범근
은빛
콜린
보스니아
풍등
출점
흉부외과
##플레이트
만수
##변호인
득점력
불개미
주세종
##세관
내무부
신대
고신
##의견서
##실명
산수유
세계무역기구
##화법
잠실야구장
##박물
장산
공정증서
증명력
당산나무
박지
에디
오뚜기
피살
자서
열화상
용사
사서
고흐
아래층
보따리
번역기
적조
연합군
이탈리안
블루베리
본드
신기
##마일
오로라
찰
기압골
##발주자
해충
레이크
##팔경
원통형
##테라
단초
전결
방패
위증
호분
##렉스
##숙박
##거주
한랭
프린세스
음파
##라이너
##아연
팰리스
##자료실
순익
들판이
수비력
펠로시
청호
닷
기업어음
##외곽
##관리원
전경련
수안보
이어간
고승
김영주
##독서
득점포
광주광역시
정지석
계도
##과학관
조용병
##행자
##투석
##신청인
경전철
혜의
사생
드니
##본이
힉스
분석법
네모
웨이트
번진
아쿠아리움
구문
홀리데이
##삼의
##경진
경험담
약값
시문
##곡이
##세로
은행업
시험관
##크림
로빈
##허용
림프
반원
벌목
간석지
패자
##수역
모로
송어
오수
##살균제
가요제
##사리
##전방
##임금제
김지영
도드
저흰
춘향
다저
실력파
안산암
##상생
##초시
##플레이어
헐리우드
##해설
##지주사
인터폴
부적격
주이
비바리
##퍼블
##전철
불가역
##업장
이전인
##연료전지
##유역
액화석유가스
농법
나경
##광물
분여
하리
쇠락
단양군
##암산
##감호
##년수
송성문
이상훈
포교
##반변
아이파크
장수군
흠결
##방조제
왜적
##분교장
##요약
대표작
동독
제니퍼
프라이팬
수육
과테말라
피하
간디
개신교
##닥
베로나
동심
채광
노랫말
임피
단발
통쾌
사무직
커버리지
북문
초연
생중
트라
방황
의왕시
유치원생
주립
영사
##용시
##직구
##과잉
##한계
러시아인
해협
전송이
경사면
##주파수
주메뉴
방파
신민
여생
영일
##막이
워싱턴주
중종
수평선
커널
케이시
안인
어치
##킴
씨제이
##사라
변형률
급전
루주
변량
한컴
광역자치단체
##고전
##지원사
성업
정유재란
적응증
좌중간
시중금리
##서당
남해
##바이저
멸균
레트로
렛츠
베이컨
당직자
현시점
요란
조미료
분통
돌과
특선
여백
유년
적인
단부
추천서
스모
풍류
영업부
##잼
올겨울
체구
캡처
콘택트렌즈
오토캠핑
스위칭
퍼거슨
밧줄
인수자
잔재
분투
##사옥
강우량
아카시아
서체
난립
핑거
가창
##예정자
##공예품
코카인
사유지
##민주주의
패기
중앙일보
시험대
애런
##대신
신시가지
##용법
회견
평준
속칭
소구
##하금
##면제
과르디올라
샘슨
인공강우
델레
밋
##검의
유엔사
유한회사
##법관
김종필
늑장
트루
김영환
##정착
허훈
비행장
##모기
변성
심박수
선취점
##지질혈증
괴질
별정직
##리라
방역망
향토사
석영
##컴
##시작
##티켓
곰탕
첼로
##메이드
사이판
##켓
도전자
암스테르담
##요양원
거위
시크
군비
경피
보관소
억양
본
중요시
대행사
인쇄물
권위주의
##비자
앞산
##투입
케네디
##즘
봉준호
스냅
질식
내한
세화
먹잇감
첸
##뇌
레미콘
##동화
존엄
프로젝터
##완의
음극
주정차
광부
연결망
정구
컵스
분류기
##혈압
평상
배뇨
##화제
##리버
광자
##동조
총영사
중리
기대주
##조세
격전지
性
##웅
세르게이
##망이
추사
고교생
양강
학동
국제회계기준
##재완
정개특위
##방재
비예
신진서
##수원
진산
상감
극락전
공공용지
보름날
시주
##안천
냉난방
초간
전자기
계획안
개천
##루스
아우
김이
다람쥐
문은
진주성
종각
한과
매사
투혼
탄식
왕릉
짐승
플라워
취침
듀
시부모
##초년생
##거절
여보
용매
마르지
유틸리티
##제국
개폐
투르크메니스탄
페르난도
깡통
##그라피
인버터
개보
법대
최원태
##폴리스
##아트홀
독과점
추자
배상액
##지속
##만화
##진화
리빌
실바
##제조업
##몰이
김동욱
사실혼
승부조작
##화원
산과의
김동엽
풍산
##후보자
우정사업본부
구자욱
##소위원회
복개
훈령
국권
##구립
내셔널스
종택
의림지
마이산
캣
##지기
착용감
센티미터
##리어
벌점
리무진
서두
전도성
줄넘기
##튜
보육원
리포터
변리사
빅토르
고뇌
퍼펙트
농기구
추어탕
##장학금
##도입
원곡
##인대
세균성
멕시코시티
슈퍼컴퓨터
어획량
낭송
무임승차
양구
거더
희토류
##치사
관목
기정사실
상용차
선봉
##전소
천리안
암산
포심
이동준
한경
호구
뇌척수액
구한말
북대
동두천시
##齋
덕산면
최치원
섬진
사질
사액
아카이브
##띠
합성어
향토음식
푸르지오
이효리
##글의
요리법
혼다
떡갈비
루비
화로
운의
두
광해군
슈가
석기
찜질
공책
팔자
비일비재
별반
수트
검지
클롭
피에르
처사
##침의
신드롬
횡포
브랜든
미곡
마력
##취의
농토
요기
패인
수호신
탬
덴
대야
막차
신도가
##보호구역
거물
이승기
실용신안
##고기압
##루프
무근
로페즈
##신장
부전
망원
징크스
점대
구설
조부
원성
##파이낸셜
##수정체
##배제
좌장
##정밀
정주현
광동
州
강진군
게임빌
김무성
##협동
##영재
더블헤더
물증
개포
##주최
설도
##도지사
천리
수림
과기부
##생존
부여군
동북부
##향대
근로관계
기념사
송시열
##아보
##해양경찰
순경
직교
##토리
##커버
베니스
제기차기
상록수
프렌치
지르
##이브
태평
루스
##쇄
양정
내리막
해인사
피난처
##바닥
##콤
얼룩
페스
슈트
감미
##송라이터
이웃들이
브리
민트
이집트인
죄인
무용지물
가이드북
환경친화
커트
소외감
루니
제일모직
프랑스인
##입구
썸머
대일
진술서
얘길
마르코
경추
담소
신맛
사골
황금연휴
투호
상급자
회의감
상경
바이두
##황제
전환기
##어로
##의류
##이념
산분
노루
##배경
오일장
한수
현빈
##검역
척추관
총회의
순이자
##수료
광각
##민정
##한우
벤치마크
김도훈
##대결
反
다롄
##정보국
최적지
밀어내기
노수
##부시장
농단
이동면
태화
송유관
무고죄
인컴
##지자체
연극제
은거
만경
부존
공시송달
세거
김민수
인디언
월정
무호흡
엊그제
촉박
직사각형
글꼴
양치
위가
개인기
공항버스
순찰차
도처
비평가
상류층
버라이어티
손짓
부탄
변덕
걸작
드로잉
##짓
리턴
현주소
프란치스코
발치
쉐
소아암
패티
##에이
##페놀
톈진
##메
궤양
수달
##극복
후발
지방행정
인형극
인천국제공항공사
표식
리차드
적법성
상대국
##야가
밀물
##가동
주군
감청
전자서명
##개미
애덤
##병변
팻
셋톱박스
득실
순기능
샐러리
한빛
차환
김정민
뉴이스트
##수위
박수갈채
##침하
##우회
경사도
대항력
##농촌
##광주
국사봉
##청구서
충주호
##특별회계
주업
##가마
전리
교합
美
##레터
유니온
트릭
스모그
취업률
카약
메타데이터
배상금
레퍼토리
##스턴트
안료
수료증
소모품
가부장
페트병
클렌징
##의상
엠마
성직자
켤레
뒷부분
박리
합치
저게
공진
돈벌이
목공
김서영
##공주
봉급
##배터리
덫
빙어
##납
##입력
심성
배식
모기지
로스트
동복
변색
파괴력
실측
혈투
늦가을
음영
##우림
결제금
한려
전동차
##가방
생계비
전임자
모국
고밀도
방탄
꿩
##신뢰
##신앙
풀무원
맥쿼리
##포기
트랙터
유천
르브론
상한가
##성심
##켐
##자상
##교대
##수신
만덕
볼빅
김순례
영건
단오
##협착증
##몹
실검
##강판
비구니
##선별
##인지의
##조정법
합천군
요사채
곡간
청산금
법시
운송인
솔선수범
파이팅
홍합
퀴어
율동
준결승전
콘센트
짝사랑
가격표
턴
뒷모습
시공자
##성립
여주인공
첫눈
홀인원
##이탈
국제노동기구
변별력
억지
회절
외박
##뮤지엄
고함
가보
왕족
제이콥
자갈치
충혈
만행
바캉스
멜로
힐러리
예감
김광석
육회
수목드라마
도배
미술가
목성
결승선
##비도
이하일
곱
비추
기재사항
스파크
슬로프
##무사
고강
플루토
##브레이커
##공약
소매점
##어부
열적
##이해
재규어
##적성
걸음마
모기장
난사
탄원서
한혜진
##회도
요렌테
##잠식
신세계그룹
속공
김선형
나성범
##방로
핵산
##향서
##초교
할매
시루
도계
김기태
묵
##명예
환우
영주시
위천
만경강
강학
삼공사
주왕산
##클로로퀸
해적
##편이
퓨처
열도
반나절
염료
##샐러드
사로
호봉
전단지
전현무
방도
해장국
##명은
과금
변하
후추
병명
거스
살상
##징후
친의
오른팔
샤프
과도기
허비
도토리
##관도
복종
버프
##아울렛
신어
치석
페놀
샤넬
천적
##리안
킥오프
다수당
박보검
배드
육즙
##럼
스캇
##꿈
##카트
가린
##하가
관광특구
##보호의
김태호
카터
모낭
공산품
갓길
지선
창동
꽃망울
기준시
쪽방
엄중
출자자
##대륙
##변성
추도식
수문장
##발령
##교부
##적금
낙수
성신
양재동
##병합
##대행자
세한
완도군
폄하
##순례
부지사
채은성
##준비금
##논술
박철우
발기인
세대주
##진흥회
금정산
현감
켄싱
마차도
오염원
##관행
관보
##합산
청년회
##전인
##포항
##받침
##천교
##횟집
현풍
##출외
레볼루션
시크릿
애드
통칭
요코하마
쓰임새
스카이프
주안
님
다이얼
깻잎
몰디브
퇴화
공증
라온
##향이
난시
마스
재혼
그립
씹는
##예술가
동그라미
타국
자국민
파리바
김영란
후세
동백꽃
##다섯
시카
로이
넉
종이접기
남포동
칫솔질
지은이
밀리지
말단
출결
킹덤
역효과
선언문
소총
액세스
##산출
명곡
솔라
##시계
문물
헬륨
이음
##일치
포르투
이륜차
송이버섯
##도어
전년도
##트라
표고
선거인
여울
##효
장정석
##고인
에마뉘엘
##사제
##의혹
이주노
##바이옴
독립선언서
텍사스주
송영길
농진청
임세
##퇴치
경전선
보라스
##동영상
최경주
##의제
고동진
액화천연가스
##요지
다슬기
억제제
##부모
##수산물
창녕군
인산인해
##진로
난류
남항
##배수
##반사
요사
브레
피카소
##쳐
멍이
절충
도상
걱정거리
겨드랑이
##파고
노모
석양
주검
은행원
##자격증
예식
평양냉면
참한
##실수
다이
토박이
엉터리
오동
장화
담낭
카본
동급
내림
포틀랜드
라마단
파커
습
예제
##시외버스
##반과
김희진
팬텀
내빈
감지기
우선주
##정거장
##이닝
정겨운
이국종
희소
헤일리
내공
피소
##입술
##랙
##노래방
짝수
문무일
##분자
지원사
고목
채비
##지위
##토스
촌지
수송기
엘시티
라선
패색
##기부
백호
유리체
태동
##포상금
회복력
##평가서
곤혹
사개
범어
밀양시
##소증
하회마을
옥녀봉
조사서
##조사서
남사
라이트급
갈리
에이핑크
시한부
코스트코
가면
대패
##마인드
침공
일렬
트랜드
라이센스
##게장
빈부
칠판
야유
와요
바이킹
배고픔
공포심
반올림
체면
미운
망신
티베트
도태
억만장자
기러기
꼬치
롯
자도
주원인
정반
팔의
제시카
사립대
통합교육
프로펠러
##국밥
황금빛
메스
투수진
루게릭
코코
터키인
일정액
##글씨
여름밤
코스튬
##리부
우성
##한계선
미관
두드러기
공백기
장유
핫라인
소와
권력자
황갈색
가속기
견인차
육계
##교와
##기둥
##일시
정경두
전문지
끌어올리기
관방
보호관찰
김원중
##등판
##조선소
로이킴
##대책위
미약
투심
여경
춘추
모라이스
##투게더
의총
루카쿠
##문단
정몽규
##등대
레드삭스
##중개업
간선도로
명종
자담
##희망자
중랑
구례군
수지구
##암천
##여기
##고찰
재하
당간지주
강림
바우
알래스카
연장자
게릴라
순도
트랜잭션
외딴
타락
개나리
반반
뒷마당
명복
괴한
##리사
누명
##하늘
실추
자두
맹세
공포감
##무침
라우터
철자
제빵
실격
하이킹
황실
발육
##산맥
돌잔치
무침
뜸
토픽
국행
군사력
기혼
진동수
실루엣
대공
다지기
예약자
##사병
발전량
이격
하절기
본고
##이벤트
##빔
가로수길
출발지
##전문학교
발상지
오세
옷깃
튀니지
##증식
여대
하남시
하반신
월동
맛보기
경종
히스토그램
선불카드
재량권
융기
담벼락
시화호
건양
##관리인
완파
매출채권
##태권
##눔
##윤의
국회법
##치안
집기
랄
##물리학
내셔
이상혁
##코퍼레이션
##부양책
한국노총
강원영
롯데케미칼
패럴림픽
티웨이항공
가트너
처단
마힌드라
##신문사
고흥군
뇌염
정회원
윤창호
##화합
##경향
박상현
##부재
##힐스
고영한
##기준일
##면직
##방송국
##폐암
##관광호텔
##심문
##공통
문성
임희정
##오차
##소재지
내삼문
센토사섬
자이언트
저택
코펜하겐
각료
##바람
럭비
##흡수
우선권
과음
요구르트
크리스털
불기
수갑
예비군
명언
냇물
미취학
부츠
봉양
부정부패
빠
해빙
내부자
원문
활약상
파형
특산
차린
비투비
효모
엄
에어백
아킬레스건
##장실
##평의
창립자
##와인
조우
송전
첨가물
테니스장
일별
제례
빈집
문화제
생활관
##래
임진강
노년기
##둑
취성
남발
형세
##활동가
칠성
##포탈
##코딩
##공세
##선교회
##승부
불협화음
최준용
##뮤지컬
동신
##원금
##단백질
추서
##간탄
김승현
공동생활
##비상사태
플렉스
##승률
성역
##파업
김여정
##규준
##위로금
##혈증
무주읍
##표창
##측량
표층
기초자산
모르타르
##준비물
소백산맥
패소자
변제기
문학관
패의
기절
감사패
일리
감호
감은
##오션
애국심
담지
서현
트림
##연구실
사령부
허니
파울로
제복
열등감
차이나타운
집사람
미련
벼락
우연이
심천
성탄
겨자
캐치
##자가
단풍나무
데릭
의인
외장
곡면
이주하
도라지
##운항
##장어
나무숲
수현
##누설
명문화
유사시
과육
답보
노트르담
창사
취득자
##도원
병기
##외부
극성
흑운모
필립스
행정심판
군립
##커뮤니티
##함
##풍경
##익대
손승락
사구
보합세
도하
왕진
생제르맹
개관식
이학주
크리스퍼
##컴퓨팅
유공
##속재
카트라이더
곡성군
##전반
직선제
수술대
편액
##노동청
##지구대
##식비
상리
주택지
이행기
##패혈증
##교천
권원
자면
다이나믹
수아
지코
##골퍼
우릴
교화
개도
##기로
미나
양고기
전골
생산품
코발트
복고
양배추
세탁소
도도
뭘까
늦잠
투옥
홍콩인
문제집
신하
떨림
##선수촌
해류
개선책
보강재
블라디보스토크
##퐁
네거티브
옻
매튜
기포
받침대
##보충
비박
올리버
수모
##캔
##판막
##올
결막염
행방불명
수확량
주안점
##축구단
과민성
대지진
갈대밭
장녀
플렉시블
##걸음
그라
목련
세이
거소
저층
준거법
지명자
추모식
통도사
예정지
어스
글래스
연단
관하
참가국
지번
관급
뭇매
고형
##파베
문화부
##철거
##국채
산유국
##풍력
##환승
##올레
미륵불
마스터즈
요도
정상회의
##사처
김정태
화산암
김정희
##원리금
##쇼크
영덕군
조강
미숙아
인공수정
만년
불용
##악
챔프
삼국유사
차년
북단
심평
왕건
원용
##신병동
김철민
진천읍
리얼돌
갤러
미미
##제원
##플라
##포크
강화군
인천대
라틴어
##파운드
##사운드
리소스
리프
재수술
광화
스타워즈
복근
세요
내분비
음미
한스
연연
대각선
티아라
브로
거랑
조각가
##배달
합해
박람
기독교인
금과
태우
나노미터
저수지
틀니
만기일
무용단
##물자
성모
킷
피파
복사본
청국장
일정표
족보
홀수
뉴트
뭉치
배어
당좌
쓴맛
##기획사
##유학
물거품
망각
##우위
##농원
산천
삼청동
상견례
소호
단수
장서
성문
연과
역주
입원비
진술조서
미열
옥석
포장도로
원동
교목
양도인
선종
##기여
##봉은
##프레
라디오스타
##외인
##제휴
구좌읍
엇박자
스타일러
하빕
박서준
최고액
완저우
한현희
##레이더
주취
퇴락
유찰
만장
단기전
출정식
불모지
심상정
패류
박종철
예대
컴투스
##호법
에르난데스
##수막염
산림조합
장항
##프로세스
합수
##대위
여제
기암
##유체
##평화통일
##고택
##곡천
녹산
조영욱
과태
##谷
대부료
간사이
삿포로
어버이날
에펠
초로
총점
지침서
독립선언
서포트
협력체
포도주
외근
가망
가정집
메이플
외진
약과
이끼
국제법
애기
흉년
플래카드
파수
과로
뇌관
묵살
소말리아
목줄
소속감
큰손
쑥
화정
트러스
희열
대마도
##슈타인
석고
나침반
충무로
홍길동
##오늘
거트
테스토스테론
지하실
뉴턴
서양식
소모량
데얀
둔갑
전위
활보
헤드라인
##붐
콤비
창작물
서경
소공
##자형
지산
다원
교신
미트
##스파
영동고속도로
경사지
##여신
약학
##물관
인스
졸속
재래식
##기술자
킨
퍼터
##규범
서도
##우산
##투여
##덴
성비
중랑천
설과
할증
균질
초신성
정승
##동인
갯골
낙찰자
공유지
남작
##감축
스크린골프
나프타
호도
맞대응
쏘나타
동남구
양현
##매물
아름드리
파면
##예비
고종욱
케이비
복병
대유
##온라인
어로
한국일보
##컬슨
##민간단체
천공
##시당
##제보
##요청서
기산일
안마당
상악
스트라스버그
외삼문
도미노
스크립트
스테이트
##장군
사선
살롱
판다
체벌
무비
로우
##방이
아로마
높낮이
스킨십
언쟁
천성
차고
투데이
흑색
테너
굵기
강호동
적신호
나고야
밀크티
수행원
열기구
출판물
초소
##수송
자타
총합
오스트레일리아
격전
하늘색
현금화
##높이
보배
관광버스
정진
소산
회복된
김수미
임차권
말경
픽
공덕
극적
토토
총학생회
##논리
탈의
비식
지천
##행이
치하
##숙의
박민영
패시브
입학생
##배럴
장현
수난
살라가
골든글러브
##강제
폄훼
라멜라
국책은행
##아크
##내부
종편
임실
대우그룹
급파
상파울루
##사안
##출산
예찰
##혈당
##체대
##미국
군위군
##지관
##발원
헌병
##부당
##세칙
##저작물
##약상
임용권자
##폐렴
##청구인
##강성
애칭
백로
팔레트
이시영
유효성
자켓
브로드웨이
냉각수
실린더
물살
##궁의
변압기
궁지
귀뚜라미
지압
다이어리
부로
맏형
분리수거
독단
기름기
앙헬
록의
계주
자카르
트로이
회합
살림살이
노동법
농업용
##머스
허리띠
소치
선수상
잣
##오리
바통
##수탁
외고
동석
철기
이만희
접안
재등록
현아
부곡
삼베
##피부염
다큐
대한
저당
하이패스
해병
산등성이
버드
상동
다반사
벅스
병살
휠라
서예가
김재욱
##회골
내홍
##자간
체포영장
##접합
누비
##자립
##타이거즈
김성훈
유한준
이민지
요키
엿새
국민주
퇴적층
백산
남천
##리니
달맞이
다락
진도읍
##공탁
너구리
밈
##각이
아브라함
직설
인은
자유당
유등
요식업
초도
스톱
##스틸
타이탄
라떼
당사국
고글
학당
위탁자
수잔
대물림
베스
웨스턴
##급과
박탈감
눈꽃
돼지갈비
물티슈
훈육
대게
정비사
낫
라비
분권
비상벨
심리치료
디스커버리
##출입
돌변
국익
사이렌
관람권
복분자
비씨카드
삼각주
##체육공원
고정비
고스트
아라비아
냇가
치근
용시
온대
아동복
곶
표상
풍향
반독점
##폭발
##대통령
국내법
벽보
바이오산업
중계방송
감독상
##최초
난치병
신분당선
근해
구스
요부
이승훈
워크아웃
송년
초본
교권
서화
천일염
조선사
임찬규
홍철
이재현
##오토
안드레스
##독립운동
##플래시
영월군
윤창
##야구단
대소
崔
##사무처
##항공우주
##조합원
편감
집도
재적
##참모총장
##녹지
후원회
##장주식
총연장
봉분
회천
##예수교
충무공
구덕
##다원
##역사관
체적
우암
비각
도마뱀
소지섭
##환급
##한옥마을
킬로그램
오퍼
반바지
정몽구
마무
구식
배수로
옻칠
파프리카
퇴근길
우체통
강모
고릴라
페어웨이
처절
운송비
극소수
바가지
걸기
##스톤
외제
자주
거잖아
호러
낯
이대훈
유치장
꾸리
일병
예체능
전교생
태영
경영인
면죄부
단비
범퍼
로터리
스테판
휴무일
##칼국수
경희
내장산
##유인
##한강
무좀
경인선
물소리
유색인
베이스캠프
##버드
수율
화백
문집
##우대
##분산
##영수증
##병과
하선
아이오
##지문
필수품
패러글라이딩
팸
유대교
##연과
스미
김주영
출원인
주례
##결함
##관할
유명무실
조아
전분
명승지
합세
알라
##냥
##경계
도살
담보물
도곡
근로계약서
원시림
멜라니아
부총재
틱톡
잔뼈
##공신
##중앙은행
##학기제
영험
양자암호
두산건설
##시간대
##빌리지
김진표
알칸타라
피플
##부종
김어준
송산
##소외
크론병
남획
동자
불출마
공공사업
석좌
한용덕
한국자산관리공사
빨치산
##심결
산읍
##여진
노외주차장
보철물
##성각
##읍지
요천
공항철도
출연료
리프팅
천왕
어댑터
페소
바베큐
##헤드
##리트
레이아웃
세탁물
박석민
광견병
장판
##럭
불국사
사색
실신
##연주
뒷돈
창시자
인수인계
가우
밥그릇
백악
아랑곳
무조건
친애
행실
법조인
라이터
밀리
##노래
점액
예금자
새내기
생활고
서막
##슬램
스티로폼
풍천
숀
최북단
제라드
요셉
아바
식지
항생
너리
##아기
심사위
사대부
이광수
찰나
서아프리카
고지방
지필
응축
##판과
나무껍질
##맹의
##라이온즈
##기념일
잣나무
재점검
이름값
검침
집배원
관광공사
##단말기
이착륙
촉매제
피치
동서남북
산실
문승원
##이노베이션
##교역
전면전
이재갑
김태
번리
주목도
##알선
류허
재추진
오름폭
정쟁
박지훈
##주방
마르티네스
중국전
##부실
서문시장
조현민
##세습
김동준
폐합
지석묘
##완성
정기회
건어물
활엽수
민주공화당
성리
##동작구
해양소년단
고농
퍼시픽
천연물
현의
폭죽
등분
##리코
깨
마음고생
검출기
방아쇠
경제인
##제제
광역버스
용융
비보이
식빵
마취제
과부
##형편
##원부
룸서비스
사진가
쿨링
퓨마
버클리
오르
시아버지
에스엠
수입원
##무형
스쿼드
어법
요강
명주
교수진
입체감
포장재
##소프트웨어
환희
수렵
메이크
##그리드
도우
임산
수배
신림동
##인인
뱃살
농원
현대사
##매도
기준선
피한
##히
실랑이
매디슨
모리뉴
숙련도
관악산
##니즘
코스모
음각
성운
자연사
상수원
##준이
도기
알코올성
##영과
간수
천마
##발진
포대
영동군
##굴이
연해주
초읽기
기소유예
##소충
건축비
김기덕
컨트랙트
##관문
외손녀
##불꽃
뫼
친생자
오신환
위메이드
##조종
##시공사
후견인
자생지
압수물
공탁금
##미생물
甲
돌탑
쿠어스
청풍면
고로쇠
##좌굴
키위
##멀
부재중
##랜딩
플래닛
##그때
##밥상
생태학
박소연
미르
비상시
##분해
피부병
고아원
탈북자
##판매업
성악가
졸
바램
완벽주의
방언
##획관
캡쳐
당구장
잡채
가려움
비데
완전체
여호와
덴버
식스
각서
류머티즘
앙리
발생량
구씨
모자이크
지로
보병
##곡면
할리
사타구니
##렐
스팟
인제군
역사관
##교재
마스터플랜
##성인
만도
백일
##페인팅
무효화
칩셋
응고
##갈의
듀란트
모성
어구
엘러
자연어
당연
##륙
임명장
해부
광고판
부녀자
##케이블
이치로
합헌
조주
비강
##결석
##문과
외국산
트레일
바이다
수적
양재
예사
추나요법
기지개
##등락
##상여금
감시초
해풍
녹색당
##강국
황창규
##박계
송광민
간음
광군
글래드
논스톱
기공식
##해상
출구조사
##국세청
##보급
##기상청
##촉
준설
마지노선
금곡
뇌손상
방백신
##무용단
국제금융센터
증평
##서기관
##남도
의병장
##일본
백토
망실
송계
도갑사
사림
기실
##피부
학번
##사절단
잔돈
산사
동시대
생신
물통
로만
배팅
감원
발기
고깃집
마네킹
바느질
명작
##문고
##전단
블럭
말썽
바이올리니스트
저승
컵라면
문맹
숨길
왕관
발권
화풍
타투
##사이즈
돗자리
미첼
기계식
##동작
보네
김종국
압구정동
청학동
##퀴즈
가가
만수르
##레트
판매로
온화
부록
판매업
석가모니
본고장
서풍
##능이
형인
##분장
##니지
##종자
울프
제너럴
밑바탕
##그것
짐바브웨
석이
소금물
뒷말
뉴델리
##터스
비고
##샌드
동거인
##명칭
합격률
##미션
##이가
정우성
동해안
##플로우
승과
용종
물갈이
메인이벤트
##트롯
안도감
놀자
지론
##호출
##포수
곤욕
바젤
랜드리
노태우
눈시울
##행도
##인터
산청군
##석상
김연철
##툴리
##연지
##활수
김비
##풋볼
##주권
김소영
연지
##체인지
척추측만증
##리더십
##대표자
김대현
방송법
환영사
##단일팀
가시마
암각화
원효
##동천
대물변제
##전채
장성군
고령읍
##지서
##과처
상관분석
와이드
미키
글렌
쓰레기봉투
나우
패킹
##네이버스
현장감
위트
위험물
홀드
슬롯
어원
보관함
부원
모피
갑상샘
포토샵
랍
캐나다인
다의
속눈썹
엽기
조울증
명장면
저기압
포터
보호의
##원조
형체
허준
은사
연료비
사물함
학령
투하
오염도
수채화
페인팅
검도
달기
개비
##부나
낙원
독일인
리워드
어금니
동영
기업지배구조
##서기
##사용량
보광
암소
선우
모스크
조엘
에비앙
##운임
위키
허구
폐색
##해체
가용성
킹스
##조물
##세금
열창
류준열
상업화
불포화
김수로
##목장
열전달
##정맥
물레방아
타살
위장관
검역소
##피로
잡곡
피르
슬레이트
##파마
위변
법원장
##작국
근거지
자구책
용연
##연관
김문환
이해충돌
중립성
수정구
상고장
수차
위세
양생
##수재
공개경쟁
여래
페더급
신도림동
石
중계기
스포츠토토
##세부
##출전
산등
유괴
드롭
튜닝
숭어
##코니아
큰소리
괴로움
라식
##문명
삭발
혈통
케플러
식문화
호프
속력
##공관
치지
계산기
등불
팔로우
일익
용왕
안식
강속구
과체중
노크
외양
말년
용이성
기품
헐값
##상회
자투리
에덴
역무원
인신매매
리셉션
히로시마
정과
대장금
##빙
자회
##니스트
##집합
고기잡이
맹목
알몸
방앗간
생리학
둔기
##좌석
손등
승무
악천후
앞길
##릭스
##부두
옥스퍼드
쌍이
인더스
##부호
전석
아리스토텔레스
온두라스
하비
##노원구
##하위
방편
종국
칼럼니스트
지출액
##분수
직선거리
로터
언론계
응의
출액
알제리
격려금
청하
브라운관
##오비
난조
득점권
##세균
애국지사
최고위
##함양
전용주
##간제
이미선
##유자
유흥주
손씨
담양군
보험업법
응찰
##전술
##도당
선암
연접
##기념사업
다제
문화관광부
##매립
##사부
柳
향토지
치과위생사
부대항소
드라이빙
도종환
영미
##솜
구내식당
여한
단조
석류
직각
폐강
착지
왕과
출발선
구기
가려
박보영
베네치아
루틴
파인애플
##자세
갑판
비에
갑옷
은둔
볼일
미식가
장밋빛
코피
닌텐도
부산역
##워즈
속아
항시
브래드
위험관리
리포
토털
공중위생
##종인
##자급
경비실
판매소
아리아
아보카도
백일장
지혈
후천
##껍질
안전도
##레이터
##가요제
오열
여대생
일직선
결부
분교
중퇴
카셰어링
##요가
지하도
음모론
구시
##낙지
인발
##축소
구슬땀
망대
수장고
주남
실리카
##출납
캉
고환
##잠재력
유영
보훔
이동걸
##분담금
##약수
##중국
은퇴자
양효진
임대업
그늘막
시름
동당
文
추모제
난치
##루가
침하
##육상
대자보
긴급조치
##백혈병
##헌
임산물
##감지기
함영주
##영농
##원법
촌의
대흥
김민혁
##육법
##취
수원지
매봉
##원청
지구당
##분교
죄형
##법정주의
곡천
##관악구
##庵
석촌
포만감
감기약
초청장
올레길
먼저
녹이
처진
레인지
맥그리거
생선회
외적
힌지
아침밥
행패
연착
동진
바닷바람
탕수육
우림
결백
순발력
브리지
동화책
편애
프레시
테이
냉소
누이
노영민
백조
##일곱
백석
프린스
공부방
베이커
카라반
타령
매사추세츠
분간
##첸
백과사전
운석
트러스트
공급원
미간
불임
반한
지와
##세라
수경
우가
합의금
파킨슨
한국공항공사
신용거래
성가
금지법
경향신문
##언덕
내화
##기종
##투데이
세포막
유희
쓰임
금수
회장단
도이치
소작
풀뿌리
보증료
출자금
염좌
온정
펙
송범근
##스케어
헬리오
총감독
노선버스
##편취
무속
김현철
민변
반공
##유전자
성고
##대부
##교향악단
##겨루기
##치진
민갑
당론
정효
무인기
##코가
##항원
저유소
오세근
##강간
##사퇴
##국어
감악산
##위조
학실
뇌동맥류
한국프로축구연맹
위락
##매
##현실
선현
##상보
##명의인
##湖
창달
죽림
보통학교
공공용
##염력
충적층
##비저항
강강술래
더샵
메주
월평
토이
퓨리
조선족
쉐프
비상구
팔뚝
레인보우
검은색
엄수
풍기
고고학자
상판
##피질
구명
메이드
아편
작의
친근감
삽화
라텍스
재력
이동과
##서적
글램
##종류
품새
김시우
정상인
해변가
##이오
에어로빅
주눅
꼭지
남북통일
대광
발파
치맥
몸속
래
성상
미완성
오염물
발기부전
더리
발명자
투표용지
코나
##이프
언
쥬라기
외자
##바운드
출납원
##헬
간증
제프리
그레이트
총체적
정족수
완장
관저
##부하
##구치소
동체
##엄마
대응력
##경찰의
교재비
난입
전관
프릭스
안일한
임실군
수료식
카바니
일침
판세
##시정
진해구
행랑채
협연
##수비
유어
자족
##조가
##의존도
다이아
##공백
##정성
자청
##기강
스텔스
김기남
삼포
손석희
감정노동
나그네
성행위
반포동
##연단
##토기
미군정
##담합
##교량
##치료비
##독감
행정자치부
##불법
국민학교
##철근
보살상
서낭
텔로미어
##대행사
굶주림
리버스
초가집
수자
생맥주
열자
폰트
부정확
옥시토신
세분화
자퇴
원색
음질
귀퉁이
##닌
부국
경멸
놀림
아이언맨
주교
이안
타도
미남
태릉
환적
천차만별
대로변
혹평
연체료
##의존
서가
하림
급식비
##셔
수합
##드라이브
노천
자판
루마니아
##장년
##옹
후지
발췌
##셉
가임
모바
목화
방목
차도
힌두
도통
애월읍
비수
우주인
리더스
박진우
원무
위태로운
공민왕
중장비
포유류
분별
시민운동
수전
##벡터
체온계
##실행
구면
##지각
고진
##프라이데이
피서
##체류
쾌
전력망
지표면
일군
##추위
##청취
양승조
##대국
##근린공원
인터랙티브
정약용
##학습장
전야제
지역상
카디널스
##이마트
양곡
##혈소판
이천수
바이저
##드론
##대축제
##케이주
신고인
홈런포
##징계
태백시
호수비
주금공
수인선
##배지
와룡
##제방
##유선
재령
月
##농지
경간
정자나무
##암류
펌웨어
문답
면발
테르
히잡
주나
딜리버리
스택
스케일링
살인죄
##룰
##듯
안식처
폭식
##대행업체
문사
표창장
##찌
##폐수
비호
이니셜
조연
린이
지배했
죽임
##화성
배달원
원기
플라잉
조준
등굣길
명제
고궁
듀엣
포장마차
웅
선크림
라켓
대통령상
과대평가
골칫거리
믹
코골이
영유권
면봉
수출국
조난
히틀러
인트
휴장
일거리
##편익
##접근성
삼존
상패
##독재
균일
성욕
반대표
##태계
추동
##오프
장지
##착오
##라즈
##베어스
다로
군용
남기
기관지염
판막
휴교
피부암
성공률
대니얼
원정대
청취자
트래블
래핑
삼도
##구분
##당도
##택배
정해인
##지오
청원경찰
방카
투척
마동석
##웹툰
##전산망
물레
동해선
##고을
레이커
부정수
##문은
김병현
사디
초파리
곳간
실축
흙막이
前
호안
신빙성
용호
금남
장흥군
무소
##메즈
유영민
##육지
南
절도죄
##소방대
##입비
구산
##진드기
합덕
치성
음부
읍치
곡률
안골
소류지
해초
뭄바이
부킹
나인
신구
천하
월미도
앞머리
유인원
순두부
점성
주꾸미
북카페
꽃무늬
임피던스
개인주의
인덕션
아이튠즈
굴이
치질
백남준
위인
수필
완쾌
덕택
처남
유약
비단
위험부담
방음
뒷자리
듯이
통조림
프라이스
흥덕구
신뢰감
이케아
퍼스널
만델라
양념장
산문
도매상
악인
미적
헌터
주먹밥
고득점
마장
복이
상층
역과
포위
진우
에디터
출입자
##빙의
##덕의
환갑
철책
##회화
농림부
그레이엄
정설
강제성
연작
영진
적지
여장
##보수가
복원력
좌식
유인물
자결
정준
항공모함
검정고시
막장
교통난
##표지판
일개
기출문제
군의관
윤종규
##탈취
##비행장
무관용
신일철
##순환도로
##소모
##추계
##분뇨
윤성환
특조
##춘
과불
직방
##수첩
인동
차남
풍계리
##컬링
지지력
체득
장나라
##항암
이설
가구주
이인영
차산
웅천
장석
쑨양
톱니
받침돌
##금심
부작위
금왕읍
방아
인터체인지
심법
소송행위
도원
하객
마인
샹그릴라
검색창
복어
조리사
수소문
결로
분실물
주전자
안내소
멜라닌
반기문
탈진
중임
저금
에디슨
들러리
독차지
##사당
별일
포커
두바이
프놈펜
모닥불
신나고
과민
죄와
로라
솟대
##터로
한지민
비버
유린
커터
주단
물고
배선
##가슴살
위산
불가리아
오스카
공작물
말벌
목수
자생력
매춘
##기자재
선유도
##포함
##량도
장물
재배치
극소
손괴
재무관
##우
##외국어
꾸러미
배서
미들웨어
##전문지
묵상
산화물
미성숙
산중
##통업
이원
##염전
송두리
용선
단결정
아놀드
##복음
무기명
연극인
벌판
호남선
애신
모래밭
편제
##매립지
조선조
훈풍
##사업체
조직폭력배
박정아
신동엽
송철호
##차주
##손익
##납세
최문순
##피플
##클래식
구조선
특례시
경대
양양군
양육자
水
##레포츠
##도박
내측
침방울
교가
##복제
##떡
맹타
저명
흡수율
로타바이러스
세외
충절
東
보안등
서무
광덕
전급
정읍시
지곡
##골조
구봉산
소매인
표현대리
##편마암
##경우
가브리엘
덕수
레반도프스키
##군요
해리포터
내레이션
사관
조찬
견주
피팅
##젝
##입금
번호표
홀더
비활성
등록증
대폭
앞줄
건전지
들통
##쥐
스트리
알기
환전소
석회석
작문
콕
##광이
청량리
찬조금
병균
찰떡
폐결핵
제과점
중공업
베이직
접어
경사로
수렁
술잔
##드레스
굴기
##어
##터리
기도회
숨쉬기
##한옥
무화과
망설임
머드
눈썰매장
성인용
풍차
로스팅
속수무책
낙산
함대
산림욕
타당도
조나단
백수
병살타
이토
우열
금괴
##여행사
도화
합판
시스
어서
물회
##토어
##인용
폐의
##종사
터빈
김현우
유럽연합
##단부
클라
##대란
상아
포효
영업장
초식
발전사
시기상조
##레이크
백스윙
음경
##러시
헤인즈
##문건
##척의
프로브
##인성
##퀸
##블리
공모주
양방
중미
##폐질환
진루
##액도
배면
비관론
가구원
피톤치드
서천군
풍상
무력감
작심
##주금
##문화축제
기염
오르내리
##납세자
광케이블
환담
김태영
노동조합법
##역사박물관
##무예
중흥
윤모
영속
레너드
단타
##각막
松
박경수
국공
##자년
게이트볼
거진
지붕돌
익금
목천
부락
사빈
파산관
##위세
화순읍
본등기
갈비탕
개리
흥정
##락
##랍
운하
타이핑
##씨티
오리엔테이션
불량품
회분
예열
가요계
##버리
퇴실
판매원
모면
##버전
가압
푸시
김정훈
동위
태산
저글링
무결
귀중품
##초점
##송사
탱고
##프레스센터
해금
객원
중국식
##롤
리필
교향곡
김수영
딕
칼리
롬
김수민
진정서
관리사
일진
혼례
치장
살수
귀로
정각
영수
중개인
샌드
이지
##고정
##인삼
다공성
어트랙션
선창
메트로폴리탄
##프라자
피디
이슬람교도
대합실
유자
##선출
곡창
디의
악령
용평
상하수도
선지급
이봐
연평도
학산
소모임
월렛
번가
용화
##교도소
청렴도
단신
신갈나무
중합
개회사
당류
미신고
담의
순교자
관류
그리즈만
개발비
##진료비
유연근
스톡옵션
우군
김가진
##토건
미래상
양평군
장동
골잡이
안전시설
##플립
뒷전
게릿
목전
거래세
용성
서장훈
지소연
제주지사
임차료
##연체
문경시
단투
##밀집
##발자국
역삼
##탁기
중태
채태인
미칼
##천문
약사회
하급심
주동자
##곤충
##부원장
##공제조합
##선량
식별력
洞
유치권
산리
##임기
토석
##암면
우점
경험치
예치금
##타스
##팡
치료실
##리전
하얼빈
세비야
벌크
터치스크린
##바오
유니티
레버
사진관
들깨
종소리
청양
쌀국수
고로
##품은
습식
괴상
파킹
명찰
눈살
화덕
크리스틴
옴
그물망
가시광선
서프라이즈
스노보드
체인점
나선형
추격전
빅스
노숙자
##버튼
벤자민
산출물
미량
섬기
탄탄
면세품
창조성
교비
스톡홀름
소각장
회항
##대중
상투
호불호
기프
히스토리
우석
윤봉길
율법
##네이트
코티
홍진영
녀석들
다년
보르도
제곱미터
징조
##회전
설경
친수
##도매
귀경
수용액
##빗
퍼블리싱
내규
분발
도읍
부메랑
생도
백금
애널리
##왕조
긴급회의
뉴스룸
##관인
멀
##출동
일변도
박민
간이역
멀티플렉스
석현준
##역전
##챌린지
##증폭
##재팬
철거민
동강
헤일
국가주의
불명
복호화
##아이템
지명도
노회
법무사
##유두종
최원준
매머드
##임무
몸돌
실업팀
직류
라이다
##탁사
##번트
한독
장원
신격호
축력
맨하탄
하천법
##유방
##삼존
윤곽선
육대
청도읍
분수계
서낙동강
클로로퀸
##번역
릴리
범종
울지
평안북도
하급
공경
밸
갈비찜
##도인
캐럴
뒤통수
둥
장본인
과즙
비즈니스호텔
심사숙고
재판매
영화사
관측소
여행길
아시아인
집단지
해설자
카메룬
길잡이
약용
철의
##보행
와트
김정남
훈련소
부침
구걸
##매력
##결손
중공
##미스
앙코르
홀란드
##사냥
다낭
라이닝
답안지
선수금
##자다
산인
낭패
평행선
반달
난초
강촌
원초
##욕장
##유적지
성심
퓨어
진솔
성환
공공재
##쿤
옥스포드
전전긍긍
효험
노니
통제력
금기시
자궁경부
생산직
저작권료
대피소
감속
교차점
오봉
마자
돌다리
대설
체자
레드카드
##수출입
모진
##여행자
##독성
눈도장
육교
호응도
다크호스
이근호
일파만파
임창용
조석
##기자단
국악인
간세포
##해년
##축전
가지급
지배주
밴텀급
##주재
전사한
혼잡도
##케이프
##박동
도랑
이재정
대식세포
김정수
농수
실황
대구은행
##연골
##유나이티
김기춘
우시장
심방
##둘레길
##골프장
사실심
##박리
진교
구창모
수영강
##위조죄
직지사
##천에
도천
##도량
##광진구
공유물
##명의자
침구류
소령
민호
해내
건널목
사브르
화살표
##입학
입출력
면부
바이트
산비탈
혹사
헬렌
한반도기
에티켓
에스티
경미
써니
##집권
에스프레소
립니
에밀리
궁리
대축제
일등
지난날
유토피아
연근
##레인
이루
##고로
회고록
월차
서안
미국식
굿모닝
사격장
생산력
참숯
##원증
매니아
##개인
목표물
##치즈
특목고
콘덴서
##대처
모노레일
최상
청량감
하층
##분말
##캐시
선데이
주창
층수
##심리학
경시
알베르토
폐막식
##외파
마구잡이
건대
쉴드
당하
삼기
입적
##실용
북적
적과
이목구비
후생노동성
토벌
##바우
지형도
화음
자조
반석
금관
포춘
##일기
변환기
##연예
오정
파머
장보기
지역주의
##번의
##설과
매장량
효시
##민사
울분
동맥류
마요르카
본상
파지
빌트인
##혈액
##장구
대강당
안랩
영업용
##보름
정사
구마
##난민
홀몸
파라과이
정조준
소이
##여객
장쑤
##방크
메이스
암종
외화예금
대보
돈스코이
월화드라마
##발찌
김경두
##야정
##총국
이태양
##빙상
베탄코트
타행
크로스바
홍명보
태봉
왜관읍
복부비만
종대
김병욱
가스공사
겐트
자경
조성의
단감
최상류
충효
낙향
덕행
##검역소
당집
ㅁ
##잔고
도가니
소용
여소
광공업
단락
상대편
보쌈
겸용
모독
금화
결의문
색소폰
스텔라
##냄새
저금통
여깁니다
아역
국회의사당
진성
푸에르토리코
##카가
글로브
아이스링크
해삼
차인
의수
##실베
민방위
켈
걸음걸이
촉탁
송강호
임시직
쇄
테러리즘
김종
##퍼
레지던트
##과일
스피치
덱
##발주
##아라비
참깨
클라크
##취도
타액
분업
붓기
메탄올
수미
제세
약정서
##행각
거요
초과근무
묵념
우애
생고기
파벌
경차
필적
##민요
##지도부
귀의
도화선
##법률안
잠입
한도액
##개발자
룰라
##정정
유식
##풍선
성읍
금토
조영제
출가
포르
반주자
##휠체어
듀크
다뉴브강
##수소
노박
##방사
분당선
철군
김복동
할로웨이
중풍
##기피
무풍
사장교
성장주
##유세
##하이
예장
성태윤
뒷공
볼멘소리
토론자
##각도
성공회
김병수
##비대증
변협
옥중
##대생
청백
##소청
북서풍
##선진
노지
정선군
분원
노거수
용문
##앙상블
좌천
##제금
외측
조영
알펜시아
##모습
심곡
##목재
쏜튼
장타력
용산리
읍내리
시흥군
선암사
분개
리즈
민수
##령도
토르
##변이
당나귀
확답
##마이
어쿠스틱
경유지
케이트
스케줄링
스펀지
청소부
결속력
불친절
터닝
미정
리비
효능감
##탈퇴
레그
홍차
의술
##추이
노선도
동질
소싸움
##이웃
양일
목도리
양동
희소식
반도
활성도
부엉이
자위대
골프채
사고나
유병률
##누락
이동은
##수저
해양경찰
저지방
잡
진미
스포츠센터
샤프트
아동기
종주국
알버트
십상
앞장
##자석
오월
건기
경기전
허들
경쟁국
월곶
재조합
플래티넘
##논의
퇴역
무궁화호
신우
일면
장원준
##학살
##장력
##의료비
상각
##파스
명하
유조선
알파인
열감
고든
돌기둥
통고
##데이트
윌리엄슨
##포상
##결권
##천사
벌교
##우와
##행단
하퍼
광개토대왕
##추문
매봉산
김지수
##글라스
면천
비상근
결빙
기싸움
##선언문
##심근
##사각지대
흑연
수사력
석주
지방비
권사
근현
서폴드
방지법
통합진보당
판석
##심위
##지상
고투
##시환
의령
##추첨
탐라
국제결제은행
간경
남포
##민회
헌납
벨린
군장
##특별세
정당행위
##관련자
문루
##소관
미접
宋
ㄱ
굴참나무
비탄성
트롤
평원
루피
몽돌
홍익
클레임
가정생활
전공과
삼치
박진영
바이럴
건식
도인
훈제
쉬
들꽃
모나코
##암호
##머
뇌물죄
##종과
어진
훈계
구리시
하이힐
파단
##계급
미역국
스웨터
빵이
밸런타인데이
크리켓
패브릭
구름다리
정감
지하드
나락
재주
##내기
코막
##쓰
화학자
녘
영양실조
육로
보약
콘래드
수묵
가시성
먼로
부치
인력난
##느
양곤
펑크
경중
베어
꽃밭
통신업
서호
스탠딩
비욘
귀빈
풋살
왁스
와일드
접지
차분
헌금
렉
콘서트홀
##춘의
슈터
제록스
타우
사문
최신형
헤리티지
##킷
##미인
아티스
촉
파종
##스트로스
용자
입장객
복기
오비
불가항력
노치
송은이
미충
##예수
홍성군
카운터포인트
##예프
사노
선서식
쌀값
##자이
중등학교
감성돔
총대
찬성표
##뿌리
섬마을
순안
한국가스공사
테크놀러지
운산
발리슛
용두
진선미
장정
제막식
송은범
##동장
학의
온천천
##지부장
박세웅
시호
누마루
신용협동조합
##사집
면진
##실비
도착지
##주립
군주
언젠간
컬처
##휴사
소수점
잠깐
서동
##중요
동양화
스키마
결근
중사
비협조
화교
기제
구축함
비행사
풀밭
뗏목
별과
자랑거리
##넛
애완견
합계액
라울
마윈
감봉
종이컵
강력
내음
싸이월드
운정
양재천
장작
레이디
훅
##어택
숙달
거구
##축하
합의서
붕어빵
듀스
발사대
정전기
모차르트
루지
##우려
쌀밥
팔각
양가
천연자원
불변
제조업체인
##버섯
제하
##힐링
##문구
헨더슨
답습
##장갑
이명
후두
함몰
포식
조인성
평균치
##야드
진일보
현대로템
오지현
회원증
마하
객차
첨가제
발아
비트박스
구요
무리수
반대급부
상담소
싱크홀
당적
오디오북
포섭
내막
병해충
차준환
배민
불볕더위
개도국
알렉사
##점주
시상대
박재범
코언
파송
러츠
##차관
김병철
어니스트
철조망
김준
##공조
투과도
승하차
##핸드볼
##위축
강성부
막골
풍물패
##전시장
해상자위대
억불
##초음파
##전세
경공모
##당액
##환경청
람사르
이광연
천향
예규
정의윤
자치행정
당골
경동
기능직
##제철
사하
연구용
장하나
곰솔
미등기
유달산
타가트
##형질
응회암
휴가지
쉐라
캐롤
분절
롤링
카네기
##겹
아이덴티티
기준일
비주류
냉매
구세군
스쿠터
프레디
챕터
월트
초능력
##여행지
웨이터
이해력
제스
남아메리카
실력자
소유물
단짝
비합리
차단제
프라이
##불황
주진
조퇴
교육학
스톰
메리트
짝짓기
낙뢰
비지
닥
##시에
네온
승급
퀴즈쇼
터로
루크
리베라
진이
추수감사절
정류소
오물
순환기
레크리에이션
코비
징발
텔레비
##여권
서린
문산
배재
##골절
교육법
측정치
##스카
맞교환
비금속
##무중
##회적
##파이터
오닐
##터빈
##중도
##체질
개화
항우울제
감마
##일식
##시보
명의자
##탱
##진도
##회견장
닛케이
##밀
장성우
장악력
외무부
유인석
봉하
범가
뉴타운
메릴
사동
##출입국
솔숲
전횡
연타
##현충원
좌중
페르
##리비
##치상
##우선주
##천장
성충
커미셔너
진땀
##본점
관찰사
박흥식
측위
##나주
전광인
문해
호미
##유수
이동훈
德
서까래
해식애
북제주군
##마킹
갑사
북류
팡
유재학
특제
베이비붐
하상
독학
핸드백
시큐리티
로딩
##연구자
지루함
중년층
광전
국을
군무원
화법
구명조끼
중성화
학용품
겉옷
##웍
후일
왓츠
차면
##락과
축구단
불자
보단
가시나
옐로
예비역
계장
한일전
모리
오포
##동호회
쿼
맥과이어
##디아
버진
직사각
허탈
직함
엠블럼
벌꿀
문화축제
성현
##민이
시급
수출품
##자살
칭호
오르막
외관상
효종
##추의
유러피언
행과
대퇴골
감퇴
탑승권
수입액
영면
##세븐
나리
석동
성공리
황의
해운업
##매출액
이동수
약산
브루스
조립식
##제외
함소원
##보부
부안군
신혜선
##붕괴
##호재
나룻배
##평정
이혁
가해
도이체
김현중
열병식
##커브
공동경비구역
##종교
코스콤
에버턴
##방범대
##노회
##발사체
권혁
오르테가
옴부즈맨
홍천군
게일
페이커
세간
대증
##참모
##파드
##순환고
주타
야구부
버크셔
##기업체
다우존스
설천면
붙박이
아궁
중령
총수익
모수
승전
쿠오모
온상
##막국수
안양천
##흥
대저
권리관계
##공설
원남
동촌
가로림만
우내
능주
애향심
변연
##영득
특용
압기
백운면
##동특성
##진동수
천마산
##리토
부티크
핸들링
일련
프론트
군요
##까스
진품
뽀뽀
로빈슨
한국군
##연상
동태
피드
손목시계
지하상가
구찌
각본
도시바
상실감
점퍼
그레이스
조니
하버
##미니
샌디에이고
흉
신경질
거리낌
산더미
##학년
로데오
안일
##멤버
용머리
##이상의
요통
장미꽃
김수지
헬스클럽
노이
도미니카
메아리
스탠리
##공모전
기관사
전곡
##내면
노스캐롤라이나
무대인
##파이브
반영구
아군
최대규
등급제
피사체
방사선사
마에다
##툴
코뿔소
간파
협력자
분재
성게
이이
##레벨
현충일
##전서
미결
추의
자차
비긴
환승역
파병
명륜
요추
제습
태종대
해넘이
부도덕
당첨금
땔감
##출판사
지지대
춤사위
금단
승차권
동북아시아
친모
불신임
진행형
대낮
에릭슨
나무늘보
굴진
버틀러
##트레인
특실
##방면
##화석
겸하
오산시
중간재
고준
##교부금
##진작
##성생
나포
바이든
##대피
##실리콘
##상봉
김정주
리드오프
은수미
##정안
옥정
허태정
광풍
부실시공
필사본
한솥밥
뉴스쇼
일주문
밀반입
##부설
##성면
고출력
대들보
영등
면역계
##실험장
조희연
급여액
김승대
##경련
수암
##연보
##결선
페시
남해고속도로
##이하선염
강이슬
후처리
광양만
암사
##입지
##수입금
가림
화양
이다영
##늪
##시약
대위변제
무선랜
구지
제당
道
趙
##도포
##계측
옥개
성황당
세손
완사면
라고스
숭실대
신데렐라
신포
치위
불시
먹통
이채
배송지
분홍
드레싱
외할머니
##안내소
희곡
메모지
쇠약
공포증
만사
퀘스트
힌
문고
피리
##뎀
시트콤
고생이
오즈
##샤
루시
사상가
진사
조세법률주의
자메이카
좌우명
##교환기
악역
거치대
병아리
혼합형
블러
덕천
스파르타
내장형
활자
네이트
슬립
집합체
도식
엄습
##평화상
라스
통기성
로건
무어
해밀턴
퀘
물맛
하만
말살
고막
파국
고름
칭다오
##위주
송아지
절망감
통기타
볕
강산
리마
단열재
하이테크
뻥
##크루즈
의식주
정부군
김성주
뱀장어
양상문
직능
레이업
거래자
린을
##산서
##달장
##퍼레이드
내벽
##트렌드
이만저만
지령
진격
케임브리지
장갑차
북대서양
요직
산초
히
박해진
시무식
##감은
사계
스포티파이
터다
이수연
매파
보행로
##주총
박정호
총망라
왕중
위수령
부총장
방광염
개복
##모금
집행력
미상
##之
치사
폐쇄성
장고
문호
소지인
##경위
##무관
티맥스
##치국
##정시
##원본
과산화수소
중원구
안덕면
학령기
경실련
터커
##분열증
##관악
박동진
##최
공무원증
##포르
테티스
谷
재량행위
본계약
앵무새
로베르토
범고래
부잣집
발성
인칭
마운틴
트래
스파이더맨
수출상
우선주의
##피자
교주
배설
잠금장치
건성
투고
초대장
영풍
굴레
해직
소시
유목민
난폭
직업인
저울
##몽
부작
##연봉
산산조각
브루나이
발한
관리기
김희철
체대
감탄사
정열
편협
제과
연하
반말
나폴레옹
줄타기
리옹
자몽
박찬욱
##졸업
##네이션
폐점
힌두교
닭볶음탕
생태관광
무료입장
무모한
포탄
발렌시아가
브러시
##근종
솔로몬
주간지
범칙금
밤과
황기
유미
중개업자
일방통행
증표
스파클
##쏘
활쏘기
코란
시제
침상
전나무
이삭
허리둘레
조문객
단둥
##특집
전심
##검출
옥포
세슘
헤모글로빈
외력
##설가
##불법행위
##어워드
지느러미
명성황후
이용도
증상만
##마이크
염도
호조세
##티브이
충격파
##농사
##사모
사이언
자부담
##결력
##분리대
업력
호남고속도로
김대환
##취재
소방대
##하강
김한별
구속영장
급락세
계엄군
은행법
##나무숲
##헤지
잠수정
##절제
왜가리
이강덕
##송심
##튀
##누간
##집약
강행군
곽상도
상장법인
고민정
교육위
배산임수
##학연
고주
문정
대내
인버스
종별
##기행
##리기
소부
##혼잡
##납입
강승호
알펜
##에프엠
사읍
##공문서
##낚시터
보현산
차용금
임료
##화강암
##향기
석가
인절미
장아찌
정재
전시품
##타선
나이로비
왼손잡이
가공품
초상권
건축학
경솔
외톨이
문학상
감출
유년기
언어폭력
견
슬로우
자나
변속기
양팔
언저리
기본요금
뉴올리언스
총각
레즈
당파
블라우스
사달
생리통
프리젠테이션
##숲길
수류탄
국경일
별것
윈드
개체군
챔버
유연석
배란
법제처
실온
##상영
북반구
비계
응원가
후행
수험표
##환율
액면가
##동물원
주인장
허드슨
사별
끝장
종기
##연동
허기
크레디트
##금일
프로덕션
선유
일맥상통
##벤트
토요타
증거조사
##연주회
전처
공회전
##낭비
아미타불
##라이드
기거
품평회
대둔산
침전물
경제난
고참
##쿠
##통역
서명식
##모가
미구엘
수안
##밀의
황달
매질
폭포수
도라
무신론자
초진
보폭
##약과
등단
점안
카탈루냐
국민당
##보안원
충칭
##콕
호소문
길놀이
이즈
차태현
취임사
##체불
##회의장
##지한
##특사
##케미
##열매
옥천군
로스토프
##호스
김수
화구
고속철
개포동
이니에스타
##격성
##간행물
하늘길
수매
##법원장
개질
급인
##암리
지휘부
##하천
##구금
축협
임진
쿠에바스
거창읍
예방의
무안군
석성
전라선
바위산
변성암
##판매소
##용허
산군
##원공
치악산
박달재
##과금
건넌방
##내력
##병원체
광덕사
동래부
##배임죄
채권자취소권
최대교정시력
경포대
젠트리
솔잎
##리포
윤동주
인사이드
꾸미기
은색
선화
악장
독채
랑
활력소
흥부
##시오
갈취
다락방
젝
방부제
청혼
##라이
##윙
기행
뒷다리
밀렵
피시방
입가
생일날
조커
방열
문란
외친
지리학
이마에
##뮬
적격자
뒷걸음질
조향
스노
종근당
샌
원권
판도라
연합체
옆쪽
단호박
송현동
리먼
오디
##이사회
##실패
사상의
##가옥
소임
적분
포집
품작
설욕
양서류
위키백과
검소
쓰리
##챠
정육점
안암
앙심
부고
퍼플
암모니아
분납
집권당
##속성
음지
초장
사사건건
월명
이분법
특장
상관관계
담금질
모체
##더미
동래구
##응에
##도심
시지
##상도
##난이
##리호
치명타
의장대
##건조기
##뉴타운
마누엘
실권
##교통망
김영광
렉스턴
매제
##매니지먼트
제창
##더블유
추미애
##성결
브렛
지방채
박주민
옥류관
금수산
라차
구본무
눈초리
급식소
강용석
##무력
경쟁률
군위
##물산
조인식
양편
청원군
##체중
턱밑
##플로
집대성
범일동
##이율
도로교통공단
##야영장
고속화
최신호
제수
죽전
오인한
요산
동래군
화원읍
분획
순절
가신
##크래프트
난독증
생동
다운타운
연결부
건배
##민간
빈도수
드레
벤더
광기
입법부
야구팀
중정
공과금
낙농
레퍼런스
스터
생활지
출루율
식용유
항저우
저울질
덕양구
물탱크
부사관
셉
열성
트랜
장어구이
##테이프
##티비
정보원
통곡
바위틈
큰딸
수도꼭지
자괴감
나래
##장판
아버님
아낙
변속
독립영화
딱정벌레
니퍼트
바르샤바
리오
##하임
##컬러
화신
우려감
거목
보령시
비파괴
가파
족의
유아기
스테파니
시몬스
알로에
##매칭
경찰차
##엄과
여심
콘도미니엄
용도지역
김한수
총선거
가석방
어조
##양이
원봉
감춘
곤지암
조각품
우회로
넙치
##일용
나팔
백억
웃음꽃
##페이퍼
인강
유전자형
옐
와우
성조기
재향군인회
##왕후
소고
부실화
##피니언
물빛
농축산물
조정민
##수주
곡리
무득점
##체장
##청인
김명환
주왕
##셀프
장류
행정절차
##국토
난개발
골밑슛
아구에로
소취
고만
판본
복원사업
이상호
상승기
병목
서울광장
무안타
어르
##강점
운반선
투표율
대동강
기명
밭작물
김대원
##차인
##자회
사납금
봉래
권은희
여중생
사적지
수운
##碑
양식업
##항법
##방산
여전사
일직
청시
정은원
수증
가빈
누정
##망원경
다기관
##계천
구룡산
체비지
암괴
마멸
치타
기프트
##열풍
쥘
카페테리아
구곡
마더
##맹
청첩장
호스텔
황해
##후생
결혼기념일
근무일
연중무휴
겨루기
포켓몬
올인원
스푼
편인
확약
밥솥
토종닭
토네이도
비선
학벌
##서상
유색
관람자
와플
퐁
선인장
빠르기
조예
상심
응수
암스트롱
봄바람
유라
지프
덧셈
##철폐
만리장성
퍼블리셔
##현과
선내
병간호
진열대
버거킹
전문대
##민법
생크림
동문회
마인츠
교황청
무모
##방량
물속
십자
아키
식상
진출로
파나소닉
##음성
모듈러
쇼핑백
스트레이트
프랭클린
두말
겸업
##유두
규현
성숙도
경력직
상층부
##민박
##밸브
벌채
청원서
##대간의
매립장
수양
실향민
뇌진탕
##구상
##워시
합장
주문자
김우진
핵과
느릅나무
보문
##리더스
##체육부
슈틸리케
활개
소금강
횡단보도
버틴
재보험
엘라
평강
접대비
아인
안길
골리앗
앙겔라
로페테기
모간
신동욱
광야
##스템
최호성
홍현희
옥고
공방전
##슬라이드
볼카운트
변산
##공식
##유공
서부산
의경
##상수
##브이
이관희
영락
탈법
지탄
무투표
롯데제과
소공동
래시
해악
원외
이원석
##노동당
##수기
##관료
금소
연인원
빅맨
가스파리니
사금
여론전
하악
불법성
##철새
호연지기
신록
영인
##마산
한화이글스
##안전사고
##구보
##욕구
##국사가
##전위
도지
견훤
##방출
레지오넬라
도솔암
시달
유류분
첨가량
고갯마루
##검체
##족발
리디아
메뚜기
연수구
영희
아반떼
김형준
주최자
##필요
비닐봉투
세탁실
##타입
종래
만해
칠면조
슬라이스
머지
휴전선
개고기
현기증
교통정리
##탭
구르
##복과
뷔
##주인공
사나
실연
펠릭스
야광
친화력
미식축구
조교수
메밀꽃
미움
역기능
모노
절하
송년회
입맞춤
이병철
##리듬
유압
기타리스트
서클
산타클로스
불멸
파스텔
선급금
인피니트
##채팅
테크닉
파멸
꽃받침
얼룩이
##그래피
##부총장
##융의
바티칸
백련사
핵탄두
부적응
주동
이동의
정수장
촌리
감회가
교육열
##부착
모터쇼
고철
상피세포
##임대료
##통계학
리믹스
고려청자
조개류
포르쉐
견해차
당락
변방
성정
행차
현미
##진리
간통
축출
##대조표
호령
피날레
밀실
##노예
유혈
혈연
기숙
영업권
해양성
회갈색
##입대
초계
동무
투표자
맥락막
##위상
에스원
신모
폐로
도굴
농어민
철광석
고은
이종현
김남길
##모니
장년
카림
요동
##천문대
인천공항공사
코미
##식스
가향
##복권
부동산업
본당
##아이스하키
탑동
스탠스
##진각
황화수소
##증여
로키스
증거금
##마감
비례제
이용호
王
박성
##기도회
청학
방촌
발사장
신월
##목회
손경식
농로
이종명
절취
나상호
중외
##정국
김보름
대물
박상기
서상영
언양
손병두
##황반
##臺
##포렌식
셈법
분명
영당
##갯벌
연보
##무에
홈인
##옴부즈만
##조형
조구
##물리
흥타령
금구
운곡
##묘의
##포화도
##말뚝
##산입
주천면
관음보살
겹처마
풍각
##도천
##일람표
보노보
절점
스킵
국기원
디제이
특파원
##곶
클리어
살길
금발
강직
수피
악셀
골판지
폐차
섬인
유행어
층층
셜록
그린란드
문제지
붉은색
탈이
정치학
미터기
사과나무
주목적
찻집
발전함
샤워기
서울랜드
하우
극과
로직
식대
유니클로
갤런
야자수
원반
본가
##기타
증폭기
성병
##채소
니클라우스
다임러
고동
단열
맞춤법
결전
##이즈
레일바이크
후속작
신갈
##보이
폴리우레탄
백합
서민층
##논란
축전
자유민주주의
스토킹
##세이브
손예진
언주
산악인
오용
편광
우주비행사
김지연
이민정
펜타곤
폐경기
체취
골절상
재래시장
아론
##영재교육
##멤
##분기
민통
날아라
세자
테임즈
농부가
보유량
광운대
##래스
횡행
##마찰
##배열
바이브
##환수
##진입
격조
검역관
총상
등본
자위
감정인
허심탄회
총무과
리벤지
##린이
유상철
엑스선
손정의
해묵
매케인
지례
##컬리
무보
두둔
김시래
##폐
非
김태환
급류
특고
##핵심
숭실
미착용
라디칼
이경규
박기원
첫선
이언주
부녀회
##아레나
연구관
생산액
노장
미들급
무자본
승선원
##동해
가심
##철회
##최대
이팝나무
이대목동병원
##운영비
등사
죽산
철종
원고적격
##계기
운문산
##판서
##보살상
화양읍
구민회
상증
친권자
일설
##지출관
##이미주
감사장
동식
적출
여중
타월
제철소
프로토
##통관
재작년
야전
랩탑
내향
유랑
노쇠
경주로
성산구
대정
기념탑
##집들이
이질감
들일
성묘
외피
반환점
타코
고명
앞자리
골동품
식은땀
선구
시운전
다다
##놈
##진보
격주
에메랄드
족욕
졸업장
이유식
호킹
은하계
대시
저체온증
##번지
박아
덜기
움
명화
##접
쏘가리
비나
고화
##박테리아
상쇠
용산역
외양간
페르시아
한민
조지아주
스튜어트
##쥬
상륜
클러치
심사관
##거리의
##생성
##피트
##조립
이상화
익살
해군기지
##삽
##경제학
##수부
강령
부지기수
반미
통감
남아
닻
화학제품
룩셈부르크
새들
##홉킨스
##젯
조선왕조실록
뭍
메드
위업
강바닥
이부진
코마
비정부
열에너지
타계
화인
##필수
##일가
##승장
매대
##차입금
##패딩
기출
##선충
##혜주
헤알
우왕좌왕
##종위
수료생
양현석
뉴스타파
##깊이
반등세
대립각
국유림
##생산품
토비
김희선
당혹감
##비료
##영업자
##네스
장영승
조덕제
##속기
##니엘
이명기
현동
##소인
##민감
##경
##검색어
운동부
김기문
에만
류지혁
##강관
쟁
유전성
격년
##화소
양홍석
당선작
인니
선충
김호
##분에
송정동
##제고
지재
미호천
후포
##사례금
전유
##세출
회암사
상산
##어항
금산면
과징
##금채
교천
차령산맥
머루
알카에다
조천읍
쟁반
##마가
함경도
스케이팅
카일
##녹화
부양가족
초이스
초경
베이지
월말
피오
재전송
덮밥
진피
마운트
맥북
내자
가재
뮤즈
플로우
관능
빙판
콘도
과녁
라라
축구공
내미
약대
사마귀
누굴
무인도
씀씀이
오브제
옐로우
붕대
다과
절충안
##플랫폼
동일시
부대원
등받이
렉스
절규
창신
꽃향기
지렁이
라멘
콜럼버스
아까
빙의
독한
인기리
비비
비스트
페어플레이
부축
다이버
위르겐
비속어
인류학자
니콜
단군
변심
담배꽁초
마시멜로
체지
대영
두꺼비
파파
영상미
설렁탕
사례금
바운드
백사장
##지하
인명구조
례의
육각형
소염
최루탄
소서
시현
생산물
용궁
코스프레
주재원
##관리도
마감재
엘니뇨
##항기
시프트
그랜저
박과
##분열
산소마스크
세인트루이스
화근
시식회
턱관절
##트레스
호숫가
건축물대장
##소도
##턱
좌담회
각설이
##현지
기자실
허씨
다
##주입
에스토니아
클락슨
##이크
아제르바이잔
스토
영광군
##편입
클레이턴
##문진
##역인
영구치
자료집
##진이
침엽수
구승
##타르
득세
##소멸
메가폰
김주찬
숙직
##기동
##코칭
국유지
##로어
안갯속
##텐더
조재현
갤럽
허수
##오페라
엄포
이중고
선관
대곡
김지석
오름
이탈로
역자
뻘
##江
##지질
한중일
추앙
##상대방
##리브
안창호
이동녕
식음
웅진씽크빅
봉양읍
이노션
국가인권위원회
순연
황강
광천
##서예
고군
충장
##가속기
의사회
지보
##항고
정착지
손혁
평사리
압출
한실
민원사무
병산
##아실
서이
용원
모재
##논지
접이식
감자탕
메달리스트
형태학
가보세요
이페이
백반
조시
쿤
총탄
환생
##쿠키
디지
쇼룸
##날짜
쉬기
답신
돌멩이
폭풍우
보디
위반자
보라카이
법정지상권
가장
평민
함박
내게는
영영
사탄
주급
브리즈번
참새
무감각
발레리나
치우
주량
신디
총수입
방어선
화환
지구력
미궁
커플링
난로
멍게
지현
연대기
드로
장식품
남반구
허수아비
##가톨릭
비린내
산꼭대기
박명수
리액션
##건과
##게재
중한
화병
수집가
전기전도도
케미스트리
##엔딩
유리병
차치
팍스
윤활유
성호
연설문
외질
미술사
에브리
알마티
##프라이어
##청결
진원
##사격장
광수
산골짜기
항노
의치
##획득
비엔나
불경
고아라
##뱅
단선
플라톤
피시
트레인
페이크
순창군
레이건
노바
갈라
임한
재정난
해선
채현
##계단
최종일
아치형
서창
광년
##발작
##특징
아부다비
아성
##폐쇄성
작품상
급습
##장직
##사별
환청
무과
투매
이영준
트레이더
횡보
박지현
김소연
석명
##식별
##렌탈
미스코리아
배영수
유기한
##수인
진부
이기흥
##당주
동부산
서지현
##순복
아라가야
당뇨병성
##어르신
최재훈
어레이
안시성
핀잔
##살상
##대표단
생존권
광명동
구로동
##신방안
##패스트볼
농수산
박주
이재준
##송달
재배지
칼레
약칭
상납
경축
##감식
모악산
미륵사지
트라웃
완패
마당극
요지로
대연
##공보
##경찬
##비축
##어촌
##소나무
##프라이빗
##표준액
##마을금고
##소학교
##포지
운봉읍
급부
##압축
진안읍
플라보노이드
패총
##개학
##書院
가납
##일죄
##유탈
애슐리
##탈출
비기
헤이
금은
세지
타악기
스캐닝
정중앙
전집
백분율
레비
보내기
견문
잠옷
디비
렛
색출
탈색
손뼉
##도스
구소련
자중
산장
깁스
컬럼비아
불가사의
명랑
위염
줄리엣
크리스티
판매업자
기심
곤의
심청
뱅
이웃집
##색이
##미디
모터사이클
색도
긴장도
활성탄
친동생
원만
발렌타인
꽃샘추위
세계사
양로원
스크리닝
딜런
가야지
자화상
사육사
##공화
고민거리
스포츠카
분가
방귀
이태
노무라
절삭
개략
섭식
출장비
돌담길
아웃소싱
이오
헤비급
시스코
숙인
슬림
호송
헤로인
좌충우돌
##카인
##토양
수도원
##활성제
계시
가도
쿼트
랩소디
김건우
만무
어젠
게르마늄
아름
자웅
쾰른
아간
리퀴드
대체재
이방원
군경
통행로
객관식
승용
국무원
갑각류
카바
상고인
##해방
동민
간송
이슬
표석
##작인
종지부
호소력
##약정서
객관성
신통
카드뮴
##실인
몽고
사이보그
##문학상
사피엔스
철로
중이염
##선우
신망
이중섭
재수생
##토성
요시히데
사열
##영이
출채
명운
손준호
김학용
개헌안
그래미
지만원
김현석
운구
낙석
초임
맹비난
혐의점
스냅드래곤
요리스
회계부정
봇물
##미로
사이드암
잡목
##극단
김상식
##회선
춘추관
삼례
결구
귀성객
##베이스볼
##이브스
김승수
대청마루
문성민
이우석
##베르크
##약이
##텃밭
##공사장
거문고
##농어촌
##유전
서기관
국립보건원
소반
이븐
##씨름
서측
##가중
##연극제
광덕산
##군립
##강송
장방형
고창읍
김유신
선산읍
연직
청구원인
##시분
북사면
우화
강동원
한입
동족
공양
무스
로렌스
라이너
게이지
##출결
윌리
##셀러
배트맨
##송료
빙그레
슈즈
끝판
제정신
겟
핸디캡
닭발
##국시
박멸
알라딘
잉태
보진
김태희
쌍꺼풀
리코더
러너
수작
집념
모조품
데스크톱
취리히
세레나
도축장
김을
양봉
프린스턴
익일
추기경
예림
기물
바닥재
통도
워리어스
여분
지게차
파라솔
진종오
우박
비우
팔각정
선곡
일거수일투족
윙크
오프라
##해장국
민폐
노포
##홍의
원석
콤팩트
경제활동인구
보이진
톨
##어리
비스타
##시큐리티
수용기
광한루
##틸
크레
반투명
스프린트
격언
자작나무
##편집
매미
신의주
적군
급구
양조
크랙
##색소
작사가
##진통제
노먼
바이오매스
미합중국
##진단서
초과분
팽
##나들이
편입학
한이
종류별
내림세
림프구
인왕산
##요율
##브라더스
총독
세전
위문
쥬
사세
염화물
##바흐
송광사
연부
성북동
니즘
##산화
##중부
물망
앤트
##수배
캐딜락
마라도나
신하균
잔불
카쇼기
브루어스
지능화
송해
브로드
성터
메르
조코
육종
유성기업
##도래지
제일기획
##중천
활황
경인고속도로
라힘
총통
변두리
리설주
##박수
조성진
비신
##승진
판정승
회전교차로
남경필
송곳
물리력
뉴로
##입출
송강
##부조
##한류
라시드
국방위원회
##중점
##반출
도외
군소
조명우
현역병
##장성
대홍수
##중립
여서
병우
윤태호
젖줄
허창수
약시
한동희
청계산
경남대
타주
무연탄
경장
화명
노동관계
염태영
위증죄
里
##중과
쟁송
질권
##원판
외교통
##택스
윤덕여
문경새재
##石
##매운탕
그랑데
악양
택견
내성균
##文
전란
운림
사이코드라마
보현
##조령
##컵스카우트
합성보
##착륙
메이지
동막
박의
레이첼
리카르도
##위너
항동
저장고
주영
쿠퍼
항공료
손전등
인산
굴삭기
라섹
휴강
방화벽
소탕
관상
엑스트라
동갑
가스레인지
##경사
##서요
반창고
개척자
피클
데드
악단
갑과
허
촛대
오판
석굴암
족적
저곳
조조
감정선
붙임
멀티태스킹
연산군
육개장
프리마
기교
즙
소믈리에
집세
탁본
##단어
누룽지
여름날
와이
동감
미제
머그
유람
뒷골목
틈새시장
사형수
적수
보수주의자
철교
주형
풍물놀이
족쇄
서강
##연산
##복이
클로이
백마
##목과
밥맛
체인지
일구
변화무쌍
기대치
역무
선납
##족도
타스
적재적소
오태
극락
디즈
병장
파르나스
도고
대수층
초하루
신학자
나렌드라
이춘희
엑스코
##유량
##사립
엔젤스
트론
비실
재결합
이태희
직의
명승부
##시즌스
가인
##싱이
##이어폰
합종연횡
천정부지
원앙
방위성
지네딘
팰리세이드
주지훈
동일본
##중량
혼탁
이시종
이수근
코스타
경기만
전신주
다이크
이재웅
범죄인
김택진
부마
개항장
채드
##변론
브릭
이진현
##소세
개호
과표
임영희
##평의회
여영국
체육인
국무총리실
베츠
##철강
선친
##액수
지은희
韓
배움터
허성무
##제이스
##프리미엄
구국
##근대
##바니
옛터
유원
장기채
서증
눌
리온
아트홀
니즈니노브고로드
권성동
##성범죄
수열
##중단의
##상설
##제문
순국선열
화강석
염기훈
개실
##헌장
함락
장항선
향군
##음향
##강재
김비오
계족산
남부선
유행병
확률론
##조제
성면
##페이크
##신생
운주
산신각
구름산
옥녀
불영사
##소송비용
##불성실
증제
##거더
증평군
윤아
휘닉스
행군
관찰자
타박상
##공휴일
##플레인
곤돌라
관로
오렌지색
교보문고
영의정
러버
규슈
핵연료
불닭
커스
만화가
애프터
화장지
플랜지
나태
##다음
궁도
##인터뷰
우스갯소리
문전성시
다나카
왕립
테스
돛
##쿵
치앙마이
레아
##정본
오락실
스와프
스탠
지어
대덕구
##전화기
통이
선지
종주
후불
종착역
뚝심
논점
레깅스
올빼미
모르
##열람
##동결
유나
잿빛
적막
분모
##수대
토피
##정자
인신공격
십수
안배
사이사이
매드
개기
맹점
획정
윤지
김구라
##혐오
직립
공고문
다년간
조치원
청두
에딘
병천
인큐베이터
기민
풍문
##혼
홧김
땅굴
테이퍼
무부
신봉
근태
사이비
고현
구상하
##크레인
천연염
필하모닉
##서구
초가을
교통부
방문단
이류
##재하
당은
연발
비젼
임상의
레거시
일석
화이
분동
폭발력
부심
장장
##탈
##버레
##불금
내용증명
성산읍
롤스터
##미투
확전
##호지
정찬헌
이영호
쿠티뉴
정회
##슈팅
중고생
##내셔
혐의자
##누적
무인화
촉석루
##모터쇼
##블록체인
강상재
유병재
식한
##호스트
궤양성
폴리티
판문
웸블리
금자동
감곡면
##준칙
##티지
원태
지제
불상사
최충연
김혁철
##만과
김태년
이보근
마천
이황
##계서
하멜
##소법
중앙고속도로
##백서
##조합장
##순손실
서울관광
재순환
타이틀전
이수자
반란군
남도
##인공
적벽
치조골
장타율
##위배
##증열
고지도
의신
폐동
곽승석
상석
성보
호동
동곡
##보살
##수차
지적공부
##갑사
연촌
##소류지
추완
라이온
##카스
운동복
대적
욱
해주
카톨릭
연등
앵글
##소요
이유일
##케이크
뚝배기
인터랙션
스트링
무가
벼룩시장
복사기
가림막
첨성대
선천적
##곤
몸부림
쉼표
안데르센
노아
사력
혐오감
죄악
각색
##시티투어
탐문
겉면
김진우
파이브
서인
설움
그린피스
남색
해골
지운
심려
고차
시래기
내시
덤프트럭
##대도
이니셔티브
마니
폴로
과밀
친자
차단기
소도시
미라클
방석
스노클링
용법
빙산
##일제
흑갈색
물밑
수빈
궁의
논개
##순대
##선원
공로상
특이점
카메론
소아의
굽이굽이
##출처
에이커
사간
##지배력
##원동
알렌
##답사
김영준
준의
보헤미안
##농수산
전능
입안자
슬라임
가드레일
격변
오리콘
로제
천도
위니
수발
미시시피
##모사
벽걸이
##의료기
##매뉴얼
##식단
##내음
##상식
번즈
스카이라인
배틀로얄
삼차원
브롱크스
중압감
관록
포름알데히드
방일
송가
중책
동통
정지훈
깃대
화설
사사
단애
##임업
황령산
자양분
미래산업
에틸렌
##캠핑
네타냐후
대장간
##메디
김용
과로사
##통산
방광암
##충
영세자
안상수
김주
##사적
우드워드
김미경
야마구치
야외무대
이선균
##봉승
프리덤
금산군
##대법원
##에스티
##대안
한국갤럽
신영석
박성수
유통점
세포독성
##조건부
기관차
아이파크몰
횟감
관수
##증후
조양
죽령
요스
##두부
##모델링
진흥왕
부석사
상속분
주무부
이동평
##제어기
사산
인포섹
창원축구센터
##대출금
##임차인
##제다
##양산
곡교천
##영웅
##노래자랑
소백
##이랜드
행정대집행
##알리
##일부
조천
연무읍
대집행
城
노고단
##문력
대곡리
지리지
금줄
민원서류
##전면
신증동국여지승람
급기
류제국
##계처
尹
당진군
제빙
덕동
##탱화
시맨틱
재항
##오더
잎사귀
가자미
##원주
깍두기
다트
소미
팬티
샬롯
##피케
주경
고음
##좌
루브르
홈스테이
##발효
무한대
트리거
끝단
요청서
집게
범일
점박이
일기장
착색
도적
경적
무한도전
괄호
빅터
교향악단
##보로
사발
냥
로케이션
시외
##센트럴
뇌리
분만실
안재현
인라인스케이트
##점프
춘절
세면대
캔디
용무
정크
양초
졸음운전
교관
인산화
크레이터
조바심
##가를
대륙성
대창
선승
히알루론산
##덩어리
사포닌
피막
만조
멀미약
사철
섬유소
퇴보
키토산
리베로
전천후
퍼스
알레르기성
침입자
친교
간판스타
##버킷
위내시경
혈흔
가오슝
##세터
위급
##보관소
지진파
치주염
위궤양
벌초
##족부
희화
국력
골프공
태림
##참가자
싼타페
청해
##인류
정주영
전모
방청
##주점
##유장
허니문
탄화수소
벡
고초
낚싯배
불거지
##정에
메릴랜드
시추공
남궁
베베
욘
개청
펑
여전
한서희
##공감
시소코
이수민
##랜더
##러플
태실
##상어
##액션
향배
영업망
김은경
아사드
구설수
서북구
양씨
련의
집행관
신목
우량주
강간죄
벤젠
골몰
##무선
연석회의
##로지
통유리
산마루
##싱어
##고무
신지애
인테르
김기영
##매설
의사록
김상균
##휴일
김판곤
##현천
예일대
낙영
권양숙
경희대병원
타이스
##렌터카
나한상
##왕전
##아프리카
##도래
##수출국
##안면
볏짚
##표명
##주위
자양
##계장
##야구장
신경전달물질
##공사비
솔밭
코람코
##교창
대문채
지하수위
삼화
##급식소
오주원
##가톨릭대병원
산조
단강
차령
##슬래브
오동나무
##산방
용담댐
전용수
월천
민속자료
##전극
명부전
지대석
##하여진
##압축강도
용모
디렉
디아
부팅
피코
##마린
글씨체
뎁
제초제
##스피드
게장
개화기
배탈
거긴
내항
매니큐어
돌솥
##기록원
식혜
친일파
팝송
##챙
지원군
##채지
지바
포스트잇
흑색종
숙고
리키
문구점
도색
##다이빙
##개장
클라이밍
##아홉
케첩
유업
무직
##경영학
야만
편식
통화량
##운지
비전문가
베트남어
웨일스
합주
청운
낙안
어린애
순결
황금기
##겨울
방진
영종도
탄약
창경궁
번역본
부트
장막
프레지
진학률
##부자
미생물학
주세
요격
열팽창
사토
불통
상행선
창과
선발대
자급자족
##코팅
재첩
차시
잔과
하마
옐로카드
##공룡
오하이오주
소화전
##유럽
원자핵
최고봉
##광대
고니
링거
##급수
영통구
교대근무
##봄의
권세
스피스
첨탑
푸아그라
감흥
명덕
무에
##제작사
##트윗
통일성
김우주
니키
##라운지
바도
무등
산역
##록과
##공용
폴리에틸렌
##아르
##공이
상국
석호
시에라
요요
다린
리피
댄싱
박하
##걸이
##그랜드
시보
요구서
운수업
도슨
반대파
유이
이승윤
박성광
##뮤
유시
회화나무
방임
한기
역전극
##일렉트릭
최정우
빗장
독극물
야적장
렉시
미일
첨병
##대표인
##민주당
조목조목
##교통안전공단
하행선
중력파
##컨텐츠
수확기
김태진
김준현
당호
랴오닝
레버쿠젠
##몬
화폭
전도도
단기채
표차
월정사
##폭위
로널드
너스
##금기
조망권
##선상
##봉사상
논현
비정
장타자
지척
초전
의무자
세원
애자일
##선두
##통신비
오승록
김호철
영동대로
정파
##쇄신
##퇴직금
이동권
삼국사기
득표자
김상교
석굴
세곡
##세라믹
##원지
신풍
대기발령
##차입
##고분군
타에
##증장
이동현
무등산
축척
##토토
심실
동광
소하
##기념물
후박나무
지곡면
직산
배나무
연약지반
용문사
김녕
예정이율
역산
인계인수
덕천강
판넬
##협조
식당가
부대찌개
럭스
한옥이
##승무원
카네이션
저걸
리어
울린
수정과
스와치
피기
가을밤
묘기
충성심
위선
어수선
정령
##마인
대원군
스타인
타이머
텍스처
녹두
공공요금
잔상
##경화증
회가
총성
살인자
참맛
가정주부
눈매
미끄럼틀
커밍아웃
급박
놀이공원
익스트림
이기도
피상
자장면
##시터
서울교육
기차표
눈썰매
미슐랭
조인
교배
농사일
윤택
눈독
앞치마
주원료
쉐이크
템플스테이
##이스트
침전
다이내믹
밤잠
랫
지배인
##합격
강제력
유노윤호
디스패치
산수화
사울
미들
##딕
슬로베니아
##경도
아지트
##부액
##슈퍼
사보
마이스터
내분
##책자
레디
영보
조승우
유일무이
원나라
##학문
루즈
쟁탈
감리교
일대기
장근석
교습소
##저자
태연
편집국장
카르
##하굣길
신라면
휴대전화
먹자골목
##사양
토마
광주대
하이엔드
렙
##세척
신승
페어링
##화관
미켈란젤로
##벽화
##응고
사기업
뱅커
해전
송사
##성취
##기판
로사노
##증인
##급인
삼림욕
경춘선
나루히토
혜자
일격
북남
##반고
숙영
##제지
저유
돌연사
##조직법
##애시
시낭
박현주
##세정제
자동차세
월급제
##스컴
대형가
한미정상회담
답변서
마샬
##줄기
아임
##행업
##익스
접견실
##복싱
신용자
##런던
광시
면한
난지
##보안관
##구직
##배추
##격기
남씨
기초자
도곡동
이준석
보이저
##포츠
최태웅
##낙
강효상
이정훈
간략
##교부세
##자활
새천년
##콩팥병
##우영의
구천동
박양우
변소
방형
진남
저수량
희생타
엔테로바이러스
당직실
금릉
##생리
이방성
분교장
적상면
재감염
남류
죽이기
모한
다이소
##전통문화
주사위
인제
팥빙수
에이드
학연
비회원
바그다드
##분만
컴플라이언스
스크롤
##품명
커넥터
가계부
참기
대불
컨트리
포격
등록제
그렉
결승점
변전소
##민재
국기가
주둥이
결혼식장
하도
납골당
##여섯
억측
허가증
부직포
##카이
##선적
본전
##소지
수북
살만
골드바
인사이동
쟤
##토와
커넥트
답례
효린
지멘스
미용사
##텐데
온천욕
##지사장
돋보기
삼다수
편향성
총의
푸념
크레이그
##워드
덩굴
굴비
랑의
소뇌
쉐보레
##약속
관계식
하대
민유
질문지
동서양
금물
오카리나
등한시
##석역
김유정
사부
인두
장주
두리
요괴
잉글리시
사다리꼴
오십견
면역학
##전역
병리학
##절하
렉서스
괘
대숲
##용구
재벌가
홍주
##제안서
달서구
##루타
예방책
망이
##바퀴
셰어
명월
고압가스
비구름
정맥류
악행
##순찰
##로운
페드로
##수장
참다랑어
가독성
회진
##페가
##이혼
노동청
채찍
최성원
마타
##공유제
##건설사
보은군
이시언
이준
##양회
승재
정유미
##유치에
최동원
##문항
최상위권
##국적
발전시설
오송역
김민기
사천
석천
버질
이용실
권경원
##자국
통시
연꽃무늬
치앙라이
##순찰대
장평
속행
포자
김재영
서인국
##주대
모정
항공우주국
재청구
김창선
김기훈
분석기
임씨
금융채
서철
모집인
섬광
##목상
슈타
무사고
전문기
##재조사
관군
적갈색
박원갑
광복동
##안전성
군도
##전산
##미산
산란기
##학회지
張
유사성
##자이언츠
경안천
용문산
##반행
##번호판
평탄지
동학사
##재확인
경락인
양산천
##항변
지우개
간절곶
무도
##고양이
석정
아이린
정육
##죽의
면목
원액
장천
휘장
드링크
슈미트
##도리
거스름돈
바텐더
골라인
영지
체육복
별건
광우병
콜택시
매스컴
구약
옷걸이
##포즈
소년원
##스팟
미야자키
경찰대
파파라치
내색
보드카
막내딸
현생
보지
처신
##스코리아
##추심
타이타닉
열쇠고리
유지비
야행
물웅덩이
##방울
라쿠텐
내방
오하
은신처
마누라
서영
인쇄소
천이
##이미드
##감상
##하드
##증기
방갈로
내추럴
심포니
복용량
아드
전말
북새통
##분화
진혁
인기상
여의주
##젤
항상성
선덕여왕
##여중
진과
베트
총신대
하천인
광해
괴력
식수원
카리브해
편심
##수유
리도
마이니치
승주
회칙
모처
진지
##톰
국궁
도래지
##당일
려지
서울숲
연속체
일가견
##켄
황민
둔덕
출두
##경이
이주자
##시세
창세기
좌심실
선취
##누가
내후년
가시거리
##흑자
##블랙
설현
##보리
##반복
카디프
개펄
차우
이준호
오륜
언리얼
순증
원구
##스캐너
담장이
양서
라브로프
혈안
군용기
일우
스테디셀러
연방수사국
걸프
교원그룹
고감도
대방건설
부관
##현은
##보험업
심급
김영규
##업원
아나필락시스
수형자
김우중
##기환
##디스
##제세
##이카
엔드게임
옴니
석산
팟츠
##배관
의장단
##수송관
##오페
##학창
허인
임은수
신생대
##재건
마수걸이
고문서
##산책
##선수단
##구조대
##심포지엄
##내수
발생지
##선행
##교단
##유관
살얼음판
설치류
물안개
##교습
신부전
##드래프트
해파
농민군
##행성
월산
정방
##자락
당제
##장대
금산사
진양호
향촌
항고심
구연
번영로
시루봉
에어로졸
폐석
선운산
산동면
문무왕
영암읍
투손
소송물
조규성
월미
모함
헥터
##떡볶이
라스트
##넘버
무브먼트
직사광선
구의역
건망증
유빈
전봇대
신문지
디바
##창이
인색
##튀김
##송정
타르트
비빔
누드
험자
농작
레베카
엘리스
허세
심호흡
낙천
품성
뒷머리
시나
일갈
금색
기네스
사케
스타일리스트
무표정
삼총사
갈구
랙
졸리
플루트
나일론
전시회장
입출
단층선
리듬감
농기
누에
토너
상반신
사만
하스
데드라인
물살이
처리장
무빙
##사이클링
쟁탈전
민어
전기장
##엄의
마찰력
주수
라벤더
비포장도로
제조법
메사
살인범
선지자
가습
스트립
완두콩
섭렵
수요층
수공예
##익과
여호
골든벨
녹원
후진국
원어
지독
고무줄
##웨이브
자동판매기
트집
아귀
확증
평론
대여섯
맥심
기악
납입금
한영
우레
젝스키스
미술인
미포
기우
머큐리
영업력
시야각
총독부
최장수
학설
##렴구
덕성
쿵
##낭
비즈니스맨
누전
##에어
마그마
코퍼레이션
장애아
##발레단
결탁
장기인
화염병
##모스
캐노피
굴착기
배리
염수
논제
개개
뇌성
##모리스
배전
후세인
##맹이
무균
순손실
상기도
북녘
할릴
알리송
왕세
강선
##응원
##실정
김아림
격하
사석
리커창
한림읍
피안
##용수
볼모
##역상
라미
##학생회
김창호
홍종학
조슈아
맥과
장우진
사족
##倍
후위
##학점제
도아
이문규
##타전
##스트리트
##주머니
보란
##예제
혈청형
상환액
사회과
도심형
광미
##정족수
국동
##법정
리전
모도
갈마
영양군
평시
출향
##설장
##푸르지오
대덕산
##기획부
##중독자
김홍식
존폐
각사
형사부
무릉
편도체
불연속
서울보증보험
시타
노적봉
##감시원
곡산
이용주
퇴촌
재교부
리원
외과의
##국악협회
강백
##구멍
공중보건의사
해면
살미
삼한
##역류
##치상죄
매점매석
대웅보전
##향적
석교
지장보살
가등기담보
캐리비안
타종
연희동
후난
헐크
사출
화목한
##동관
음절
사탕수수
김치냉장고
총판
##허가서
페인트칠
반상
카툰
도입부
꽹과리
김윤
구천
##곰
찬송가
더글라스
인코딩
도체
총명
##력도
푸딩
사유서
액셀
유야
돕지
장난기
맨
어웨이
풍경화
예진
도일
전지현
방주
빅토리
사모님
일억
랜딩
비상금
섭리
침의
회원권
자작
무자비
광명역
##공구
부채춤
다중접속
페니실린
체화
독신
군사용
드미트리
등기우편
제트기
잠수부
기회인
레즈비언
크레이지
정면충돌
##날개
깨알
기화
##반경
##타드
사경
##첨
수입업자
##텔러
군침
모래톱
선열
방어전
윤영찬
천과
이기주의
여하
역병
혹자
함선
티벳
##문헌
현수교
요오드
가스관
식사량
벨라
두류
유니버스
셀피
성덕
보물찾기
등유
훌
##캡슐
궁핍
계기판
주진우
##대문
물대포
##기업가
설계안
지배층
##도식
오진
오클라호마
특발성
가택
##플리
##화기
정관이
혜화역
##자왈
컨테이너선
가오
지석
중앙값
##분경
비인
##썰매
오승
##포고
##교지
공공미술
##밀란
친권
##애니메이션
##알파
서현진
이형범
##폭도
##캐디
일촉즉발
내구재
바람개비
전략산업
수생식물
김정현
경은
소사이어티
티볼
##관함식
급조
##고래
독립군
독대
##번영
압록강
문우람
준동
정일우
##볼리
천막
광촉매
##미관
##주류
주담
##탄성
서행
여교사
기축
##방송사
##비디아
신바람
식육
민병두
정승원
##고위급
##플랑크톤
거사
해석법
국방과학연구소
박준희
##공명
단판
##보국
북일
흥국사
##변호
##준원
방천
##기암
윤종원
연원
소공원
대평
##고속화
멜린다
##자부담
##출한
임관
가창면
스킴
이정협
성모병원
석물
##객체
##뚜
한밭
산복
##장배
파티마
##팩터
대동여지도
지로나
##명주
영모
함양읍
##지붕
수산업법
비봉
##변제
감곡
캐롯
ㄷ
성거산
이건하
##야영
##블릿
문수사
시준
결정체
지우기
남주
입고
창자
##마운트
지피
##민속촌
더블린
마르
마요네즈
페니
##서리
비프
운송료
쥐라기
로망
관세율
복학
접착력
양동이
##프레임
서자
약혼
정왕동
팔짱
날갯짓
빙하기
##의가
착상
찻잔
단돈
겨레
영상관
모가
경쟁심
상복
식성
평수
##정세
실행력
미대
성민
직통
남진
##바인
글루텐
자음
소피아
내일모레
구구단
##렸
숭덕
호미곶
##치부
천주
버니
티슈
거푸집
귀재
##프라임
서대문형무소
동판
클로즈업
슈퍼볼
일사병
무중력
기표
광석
보스톤
열림
비이성
허한
가동률
생활필수품
회전수
##멘
냉각기
문도
강해진
구박
톨게이트
생분해성
양촌
휴리스틱
추상화
표제
펩시
누진
상선
제올라이트
##콥
규합
장맛비
##레전드
몬
##상도의
트리오
페르소나
철인
법의학
오스만
샛별
품사
승차감
노량
성훈
##제자
##바디
외과의사
견책
소분
총구
##와이어
루푸스
적체
인류애
후한
립식
멜라민
굴리
블랙베리
##모터
##명사
##세이
스타렉스
절임
##자동화
##파와
강권
송승헌
임정
빙자
안진
전패
여왕개미
##제철소
김종갑
호골
##임
인종주의
보물선
하현회
신간회
##무진
사우샘프턴
연암
축원
양창
장하
본머스
동덕
광복군
공통분모
황치열
##예능
##스타트업
피보
곡동
배율
##로버
감시망
테이저
##산액
##수익금
##학부모
김재윤
부교수
##금융조합
##구조법
태고
중북
장가
율촌
적산
##계법
항소장
정공
윤장현
해사
이용진
##스탄
##연두
##소비량
욕지도
복시
##비서실
대한문
학술회의
##법제
김선영
리그컵
무배당
##문인협회
##맛집
비등
체신
##성지
##환기
乙
##지킴
신흥동
##기술진
##변조
신흥사
황톳길
망간
정태욱
##발현
종괴
##여군
설법
##젓갈
마곡사
운문면
강봉
충적토
##양수인
핸섬
소다
김단비
김영호
찻잎
베네
한가
##패치
##그린
전우
입학시험
글짓기
녹음기
##짝
감촉
##재고
하이드로
태국어
스탈린
##힙
높임
##협력체
사파리
근면
서양화
도사
수완
굴지
유언장
치욕
상외
몽땅
오르간
옆자리
마카
##페라
##부샤
청량리역
마가렛
루이비통
프라이드
남아시아
난장판
##단인
쿠르드
테다
##나비
순리
쾌유
접영
편수
##캐릭터
오도
러일
미스테리
컬쳐
완성품
마스킹
백숙
##불로
##첨가물
비너스
이름표
속살
이디야
음량
대소변
##율
뒷이야기
바운스
부족분
김재중
올챙이
그래피티
신도로
질도
누룩
대학살
캐논
냉기
한신
우월주의
김훈
포화도
##백과
##난의
우두머리
주성
릿
향미
##레이드
##수분
다래
초인
최신식
옷자락
실직자
유명하
아교
##소추
선언서
준거
초록빛
예능인
낙관주의
화동
정형외과
##요강
##진실
##트론
##후원
환태평양
##질량
##센트
관공
지하자원
랩스
지략
##이트
하수관
향로
압권
##증빙
김진혁
##스케이프
박성웅
감초
##야스
잠실동
##불화
극지
양세형
해학
로코
이민우
이석
문관
##농법
면탈
매집
##토탈
도열
##소년단
킬리안
조성물
정자로
노히트
순자
##동행
오륙
식업
##기아차
실험장
연남동
이용률
##예술계
뇌신경
레제프
##수목
대방
##경선
하성
공공복리
##존속
정미소
중층
만천하
마르셀리노
침탈
공군기지
김영남
고석정
##세종
##장충
대전환
동백섬
세대원
##획
##수중
문화상
##펜스
##갱
##뱅커
##커넥트
사천면
둔촌
##패럴림픽
풍동
원세훈
##구비
외기
신피질
##정공
수회
부남
도공
물산
문현
##격자
기속
##건강보험공단
강아정
신덕
마산합포구
임회면
##가압류
개금
##보호구
구절초
##수어
##소소
학산면
##부평
강경읍
법수
고생대
다름슈타트
##방죽
균근
석명권
배당표
급행
##표로
선선
상품명
##시드
파시즘
네안데르탈인
소형차
냉동실
필통
엘레
##스테이크
갑의
폐장
매표
바인더
별채
공갈
폭발음
절인
아수라장
전투력
출석률
꾸지
저거
##옆
캐리커처
심취
##솜씨
가서도
자본가
##생사
주러
캐서린
초토
종수
안위
트리트
##새우
미수금
하품
유재
고차원
모리스
모비스
역한
##뷰어
스니커즈
파랑새
정릉
할부금
##비어
사진사
##눈물
이너
진물
중입자
놀이방
##소다
카카오스토리
철망
이영애
동대구역
제육볶음
예금주
태만
리노
미확인
픽사
최저가
몰타
천황
섹
원물
옥시
배심
초겨울
브룩
얼음물
라덴
겨를
삼위일체
전원책
악조건
셰일가스
최상층
가나안
신제
학적
기네스북
갓
매지
룻
감응
조용필
국문
관리직
주물
와이퍼
멜라토닌
우레탄
##저희
미래인
이권
고순
페이스트
근본주의
##리에
##무장
##키스
자영
판상
##경은
피임약
다일
버지니아주
##케
##왕상
얀센
개정판
##로이트
상면
##노스
싯
컷오프
열역학
전단력
산성화
토착민
위장약
선거인단
펠로
##분립
노래비
장동건
총칭
아래턱
무전기
연잎
원종
띄우기
강연장
##찰
핍박
성유리
사돈
예언자
##쿨
법인격
##치료법
갈라파고스
진범
##녹
##으
클래시
골도
동은
식판
모종
입간판
증차
다자간
전이다
풍납
세이프가드
절체
##국민회의
##원유
##기전
##월액
안계
김숙
조재
철벽
조동호
##엘리베이터
이사철
김승
가학
鳳
이첩
인조잔디
형기
##랠리
묵호
##더리
입촌
삼천리
원탁
##환경운동연합
경례
관절통
뎀벨레
박석
온수관
울버
제퍼슨
##고령
##진항
##총수
자임
아도
##결핍증
스틸러스
마르카
산막
##하이드
대민
##문지
라이베리아
##휴직자
폭스콘
##시그널
##토큰
브린
##에이스
위고
광주비엔날레
이동원
정보국
母
몽키
이효석
##농업기술센터
유민상
##파쇄
##녕
장례비
단전
##메트로
##당사
정보량
혁신안
##관리국
민경욱
필로티
김지완
##제보자
##수행원
대아
##임대업
##연속
무연고
계량화
정본
종유석
문석진
##의결
문교
강동면
중월
관음사
유허비
미네
하수급인
무결성
좌수영
백련
표토
금련
운장산
##연쇄
사회상규
박현경
가조
석불입상
양촌면
##인터체인지
##최고액
자유심증주의
화산면
안전율
##문조
##체강
용유
##나래
블랑
##페스트
현진
표어
지치
리트
에미
버너
마그네
로지
엉망진창
전업주부
어기
시냇물
시종
회전율
광릉
존경심
##토피아
바질
프라이데이
혜원
증편
갑부
박상영
대장염
네임
윤석열
테이크
일시불
안내도
코코아
주입식
간지
심슨
기관총
크로
척결
살코기
고르기
모험심
블리
스턴트
##보일러
다기
##적
인천대교
##태리
배영
##기념비
라니
대시보드
##토너
비자림
편리성
발짝
##젤리
종착지
타협점
충의
바스켓
전미
협주곡
배양액
방울토마토
##파이프
수임료
역방향
##호관
대나
소작농
스티어링
안대
##버러
미적분
스위프트
찬
발생기
횡성군
은진
심상
고딕
관정
짠맛
간담
김동성
수도관
##위적
발품
겸허
테더
김홍도
라만
급매
필명
실험동물
웨지
봉건
강상
신사임당
##운사
선단
메탄가스
응집력
외교가
평결
비발디
김상훈
클라라
물심
##선전
##스틱
폭격기
사절단
##기물
##습도
항도
한상
달래
인교진
##니트
삿갓
이성민
베르너
산둥성
조야
##바티스
공소권
추모비
##동서
한국환경공단
영화계
정준호
##연못
음식료
환차익
본예산
푸젠
능감
홍릉
함평군
##제로
강기윤
##아전
한용운
삽교천
상북면
先
특임
##텔레비전
고법
사변
베테
구승민
##부의장
##레이저
암사동
송하진
시원
물적분할
##수호
객담
청평
오룡
제포
##건립
##진교
神
##명품
항전
김윤식
전자화폐
마이카
분회
##유보
간경변
공비
공제금
왕벚나무
사무직원
내곡
조은희
가야읍
이뮨
수검
신호위
이덕희
鶴
##산업은행
백운산
소작인
##첩
송산리
주천
호상
##암사
쇼터
균류
토산
달집
옥내
신재효
망월
여수항
문하
##이건
도암면
##예우
##面
무변제
임상은
이기종
목감천
백아산
##잡음
큐비트
경천
청룡사
후소
헌책방
비틀즈
한자어
홀리
##우물
탈구
줄리아
##조이
##센스
장당
##권총
어학연수
설치미술
박경
텀
여성복
집수리
유격
외우
무한정
##의뢰서
오죽헌
##부식
척이
지게
자칭
밑부분
막무가내
생산비
속일
화씨
실비아
헛소리
투정
전용차
약력
주몽
댐퍼
착수금
법상
행상
실타래
세태
렸
지그
데니
대주자
이제훈
머릿결
##꿀
##퇴
##쿡
##승마
점장
##아티스트
옥토
로슈
용구
취객
캥거루
향기로운
휘트
문고리
물컵
개천절
갈의
##슬링
닉슨
지아
먹일
가왕
덤핑
##감독자
##용도
##폐인
로이스
두경
에스크로
효심
##능률
##루보
비점
##비뉴
시용
탱
##벽체
밤바다
한화건설
좌판
코끝
박유
전상의
##굽
##손가락
칡
동기간
풍속화
운송업
랍비
원적외선
디엔에이
브라이스
##끈
태의
항법
##충의
할배
명현
포교당
축약
##라리
대문자
뮐러
갈릴레오
수산화
물개
쵸
##범행
커팅
브라더스
동도
장영석
##도우
목격담
가두리
산둥
다운스윙
돌지
남태평양
매복
다케시
정은
가변성
형태소
꽝
##본과
낙찰가
대군
리지
아세테이트
설파
##파열
홀로코스트
부항
주요인
##미트
휘도
진균
전해
내원사
발인
이세영
허웅
미나미노
##반도
최정의
방청석
홍은동
김주성
##민은
박찬희
##무제
개점휴업
무사증
황선홍
평사
강진이
경석
배재준
##밥캣
하마평
김소희
웃음바다
스테파노
##종별
비견
유기질
옥동
##스태프
##공량
오성
최경환
##프랑스
에스파뇰
##위드
##동반
가락동
와동
마하티르
일사량
표범
뇌졸
문화방송
이택근
##항소
격퇴
행궁
##만찬
바로미터
장선
##생활비
여죄
울주
통신선
홍상수
풍치
##치매센터
설기현
##행기
주금
##함정
스퍼
장병완
일색
##곤의
##양정
김영진
선운
정미
##인생
송전선
태교
슈타인
##記
##안전교육
느림
이다연
박문수
울릉읍
구현모
##제청
열전도도
삼각산
운대
상량문
기와지붕
##사회학
옹벽
웨브
개천예술제
온달
##침식
농요
악양면
산방산
##프린팅
한티
하동읍
##경북대병원
회백색
맹동면
닥나무
등가
단구
송나라
초발
경계인
목천읍
##왕산
용화사
우선변제권
안림
단벽
기준지
##탈죄
##융해
디스코
##져
아톰
안지
와이키키
블랙스톤
소비에트
스쿼시
냉수
토플
##출도
디스카운트
웹캠
유소
케일
홀딩
머피
##마우스
제사장
정강이
시대상
리셋
컨버전스
세비
사복
학우
통치자
티파니
뵐
송중기
시온
몰드
이상적
방어력
웬디
가지도
탯줄
김인
재경
수재
보리밥
머핀
비안
파상풍
##라벨
비엘
인용구
범법
산안
인덕
산국
구독료
김지민
격론
명량
아우성
자요
대학로
소년법
목구멍
민들레
보이즈
바리
대모
위스콘신
에베레스트
비티
디벨로
##댁
낱개
##아
네이밍
순금
비뇨기과
감에
##주부
소화제
##지산
사육장
칸트
##이슈
##크로스
리퍼
##쌍
바다거북
백라이트
번들
베컴
실외기
조미
##합격자
중신
모듬
##웨
##잭
시몬
인라인
심지
싸구려
전멸
주원
풍조
열전도
벌린
경동나비엔
조리실
목자
수유실
레드불
유경
전성시대
공막
극치
슬링
##사업가
제조가
##방정
이동건
##리우스
##거용
국제여객
가리
##앤지
##조사원
정수리
하굣길
##초청
심해
구시대
##신인
##탐지기
사무엘
제삼자
엔비
##램
치어
##평면
가레스
연약
절전
방청객
##존성
전해액
포뮬러
술병
##티노
종인
탄원
경범죄
융성
안상
##이용의
김상
##회귀
신뢰구간
##시가지
마다가스카르
##작자
둥이
##제이
조감도
드래곤즈
과방
배용준
언성
명정
김성원
##재무제표
##분위
##후생비
안정기
##원상
언의
근위
서강준
오바메
요금소
망루
##엉
이월드
브라이트
##딸기
사할린
재도
##타수
엑손
현대홈쇼핑
지동
이서진
관함식
##개국
##필립
조명래
제강
진용
우루
김세현
홍의
겸재
천금
오류동
##비염
##관사
폐선
각축
덩샤오핑
최고상
양희영
암흑기
간경변증
물종
병환
이소
##노가
##부머
하천수
방배
나지완
딜링
국민연금기금
##북단
##공급자
춘계
##힐튼
청과
인주
참모장
##응용
달팽이관
김영춘
##계안
마이봄샘
평안도
##남북
행정직
사미
생활사
박주홍
##파이낸스
대농
##公
최민호
안모
중간광고
웹젠
문동
##역세권
##합리
##종금
##벚꽃
明
예수금
돈의문
##학부모회
##소식지
##주년
크라이
##만인
##판매장
초전도
악송구
##仁
##양수산
##門
화장장
수지상
공훈
교통안전공단
##산천
음악실
##레이싱
##향토
등기소
일본뇌염
전계
감마선
임효준
##무소
패용
##홀딩
봉의
##신용협동조합
균사체
갑석
서휘
##스피어
##상호저축은행
선각
페이딩
##미아
해물탕
린다
자장
타이트
주문도
음용
모카
##급사
포워딩
능청
씹
가식
가정부
게으름
다이오드
##안암
공유기
학생증
조소
거침
부속품
##키친
해먹
외동
스커트
배짱
신실
로미오
버스비
서퍼
치치
막심
음표
라지
숨바꼭질
톳
예습
구봉
약서
진다
식권
로렌
초년생
##프라
식도락
마임
난징
중개사
##문장
코믹스
인류학
안중
전통차
인솔자
맷돌
보석금
리조
도심부
##몬스터
동화사
컴팩트
혜화
토스터
소국
##스토
방명록
직장암
테크니컬
스와
분해능
허물
손동작
석장
##어인
##결재
아동용
분자량
##카를
아이비
앞도
양모
김연
오르막길
흡족
빅맥
##실증
계절풍
혈뇨
침윤
김진영
이정재
상과
오재
후미
이문호
수국
루미
결정지
라이블리
착석
시마
증류
대성공
나방
복합형
페트로
플루토늄
앙금
신남
코란도
전산실
지표수
캐빈
##매거진
덕진
코넬
풍진
순의
숙청
종북
키노
부목
인쇄기
최정상
사무원
황산염
극작가
식각
요식
능사
이발소
미스틱
수행자
김미소
흡입력
동상이몽
##브루
파상
##문증
삼송
이브라히모비치
##노프
상수리나무
속단
임기영
##관측소
벤제마
어록
##성빈
최정호
현리
전진기
배지현
미켈슨
##육감
전북은행
##동호인
##가도
정진호
본궤도
중소기업자
장티푸스
##역점
##망은
실투
##끌
장군봉
앙투안
단행본
##횡
마아
방지책
최진수
전초전
##프로토콜
학로
석유공사
##리퍼블릭
담석
##생태계
농지법
돈줄
폐간
중부고속도로
##종덕
##교복
한센병
##칼리지
##태양광
부유물
##바우처
하한가
노경
가리왕산
김종부
니시노
승지
변산반도
##술대
초평
##총량
##마취제
##베트남
무담보
산현
이도훈
##편람
큐리
##음모
양구군
##자봉
어장
허균
변천사
##감영
각축전
어업권
헌종
##휴양지
황룡
파빌리온
##금품
운서동
##도라
할미
응소
##신서
문학산
자브
원지
귀주
환가
제대혈
헝가리인
馬
월면
##강서구
노성
##城
##선용
배내골
오납
##부락
단안
우포
##사골
방축
주막거리
##파울로
운산리
##박막
기업자
##배향
감쇠기
김철수
아귀찜
버클
초승달
배정이
아이작
##안내서
실내악
정비소
흡연실
닭강정
블의
원터치
봅슬레이
빗자루
##지불
이탈리아어
수금
국경절
군더더기
패셔
인품
영생
웡
비거주자
통닭
희극
팬츠
디아블로
낚싯대
세모
튜링
이윤이
웨인
해저드
젖병
스폿
졸린
세뱃돈
엠티
유사점
모니카
축농증
토레스
쇼팽
일리노이
파로
국사가
꾼
##베어
악마의
올리브유
콧구멍
##클릭
##마사지
그레
답지
니코
프라이부르크
##모어
티오피
럭
롭
여섯째
이주영
혼의
특별시
술값
모래시계
연륜
중심점
보자기
앰뷸런스
밀수입
톱니바퀴
상행위
석포
깜빡이
소나타
평균인
추간판
리얼리즘
유언비어
아비
테리
주려
##렌스
로사
우라
짱뚱어
제원
팸플릿
##리나
파출
전기자동차
##메디컬
뉴잉글랜드
규장각
##치가
보균자
베인
중화요리
마름
맛깔
텃새
과체
##과다
방방곡곡
디오
여도
분포도
따지기
달동네
찬송
후광
안달
촉수
##준수
젬
김동진
장소라
우식
향료
유흥업
비토
방정
피케
국방비
동국제강
모창
불치병
##련지
초목
신혼집
##수납
에이티
##고발자
##티즈
영부인
베라
##군단
룽
귀리
##개술
상행
스켈레톤
함박웃음
전파로
재야
국과
##타로
관객석
##체납
통일전망대
혐한
이상엽
펠레
군나르
수리온
대화면
##엄
김기인
김정우
디오스
민병대
셀리
태평양전쟁
##다방
##티아
판자촌
상록구
콘테
핑클
고요한
예하
바이오팜
선봉장
김현종
소도
직업병
올림픽대로
고잔
##병비
몰이
성장도
##앤디
만주키치
구심
김종석
##야크
##산업체
경주시장
야투
호산
##비행단
##월렛
##제압
서수
국립중앙도서관
포항시장
너울
##콘퍼런스
정지용
사직동
푸이그
##여객선
김기동
보호관
##용제
##신중절
박빙
##당구
##남성
##산품
병마
궐위
##분회
상명
웃사랑
海
전해철
맹위
문인석
바레
취의
##백두대간
펠로우
광양제철
##혼영
이재학
##장수
##소기
수꽃
##원예
율포
##장막성전
##기포
##주무
연륙교
핫식스
국재
외감
##지급액
봉우
탱화
모창민
##신축
모리셔스
##본청
##관중
동거리
고봉
전세진
대문간
##간염
반감기
원종현
##공파
물금
##산재
면민
국군수도병원
인월
##싯
거봉
목기
로버스
탄소성
오스마르
##증급
원인자부담금
소래산
운반업
청미천
부정수표
물상보증인
역형성
##외대
길동
김하늘
미샤
백록담
크래프트
##더
##모션
마루방
에페
##부탁
레이다
라이스
탈착
강추위
거름
철도역
실용음악
유부
##화장
##살의
광채
깐
여동
독설
정학
시늉
대머리
음정
참을성
사증
예약금
플래너
대청소
픽션
모티프
김병만
사진기
히팅
블루스
이진영
불도
케이티엑스
강사료
샤브샤브
은총
미니언
자이로
##소진
부일
섀도
반성문
스케이트장
칼리지
쥬얼리
헤라클레스
##세자
안약
시험법
분에
##트랩
동수
엘프
##투기
김민지
루디
독후
##복용
탈출구
건반
핵전쟁
경찰력
어휘력
셰이크
짝꿍
박제
불지
##커플
세목
사창
산봉우리
삼국지
삼보
서던
에로
송화
습윤
요술
보컬리스트
촌마을
홍석천
안데스
낭떠러지
로베르트
울상
바바
개구
뒤틀림
융통성
조두순
학구
법회
동량
##학사
미개
시노
##내외
영령
물리치료
화장대
적신
##부근
마이크로미터
저그
점멸
##아와
##판매로
영신
접근권
동치미
젠틀맨
빨갱이
정어리
##지방산
##도로는
##포토
전자기파
터무니
대필
##마음
선경
역암
흑당
폐단
도료
체가
도해
출전자
송신기
오창
전략가
뚝섬
서스펜션
허가제
영실
고필
현정은
경동맥
알맹이
채석장
분란
히브
밀링
성교
배수관
임지
프로방스
하향세
경영주
병증
프록시
록히드
현악
고라니
하한선
##클립
##기청
##치인
##키드
##발제
##거래량
장재
뮤지
김보미
아드리안
##구별
정치권력
최진혁
김동한
김도연
양회
리셴룽
화세
##옥션
전후방
##컬처
원동기
##교인
종손
피델
##생계비
폴리프로필렌
쇼헤이
##아교
약가
용적률
커버드
샤이
오상욱
##한림원
김승연
##시사회
뚜
취사선택
연결로
창어
##빈곤
##플래닛
김동철
김용태
기계실
우레이
블루스퀘어
##저항성
현인
##발레
##소닉
장흥면
디프테리아
선태
류경
중무장
송천
##출제
보고르
퇴식
##노무
친인
##열람실
세운상가
##대상지
양어장
절집
군북면
##아스
초전도체
차용증
##트레이딩
시험실
##벨레
##시효
##자산가
외세
플로레스
초평면
신석
기속력
##공익
거금
대봉
머리뼈
##보산
##귀암
##정수장
양여
##석부
##음주
파평
청둥오리
##코믹스
병적
도제
##패소
재역전
허석
도루묵
##여제
필치
##성경
현물출자
##상당
컨틴전시
##강당
박성호
증손
##풍물
김창
본리
##레딧
하승진
##앞수표
조정관
항응고제
##장보
조기진
##산성
심우준
##교도
##돌기
절주
소방정
불허가
모법
경막
전탑
면내
가내
건평
의붓아들
부프
용장
말사
귀부
용천사
산제당
잎자루
영평천
장안사
성주산
##민속자료
이사건
##모형실험
##전파자
풍하중
시험편
종현
용맹
팔색조
청부
하우징
내선
라이즈
맥킨지
외가
호프집
##씬
나마
보더
##할증료
헛간
하프타임
연통
부력
보서
공차
항모
역활
씨엘
##꺼
타기
맹인
소매치기
수호자
개종
초콜렛
도토리묵
잠비아
내겐
##통이
배수구
점심때
실명제
선금
김은숙
선급
침샘
후렴
에누리
단골손님
기말
우먼
반지하
안전판
세련미
일렉트로
##이징
식자
탁구장
룰렛
가좌
직송
숨소리
바라기
##문양
섬나라
겨울연가
##녹차
##기어
브래들리
화풀이
심산
리투아니아
발표자
뻥튀기
##매가
스테이시
캠프파이어
보쉬
임자
##가왕
##드립
워렌
삼성엔지니어링
삼중
상모
구성비
쌈지
##유스
엘리먼트
송지효
야속
공감각
원부
아미타
나오미
서광
최현석
연우
입막음
##의약
청정에너지
헨
개교기념일
참상
수상스키
환기구
분식집
반비례
논어
동아프리카
단죄
티칭
##너머
브래디
영해
군살
레드와인
천에
적대감
프랑크
우뇌
가이
침사
무정
쌈밥
물걸레
##지갑
##생식
겜
##고려
성조숙증
동박
안티에이징
입선
보호주의
##봉인
인사처
##운전사
계산법
그랜트
##동반자
최하
두루미
심령
브록
헌트
씨알
##디온
알렉산드리아
##제정
##십자
통달
바이탈
측두엽
갈채
철강업
##충전기
##역도
##고장
김지
천착
신본기
걸출
##신학교
이덕화
종횡무진
노이어
도스
김인태
조보아
안효섭
##불허
##야당
##컨퍼런스
악연
쌍방울
월북
지배자
종도
버추얼
##양동
심증
균형감
##관현악단
나주환
합자회사
손기정
##방제
네이션스
서교동
##코크
한유
##수거
고발자
김미숙
##공사관
##가족의
##다이제스트
개경
##세인
노블
치명상
바이엘
지트
##종말
##사인회
##차액
동해시
##국세
##주니어
중앙당
이철희
시샘
##어장
##뉴딜
요구불
##일로
감정가
##생물학자
영호남
##곡동
김도진
##먹거리
##열기
##레버리지
노역
##쟁
관원
백군기
정치국
철탑
##학습원
용마
오지호
##문업
산식
남명
버들
##옹호
##무술
##과학고
##적립
덕구
##외입
대한빙상경기연맹
##커리지
이용수
처리율
##상은
##제망
남영
경포호
##구미
##할당
義
##승소
대포통장
김웅
##해임
대공연
보일러실
상호저축은행
인촌
##긴급
용당
##검사소
당리
토굴
##속자
역마
노들섬
비상장주
운암
##지환
자화
대모산
형질전환
대평리
동편제
주민세
송계리
데라우치
보라매병원
##전리
보주
이조
괴정
삼영
추증
시묘
금곡리
연화문
서호면
##암정
여천군
충민
##성숙도
##개서
양토
장선리
편암
의성읍
성내리
베이지안
분산분석
캘린더
저고리
하이트
칠리
라스베가스
성냥
##달성
가입비
담비
레이트
겁쟁이
님의
수입자
홍조
캐드
리미
철사
셀룰러
공장장
파고다
꽁치
플로렌스
교만
광도
자러
펠
변태
뭡니까
거래선
산본
민속촌
출세
핵가족
스타일리시
허파
##벌레
독선
샌들
##상부
타이베이
수선화
##법무
발만
긁
##갑의
낙심
상화
##미러
땀방울
주근깨
김은정
어림
티타임
영양학
모험가
리스본
다용도
신발장
머리채
##방비
뭔
시시
영이
멍청이
월지
고려사
형수
##바를
탁이
버팔로
정육면체
대퇴
개인차
코덱
브라보
마르크스
말뭉치
##비타민
머리띠
워너비
##전표
트렌트
초정
##지니
방사광
불전
새길
빗길
사직단
소독약
송지
캐치볼
원두막
들불
기획력
독방
##차지
원자가
##농산
필리페
테이크아웃
각양각색
황산화물
액화
##복합체
소자본
일요
입면
자연주의
컬렉터
가막
김재원
보르
##말씀
덩크
용정
입덧
유독성
##식장
피어슨
##표기
지안
코르셋
##사용자
청구도
##존재
보리스
속앓이
문화공간
##서클
광의
일리노이주
공범자
이동도
무적
경원
흰머리
니콜라
##레코드
대경
##입량
총소리
여성부
효창
헥타르
맥도널드
싱크로
화엄사
##염색
이항
수우
##온과
웨이드
##클로
볼로
캐스트
소염제
##진상
제모
생리식염수
상습범
빨간집모기
모집단
파혼
모레노
완급
종보
돌산읍
전자지갑
##려인
강지환
아스트로
슈퍼컵
준장
하비에르
풍세
맹공
##핵연료
중가
입산
##귀촌
동파
원양
갈산
광폭
피고발인
진앙
광과
##새간
원익
상조업
살모넬라균
##왜곡
아흔
##촉매
##남매
光
경운기
꼰대
##라디오
이개호
고촌
스타급
##제명
빈축
장원삼
양민
셰필드
한국장학재단
프랙탈
가산동
청탁이
##이송
##감자
화승
을사늑약
##파이트
##봉쇄
봉정사
남인
코빈
최영
##간사
##축협
##시력
##배드민턴
군기
숙도
임모
서소문
당규
황후
이봉주
홍익표
작용기
##꾸러미
中
##왕봉
윤소하
##선대
대한병원협회
여단
이병규
##호반
수뇌
월권
저동
##분실
김강률
떡메
##만기
연산동
친부
최준
평활
##화사
그린피
##위계
하굿둑
심의위
##우울
박철
콩팥병
김태군
도계읍
해금강
영봉
천여
##횡령
河
공람
##작목
##유전체
이완기
##차비
##스포츠센터
##신부전
송악
오거리
연리
화첩
##부존
##피복
당화혈색소
프리캐스트
분구
원평
옥포면
경업
자밀
부천군
광혜원
계명산
약사여래
동국여지승람
면석
월리
吳
무풍면
통제관
곡지
손금불산입
##제봉
암꽃
##비르가
지정상
핸드오프
교통류
복제품
나가사키
##스킨
##요트
무역항
##톨
##치아
창제
너트
##리뷰
신령
곤약
두루마리
윗사람
글루
돌리지
마요
호떡
협재
우주여행
굉음
일렉트로닉
순간순간
범벅
금상첨화
그레그
갱단
인어
##코미디
어처구니
버스트
열심
행정학
장롱
말싸움
미니어처
축가
##로에
불굴
뺄셈
분한
샛길
선영
다이어그램
비울
드립
산악자전거
한서
파타
티어
##크로
나눗셈
농아
안내원
식약청
펩
블락비
##완
워크래프트
게다
걸스데이
##입이
염산
경험자
차바
##냉면
김윤석
##유착
겨
지푸라기
바위섬
에칭
반스
헤어드라이어
배스
##웨스턴
리코
##기념품
비정질
익스플로러
가오리
솔리드
주법
텍스
에든버러
슬로바키아
상신
##자제
캠코더
앞니
##수술의
북극해
##직장
아이피
오의
관료주의
빗줄기
##차례
갈고리
종파
##착과
##염수
조세호
##각과
##센싱
야단
차동
##공학자
썬더
올리
커패시터
동매
##자용
코소보
잴
타가
부촌
검안
초인종
봉송
물류비
외국법
##망고
##언니
##바늘
독사
전령
씽크
보조자
관상용
초호
##조림
현금영수증
중간값
근년
로드리고
행정상
알토
법률가
명중
측정의
토석류
프로세싱
아난
케이틀린
폐포
저산소증
시아파
우시
혼합비
예산서
##세탁기
개장식
유에스
##등기부
두만강
화마
홍반
전용도로
스탠드업
여초
병목현상
소렌스탐
담화문
헬싱
유도훈
최재성
왼
연제구
타협안
김혜
앨버트
공대위
##스틱스
합작사
라미란
김도균
김민규
김학
개령
동대구
이민아
이승원
##로맨스
우방
극저온
현준
신저
오곡
이희진
농정
신창현
무전
추락사
김해영
간사장
황무지
김병지
김영희
교모
홍진
##육아
보료
전력량
김환
북진
근관
##대헌
머크
##연명
슬램
군축
##산불
이원화
낸시랭
고발인
직과
##가디언
##양관
장독대
벽산
##컨소시엄
미륵사
즉답
삼청
행체
##트로피
반달가슴곰
##면책
##정신대
숙려
맹금
진면목
지관
##세수
##신도
관치
부산포
이순
어불성설
김낙현
##선권
괄약근
항진
##찌꺼기
겨울나기
##성형술
##유용
구질
##외채
##시티즌
##동계
##피시
##발명품
수뢰
##군지
김선
조병옥
주암
서준원
신서
이재수
##동우회
난적
##선거구
누르
##해수
유로스
##이수
용현
동진강
공동수
##청자
이종범
##교육세
양수장
기장읍
##승낙
독산
연곡면
폐회
굿리치
국토연구원
이형준
은하단
백정현
정온
병인
##장애인협회
건조물
사통
상촌
금산리
수산리
평산
##보통
신창
##타리
교정시력
매도우
중합효소
영업양도
완경
##가목
개롱
無心
디우프
불연속면
연결재
박종
연날리기
##성역
##누
수제비
배속
디시
마오
##이민자
노엘
환류
세끼
프로덕트
동사무소
관세음보살
갈매
디어
모터보트
작렬
승복
매시간
경수
##색대
곰돌이
##캣
배편
##허의
##업적
망토
비야
반지름
천진
문안
이나영
동급생
스케이트보드
마음씨
박신혜
작업복
스케치북
화초
헤엄
##지간
그라나다
당번
##스트립
케니
##니버
전표
덧
사기꾼
야유회
장모님
데코
에피
아령
금지령
구좌
무용가
##부원
모욕감
냉동고
난방기
바트
애원
링링
사이클론
어프로치
여세
자작곡
페퍼
포르투갈어
혹한
멧
천상의
##사량
대상물
부스러기
##도시락
폴라
좌대
임치
수봉
##인천
참돔
아만다
악동
만국
식량난
옥수
옷가지
양력
##교정술
윈드서핑
업과
##궁전
##니티
##복장
맬
메가와트
슐츠
생모
다미
언더우드
접선
하향식
차두리
춘향가
분필
##교양
킴스
혼혈
골격근
스왑
볼링장
##릴
전상
초범
요
몬순
차나무
발행일
신앙인
##수조
##퍼트
정당방위
해피콜
회색빛
죄명
##로크
리아
##직급
삼자
펠프스
##전실
초봄
크러쉬
##트레
판결서
나스
##출국
플라자호텔
분무
##접시
김장철
알림장
식도염
나라장터
김희애
##은우
##브릭
케이엠
라이징
신산
천도교
민초
장성규
신사참배
최항
##주도성
##전단지
연기파
##제약사
김환기
왕세제
가치주
육사
채무인수
전력화
나바로
중문관광단지
김제동
제몫을
##동발
발전상
투게더
메드베데프
##철도망
##신이
손발톱
외골격
##외고
##일체
키스톤
피선거권
##교육비
백야
김병원
크로스오버
##시네마
##후견인
수세기
파울러
농작업
부산광역시장
교육세
##스프링
##소감
기촉
주둥
플렉
예리
##석대
프리드먼
중앙정보부
##수협
윤영선
##마일리지
##퍼스트
경학
##교통수단
주진모
##리재
박재홍
##레오
서진용
##오거리
프린지
##농어
버지
팔경
장필준
##등급제
김인성
##구대
심교
글리
북천
일사천리
집산지
##후견
신월동
초가
##관심
계리
##관동
##아리랑
창리
자예드
별당
노웅래
신광
##능선
##중기
##할머니
이상헌
##세션
##판매업자
하행
낙성대
팔공
##원심
옷소매
담보권
대원의
##클라이밍
현주엽
##산천어
통신문
##부산대
유태인
##정확도
백자편
보디빌딩
석문면
반별
가야곡면
물양장
물권
소노
##환청
##납금
관매
충렬사
철폐령
통견
토압
당사자적격
친생
프리드릭
비저항
그리스어
목표지
타오
고조선
##포라
법주사
월터
디지털카메라
김경진
뜨개
##로더
운세
옆방
이삿짐
스티
업장
##드로
계량기
플라스마
새기
염의
오스트리
##냉각
등뼈
중화학
스타킹
익월
캐비닛
##기차
과제물
속박
##상륙작전
밑면
형용사
입학금
##쌈
면도기
간식거리
그리지
헤이리
실소
##동생
이상형
평발
치한
본론
##면담
폴라로이드
먹물
기동력
수령자
김보라
경마장
범법자
소화력
##행지
오미
황이
망가
총격전
남호
현시
시티즌
세면도구
피셔
표현력
기왕증
부신
정인
변주
발아래
##언
블룸
사파이어
재탄생
오리고기
키자니아
책가방
켄터키
주술
부표
디언
비글
아드레날린
고전압
이익금
행주
빙고
##산역
하정
깡패
에리카
시수
오리진
투스
젖산
하수구
늦여름
##메이
풀잎
유당
람보르기니
흥행작
줄자
권이
##버블
##솔로
난수
현대미
이레
비구
경보음
신림
백반증
스마
조안
소매상
명패
암표
수입국
통통
사해
합성수지
##도도
형무소
백도
원진
쾌속
지린성
드레서
결가부좌
서고
피아
뼛속
뎅기
레이팅
자연광
흙길
##퍼스
##트레이드
윤이상
영회
유연탄
연례행사
원호
직판
듬
예인
발신자
라우
징표
다결정
##수로
요긴
플린트
유다
복막
찜통
일비
모욕죄
지하차도
김민석
체전
궁동
이승준
페이즈
본진
##보조원
##고분
간구
양준혁
이준기
백진희
와이브로
즐라탄
김해숙
톰프슨
흑석
##예산제
바리톤
환골탈태
에당
##곤이
##처치
이순자
##전용도로
황금종려상
이환
##체납자
맞춤식
##가맹점
만리
##대대
최룡해
노경은
##장미
이영훈
자이르
지한
권능
위식
종다리
##조폐공사
##멀티
집무
위닝
법질서
김영미
대심
##크라운
함지훈
김민식
아너
장제원
##능률협회
방풍림
터줏대감
음복
마천면
허경
##동월
사채업자
##음란물
복강
비둘기파
##신대
탈락자
춘향전
도소
소선거구제
세포주
칭화
효사
김안
##문학회
황룡강
김연수
##해외
엘스
녹동
단설
갑천
김기현
샤밀
국순당
##써니
법위
##실험실
헬기장
배꽃
##회동
욕창
연고자
##농약
노재욱
맹꽁이
##혼합
백학
직주
불승인
##골수
채록
현충
주대
장혜진
##부속
을숙도
제적
##밸런스
물납
##정령
수신료
##좌의
##빠
독서회
부산일보
결손금
삼락
##분석기
가수금
##함몰
바둑판
후백제
산정기
##술부
##수변
##피칭
사조
##가산세
강도상
무극
정문홍
사명대사
##도봉
황전면
품바
대행업
##원경
교미
괘불
매화나무
승병
관광농원
연산면
유격대
굴절력
##글로불린
협시
활엽수림
최기영
군서
승탑
화악산
가새
천제
식물상
병풍바위
서낭제
청송읍
權
##옵션계약
유탈
무권대리
탄산화
특공대
분점
보물섬
##백은
지영
화포
패망
차돌박이
조약돌
주치
클렌
매춘부
미니스톱
평화상
기동성
삼투압
번데기
해장
##출액
그저께
맴
술탄
팬케이크
구색
망칠
가로막
혈구
화평
사준
추기
제야
진공청소기
질투심
공지영
콩과
##밋
##질주
안아
처가
##인임
청화
예지
##복선
히스패닉
앙카라
품행
금박
배추김치
일렉트릭
대진표
로키
동주
마피아
호사
##니타스
##옷
카우보이
백만장자
피스톤
고깔
##삭
붕장어
트릴
##친의
국조
파와
소방수
스펜서
미원
##쿼터
동심원
층고
봄맞이
쿠쿠
잿더미
진흙탕
모달
뽕나무
페트
뒤풀이
인트라넷
서포리
대류
시빌
##피드
접촉면
매어
김준형
##가운데
연소
##워크숍
##련장
우현
##휠
블로
온돌방
그로스
속세
윷
박카스
귀와
아미노
반동
반추
죽상
심리전
##디언
##리지
가장이
베트남인
덤불
향년
임페리얼
##메트
마케도니아
현상학
덕의
얼룩무늬
청지
도다리
메종
침출
의사당
사절
촉망
제니스
커넥션
구룡포
지우
출생지
실세계
러쉬
메타세쿼이아
인판
쌀농사
반목
혜안
암면
갈린
출판업
추가점
용혈
##비행사
증후
인공호흡
광구
일시금
소토
헬라스
지파
설성
튈
세션스
하재
로비스트
한승택
##부르크
브런슨
소유인
만부
이하늬
어거스틴
이원재
##행보
헌병대
백일홍
미비점
이프로
알리바
책봉
양희종
판국
##수전
판매고
##명장
##태가
도합
##레아
현판식
##선로
창릉
함흥
치핵
행진곡
가지치기
오마르
##화위
##북로
환노위
뭉칫돈
##과대
파드
김인경
노진혁
보건의료노조
과격
이정우
증도
낙차
마티
##경대
소리바다
추신
이우찬
나타샤
##양행
린지
미준
상승효과
##해산
김성진
헤아
출자전환
조사원
패트리
방이동
금사
##줌
캔자스시티
슈피겔
요충
열섬
군형법
안현
##나스
파인만
피니시
윗
화리
북북동
부용
평택항
통진
무자격
선물환
##영리
배근
금제
철도청
당헌
낙엽송
##포도상
박진성
미공
이병기
개악
##서인
십이지장
##독소
시그마
##주조
##궤
##수산청
안민석
##훈련원
##유급
신영철
##감수
이암
장림
서연
커트라인
유구천
석가모니불
저수
이재훈
##자치제
반강
##천동
목계
##고속버스
비룡
암리
박승욱
부재자
일사부재리
西
의령군
옥산면
##횡령죄
##동교
대원사
##단오제
원효대사
한재
군수품
##적극
##병일
##구강
##신체
##안저
문수산
교통로
김시민
관음전
재사
설천
대호지
사용인
대석
토양층
등화기
변제충당
카이제곱
트뤼도
##피케이
신주쿠
##부인의
팥죽
푸켓
홈즈
화엄
재상
전근
전철역
지판
노동절
프라하
점도
판타스틱
나이프
전기세
공용어
##적서
딜레이
경비행기
마코
의무감
초상화가
카를
##서핑
죽순
의예과
언어학
수정란
핸즈
흘
천진난만
놀이기구
서로서로
민지
휴지통
기혼자
왕자의
엘사
유용성
에밀
송현
연출자
봉이
호스팅
김용의
설민석
매콤
안수
##시어
##쉐
철자법
여친
남성복
기술직
##둥
공저자
냅킨
저돌
목표달성
##분이
전일제
##경유
직분
고슴도치
눈총
순댓국
당일치기
##블럭
넝쿨
제레미
뱃놀이
##심
린치
건국훈장
##조도
틀리
소갈비
짜임
열대성
무에타이
트럼펫
독백
무령왕릉
##중개업자
사회인
##룽
소태
배가
##넌
김신
##크랩
##나베이
쌍계
의무실
##데일리
##출구
에픽하이
도경수
논거
담뱃갑
##가공품
윤두준
총살
최면
##공지
다이나
번식기
##연결망
출생률
##닐
맹장
모실
안전관
원뿔
매독
엽총
실용주의
경고장
평가서
기술료
근원지
머레이
윤종신
파란만장
차일드
백이
육각
본동
오보
파블로
도미니크
두배로
관은
리디
몽둥이
카운트다운
##안산
제각
스템
오현
갈피
위자
탄산칼슘
##참석
오랑우탄
시적
##제와
헤이그
부차
##활자
리퍼스
화장법
시위자
테네시
##물리학자
월출
상관도
눈부심
행해
알란
##인민공화국
##운동회
##특권
##도가
솔리
마라도
모조
흉통
##기념회
간도
영화상
흉물
척추뼈
수서역
##화랑
기피제
석화
프란시스
##통언
솔라리
##검찰
최장기
빌바오
팔라듐
졸전
음식료품
정안
싸이클
극지방
이과인
##산책로
맹그로브
고려항공
히로시
배당락
##여관
연수생
##입주
##표장
출금액
##오토캠핑
고지용
이상윤
참매
항행
통수
강공
매곡
쿠니모토
##유족
덱스
배씨
운운
김헌곤
선샤인
자크
##백자
신해철
김태민
##경상
우즈베크
서영교
노심초사
김정근
##스타인
仁
지산동
훙
김상곤
後
노리치
윤빛가람
난민촌
로써
로봇산업
##토끼
##시자
長
한양도성
신시
심포
김시
##무비
흡착제
위헌법률심판
서울우유
격감
##범호
##멘토링
##주유소
##비티
##학기금
무왕
자와바랏
발버둥
##통치
조혈
##행정관
바다표범
서교
소방장
##양념
장윤호
김혁규
무연
스피어
동아제약
##부적
주향
참의원
박건
안태근
沼
##커버링
백질
피노
후순위채
교부금
##문예
##스윙
##월간
김병기
조교사
##갯골
##약제
백정
##벼
##기공
멀린스
제진
봉래산
조현오
##근시
고효준
공동구
##광산업
생활용수
집시법
##담보부
노반
##항운
안영준
##수욕
이우성
##관광협회
조용호
명의인
##특산품
석실
##무덤
충혼탑
금융정책
항고장
동단
여산
전국구
##적립금
신양
주덕
서상
파산법
강구조
감방
정종진
벽골제
호베르투
누범
테크노폴리스
토기와
궁예
아틀라스
순회공연
##면허세
단백뇨
농악대
院
##신사
핀토
부용산
악곡
풍각면
칠성각
상원사
상림
장대석
설치목
판결이유
해당란
원줄기
갯가
##가부
##그녀
감쇠비
경복
##파전
왕정
픽스
박효신
탐험대
##일출
엠파이어
홍수현
이주연
오천
방풍
신학교
한보
화각
손연재
캐럿
카트리지
##징시
햄스터
마킹
##면장
자개
가래떡
잠은
강남이
정종
실내화
감독자
방울이
##기편
경력자
권수
울기
규준
리플릿
김건
미루기
대여료
되질
색종이
방충망
스무디
각층
인상착의
전력투구
후크
등수
에이지
그이
냉방기
##신발
땜질
결박
바란
왈츠
##스쿠버
땡볕
오두막
올랜도
오웰
##개수
두유
손재주
울면
신물
서든
예기
실선
오슬로
내열
족장
평영
다육
이드
커미션
얼마간
인디아
당월
대극장
군항
롬복
마귀
테레사
키예프
##일출봉
마나
##약도
항산화제
무신
##침착
서경덕
서희
본디
라파
항공사진
무로
루시아
스컬
모더니즘
##나이츠
임시방편
이뇨
들기름
전과자
##리포트
화학조미료
졸업자
사병
쉬리
##개소
아티
여진구
티모
군악대
프리뷰
군체
재판소
##테이
두근거림
탬파
카슈미르
언사
외풍
온도계
보조제
뚜레
품앗이
김성민
##등재
소추
이장우
대서
이기대
##블렛
센세이션
돌무더기
마오쩌둥
대외비
자연림
완충재
아키히토
입춘
펜실베이니아주
셀렉
자멸
번식지
파시
북위
앵
역원
청어
##불비
##산금
진액
##앰
코아
심각
편측
컨템포러리
제각기
하달
배기관
스트롱
오클라호마시티
토드
##보스
전력선
##부회
요구량
넥서스
족저
##사망자
##원환
심원
개설자
##기량
그라우팅
은행동
##고처
##시사
나이트클럽
작과
김대
##시지
국위
##선양
김미나
##분비
연구사
진열장
비주
파열음
추자현
블루홀
닮은꼴
셀틱
임식
##전기차
홍심
박준형
배정남
##댕이
밀입국
##니키
##행량
삼익
이영재
쌍용건설
지방대
주심의
전광
혁파
##하얏트
고육지책
오버랩
능동형
##경영진
동분서주
성장현
결합재
##반점
##등록제
건설비
##스위트
함구
당무
동로
창극
탐침
##라식
의사일정
피란
활터
샌안토니오
##포천
휴이
사바
미명
##산도
##간판
토리노
물뽕
##포레스트
에일리
격앙
##간병
##위생시험소
구인난
승도
디종
##불가결
천재교육
그린북
##기관차
申
박상원
확장세
너스레
폐회식
부담액
쾌척
레이노
메모리얼
산위
상수리
##관객
진해수
김형석
박민지
김완
남원읍
임랑
쇠똥구리
리수용
선고유예
최강창민
부역
##근접
##포유
한국방송공사
##음악제
도롱뇽
전인지
흥리
전포
장휘국
생명수
가력
성암
정왕
삼광
권고사직
##회보
子
당간
의창구
##道
##소시
사랑채
법익
홑처마
대흥사
##안전관
신수
##마고메도프
미골
문백면
평리
탄금대
복무규정
##본국
신규성
함박산
신니면
왕명
##교통량
사곡면
방장산
펨토
역곡
원매자
협궤
##외사시
금봉
구정면
##속료
의신면
용강
##현감
영축산
영취산
광덕면
동산리
옥신
琴
논공읍
강시영
물상
##녹내장
성민규
##감쇠
傷寒
밑창
달라스
녹말
##토버
##삼계탕
플롯
라테
아젠다
선용
##대전의
라일리
거물급
현악기
부스터
나이팅게일
왕십리
##비행기
임파
노른자
이해심
겨울잠
시간제한
츄
고친
선망
##여덟
애월
화창
공산주의자
카오스
빈방
넉지
잊어
비비안
봉선
은근
자다
정선아리랑
모빌
이직률
파이트
##김밥
불판
클락
모나리자
수연
##방법론
재방송
잔도
이문세
크리스티나
##바이어
꽃봉오리
나타
점선
알프레드
세레
조형미
다야
녹슨
인디애나
바라다
다이브
능력자
희로애락
단소
##휴식
복날
##전골
이자의
##명도
##포지션
몰리
##방전
구미시장
북아메리카
목차
메이슨
정소
술안주
유목
무단결석
미숙
벵
##진주
본조
##분석법
토폴로지
지도층
접대부
샹
밧
##결정자
훈민정음
환풍기
불공평
수덕사
##진체
애스턴
치실
판자
듀티
##래쉬
냉동식품
더빙
펌
두자
패키지여행
원폭
사쿠라
기림
민병
밭일
쇼와
감영
자아실현
직역
결과지
보츠
타이슨
북아일랜드
고사장
돈세탁
턱걸이
##크런치
상비군
엘살바도르
계동
보닛
한산
구만
##덤
영공
슈퍼루키
가로채기
##둘레
로브
실용신안법
##상임
결합력
논란거리
제로섬
금새
헤럴드
땅바닥
캐롤라이나
중앙로
전근대
지급금
친고죄
노임
주정
생성기
구세주
소모적
##스위스
속편
칼리파
각목
해성
아포
##장교
##차선
우포늪
제이드
변사
칼만
바벨
루테인
기립성
고과
무단이탈
##책방
컴프레서
연출력
폴크스
##리프팅
##원로
매사추세츠주
한센인
##평준
난티
송민호
타이기록
##프랜
악사
위투
##리타
태인
우렁이
모어
검문소
가르고
좌동
에이브럼스
##사상의
산파
광림
추문
사면초가
개주
국민운동
장안구
베니테스
다선
지예
비상식
##휴먼
백운규
##일상
##담관
버나디
보선
##가점
플렉서블
락스
방직
대질
기현상
##이사장
도밍고
이연
##실점
블러드
화곡
##아이파크
로멜루
장세용
준중
대응조치
마테오
특수강
설훈
##철수
참변
험로
이호
여흥
##사간
##부녀회
##대법관
트래블러
고학력
장사진
성내동
민군
##탐험
속초시
수십조
수묵화
왜인
##처방전
조비오
김정환
토성면
고당
박문
등용
시부
강릉역
##귀병
##기단
국립중앙과학관
김진현
네이멍구
응모자
##인더스
머슬
##프린트
경외감
나이츠
##관여
중대사
##하청
이경민
개성공업지구
##최저
레반테
법제도
##사소
##대원의
칠서
격납
자소
삼남
##파수
##타지
##유실
백지화
송시
##소홀
##직경
명망
피더슨
김진규
##족지
염해
##배당금
##산군
향일암
경부고속철도
##취득자
##금운
도예가
##백숙
충렬
김학민
##멕
선바위
##구실
능인
빙상인
근덕면
##이용료
雲
해평
##가속
산수가
달마
상방
탈모증
약리
성인봉
측력
경승지
##아람
부비동
참판
천태
주재소
돈대
올림피아
##대지
##양천
##향조
홍살문
양잠
동창천
나한전
미륵리
가목
##척기
##찬조금
구본혁
남사면
##동정
갓갓
침지
짱
배다리
슬라이
술래
##단축
부에
병충해
본딩
홍시
달라이
##츄
##큐티
콧수염
유토
콩국수
오브젝트
싫증
소비문화
과메기
미겔
물때
구본길
코르크
무궁
이범수
신성시
신대륙
돈키호테
##버들
잡담
엘에이
윤서
측우기
편집인
중매
혼잣말
별점
소프트볼
수니파
노마
골인
스포일러
열한
중상자
꽃병
메세
라이팅
첨삭
##엔젤레스
##디오
얼음낚시
하노버
바게트
현우
예순
치자
##지라
자립심
줄리
난기류
가스보일러
고물
다영
칠순
파나
창조자
##익스프레스
풀로
병도
##카우
옥돔
방음벽
내라
기찻길
육신
로마인
프로페셔널
산토스
##라떼
벌통
##영진
베니
거즈
사온
마개
버저
사랑니
김상호
샤인
##색인
독해력
손놀림
헴
소비세
씰
앳
성장산업
왼팔
깡
김소현
진중한
봉중근
헬프
엑시노스
암갈색
열선
프랑
우방국
##대공원
확대도
유주
궐기
하임
하슬
이창호
월계
코네티컷
##클린
근막
뒤뜰
공기압
운율
##환은
이연복
쿨러
가선
창틀
아키라
방배동
격추
부정기
스필버그
접수증
##범과
땅속
##레스토랑
주삿바늘
사토시
경고문
질식사
마리에
검문
찐빵
##선형
맹신
##노화
스피릿
끄트머리
차베스
카테
면전
지질학자
파스퇴르
처제
맹의
시한폭탄
고입
효과음
네이티브
고위층
양조장
셀타
밀랍
##우도
베틀
뼘
촉진자
손끝
##노이드
광란
출력물
불충분
##계리
##호대
예인선
##학도
##용접
이타주의
##증권거래소
체념
층위
구취
청진
터만
살인마
어도
##북스
관용차
양림동
##피쉬
모라
서우
씨족
저명인사
이영진
빈익빈
위령
고용원
김성환
김양
##미사
저잣거리
김혜자
##차나
조손
줄리안
##다짐
신현
##미포
안병용
청계광장
라키티치
인민일보
##육관
대항마
숙적
노선영
관재
응징
미감
경징계
박재욱
긱
분향
##대나
봉암
##로비스
야시
상황판
신계
술라웨시
##하우징
이정헌
##블레스
장도연
서재덕
왕후
부적격자
카자흐
黃
##신탁업
외유
류경기
백석읍
보부상
잉크젯
서양화가
종교계
유불리
월화
##제강
##운송업
##시니어
서정원
고적
항경
병무
공필성
박진
##축산물
중장거리
페블비치
최정은
北京
##허리
##잡
재향
##특별자치시
##도전
##전도도
안기부
귀양
갈전
여류
할례
협착증
##원정
한러
##부사장
게레로
##보상법
흑산
##임차
정성호
##브러더스
준비금
백방
##공중
심우
유재명
신경절
샘터
분관
남평
심대
##사청
##강유
호치
공업용수
##민스
탁의
씨네
##정류소
아랫면
##구현
복구공사
국난
번국
정병
잎담배
연탄재
로자
안동댐
폴리오
##운동사
허미정
도개
조경수
##전문직
약목면
##천정
한량
반공법
황화
##타구
금정산성
곰소
##입식
##정통
##뜸
안동호
움집
몬테카를로
문간채
##우회술
##자유총연맹
신불산
##약수터
##체학
산정호수
##시뮬레이션
##호정
##권자
염불
미결정
징구
예방약
외성
편철
천태산
선산군
천룡
현풍면
옥종면
徐
윤학
극면
수곡
캄코
세립
구산리
그래픽스
##수본
##통행권
##등기청구권
승계인
태즈메니아
레터
월간지
데이지
멍석
문디
선학
준영
산토리니
윤세아
##노바
초코파이
정보통
데미지
보석함
가리비
가십
롤러스케이트
흡수력
삼별초
개츠비
##달료
걸레
결단력
커닝
##타격
포일
수도사
미스트
망연자실
직조
샤오
기울
풀러
딤섬
포리
##캐스터
인기척
시작인
독후감
제우스
스타크
##타인
외항
여윳돈
콧등
안드레아
홈스
##성물
드러머
고열로
세바스찬
러스
떨
호루라기
잔량
장보고
색연필
누르기
혈의
미끄럼
삼색
잔이
동궁
연인의
예물
연교차
축의금
뱀의
미치
오프로드
요하네스
뒤죽박죽
탑승구
병폐
##광학
무응답
엘비스
라트비아
리바
아두이노
말라위
일반석
우정은
차내
박근
민간기
복소
매생이
북소리
물머리
장식물
포인터
상하좌우
상계동
세진
페레스
플라시보
##주간지
간조
페로몬
앞발
레크
앰버
##휴의
선명도
토다
영준
발레단
##본사
공동육아
방시혁
교대제
첼리스트
##플러그
산미
화산섬
닌자
청록색
특종
저어새
집시
위클리
갈수
발차기
목탑
구태
동서대
주관식
지역난방
##스티
##발적
날조
원한
확성기
현찰
##룻
바이런
잠기
무쇠
빗살
두건
인격체
뒷맛
차인표
##보류
나잇
노은
드류
##서약서
휴대품
뒷목
빙판길
박훈
살라
짬
루스벨트
호들갑
마르틴
더그
이란인
연무
##바이크
현숙
투르
강대
입찰자
초음
남궁민
소액결제
추력
##향식
단세포
셋집
##게이
반신반의
한시름
촉진제
##보서
르메르
##장세
반덤핑
해식동
##계인
강론
용병술
최재형
수료자
##퇴한
가자지구
##중앙선
반달곰
쌈짓돈
고임금
화곡동
##은호
愛
##발사장
질롱
##수비대
##사육
참모총장
세가
장동민
정원오
창간호
출한
보랏빛
##피안
구상도
##품인
디젤차
차량기지
치적
경안
##도재
##보타
로페스
들머리
웰메이드
밀월
에비뉴
##산운
##투명
##빌리
##하원
##통신업
##위니
황현수
##도건
로젠
홀트
으름장
초단
청장년
자살자
검인
래프
픽업트럭
##소환
##음악당
무자격자
##분식
에딘손
김창환
공가
간월
##수색
마일리
##중구
소학교
자폐성
백도어
##얼라이언스
북삼읍
연구개발
##중견
꼭지점
한민구
전태일
##사정관
헝다
감태
어린이재단
마일로
석순
백화
동맥경화증
조정식
동풍
맥키스
이재선
멀린
##리빙
출입금
피란민
벌말
요한다
소닉
려수
추녀
투표함
전용구
##펠
소시에다드
현천
덮개돌
##계면
광복회
삼봉
##야행
농산어촌
노은면
##스트림
박경미
##민준
말굽
##하이테크
사금융
##필적
과학기술정책
##진료실
양태
김현아
중앙선관위
##과거사
제주도지사
남선
##제법
##고궁
수도산
국방백서
소록
##예총
##소각
##안길
##참고
가두
가리봉
삼공
장호
##신천지
세종실록지리지
##東
정영일
우점종
##모리츠
성인기
##명가
고엽제
향어
##손괴
##범주
##황부
에두아르도
##레진
이상규
##미세
남전
구읍
원고료
인터페론
##월산
친수성
잔여재산
박달
투찰
형강
브람
대덕면
##결구
소수성
갯장어
##행관
문암
규사
장안읍
##무로
농소
울진읍
습곡
##수리조합
경면
지석천
첨찰산
사천왕
湖
##봉리
##해태
구배
모현면
가금면
준재심
경매법
침하량
하양
잡지사
햄릿
마틸다
보라매
타세
김치전
상속자
셸
차비
우주복
社
압착
몇일
플라크
트래비스
자극제
딸꾹질
석식
헤비
중역
##텐션
세뇌
황금색
콧대
맥아더
일러스트레이터
들것
윗몸
커스텀
앞다리
비열
아이큐
저분
##지국
브렌트
산새
오드리
피노키오
스폰지
경화증
불청객
펜실베이니아
대이동
##액티브
북풍
틸
눈송이
졸지
기왕
김동하
불도저
스피디
마스카라
스트릿
##실기
남조선
예찬
김원봉
조선호텔
마지
신기루
잔여기간
우편함
꽃차
벤틀리
위화감
제물포
애호박
크래커
##전승
##멘토
##엘
코리아타운
브람스
하둡
공교
감차
문짝
레지스터
콤비네이션
콜로세움
한효주
막스
불균등
핀셋
##렐라
문종
내밀
지속력
펄프
재림
지니어스
보온성
부보
방해물
잔차
초면
기층
##브라우저
운도
##발송
잠원동
바오
##피리
동류
##모자
하숙
튠
자습
실트
스코
예성
갑오징어
표준어
허가서
소켓
준호
팀플레이
상환금
위성우
컨셉트
캘러웨이
정현의
개괄
군고구마
블랭크
보토
홍도
콧속
뒷짐
간청
찬미
군국주의
##리프트
각주
##안경
클레어
다항식
입속
정남진
법치주의
프랑코
페낭
인석
##육수
티끌
심장부
##예매
감가상각비
집적회로
##만약
##지아
검사인
푸조
##식기
배인
구더기
장학사
곡예
##제사
##총영사관
컨버터
모이
텔아비브
##섭이
요망
추태
컨텍스트
공력
차선책
자보
##가을
혜리
점철
##관점
창조물
대제
간기능
필라
크렘린
관현악단
쟁기
체이스
##수압
##조개
참고서
버스전용차로
아가미
프로레슬링
##도중
##대만
중소기업청
##불량자
##포스터
슬하
덩크슛
등지느러미
순사
막자
한예슬
총무원장
하마스
일로
##령인
윤도현
부익부
종량세
##스페셜
험객
북중미
##간식
찜통더위
##차용
##메모리
히타치
망국
다둥
김종진
장혁
##디즈니
인플레
##탄압
청석
##양궁
쓰촨성
##농부
##숙박업
히로부미
딜라이트
##위아
민노총
송인배
도진
진옥동
##선착장
##향유
##대차
선착
##산장
##연구개발
오버행
돈스파이크
스턴
##상수도
##元
##지휘자
역추적
알론소
섣달
관인
붓글씨
##방송인
이소희
##막대
김윤동
권모
공도
김승희
남남
##나위
뇌사자
적설량
##견도
##용소
##련제
이지원
##척이
토륨
수의대
소송도
해난
이언
김대건
仙
뒷골
서단
폐질
위판
법정형
북송
준칙
김관진
##묘역
##침습
##제련소
##남기
어리
##그루
박정권
통일연구원
인신
##직인
##마이닝
박한이
##굴절
유상운
남서풍
푸르메
심성영
대청동
월정리
웅동
무동
##매일
##금전
김소니아
##집계
##수제
##비비안
##金
심박동
##티어
권대
상서
##야생
주덕읍
부정교합
孝
##현량
##모래
현원
##투사
이병훈
구강건
등화
夜
##상기
비상소집
키조개
##래미안
##묵
질문서
##신항
##생식기
이종필
돝
양리
최종범
중부고속
멱
노동요
용대
##시수
왜성
청일
로버
##비젼
송무
조계현
집속
클럭
광적면
이창진
정보주
계룡시
##코마
병조
가소
##상청
로타리
오가리
시화방조제
부선
결정화
가계도
동검
유문암
##불허가
태조산
본존불
실상사
구법
##층군
금계
지천면
##나목
##기명
대한주택공사
成
광업권
허부
##해석법
인문계
서치
돼지국밥
양념치킨
을왕
카푸치노
화이트데이
히피
##소총
여행가
살도
켐
캐러멜
모닝콜
##항구
오질
식과
조마
시부야
간접비
갈치조림
우거지
봉행
제너
배반
에그
코난
국화꽃
통기
저스트
고방
에어드
팽이
피라미
퀘벡
체온조절
자취방
포크볼
쓰레
기브
이입
덱스터
대부도
제빵사
추격자
공병
채식주의
맹수
어감
미카엘
드라이어
##흠
##거기
##누스
##뷔페
카나리아
애니멀
석빙고
경매장
용제
에바
로스엔젤레스
만년필
##화
##퓨저
말콤
엔리케
발뒤꿈치
미란다
미시간주
시소
박보
연두
##건데
쓰시
하려
방향제
초량동
액운
비도
비오
불복종
##기형
여든
성자
손안
손수레
아래위
솔트
스탭
밑동
응결
##파손
녹용
애석
카일라
차창
길기
윗집
쿼크
오타와
##선수상
요철
난국
용진
중국집
조정기
트레버
폭정
아워홈
##심리학자
잉여금
자연물
재고량
뻐꾸기
안달이
윈프리
흙탕물
경탄
돛대
모터스
취나물
추념식
최민수
회랑
들개
코끼
마유
석관
서울구치소
코다
바쿠
돈육
##응대
건초
행로
##부수
디펜스
##구동
철문
주특기
유니버시아드
나트
올드보이
나목
정량화
가족사
질산
체르노빌
일사불란
공모자
몸놀림
##주요
혈변
휘트니
촌극
중앙지
사이토
##생산량
파푸아뉴기니
코뼈
##리드
##죠
준우
포차
내고
경조
이스코
정당인
버마
당귀
막후
평신도
박정민
영동선
머티
오소리오
짠물
##포신
안현모
반민
쏘울
양세종
이현승
암송
데토
이경훈
순유
투싼
키다리
이규
화만
시오스
대림동
컴포트
대각
##생리학
쿠르투아
##콘스
김성욱
##아이디어
##디프
##팻말
이동진
송소
수비벽
도령
회의론
김정식
멤피스
케파
##인포
손승원
블랙아웃
##모르
사네
용광로
유휴지
상무위원
통일로
리턴즈
##담수화
##정문
문정동
복스
담보력
##영사
에이비
김태한
리야드
방폐
##산수
장로교
창작극
익스포저
억새밭
안드레아스
김종천
사평
지명인
절박감
##마틴
일반의
이인
유무죄
홍문종
함경북도
##남권
육우
공효진
양벌규정
##씨도
따오기
네바다주
##코노
마케팅비
사파
쇼트프로그램
대토
김민선
베르나
김종인
##송환
##개인택시
베티스
설맞이
##은하
##임신
폴리스
지터
최윤
##공제액
##트러스트
##인터페이스
천구의
라틀리프
##설로
방관자
능주면
최영준
##상무
주민규
송종욱
감소분
연찬회
감실
개원식
승강제
##터다
스테픈
라오
정진석
##식수
성환읍
##산로
모평
교수회
미시령
포레
강창
상강
가세로
최영애
##물수
##편대
반여
산원
박홍근
##대치
##동위
관외
##망인
준위
공제액
가하
속구
##교섭단체
##검단
##나물
##과거
##산조
##화운
##정전
사단장
日
이승연
홍천강
##정교
세계기록유산
극락보전
적법절차
##페달
##경마
##학교장
박원주
신법
##테크윈
화지
##자연사
화전민
천왕봉
##퍼포먼스
##관리제
##백일장
조민아
조직체
강교
함서희
계고
스마트카드
엄정면
##촉탁
##본동
##조창
##교통안전
##건소
겸영
석비
마령
군자동
해룡
객주
감입
通
##점막
다대
외해
비로자나불
군지
##물막
동역학
기명날인
세르주
종원
운모
사곡
말엽
처인
구민상
보조기관
외평
##텐데요
추풍령
돌리네
봉황산
노령산맥
##장강
다중경로
##이방성
축장
醫案
##자막
이니스
노블레스
##괴물
자유주의자
난쟁이
숙박료
스트라이프
유리잔
미립자
겨울옷
윤활
꼭두각시
##어회
장생포
계모
복선화
관습법
##걱정
군산항
검의
비틀스
스펠링
파절
서랍장
당포
징집
바로크
반대자
연미
황홀
##신상
벼락치기
##게스트
무림
##지네
사냥감
스크루
추도
기개
머그잔
잡티
리모트
절치부심
김현정
훌라후프
종잣돈
남친
꽃꽂이
##만능
미진
동우
킥복싱
허영
##당신
방용
간호장교
막창
김우빈
입질
##관로
잔업
인아
옌
대중목욕탕
##렴
에스테
일흔
담수화
마고
오버레이
멕시코만
##베스
샹들리에
슈나이더
김의
혜진
##신분증
법체계
##사우나
##과학부
공업화
멸시
샹젤리제
성장통
쇄골
##위도
함흥냉면
존댓말
저질
도네
급랭
담즙
헤드램프
이야깃거리
##파출
육군사관학교
유아인
시백
학예회
다카
나발
##건축가
공한지
##피디아
##스케일
##오디션
김현준
##쇼와
족부
호로
통역관
필로
푸르
단박
화공
##가람
##유린
모잠비크
샐
##너지
##폴리오
창포
메타분석
시아
산자
풀숲
##자인
열가소성
##성리
한뜻
##축구팀
완산구
양감
항정
해오름
##몸살
도읍지
좌뇌
분장실
##유전학
쳐
##신용장
코타키나발루
식도암
동명이인
이성애자
진보성
메밀국수
##용매
정체기
핸디
##뷔
근적외선
##장용
##열화
시상하부
##툰
테라바이트
면화
##예상
##페리어
정소민
시엔
전반부
검표
백병원
바스케스
티에리
성숙기
댄스스포츠
엔케
유해진
정인선
대전역
서래
서우진
디아스포라
##베가
신동주
기도원
신동아
개통식
허경환
에이아이
태광그룹
윤소희
내곡동
공제조합
박정우
##태관
작황
인공섬
티맵
어산지
켄리
잰슨
##타율
등용문
##유원
전준
뢰브
##세난
송진
촌장
득점자
김남일
소천
##누출
김원
보통역
##석동
송곳니
겐타
##머티
문지
프리스
##석유공사
김민휘
유탄
##옵틱
어산
초가지붕
김영우
협상장
객관화
녹색교통
위구르
학년생
##버시
송언석
급제동
##침투
가제
정용기
까사미아
황혼
편대
과학고
일사
신군
고관
프로파일링
결정상
##저류
미취
##반증
라이나
제노
##스캔
문인화
노정희
천기
한불
정명
박광온
##소양
김영종
##레드
기사회생
경제특구
판각
전관예우
은신
한승규
내성천
산림법
##병기
반색
섶다리
송원
##상환액
##예방의
국군체육부대
##자백
##감에
흉상
정암
장충동
입목
원우
계한
의암
김선갑
대한컬링경기연맹
빛공해
##모집인
용담동
삵
장독
시프
균혈증
##어린이재단
지방청
신도림역
법주
안검
##훈령
##특기
송진우
태하
통각
이경
수련의
길손
저상버스
##사다리
가덕도
베이스볼
대길
배산
세대수
성홍열
청암
##구지
송명근
신복
암남
##영업소
##적십자
##환매
낭성
대전사
##관염
장학관
##매직
##행처
##상대자
산서
강습회
인후
마이크로
가리봉동
##예관
살림집
천교
##로보
##중식
##정보처
간성
장곡
로이드
##탈춤
고북면
##소방대원
브롱
울돌목
조세포
겹집
금성산
##제술
우간
탐구심
##밭골
중평
##클리
##궤양
##토지세
장호원
회룡
와룡산
牛
##유형문화재
매축
##모재
##현재
주시드
죽변
중원군
암맥
달빛조각사
소비대차
강행법규
니자티딘
왜냐구
몬테레이
오마이
##지성
수줍음
경사각
##샘플
워시
재송
클리닝
중대장
선구안
메이웨더
다채널
##플라워
간만
시즈
플로어
종신형
언덕길
창살
선셋
다이애나
열강
교수법
주제곡
만입
소면
항해사
오레
싱클레어
##아오
안젤라
제련
크릴
팔목
타요
콘택트
영문학
몰살
찰흙
상술
조정석
채찍질
스크랩
빈국
재키
부대장
농장주
기술사
방학동
고역
김혜수
튀기
기회비용
야한
발칸
의궤
형부
미화원
숄
마돈나
약혼자
둔감
속고
눈보라
키드
숭례문
피렌체
부나
##바스
드래그
악덕
마르크
안기
뒤꿈치
듀플렉스
사회상
된장국
루즈벨트
권상우
##와이파이
말발굽
요주의
##시미
몽블랑
하급자
리타
래쉬
특별결의
봉평
웅변
비접
알트
새마을호
저염식
선재
방송실
안경테
절판
수납공간
열분해
##접착
##부산물
##영양학
##유람선
반구
롤렉스
목마
정민
고혹
노약
보로
교파
초보자
우쿨렐레
##프레스
벽장
몰트
신앙심
릴리스
전원생활
##동체
무위
압축기
습진
##사진관
레이서
##컨테이너
천궁
압연
경보기
##소품
반시
호혜
논증
##히터
구루
실링
휘하
잇기
처칠
김신영
주초
대견
##라이팅
표창원
마이크로프로세서
호리
배기량
벵거
혼미
##파이어
트랜스지방
방책
면학
발행자
디케이
칩과
득표수
반자동
압둘라
미래도
##성형
##선교사
범정
디캠프
##메타
천편일률
##박이
생과
##마이드
박준호
체재
구치
##덱스
공칭
천상
##이하
##호프
폐열
플로팅
적치
질산염
위턱
다사다난
투과율
##출산율
필체
좌표계
판잣집
카사
보험금액
##이모
좌심방
파사드
윤보선
부르자
나영석
건별
프랜시스
##마약
##사만
속도전
##진증
허난성
##유망
권혁수
고고도
이지훈
대주교
##이맥스
박재혁
오펙
##촉의
조진웅
디토
##임이
정용진
구상나무
##오텍
차륜
신현준
염정아
김영하
금민철
시흥동
엔투스
태자
이필모
카티
홍윤화
한화케미칼
법제화
오모
유백
##판례
건의문
유동균
##당인
군법회의
##행장
맹주
이유리
소라넷
방기
교세
극렬
고메즈
##라바
범여
황지영
실권주
##핀테크
##이외
##광면
발베르데
재배당
##베르
통문
##햄튼
동고동락
반둥
낙화
묘수
##창과
##주항
화진포
강지
박범계
융커
인적분할
##메달
##원정대
##울타리
##주군
홀대
##협박
연구윤리
평동
##계량기
노심
洪
김사랑
에릭남
김종식
블레이크
##미자
이장석
이창동
최수종
이상우
조우진
살수차
휠러
유클리드
경원선
##감시단
유와
환입
뉴올리언즈
사이코패스
광장동
속개
이재익
이회창
광역학
마르코스
콜롬보
호통
##주보
브카시
##심의위
##재편
궈안
화약고
이만수
정우택
자축
구테
신일본제철
서대
동의자
##선승
상전이
##괴사
직산읍
##인권법
풍파
납부금
청양군
##세끼
##탈세
지검
##파이팅
##어학원
고가로
市
김예진
배혜윤
침출수
##산후조리원
##문관
##주로
발문
최원
##감리회
공보관
국가관
##평점
##이타
냉이
##기념탑
포원
대성황
##교구
권순일
##지리학
##매인
정운
고하
무릉리
공주시
##회대
북벽
삼우
의상자
감압
##탁자
##달구
비표
와류
齋
조준경
석불좌상
총사
참선
오산리
##모작
경무
서석
##화부
##도변
가터
성산리
호남평야
후신
췌장염
강천산
금곡동
강주
질마
광상
##면탈
왜목
공갈죄
리아스
##호읍
풍혈
##강습소
은파
##소성
이의경
범프
좌광천
도곡면
화암
##직관
매식
하전
탑신석
석종
경덕왕
가등
둔전
이축
쥐띠
아랫마을
풍화층
東齋
벤토나이트
##피보험자
처녀막
살라디노
산탄젤로
##전단력
권투
박정현
##테라스
송정역
강원의
카우치
스테인
수요량
서포
스탁
유레카
브래지어
돌출부
중주
박세
제조자
원기둥
지앤
가민
진경
삼각대
김성근
독점권
##퇴거
밑줄
##슈가
우렁
몰딩
골뱅이
실험값
##지로도
기모노
불만족
필라멘트
한남동
##곡인
젤라틴
양육권
음대
족집게
주디
축소판
##콘티넨탈
적응도
잠실역
영작
황태자
상형
료
심미성
밀리미터
나전칠기
##비법
근성
매리
뿌릴
도로시
밑천
##반실
코헨
원합
노파
##용상
잰
공놀이
민다
어뢰
핏줄
창법
전함
빽빽이
네이션
도레이
범선
돼지머리
모성애
##채로
목살
생성물
한계선
목발
진정제
희롱
벼룩
반대론
보그
##학생과
푯말
해빈
##러쉬
새지
김진호
럽
스튜
도무
서운
경인로
두타
등골
찰과상
##인계
분무기
터드
##천포
황도
언어학자
아스타
##교민
무통
수락산
##면옥
표집
정다운
브레이
##인증서
일식집
##공은
저급
##도용
육포
인지세
##전식
철불
힐스
세배
인사과
임꺽정
슬럼
디톡스
폐회로
삭스
하디
콜럼
재허
##정규
재사용
쪽파
폭음
전채
카마
가토
김민희
체모
##리본
##부리
촛
발색
페트리
기상학
중절
구불
청수
엽록소
신고식
심연
##구리
김선호
수공업
##무드
사커
##명인
구수
사수가
미확정
내방객
우르
이터
##래퍼
손사래
점증
웨일
##스티나
박지영
##대칭
네버
자갈로
식단표
물들이
##장량
등정
##칠드런
휴머노이드
전항
원심분리기
접촉각
목초지
소책자
수하
제이스
태평소
후계
막사
보크
애호
김재우
##경사의
애당초
##군무
항히스타민제
##수액
미륵산
일견
야구공
##복사
화농성
##당금
전봉준
기상천외
솔비
김서형
양계
응기
맹추격
서기장
오현택
##다툼
선후
실낱
방화문
박해미
##평이
##호조
##비례
스포티지
##서다
자유민
##만점
리거
교역자
고준희
이즈음
##사절
##생
사하구
남조류
##스쿠터
##대지진
일면식
##마니아
김구산
##안전시설
컴캐스트
##신문고
##상상
추첨제
##킨
성문화
보복조치
큰고니
##읍내
장로회
병진
딤
페레즈
불쏘시개
저수조
엑시트
대리모
##도피
이임생
##저지
느타리버섯
화담
헌화
서현동
김석기
라가르드
율리
##교익
대사성
##트윈
용상
승적
이지아
중경상
차명진
대구경
직매장
선로전환기
이종걸
##돌파
재발견
##증언
탐구력
공격성
詩
계체
##레어
콘트롤
회추
레니
##보호자
생활체
##육과
##멜론
입찰가
탑비
##개발청
장수풍뎅이
횡설수설
사헌부
##배려
김영식
사람인
머슴
##헤르츠
제호
##사본
玉
##유소년
샤라포바
상소심
##루다
##볼러
뼛조각
평화관광
송악산
중의원
##총리
박미희
##방약
데뷔작
보에
산별
추경호
##정청
옻나무
유해용
##출석
##학년제
디파이
기봉
##포대
타타
개사
비로봉
황동
##영화상
추암
황열
김현욱
신길
이상수
죽림리
송추
철도망
##숯불
하빈면
녹농균
##파제
##백제
서해선
##고원
##시실
상례
##산동
승자승
명연
##백주
##소매인
##교장
##내일
송희
친환
분지로
봉천
##주거지
니트로소
재목
하이다
충무동
계부
수막
화호
##염기
##용체
학리
##목인
대한탁구협회
##우울증
데이비스컵
매곡리
상평
##통행금지
미성
우수영
강천
알렉시스
불투
알테
벌새
최무배
전동기
코페르니쿠스
물새
##여지도
붕어찜
신림면
불단
계림
유실수
##답
돌계단
왕버들
양전자
##산현
전지훈
강문
##직후
비셀
나한
아즈
지신밟기
용계리
학덕
큰골
풍어
##주치
동락
##소처
##상류
속기
##결산서
중봉
적상산
##승계인
##원자
남산리
태토
##소멸시효
##참판
가산면
##생검
보광사
밀리미터파
방리
元
##계식
순흥
마산시
치소
월평리
죽서루
나옹
정관면
논산천
약목
##주무부
##世
운산면
납읍
지산면
통정허위표시
알벤
다이버시티
공분산
급료
돌하르방
##머드
캐년
지용
합정역
석모
서론
에인트호번
퍼프
탕감
멕시칸
종강
##자전
간통죄
갑상샘암
흥선
##특공대
소환장
고용인
백설
스피킹
##견학
##쉘
현충원
양원
스윗
셀레늄
다리미
두목
빗속
지라도
차나
다이어
##흡연
제품력
증명사진
정대
케이윌
##하트
장미원
##초밥
일등석
리버사이드
무뚝뚝
수훈
안토니
##빈이
침례
쥬얼
브릭스
임파서블
프레스티지
로버트슨
가네
자만심
약어
노동시장
독립기념일
값어치
김준일
안색
밥값
시전
대왕암
자유의지
띄어쓰기
뒷바퀴
경외심
밝은색
런지
야성
우타
속삭임
엔터테이너
엽산
루도
##돈대
무아
입추
복음주의
플로리
뛰어들기
##정제
총포
비니
##동법
투과성
디엠
산딸기
사야
##상세
쇠사슬
바하
##합비
역사책
##램프
아사
아토
이수진
##귤
스칸디나비아
영호
창시
옛적
완산
결정권자
##화고
하일
##웨딩
케리
유도탄
스타드
파라오
석쇠
카타
포동
레게
차돌
인디펜던트
젯
감과
중개자
씨엔블루
식사비
본분
무단결근
불일
데미
루프트한자
동한
적응성
##이윤
산포
미필
이파리
전야
호주인
양발
강타자
##육회
맞
노브랜드
디맨드
##어학
광둥
지하층
##상담원
총인구
감가상각
부주
일념
작위
통행금지
흡기
사구체
##해당
개구부
미분화
마제
그라우트
턱뼈
건축자
##훈련장
국적기
쿠페
인구학
발수
##호동
담이
금은방
김민철
김나영
해자
설교자
##이피
최우식
##크러시
재이
홍석
리파
배성재
##머들
##정치가
이동휘
막부
나르샤
최하위권
파미
##두레
마티아스
미지급금
통발
석가여래
정명훈
표선면
##버레이
취안
##어판
주호
황미나
레티
베링
##벌이
로보트
유배지
한성대
##합의서
세타
물괴
수사망
현충탑
윤화평
페레이라
영과
이혜훈
##집사
장슬기
정승현
쪽빛
점한
興
##탁과
김보성
칙령
안방마님
격무
유민
메틸
유커
이중의
도란
네코제
##유닛
교총
##인장
백골
김지운
김준태
김금
호중구
##겸의
보노
지외
마부
통일교
손호준
허민
##서정
변별
주하
전지희
도매업
지라시
원더풀
##점선
이호준
유전병
극자외선
건의안
##휴
조성민
음수대
제전
##방범
아도니스
##드리
##청각
##득표율
김성혜
이상설
김형렬
광역철도
자력갱생
상흔
김경
환경정화
##판매점
天
화북
순례자
##텍사스
##운반
자치제
심창민
공동선
합승
판재
진설
정태옥
##단하
하메스
폭리
촌동
입법화
조소현
고성의
##비속
아웃사이더
비후
중남
##유엔
규제책
프레드릭
전기레인지
정군
강성도
유유
안철상
##공회
보상비
##급여금
제주마
박새
##수교
통나무집
##막걸리
지중화
마필
##열전
##동탄
갑종
암행어사
화관
##리도
철산동
조성환
竹
##저당
##험자
##출하
##인컴
파라다이스호텔
##이빙
소기
신경아
광무
하중도
함침
##계약법
망향
용전천
노승
외화채
##지용
##부곡
한국무용협회
꼬리지느러미
조운
다날
지서
고깃배
하주석
방동
병천면
##제대
##대장균
북향
조흥은행
사량
베로니카
##감염자
앙성
카트리나
신선봉
여개
福
백련암
한정한
##원판결
##증폭기
동암
성곡
고군면
연령군
정법
비만도
##국통
송상
조광조
규암
백곡
평탄면
최지몽
채석
영산포
목판본
월송정
대밭
도평
운전수
각반
측방
陽
하폭
암상
석교리
##설시
겉보리
##동역학
뉴론
가합
타경
당사자능력
모모
버뮤다
대명동
최장기간
익
노랫소리
무한리필
역사박물관
##명절
##시브
##주서
아이스박스
##행상
용은
##주실
도세
비빔국수
경첩
단오제
앨리슨
겐지
데나
히로
착화
홍대입구역
보수파
카타르시스
##기호
이자카야
방구석
회전식
개찰구
밀리터리
그놈
탕진
진구
턱시도
선입
##지상주의
캐니언
미행
고추냉이
용두암
원작자
##플래너
꾸중
스토커
글로리
겉절이
스톡
코리아나
김수철
임이
계측기
수호천사
월곡
감정이입
주걱
세차
발표문
판매인
살사
라이드
큐빅
형산강
##예림
잠수복
비욘세
핵폭탄
자하
벨리
발정
전남편
개울가
메모장
시암
베티
전국노래자랑
방장
주소록
최지우
##마스
코튼
다문
등갈비
영흥도
대합
더듬이
복고풍
감자칩
떠돌이
포지셔닝
광교산
로니
르네
라디
마거릿
악습
반디
##살해
보릿고개
##철인
가함
테일
애비
륙
더스트
급유
사치품
상연
##설문
마담
번뇌
##풀장
한구석
삼신
자포
안종범
드리
##차단제
단면적
##산삼
##인턴
피사
김수진
제습기
요한복음
낙지볶음
쓰촨
전기장판
영흥
##품종
테스터
도티
봉과
포도밭
독서가
##비단
민권
이창민
옹호자
초크
법치
위계질서
권영수
앙숙
절편
##거의
분광기
압축력
쌤
제곱근
태성
영남루
역기
려
교유
욥
##영사관
유키스
몫의
체하
도록
무제
원임
재배정
모비
조지프
속지
자카
기흉
데브
멕
##신뢰도
사저
유준
초회
중공군
뉴노
배출권
절도범
##장르
고정식
태수
왕사
드레스덴
인색한
서효원
예산액
내부망
흐엉
히나
도관
보위
역사학
건설부
매슈
부암동
삼지
쏘렌토
늙은이
마이크로파
림프관
자간
몸짱
독촉장
윤영
##장학생
헤이즈
묵묵부답
번식력
칼바람
##반전
교환권
우지
스모킹
샴
스테로이드제
약침
잔털
장기근속
유흥가
고음질
라리오
##글자
임수향
중열
슈뢰더
김희정
인창
초이
고주원
삼박자
정상호
마르쿠스
##산인
지엔
할리데이
노림수
사마
짬짜미
연예대상
대전광역시
재한
##용군
본방
사군자
장윤정
멍에
카니
뇌하수체
##무상
##우연
동력원
##리교
질염
뉴튼
매닝
##선급
이정민
대종
송종국
신춘문예
선교회
##벨리
컴패션
부석면
원인자
카라카스
##서한
청빙
김영옥
##미키
박계
##질소
##반석
이석채
군북
##문사
##결지
이호진
스포르트
령사
삶터
##이사국
난이
##학설
평전
판토스
총평
린카
금태섭
문현동
##필리핀
김용국
김봉진
신창재
건폐율
##세리
강은희
##지스
금개구리
김선수
##진진
직거래장
금요
휘호
##신자
단복
##스틴
휴교령
필리스
구순
근전도
##기준치
김병연
노환
장연
의주
다이어터
##석실
태양풍
##유와
비상계엄
##발전위
##상배
초혼
석패
##볼루
만복
##스코
롤스로이스
##준공
백혜련
가름
##임사
불계승
오거
하안동
이동섭
##감성
병충
강병원
헤르체고비나
##장병
가형
비경이
대현
류성룡
스테이플스
정재훈
덴트
뇌졸증
##퀴어
꾀병
##취하
용호동
##출혈열
죽변항
민주자유당
##자루
가무
##곶감
北
편재
##라피
##투약
##우촌
##험이
##미만
멱살
소방복
적격대출
##강호
치아우식증
##우식
##자산관리계좌
만유
만장이
##입주자
신륵사
##로리
통매
릭스
##기념식
김대호
선캄브리아기
남북협력기금
##錄
금남면
거류지
##축산업
앙성면
우중
예술계
주문진읍
다액
##태양
##목이
덕산리
##식생
봉재
여유증
왕숙천
도즈
인지의
##자본금
술상
왕궁리
##냉증
월봉
효원
##평교
금왕
권율
두륜산
불당
유명산
##담자
고령토
배미
천불
개석
봉림
앤틀러스
이중과세
길쌈
요관
##탈출증
##루터
곽재우
##매니아
임용기
뽕잎
텐서
신옥
최채
소아외과
차형
천주산
조령
시종면
대천리
우물마루
통구
부곡리
파천면
전세권
##어린이회
금릉군
투수성
반룡
덕주사
##그건
##패밀리
포탑
포미닛
렌트카
뷰어
입교
피망
##로즈
인기가요
솜사탕
소대
부스트
파닉스
가라오케
깔때기
수승
재해석
니콘
고물상
브로슈어
내리기
숙모
왕권
번안
여배
역부
##잉크
오존층
##스톡
부끄럼
컬럼
용변
외삼촌
감시자
인내력
양옆
졸업반
호객
케밥
##메세지
김주혁
만우절
족제비
언더그라운드
비자카드
금붕어
라즈베리
##빌라
옥체
작업대
엠블랙
차안
##스도
소금기
운천
세어
비스킷
토렌트
다비
명왕
연극배우
탈옥
인어공주
세찬
하심
주라
오리건주
준회원
전갈
바니
비탄
한병도
나비효과
두릅
풀코스
살점
##샤워
코엑스몰
발밑
##호환
일광욕
위나
페르시
##덮밥
적음
구김
탐지견
볼빨간
양치기
##사스
면대
목적의식
##행정학
##식성
바바라
##소모량
##스티커
주황
발렌타인데이
봉은사
한가운데서
계피
묵과
블레어
변장
활강
후천적
상훈
생이
섬강
소일거리
모리슨
나탈리
##공과금
페라리
푸쉬
관현악
##베라
앞차
애니메이터
구어
개인사
청포도
멘붕
##직종
스쿱
유료도로
머플러
##선진국
성찬
##혼례
혼연일체
야심작
자원자
함경남도
상도의
김한솔
밥상머리
인삼과
##아이디
아워
디브
##블로그
서명자
개탄
헤게모니
가공업
요크
특훈
특질
저압
카세트
##연맹전
크메르
##무스
##짬뽕
어택
풍만
##파파
풍수지리설
권면
일희일비
남근
가우스
대서특필
아랫배
##코르
##캐리
의정서
연계성
헤라
렘수면
충격력
##인공지능
##청서
블레스
재처리
조언자
부강
나사렛
오노
##설사
카이저
품평
##네오
##접속자
치루
다례
훠궈
예심
##멘탈
##페르
찰자
정유라
방사선학
스칼라
고랑
구호물자
바이오센서
새순
##주력
아킬레스
버트
##바드
양화
쇼핑객
이발사
탄생지
이사국
블루밍
산악회
휴가비
한고은
##보험증
행원
특진
호르헤
##켈
원맨쇼
##소비재
##슈너
마로니에
사배
##듀오
논객
##건축사
##외식
언약
이상범
북정
나주시
##스콜
##모빌
희소가치
염기쌍
##파탄
독주가
용설
##재직
덕진구
실록
전훈
##속공
최다니엘
人
허지웅
##수비수
금권
백양
부커
대선배
김성호
찬희
인텔리전트
##활법
##증기관
매켄지
결재권
김영민
##신기록
##구곡
이한열
판가
마르셀루
윤부근
환시
##원별
민진
정여울
제러미
바지선
##소실
##부고
##베이트
살비니
선택형
인상기
사이코
인왕
추모객
##노역
재력가
기가바이트
프리즈
오영식
섀넌
남노
노바크
엘링
##소방관
자치단
##해저드
역적
##서민
##증강
농번기
후성
##효심
김종호
편집국
##에르
스피드웨이
영업주
담관
남영동
김본
코트디부아르
한성숙
강하늘
##승용차
희귀종
##일간지
추도사
남산동
탄금
##연구사
지상욱
봉수산
##훙
##관광특구
##위자
기디
##량인
바티
이윤택
김택수
공청
##조한
노상주
레오강
##천재
찰옥수수
둔산동
##하한
민사재판
핵종
주도형
이석철
유전자원
##축적
톱클래스
내이
전정
##항로
##심사관
軍
선거전
##선호
상춘객
경공업
이종호
육과
김용환
명필
문성혁
산업자원부
자양동
퀀트
자주독립
타오카
정자동
노스페이스
##건설업
대흥동
##울프
남인순
##풍토
##알스
##사시
연루자
##노임
정순
이금민
##싱크
##전복
박준영
##일대
##류량
췌
음악제
이학수
불티
##연회
##체수
田
##딕스
안국현
##표적
##테이지
##병사
나대지
권순태
문위
성창호
##핵융합
##관상
##료법
최호
변재일
민락
조창
파력
광종
안평
모럴
##익위
사성
##수용체
천관
부곡동
안창
조계
기문
방어진
##협과
##소매
천자
맹방
상현
영평
다목
계남
실경
근세
동중
월액
안혜지
장민
내곡리
##거소
건천
이사부
##타석
내린천
김시습
무병장수
비송사건
도플러
임천
향리
##골프클럽
정몽주
방아다리
현서
토평
송산면
조간대
##닭갈비
##출급
묵객
인가처
김삿갓
##여량
##사죄
이무기
##興
##화교
구서
##교시
##파스퇴르
##소비대차
##저수
중금
장리
##질문서
무수
황태현
보길도
송학
웅도
회문산
뱀사골
점촌
##장승
묘법연화경
머릿돌
##동리
문수보살
조개더미
프리야
좌천동
##다미
덕천리
##선명
##미분
##판지
오정구
한국토지공사
신탁법
姜
정천면
##강교
西齋
##민속마을
##세포주
다중화
보험자대위
##매수인
수인한도
추단
눈물주머니
회백질
회갑
##봄
##소주
백현
배낚시
도미노피자
착즙
천호
급행열차
이중화
샐리
##공비
귓가
수치인
링크드
벽난로
가디
레트
공화주의
가정사
갈빗살
##바시
위너스
도매가격
##오름
살아라
펜팔
소요산
클라리넷
설국
굴절률
회전력
인서
반팔
녹초
트랜스포머
에센셜
도화지
요의
가차
##쇠약
칼집
피쳐
잔반
익선동
엘렌
실에
우신
김예림
재떨이
유분
진절머리
슬
회전목마
##자일
크림치즈
바이어스
답니다
로레알
지가
망친
내복
북반
야
가마니
내게도
영통
생닭
뭔데
판돈
눈물샘
한나절
식목일
텐션
폭력배
팍
한나
따님
길바닥
웃음거리
데미안
빌더
라이카
마셜
앙골
버나
올리비에
태형
린스
##도르
주다
엠버
양악
중남부
고질병
시디
빈대
테헤란로
복서
악질
수하인
스
소연
솜털
조랑말
테란
병뚜껑
흑미
실학
프라이머
애프터눈
리핑
##라스트
팽이버섯
도감
까페
##우월주의
김석환
##스턴스
그을음
##젠더
차오
윈스턴
갑을
반과
영사기
광희
프롬
큰절
윌버
동의어
크레용
사포
괴담
사마리아인
테슬러
포용력
아리안
##계진
돌덩이
조련사
원심력
이승용
해군사관학교
사찰음식
케익
##지력
콰
최전
바람막이
리니
이현우
헛소문
주먹구구식
점인
소등
휴양소
##프로세서
다우니
##유행
만삭
무보험
머스트
급사
일거
심보
이사벨
플래터
어게인
미래학자
인사이더
##곰탕
결식아동
##요정
자수성가
야동
핵보유국
진화론
묘책
학파
뒤셀도르프
##차역
길인
최무
축포
##스타즈
에이피
공예가
왕도
##휴로
포경
한누리
은행잎
##술사
##워스
정치판
렐
##엔드
약본
성배
미주리
옥순봉
콜로라도
소절
중합체
##스트릿
확정시
산방
스완지
어용
##나우
보험증권
##씽
팔레
##추방
금양
캠벨
##연월일
미영
레고랜드
울창
##보상비
연식
냉방병
##회비
보도블록
##시급
##격인
소이현
##바겐
창공
##스탁
디아스
남정
##리앙
예속
쉐마
버크
##일선
##파에
##주도로
##랏
김선아
크리스토프
원비
##산호
이만기
괴목
애린
스타플레이어
에레라
해독제
문정인
조증
우면산
##박근혜
사유림
부채꼴
애저
해원
노근리
##블라
브랜뉴
남남서
흑산도
##소한
라이머
장태준
개봉동
바스
##사위의
신반포
기아대책
방첩
새너
##석탄
북아프리카
高
반의사
호소에
여환섭
이덕선
##북면
세마
##메카
##야쿠르트
본보
전담반
경축사
미담
직수
##마이스터
한국남부발전
##타결
이진호
닥터스
처인구
부민
연합회의
안국
한국남
##추론
##사회주의
현대증권
반유대주의
정재호
흑두루미
공덕동
남벽
괴석
매리너스
성불
문래동
외벌
##남이
##성우
푸홀스
##리크
임재
노던
재정부
한증
건전화
급대
김현민
멕시코인
##슬립
재개의
목감
##존슨
##원적
손병희
광역화
##신평
##파리바
##교육사
강신욱
하모
##합의부
마사회
홍기
##콘서트홀
마흐
방용훈
##데몰
담수호
##선관위
갑오개혁
왕숙
김승회
칠보
##미소
##급여액
남강댐
##당국자
인민해방군
공모채
페라
먼바다
삼례읍
나성
청국
##비정규직
본산
##水
가경
청명
차한성
김상희
모항
##감시자
은제
해단식
##포트폴리오
##당직
##합사
##무동
##콘도
매화꽃
삼계
진명호
구기자
물류비용
자금줄
돌비
아카마
본과
산지천
임영진
정민철
##등록부
##태아
##직속
대암
역공
미립
배당기
##샹
윤성
포은
력
티빙
개인상
마하트마
송곡
##시험기
##반암
폐동맥
##중환자실
##전설
권선
##촌장
망우
소급효
##기관지염
##위장
제천시
##아미노산
주암면
유암
##품관
양급
메릴린치
부령
##슬로
메시징
김소
무치악
아길라르
황경
부광
##수질
##중감
쌍림면
##지평선
이원일
##휴게
##상조
##상감
창천
##반추
탄저
다문화교육
##농아
##문화방송
개진면
천체관측
학도
권봉
명확성
국가배상책임
이정환
##관질
##실버
산제
영북면
##내피
##다목
광진교
고제
적상
서재응
##위폐
청룡산
탱주
용계
덕지
대동계
월곡리
불탑
##황봉
금대
사무관리
##은평구
##방접
##석기
자가보험
##관광농원
중촌
##舍
국망봉
백운사
사기점
노루목
저산성
오봉산
혼합림
플럭스
일산화질소
프레즌스
돌묵상어
점균류
키베라
성진
소리야
앨라배마
##미르
서베이
계획표
보태기
레바
우마
네이비
##건지
구류
##건가요
오피셜
호연
##분도
자갈밭
##콰이어
폭군
예도
보수주의
독립국
조광
빼빼로
자제력
리에
광적
상승도
주운
북두칠성
실습실
프라자
사순절
친오빠
말벗
배도
음역
슬리브
이민국
광신
영양식
불스
뱀파이어
어메이징
영업직
전복죽
등잔
##습득
포르테
덤벙
드레이크
조나스
탁상
왕새우
몬태나
히스
파파야
선약
일순간
##죽
김민경
김수연
여왕벌
킴벌리
위조품
쓰레기장
기진
인도네시아어
잔여물
대대장
놀이동산
월급날
일석이조
장기려
주만
체한
##인사이드
유리컵
분홍빛
김주현
단파
종탑
##상단
와이셔츠
나영
빼지
마르세유
개산
빈치
랜디
플레인
화물기
마로
격자무늬
지실
당질
곰장어
바닷가재
발레리
베니키아
##동사
브레드
망사
사공
산드라
우규민
##염소
정독
귀순
와전
##잔틴
##행정부
##동적
외래종
이놈
배아줄기세포
아멘
##안테나
위험천만
초복
##포커스
생과일
내경
용현동
천안문
고정한
회오리
향도
위풍당당
##리프
압둘
이문
##중심주의
예금액
호신술
그란데
사심
가리개
목관
양질
경근
서드
다현
인식표
방랑
##서식지
호놀룰루
카렌
완다
외음부
##조인트
하오
##하장
##교리
##시간표
김가영
각론
무녀
##무료
하모니카
리수
만병통치약
동티
소머리
카디
쿼터백
푸리에
##기아
피어스
천만다행
파이낸스
조종석
진기
##소염제
정화조
통계도
파스칼
블레
자연치
##수자
흉악범
경외
우등
피타고라스
##탁지
정련
고금
##단술
관리원
람다
의붓딸
방벽
금리정책
##프라이스
악력
테트라
전자동
칠흑
매화가
인시
##아이돌
실패자
콜린스
떡갈나무
절교
##정수기
##족인
회송
비급
일반용
##봉작
속사정
박시후
헌터스
마우리치오
제윤경
그루브
격랑
투트
대궐
영내
핵분열
기도문
숙환
##요일제
몽니
소흘읍
강경준
이재호
##비슨
##장림
신스
예서
강민
##촌인
##차일드
밑돈
##호치
최민
자주포
수공
##자치구
프리바
##고유
##가스안전공사
##양가
##나트륨
동역자
우지원
네오플
활주
##그래핀
벽두
##원구
동항
구대
##볼링
##상액
금실
금시장
##경찰대
납북
풀럼
사령
##서베이
도미닉
얼개
이송이
##요제
근간인
아드리아노
로타
##사직
방사선량
김연명
##단락
로날드
노정
동갈
헤브론
쿠데
##풍화
##서치
중계동
갱도
최주
김상욱
친정어머니
천거
##포자
정례화
##교육자
##퍼드
쫑
김종훈
덕신
경술국치
##유산균
무실
헌
대꾸
단일화
김병우
##위원단
全
열사병
신인도
백원우
분회장
##고시원
이복형
##텔레
김경호
우투
영선
가을꽃
명예직
경찰국
고우
##독식
지방선
구라
도박장
옥탑
이농
탁현민
암매장
유덕열
##더비
박형철
##둠
부실기업
##울산
인수위
출회
시미
##아세테이트
뇌실
태업
특허분쟁
훌리오
심전
##인근
##필하모닉
국방위
영포
어획물
정위
배현진
드사이
이대
##조율
##영체
##례단
헌혈자
고영
##리회
김정렬
##기지국
유동수
##사활
##고소
##포세
삼성생명
배열도
접촉도
家
항변권
폭락세
아미타여래
윤명준
이규진
##응원단
강설
##우호
전차선
##공산당
투표장
산가
디옵터
조단
무선망
이수만
##송어
당인
석대
##심부
##개조
교하
이중근
금영
##델타
청곡
놀람
스윕
직불제
윤상현
진위천
완델
장계
연화봉
이정영
##경감
공사관
어망
##석면
##라사
##이륜차
매경
이론식
##산점
석회화
화정동
문창
##문란
김산
권선구
##산학
##직위
##웰빙
용처
풍수해
##리터
##중재원
이화영
강기정
##진법
민자당
##치사죄
구남
심인
성남동
순환로
##생원
박상
##피부과
선소
불법원인급여
##정장
사법심사
트라코마
호별
삼림욕장
문리
천연림
실학자
##명문가
효자비
상왕
소학
노정혜
샘골
##낭종
관모
예향
반야봉
주곡
소로카
황악산
##급체
그레인키
집락
안천면
허태수
봉산리
녹내
비자나무
상전면
신정락
열녀
덕포
##합자회사
##해성
모전
허목
바래봉
불하
김일손
김대유
##읍사무소
개창
용암사
마산리
##영당
##地
사양토
원동면
##종량제
방범대
컴파일러
급사면
고성리
토심
금반
설계하중
호대
##취득시효
파산자
문경준
딤플
꾸란
밴조
동특성
##변량
펀칭
찬열
수용력
크로스컨트리
꽃미남
투썸
에반
빈대떡
제독
티보
경민
슬리
릴리즈
분단국가
전병
넘버원
조선왕조
코브라
앵두
##쥔
죽지
롱이
하나야
아이리스
복대
내요
안감
타우린
강줄기
세이버
경시대회
양학선
원일
##롯
##주세
직수입
대서양
원샷
전화번호부
블레이즈
저어
히스테리
전고
목청
운증
명수
연줄
기니
정신병자
낙오
칸쿤
무관세
##미라
대련
##캐니언
실종사건
총무부
##추어탕
툰
뱃지
로제타
공원묘지
발해
소양강
내레이터
프란체스코
아웃렛
쓰지도
가락시장
뒷장
화이자
쌈장
자자
##진역
깁슨
##도호부
백발
헝겊
홀랜드
##배틀
뒷조사
범접
자욱
문화인
파르
웬일
미봉책
고무신
##버스터
조련
심금
##케익
##발생기
동행자
##가시
##리방
잔치국수
라그나
런닝
괴수
재로
부정사
모계
##채택
민서
바빌론
바인딩
코스트
챙
에프엑스
보타
##모티브
해만
##늄
빨래방
웃어른
벌크선
##할아버지
프란시스코
샨
일출봉
스티븐슨
아무데
호계
암말
앨리
##찌개
##성찰
침낭
워프
이방
이지은
##센타
포도나무
외래어
조일
밀리언
크라이스트처치
에세
호나우두
플라이트
애국자
##쟁점
용력
국은
##스크립트
##컨설턴트
##아시
출정
##크리
워리어
대수학
세르비
임원회
수도승
프로이트
훼방
페페
터미네이터
동년배
절과
대장장이
친언니
답글
난투극
무성
미술계
##단도
전자회로
배구장
신보라
##일모
석회질
니카라과
연육
데이즈
시누이
바우하우스
전인대
##지신
##셰어
##신병
베냐민
루이지애나
회중
헤르
극빈층
##타마
모짜르트
미설치
##판타스틱
태평로
초안산
사진작
가물치
온
터치패드
피터슨
피조물
반인
이성경
합정동
식인
퇴각
층상
복사열
장실
##수여식
합선
레노버
씨스타
딕슨
이진수
넬리
트기
동형
초판
제이컵
소화관
불가침
교학
##프레시
명동성당
##비드
지력
##무시
##모두
초음속
무성의
##로얄
##역대
김수정
석출
파운드화
##주액
##이너
어버이
차급
기마
##치도
##국물
슬개골
##용인
##만료일
동료평가
무협
고상
에메리
비달
##디앙
##엔젤
##원형
무용론
##긴축
##페인트
행대
정음
은지원
##케이드
이성호
에이바르
하든
체험자
에스에프
호송차
하지메
계투
헤이세이
홍영기
재간
도두
용균
트립토판
바나듐
박일
소강석
선부
정일
##비에스
##령우
적재함
캐치프레이즈
흡혈
굿판
예안
##형평
신송
하도급자
##앵커
칠갑산
시에라리온
현성
##에볼루션
비행금지구역
에반스
##대행업
##낙하
듀레이션
피격
영등포역
사담
##계위
임동
북악산
명천
차명석
집사부
프탈
##숙소
세칙
불입
한데다
방카슈랑스
불패
김진욱
타자와
도담삼봉
입경
##챔버
백트
##민원실
마테우스
열대
##등식
사제동행
##초사
동명동
홍정호
주광덕
허커비
신성철
동춘
와스프
##제전
희성
노부모
##트래픽
##엇
여운형
별밤
##시연
신용현
신당동
화성암
친딸
로드먼
안호영
영업비
난지도
투표구
김성식
##유니온
총궐기
##데이터베이스
##학장
남준재
##애로
##유기죄
뇌간
꺾기
種
상공인
##수만
의무화
송악면
##모기지
##보증채무
로잔
김지훈
##진야
에넥스
##모순
실국
주아
서정진
시퀀싱
디오라마
세바스티안
판관
최희섭
무력시위
은행가
범칙
안덕
##원당
환경운동연합
김승기
김영수
강화정
##탈로
북제
##정대
##상공인
지청
##시스템즈
황포
다랑논
산동네
수의학
성대모사
##접객업소
##탁고
##특산
기감
우씨
##차손
##분류표
##포차
##레이더스
##기설
봉황대
엉
관덕정
노폭
##기록관
##감수성
아이반
안산시장
잡이
베이브
##국원
스페이드
예장통합
격동
중하
##멧돼지
안톤
한국교육개발원
이성우
주계
임권택
##석지
임관식
사마르칸트
범천
##무추
##安
피리어드
##쓰리
력구
##직전
許
징계권
비양
한동훈
서책
김진성
앞가슴
마을문고
연곡리
급수탑
관해
##어종
공암
진찰료
수림대
우곡면
별신굿
단경
북청
장성호
법랑질
##유속
포곡읍
수제자
손두부
헤타페
대구치
측벽
항력
하수도법
본존
##시나리오
활공장
탄화
북상면
통천
덕정
##중원
##미역
계룡면
모세관
##불실
##이게
학소
평해읍
증발기
삼문
##포교당
후불탱화
##황산
보문사
해창
망양정
##사증
평강천
정안면
등성이
중산리
생백신
배상비
파식대
월곶동
아랫말
구룡리
##장막
황학산
##편파
##운송인
소송계속
##판시
환매권
지적법
##부가세
강남병원
격리실
##보형물
허문회
장재석
##메터
##접합부
압밀
청인
파자마
##심층수
##대길
대릉원
네바다
버버리
샤먼
만월
윤종
태민
석강
##회하
포병
스냅샷
서각
맥베스
덕트
##옷의
수불
##수증
진저
##자란
##아저씨
물청소
타시
구내염
동탑
아라뱃길
애나
시바
피피티
속죄
구렁이
##참
##디렉터
입천장
접속사
##그레이
주네
투표지
퇴짜
우송
##답지
논조
캔자스
광대뼈
접니다
큰아버지
서성
등산화
곡도
그라피티
경단
##라켓
삼학
옥사
무지한
지간
데님
김고은
증류수
대통
국자
양철
옹달샘
챈
불구
랄프
록펠러
산남
분반
세이프티
식해
##트레이너
탕정
고자
석적읍
정략
날기
접근로
우스
낙제
데일
무채색
기여금
헬리
칠산
단통
발사믹
베타카로틴
결투
##허가증
데스티니
신오쿠보
생김
워밍업
##착의
이상주
비금
파슬리
입방
티스
피로연
오리엔탈
##마술
저편
연설자
아그라
버블티
해머
벤쿠버
닉스
여의사
행거
##영식
클라인
뷰티풀
고침
세실
자이언
톨스토이
서시
새터민
서피스
손익계산서
클라이맥스
암벽등반
순우리말
순풍
순화
신발의
스파링
국문학
알레르
##산행
트렉
##렌의
오리가
흡수성
가을비
송풍
##민자
닭백숙
무염
동역
칼스버그
##도착
코사인
몬테네그로
무창포
파비오
출판계
오트밀
원불교
침술
랜턴
전체주의
자숙
천은
협문
진딧물
머스
국방력
매형
체로
##아빠
기관실
금의환향
훈련병
연구개
단념
카프
프란츠
고현정
생색
윤상
##직근
김한길
확증편향
예복
##회지
##기류
경비대
오스카상
북극성
나디아
인코더
레드햇
꼬투리
데카르트
조대
레이드
##효능
##감옥
탐진강
박영수
갈무리
##토이
알파카
의뢰서
루벤
구본
매킨토시
폐활량
카사바
주변기기
##배사
금년도
눈곱
인골
봄비
##디안
곁들이
##교육학
##셰
서사시
##곱창
##봉지
축음기
꼭짓점
이지현
독주회
집수
전람회
아쿠
강요된
##가락
반상회
##졸의
조리개
평과
농무부
##헨
전편
용접부
##내지
지극
항염증제
과립
큰비
다라
흡인력
메들리
가드너
향초
위례성
호흡수
아테
염주
웰터급
울산항
미니멀리즘
##근처
##반납
접수창구
##메뉴인
부성
세시
브리지스톤
박서
조재윤
최원석
결방
방수포
화생
##라이언스
갑절
##리바트
졸참나무
류화영
양세
정윤종
미즈호
영랑호
낌새
종적
##지아이
일개미
전무후무
로운
물보라
분규
이미경
정혜림
바리케이드
원류
##사주
장기용
한태
##산선
금진
##추모
##홍조
##임팩트
단교
백기
##심기
격납고
똘
도전기
부침이
광통
매덕스
이와야
벤조피렌
소로스
재소
##지단
소엽
공민
선심성
##상피
소지도
##관직
궤멸
##아이파크몰
##리청
갈릴리
