년
월
것
일
수
##년
그
등
때
중
사용
후
이후
개
말
번
때문
시작
미국
사람
세
경우
지역
일본
명
기록
위
전
경기
다음
이름
시
세계
하나
당시
뒤
국가
만
대한민국
차
활동
선수
사이
조선
팀
포함
위치
시즌
한국
현재
모두
가능
신의
영국
등의
내
정부
주장
처음
존재
중국
대
점
정도
리그
전쟁
독일
##군
호
데
##그
역
동안
자신
끝
일부
영화
문제
프랑스
발표
도시
연구
성
서울
아들
구성
군
시간
일반
곳
대표
주
작품
개발
약
명의
제
사건
세기
발견
등이
속
대부분
사회
대통령
역사
공격
가지
생각
감독
결과
##국의
나
전투
##대의
의미
발생
계속
대학
필요
정치
진행
관련
결정
왕
##군의
영향
이용
##와의
우승
게임
중요
##전
유럽
중심
상태
참여
관계
지원
설치
대회
##아의
강
##회의
##학교
부분
사망
이상
반
시대
기술
##팀
제작
지방
뜻
발매
##씨
성공
자리
국제
아버지
##월
회
등장
과정
##자의
교육
##시
이것
조직
조
수도
경제
계획
설립
운영
차지
집
음악
방송
분
출신
##이후
축구
형태
방법
상대
기
이전
소속
나라
역할
해당
##간
문화
결국
고려
독립
가운데
프로그램
##기의
모습
승리
상
제공
선
곡
해
임명
지정
구조
공식
섬
앨범
운동
내용
총
인간
표현
참가
로마
##성의
아래
여성
생산
전체
형
평가
사실
볼
데뷔
당
우리
유지
정의
주요
인
##중
대신
출전
동시
##일
장
천
군사
직접
연결
추가
시스템
##본의
마지막
##서의
기능
외
사
러시아
달
상황
자유
기준
뿐
프로
인구
시기
##대
##등
알
시리즈
활약
방식
진출
정보
후보
원
발전
그녀
이야기
규모
중앙
날
예
변화
공간
올림픽
##시의
##대학교
##위원회
배
대학교
형성
반대
요구
건물
산
그것
안
이론
앞
졸업
한편
개의
회사
##초의
생활
국민
초기
공개
##부의
목적
구
제국
건설
변경
물
개인
##리그
억
선거
언어
여기
초
비판
계약
##대학
공
최
결혼
출연
딸
대상
기간
편
##도의
그리스
관리
학교
도입
인정
이탈리아
책
최초
기본
세의
운행
학생
소련
노래
밖
인물
개최
##대표
수상
세력
남
골
설명
층
시절
실시
최고
##주의
그룹
제외
특징
정책
어머니
간
모델
##제의
##원
자기
대전
교수
선정
자연
열
조사
수행
지구
음반
손
민족
확인
법
면
분류
여자
적용
힘
마을
명칭
##차
증가
군대
의원
교황
비교
종
전통
인도
실패
크기
지지
거리
출시
사랑
사상
역임
철도
남쪽
과학
보통
행정
열차
제도
황제
백
노선
사업
월드컵
현대
종교
서비스
스페인
국의
기업
북쪽
개념
문
##시대
공연
대의
종류
눈
회의
작업
인기
이상의
마음
기반
컴퓨터
분야
추정
나이
이적
시장
우주
지배
몸
도쿄
길
차이
이유
적
미
##부
방향
연방
유일
정
효과
존
공동
담당
부족
환경
##단의
싱글
버전
전국
행동
수록
교회
선출
선택
능력
연속
길이
바
규정
형식
조건
지
동쪽
부
밴드
자체
국내
통합
차량
이때
발
단체
에너지
보호
신
도움
드라마
이유로
클럽
##트
최대
서쪽
관심
특정
칸
점령
예정
차례
성장
선언
권
판매
배치
개월
시민
패
글
선발
시도
가족
수의
원래
##교의
평균
주변
##르
리
주의
산업
난
야구
##수의
자료
언급
위의
방
##간의
특별
멤버
단계
부상
전기
기독교
연기
남자
땅
속도
현
최종
친구
동일
구간
##상의
##왕
지속
모양
구분
작전
##법
아이
##테
통과
최근
피해
달러
정권
노력
애니메이션
##명
가수
확장
사고
요청
##운동
영어
##후
편성
엔진
등과
작가
북한
쪽
북
과거
목표
강화
삼
선의
획득
부산
성적
조약
##현재
공화국
내부
승
육군
안정
명령
이해
##선
오
분리
원인
체제
설계
##지역
경찰
처리
지명
새
남부
입장
##체의
반응
머리
방문
데이터
배우
기타
요소
현상
지휘
##위원
준비
살
동물
의회
실험
고대
행사
연합
거부
부대
전자
##기관
함수
헌법
제한
발달
소설
파괴
뉴욕
디자인
패배
이곳
주민
혁명
둘
가치
바탕
경험
의사
분석
##사의
경기도
영역
기관
주도
복귀
영토
##만
마찬가지
기원전
입
화
제안
도
추진
행위
도착
이동
유
입단
##리의
##동의
녀의
해군
결성
나머지
폴란드
민주
은퇴
별
신라
득점
##고등학교
왕조
표준
##한편
성립
용어
유래
그림
오늘날
체계
폐지
##장의
버스
##역
프로젝트
사진
줄
지적
파견
캐릭터
지금
돈
전문
##직
인식
투수
후반
북부
해석
간의
게
##당시
스스로
통일
인터넷
거주
##대회
대중
정리
결합
정식
네덜란드
정신
##사
이듬해
팬
차원
죽음
승강장
문자
조정
물질
잉글랜드
김
임시
고의
정규
##정부
왕국
##인민공화국
키
접근
제품
기의
##식의
개혁
##당의
장관
논란
묘사
##선의
재의
성격
무대
##계의
장소
보도
지도
기초
##장
구단
확대
표기
체포
아시아
중단
병
상호
부문
일제
법률
대체
작용
일정
##명의
경계
소유
채
통치
판
정당
체결
수학
시설
연주
해결
표
권력
##종의
표시
제시
회장
도로
부여
대응
후의
활용
##곡
제기
캐나다
장군
언론
값
국립
출판
방영
파리
항공
번의
자동차
정상
실제
장치
##인의
여름
반란
총리
위험
완성
##어의
문서
##때
설정
집단
계기
기사
스포츠
공사
겸
평화
양의
소프트웨어
씨
런던
시행
홈런
직후
##초등
판단
반면
의견
조성
교체
밤
달성
부인
행성
문학
##가의
##관계
관측
##지의
##민주주의
##지방
##존의
철학
##미국
지도자
베트남
근거
가문
자
소리
국왕
금지
나중
충돌
상징
측
웹
아프리카
동생
종료
주제
타이틀
취임
상의
제거
근무
업무
작곡
박사
기자
책임
발행
집합
정확
본선
시험
공부
방어
특성
권리
무렵
##위
태양
무기
병력
순위
가정
기존
##정의
완전
실행
세포
인사
드
승격
수가
소개
초대
대구
강조
지위
기여
경쟁
만화
파일
높이
부정
수준
색
바다
불교
단어
적극
주목
치료
전의
도중
양
##날
마련
##수
식민지
아내
##키
##교육
##족
훈련
예술
전달
연대
입학
계산
차트
각종
##이것
나무
여
감소
근처
고등학교
발사
가입
분포
측정
인천
중간
##식
측면
공작
귀족
서부
개국
##구의
다리
기념
거대
개통
등록
배경
학문
형제
세상
조각
합류
보존
보유
작성
계승
번역
##나라
재직
남성
애
상당
스웨덴
즉위
교통
보고
촬영
##드
기회
##동안
건축
허용
병사
플레이
스타
##활동
공항
카드
노동
특수
제조
당선
의식
식
집중
중의
만들어진
생성
협력
##단체
혐의
장면
동부
해외
제정
##티
전략
외부
##물의
동맹
영상
종합
예선
붕괴
##소의
인수
원소
확보
학년
황
세대
만족
군인
오후
국회
##일본
경영
부근
뮤직
라운드
계열
해체
빛
학자
건
광주
##태의
##대한민국
투표
전개
기계
개선
현실
센터
##내
##의의
증명
코
동료
##과정
중화
목
##과학
##문화
경
비디오
궤도
테
강의
지식
유형
탑재
수립
대립
질량
귀국
채택
위협
살해
지상
위기
디지털
소재
해안
조지
마리
전환
##주
성과
텔레비전
비
##사회
지하
상업
침공
주인공
인근
사단
전력
##인민
관할
제목
무장
얼굴
미사일
라디오
월드
수사
대륙
녹음
연장
##대전
##행위
목록
요리
승인
단순
##급
청
코드
홈
##전쟁
아일랜드
##집
##중학교
시의
##법원
강제
오스트리아
본래
독자
##조사
식물
이집트
마이크
공장
##나
비용
이미지
가격
표면
명단
그곳
##기술
##조선
수정
##판
저항
자의
남북
##작용
##측
개봉
고구려
결승전
개정
외교
공급
양자
가톨릭
##한국
임무
급
면적
항
출발
원정
국
정착
회원
왕위
여행
##문제
자동
컵
비난
하루
지하철
회복
총선
화학
합의
유리
##안
온도
단위
항복
확정
예상
부모
##광역시
군의
검사
참석
##족의
쇼
등급
만약
종의
사회주의
장착
##관의
본격
선고
네트워크
코치
##특별시
밑
교
후손
논문
신문
##만의
동의
핵
그해
기원
구역
유로
지시
이외
옆
영
##사업
국회의원
삶
도의
양식
##협회
민주당
임
##센터
##속
만큼
정치인
노
경향
내의
바람
##원의
원칙
다섯
꽃
영향력
멕시코
전차
지점
기대
겨울
대형
향상
국경
##난
##골
추측
##노
은하
세운
진화
근대
폭발
않
투입
얼마
지대
자격
경력
보수
채널
거절
성인
이번
간주
지진
미래
편입
대수
유사
통신
전사
재판
주위
##세기
돌
공군
증거
##질의
칼
잡지
노동자
사후
장식
포
홍콩
초반
##연구
브라질
장비
왼쪽
계의
##량의
구체
##호
오른쪽
범위
중반
##형의
토지
조금
탄생
수입
공화
##도시
기억
천황
핵심
남편
수용
무역
규칙
음식
관
해방
학위
일원
광고
건강
##이때
위원
사례
##치의
진
교사
##민족
암살
투자
팔
미군
고전
##언스
통제
합병
집안
창설
전역
분의
개편
병원
계
비율
스위스
제임스
권한
신화
경기장
성질
피
폭
##시간
##국가
##회
논의
##말
단
절
##개
유학
견해
성당
각의
저장
출생
가사
소장
환자
##제도
탑
종목
잠시
하늘
개시
소식
구별
자원
##예
오사카
전반
해의
시위
노예
##일의
태평양
장의
방출
수여
량
관찰
주기
##왕의
전시
이사
##신의
불
##파의
시각
인터뷰
삼성
##경제
제출
고향
포기
장악
재정
영입
재산
##즈
승진
후기
직원
##방송
시인
##산
기후
내각
유도
매년
멸망
신학
체의
비행
이스라엘
대사
연맹
##교회
약속
폰
금
파
감정
윈도우
이용해
##여기
평
반복
하
계급
협상
대비
마리아
이익
오전
직전
##시장
저서
갈등
신호
성능
도달
##령
인상
메이저
숫자
반발
##당
봄
기획
##면의
기구
사이트
채용
출장
이승만
구축
혼란
왕의
농업
대항
뉴스
운용
디
톤
설
함대
##권의
이용한
함
##공원
러시
꿈
철수
대기
비밀
수단
일종
시점
요새
경주
슈퍼
핀란드
이슬람
순서
##정보
인민
분자
##선수
##회사
구속
숲
보장
종이
##천
효율
장기
안전
정복
보급
브랜드
극
##조
변호사
정비
##정책
역대
흡수
위원회
중심지
모스크바
챔피
법칙
일치
석
록
고정
외의
서양
하계
##공사
비트
보병
무엇
주교
신설
항성
인의
막
몽골
성의
다양
편지
우수
부임
##국
회전
마드리드
동
다수
필리핀
덴마크
##판서
산맥
터키
##하의
취급
윌리엄
##다음
위성
공유
관료
##법의
최소
범죄
명이
청나라
연
외국
진압
##사건
제자
예수
의무
조치
시에
##생활
차별
연극
출마
공기
무리
판결
부의
행
##개발
귀
건립
온라인
잎
수비
소년
발언
연관
처형
경상북도
번호
탈출
거
##미
임금
진입
동원
##장관
신경
반영
레
관점
질
##합의
청년
선생
금융
##상
오브
##영화
거기
결승
단일
입자
평양
##시설
투어
은행
스튜디오
##다의
오스트레일리아
관직
이란
군주
누구
성경
전후
이의
자살
척
극장
논쟁
플레이어
응용
방면
장애
##컵
포위
울산
파악
리의
술
물리
망명
탈리
명예
뉴
예측
생명
전설
옷
등판
창
##성과
플레이오프
루이
압력
선조
사전
오픈
엔터
유엔
취득
##시즌
루
사령관
합격
연재
한반도
가스
##관리
육상
아르헨티나
챔피언
##현
목소리
타격
교류
여부
함락
의도
폴
싸움
서식
상륙
대화
별명
기지
고문
하의
자금
편의
연합군
##이의
공주
박
주전
고유
사의
배출
에피소드
원리
##반
실수
주년
신앙
라인
폭력
대대
만주
미디어
##부대
부활
##면
수출
자치
토론
베를린
교토
전선
본관
변환
족
우려
논리
##구역
중화민국
명성
##산의
운
건조
창립
부진
공원
법원
금속
##철도
무덤
강원도
소수
보관
검찰
##번
제의
모드
##카
제주
해산
##소프트
레코드
분할
호텔
신성
##의원
나치
정체
의존
이닝
좌우
털
개조
의지
##후의
##기간
기도
하위
##연합
서버
수원
요한
빈
민간
솔로
##여자
르
공산당
금메달
유명
청소년
##역의
사태
출간
포로
분쟁
워싱턴
사장
흑인
오스만
가을
유나이티
한때
##세계
고종
##문화재
##토의
스코틀랜드
협회
음력
소녀
수술
유전자
##공화
##고의
소
아침
죄
전공
전라남도
도구
외국인
둘째
전화
대략
충청남도
##점
명명
부하
제어
아메리카
직업
실질
신분
위원장
미터
##자료
전파
인종
직
주관
걸
사임
악의
앤
문화재
##파
대가
양성
##물
지급
##코
군단
상하
둔
시티
인권
##현의
꼬리
라이브
##비
현장
악화
##반의
불법
경상남도
베이징
완료
천체
오랫동안
가담
의혹
목사
중세
상승
암
취소
절대
분열
태도
화면
##상태
소비에트
발발
헨리
##그룹
##학자
##백
조작
어린이
전부
구현
위반
급제
교환
스타일
##임의
요인
실현
시청
유전
추천
에도
말기
교의
편찬
신체
전용
미술
손자
동작
변형
의심
##오
##그녀
영업
엔
항구
단독
##구조
쟁의
지은
위상
구원
추구
##일반
전면
자녀
완공
항의
벡터
조합
탈락
##연구소
선전
한국어
본인
처벌
순간
단지
주둔
개입
생물
창조
항공기
출범
의학
##조직
콘서트
벨기에
범주
##용의
확립
장교
공헌
상품
사형
작곡가
연안
충격
여론
카메라
인류
수집
윤
헝가리
의장
원자
건국
거래
성우
운전
백제
포지션
입력
기둥
무게
로켓
신뢰
##산업
메모리
육
해상
백성
무시
태풍
장르
계통
서명
송
투
본부
전형
##경기
영지
오페라
고용
침입
농민
명나라
지의
##초
공업
##선거
침략
보안
학습
시호
공공
그때
어디
공포
구성원
##리
세종
참전
방해
주인
##우의
##형
서
문신
##체제
문헌
연료
집권
분위기
호수
희망
재료
흐름
유적
의료
발탁
##번호
시내
##음악
포르투갈
##중앙
백작
최다
승려
민
한계
불만
확산
나폴레옹
박물관
복무
임대
마의
경성
역의
터미널
전문가
##관
부부
캘리포니아
마무리
자식
벽
조절
간행
아무
신자
활성
공산주의
한자
정지
훗날
진보
히트
##학과
글자
구의
##데
중인
개체
도전
당나라
주력
창단
순수
편집
박정희
사항
통상
준
##츠
병합
특이
##계획
프로이센
##본관
하느님
초등
카를
##분류
저술
##서울
대선
연구소
양쪽
정기
발음
예산
불상
동계
중부
타자
산의
시리아
조선총독부
일시
출력
보물
신인
신청
시조
##중국
상위
선임
격파
혼인
개설
저작
진격
호의
소스
문장
소비
왕자
기체
성분
모형
히틀러
감염
##의회
##문
한글
발굴
피아노
##영국
어깨
##프랑스
가게
고통
일대
수소
##폼
프리
타율
구입
변의
탈퇴
안타
절반
연간
티
인조
어려움
개칭
재학
경로
조조
##업의
분노
변수
복원
##결국
본질
##마의
통산
현지
자극
징역
##도
사퇴
##세
확률
지붕
전원
단백질
장남
가량
미국인
저
기법
승객
##지원
등지
##본부
설득
합성
작동
아테네
인디언
개신교
원작
임진왜란
인접
포인트
보컬
제사
유대
홍보
한정
우크라
독일군
접촉
점수
허락
협정
인용
위로
이혼
방지
와의
테러
##정치
노출
절차
막부
##사이트
행렬
허가
##병
현역
물체
손상
즉시
##조의
유행
사제
민주주의
화가
보조
묘
과학자
방정식
건의
##기
적의
태조
##사단
후원
원형
롯데
진학
##련의
고도
실력
축
부담
트랙
플랫
추기경
주간
균형
화물
전철
가설
무료
##대상
밀도
처
기소
##국제
영웅
향
관여
##독일
대개
메시지
바이에른
동기
학살
주연
로버트
임기
한국인
기호
정원
일본인
이라크
업체
리더
검토
만한
##방의
##전이
중력
추방
속한
##심의
합
탄핵
평등
타이
##우스
사법
수송
##능력
##쪽
후계자
프로듀서
##연대
##동
모임
##대학원
약화
탄압
예전
투쟁
생존
소송
일상
조별
수리
알고리즘
선포
타이완
아시안
날개
질병
##시험
사정
증상
움직임
감시
바닥
화재
아카데미
상원
수치
관광
##시리즈
베
김일성
속의
##역사
정차
참고
집행
일본군
업적
##고등
후인
프리드리히
풀
강점기
습격
마이클
재건
변
축제
먹이
마크
##황의
공통
소집
##개혁
바이러스
사냥
철
분해
조카
유물
총독
로봇
##병원
연산
각지
뿌리
너
석유
사용자
블랙
##연맹
쌍
##단
소멸
이중
개방
드래프트
개량
닥터
상실
고급
대량
민중
트레이드
이온
아파트
칠
도덕
결론
##소
유효
##세력
##공의
##스키
##남
작위
긍정
근본
칭호
##기구
물건
##처음
유대인
도서관
찰스
질문
수석
##문의
폭탄
십
화제
기기
끈
블루
광장
개성
김대중
스토리
단의
지향
레이
##예술
교리
로스앤젤레스
공로
맥
공동체
홍
서구
왕비
깊이
당초
갈색
혼자
뮌헨
프리미어
트
공무원
증언
세리
폐쇄
캠퍼스
메
##모의
이주
##등의
원년
살인
감사
##소설
루이스
##통신
전송
##중의
장수
전투기
그래픽
창당
지구의
궁전
##제
연출
덕
##비디오
사운드
에드워드
노벨
여섯
##위의
##가능
샤
수도원
테스트
전술
가슴
메이지
저녁
주최
##전의
제일
##화의
판사
준우승
빌보드
전신
단편
권위
##각의
공정
미니
전주
진영
수익
지형
통계
발간
강요
당의
##박물관
저지
##자동차
진주
노르웨이
타점
필수
유배
토대
##대신
손실
상인
계층
홀
가난
형사
신부
기온
축소
광
안쪽
팝
뇌
초점
중학교
발휘
##게임
올스타
재배
##지구
이벤트
백만
아랍
문의
서술
서기
식의
챔피언십
비행기
흔적
시신
개명
뮤지컬
지불
장점
사양
##공
석방
시카고
터
공중
암호
맛
추대
완벽
건축물
재개
용
개별
내지
비중
동서
종사
##록
##실
규제
전당
##례의
로드
파크
##행정
주택
할아버지
찬성
심장
세월
탄소
결심
방송국
보고서
##구
전라북도
거점
세인트
사원
대학원
백인
구멍
크로아티아
암컷
##지대
일본어
악기
##품의
보상
데이비드
경고
덕분
선형
##위원장
적도
라틴어
목숨
수업
뉴질랜드
할
바위
처의
이내
피해자
강등
##세의
형의
선박
숙종
조의
베스트
##기업
페르시아
##바
심리
자랑
물의
형상
대다수
##버스
디스크
천만
##부분
중지
##은행
프로그래밍
국적
수십
느낌
맨체스터
번주
내전
태
소문
고리
탓
베이스
사기
트리
수요
부탁
##방
미드필더
법의
입대
주한
##나의
벼슬
인증
도쿠가와
##이론
##결과
마감
쿠데타
자세
인터페이스
아이돌
##장치
대결
광범위
고속
고등
착용
답
별도
실점
후임
터널
의문
##오의
흰색
정조
극복
학술
차단
성향
태종
동방
브라
최우수
여왕
감각
전동차
산하
##부문
정면
##브
실천
춤
심사
언덕
호소
클래식
연락
##민의
사과
잭슨
##값
사무
작사
##삼
##청
삭제
##스타
라틴
사찰
본사
국방
주소
##감독
##제국
산소
직무
##미의
구매
녹색
무릎
선로
보편
기병
관계자
배포
결의
행복
진나라
듯
천주교
##교수
##업체
혼합
압도
주식
새끼
촌
고양이
심판
복수
혁신
주가
실
변신
인쇄
애플
문과
인생
계곡
후퇴
##량
소형
기용
##투표
선교사
골키퍼
오류
출현
초청
청구
원주민
배열
##때문
자이언츠
##학교의
검색
##향의
유통
소위
철거
##유럽
연설
열매
의정부
종전
사도
주지
예의
페이지
자본주의
이념
수컷
물리학
감옥
수준의
##성
재임
국정
아티스트
일환
레알
복합
무력
용도
법학
태국
문명
등도
집필
선호
윈도
##인
왕실
재능
희생
군수
만의
가의
세트
지휘관
영조
호주
전제
충청북도
##인과
처분
##사상
기갑
법정
비례
보스턴
이웃
조화
##동물
명시
통화
접속
액체
승강
파워
방언
성직자
대칭
빅
주식회사
##공학
##사령부
예비
##계약
관객
대로
지리
세부
세금
법안
##배
인지
진단
가상
조상
전직
아동
사신
기부
석사
짐
선물
생애
타원
나의
이하
하원
##것
야당
상처
##체계
##비의
빌딩
영구
타입
##격의
리처드
연습
늑대
힙합
##학위
##해의
수백
전향
운항
간격
줄기
강도
구름
국제공항
싱가포르
패션
화석
토벌
웨스트
골든
신고
벨
매각
돌파
##석의
매장
라이트
가공
회로
구글
서인
##부장
인원
공세
손해
쇠퇴
프랑스군
보
프랑스어
평면
봉
글로벌
연계
조지아
저자
지칭
##문학
주석
##작의
라이벌
성씨
분산
진실
일행
반도
질서
레벨
##신라
평생
새벽
화산
토
교향곡
선거구
약탈
##하나
농구
##강
요미우리
남아프리카
활
매
바깥
정치가
내셔널
##지
소비자
혼
##종
고안
##암
간부
청주
당신
대한제국
사자
그리스도
선두
복
창작
반의
학사
불안
개장
하우스
##스
고객
전적
총장
봉기
일기
투구
##특별
##법인
부지
추적
반사
오스트리
모의
##방식
##처
식량
박근혜
테마
해제
##교통
유비
유입
포트
유용
##체
소요
모바일
총재
아메리칸
주문
상소
소화
억제
정교회
중시
인도네시아
십자군
독점
심
독립운동
교역
스탈린
텍사스
대장
흥미
인공
##이사
세로
##시스템
권유
대우
매치
철학자
호환
올린
사유
진술
집회
구상
식품
##디
예외
부속
슈
피부
잠수함
##대부분
##신문
그래프
측은
호조
##후보
##강의
첫째
대법원
프로세서
서방
이민
도모
##마을
공산
하사
역과
체험
화성
주류
평소
루마니아
그리스어
##학회
부친
사막
원자력
##색의
김구
사촌
##청의
##양의
환승
후속
스승
일자
자본
현존
와중
북미
레드
음성
발명
##주의자
세르비아
오토
곡선
##실의
홈페이지
##앨범
정통
유발
수직
클래스
문제점
##대사
마법
수반
동해
회담
임신
영주
부장
기관차
##레
##부사
반환
##길
설이
이행
입증
촉진
극단
##범의
##작전
##포의
스크린
개수
타임
참조
국방부
다이묘
매체
영감
측근
항공사
##경의
초래
색깔
노무현
해양
정수
조항
여객
홋카이도
무산
탄
착수
퇴각
납치
신하
영혼
비잔티움
신임
종족
현의
##학원
##우리
권고
원수
당국
자가
쿠바
배제
쌀
색의
불화
밀라노
한나라당
카
하나님
분화
적색
지목
##분
##절의
##군수
셋째
##십
삼국
순환
믿음
복구
가로
요코하마
협의
매일
##터
원시
대답
대만
일곱
##손
파운드
가속
국도
글씨
재생
콘텐츠
##전문
##열차
댄스
대령
레이다
##설
탐사
시사
판정
경상
공학
대공
유닛
전류
농장
##행의
원의
생물학
태양의
서적
토마스
업데이트
주체
산지
##링
삽입
낸
화이트
입지
경유
합동
스테이지
해임
동양
##환경
공룡
밥
##인구
하드웨어
메리
메인
특급
경전
##재의
샤를
광복
재즈
출입
압박
##초기
정계
로스
겸임
포스트
동치
부품
침해
귀환
독재
##속도
앨
바르셀로나
마케도니아
음악가
유기
항목
좌파
##호의
##국장
##분야
심의
추증
지름
시가
항해
식민
옛날
이명박
히로시마
##타의
동인
베네치아
토너먼트
조선인
묘소
브
코미디
##칸
펜
##원래
##이전
루트비히
##톤
적응
반격
중계
강전
미분
교전
의의
수감
성벽
##방법
곳곳
원조
니
자손
##학부
루수
왕족
상주
훈장
사격
태자
수영
##편
명문
간섭
친일인명사전
사립
지연
##일부
커버
이조
여동생
해리
몰락
언제
인치
##민주
상수
고지
##공업
동영상
수장
번뇌
스미스
플
아마추어
책봉
공전
##신
정벌
소규모
차체
낮
발의
패턴
##보도
수천
잔
##왕후
자매
띠
##약의
밀접
##발
공략
##작가
사적
시체
오디션
오늘
수학자
코너
중대
중동
여인
##참판
##공간
국토
스펙트럼
복지
원자로
추락
리눅스
예루살렘
유고슬라비아
랭킹
피트
구사
가질
모
기재
우익
##아래
올
총회
당한
압축
제약
##공항
입법
부동산
스타디움
빵
곡이
불가리아
호평
마틴
틀
티베트
은메달
운송
망원경
코파
나폴리
소의
##거리
가구
성균관
##물질
연루
블록
포맷
해설
관중
##송의
진군
##영의
##프로
##만약
문인
##최근
포항
##쇼
패전
##카드
황후
##포
자유주의
항일
멸종
독일어
역이
파생
입구
유한
동전
이탈
한쪽
##세포
타워
량의
##축구
잭
##마
고기
이래
고조
강점
브라운
경제학
리드
메달
학부
법인
대조
##로스
서독
모집
##목
무한
스타크래프트
양국
##사이
특허
레이블
약물
사령부
미사
재단
##기원전
코어
칠레
조종
알렉산더
남녀
아르
방위
##무의
지휘자
이날
사면
친정
친일
본토
농촌
##속의
기념물
##분의
엘
상속
개발자
개업
서울시
##야구
여객철도
강릉
기점
중립
##보통
추격
##책
내장
용인
비상
부유
##존
신장
단종
##게
##장군
순
##병의
##누스
##공화국
##경찰
삼진
무늬
해발
룰
##렌
신칸센
##역학
동굴
##재판소
##아버지
특유
델
천문학
##총
캠프
##스리
##섬
통로
휘
방안
안의
가르침
디젤
아이템
커뮤니티
##검사
유산
콘
존경
개막
분배
합리
##우주
##터미널
여단
직위
촉구
고속도로
주니어
옹호
엘리자베스
##결정
존슨
승무원
##생의
성서
##로마
아프가니스탄
게재
판매량
애플리케이션
흙
문법
아이디어
데이터베이스
프로세스
비틀즈
대책
좌석
국장
시집
입사
투명
주재
전망
발효
동메달
검증
경남
수비수
전북
단점
얼음
황금
상관
증
등장인물
보잉
##품
친척
부패
프랑크
좌익
청와대
궁
창간
##님의
분기
가톨릭교회
완화
##작
##이듬해
사우스
윤리
별의
무사
쇼군
동등
교장
예방
액션
야기
이은
##편의
조기
독
개척
물고기
##반면
주어
##자치
의석
기습
부서
폭격
민간인
제주도
전승
##풍의
훼손
국군
무죄
음모
##회담
곤충
##외
착공
의거
유신
사당
환
권의
국무
당원
상임
뼈
##도로
회색
자국
육성
흥행
##선이
무슬림
의병
후쿠오카
얘기
왕립
호칭
동반
색상
마친
다양체
운명
돔
제수
과도
연고
빅토리아
사료
혈액
##조약
음
오케스트라
랩
채로
할당
진리
자바
호흡
고위
벌
오염
규슈
민족주의
녀
전남
차남
효소
서원
중기
검
캐
##서원
공격수
충족
표본
임의
부처
각본
포르투
회원국
원나라
목격
최소한
고립
별자리
지지자
##보통학교
시계
모순
양산
좌
침몰
##글
연령
요금
근육
아트
##기록
일화
복사
정적
식사
몸무게
하와이
##탑
해전
동경
거짓
##의식
##혁명
바이올린
여덟
그동안
그랜드
인자
고시
부통령
샌프란시스코
증기
로즈
##션
간접
산화
지중해
해협
문재인
관광객
전두환
융합
푼
소득
##사람
개찰구
수명
##기능
유역
주자
국기
소설가
농
나고야
앞면
세조
화폐
##그것
대안
##차량
웨일스
##사고
학원
체코
척의
근접
유니폼
##크
운반
톰
칼리지
혜성
벤
점유
##동맹
파동
어워드
배정
##좌상
##정당
동지
생태
천문학자
충성
대리
불편
매력
유의
전장
북서쪽
반박
동독
게이
지사
동화
이사장
##러시아
사헌부
##학의
득표
하드
폐위
기하학
##회장
편곡
탑승
포수
##쟁의
계수
##리스
착륙
지표
장인
##투스
주일
리버풀
인력
숨
섭정
틈
용량
비즈니스
편리
##종합
자발
저택
크로스
한동안
##폴리스
철저
김영삼
지분
가시
오리지널
센트럴
부위
출구
진동
각기
에이스
병조
후일
내륙
휴대
역설
걱정
류
중점
탈환
대주교
전함
리듬
사직
파키스탄
중추원
사무실
독립운동가
중국어
주축
유출
효력
유치
발전소
존중
안동
##그해
프로토콜
과일
구장
공국
##시절
용기
외곽
여신
무선
피터
취지
존스
##시기
성모
영화제
실내
롱
부과
격퇴
킬로미터
주파수
수상자
치열
말의
입문
##자리
콜
지각
안장
친
자전거
목성
합계
준공
연구자
스페셜
##현대
송나라
이에야스
모음
##건설
승부
구동
실전
##지도
파트너
공적
디자이너
##부인
전임
더블
협조
신사
발족
##설의
완
스파르타
프랑스와
##내의
킹
유소년
룬
재무
##광역
##장애
광년
국민당
렌즈
##층
포괄
각국
##외의
엘리베이터
종결
##보호
고교
동점
노비
복제
##레스
자회사
##한의
##양
##스와
##기압
##아메리카
에어
소환
견제
발현
알파
상영
조명
표명
분지
빌헬름
##연의
본명
자율
낱말
양도
주립
거행
버튼
음원
연애
멀티
항공모함
석탄
##투쟁
승차
##방향
화합물
실업
연패
통칭
제휴
보험
학파
계단
속성
카페
노인
신전
눈물
유인
##진의
역전
대원
##베
금액
고베
##철학
도서
##보험
필름
후지
손가락
자문
핀
##카이
팽창
선교
퍼센트
하버드
비서
산악
##작품
욕
전념
##싱
질환
조언
전진
부착
천문
사망자
커피
병행
직선
도심
지수
모토
##시민
##학생
##녀의
대사관
규격
장편
보건
트럭
출입구
번지
방침
스마트폰
시내버스
담배
##효과
광산
천안
보충
소실
##환의
낼
리가
침
남동쪽
##협정
설비
당사자
##스가
주지사
군부
기독
선이
모방
사이드
관습
단장
창건
퀸
메탈
##발전
고발
토머스
액
점프
대지
제독
전례
인연
마일
##처리
##통의
당대
전압
##서비스
##고려
응답
부흥
성공회
표지
##인간
승점
##부가
##공장
생명체
포도주
공과
양상
인디
기름
##모양
##술의
필드
셋
고민
감지
보스
모듈
캐스팅
출산
영원
법령
##연구원
출토
서로
##전선
다운로드
달의
코스
야간
남인
르네상스
서식지
어의
행적
베타
차종
바오로
구제
##이름
우라늄
자산
과목
시청자
공인
이동하
##표
페리
##색
억압
바가
일족
휘하
##군사
유교
정자
페스티벌
과제
며칠
시상식
초의
캠페인
##정
교섭
이틀
##학
지역구
당일
확신
##너
해명
##사항
놀이
생
사무소
##주요
경비
##스테이션
엑스
##투
강과
##공격
요원
##베르크
궁정
필라델피아
중장
해소
선과
##북
대처
우주선
##항공
##쓰
##작업
모래
닌텐도
텍스트
##뒤
잠
크림
수습
디즈니
필
락
##톱
오다
관장
한강
거론
성명
굴
포의
강연
선종
기종
외계
도호쿠
날짜
투옥
파업
좌절
강수량
전하
우세
병역
연주자
각자
컨
중순
밀
협약
하인리히
노드
신비
##조정
전성기
인터
포격
##여성
남서쪽
업
연평균
케이블
시나리오
나들목
선수단
누리
제작자
오빠
입당
아기
안드로이드
대외
비극
교차
환영
파티
치세
##화학
##들
공자
섭취
판의
##도서관
부당
##자원
하천
##칼
핫
중심부
드라이브
급행
한
부자
##복지
##시티
친일파
##쥐
품
##업
섬유
북동쪽
개막전
말씀
십자가
##과거
제압
보완
##판의
갑
체
목조
명령어
디스플레이
농도
무승부
##금의
인재
서의
시드니
카이사르
성종
##행동
박탈
##단위
##극장
##당과
정밀
바이
##조건
예언
생일
버지니아
링크
마케팅
별칭
프라
##오늘날
봉사
스핀
사명
의상
##나이
시칠리아
##사가
##언의
미쓰
골드
차기
노트
소닉
##정권
##달
번영
##벤
영광
##집단
협
스톤
고체
플로리다
유튜브
힐
빌
성사
향년
시초
첼시
가요
기동
하부
긴급
칭찬
서자
참가자
업그레이드
##협의회
출판사
##슈
수령
##랜드
국무총리
감
##리가
자기장
스티븐
설의
##현상
루터
취재
장사
라이선스
구출
블랙홀
개관
추모
에스파냐
숭배
마찰
일요일
남아메리카
조류
향후
상부
실시간
평야
평정
모험
매주
##사실
체육
##정도
기생
동성애
크리스
##기획
술탄
앨런
강사
축출
우위
불리
육체
##쿠
두산
대승
배급
레이저
품질
##아이
생전
동아시아
족의
양키스
최대한
연인
직책
연승
환상
사거리
리메이크
기업인
##에너지
진급
##풍속
주권
경상도
전작
유해
혁
##부로
부호
보전
인텔
피신
##철의
블
중재
수면
탈당
명목
한양
용병
일방
##주식회사
라이브러리
##전기
##해
훈
복장
##열
심리학
##술
역학
서울대
##토스
##피
합작
성리학
변동
포드
##규명
숙청
배터리
월간
오디오
로고
카운티
##함의
경의
임용
서브
경선
파장
셈
후방
##애
건축가
호남
횟수
컬러
교구
##본래
감행
마르크스
##수학
##회견
의뢰
##전문학교
동아
연세대
평론가
협박
무인
수평
유저
기타리스트
세이브
차이점
상무
도주
묘지
책의
트위터
##올림픽
히데요시
긴장
베이스볼
상당수
연상
번식
##캠퍼스
실용
##생산
공의
##팔
악마
아웃
열정
몸길이
촉
게이지
박해
##레이
영의정
앱
브라우저
공직
식당
후궁
왜곡
배후
회화
커널
난민
적자
정서
마이너
비오
화살
기단
##자책점
고백
황태자
대의원
##건물
증대
철회
결혼식
평원
##종교
유죄
실체
##신학
적분
스트리트
관통
크리스마스
공산주의자
문양
주행
보일
경사
등재
공습
복음
우호
콩
다큐멘터리
##텐
바티칸
한신
매출
##미술
##훈련
추상
##소련
동아일보
베드
작
이민자
지혜
정류장
허리케인
유력
기적
첨가
풋볼
휴전
##면적
경북
녹
오해
원주
학
사위
사물
비평
야생
계절
엠
소프트
패스
##민주당
##기사
##천의
단행
통증
메이
천사
공의회
기가
성남
신념
##사우루스
포켓몬
직장
예술가
상류
총독부
신도
상자
##기독교
플랫폼
협주곡
보좌
집계
##노동
현금
언론인
연봉
폐기
조선일보
선비
등용
##내용
북방
존속
##아일랜드
옹립
추세
관리자
초과
##친구
자택
기인
##계급
이토
총선거
피에르
##김
나열
초창기
잠재
##진
장거리
한성부
포도
주사
대포
축적
베르
봉안
고개
총괄
초상화
학교의
리스트
지폐
소금
수렴
무
낙선
화해
블로그
문하
대군
창원
##전체
몬트리올
원고
마력
지식인
제후
예조
인격
악장
##코치
논
회수
##수사
팔레스타인
탐지
##전투
리투아니아
승부차기
##투수
이슈
단식
소유자
##약
재위
##운영
가마쿠라
캘리포니아주
둘레
입성
##온의
가동
왕가
전인
외교관
적대
곤란
사가
합법
트윈스
아르메니아
대두
잔류
신규
바퀴
둥지
까닭
위장
근원
대왕
가군
소지
한화
스페인어
우루과이
오스트
고수
용의
나선
그날
작센
##직의
급진
##불교
마쓰다이라
소니
마약
객체
이제
자치구
테일러
윤치호
위임
관념
내정
##청년
상하이
옵션
사상자
매입
가짜
디비전
동위
최저
노란색
추출
##무역
목포
화장실
너비
만남
통근
축하
##레일리
##위기
장려
콘크리트
공신
홍수
엄마
블루스
##전화
함유
비평가
답변
봉쇄
##인도
##대책
소총
주말
##협력
태생
동형
##공신
수용소
소재지
이산화
범인
스타리그
중종
##밴드
판타지
##교
재현
기수
테니스
공조
안내
컴백
누가
중국인
승계
쿠
장갑
과장
물리학자
석조
밝기
행정부
체류
통
뒷받침
아벨
개종
전이
##국민
결함
인형
연고지
설탕
입각
##트리
이성
암석
설도
뇌물
질의
최신
선원
침투
할머니
스카이
신학자
도메인
##금융
##갈의
대패
학업
상대방
상장
프레임
탐사선
자유당
참모
어휘
빌리
외모
통보
성주
뉴턴
중구
##평가
해고
왕복
백색
누이
##부르크
##중심
정한
호출
##니
레이스
직면
유언
##라인
거지
장안
폴리
이성계
세례
##코스
비유
내리
재상
연산자
폭행
##함수
앙리
스키
날씨
레오
퇴장
노조
실종
위주
성숙
비밀리에
사관
준결승전
##업무
허브
동성
말레이시아
##전자
암시
##동시
러브
세계관
폭동
##시청
##명은
란
동년
싱어
오프닝
드럼
바깥쪽
구절
료의
재혼
핵무기
형조
현종
테이블
껍질
##승
총대주교
구리
게르만
함선
##재단
이스트
누나
포크
반경
퍼시픽
가신
대위
비문
중위
와인
명제
평행
구릉
두루
##프로그램
주거
응시
폭로
정렬
##여단
가죽
지류
서북
루트
시범
##공주
탱크
미션
엔딩
톱
야구장
영리
##요소
조국
징계
##준비
선배
타운
거울
소통
국어
##항의
##돈
면역
쌍둥이
파트
취약
##기본
기아
바둑
음의
포장
면의
스쿨
어원
갤럭시
주역
짐작
참
대학생
흥선대원군
##뱅크
몽
송시열
누군가
##예정자
토요일
체코슬로바키아
##정신
##살
##관찰사
여당
표방
##선과
위쪽
##육
##앙의
선사
##읍
부천
학과
갱신
장례
황실
풍경
페루
성취
##양식
센서
저기압
대손
수호
스트레스
라이온즈
구축함
피렌체
##헌법
밀집
##표의
서열
##독립
##스카
석탑
혼동
솔
##기준
신속
서일본
##자금
##황제
스피드
미만
론
우측
냉전
위나라
닛폰
테이프
기상
북아메리카
책임자
실망
정해진
게스트
홍문관
대변인
삼각형
등극
부도
고가
동사
단절
일반인
바르
탐구
시골
링컨
##항
윌슨
중의원
혜택
프톨레마이오스
패키지
동일본
장이
기각
벌금
드라이버
철도역
기고
쇼와
먼지
행진
광학
뒤쪽
조달
##훈장
시선
##지사
##형태
축조
도요토미
중성자
##인사
궁극
후한
타이거즈
##욕의
##열의
언니
밀란
동참
판본
린
허리
##경찰서
고원
배신
반지름
##대가
돼지
뿔
리만
발레
##하우스
코트
세자
사인
제트
예능
근
박스
댐
##재판
동북
구호
##운
정립
명사
순조
윌리엄스
##목사
##행사
국소
교외
셀
상단
동력
수지
신이
양주
연구원
마스터
패하
술의
##의사
샘
나이트
이순신
직결
상상
아랍어
원전
공립
##엔
부재
돌입
통행
최후
캄보디아
타인
허위
입원
단원
레논
정점
물자
베어스
머신
구경
문구
디스
교원
##눈
##이곳
##자유
##비용
##화
후대
텐
잘못
취항
중독
마리오
링
##린
초연
품고
치명
##델
환원
##모델
사살
사사
업계
피난
꼭짓점
##의학
고무
매니저
정전
성체
##판사
노스
##도쿄
보살
##테스
##강점기
##동당
상용
용서
포유
리비아
감안
키스
탐
조종사
제대
부피
상경
진전
서유럽
보인
두께
성도
##의장
모서리
상점
추종
##조치
##가치
퇴역
읍
규
방패
##고대
하락
##단계
부시
풍속
젊은이
경성부
집결
##단과
하워드
뮤지션
##달러
##노선
오키나와
한인
어른
이글스
충
노론
일조
##변화
##협
한의
해역
일명
격
영국인
혜
북동부
강풍
북위
코리아
##어가
좌측
저하
아스
##클럽
전한
생략
##첸
효
휴스턴
쾌속
호응
위탁
심화
석의
##일제
뒷면
대치
발각
여지
거처
영양
나미
해병대
알루미늄
명분
##구성
알코올
오리콘
시드
시위대
체력
고
세균
##반응
##운동가
천장
게이트
구조물
발령
노동당
시가지
희생자
차관
목재
##부에
##부산
지능
필립
경신
시공
진정
스튜어트
첩
청원
딘
##검찰청
입수
##해방
만료
##스로
해변
유네스코
분광
##창
건담
##맨
폭스
케이
헬륨
상공
부회장
아서
##기지
구도
흉노
토의
도루
##태수
##안전
오버
유로파
선행
연의
렌
꼴
혈통
장례식
함자
만세
당수
타석
##분석
##디의
다이아몬드
지주
##운의
제네바
##폭풍
포병
공익
치안
##스페인
경과
교황청
##송
대웅전
제곱
파문
몬스터
배려
아나운서
##앤
발급
일생
친분
중성
보복
##틱
##진상
##소리
##영어
단축
연도
외무
일가
여파
##공무원
##상황
##제작
무실점
수신
진상
##틴
사슬
표기법
인과
파라
특권
##불
양반
연합국
여진
수군
##관련
대행
동성애자
임관
외야수
매카트니
##책임
고고학
메트로
##헝가리
일의
분량
광해군
도장
세이부
##홀
동남아시아
육지
호랑이
설치류
막내
공용어
마녀
네이버
아돌프
다케다
##듀
일부분
##수가
신용
상대식
충청도
##박스
특색
보스니아
기증
##마지막
아사히
성전
중도
라트비아
순회
모자
##본명
##가족
극장판
칩
중추
러시아어
회계
내기
이상한
마산
유니
서신
지바
인테르
공표
쥐
호모
출가
창출
##준의
##절
데이
에릭
도어
예배
##아들
프랑크푸르트
그레고리오
##모토
세션
만다
토양
독일인
가열
베네수엘라
##경기장
면제
모인
세속
원반
법무부
투항
무효
고양
택시
콤팩트
벽돌
후안
슈팅
운하
소령
챌린지
파병
오른손
꼭대기
기슭
키보드
컬럼비아
##유지
서재필
히로
상연
트리플
수색
남한
시뮬레이션
플라스틱
프로게이머
박쥐
다중
##징
교과서
왼손
배의
이북
동래
페르
중령
풍자
콘스탄티노
재선
방사성
##통합
공백
초월
오렌지
양측
갈래
##인민군
프랭크
이주하
##넷
군중
카라
단기
종속
노태우
부각
여우
호족
색채
깃발
해인
이이
##이번
탐색
기금
유동
멜로디
아인슈타인
복권
좌표
원천
궁궐
##플레이
시합
프랑
퇴임
욕구
거짓말
사라
청사
빚
식별
군함
멸
아이디
루타
니시
초빙
남동생
보강
##공연
연예인
약자
추산
원본
충주
자유형
칭
이슬람교
창의
콜로
##이탈리아
##교사
창고
명종
선도
바르샤바
배속
노부나가
그릇
파산
영문
이용자
연쇄
번성
##타운
아스널
감금
수법
무용
프랑수아
##햄
우유
스케이팅
##박쥐
북서부
캐시
일파
호위
민법
삼각
##경영
##쿠스
헤드
그랑프리
슬로바키아
##자
경질
폭격기
통치자
아종
다발
##극
운동가
수교
실권
가나
은거
결
출석
살의
정찰
공이
이자
경연
밀양
##차별
체중
##지인
교단
##시가
##라스
충전
##재산
스티브
전지
제재
##물리학
전날
극대
내외
직경
괴물
##저
흑
증권
강남
베이
맹세
파이널
누적
야마토
버
아시카가
켄
리더십
만일
런
개미
감동
노동조합
##샤
주조
거란
##움
##타이
헌신
##루스
나주
자전
사이버
횡단
이식
보헤미아
지지율
금성
##돌
콜롬비아
##자연
플래시
##공동
희곡
결선
##권
##실장
독도
방송사
수축
연호
후자
데모
##이상
기분
진의
요약
가축
원장
경찰의
중복
어둠
##콘
구형
설화
비의
##묘
탐험
왕권
소모
아래쪽
근교
채권
자선
시베리아
인민군
히어로즈
극동
스프링
만을
##민
미소
옥
##뉴
유격수
취미
몰수
요동
##주인
따위
##대에
##공파
필리프
알바니아
키프로스
##버그
##교황
카를로스
냉각
동상
##복의
워드
앞쪽
시정
무상
##대왕
##버
러시아인
부작용
분출
주주
압
분비
##선생
케네디
하차
비리
##언어
규범
산업의
##수단
폭풍
악
광역
##가수
진도
접수
대성전
동행
태양계
제국주의
##탄소
함부르크
거주지
부설
후반기
동조
결별
##영역
자들
##엔진
개소
계정
서민
조립
아홉
파손
##촌
미술관
반도체
투르크
수료
형인
냄새
##틀
진공
중일
약칭
##절차
##유부
명은
보석
센티미터
라마
우승자
##투자
미스
공수
인질
##기계
유닉스
두개골
임상
소원
극심한
외국어
##뉴스
광물
요크
생산량
패널
어미
서경
필터
원로원
##과장
##어로
치의
승자
전래
사범
다툼
위안
##포스
##대통령
맥주
지부
신원
토르
상응
탄도
나가사키
곁
박헌영
##마루
무신
봉건
당주
브라이언
국정원
##폴
##최
산란
국내외
간토
신흥
프란츠
즈음
##효소
마디
스마트
페이스
퍼포먼스
계열사
함정
##액
매매
에스토니아
입체
성문
수동
##형식
화력
맵
수중
천연
중엽
##기자
분당
##박사
회피
부가
정사
##치료
루프
##조각
신탁
신축
##석
##신경
아이슬란드
##동과
자칭
##사용
상금
##배치
북경
시마
고장
기병대
아리스토텔레스
##공산당
공약
넷
##거
메시
##선언
죽인
네
윤보선
관람
레닌
총사령관
받침
연못
자결
중형
기로
차출
##수도
반군
라이
구실
천재
전도
최상위
후작
저주
인터내셔널
역명
불린
비석
권장
동문
화의
장성
호세
어업
토니
스카
어시스트
찬양
##니스
전복
합스부르크
##옆면
긴테쓰
##등록
입국
순천
##팬
트로피
##노동당
우파
검정
곰
상표
컨셉
다항식
의자
남매
직통
뱀
서임
시국
충남
강원
능
안양
세손
##극의
당하
각도
기술자
통용
스콧
곽
##통일
연금
치즈
커뮤니케이션
##로프
##대장
황족
실린
이관
부채
클라우드
한족
취업
대피
##나무
##비행
총칭
서문
기와
복소수
학계
물품
##감사
천도
걸린
희
릴
하트
추
관광지
클라이언트
스폰서
천의
생계
삼성전자
##후기
개교
센다이
평민
##통
기저
만주국
항쟁
경찰관
##증
타구
신생
자제
남서부
타이거스
평일
삿포로
배틀
##최고
##밖
묘역
##저기압
캄
종로구
염려
표적
##데스
몫
페르시
차장
김옥균
공리
징
장기간
이복
구미
노부
마루
##환
성령
지붕돌
품종
##킹
폐
초신성
미키
##빌
##태평양
제위
시야
수년
##망의
응원
가미
스위치
한미
대변
##무기
옹
염색체
안테나
모색
중퇴
사회학
##시스
동학
예선전
##총회
산출
수성
신중
피겨
양이
##정상
변이
학설
포착
일자리
##역과
처녀
의결
청색
스님
온천
##전략
##명령
##보장
기량
권총
창시자
유아
증진
##미디어
본국
가솔린
##행
찬사
변호
포획
입양
관찰사
발칸
##드라마
피고인
교정
사무총장
싱
만성
##연방
엔트리
복용
인가
왕가의
방사선
청동기
남극
##가스
농사
##비시
코믹
##시인
안보
##미사일
##단지
도카이
평안북도
정변
실적
##공단
##록의
외관
번창
고사
가혹
##사령관
내무부
##그리스
듀얼
추론
페이스북
산림
##부원군
도망
수분
대승불교
분파
타협
입주
이득
동구
종파
선장
조반니
##턴
가족의
색이
모친
발트
##인먼
신민
어뢰
폼
중앙아시아
라이프
관구
기관총
센고쿠
베토벤
원산
##차이
와이번스
단층
원내
에디션
감자
규탄
##켄
김규식
국교
에르
방사능
모금
세이
사마
안토니오
정무
메커니즘
요시
산타
성지
쾰른
남동부
매사추세츠
궁중
회상
엔지니어
넓이
공감
소셜
##박
극한
김해
침체
##연합회
점성술
알리
##원장
##무대
선진
성운
##플
모티브
요정
모로코
한스
공모
성곽
장벽
파이
예하
##문자
휴식
방치
무제
서류
전년
파란색
##건의
인명
포스
회고
##룸
활의
카르
원료
##승의
발병
생체
옥스퍼드
자민
##소송
티켓
무함마드
##아군
후배
말년
##전국
##탄
복음서
하단
원격
뮤
근로자
##결혼
아폴로
케임브리지
##리아
겐
컨트롤
적료
인문
통의
영남
평안남도
증인
정작
넷째
이용객
##의료
그림자
랭크
##련
수락
디트로이트
매수
리틀
동정
##실험
헬기
위력
파울
청동
맥스
민정
소생
역량
사업자
교대
파기
애칭
##케
가계
가마
블라디미르
삼국사기
##상과
메뉴
숙부
여유
각
삼촌
원로
라오스
축구단
어드벤처
질소
##거래
##아프리카
아키텍처
중수
##제품
개항
부합
슛
##리우스
드러머
##요리
기숙사
산이
보드
적외선
남작
보이
##월드
중앙부
순교
미얀마
효종
파직
채소
아무것
천거
게시
단면
##전통
처지
양보
키예프
망
항소
근로
사본
할리우드
자아
##베르
사민
독창
말레
케플러
토착
인체
부사
##축의
##기인
비전
다저스
##성우
속력
기질
홈구장
##요원
군정
이치
오피스
골프
줄무늬
##사무소
##대대
##미군
안치
대북
##체육
격추
##종이
설교
시트
##악의
휴가
방의
작의
##봉
김정일
##시마
누
##가지
실재
국보
정세
##문과
##머리
##폰
씨앗
계몽
격자
병과
후지와라노
실무
검거
원숭이
프로덕션
공황
이단
저널
에스
전방
데이비스
상사
스카우트
홈경기
대규
마비
함경남도
수련
과실
연수
##기기
평판
대전의
단과
하노버
참의
시속
마닐라
활주로
대합실
아베
군사력
도스
창문
사우디아라비아
미나미
##발생
의과
준결승
맥락
치
포스터
윙
곱
비준
준수
조리
터치
바그너
초나라
대사헌
선구자
검열
아날로그
프랭클린
패러디
##대구
농부
예고
##덕
이빨
옥수수
케이드
프랑스인
히가시
후사
롤링
사간원
종군
토성
쓰시마
두려움
##딘
도카이도
다운
동로
지배자
방어선
폭파
아카데미상
반란군
립
담
관제
유체
대역
막판
청산
히로시
마
줄거리
##딩
제우스
실정
리뷰
사업가
##청구
##연상
대표작
납
##상업
##뿐
중량
검출
##쉽
##유적
번은
위촉
##비치
창업
연예
##오스
##미술관
사회민주당
소나무
감수
동유럽
명성황후
독성
절벽
부르고뉴
쓰레기
사영
견인
##연료
##베리
##핵
거리의
반지
남의
##회가
피로
요격
요건
일체
불꽃
바에
##미터
빔
##순
클린턴
봉인
##노조
제퍼슨
익스프레스
라이더
##평화
사안
생의
유방
컴퍼니
##인권
카자흐스탄
설립자
##장비
##입
차용
국영
##코드
단행본
법무
왕과
조세
앤드
추첨
##릭
성매매
유료
반전
##적의
붐
무과
준주
프로레슬링
탈
철폐
명인
##원이
배구
민속
지옥
유혹
##외교
핵융합
##앞
급속
헬
##규모
내면
고집
##집의
##범죄
시중
룩셈부르크
##본
##채
진지
볼셰비키
토크
돌격
##북한
민사
마라톤
빨간색
퀘벡
성실
##주택
연동
연장전
예시
미군정
수복
사라진
##망
성별
공천
윗부분
지출
로스쿨
전시회
컨트리
트럼프
가역
매개
면허
##아시아
스페이스
발라드
집의
지선
전락
첨단
관례
##변의
큐
레스토랑
유령
##블
유키
특집
약점
도리
로그
금요일
비주얼
실각
##광고
재활
##식물
##문서
채무
##송라이터
남하
임원
굿
케빈
##세자
가면라이더
몰두
지도부
##판매
강간
제조업
자음
트라
프레
지장
선제골
해밀턴
생존자
베리
##당원
레일
드래곤
##릉
수염
##스에
##이외
연한
유식
슬로베니아
장원
스킴
지미
스즈키
소극
사상의
##예선
##식품
##협상
##통치
이수
파벌
벽화
보이스
과시
징수
소자
배척
##공식
칭송
페이
벤치
시립
지역인
케이스
본문
심야
화장
강행
##지와
프로그래머
장미
##금지
수확
##잎
절감
풍
부리
음료
탈취
형법
소방
얀
##차트
오하
코호몰로지
장학금
모니터
점거
크리스티안
엘리트
구내
멜
로얄
한큐
전위
분수
후예
만이
지침
화강암
기어
사카이
##운동장
차르
더비
우편
극도
하프
##은하
신조
후속작
진로
##타마
플라톤
동네
빈곤
축성
주선
재질
##길이
지질
증후군
유생
능선
##윤
펑크
양성자
니콜라이
##추진
온대
러일
##체육관
조부
앨리스
유대교
소음
국외
모범
짝
솔루션
창원시
문예
공존
화자
채취
우회
사설
참사
일당
장로
중상
##페르
##둘
몸돌
##잡지
측이
롤
자란
비행장
카이
특사
요절
델타
히데
그대
안티
서진
##영
스톡홀름
동이
공민왕
##끝
##궁의
교양
##라이트
배우자
##인물
##저의
러셀
종식
복직
평안도
##케라
복합체
브레
절단
반성
생식
경관
결과물
##유의
##배의
교량
해독
범행
편견
발해
우물
전대
콩고
병기
가톨릭교
해리슨
##노스
집행유예
브레이크
정월
물가
모터
잠정
탑신
면모
보성
귀속
평형
춘추
선동
가옥
오르
역사가
춘천
나름
갈리아
##집행
연말
##이시아
상담
제작사
낙양
##박의
##당초
##평론가
도사
주름
사절
위패
환관
레온
침묵
##계열
게릴라
염증
##벨
알렉산드르
발목
대동
부수
곡물
버클리
알파벳
슬픔
배상
모스
동남
예약
에스페란토
도청
##전적
저조
##복무
유클리드
정화
수인
##언론
하인
버그
에티오피아
불행
서위
음향
크루
##넓이
이송
아시
오타
패밀리
형벌
갤러리
알제리
향토
천연기념물
사육
관문
발동
갑옷
재미
##결합
머리카락
정문
대출
재차
기상청
진수
다윈
자크
종말
신곡
##토
오이
해적
##자사
급증
헬리콥터
##소스
하노이
램프
연꽃
격려
##네덜란드
친선
마르크스주의
##광의
순차
요제프
##향교
마사
##펜
북서
강철
카스티야
구마
공식전
파의
네티즌
당내
##생물학
오노
남미
게시판
##국군
운임
타락
친왕
웨이
카터
칼럼
악보
당황
빈도
##명칭
##발사
히
동적
##조지
겉보기
관의
##비아
염소
두각
##억
리스
패의
소행
진사
가이
달걀
국제선
지상파
우에스기
이븐
마르세유
안개
부상자
주창
수열
군벌
##예의
플라
조롱
컴퓨팅
백화점
상트페테르부르크
좌의정
족보
귀신
여운형
한성
파일럿
돌연변이
자사
##건
파르
##남부
밭
도피
트랜스
조승우
헌정
복종
로마인
자비
##전차
법조인
##시오
전학
미하일
##배상
포털
교육부
주이
##룡
천문대
동요
##혼의
교차로
##컴퓨터
주차장
하로
한민
불참
보증
지인
돌기
아빠
##협의
모욕
##사인
특화
##리스트
욕망
사방
미시시피
우의정
전전
동맹국
여배우
##경기도
스틸
##회원
##필드
라이언
보루
잔인
쌍대
지면
열도
고분
바이트
심문
감성
래퍼
레드삭스
발렌시아
관련자
리치
##요의
즈
혈관
객원
해상도
정제
학회
표의
퇴직
취한
매진
대접
촉매
집착
##나중
평지
##만화
타수
퇴위
스트라이커
복식
출동
로저
특전
혐오
추서
간첩
제프
발원
난이도
무솔리니
칙령
아제르바이잔
##수준
척추
분기점
##출신
슈트
펜실베이니아
##유
급수
현직
불의
다니엘
광저우
##원소
##법률
앙의
노면
##영화제
루돌프
사이클
##기존
애틀랜타
보트
브르타뉴
독서
굴복
장녀
유능
마르
노르망디
##칠
일각
우드
의류
초안
혈압
랜드
소매
뉴캐슬
이용하
세습
애정
전격
##광
아라비아
도래
##통제
대좌
##텔
마스
여타
최적
##궤도
요르단
무술
색은
##사와
##구간
알렉산드리아
사쓰마
연립
##겸
오바마
위키백과
비타민
교도
사리
승용차
생모
바이킹
##스포츠
대성
주입
여권
소행성
신학교
스맥다운
화합
##사범
별세
도출
촛불
구와
에콰도르
관우
자서전
##법칙
부작
고소
##해군
종로
##목적
대부
전담
스테이션
수용체
가산
물론
복역
대지진
개원
외형
신약
##밀도
대에
##폭
주임
장래
##공개
쓰촨
맹활약
벨트
기차
악단
국한
자진
월요일
전반기
##자신
시애틀
왕세자
마오쩌둥
수위
위키
해안선
##원인
유서
고인돌
해병
##어
##처분
##부와
송출
신형
프란치스코
부제
뉴저지
##인터넷
미시
암흑
턱
고생
서리
찰리
크리스토퍼
화기
돌출
제동
주나라
아레나
강령
레바논
채색
종자
교구장
견
프란체스코
##코프
킬
맹
##배우
여학생
센
연대기
넥센
##기법
##국내
삼림
끝내기
띄
##장과
국호
협동
콘솔
예수회
신발
왜성
경쟁력
경위
주부
학기
강당
자유민주당
아틀레
##자기
규명
##격
쇼핑
포도당
##리어
겉
간직
##옹
간사이
장자
##농업
객차
상정
오프
화약
복위
로비
의사소통
판례
대한항공
스파이
야쿠르트
태수
피핀
이베이
체인
남원
연기자
백업
클리블랜드
룸
##시호
민병대
도르트문트
유성
대영
##최종
유포
데스
##궁
녹색당
곱셈
시외버스
충당
유학자
광도
##비뉴
근거지
관행
극우
##립
본성
편이
기념비
무관
리본
재편
용산
몸통
파시즘
묘비
##그때
킥
극찬
수차례
이례
다카
켈트
마우스
볼로냐
준장
믹스
시멘트
기관지
조장
주니치
두지
##사회주의
볼넷
카를로
포탄
방콕
##희
##철
기세
재앙
대법관
융
정치학
##곡인
숙주
##니아
위헌
면담
부파
절정
알프스
응우옌
홈즈
##제조
준동
대표자
단속
##고도
적발
모리스
본의
##료의
복선
죽임
가루
판소리
##쉬
포르
타임스
메일
쇼트
오크
평론
등등
습득
북조선
##소장
경보
##통상
고령
##포드
릭
감상
포럼
나간
캐서린
분단
컴파일러
알렉산드로스
증손
##유가행파
댓글
##회관
상기
##남의
주오
##캐나다
사토
각성
토기
압록강
##동생
살짝
##규칙
담보
컨테이너
행의
##파크
뤼
애국
내야수
종점
동맹군
팔작지붕
한문
뷰
쿼크
철의
##센
무명
상행
별개
대리인
유족
풍습
##세대
재일
##해양
나비
삼층석탑
아이폰
제왕
풀이
빙
##지도자
##발전소
출처
유스
수수께끼
조수
오의
샬
대본
햄
리옹
추존
피아니스트
##지점
나이지리아
품은
왕건
스킬
##죄
설문
우상
서면
함경북도
이남
금강
인프라
##영상
기쁨
서남
##정원
안산
결핵
##소속
연정
금전
인공지능
야외
현행
강변
지탱
나노
워너
코끼리
콤
생선
##릿
네오
막스
##토리
변질
초상
배분
중용
예명
실존
##트릭
##지법
로렌스
은혜
##아가
편집자
타도
중산
차세대
토리노
##검
발전기
공안
##수상
선명
##어머니
베네딕토
토트넘
##발의
##뉴욕
적군
극작가
클
자외선
산요
사단장
샘플
##셋
상급
항로
제인
연산군
호투
##사후
##버전
친족
공통점
익스플로러
체조
완결
교과
초원
희극
컷
##균
탄약
동명
탤런트
파면
인지도
여사
바이오
속편
총기
##채널
제이
다크
아키
서포터
오일러
표정
##벽
오가
##음의
헤라클레스
우의
소외
전멸
목회
##아스
결제
##웨이
북동
개인전
##데이터
강경
종업원
학명
##교류
만인
##기타
##보
발리
순양함
카스
구가
박영효
##풀
루크
##제자
원군
닉
후원자
##해당
열기
##기반
후쿠시마
도둑
로마자
필두
산스크리트
수심
해저
##자격
매거진
외무부
관현악
##림
파편
점포
국력
맨해튼
일산
교부
난이
아나키스트
슬라브
장제스
##고속도로
오스
투하
공방전
최진실
유권자
습관
리터
인산
사바
##라디오
연행
구금
올림피아
브라더스
관청
대원군
##음반
경찰서
##여래
힐베르트
여의도
방화
회귀
핵분열
고온
이양
그리스인
연회
에이즈
여수
청춘
대나무
레전드
아미노산
프린스턴
용의자
코펜하겐
투자자
시상
밀가루
핑크
##티코
출입문
슬하
실험실
간판
##질환
##닝
기운
모신
라스
##사지
대차
황색
녹화
기리
쯤
##사전
어류
##국당
지니
##별의
불신
마르틴
##현감
송환
개헌
민요
로빈
##시위
##애니메이션
되풀이
코르
접전
가도
서사시
화상
전무
##연금
##최초
컨트롤러
컴파일
요시다
헌납
##메라
##국은
나트륨
경지
##모
친의
자립
불가
정령
매직
##논의
##사관
소론
교도소
카타르
##폴란드
##임
중원
이스탄불
투여
##메
펠리페
##보안법
학장
열의
##루이스
##지수
다나카
##남자
원자핵
전세
충실
텐서
완수
보리
요충지
남베트남
포탑
황자
오리
##평
변모
열강
동국
밀러
북아프리카
아이콘
꽃잎
포켓몬스터
계주
반론
염기
경제학자
빅뱅
자처
고아
서해안
신정
러시아군
반정부
펄
체스
##베트남
이기
재발
셰익스피어
손잡이
폭포
연희
##참고
유치원
직계
##북쪽
##티스
구두
팔꿈치
반기
스트라이크
아우
세르비
방사
영유권
고든
인당
파도
모반
##타스
전자기
##지부
##광장
근래
드림
덩어리
제주특별자치도
현은
라인업
허목
치환
##덴
구로
항만
음절
나카무라
볼트
제갈량
##객의
##차원
괌
##진흥
##상대
하이
사쿠라
##푸
목판
##인천
조지프
알래스카
쇠고기
데스크톱
단거리
증세
바흐
##런
거성
프랑스령
발기인
마법사
필연
선진국
마카오
위안부
##아파트
막강
붓
선봉
수녀
닭
##북부
릴레이
클레멘스
##타워
##디자인
집정관
밴
작년
추억
##아웃
전라도
문자열
신문사
별장
하류
삭감
주군
##심사
마누엘
##사진
그릴
##기온
##조합
로타르
모차르트
##텍
총통
루스
겐지
청소
순식간
진한
제명
다이
##보병
리프트
복소
발산
부실
절의
잠입
그레이트
신주쿠
정교
힌두교
퍼텐셜
툴
할인
노동력
보너스
스칸디나비아
자리매김
##한때
배향
직행
북군
요괴
분과
함경도
원유
항우
파이터
##주일
##막
애인
삼국유사
표절
클라크
김정은
##국립
힌두
친선경기
구약
실버
공채
펌프
참패
보르
농성
외척
##설계
기사단
해결책
##하루
레인
시문
조인
##청장
학대
격차
가환
열세
##스터
백신
퍼즐
진행자
총무
표출
투르
빌라
소울
듀오
모터스
정황
취직
분경
보직
단국
군세
적한
북유럽
투신
##매체
피의
서정
패망
닉슨
김포
셀주크
치아
하반기
조심
##원칙
주심
야드
이탈리아어
조공
진흥
궤
##보건
십자
왜구
오나라
미치
리바운드
할양
경매
##규정
성행
##분과
도박
요직
파라과이
##피의
마당
함의
아부
웨인
왕궁
자책점
##테르
인공위성
##표준
복속
독립군
해안가
장애물
너머
안경
왕인
유정
온타리오
브리튼
치유
수에
애초
이메일
패권
가장
흥분
함량
구획
성단
아담
##데뷔
##생명
카르타고
티저
형주
서거
만류
주머니
강남구
사상가
메카
의약품
레인저스
도라에몽
근본번뇌
선율
##새
##주민
재벌
모함
관현악단
호스트
외면
경쟁자
미나모토노
반주
교통국
스텝
회유
관세
겸직
배역
게오르크
군데
톈진
트레이닝
승상
추리
승정원
인위
##참여
##개정
학력
만점
강화도
##경제학
##정보원
포터
호르몬
사회당
피라미드
스크립트
메모
웹툰
정은
리모
수로
신한은행
근사
##사로
교제
##파와
철강
김성수
국유
스캔들
##모임
##참의
볼티모어
시종
오클랜드
제로
도요
글꼴
금나라
##장교
비치
만년
메타
굴절
부총리
본체
의주
폐차
해트
##가격
납부
야망
감리교
내란
미생물
마르코
람
라
약혼
##우루스
##창의
##노동자
염두
##공작
정정
휠
도교
쿠퍼
깃털
비스마르크
##사랑
신도비
취리히
식이
서해
고등교육
토끼
우정
코믹스
왕정
사각형
일본식
시코쿠
마이
##군인
바디
득표율
알렉스
##알
몸체
##서기
##거기
변광성
고딕
클리어
계시
리믹스
내포
인코딩
사이토
공화정
임정
##기한
##메이
레지스터
배반
선양
목적지
프리킥
콘스탄티노폴리스
베리아
##노카
침대
계량
경계선
자취
##패
웨스턴
유선
##대원
계보
파나
헤르체고비나
화랑
보류
결장
페르디난트
정국
시경
열쇠
공연장
죄수
비스타
도제
마천
골짜기
히데요
##안타
촉발
스칼라
미스터
데카르트
보정
왕래
이용이
컴
##책의
대타
제물
##형제
##몸
##보살
도선
자행
선제
점검
반입
새의
요리토모
호기
각료
잠실
보수당
각각
前
특기
소아시아
도자기
##승리
쟈
도성
드레스
웃음
암스테르담
올드
산물
개정안
뱅크
쿨
남군
##아과
부류
세분
위계
동진
##위성
아라
용암
사서
##노미야
니콜라
##지리
##땅
##바르
안방
##별
장난감
규율
진언
급여
##응의
위시
히어로
##안의
출국
가까이
햇빛
추력
교통사고
민심
양은
방송인
케냐
단결
민영화
후세
악명
의논
침범
속주
고찰
파이프
더글러스
평창
##군단
진료
조선공산당
아군
슬로건
사림
대장군
카프
페어
칼슘
##지로
우지
광둥
쇠
사운드트랙
무작위
텔레콤
##왕조
기압
##여행
##학습
##강화
능이
교육자
뉘른베르크
소피아
거인
댄
##관이
영화배우
반포
신세
텔
금의
##윈도우
##홍
장병
병자호란
과반
가세
##개의
##구체
출자
더블린
코난
주차
글러브
밴쿠버
##마사
하행
##판결
낙동강
상가
##날인
시마즈
천수
이데올로기
유가
왓슨
##사태
도약
우울
증폭
기통
앤더슨
언론사
판명
결사
사치
##빈
상고
생길
편안
성품
가토
국사
##뮤직
여럿
##국회
교관
##축제
도발
프랜차이즈
##거래소
단서
프레임워크
발착
파나마
방글라데시
조례
##대중
여진족
우즈베키스탄
잔존
셰
큐브
이랜드
수와
북측
장난
지성
가중
와세다
낙
##서부
퍼스트
부분군
필립스
헤이안
톰슨
##보수
오락
모노
버마
인칭
무언가
울프
##포인트
국철
빅토르
양육
치과
격하
분사
패킷
착각
##황후
##회로
##바이
남서
취
##광주
시비
증오
브뤼셀
기한
셸
##이드
##적
유진
몬테네그로
##업자
윤휴
공명
절망
완비
창시
경량
자판
윌
농지
최성기
시바
##독
대교
트로이
도하
고려사
객실
걸작
문단
보수주의
상반
사랑과
배수
점진
인플레이션
문집
농축
우두머리
칼뱅
조나라
##석탑
##문학상
##서
넬슨
불경
남방
반죽
##훈의
일러스트
중거리
##폴리
##로드
프로모션
온난
##부족
막대
프리미엄
요지
아키라
관절
##루
##드로
출격
우르
##상서
무단
정신과
천하
반대파
고래
##기념
##얼
프랜시스
##지식
축일
경영학
럭비
메디치
추장
낭만주의
타이어
사내
##마이크
##플레이어
고산
도널드
왜군
해태
관심사
##대행
제조사
##함대
##소수자
증조부
##런던
리프
후지와라
##디아
태그
북구
토목
##편성
에이
시몬
사지
보위
단선
여포
트림
메소포타미아
매킨토시
구니
원활
계승자
숙소
##나치오
##공립
이상인
내분
명소
플러스
##바이러스
애리조
필사
##타인
##빛
가브리엘
환의
벤처
칼리
##다이
##인은
##향
합창
부왕
고을
##모드
모멘트
맥아더
재난
대중교통
참전하
재팬
모피
##꼬리
은폐
무로마치
##주연
잇
경영자
플래티넘
타일
동향
##고문
금강산
##자본
맘
##순의
##혜의
그레이
에스컬레이터
미네소타
##견
남용
정에
##범위
아편
##염의
앞바다
재해
남산
공휴일
정박
함장
탐험가
합금
방정
필명
지평
증발
떼
구문
이주민
레슬링
터보
가해자
호크스
수식
이회창
##보이
전수
마다
난징
안팎
발포
램
전염병
우라
원심
시간대
현판
일과
##재료
목요일
발판
한겨레
문화방송
##젠
룡
##행성
본
하급
거병
마차
법정동
리튬
우
컨텐츠
박테리아
##추가
확충
구타
버린
격투
모시
바로크
옥사
가와사키
##기하학
이광수
공용
##총장
##신부
조봉암
##등급
이즈
성원
초당
##금
초콜릿
비늘
위조
백악기
곡면
대류
부인의
역도
후진
아산
태아
게임기
습지
정이
##맹의
좌표계
유골
편집장
상반기
위생
##귀
조선소
파이어
호가
볼리비아
##디스
성화
충청
##온
##터널
솔로몬
멜버른
##좌
여주
경이
##생물
퇴진
기원후
강세
스피커
메이커
카이로
판매고
식용
왕명
사다하루
##규
폐허
눈치
##주기
포화
언어학
헤르만
##개인
개인용
애니
미야자키
미의
##연
브레멘
세비야
입상
형편
과잉
손녀
밀리
김일
경작
소동
복음주의
토론토
유길준
##타이틀
중건
그라운드
##주름
##성서
##평균
##고시
일리노이
##지정
고노
북극
스토어
##파가
서주
##타
조비
여건
일괄
##순위
양심
함양
선제후
##구가
표창
유무
원산지
대입
영정
반항
충북
슈트라우스
불량
명과
결전
##데이
루비
내재
일관
##근
편제
미토콘드리아
##관광
##현장
마스코트
조슈
부르주아
##완의
##우지
사주
자생
고층
행보
플라이
구슬
아테
##변호사
원점
외계인
제리
마하
플루토늄
##복합
원상
모리
행정동
##우드
오릭스
태그팀
정관
횡령
병렬
에른스트
수나라
사드
착취
아이스하키
구스타프
절약
간혹
공석
취향
늪
스퀘어
리조트
정성
컬렉션
타마
이주해
다이노스
작물
##복
앤드루
식스
본작
##촌의
##집회
양대
박람회
##신청
난의
미셸
물결
##닉
미카엘
징집
결렬
일선
유년
무어
교실
##담당
거사
총격
##상품
후회
경종
반감기
출사
승지
가드
차수
정경
의복
개경
브루스
##어스
##가요
고등학생
깃
##불의
정부군
가명
섹스
관용
리즈
연예계
경희대
슬램
진흙
야구부
##청년회
콜롬비
승낙
공판
드미트리
평의원
저격
우울증
스탠드
점성
조형
로빈슨
결말
송도
친위대
주먹
아마존
무패
리버
##어판
자질
경복궁
##핑
예언자
서품
##다스
숭
이세
받침돌
코소보
마이애미
정형
유수
로베르
도적
공시
아라곤
##경주
##육군
헌장
씨족
화장품
성폭행
데일리
체인지
화학자
한중
베스트셀러
##주가
중공업
업로드
##계층
변종
##방어
동탁
기치
법전
##집권
육군사관학교
개개인
루카
대관식
제작진
스틸러스
극의
자릿수
##투어
직렬
통역
##아어
##건축
명상
왕관
##핀란드
##야마
고려대
미세
비자
##마비
##줄
##장소
각색
오사카부
허드슨
메츠
유타
향기
출품
허블
탈피
치하
기성
침식
흑백
고성
피츠버그
교파
곡인
낚시
##이야기
동남쪽
시티즌
미학
우크라이나
슈투트가르트
##개선
북벌
영예
연주회
브로드웨이
손님
규합
교훈
장로교
신입
##옥의
스코어
지배했
워터
오스틴
우왕
모노이드
향교
승률
종영
애덤스
이진
##가로
마스크
도상
교황령
뉴욕주
상식
##전사
부의장
패치
저그
##마크
퇴출
전권
관성
정칙
##원리
##고교
라우
이노우에
페르난도
목표물
프랑코
##토피
커리어
##로
##스웨덴
##자문
##쿠니
너희
##표현
재
능가
직관
야마모토
처방
농산물
격침
테리
선대
단군
유년기
국제법
이나
##설립
해주
픽셀
카리브
##지진
벨라
겁
조연
전구
서태지
인승
##이브스
요즘
직교
클릭
라면
로
서산
판매가
##사무
간선
##윙
후세인
출병
로이
재물
토로
라이프치히
##포고
증강
피스
##신앙
히브
미합중국
##담의
##꽃
##걸
베이시스트
징병
구단주
사슴
아이스
예문관
##프로젝트
석권
회견
##봉의
부다페스트
단말기
워
묶
사령
가뭄
##셀
의례
반점
세울
##솔
만장일치
하이브리드
갈릴레오
법관
##프라이즈
직속
거북
##동부
크리
자정
##단장
##사법
##해석
##내각
##멤버
양면
현황
골격
테두리
가가
자메이카
환승역
##헌의
당사
황도
렌더링
이바지
선체
양호
국내선
덮개
군산
용액
유니버설
이마
유다
아키텐
유화
경찰청
서사
루스벨트
켄트
##불상
역사학
타르
고속버스
반대편
배양
순항
##수지
##수행
당장
항원
알폰소
겨냥
밸브
##재정
로열
핑계
에이전트
빌드
가정용
입시
등단
##설비
사우디
처마
회고록
##아트
일간
랭
황소
팜
##핀
##결의
전보
##시내
##구로
그루
채굴
모세
주저
영장
재판관
후보자
바젤
##당국
앞뒤
효고현
로키
스릴러
##수술
##지명
카디널스
이브
협업
잔해
송진우
유적지
휴대폰
종사자
순종
신시내티
관군
아놀드
헤비
##효
첼로
실명
##칭
국공
공은
멀티미디어
##보안
함흥
추후
법과
공법
쿠웨이트
루피
척도
연중
헌병
통지
내성
##주인공
승의
신익희
말리
헤더
토마토
풀백
감축
실책
##중세
워커
초록색
##룽
##국인
##번의
로큰롤
결의안
##지상
종묘
모스크
마블
로맨스
##무늬
운동량
며느리
##검찰
##나자
고양시
브리
스택
악당
##혁신
게리
##한
아이즈
##전대
##우
바보
##카를
충칭
배달
조회
프린스
패퇴
통폐합
이마가와
근간
크롬
대등
개체군
쿤
감당
번이
걸음
다마
대리석
어웨이
충신
제창
##파일
##수석
##인식
대명사
내게
##시트
교화
지층
용맹
위구르
##포트
견훤
합성어
##광복
스트림
##합
경전철
아의
시력
헬싱
닌자
자연수
맥스웰
통신사
버리
모던
이완용
구비
옆면
종양
도읍
##안보
월남
반향
담당자
대제
##루이
이즈미
짐승
유틸리티
사수
면직
승하
실록
오프라인
위배
격화
##피해
##노동조합
충고
##사원
서한
원한
기장
##볼
##나머지
광선
데이브
괴멸
재회
부르봉
유머
##질서
출세
오토바이
##노바
미라
전범
##관은
지자체
논리학
펠릭스
경도
갖가지
번개
인하
위축
루시
센트
반동
우표
월트
##혼
켈리
해운대
벗
혼잡
격리
균등
대전차
톱니
하와
##보고서
능동
망루
우선
차선
겸하
##연기
젠
텍사스주
타이탄
맞배지붕
현감
붕어
급속도
##기와
귀가
##임시
##축
천국
##도어
공상
지리학
테르
콘스탄티누스
꿀
유러피언
##이날
우연
다국적
오일
##위치
중소기업
출항
입술
개척자
라파엘
타의
튀니지
##신화
삼국지
시찰
물류
단자
피오
절도사
모나코
발가락
안창호
여성주의
근방
결여
틴
율
발톱
##동쪽
솜씨
커브
열역학
광자
마쓰
신석기
피살
중신
자수
귀인
##힐
메트로폴리탄
##보스
토착종
여러분
##평등
##반대
타임즈
유고
사병
##지에
오아시스
스트리밍
##워치
윈
##운행
청룡
공성전
##임무
파커
##봉사
##기도
요양
불어
사탄
료
##호텔
정예
##그곳
마셜
가방
지질학
터빈
전열
##중량
독재자
이력
요나라
아우구스투스
전사한
캠
##비트
경시
쌍성
증축
파시스트
결핍
턴
독특
항아리
베컴
##각
세단
##레이트
베일
미주리
증직
리어
참수
상서
다이어
자형
##의무
외환
백과사전
##커
과반수
##은퇴
변혁
##시아
세가
평의회
캔
목이
출정
스테판
사이먼
히타치
가결
##장인
허정
천도교
도산
모체
바닷물
##선택
아르바이트
천왕
카피
중심핵
산재
타선
과다
개화파
직류
악곡
그랜트
자동변속기
잔여
세미나
간호
##국제공항
##시조
대표단
염
##마리
아랍에미리트
지체
##소득
범죄자
반역
적정
##머의
사이즈
사절단
##명이
사역
수량
창구
경부
폼페이우스
베스
##전력
컨디션
##왕국
야마구치
춘계
계투
##공과
다항
모로
매도
컨퍼런스
가환환
##태양
동차
##경쟁
##건강
##전달
후계
올해
조셉
후유증
##락의
곳도
정착지
부조
샌디
##특위
그래미
믹
위법
포섭
낭비
##화폐
횡
##탈의
##곤의
라이센스
퍼
균
루이지애나
동아리
##말의
후드
아스카
##페오
백악관
##어인
교내
좌천
미드
웨스트민스터
##포지션
달력
라이너
인척
##촉
##소년
승선
##처장
진심
위그
농경
열거
놈
기요
##타임
무능
변한
자막
제너럴
모건
파충류
야마가타
자치주
앤디
경은
자루
시니어
막지
수력
원에
윤치영
##표시
활동가
##협약
##판과
표트르
결탁
##모스
##백의
북대서양
오만
##차역
##그림
패러다임
지에
##라가
비방
##심리학
경내
##전과
##멕시코
연대장
##조항
삽화
##백화점
위도
마야
선구
유니언
##녀
뚜껑
황폐
##오스트리아
##국을
제단
##네스
공경
알렉산데르
크루즈
올리버
호화
##서쪽
통솔
정하
태극
가나가와현
신과
헤겔
판서
월경
필사본
혼다
주거지
논증
가우스
공고
대강
클러스터
##드가
르네
##가정
몰
흉내
사변
마켓
세븐
개구리
사무라이
불가리
조광조
헌터
##공동체
##졸업
순교자
##히
문체
압수
스리랑카
핵탄두
##양성
조서
푸
##대륙
다윗
펜싱
##출력
피처
케이크
##형사
담임
피의자
##폭탄
급성
류큐
프롤레타리아
빌미
특별법
건너
상선
존의
유이
고제
프란시스코
반공
당선자
책정
거주자
니콜라스
로렌
바빌론
뉴런
클럭
경합
개축
파격
혀
축복
컴필레이션
##여부
##페이
##작곡
##율의
거액
문건
##보존
황위
가락
반정
##연구회
맹의
남동
니혼
후반전
조각상
지팡이
##환자
해지
##방정식
이범석
교복
인계
마술
##분자
레이싱
총학생회
잠수
친밀
##왜성
월터
포인터
불명
다마스쿠스
슈고
서클
맞대결
훈족
차명
주기도
##농민
미수
##달의
자작
브루클린
헤르
코스타리카
카탈루냐
패트릭
군림
액세스
##인원
호적
산둥
해킹
방한
##방지
가이드
조이
##성적
##촬영
낭
철종
문종
교지
##늑대
정확도
##병력
비잔틴
왕자의
##지향
강대국
직물
나리타
개로
##멘
레스터
봉작
조니
요하네스
##증권
네트
##디지털
동거
동률
##유물
성직
향수
손목
자격증
아치
길드
##륙
전속
응급
주화
송신
재판부
##출판
거두
협곡
곡식
바그다드
장전
불변
이륙
노랑
내적
##노드
대상자
##악기
호전
불법행위
야전
의병장
결투
##홈
주포
마르크
폐렴
##히라
종신
##역이
리비
영위
##평의회
잔혹
피쳐
멘
이준용
완투
초대칭
줄기세포
기념일
외가
클레이
트레
첩보
조병옥
문정
종착역
네이션스컵
남지
와카
농담
딥
파랑
격상
신봉
성남시
튀르크
##내부
다이쇼
##혁
평방
##감정
가닥
엘비스
##제임스
폴란드인
잔디
처치
실효
금호
휴대용
시리
세계유산
서약
자백
개신
니스
대서양
대제학
마운트
관목
가독
베네치
키릴
감마
##향년
모태
전란
모교
히로부미
침수
푸젠
운수
카메룬
메가
과세
##꽃차례
오리온
두뇌
브리지
이건
##선사
자각
영사
##동기
에바
안티오키아
미토
인노
팔자
지하역
일차
부등식
미디
교통카드
환산
크로
단사
파라오
선천
##범
치중
여생
##에도
피셔
##커스
생포
로우
##잉글랜드
##청소년
토미
마에다
만루
개찰
##이온
등산
태권도
한자어
기밀
쿼터
박사의
커플
말소
권세
##화가
역모
##장기
음식점
##경찰청
등기
##마찬가지
모른다
봉우리
동물원
죄인
##문화유산
수레
접목
탄두
마다가스카르
라벨
##메이지
민주공화당
해운
중앙일보
##란
숙련
##사격
##시립
축구팀
즈음에
도형
동일시
##처벌
중고
##원은
해부학
베르사유
장차
여객기
헤센
남한산성
호대
생화학
항소심
배타
대목
##지금
수요일
깨달음
##유도
##덕의
매복
세르
##제주
##그램
독주
니켈
보좌관
즐거움
월북
숫
해커
양위
박자
##삼성
왕릉
엔드
##엔터
혼합물
편향
온의
##밤
입적
갈릴레이
##권력
##참모
##회복
실사
길거리
유충
도로는
점성가
##파리
건널목
논평
임계
등록금
헬레니즘
텔레
##논문
피닉스
스태프
급습
뮐러
라울
장쑤
##규의
정거장
측량
외상
신병
##온도
입법부
가치관
콘라트
생리학
라이온스
##예산
에밀
사학
지로
오키
하치
##연극
부관
##노래
항전
유폐
성폭력
지문
컵스
##구단
라쿠텐
재판소
선회
분개
노트북
장택상
경부선
사대부
상해
자본가
방법론
##허가
작중
간사
정직
주제가
경기력
질투
##교원
조문
혼돈
실어
체육관
서점
여긴
##숙의
실증
현악
##안정
##신호
항체
행군
국문
구전
트랜싯
결실
바이마르
야수
##롱
신상
##질량
악역
스탠리
와이드
석가모니
바지
앵글
##다리
리우데자네이루
체내
입헌
기미
##러스
호른
심정
윗면
까마귀
##황
대사간
##정지
유림
한참
레즈
##최대
##패의
수백만
##롬
수급
워크
스윙
특명
수도회
진출권
호소카와
종실
벌레
신진
변론
감마선
남조
##벌
##터키
양분
원통
베테랑
김정
바비
열망
구애
뭐
건국훈장
자로
흡연
등각
저해
유명세
동산
록히드
영적
##위하
에디
여러해살이풀
##나투
##바흐
반납
##례
전액
법제
특혜
당파
코퍼레이션
플랑드르
우에노
소크라테스
광업
##차이나
시차
투니
듀
##필리핀
신노스케
벨라루스
문학상
##외국어
장갑차
합산
중소
민영
공영
쇼핑몰
아크
##예전
##국과
장단
##동지
봉헌
##공산
인적
와해
하얀색
회차
##주체
견지
##전후
문물
접합
화요일
행운
파란
통영
갑신정변
압송
다이빙
##오스트레일리아
코뮌
아테나
##카르
복부
캔자스
선방
부인과
변호인
##포르
로컬
낙하
워즈
##교환
장덕
프레드
다비드
##순서
포대
집전
닐
일진회
##편이
거제
##성당
여정
루머
퇴치
농림
켈
버라이어티
프라이
자궁
지령
도보
대인
##사이드
채권자
절제
금고
##기념장
노무라
기근
염색
최선
##축구단
수질
지경
하지
페로
참의원
청각
지하철역
엘리
소나타
증원
이스
도색
##독재
원문
완성도
노골
##중화
##로라
음악원
각광
미즈
해시
격전
구이
군비
우산
##무장
헨
##밥
마천루
기니
초석
##심판
##비율
##고구려
##세종
##청사
억류
안중근
##레이시
도키
요코
##마스터
탄력
칼륨
킨
호프
저널리스트
계약금
##플로
처칠
서체
율령
##하임
영동
기업가
니콜
재래
비참
##청이
일설
브란덴부르크
힙
안드레아
##디오
##법원장
해석학
##공기
##직원
입출력
게이오
##구와
실상
합창단
시편
버터
혼혈
세키가하라
산조
##네트워크
유감
반열
젖
##널
팟
바닷가
난입
공평
귀순
귀양
##펠트
아이파크
벤피카
수필
덧셈
계란
대법원장
안티고노스
##연합군
알바니
안건
국부
낭만
세도
균열
프라하
예비역
천마
금산
측도
영의
남조선
알라
조율
북상
##성인
##란스
한복
빛깔
##느
평택
덴쇼
버섯
단백
경호
노름
아나키즘
향신료
관개
트랜지스터
이윤
발터
퇴
내로
소탕
##톨
##지붕
디렉터
회부
엔트로피
##진출
##변경
##과목
역동
태블릿
변천
항공편
비올라
##악
비스
시라카와
인기가요
칼라
포식자
##정리
##포럼
##실제
프린터
상설
교우
취약점
계략
와일드
폐기물
##이스트
삼각주
소대
오딘
산정
무쓰
비긴
##기초
인문학
겔
재기
이항
첫날
구한
교재
경멸
국가원수
독수리
의제
댈러스
가맹
환율
추위
성기
바빌로니아
하중
데이트
트로트
오슬로
괄호
추이
고난
광복군
긴키
끌
추계
지도력
육박
##대교
양파
참모장
오르간
기권
서프랑크
사목
감찰
##라트
연임
발송
에세이
빨강
대국
동남아
적기
바늘
규약
조우
오브젝트
오인
일주일
폐단
용산구
##도리
우승컵
보살상
양수
클라이맥스
팩
착안
짝수
티무르
자신감
##켈
뉴잉글랜드
고갈
사흘
석재
산티아고
펠로폰네소스
##고
레이디
서스펜션
이모
정언
호골
##삼존
출진
##이스
에미
해리스
##일기
발상
명예훼손
지리산
##월드컵
스케이트
형용사
사생활
모델링
효용
운전자
정실
생리
##장사
##근무
소말리아
청하
##임진왜란
##노프
미카와
타로
정유재란
사이언스
불문
유계
낭독
##전철
합병증
부두
문맥
테라
일렉트릭
##팩
체크
##잔
올리브
손바닥
패주
모용
관위
진위
##고전
##전시
독립국
권위주의
윤곽
포상
하카타
학술지
##스타일
그린
##서양
청자
사죄
메릴랜드
하비
##사유
궤멸
필리스
예견
선별
쟁점
상은
##변수
기피
미상
교향악단
호기심
부식
인디애나
##버러
야심
이질
투병
다인
가르시아
##스와프
포위전
채무자
댄서
빅터
불펜
호크
원자가
##파괴
천연가스
##몽
매개변수
괴뢰
##로로
##거부
반공주의
셔츠
부엌
변장
해수면
크라운
차림
말러
우림
시제
제천
지방관
정당인
수수
계좌
요코스카
##블의
하이드
아나톨리아
몇몇
실린더
병풍
창씨개명
모션
필리포스
레몬
닛산
단조
왕후
포위망
리스본
##좌랑
레이건
유전학
무효화
독려
과자
##본사
우대
현과
보유자
##프리
발광
수퍼
데니스
본회의
언더
다짐
##방송국
민족주의자
속국
하강
창립자
딕
주계열
술집
헤어
서남쪽
광경
동시대
자성
##이스라엘
전미
네임
익스
합장
튜브
시나노
강유
스테파노
전기장
포르투갈어
토론회
개그
장강
##태풍
마그네슘
정치국
라이베리아
국방군
중생
##익
신지
##경상북도
김종필
추궁
이명
로베르토
감명
##작인
##오사카
퇴화
조교수
바이어
아바
케이프
버드
##바위
고추
군량
수도사
왕좌
아픔
시그
정나라
##삼의
산문
돼지고기
그래픽스
##미자
유학생
도끼
전라
##지가
코일
교명
인성
크메르
부스
가든
해자
충렬왕
##원종공신
중공군
노엘
##입상
만연
외삼촌
무궁화
빙하
##목표
##기종
##라이프
첨부
직함
성명서
마인
##세운
오토모
강타
석기
##닌
나인
보조금
##무용
##할구
아츠
##위상
관찰자
특이점
남북조
통합진보당
금색
마린
스케줄
정오
노르만
우월
셀레우코스
주살
잎자루
서보장
노후
전산
동창
##서진
예비군
고국
한데
오스카
온타리오주
구스
개간
청주시
정역
기민
꽃받침
##합병
사각
신한
도안
관동
##엽
##정비
##콜
관원
아리아
재결합
교육학
유목민
연유
허들
##모르
##펠
##둘째
##셰
##워
선우
공군기지
친환경
공방
청일
디렉터리
##윤리
##견의
카툰
분쇄
##설이
수비대
왕당파
캉
##뇌
정과
강좌
기조
봉분
한마디
홀수
소용돌이
레닌그라드
시그마
시게루
만화가
드래곤즈
이오
수렵
사교
##밭
마리가
원내대표
광택
묘호
##곡이
세토
랜덤
사체
##도구
##뤼
롬
숙명
남양
고분군
납품
##모리
고취
청의
막시밀리안
패자
토요타
집사
영천
던전
양극
혹평
범람
##무스
코카
최적화
##우승
서곡
무의
##활의
##랑의
개전
##미래
토리
강희제
단체전
진원
##회수
군복
당과
노벨상
몸집
조합원
귀의
방과
휴일
의대
도미
화소
##브라질
몰타
내일
그린란드
##신고
기욤
모터쇼
원균
아약스
손책
##뷰
초록
필하모닉
##고개
유민
생물학자
##사정
해일
##계통
수산
세르비아인
고토
##자산
암모니아
제지
커
출판물
##주도
운석
테크
구강
서안
##공급
##대리
화풍
후면
##정식
해왕
거품
욕설
켈빈
##노트
플로
##격투기
##국사
리얼
셰퍼드
##카스
스텔스
증식
간호사
소주
반민
세미
##현과
안톤
온두라스
선거인단
방공
##듀스
샹
자켓
##금속
배아
숙박
##렉
당은
수원시
대금
픽처스
율법
바리
연습생
다스
하동
지평선
커트
원술
사연
##부군
산술
##유리
##처의
##계수
마코토
잠재력
기울기
사할린
쐐기
시네마
##탐
교인
##입법
톨
명장
##코리아
세네갈
금동
오산
물리학상
##놀이
개개
화북
##진화
동북쪽
건너편
옥상
콜럼버스
##필
디에고
리그전
냥
몽고메리
광배
플랑크
튀
##홍콩
서예
인솔
##랭
##저서
오우치
수은
맡
해인사
수주
사무국
아이작
##언
부사장
보리스
휠체어
본적
전동기
교감
대열
황하
북아일랜드
대대장
##신학교
위스콘신
본진
동군
천적
숙성
다카하시
얼
정주
기부금
##정규
석회암
바를
본능
캐논
상한
용해
감탄
가면
##노예
다의
교학
이별
##서로
과업
##총의
안성
귀퉁이
결집
헤라
##토지
서북쪽
아이스크림
재단법인
평상시
##독립당
걸프
핵폭탄
원망
참모총장
고속도
패럴림픽
쓰
스케치
조개
##수입
기판
##빌딩
미스터리
항생제
##대장군
칸국
에버턴
##입자
거시
매질
저축
사나이
##과제
출제
전염
출혈
히브리
군주제
소란
야마
구석기
야권
각인
##비서관
##근대
에드
청중
서초구
##순환
##학기
##압
재정난
##섬유
##징역
카레
바스
펠
히노
대파
다리우스
##행렬
##선거법
국악
쇼트트랙
동대문
##수산
블리자드
서장
##선인
##고속
미러
정착민
열광
##고기
찬스
사탕수수
슈미트
속현
델라
듀엣
##라운드
하순
열람
국면
유가족
앙상블
##특별자치시
열풍
불평
퇴적
개막식
##초대
##셔
웅진
##오프
##부부
베이직
##산업의
콜린스
추봉
모니터링
도도
쿡
융기
경치
##아인
카롤루스
역습
베르나
##갑
머
##중공업
접근성
첸
황산
근세
후임자
##태
계책
관아
암스트롱
요셉
강압
애완
마이어
골자
##위반
서기장
사생아
간청
레코딩
##발매
테러리스트
영수
##녕
##부여
칼빈
개찰기
화음
유목
##실업
아우구스트
튜링
##굴
부양
형질
재화
와타나베
현명
마늘
##방위
그리스도인
소진
애슬레틱스
쿠페
##대기
##숲
##채의
##전형
형과
##이익
공격력
로저스
빈약
천주
##키스
해설자
행방
적과
도난
직권
누르
아미타
도승지
서당
##부정
타파
##성장
이해관계
##여름
스레드
채집
##맥
##리안
중공
율리우스
뉴올리언스
시부야
마르쿠스
##탱
가쓰
파주
광합성
범용
##지검
핵실험
양념
##체가
##전공
굴욕
동의어
생장
##콜라
안면
분별
##훗날
##비전
교란
케이트
승부조작
마초
화승
간파
모어
알베르트
외무성
##통화
낙향
여관
보손
천명
습도
표준어
##식이
공지
노바
미망인
중개
파르마
유라시아
대공국
뭔가
재판장
병의
탄환
야마다
사모
절터
##사거리
퀘스트
집단군
엉덩이
월급
##상국
유태인
욕심
상향
빈민
##총독
겹
철기
예식
해피
불타
섹션
고승
정종
곶
아키타
평신도
##렛
이영호
##자체
탭
##삭스
가곡
##기장
##전설
치료법
배리
임종
##소가
고치
알현
마이크로프로세서
제이슨
데뷔작
사이공
순례
플래닛
테네시
숀
결단
부결
##명사
##대수
배당
오비
도표
안심
맨틀
##베이
후견인
##복선
오카야마
##여우
제프리
점심
##쌀
##로봇
수프
컨설팅
##밍
마오
##공부
비호
##스크립트
유전체
헤이그
미주
모후
사우
전횡
일본서기
공손
낙하산
명륜당
##승강장
앵커
베이커
##발표
타우
매달
북인
피드백
여주인공
화교
오즈
##주변
브람스
강판
시판
제향
베오그라드
##장로회
##나주
##원자력
##미르
##가톨릭
##영장
그늘
입찰
풍요
국산
##혐의
##바다
이사벨
치마
반대쪽
안토니우스
석가
총애
안철수
정려
##심소
##오염
테크놀로지
비약
남로
여운
##병사
단념
##곡선
한정판
토스카나
시동
##킨
외과
##요인
오웬
가온
맷
전교
통계청
익명
반증
##원조
대문
광화문
말단
##홈런
근위
농가
##분쟁
##트라
대머리
채의
오미
한니발
승단
##남쪽
법조
쇠약
체질
점토
##이유
콘테스트
수메르
루터교
문관
탐정
격돌
세라
담장
조선왕조실록
##스케이팅
호날두
습윤
추축국
##웹
알칼리
뜰
국무부
비둘기
##인상
새뮤얼
##학년
깁슨
##관직
동종
도미니카
주루
타이밍
악마의
##전한
문고
태양광
명맥
##자본주의
율곡
미우라
유니버스
프레스
치료제
신작
개최지
교주
새우
버진
재고
##시노
##주부
요금소
쏜
지난해
인민해방군
포교
##이념
권역
미식축구
##댐
당명
##은의
씬
설법
사다
홀드
파룬궁
탄수화물
혈
울음
청문회
##양자
음역
어도비
권투
서역
경감
표제
령
##점수
화로
##인력
실리콘
벽면
관내
치수
항거
앞부분
법규
냉정
은신
선상
독단
자석
원화
##찬의
##학술
그래미상
푸에르토리코
##병합
냉방
##헤임
호감
마포구
찬탈
도자
##개념
남측
소망
클라리넷
어선
인출
브루크너
##베트
##아르헨티나
릴리
##묘의
루카스
노나라
선승
머리장식
넌
남단
합당
여야
사표
##시외버스
모국어
시성
##가사
경제력
관저
당부
폭우
유망주
주파
노르드
##헨
히스
분홍색
##렐
미노
신궁
조제
##之
천지
도부
청군
비야
일렉트로닉
번복
피력
##노총
로드리게스
##합작
탄성
수증기
원동력
학비
막바지
액티브
##확인
매일신보
##콩
래
지린
##공군
##용품
마니
앨버트
신주
발열
몰도바
##슈타인
겨울철
잉여
모자이크
제품군
테란
원이
##소녀
청조
코트디부아르
종과
하체
볼륨
데르
섬멸
성자
로크
##맹
색소
화친
##라흐
송시
호몰로지
##전작
##얼마
엑스포
##활
제고
##이집트
이거
퇴사
베티
내각총리대신
##화상
트럼펫
작품상
베가
몰살
사르데냐
삼국지연의
검사장
무궁화호
연마
줌
엑스선
혼용
상환
알프레드
##털
##이자
군용
광명
신종
대도
강자
##전문가
##음
보라색
푸틴
목판본
이각
증손자
##컨
누각
익주
시트콤
기함
집현전
##타리
##피스
##폐의
불명예
가선대부
대여
베이컨
##보드
습의
디비시온
퍼스
잔치
권익
단기간
키즈
스테이
애덤
실의
만장
##중대
웨슬리
매디슨
압둘
마피아
의외
잉크
재원
골절
차질
파스
샌드위치
지병
일면
고르바초프
##냥
하층
신인왕
예속
##탈리
연이
충동
미움
촌락
여행자
##취
마애
피타고라스
##어군
상회
관철
##비서
##윌리엄
유우
##해인
실태
발췌
쥬
친절
민가
윌리
##경상남도
게놈
피어스
노스캐롤라이나
길목
필적
##패스
##색은
동아프리카
명중
니키
신겐
##혜
파열
다승
스톰
무라카미
버퍼
명도
대담
귀향
청탁
윤치
단양
중앙정보부
로이드
보르도
변조
기념식
개인주의
하얼빈
도나우
세르게이
음주
리마
트레이
연나라
요시쓰네
방문객
공해
모면
메신저
비아
##기금
피에트로
##박람회
##개편
규장각
발이
급사
##앙
섹터
##니즈
아르눌프
재야
강국
##분리
리하르트
##해제
임베디드
이목
##업계
지원자
트루먼
항문
##싱글
성교
##페더레이션
지단
수다
루손
##자켓
걸로
북조
##특수
유희
친교
김치
하이퍼
##특정
애벌레
전곡
교서
주택지
사산
조각가
시아파
무예
도야마
보름
구시
##한국어
백두산
일간지
독립성
교동
누명
사이클론
학급
션
##즘
하키
성악
##선조
중앙은행
##대군
예종
조준
동체
시흥
트윈
세컨드
플로리다주
라플라스
자연주의
어스
조석
##취재
림
성채
##담
머큐리
육식
쇼크
징병제
##우라
가한
서아프리카
프로방스
수수료
창녕
새턴
점대
꼬마
경향신문
##힘
##법상
전황
건국대
배트맨
출소
매스
미르
신세계
혁명가
고모
영사관
결점
실로
음색
접시
이치로
핵연료
프레슬리
피자
##교리
앤서니
멜론
폐간
창안
궁지
버락
교직
심신
현생
본사가
엔지니어링
갱
조가
하이든
초등학생
##가인
코네티컷
이케다
대청
주시
표결
판관
##궤
도지사
##상인
총액
발진
수행원
난간
정몽주
##봉승
##스위스
불복
공무
종래
가이아
처단
확장팩
초보
리포트
##정기
아랍인
루나
고압
그리스도교
인산화
기공
##소송법
자객
복싱
틸
시카
매니지먼트
문묘
##사업소
시영
소켓
영문학
악성
게이머
키워드
권력자
여객선
동포
후신
플러그인
상온
습기
용지
후추
아가씨
##아르
회군
##돔
##히메
로페스
요시아키
버니
포토
기타큐슈
캅카스
##묘지
투기
가시광선
제타
외할아버지
발기
##수송
일한
파르티아
의인
분류군
강호
폴리스
크레타
흑색
전군
떡
배상금
캐리
아미타불
바나나
헌제
행하
##귀국
##과학자
초판
##산맥
연해주
##형성
수능
가모
감리
은둔
인맥
인플루엔자
자재
매료
이르지
섭씨
오를레앙
##베이스
잔당
방비
미인
##자형
##출연
##부상
효성
교회법
레버쿠젠
집합론
불로
누락
유니코드
중서부
총알
유품
당뇨병
총살
##울산
짓
체격
캡틴
기물
원곡
중학생
비어
무공
##중간
기주
##조연상
타블로
즉흥
연방군
정사각형
##방안
파스칼
사옥
한류
##메리
심취
##딸
미성년자
음운
##도스
사하라
포틀랜드
자치령
산책
수온
보호자
대주주
고고학자
피사
##유엔
시주
수양대군
##탕
##컬
##루가
나카
밀의
운의
크리스탈
##봇
거미
##소원
습성
플랜
연좌
##성분
속이
농작물
##플러스
프론트
##엠
아미
##여의
유실
미트라
폭주
기획사
아랫부분
아이오
의금부
승패
기린
만기
국고
고바야시
활기
기틀
##조작
설과
테헤란
##만큼
품의
적재
##코어
명하
인트
보답
루이지
발작
리사
##역할
프라임
후반부
엘프
공물
##고리
몰입
제식
##궁주
중첩
코시
##수법
양서류
추앙
랜
##이승만
다카라즈카
현미경
대뇌
디나모
초고층
콤비
##아령
##멜
앙드레
망치
방황
장조
분양
부에노스아이레스
가정의
먼로
##펙
피난민
이오니아
제작비
외교부
난자
##미치
##분교
카스트
주세페
##포로
사카
나혜석
##충청남도
탈옥
##전인
모하
입선
##베르타
과선교
철제
이게
친형
비하
증설
##타자
래리
혈액형
무지개
##창조
##화면
##대인
향의
절충
장엄
고관
##장면
##람
겸손
##닷컴
덴
장대
한국군
목욕
효모
##케이스
##화재
치킨
안기부
액수
문중
무마
전단
스탠퍼드
가입자
탄광
반일
##소유
추밀원
호로
크리스티나
화신
독살
갑판
##전라남도
##레코드
컬링
단역
##선우
로런츠
교신
양력
연주가
택지
장과
##제기
##사업자
초능력
속박
사와
취입
에든버러
데드
신선
성간
창덕궁
장정
##나폴레옹
야구팀
랴오닝
슈퍼컵
양손
성부
어쿠스틱
드루
글로브상
트램
##캠프
외벽
##태후
금상
해남
섭
##다양체
아이언
하구
##스님
구면
상상력
크리에이티브
용접
정동
##귀족
환기
격분
회합
합세
네덜란드인
포진
이교도
위즈
노획
명왕
하리
메르세데스
훈민정음
##논리
유혈
외래
영장류
선군
샘플링
결번
전주시
구석
노리
반칙
동프랑크
율리
나가노
연기력
합법화
단정
직각
##기호
산시
국무원
근본주의
운동장
판권
상류층
약사
가네
##원단
##제학
도마
시에라
낙타
대문자
판별
보라
보어
결부
내몽골
##군대
경인
##동이
고지대
##카타
눈앞
접미사
발단
수강
어필
시어터
숙의
##파에
구명
품계
##대항전
공예
##학사
##간부
법원장
##날개
##연간
레인저
##지청
##곽
##제공
파우
달인
##연속
페르미
전환점
##광부
지반
##개월
노화
머니
킬러
드레이크
##주석
평안
##보상
베버
취역
카지노
북진
연사
레이크
페니
카운트
코스트
심복
알바
아디
보행자
산성
카카오
언어학자
##남북
미신
쿠빌라이
상시
조소
지뢰
친필
콘퍼런스
##서장
파멸
코리
##캘리포니아
캠벨
클라
준하
향리
가변
공화주의
나뭇잎
태클
전반전
성시
재주
보컬리스트
편의점
원종
##공정
넘버
모빌
부활절
##글자
밤하늘
조던
##세이
##요법
요법
전동
익사
관동군
영산
릴리스
선한
이동한
사커
신빙
용사
##남성
도핑
##신장
##일인
개그맨
에코
##통로
궤간
소라
헤지
평화상
상쇄
##추
##사망
실장
구토
객
##문인
무고
##택
##울루
금화
대면
베른
##스페이스
최장
##현은
##크기
우즈
스케일
##단원
리오
처우
##경비
##가량
##소재
카일
후학
발행인
##분해
노릇
기약
스탠
장시
##정변
와카야마
획
온실
프로토타입
킹스
거래소
##유학
아가
엄지
암수
밤중
매사추세츠주
##장식
전사자
달리기
외야
루이즈
현관
비행사
이설
가자
발사체
본당
전과
탐욕
교섭단체
설득력
동북부
민물
##샵
##이적
기교
##개국
쿠데
색조
##팝
##주제
연어
신관
분위
톨킨
침착
알브레히트
철자
카타
##데르
##사기
조예
양군
##경보
선데이
노사
횡포
집대성
코페르니쿠스
목격자
##경험
분담
오닐
부화
##용어
엽
세간
##슈퍼
##기후
가와
수차
낙엽
헤딩
퐁
딜런
제반
비단
잼
박중양
이언
코르테스
협의회
비서관
공병
응력
학점
로버츠
허버트
군단장
표상
넥스트
정규군
단수
상어
소수자
준위
에다
##대비
일본국유철도
오비탈
진동수
##나치
손수
소가
도식
아리랑
말린
쟁취
기생충
##폭력
통도사
샤프
렘
미얀
영화관
묵살
레스
카운터
생원
목장
우기
##네이션
에테르
##란트
스파
##클
##기둥
열전
연꽃무늬
부제학
사법연수원
마돈나
##겨울
요리사
낙태
한국방송공사
##에스
길버트
##용량
주계열성
##국어
돌진
울타리
성추행
안주
열중
페드로
펀드
대진
치소
밸리
마쓰모토
##플레이오프
수번뇌
##교체
사법부
졸
##노스케
슈퍼스타
전투력
슬롯
온건
조참
컨소시엄
액정
취락
여기저기
호찌민
송의
에트루리아
대주
실크
상과
벵골
조반
젠더
나카모리
##계
##차관
자존심
아소
##시안
##무
포브스
대학살
남송
황해
##요금
화원
실황
영미
벚꽃
조현
조직원
고속철도
북베트남
##청과
키트
하산
의리
목걸이
최치원
봉황
상법
호리
종용
제후국
서비스업
탈바꿈
우체국
루즈벨트
시리우스
##득실
비트겐슈타인
속씨식물
대니얼
##코파
수목
##농
종가
성찬
##타르
울리
트란
변방
승천
총상
군청
혹
주청
교육감
##보조
켄터키
지장보살
로널드
숭실
볼프강
야채
승소
행정관
##진과
강가
##감과
택
##주자
매핑
##료
##이슬람
##약칭
외젠
바트
##도르
사무엘
궁예
##영의정
플래그
이제동
접경
시공간
금품
전해진
수이
축의
시안
고조선
남경
홍익
생산지
발주
랜디
비대칭
르노
아사
인삼
내통
##대로
전쟁터
품목
공훈
행차
참가국
훌린
만주족
울릉도
유추
전극
방어력
##상자
##분열
산인
스토
쌍용
구스타브
고요
초식
##용
청렴
세그먼트
한방
라치오
생김새
여과
셔먼
랜드마크
현청
옆구리
##등기
법당
오차
불황
광무
남반구
레오폴트
약의
간장
##성경
##여
새해
크레
계몽주의
포니
##매니아
순사
레이트
겸비
성충
미륵
고문서
도고
파탄
아파치
정설
태극기
##토기
유장
뺨
주필
주술
한눈
개년
##성단
싹
세브
문하생
암초
카리스마
박격포
##마제
벼
수류탄
요시노
진주시
##높이
이치현
웨
기독교인
돌풍
시역
데이빗
부록
크릭
미첼
정맥
문은
ㄱ
눈길
##농구
##겸의
개표
##너스
담론
짐바브웨
지바현
유물론
서양식
##종목
##시에
핵미사일
궁녀
계약서
##석사
원정대
사마의
광종
코로
강희
자갈
버펄로스
데미지
일축
상투
투고
##원작
킷
각운동량
엘리스
리라
용역
기만
의향
##주한
##스크린
만찬
괴
단발
메디
수호자
안산시
콘스탄티노스
궁핍
잡음
중창
정시
철근
밑면
##수정
무기한
요하
종반
파샤
유기체
##작과
유예
마거릿
출발점
재가
발부
선서
망원
추월
중대장
석상
포고
탈레반
농민군
거장
묘의
니케아
타이거
면도
재심
윤원형
##토프
이성질체
내림
##쯤
가우
연구실
문란
고스트
터너
##체인
##요건
초고
##임금
##원정
횃불
아이튠즈
인은
한서
총파업
##콘스
델라웨어
율리아
##분포
##기가
두부
실리
통계학
##춘
간과
사고방식
연장선
지배층
##수립
피치
클로드
에탄올
심리학자
프로이트
팔의
메사
창업자
기술력
매듭
수감자
천안시
정승
##휘
석등
히바
아핀
##러시
색인
언
##사용자
##성명
보궐
##관료
##운송
최남단
어딘가
시녀
레퍼토리
##석유
##기아
사투리
아르메니아인
종단
##파티
견고
불사
감형
공소
만네
무왕
여장
##웍스
박지원
클라라
##뷔
스팀
초회
##인류
수혈
저의
수첩
포르노
##국시
카테고리
그리드
세레
해산물
라오
친동생
잉태
##리크
카불
키루스
야구단
오렌지색
징후
킴
선인
가야금
##나이트
여래
후쿠오카현
키드
##마드리드
밑부분
자주
연화
##타로
##통계
사무관
클라인
트래픽
백자
##계승
##주사
##아카데미
매트릭스
##네이트
##대우
##구락부
콜린
입교
강진
차이콥스키
문경
중후
##지하
경원
다운타운
객의
마그마
##경
스타트
가디언
참배
그물
폐교
##마스
킬로그램
교착
목동
##렌의
공사관
##첫째
##비교
##난의
##학살
매월
좌완
미녀
어린아이
매립
표어
해수
광부
##예정
강성
부로
간통
코로나
무가
요도
화엄
현급시
영지주의
득점자
리그컵
묵인
##제어
정할
구식
##운용
편차
그레
기하
노선도
출근
과테말라
퇴계
##저항
총체
분화구
##강원도
곤
골수
장흥
페인트
칸트
위엄
어드밴스
세제
형광
##보르
한탄
상석
서대문구
방계
식읍
펜실베이니아주
무사시
오리올
스포르팅
페인
은언군
김영
비지니스
##척
커티스
송파구
콘스탄티노플
짱
이동해
알렉세이
##법안
컨벤션
다이스케
##일보
사회주의자
경덕왕
룩
행방불명
##출시
역행
일리노이주
##펫
요가
정여립
연선
서바이벌
테이크
뱀파이어
도네츠크
##디스크
사돈
씨름
파급
아워
이리
장령
땀
으뜸
후난
저스틴
##형질
실종자
수양
밀착
은사
##관념
안데스
성상
이지스
허베이
##확장
수하
수표
누설
혼마루
##부윤
러닝
캔디
일식
이권
상체
##보전
##전주
아브라함
##강사
그간
미소녀
드레
펜스
시료
당도
##심리
##극단
##요구
어진
지방산
아폴론
##항공기
하룻밤
##겔
약정
손오공
찬반
대적
##파트
히사
남짓
수송기
타계
여름철
정년
수당
앤드류
와트
##결
후버
국수
도합
아저씨
종일
템플
부트
페스
고독
분투
생산자
공학자
##로니
단련
군역
프로그레시브
처남
주상
승마
외직
마운드
만물
프로필
스피너
셔틀
매출액
탄자니아
학부모
##총리
문교부
매트
형이상학
순찰
회생
##스나
보두앵
약학
사조
증류
##슬
글렌
브루노
##효의
존호
##레이스
성제
##입단
롤플레잉
##운전
캔자스시티
금메달리스트
##대수학
강탈
##곱
저작물
로베르트
##교육청
기념관
플레이트
##버시
체구
투사
주둔지
조선조
지원병
마라
활자
계비
영등포구
##인근
갈리
프로테스탄트
##사라
##류
지급시
에이지
행태
번역본
##켓
레오나르도
조짐
해금
대한축구협회
##올
웸블리
픽업
음악인
##브리지
다섯째
토착민
클로
니카라과
환호
배합
##규제
##예프
용이
##변
호에
모터사이클
보병대
인조반정
작사가
산투스
해법
외래어
##서인
대세
누리꾼
##모형
복잡도
린다
##글의
방울
영하
밸런스
조계
안전성
안드로메다
##이중
논산
사이타마현
린네
쇼팽
##예수
인테리어
##몽골
김종
센타
팀원
윔블던
간택
방호
테무르
체첸
##경남
비정규직
산간
마이니치
수험
전문학교
경영진
조교
강구
##레닌주의
입안
총명
형무소
죄목
수영장
불명확
##니스트
##라드
메스
죠
캔터베리
스코트
##덴마크
##탱크
자치체
##체험
역전승
미카
마인츠
전철역
##랍
홍준표
착오
상나라
위안스카이
기형
유보
##파로
##경력
변명
제패
악용
##렘
이전인
장본인
비엔나
마카
##미스
사림파
표류
건륭제
유배지
뇌졸중
선거법
표로
돈의
하우
유엔군
오스트로네시아
코러스
포츠머스
그램
##라카
함포
##부도
속임수
퓨
기마
공양
제갈
간언
차내
하루카
##증가
퇴학
수훈
국세
##백만
국명
##고종
출퇴근
##물자
울
##충
##전남
가석방
쇼펜하우어
르완다
신비주의
미모
하시모토
독소
출몰
둠
쿠르드
피지
옥중
호송
뒤편
라이프니츠
생성물
배포판
피스톤
##이해
##토라
진사시
여흥
글래스
팽
온화
강물
시술
심볼
##쌍
마구
주황색
##티노
##제이스
산체스
아이젠하워
면접
땐
상속인
미일
##수원
효능
징발
에린
요시타카
로렌초
비트코인
상대론
거치
위세
대법
득의
중앙선
##이터
팬클럽
히메
최강
온몸
청교도
파인
망막
##아비달마
##방면
보이즈
##섭
##콤
로펌
발문
뉴기니
송준길
가시마
진보신
경직
##화물
산기슭
작정
부역
슬라이더
널
##문명
시킨
박수
마타
입회
지남
아틀라스
##미야
슬럼프
##기념관
##지회
윤리학
수역
블러드
##제한
직구
관립
시암
송이
##문고
포탈
지원군
풀타임
##이라크
광원
성현
고증
오와리
성왕
##얀
녹훈
마틸다
주자학
##카야
심슨
파이터스
동맥
질타
##누
로랑
쑨원
양양
##출판사
질책
남아시아
야행성
글리제
채운
실물
##전부
서대문
잡스
미겔
##유형
흡입
포메이션
마리우스
발화
스위트
범퍼
##카메라
실격
컨셉트
은행나무
오카다
돌방
생제르맹
맴
용품
파드
네덜란드어
송금
##목록
결속
채팅
레비
원거리
헤이케
열반
용법
설계자
국을
타개
에리크
아이치
민선
연일
엘레
##설정
소나
로만
콰
신숙주
##옥
눈동자
뱅크스
강론
카톨릭
이규완
닉스
앙주
마왕
##벡터
도기
소학교
이사로
김나지움
악어
광역시
##전용
마한
라이스
##전환
##본국
상계
감기
비명
호러
호종
학창
##박정희
은하단
종별
민원
양조
보호구역
헥타르
밀워키
그레이엄
도이
비료
리키
염료
성녀
릉
의종
경당
##열매
로테이션
유린
학식
조제프
성가
보이저
##장론
여명
##워스
##브라
##진행
해럴드
스프
등대
평양성
합방
쇄도
압승
줄리아
오자
포자
카롤링거
랭스
시즈오카
##몬
##본기
본대
소마
스테레오
휴게소
조식
변제
스타즈
보이콧
한학
##다양
안드레
##오픈
정찰기
청정
히데키
오클라호마
##유통
##살인
여호
##조절
코팅
이색
고창
미나토
하르
현악기
의탁
쾌락
코민테른
나리
테오
김종직
후시미
에이커
주교좌
셀틱스
상파
본존
종교인
평탄
금관
견이
리차드
카오스
##수업
수모
아타리
양각
오카자키
고로
미완성
승화
추진력
영성
##그라드
변속기
한도
성안
스포르차
볼턴
알론소
시미즈
관중석
렐
##웰
카이저
시모
##회전
유리수
천자
불안감
상권
기복
후백제
온
##스토리
##베타
프린세스
불길
계엄령
##침
향이
음식물
축약
불멸
연작
트리오
##요한
##구장
스와
펜티엄
흑사병
나카노
##라오
코넬
전시관
프로펠러
##연도
하디
프라이드
편집기
이튿날
##구도
공직자
일리
거듭제곱
방문자
속출
시작점
집약
블레이드
##동년
동결
거물
이방원
##판관
평의
명부
도독
##홍의
##선진
노브고로드
튜
마모
이동식
바레인
심포니
##부서
콘셉트
정량
리서치
대한
에드먼드
##와인
헬스
헬렌
귀족원
포천
수녀원
애용
이탈리아인
요구사항
이삭
##어업
알레르기
기절
번진
##춤
##빅
도금
짝사랑
시나
전망대
판의금부사
켈러
##브랜드
도큐
말버러
방탄소년단
##특급
##국민회의
용납
영등포
두만강
코프
모기
부응
##단순
##대전의
반유대주의
현안
딜
크리스티
알레산드로
##유로
기에
중견수
##실록
레프
##노르웨이
메르
툰
격노
리치먼드
멤피스
##참모총장
##구치
건안
제방
유구
폐비
##몸길이
올랭피크
만슈
금이
화염
서훈
뒤셀도르프
백지
##진영
차후
군집
실력자
국채
한진
셀러
총합
##위크
우간다
신구
각별
##교통부
로런스
대표인
니체
도마뱀
모국
헤르메스
부군
엑스트라
디오
선법
돌궐
샤를마뉴
약제
소시지
피리
클랜
봉수대
석불
##원숭이
##결승전
무비
두기
샬럿
바나흐
##콘서트
총의
진폭
전량
성대
기동성
추석
말엽
펌웨어
이노
도에이
##전원
사이고
뻔
성북구
야산
##마리아
해구
버나드
닌
비시
남아공
##베스
마사무네
##실과
히메지
송강
역무원
실링
저술가
##상수
예우
##표면
가처분
레즈비언
누릴
악영향
서귀포시
지오
병세
옥고
근거리
고성군
서지
플리머스
리얼리티
엘리엇
##미쓰
반년
선단
다이라노
무당
##정류장
##그래프
관음보살
우크라이나인
회자
도라
흑자
문화유산
출생지
유기물
발상지
명기
대학원생
그로텐디크
솜
분가
역적
##신성
##서열
철원
대관
신예
하스
영유
교차점
미트
근심
엠블럼
힘러
##함
##숙종
##야스
제보
인대
상감
제이크
브라이언트
김원봉
강서구
##지휘
명절
일약
나날
정글
슬라이드
마쓰이
시트르산
##탈
수조
부락
서로마
##만족
풍미
박물
라리
허정숙
용모
휘발
##백제
진흥왕
##사토
황갈색
가속기
오타쿠
개요
##텔레비전
##라프
괴테
세무
특검
면치
공기업
##오스만
동급
##실천
오세
돌고래
서드
테레사
강경파
명명법
와이파이
사카모토
연출가
케인
국경선
삼위일체
##틸
야스
원정군
어항
휘발유
미요시
##교단
자카르타
프릴
##해석학
담화
내역
##토니
밀턴
적성
##소비에트
강수
안재홍
##상사
화물선
병용
주니
##사면
조광
허구
##나기
선언문
세일러
효고
판독
해치
##강과
참판
뷔
녹말
디스코
##속곡
스피어스
##미니
정산
오모리
##릴
##교위
퍼펙트
프리큐어
##물리
##항쟁
판도
합천
디랙
트레이너
비핵화
조소앙
생산력
발명가
무신론
윈드
관서
##정은
##학당
##히로
상층
트랜
자네
게시물
사르
##보호법
거주민
##육의
예배당
패소
레너드
망라
절개
##부품
##조조
##자동
케로로
페미니즘
시설물
##콘텐츠
핸드
대정
뉴멕시코
베이비
파이어폭스
페레스
##아동
칼날
효자
##부위
인슐린
소피
##인증
보우
윤회
서아시아
중류
피고
##기억
##진단
훅
##폭발
피렌
요시노부
에인절스
트루
인장
가리
암벽
사키
오미야
리노
제르
##캐스트
방어율
설리번
서간
언더그라운드
자유주의자
소감
##무효
##재건
회기
아즈치
진척
릴리즈
대혁명
중국식
윈난
평온
해왕성
도조
##감각
듀크
휴양지
지세
마라도나
스탭
##연평균
쥘
교직원
항모
##기원
위아래
나포
##헌
아르타
##케이
안녕
전봉준
대니
페라라
##개찰구
##워싱턴
사라지
푸드
극성
호쿠리쿠
픽션
팻
단추
시일
감사원
##부인의
검소
소시
##진주
##행진
##차장
덩치
수찬
카르타
브리트니
##페리
봉토
리저브
페미니스트
##반경
나스
선수상
브래들리
헬멧
식년
다자
교두보
비활성
납득
소각
곤도
##믹
다방면
노후화
양궁
##수익
장시간
탈선
##대사관
##교도
명망
레이아웃
##창작
##감시
총탄
덴버
캐나다인
##학파
껍데기
록의
김천
항공대
계모
이시다
서군
익산
팔레르모
문하시중
흰개미
발사대
비스콘티
대수학
하나하나
일관된
##회계
##큐
##서버
해발고도
테드
썬
##스턴스
리소스
포켓
퍼레이드
##랩
대마도
아쉬움
벡
무제한
호인
페론
##향상
제노바
문어
가오
재적
전폭
##충돌
포레스트
정반
우여곡절
이시카와
양지
다이오드
아역
##나스
논설
독학
##집합
생후
##표본
그로스
중학
남해안
##식사
긴장감
##연수
사실주의
자력
빅토리
시련
극소
독신
방위군
도운
우스
##주간
##딜
면화
##뼈
카토
점령지
##스코
##블랙
우쓰노미야
진주성
##버지니아
관람객
##링크
취임식
자부심
폭발물
소량
마운틴
장력
시발점
남북국
히타이트
베일리
아호
최우선
책상
##성향
반탁
옴
##테러
코딩
필기
문항
##훈
청취
##춘의
서울특별시
하녀
정열
레지스탕스
머피
##모스크바
커맨드
창이
클레오파트라
초음파
천구
##무덤
퍼거슨
저희
병부
레저
경무
파올로
##선발
##스쿨
보그
##튜
세미놀
작용소
직선제
서던
분이
트렌드
박차
##지구의
##유전자
주고쿠
##동포
가르
##메이트
옥타비아누스
신정부
각하
만회
엘튼
평이
기류
미안
트라이
런타임
대륙군
내수
보나파르트
시스
##넌
사보
##동료
해머
코린토스
사바나
크리켓
풍의
##비스
다면체
##세르
밀교
##카라
갑과
총감독
필살기
신의주
##호가
##호크
##헬기
수탈
툴루즈
스털링
잉카
장서
명목상
##동원
프레드릭
만화책
임업
다량
군기
제복
바티스타
승전
바쿠
마키
가부장
사비
연명
시라
##슛
회중
모듈러
승문원
##로버트
##일정
방전
셀프
브리핑
글의
프리츠
햇볕
경영난
##로켓
줄리엣
환생
가인
현무암
##기관차
심도
##학적
관광업
##동사
어부
포식
무지
육안
얼스터
굴곡
은화
충성심
아비달마
슬로
불운
사천왕
말레이어
궁의
##잉
##노마
태후
멱
로리타
##단일
그걸
백조
조르주
성찰
베다
메탄
원수가
비무장
배럴
장덕수
난폭
나기
나사
미시마
통정대부
압류
심근
틈새
버지니아주
하코
동티
태세
휴
무분별
엡실론
살상
프리랜서
스토니
창세기
##합전
목과
진천
가오슝
의관
알베르토
보니파시오
캡슐
##헤드
레딧
사령탑
전자기파
석이
전임자
계명
전조
진이
덩샤오핑
급감
교통수단
##수리
악몽
##기소
##이란
정읍
##부호
##기체
범어사
일진
##경영자
##터스
지청
경작지
##프로이센
들판
골대
포세이돈
테일
##유수
반혁명
동자
##행법
##토시
##트럭
첨
의령
공문
요시히로
육아
이로쿼이
교각
시간표
##본선
문인석
미쿠
원더러스
사부
로리
근절
##피아
가하
놓
##비상
열린집합
##평양
진해
사학자
해류
산사태
왼발
##사회학
적시타
총수
##라루스
우르바노
광동
산수
업의
##서적
이론가
공언
강아지
매니
탁
영화상
회송
##리투
닭고기
직사각형
##정의당
조차
노이만
힉스
부사관
밈
대역폭
북반구
##민회
서얼
육류
##마트
서기관
군도
##농장
라임
수서
시연
성산
바실리
황궁
시라쿠사
유자
다람쥐
미들
청송
말투
씨방
지휘봉
##해결
대일
만행
크다
펀치
개정판
터전
아르키메데스
##톰
고비
온게임넷
##다섯
전체주의
시르
후륜
수소폭탄
마자
몰린
파이썬
##히틀러
로도스
협연
##경북
헌종
윈스턴
연접
코덱
##토르
현세
판각
##닐
번안
호나우두
노마
프라이스
평산
캐스트
물병자리
합체
차량기지
역간
에반스
##관측
재귀
##한반도
제철
중생대
##합동
수배
인도인
##믹스
그게
##비평
힌
조선어
##가을
##오카
노히트
터키어
펭귄
대각선
분실
전소
모르
채플린
스루
협공
##케스
가나자와
펠레
##이코스
개폐
게임즈
원담
항등식
푸리에
##비리
##페이지
돌보
대통령령
루지
##소비
통학
분대
군락
무상급식
스킨
압둘라
##관리자
무위
##헨리
##대사헌
##보로
덱
유형문화재
남문
우참찬
심층
##고양이
풀럼
옥개석
##아계
##딕
##원자
간도
교통량
신뢰도
주성분
##캐릭터
플라스마
뒷부분
##토모
쉐
##텍스
더빙
학생회
쿼드
전집
노미
자유도
은신처
엣지
과도기
자위대
농경지
##참가
광대
##조성
중합효소
북면
만국
김홍집
레이어
##에르
크롬웰
##도서
소아
뒷날
군관
각오
족장
파르티잔
중군
윈터
미그
하이델
##테크
일렉트로
군무
시왕
시냅스
웰
승무
활력
도함수
영월
고려가
포스코
파주시
번사
마더
프로리그
혼수
더글라스
명동
외손자
학생과
##여객
##전라북도
생부
레아
공성
약체
지카
##역명
이봉
법대
무안
방어전
##제목
포병대
얼터너티브
수마트라
##채권
검교
##학명
린치
에볼라
세포막
고려인
식료품
흐른
보수파
성토
수계
##소프트웨어
호스팅
바일
뇌터
##구글
이기붕
답습
##학문
구독
원통형
사외
##상하
칩셋
양산시
군자금
##동상
우동
주법
혈연
공민
숙고
베르나르
감독상
##부스
##스코틀랜드
명주
등반
서재
문무왕
접대
##랭킹
체르
##벤츠
레인지
인버터
동인지
수선
코미디언
##서가
라스베이거스
육의
버밍엄
방학
##오른쪽
정반대
##문화방송
저널리즘
오가사와라
학년도
가와카미
##포항
불허
##성능
조모
수신기
에리히
델리
임하
##히토
김유신
아드
화성시
관작
##얼굴
##치
주스
에디터
합격자
군소
##여론
영세
##숭
비로
##해외
구릉지
항이
광석
마사코
주간지
탄원
풍조
무로
##연결
##보가
##상승
시모노세키
철십자
라디
##고지
크로노스
플루트
##프라
##책임자
##애플
누출
명창
부평
총신
도요타
승탑
토이
유표
신심
테베스
단락
염화
##보리
흐루쇼프
견습
지적도
부마
우랄
##후일
설계도
용매
납북
인터럽트
고심
진보당
##원수
##상학
##욕
유아기
##이브
투영
##옌
생도
테이
절멸
테베
##룰
정유
정부인
##맛
인턴
기관사
보급품
보상금
부스터
병영
카트
정장
##유산
은총
문무
##렉스
삭과
소사
강화군
시노
현내
좌찬성
카우
최우
##락
선덜랜드
연금술
우화
옷감
친위
공관
고윳값
베르너
북송
##보위
##전서
환경부
체온
일절
코스닥
벙커
##종족
계획안
안과
호메로스
함축
밀고
##국왕
스탠더드
목화
##전지
의용군
유상
에어백
적위
가창력
로맨틱
요한네스
##바스
초구
기뢰
클레어
멕시코시티
##스톤
회남
##에프
주박
록맨
땅콩
은닉
투척
##방해
애국심
해답
언젠가
매니아
외적
##사찰
보임
##포가
삽
염원
아카
##흥원
##발견
복고
포유류
엘리자
자위
주둥이
대종
노르
##군주
얼라이언스
청구인
보주
프리즘
칼리프
트렁크
재촉
##사도
어가
질감
칙서
옥천
쌍방울
셔터
대국민
선산
적시
입건
유타카
대각
태평
탁구
##지휘자
부산물
효시
신간회
유력자
날조
테크닉
##차인
멸시
부와
남양주시
통감
퀘
모노레일
##비판
오보에
솟
회랑
파피루스
히말라야
눈썹
디바이스
##타현
잎겨드랑이
##융
유약
이황의
스리
공로자
아사쿠라
몽고
예장
연극배우
금리
역원
##직업
홀로코스트
쾌거
포구
교토부
지온
대동강
천억
가출
나눗셈
반감
##군관
범
사간
##동화
##망원경
자퇴
브로
아우구스티누스
빌럼
##잭
티탄
포터블
치부
##변동
조엘
##신인
경건
##후사
마스터스
제니퍼
폐암
이세민
##천안
프렌치
이사벨라
무안타
스타드
리뉴
황도대
완봉
스나이퍼
엄정화
김택용
##법과
민주자유당
##설과
##만일
소국
초인
조력
관공서
사춘기
오우
원뿔
주성
귀납
##할아버지
##벨기에
낀
살롱
바우
##머신
##자네
##강도
분전
성년
아케메네스
##노비
##청주
삼성그룹
차베스
별시
퀴즈
게오르기
##띠
배영
폭스바겐
나시오날
해적단
민권
불가사의
##천만
##문헌
중앙유럽
인현
말살
음소
모사
장학
칼데라
콜라보레이션
##부처
한성부판윤
플랜트
중흥
아라카와
마린스
유파
펄스
덕의
##적자
리기
##아목
재량
재통일
##기단
##어린이
중문
부적
시바타
##히데
경산
입궁
자락
##공룡
##매치
웰링턴
##리드
법체계
코코
광시
국민회의
옥타브
동반자
농협
조계종
##게이트
국권
교배
프레더릭
이집트인
하향
##부모
##전보국
##사마
##찰스
##호프
##타입
##명인
직사각
##옛날
불륜
세비
수뇌부
위클리
##식과
전리품
부여군
못
##영업
##태조
홀딩스
각본가
해수욕장
마르코스
##랙
미츠
용수
둑
##충의
근신
스테이트
작과
갈라타
드라
계로
##럼
전교조
##좌파
##척의
정파
굴뚝
##기본법
김성
생활비
##선고
달라이
포워드
부정부패
수완
삼남
스티커
##짱
니치
별과
접견
토비
참봉
강하
격의
미켈란젤로
기악
메소드
##정조
팩토리
수고
라디에이터
앨라배마
구덩이
완승
개와
몬테
빈센트
##보컬
호지
게이초
유성구
원주시
청풍
##천사
유루
와다
배수량
다이렉트
베니스
경호원
##우수
공생
응축
라그랑주
소수점
##중화민국
경부고속도로
##개방
##디온
피선
노먼
##카쿠
인류학
##라즈
산군
이인
야후
##日
겉모습
##정서
갈망
불우
헤르베르트
##습의
알렌
후각
국물
##공공
##브리튼
아비뇽
##보고
헬로
소질
백의
##이치
외출
유주
레몽
안보리
트리케라톱스
실드
데메
팬터그래프
신변
봉화
##평야
정의당
##고속도
생태학
##카페
##브로
집적
애착
북단
주제곡
약품
맞춤
만능
심혈
선적
##사상의
버틀러
콜레스테롤
호위함
##머
찬가
출루율
##살의
첨탑
기력
대하
스트라스부르
코무네
울트라
##후왕
토모
아이누
##네오
##저압부
##옹주
부분집합
##빙
질적
##음식
인덱스
김해시
외화
판시
괴팅
헌법재판
시어도어
원작자
풍화
매기
##경전
유임
배격
배재
부산광역시
호놀룰루
어니스트
오쿠보
조언자
금발
다득점
##바이에른
테스
역경
트로츠키
탄산
민회
완장
##프레
##요시
우마
하진
##슈트
최단
산신
윤선도
##빵
레이테
종착
스캔
니콘
푸앵카레
과천
도플러
다케시
##사냥
살포
봇
자격정지
사회부
해부
순응
모치
##킬로미터
화순
흠
오랜만
맥도날드
##라이
정약용
소급
앞다리
##가드
쇄신
리브
##모어
김종서
##법학
로베스피에르
탬
뉴저지주
##노현
오하이오주
공론
대륙성
성형
##사학자
##가운데
모더니즘
가속도
##경성
품위
애호가
##브라더스
##구동
수난
궁내부
청혼
마젤란
변경백
##의견
##엄
석물
##이용
버크
이동은
타일러
왜적
이괄
순절
퇴단
##사학
##산소
초전도체
##유공자
브란트
##수집
해밀
##특성
##바닥
소작농
##표기
##지형
직역
앰
마취
레프트
외무대신
치욕
칼리파
조선임
병상
블라디
금광
##전도
보호령
에런
좌초
지터
클론
##빌리
##사제
모계
외전
##아라비
담의
법무법인
가타
##웨스트
동지중추부사
케니
클랜시
로트링겐
임사
복사본
원판
켤레
풀기
##재정부
무례
전문의
남북한
광의
컴포넌트
정치범
밑바닥
노이즈
##팡
존재감
섭동
전리
베른하르트
##도청
사탕
신조어
찰나
투자가
이방인
스펜서
올빼미
경화
수호신
명곡
##승인
글로브
무정
야유
쌍방
본디
피에로
차녀
지브롤터
##베스트
악행
공양왕
로스트
##코르
##오브
행선
발차
수니파
패러데이
토와
##쵸
다카시
##대칭
변위
##기동
임지
콜라
집합체
막이
흑연
인도주의
낙점
조건부
전년도
구로다
뼈대
##줄기세포
만하
맬컴
##엄의
연례
드리블
부적합
카카
냉동
성조
의정
일주
왕녀
세인
카네기
부동
이스턴
히로히토
##마운트
##댄스
국화
사성
공납
석축
제니
다이요
주공
소방관
앗딘
골문
갈루아
##도중
후미
실습
구파
##고속버스
헐리우드
대양
연경
루소
낙관
단죄
##그동안
자연사
작화
하루히
브릿지
##측정
특질
##구미
동족
분류학
오징어
##현존
성급
강우량
블레어
루니
물색
이순
랑
##입대
몸값
쓰가
현령
홍백가
자작곡
토라
영내
뉘
우에다
##증상
소현
사가미
우등
롬멜
##엘
미야기현
열등
##月
만과
신식
공단
이심
실형
일례
유사시
##악단
공백기
원제
연면적
생쥐
항변
대함
테슬라
병설
이데아
노던
주신
항저우
롯데월드
병참
##트랙
##워드
라몬
##스티
무스
볼거리
##매일
재건축
종친
템포
모잠비크
단말
을과
크리스틴
옹주
표시기
체리
데포르티보
임팩트
##질레
##케이드
덮개돌
새천년민주당
누드
붓다
달팽이
중앙당
고이즈미
법학자
개리
주당
보일러
통설
멧돼지
남침
##확대
##동자
한국사
관측자
일신
##경로
한양대
징역형
스틱
##시작
송광사
나우
팬덤
데이먼
눈금
만석
그라
##히어로
금기
하동군
푸른색
합중국
정상부
키케로
진과
말라리아
관사
상층부
타
반대자
맘루크
예멘
##위험
산화물
##총관
파파
태정
앙골라
에치젠
계림
##받침
##부지
사극
화전
뒷다리
방수
조운
##밑
객사
##선교
##보살상
##물리학자
각이
행세
##전반
청계천
울루
견과
경험치
##니카
영도
##마이클
런던탑
남진
골프장
단언
공덕
기네스
울림
##장직
아킬레우스
##카운트
그레고리
정순
황조
##도장
조망
타타르
##본이
수작
낳
진봉
##십의
이황
쾌
스파이크
하가
퓨전
전각
봉수
우메다
언더우드
헤이시
##왕상
광우병
유키오
소신
##촉진
##유사
당면
물길
통신망
방이
##출장소
워크래프트
알렉산드리
저온
황금기
##기스
##촌인
샷
피크
중원소
외양
##생태
사담
상징물
##연주
안드레아스
유괴
헝가리인
솅겐
앙투아네트
출루
월리스
모티프
미하엘
구속력
히스파니아
훈련장
##포르투갈
##혈관
청화
중사
##사자
국판
테크노
파이리
트레일러
원더
체로키
선풍
추징금
애도
서울역
생가
다각형
페르미온
석호
교통부
하우스도르프
##워킹
산발
##사장
확장자
말미
글래스고
탕
##상담
영양분
##호수
매크로
##벡
유스티니아누스
중앙아메리카
슐레스비히
건반
천궁
유명하
테너
공작원
바니
박원순
화엄경
워프
메이슨
신앙고백
##웅
봉신
여고생
동대문구
춘추관
무한도전
충숙왕
##여우원숭이
엘람
인터랙티브
스토리지
토드
알렉산드라
카트리지
응원가
에가와
고분자
계파
생명력
자모
영화사
밀수
자주포
페터
보육
변칙
패드
진짜
러더퍼드
상무위원
##실에
소관
민의
##총국
영일
##제인
양방향
브로드
부총재
##오후
증득
유위법
오랑캐
조시
종성
##조례
##남편
포뮬러
##셜
##정랑
대프랑스
##컴
선발전
아즈
##우크라
일격
특파원
로그인
고위직
여가
갑오개혁
정선
페달
물방울
주동자
퍼블릭
기계어
역관
적십자
루키
신대륙
로잔
바울
##사당
아드리아
두목
##노르
나토
초순
편수
폭설
명지
칭기즈
센스
심어
투르크메니스탄
##염
##파이
##에이
기입
낸시
공격자
리나
이스마일
##능
조선귀족
요시마사
하행선
와이어
테레지아
##시랑
낙마
요트
판화
왕망
##교토
##군청
남이
대작
##경관
적혈구
강서
##떼
벤자민
원안
싸이
시행령
##정공
본점
미즈노
알카에다
페니키아
우한
플레
##쿰
섬기
홍주
커지
콩쿠르
종주
시구르드
페넌트
책자
##읍성
쓰리
회개
산불
콘클라베
밀레니엄
보카
일대기
회동
후쿠다
##장에
##침의
##자나
##외부
패닉
수구
스펙
순국
건재
에뮬레이터
정액
맞춤법
생산물
설날
부계
홉킨스
에너지원
신사참배
밀정
광해
지느러미
소치
##하원
모음곡
##박근혜
디의
토요
카잔
세스
숙적
##뢰
##퍼
유모
자이언트
안토니
퇴거
가와치
의성
사하
웅
김제
코인
드래건스
에노모토
##트리오스
파우스트
비정
분신
미국식
융성
코레
##천문
귀부
중년
##유전학
트랜잭션
나뭇가지
##해안
##대혁명
윤웅렬
충의
사별
노아
##정체
##툴
벤저민
웨이브
##어파
잠자리
##만주
본드
분장
야마시타
색한
중턱
접종
창법
남코
체사레
주유
크라
병마절도사
무한대
순방
쾌감
##중립
제곱근
연비
##돌기
의석수
##입학
카메오
공모전
중시조
부팅
이상재
##음모
마트
통째
전봉
제작소
위스키
##번역
강습
중합
스코
빗물
##수호
엄호
안드레이
초본
수사관
고부
##예방
모란
콜드
야마자키
음각
##레크
향하
무네
##현역
##소학교
스웨덴어
##차례
자유자재
쿠르트
##상호
백두
마주
##수용소
##스케이프
중진
##화성
초신
##상공
생물체
##쟈
게양
지멘스
블레이크
음악회
##영웅
평점
생사
스톤스
변증법
샤먼
딸기
분말
지명도
##비츠
보필
##규범
폐번치현
속옷
도네
##도우
해달
삼존
척수
이산해
풍력
##타우
##레인
카세트
매튜
##사라이
괴인
민코프스키
##시각
##평면
에로
소양
예금
연합체
학내
##모모야마
##오토
프레디
생원시
##돈녕
인준
익스트림
##잇
허셜
비견
##언어학
바라
라이터
제사장
사로
드로
배심원
중견
죽이기
반장
##교실
##고용
음란
##웨어
웜
진구
복도
씩
울주군
사업비
##바시
##인회
시크릿
베드로
##머니
플로이드
##상대식
셜록
양제
캐스터
##바둑
오리온스
##받침돌
소품
등식
감격
부유층
토우
은하수
##청나라
온건파
##지하철
기득
##직과
##윤의
오로라
징벌
반려
사사키
파트너십
글쓰기
옷자락
트리니티
매춘
##현실
아명
발자국
관리인
침실
##지능
춘
야전군
아퀴나스
절연
닛코
마사유키
피질
합천군
아센
모리슨
에타
성터
위층
이와키
매점
코우
에나쓰
실학자
명품
세례명
수론
계산기
포용
자동화
베르크
상륙작전
##원주
컬럼
홍대
##대법원
##태국
참관
밧줄
부차
에어컨
망상
##인조
트라키아
네이션
기차역
귀도
##강점
초음속
##스토어
퍼시
카다피
황태후
리타
스티
티스
##세트
고야
##존상
##존스
##붕괴
좌참찬
예수교
소장품
빙판
##주머니
표준궤
제시카
비욘세
수화
도가
대권
의전
주미
살림
신년
독보
은유
세타
간척
일어
미화
곤경
위문
대리청정
##건조
사마시
콘스탄틴
징조
##슈테
산호
애스턴
재경기
##기독
안후이
기스
수송선
데카
##낭
그건
프레데리크
##첩
잔재
라이플
영락
슈바벤
##벤투
난쟁이
무안군
##녹
##사카
명탐정
구매자
코너킥
카를로만
김보름
행이
##자살
동북아
도깨비
##대응
한국일보
유카
장막
디시
##문은
변태
오른팔
##엑스
##온라인
후송
##기로
수행자
획책
꽃가루
어댑터
위서
닉네임
##비밀
##지위
사보이
낭인
방랑
급식
통행료
내해
##흠
소드
퀸스
플레어
고쿠라
코코넛
북문
신호장
##흥
걸스
시에나
디지몬
나인뮤지스
음수
연성
##실수
독립선언
##이명박
사족
##닉스
거스
각계
##수요
지하수
넥슨
##하드
버블
라빈
지중추부사
도호
##배경
마신
동급생
수사학
명작
잡종
비대
이공
연원
형세
파이프라인
대소
양안
독이
특산물
레티
인더스
소프라노
용감한
유니온
알레
압수수색
마산시
이변
에메랄드
##브리
에픽하이
증명서
브룩스
개점
산적
앙코르
지석묘
수납
##병마절도사
##펀드
샐러드
등애
마애불
##스트로스
호드
헤비급
오다큐
가마터
선전관
사다리
원성
처자
귀결
##동일
##교과서
##이래
최북단
토사
##신문사
변성
가전
##포스트
아카이브
마샬
협력자
사멸
역법
고루
##유전
에이브러햄
작풍
습작
##렌즈
충절
콤플렉스
루가
건륭
##화석
##잠수함
영공
브루나이
하시바
시전
서녀
로미오
마시
사철
모리오카
샵
킵차크
데크
일개미
##포장
##김대중
##멸
소인
##앵
봄의
쿠키
##춘추
텅스텐
신파
연평도
환대
##소수
라스트
석좌
신해철
트레인
힐러리
##아침
에릭슨
잘츠부르크
##정과
교유
환각
공범
은의
##터리
##종위
초도
입헌군주제
템
리트
재래식
체액
##초창기
브리티시
디아
폭발력
남오세티야
현대식
유니콘
다다요시
광주시
흉년
차드
대사성
무루
절로
구레
원죄
블루어
살라딘
엔젤
스쿼드
람보르기니
심플렉틱
창제
##여진
학제
도처
무녀
질주
진왕
운전석
반원
호스
차륜
##볼트
고뇌
폴더
##계산
##현령
해충
뉴펀들랜드
상록
펫
스테로이드
선례
봉급
롭
작별
레버
제례
시발
##외국인
스피릿
##데일
국학
측실
##종착
대교구
자연석
뷰티
라이드
트랜스포머
수동변속기
협시
미달
추축
참석자
##엔드
##무리
축전
한국예술종합학교
강팀
버릴
표수
팔라
반자동
집시
에피
담수
##유치원
파도바
미노루
교포
휴식기
##전술
지망
김정희
숭상
망토
별자
요아힘
성내
##금액
조에쓰
무주
반다이
사보이아
롬바르디아
난부
평영
에스메랄다
상세
동역학
##단백질
통일민주당
기업체
강연회
##수소
##샷
약어
최고봉
##도상
##명단
##회의소
대마초
뉴클레오타이드
간염
남학생
네바다
##굿
정평
라부아지에
미로
국제기구
퓨처스
한수
간략
양평
즙
클린
폴리네시아
##가요제
##검의
##당나라
후쿠시마현
##원사
##개통
키미
##타카
허균
주둥
네빌
디아블로
이자겸
기일
촉탁
걸림돌
슈뢰딩거
##반란
남대문
##페르시아
문호
중산층
##리더
##제시
탄화수소
부주석
바바
업고
다롄
상술
투과
단맛
지명타자
인품
만두
대궐
에드윈
영연방
브리즈번
타국
근해
인문주의
##전당
##역대
서고트
액자
장신
향로
신데렐라
세터
배송
요의
셔
##하마
간극
앵
##진압
소문자
대성공
현대그룹
##국민회
풍선
율의
파울리
##치카
경제성장
백혈병
##하트
##분화
군체
주방
웰스
셰필드
##진에
##실력
개신교도
게이츠
짱구
기호가
지원금
청장
관음
당기
재조명
입항
폰트
와이오밍
영해
적인
우익수
불순물
윈저
인양
혁명군
##경과
낙원
장론
군마
해골
부츠
녕
##미아
퇴적물
생기
체세포
소경
사쿠
당상관
장공
대축일
안세이
민자
랩퍼
재킷
낭트
마르티노
##바리
호쿠
볼드모트
조만식
##지지
사저
행렬식
닐스
최순
마을버스
경의선
인민공화국
수세기
##경우
권위자
콜로니
평양직할시
통일부
##당은
##예배
화차
청도
##시도
문학사
배지
조선족
이복형
##도인
##재배
어셈블리
입소
호박
##주교
크리스토프
화형
##면역
클레
타지
후베이
전능
최신형
전서
잠복
장신구
##셋째
부조리
시해
간질
페리클레스
음서
마사히로
매상
유관
황태
감실
낙랑
##민스
##절도사
##페어
장경
하비에르
파평
동부승지
로터리
다카사키
카니발
마쓰야마
##유기
다비트
##뮤
낙인
소변
##시내버스
##권리
관악
금과
크레이그
##국민당
볼프
의약
##리티
시리얼
##팀장
규소
코마
##신체
##파인
스키피오
낙후
필로
카마
##혁명당
안무
##드웨이
##권한
출전권
유미
인스트
메인보드
이니셜
##코트
브라운슈바이크
##인도네시아
이마트
구독자
쿠알라룸푸르
이쪽
##발사체
쇼니
다치바나
탄창
오웰
실감
몽골족
분모
##세상
수정안
벨리
블의
동식물
매장량
##홍보
수적
폐업
성행위
아연
테오도시우스
##준
초전도
쓰루
간헐
##줄기
위그노
시어
쌍이
비변사
요크셔
##타이완
##게이
##특전
묵
##미사
블랙번
전륜구동
법상
사라센
##추의
고니시
##교도소
##무사
당간지주
보소
성범죄
아헨
##진지
##개미
완전열
지드래곤
##레인저
아뢰야식
##수와
간디
간담회
분립
이시영
피격
실업자
후렴
최고점
배기
방북
##구인
커튼
##낼
통곡
지기
순천시
전령
##구성원
번역가
실례
식생
베니토
키르케고르
알토
카스트로
보로
##순천
##친의
##룩
인방
로시
포에니
역병
주모자
람다
순정
##로크
점성학
서양인
이완
##매매
오로
선덕여왕
흡혈귀
양평군
네스
사액
기즈
소유주
청두
##착의
곤살레스
##앨
통찰
물리량
멘토
이오시프
계엄
업종
경마
##산업단지
말갈
진법
신촌
수에즈
강착
##철학자
오메가
예제
게르
능률
난방
프런트
육조
권신
##좌석
##찬
카펠라
황국
비밀결사
##육상
비고
##대금
사모아
##침해
맨
양공
수도자
바스크
실외
배차
각막
레이첼
약재
허적
시우바
공작령
무인역
달렉
식과
공문서
단가
고환
수산화
네이티브
충만
포항제철
매혹
##문화사
지배력
블루투스
제비
##그날
문부
부안
상복
훈련소
졸업식
신입생
말린스
벼농사
우계
고구마
##노인
급성장
단테
좌익수
생육
소프
재처리
트랩
담양
##파워
유창
초명
체르노빌
발트해
동과
전출
##리프
침팬지
티르
경순왕
재방송
서킷
만민
난바
미주리주
덤
검술
니코니코
묀헨글라트바흐
##니시
토키
마도카
이승훈
양립
##셴
코멘트
로프
의화단
남명
##완
##체로
##삼국사기
튀르
물고
금연
##선전
##메이저
##사직
핍박
발돋움
워킹
##이동
노린
찾아보기
소학
철교
히스패닉
매슈
스모
레바
##우가
여의
독립신문
공역
버릇
실화
##가루
외아들
드레스덴
##상실
가를
이슬
##아노
##영조
아우디
서초
목포시
네브래스카
나가오카
##무관
시퀀스
신이치
태위
##품류
##문집
표현주의
##종전
곡률
전업
언행
양해
다각
비화
보행
상승세
##부수
영접
민의원
내고
사용법
노런
##국악
##티아
웨어
출신자
평가전
##레트
소르
바덴
##인인
배트
번트
문화재청
시구
피난처
패스트
##정확
방편
##툰
참호
##벨트
시즈오카현
##루프
토스카
커크
크로스컨트리
##제군
부원
황소자리
윤증
서무
봉군
익룡
##필름
피어슨
콜론타이
휘트니
나치스
##평의
대검찰청
애국가
표범
플라자
크라이
원은
##원회
##개최
##성동
합치
고어
##트론
##관장
##직할시
시세
맹자
범한
오리엔트
건기
##숭배
앙골
##개입
레슨
암살자
렉스
반목
##사례
천주교회
##통신사
포츠담
라벤나
아비
응모
##수록
원호
ㄷ
사마소
사나다
굽
동면
꾸란
카시니
##실베
랠리
정철
캡콤
세자빈
화분
도킹
공손찬
욕계
매표소
디아스
마르코프
소유스
##쥐속
##쿤
국가주의
절도
##운수
을사조약
찬미
로동
##사나
판문점
자본금
##대역
##마이
물량
문맹
이심률
광양
##민중
##레드
주택가
앰프
청량
코라
수세
서화
##페스티벌
향유
가쓰라
플로리
금지령
균류
농노
##천과
인스
또래
##니코스
세계인
허벅지
태운
환수
알콜
바사
내시
기동력
이슬람교도
##방침
##주목
크리스천
거문고
##퍼시픽
##위가
충선왕
미쓰나리
양녀
마그나
랑의
고후
아카시
충주시
풍산
행장
섭외
뒷발
손해배상
마르티네스
로열스
##지평
상산
스트리
쇼난
메네스
세군다
볼프스부르크
중력장
클라우스
유례
꼭두각시
난류
자강
##중부
대폭
전해질
공대
##화합물
예카테리나
당권
나오
##싸움
장타율
도굴
불빛
아카드
이세이
슐
루도비코
코르도바
코나미
지그문트
튀코
##면허
돌과
행선지
운전대
##충청북도
카파
다이아
니조
권속
##쿠라
교점
소포
태안
##안동
티라노사우루스
서포트
자폭
콕스
무라야마
메가데스
행크
한창
##용인
토큰
왕도
행상
폭정
가이드라인
질산
현상금
##대형
만리장성
로망스
난항
기억력
주례
스트로
남태평양
최고령
후생
##서에
로니
가요제
하마
무척추동물
##시드
관전
포커
술라
유랑
능통
몬
##청문회
파이퍼
티오피
##베를린
청백리
글리
기거
기요마사
##작위
##워터
삽입곡
손톱
대간
만토바
리에
하코다
증여
영남대
유방암
##사운드
넬
펀
신중도
반미
민생
##갑의
##평소
절댓값
가택
##변환
##인종
##집중
##고무
카바
만부
점막
망각
아이패드
극좌
삼도
재외
##비행장
악수
개회
곡도
팁
미술품
##성격
남구
통달
정복자
##프리드리히
##리오
암반
화산재
괴링
과열
##태자
##인텔
##마당
남중국해
게릴라전
고인
산마리노
##동구
개혁주의
##뫼
지주회사
리퍼
수기
광무제
외조부
미쓰히데
사타케
중심가
##대부
윗
아래층
미시간주
받침대
##통과
모회사
##인형
랭커스터
리암
레인보우
출연진
##광배
유코
염오
위인
히라
식인
필치
일단락
##국공
수공업
##한자
부기
식수
멘델
##대만
양키
앤젤
연필
다카마쓰
##그래픽
할복
유리창
##윈
여대
복숭아
음양
본보기
##라이너
엔리케
지중
##라다
쿼
근년
태산
땅볼
순의
네이션스
난사
고질
아나톨리
##사리
쿠릴
반구
감염자
베라
##유일
현도
고바야
아르슬란
##카가
베로나
핼리팩스
광릉
##뿔
몬태나
라지
근연종
지대공
정희
색계
리허설
백작령
엠파이어
에반
사야카
하드코어
기념장
##연산
##불안
음계
카자크
##선형
##복사
미술가
옥스포드
##복귀
삼척
태사
불가침
초계
##원군
##정청
##연장
명복
매리너스
상형
서커스
##베이징
칭다오
##아기
고생물학
최첨단
창사
낫
우니
볼가
세레스
함안
밤낮
기본법
카디프
토스
##문법
##리언
스탠다드
##플리
법화경
##창고
사라예보
승과
빨치산
실학
화평
쌍계사
완주
도바
##카미
스루가
##카베
리카
황주
장계
##사적
아르테
주춧돌
로코
내연
물음
편미분
오사무
위기감
코노
지친
감속
직할시
내슈빌
휴양
초급
동궁
한옥
호흡기
외장
##천문학
본과
유익
##발달
##루트
주둔군
뢰
응고
##뉴질랜드
옐로
아프로디테
##증진
막사
피델
검지
##미가
솥
마티
갈라파고스
##아와
부대원
분리주의
장지
육신
비토리오
덴무
리포터
지토
케라
고등관
리에주
이즈모
구사론
##미션
조지아주
##데이비드
해양수산부
베릴륨
##보좌관
열흘
노령
캐치
체스터
##장갑
##정거장
수식어
양아버지
##잭슨
순례자
고조부
##소식
노모
노키아
##원시
##생식
김좌진
##도입
진산
히카리
전도사
방망이
##우상
성역
##리트
카탈로그
미끼
탐험대
착의
책략
##효율
동복
전법
요시미쓰
반달
경서
현무
##독일군
산동
새마을호
조경
헤이룽장
수꽃
마술사
##출전
커비
천민
##구속
보수주의자
##그라운드
자가용
호남선
옥의
매개체
##상작
게이밍
교민
장학생
스탠포드
대용
휴먼
주동
사정거리
충무공
##수수
화단
카이퍼
조업
출옥
황무지
##계곡
지요다
답사
수륙
백혈구
연혁
핸들
맹주
##상원
막내아들
##히트
인부
목욕탕
경악
원류
국과
기요모리
맞은편
임직원
코니
예산군
##일자
기내
단부
##닥터
짝짓기
##갈색
크로스오버
상파울루
전편
버몬트
랄프
고케닌
듀란
나침반
에르미트
청취자
##다발
##교섭
고착
미타
##맵
중남부
##동굴
원더걸스
안양시
염분
사회단체
##여고
도전자
코발트
##저널
고아원
세기말
드래곤볼
각급
부산시
##계몽
##서리
이와쿠라
표지판
고전주의
##솔로
자그레브
초승달
워털루
스노
##용기
##리치
선왕
민병
포티
부녀자
편광
##부파
성좌
##자회
장기수
무득점
봉행
일류
패트리어트
워렌
홍천
무학
아라이
##곤
##자키
##싱가포르
업무상
##사이다
김성근
올라프
##법정
레이더스
상행선
##오버
파스타
장현
##포크
정명훈
후지타
과언
악재
앙
##원에
##한글
유니버시아드
##금성
##성공
폭도
천정
순회공연
어주
산도
##마켓
노스웨스트
새만금
곰팡이
##만세
입이
보비
거동
핀치
헬라
명만
##공산주의
세관
##지배
국은
타지키스탄
고용주
육사
플러그
조어
과부
적진
별거
##이상의
양사
병장
적립
군현
머레이
##시사
영종
##후쿠오카
제미니
##레이터
감무
구라
타카
부수찬
챌린저
아람
팔각
경사면
스튜
챕터
전기철도
군국주의
타사
뒷산
불기소
알선
정밀도
빗
소대장
테살로니키
##국적
끓는점
내사
화질
##방학
액세서리
양부
정진
봉투
신군
##분할
##원반
고기압
크레인
님
폐선
명실상부
피아
##툼
환국
##뮤지컬
에디슨
프레이
##글로벌
레지옹
앙투안
호이
활로
색소폰
봉지
##타트
저승
중립국
일전
노트르담
군자
친화
협동조합
니콜로
브이
느
창극
임오군란
수해
마나
서머
##구제
자청
안수
석벽
나바라
백국
볼스터
아토스
아바타
멀린
웨버
묶음
고고
미술사
##봉사자
덕수궁
르베그
##코로
매리
공화제
타이난
태백
교세
비스트
순환선
완충
##토론
##가입
파티션
외세
##씬
헌트
비행선
자헌대부
칩거
모독
마이크로파
오마
표식
해직
##총력
강우
장부
노이
로브
페르디난도
힌덴부르크
철자법
내력
수집가
군축
연변
거북이
##하이
행실
진성
크라쿠프
##크로
고트
바하
고다이고
쇼토쿠
기관포
관복
사칭
##탁의
알레포
좌상
성혼
군신
나가토
캐롤
로라
스커드
마쓰마에
접영
이인제
반출
격식
하이젠베르크
후량
아시아나항공
국책
신채호
강박
룽
##수당
판과
체신
용자
워싱턴주
칼뱅주의
침례교
쥔
절친
드라이
토속
공예품
##손실
##호르몬
폐해
럼
스카웃
##대상자
프레스코
저항성
태원
노역
가니메데
에밀리
랑고바르드
사육신
드릴
침전
ㅁ
##두스
##경연
본존불
호분
폭풍우
라테라노
##쇼핑
리베라
기묘사화
노동자당
##테스트
항속
라자
셀틱
매뉴얼
##양산
정토
##점유
봉천
유니터리
##감찰
자유민
##저작
천둥
녹는점
기계식
리버스
##로동
굶주림
##연령
스팸
통찰력
식욕
스콜라
##교양
##항일
닷넷
메디컬
어학
하이라이트
##공은
베니젤로스
가이우스
##브레
미비
##제회
레미
커스텀
전용선
ㄴ
이지의
미야기
##온천
서천
언약
##협동조합
##컴퍼니
알마
##오온
아론
편도
##타코
##힐드
수아레스
패미컴
머라이어
##구력
##관위
걸즈
증산
철광석
후쿠
밀폐
실세
유량
알베르
서라벌
마이너스
사업장
맥도널드
암묵
브래드
모란봉
도체
페이퍼
미야코
##통신부
카를루스
성전환
페르난데스
오에
국지
양감
평시
특진
참지
##단총
##재판부
베스트팔렌
##동방
##연두
기강
격문
외측
대공포
모퉁이
학풍
백군
겐신
소제
절지동물
##목과
진무
후주
필리
비닐
초속
드론
##야구장
##시타
게일
철권
##호그
스파이더맨
롯
오른발
히딩크
방형
호그와트
##소생
대미
심경
응집
불변량
최저임금
슈퍼마켓
럭키
제소
플롯
내심
##지시
메탈리카
토레스
감독관
회의실
외피
탄식
##총동원
설파
춘천시
##산이
##릭스
광기
아리안
셀룰로스
##레프
휘장
법률가
브리타니아
아우크스부르크
습
직급
트빌리시
주범
연금술사
비버
오븐
부쿠레슈티
포가
양동
폐사
사네
##캄
울라
소공
성수
에미상
원어
이석기
성호
채찍
스톡
벅스
폐쇄성
트라우마
##리자
스토크
스토커
리버럴
양준혁
덤블
음정
양모
불능
사과문
왼손잡이
##컷
##명과
버즈
아가미
##우편
##킥
쓸모
주치의
랜스
군부대
##식량
숙부인
##노아
태양풍
인터프리터
기숙
##호에
례의
기무라
##국도
##방문
##보스토크
이족
쿼리
중선거구
신앙심
포클랜드
이교
호치민
운문
바르바로사
앵글로색슨
루르
안드로
연소
##마로
친목
프란시스
득실
우생학
##크로아티아
중무장
서른
##국문학
성욕
##에드워드
경국대전
안료
연개소문
슐레지엔
부교
밀양시
##마르
코크
국민은행
고액
##군부인
오위도총부
두건
송치
##차체
회색빛
경공
공대공
치매
소부
김연아
에레디비시
역전패
순서수
##장르
##중요
케이지
해프닝
가중치
민국
노원구
온양
번들
삼중
케네스
##웨이브
월간지
내년
겁니다
##병과
##옷
색출
윤봉길
헤럴드
오마르
조리법
교편
##청년단
변하
아쿠아
아노
축전기
핵과
글라스
돌출부
엘살바도르
달마티아
오디세우스
갑각류
분묘
##가공
##서류
최익현
공소시효
특별상
##라이브
브레인
접착제
##주임
노숙
미네랄
안무가
실축
견도
주희
공구
비각
정묘호란
암행어사
류성룡
##쇄
무적
에리
전광판
과달카날
준의
본상
##초회
져
페트로
##시계
##교포
자유민주주의
노하우
관악구
마실
체형
바이너리
##대학생
외동딸
##토가
즉위식
예절
양복
호르헤
후지코
마리아나
##사회단체
##열전
데스크
하퍼
리오넬
에르난데스
팬텀
격인
수개월
복건
##크로스
반역자
공녀
천상
영재
베니
##제대
마가렛
스에
복판
퀄리티
레게
경순
안구
범종
종수
이언적
아와
리우
신춘문예
마커스
금당
은색
아브
후부
극락전
위너스
다카오
팔레
리얼리즘
금은
양인
##거로
중임
##친위대
산학
타결
성금
외치
##우당
제트기
패러
에덴
플로피
군내
독감
빌리지
지파
동구권
##공세
큰아버지
덕수
메타데이터
이경
시나가와
에러
스플릿
속칭
마르셀
##쿠바
돗
스트롱
행각
신약성경
펠트
전가
사쿠라이
##조별
타악기
태화
##레아
파벨
접두사
##가구
스키장
성동구
시흥군
중서
##훙
다호
트리니다드
시프트
우주인
##도사
저고리
유권
##문재인
##진보
전경
기댓값
노년
우선시
자이
##소총
골목
##라르
입점
화학식
지난날
여행기
무도
퇴원
관습법
프로페셔널
##구름
페르디난드
교육청
편집국장
응의
기침
달성군
이듬
이주자
구로구
문화부
##활성
##짐
비르
도리아
상속자
로스터
##증후군
##관계자
성희롱
발루아
지표면
핏
##여섯
안락사
속죄
집터
함양군
권능
##민사
선무
묘지명
촉한
하달
중경
교령
괘불
옹정제
뉴햄프셔
아프간
처녀자리
##레이다
입조
계율
문공
##탐사
레지
##이하
묘법연화경
딩
젤리
스카이라인
호군
지하실
팰리스
체급
호시노
##이글스
망주석
예산안
애국자
성신
##아인슈타인
수포
##신용
미흡
수출국
##가게
을미사변
플랑크톤
굴드
브룩
##버리
접선
##토와
청진
남포
위선
스즈
소명
최남선
어로
퀵
중등교육
##구스
##비문
관상용
비장
##돼지
이견
##제정
##롤
특무
스타덤
렙
바그
크누트
군수품
케르
##보국
대항전
제논
안상
근위대
수전
붕당
영덕
##배구
천인
##바이오
석영
##우도
원피스
팀장
마사카
디스커버리
느티나무
퍼플
북청
##킷
##펀
나흘
여제
올랜도
커리
울스턴크래프트
짜임새
형평
법명
##모노
##묘소
서하
##명나라
##교가
##안과
원기둥
##인사이드
팔과
발명품
슈베르트
접점
##음성
##편찬
증기선
중성자별
네이트
일개
식물학
벼슬길
주종
다케
중남미
벌목
디오니소스
분류법
##칩
가늠
백금
명당
##눔
알자스
##주소
고흐
밍
휴지
##우트
말뚝
에마누엘레
본가
폴로
일직선
외할머니
##혁명군
##베크
희석
타이베이
예송
셋쓰
##어항
벌집
##마쓰
##감염
논산시
해경
기모노
삭스
##성운
지배인
마사키
##대좌
루도
니시무라
##메탈
年
워터스
편집인
폭락
##젯
직감
金
합해
유명무실
##방위군
폐포
##기어
제자리
사경
##국령
##지각
넥서스
조커
정력
##캐
군의관
불발
재조합
뭉치
토네이도
목축
##내륙
오시마
##국방
어귀
##수출
법무관
##회화
##중단
미네르바
반역죄
교계
흥
우발
##급행
성악가
##역인
왼편
적갈색
무라
탐라
##피트
교만
충격파
난형
시어머니
마테오
홈런왕
투수진
##지름
장승
##쥬
영암
요시히사
##휴의
태평천국
양말
서터
##석과
##강릉
평장사
벡터장
러시아워
##롯
관향
총열
도수
##단체장
네온
여길
약수
허가서
프린
##통신망
공수부대
호구
성비
메인프레임
무신론자
##예비
지와
논박
도르
북마
순결
도면
도감
협궤
여행객
동리
소조
상아
번화가
##주식
유황
탁의
##아내
정돈
만장이
웹스터
소선거구제
무굴
블리
재연
리스크
##테일
보건복지부
##유대
자연법
샨
스텔라
스커트
단판
##시행
미나
피침형
##방과
위트레흐트
도정
##통칭
##문양
모닝
모하마드
대천사
해바라기
##리처드
드레드
##결제
칼초
커플링
중련
공보
##독립운동
아톰
그치
후금
철새
##해산
저격수
탈북자
개화
다이어그램
니즘
사색
파이브
제각기
동작구
처사
병원체
빠
하수
##수스
허약
좡족
후이족
라우팅
전분
##수명
롱스트리트
##소니
소홀
징용
##감옥
게이힌
한시
구한말
##재
카노
##쿨
파블로
고쿠
##하늘
##클래스
읍성
##지주
##부근
##지선
노반
김장생
##공로자
봅슬레이
팬아메리칸
마츠모토
유행어
한발
택배
##연설
덤불
##활용
제청
기염
서강대
무스타파
공집합
##입시
아즈마
발흥
들
표가
이더넷
정방
풍토
콜럼
##증과
앨버타
임진
##민간
카나
여공
도량
##유치
이걸
##파라
##공이
한림
##이트
원광
잠비아
이착륙
무용수
##쇠
밀리언
상피
누스
배선
아케치
오야마
##정사
나이토
처소
##양현
##허브
하리마
재검토
##홋카이도
마수드
코스타
보험료
##노무현
신천
세바스토폴
##수용
스티븐스
대덕
고서
남과
배드민턴
원폭
전국구
##픽
수자원
나일
아산시
##리눅스
스투
출두
고위급
시복
##봄
내용물
##업과
어근
사나
펄서
주유소
팟캐스트
경리
사계
경기만
##투라
미케네
스몰
라파예트
##일과
발원지
괴로움
##부흥
##이미지
환공
쵸
체벌
충원
콜레라
메이어
변주
##룬
이천
시나이
로자
##나리
##무형문화재
주석서
터키인
영릉
바둑판
진양
단바
파괴력
희빈
사암
입석
곽사
디나르
이효리
포즈
존스턴
배드
포트폴리오
##히가시
기요하라
에미넴
##척탄병
마재윤
회절
##스탈린
맹목
남대
두루마리
##밀
모씨
태동
최규하
동질
마포
맛과
수문
인구수
보름달
후쿠자와
도시락
구국
능력자
한국식
찍
##카로
이바라키
출하
양원
제럴드
연전
도내
구세주
수생
헤로도토스
로이스
이타
랍비
엥겔스
부탄
이화여대
불출마
어간
오세훈
##껍질
나팔
알제
극본
글귀
디디
##거의
심소법
칼레
참작
##남용
##기일
##기회
레이커
쉬
도미니코
호국
국민정부
토호
당진
##전북
##근거
건과
미림
만호
##버드
사공
플레잉
멕
유세
버팔로
##튀
우암
일레븐
바이올리니스트
통감부
의정서
자연환경
동호회
구어
나자
회령
##군정
비누
형량
넥
##설치
싸이월드
세포질
혈전
구미시
초상화가
한자음
강인
칭하이
##개시
내서
치타
실추
부검
올레
##성전
##객
오너
다이나믹
특공대
원추
##당신
위신
퀼
양천
수병
레슬리
이사금
부르군트
##더글러스
##파키스탄
순창
##팟
라미
##화이트
루브
크라이슬러
스페인령
##기사단
출고
쉐보레
로버스
초이스
주니어스
대하드라마
해치백
집합과
진화론
미야모토
과거사
하야
##양국
소화기
##바람
스티븐슨
영상물
모하메드
##단식
##사이버
헤일로
필라멘트
혈당
벤더
혼슈
락의
##여객철도
글리코젠
그리핀
불신임
리코
뮤즈
##주문
##일설
##패키지
위암
##하르
차이나
루키우스
산화제
마고
오니
##낙
기이
##오늘
이정희
에콜
편대
자부
언의
훈구파
스쿼시
티셔츠
텐트
돌기둥
과보
선내
암꽃
##웨스턴
##리아노
코베인
상장군
감청
스포츠카
차고
혼계영
링네임
발길
##요청
기록물
창조적
신생아
독립선언서
니시노미야
슈퍼컴퓨터
평화주의
레이놀즈
##내전
비축
일소
난립
근일점
##사슬
##메트로
죄책감
사다리꼴
##무라
플레밍
병석
오라클
활화산
슈타인
##박물
아세틸
난소
지리지
카리브해
##제로
구술
홀리
##판정
카슈미르
헬무트
신시
원효
아바스
동주
한명회
혼재
헨리크
증서
##민속
히데타
##관제
이복동생
베텔게우스
시외
##투입
부교리
유향
닫
체직
##표지
양현
당상
##터빈
최영
워런
말레이
##교육학
##비노
머스테인
##대례
폴란드어
##상대론
디리클레
도쿠
후스
##저장
우분투
영이
비관
핸드볼
북한산
##보급
##벅스
스파크
쌍극자
##합성
피폭
인피니티
렌의
분교
채우기
경구
항법
중수소
쓰키
##남아프리카
국문학
##부의장
##주년
간쑤
##가문
탁지부
과수원
급등
도화선
오지
요르요스
철군
젊음
오존
##연군
예편
관료제
역참
만하임
##마이어
히든
암자
쿠스
시그널
##세조
서산시
##나크
아오야마
제호
배교
##오리
드니
로어
##보트
역내
케이시
##미팅
피레
호프만
코먼웰스
퍼킨스
메이드
##결승
수페르리가
번외
츠카사
열과
장준
달빛
핀란드어
실바
백범
##검색
가맹국
보금자리
##아랍
아민
옹호자
유색
##아프가니스탄
실내악
조나단
방조
##간섭
피콜로
##파르
저마다
디저트
##추세
##자극
방탕
단당류
시럽
중앙집권
##드리
밀레
오이디푸스
난동
증편
##타임스
칼로리
##공포
##자유주의
##중독
맥베스
나오미
네로
##페이스
황희
신명
오자와
목수
중층
##친
##설화
데릭
후백
모유
천시
수박
가례
경희
나무껍질
손견
갤러거
피플
이시애
아성
대륙회의
소꿉친구
가타리나
닛타
양산박
왜건
##전역
즉석
히파르코스
##보관
##지기
라운지
극소수
한라산
에드거
##맥스
##웨
해준
종손
흑점
홍차
마리나
외신
##보훈
재림
##도덕
중앙아프리카
아야
바르트
수출품
페르세우스
티베리우스
##토크
케리
재보궐선거
오피스텔
종북
코카서스
치적
이소룡
군제
영제
마태오
썸머
##호조
실증주의
황건적
외도
매춘부
기선
##감소
찬의
입궐
##과일
완산
##선원
요시키
라드
하타
열연
유속
플레이스
사라왁
오레
네모
이바라키현
오군
승차권
도쿠시마
에버
제다이
남우
##댄
국소환
애플렉
토막
장준하
호황
##지표
부교수
##압력
왓
##사각
신해혁명
화살표
지어
##베르트
교과목
##무가
정교수
원가
종지부
윤보
금주
냉소
설상가상
##첨
수액
##증이
뤼순
자만
전계
토오루
몬티
홉
정치권력
함재기
관상
막대기
무브먼트
우치
##일치
피하
해군기지
트롤
항공우주국
헤일
급변
다면
##전압
화포
호주제
감도
명군
##매카트니
##유비
경시청
##도정
고변
덴분
##등장
##횟수
석가여래
로타링기아
나츠미
조승
서바이버
##은상
노비타
##위키
따름
재계
원세훈
침략자
권좌
장유
##담배
호우
세실
파월
##금지법
아르고스
악취
유진산
면회
##꿈
오토마타
여수시
진핵생물
대장균
순열
중등학교
##주지
##취소
슌
##수장
##제이
메릴랜드주
##전류
##도독
분주
더미
연골
공급원
방목
##에로
중주
메르켈
이면
라인하르트
생년
에페
고양군
운전사
겐로쿠
##만과
사미
갈고리
척추뼈
호부
노바스코샤
##충남
##지속
이인좌
썬더
열혈
공중전
법주사
음파
##전투기
백이
블랑
##슬램
그라나다
커넥터
스트립
##관음보살
##비디아
미도리
자유민주연합
득세
자유시
책임감
##비서실
연합뉴스
##보증
핼리
수일
인심
스물
정간
정신병
천공
링고
베넷
준용
##비로
반한
신동
다이애나
회관
낙서
이재민
드롭
차등
주앙
메틸
효령대군
국민회
국기가
베르디
예이츠
개작
상대편
##우림
아프리카인
통킹
노여움
프로메테우스
생동감
우시
동봉
우선권
##지아
역정
메모리얼
중전차
블라디보스토크
가비
바이스
합헌
건조물
오줌
##궁도
해학
##노부
상록수
##무게
하남
수라
##시보
듀이
레반트
살인죄
대광
업소
조난
##성체
아즈텍
수발
타진
견의
사세보
##술부
##예비치
##터로
아마고
다르크
미네
아과
대피선
후쿠치야마
진력
##정치가
광속
승승장구
##루트비히
##기념사업
마요르카
억양
반야
의학부
최용건
##김일성
히로유키
기념사업
관보
부어
지자
간행물
이누야샤
레고
남안
사용량
간지
풍년
##저자
베트남어
야훼
마담
섬인
티베트족
드와이트
중이
의술
노르딕
부코바
주교회의
종대
의료진
오른편
단신
역부족
인화
병마
##스카이
사구
주경
신드롬
페데리코
길잡이
윤허
덕흥대원군
##플라이
동두천
디펜
파키
수문장
탈라
##앞면
팩터
##비틀즈
마코
##더블
스테인리스
리베리
드래곤스
탱화
송병구
봉착
##평론
##작곡가
##토마스
음모론
지탄
접
영점
##동력
##거대
착상
냉대
종시
대전광역시
따돌림
트릭
오카모토
##전면
석패
##유아
##모음
진공관
아마데우스
약국
##팜
검투사
국방위원회
##경색
발레리
유격대
지우
마지
##신민
헌병대
배아줄기세포
##리카
청국
통고
##태종
일련
배설
로버
슬라브족
천식
손흥민
식별자
후처
위크
시스템즈
집중력
금서
크리스토
탈주
제이콥
##수량
트레블
신령
혈중
색칠
자치현
##롯데
밀리미터
##항성
토고
##칼의
##체육회
##교구
인어
이브라힘
축삭
종회
휴즈
아델
##배수량
##작사
에인트호번
세르지오
##웨이트
##치직
##방정
수용액
난관
후원금
심부름
다뉴브
진보주의
고차
동치류
문학부
태양신
태백산맥
트랜스젠더
할애
자필
##인수
기화
예과
##문화원
양민
##서북
영변
구청
철인
손질
활약상
치지
진안
신제
문벌
토가
전산망
##조가
인쇄물
유태
등지느러미
##요가
불가르
미오
빌레
소방서
백마
ㅣ
인선
오트
지휘부
끝자락
헬싱키
프시
##행군
테트라
##블로
##블루
라라
완치
##강전
자책골
조너선
건주
촌의
아미르
##삼국
보령
백기
##고사
수운
갑상선
보성군
월스트리트
사직서
고마
##고래
교상
유공
아서스
칭화
페루자
슬리
레이더
연천군
노환
무조건
힌트
군장
유즈
응징
표준시
##시정
문리
경쟁사
발성
클리프
여산
호두
감화
생산품
프레이저
강대
상습
군주국
려
멘델스존
포토맥
파비아
서베를린
키르기스스탄
아일랜드인
##입장
내한
##당인
조안
엠마
막달레나
똥
##지간
형부
삼엽충
카로
우타
여성부
출연자
무속
망명자
문루
카페인
##동산
가상현실
공급자
훈도
라우터
##말레이시아
세자시강원
죄악
노심
##정이
##아키텍처
##수컷
번데기
##산화
결가부좌
코칭
시사회
자유지상주의
사토시
미유키
흥천사
연역
황과
어촌
##경선
불씨
투데이
이중성
파수
온실가스
의구심
록펠러
피복
교향악
몽골어
##대화
햄버거
어순
로열티
에일리언
마우
해탈
태반
연방제
점령군
부산항
보선
그분
환멸
야만
꼴찌
##정자
##현지
위업
단상
에비스
속인
재규어
북해
요란
올림포스
우현
웨일즈
스몰렌스크
흘
터득
##월간
##니즘
지상군
튜더
트란실바니아
##라틴
성삼문
동태
아이러니
자코모
육로
상국
시황제
창설자
하마마쓰
니코
##승지
영안
##환승
익산시
사초
양왕
##노이
중종반정
경장
조형물
봉은사
시리아군
민다나오
홍건
버스터
제라드
##노리오
료마
야인
배설물
통수
톱니바퀴
실생활
##타임즈
컬트
##파동
푸코
긴급조치
건설업
수출입
##선박
콜레
직시
알릴
##편집
기공식
캘빈
미팅
둥
##피터
구주
정상급
간사장
##츠카
이치조
정답
총면적
##스토
신증동국여지승람
##불법
공격기
##조부
신경망
벨파스트
##암컷
안식
게코
버디
##공관
유탄
엔리코
사투
##광산
##환원
싯켄
베르겐
리히텐슈타인
암술
식초
프라이부르크
창궐
코시모
기행
효행
김안로
미아
##정반
예부
데와
##출장
어사대부
번식기
##사우
스폰지
##레벨
야마우치
비단털쥐
산리쿠
유치선
현대캐피탈
헤르타
핵산
로디
##재판관
축사
교집합
##강령
한국은행
확증
산남
가야
가네다
인스턴트
사재
##동양
내과
엑셀
강인한
##국회의원
비서실
가평
밀사
대용량
오더
퍼스널
우성
중합체
##오페라
##캐롤라이나
길가
##나우
##라사
##호주
로마네스크
프리덤
##교과
카리
지프
##지침
욘
순행
타타르족
라그나
석비
콩트
이종
코브라
잉글리시
나이키
후크
솔리드
스타워즈
##명소
요시카
하타모토
예매
약혼자
군영
대명
##상속인
도립
해남군
##채무
다무라
논어
헤이
##스루
브레스트
파이크
리아
로이터
##해리
아리마
##별명
쥐과
츠나
##모식
##분배
가위
##무엇
우방
훔볼트
제헌
빈부
단파
혼란기
크랭크
피곤
##색이
##허의
갈대
이동휘
모략
식단
나카가와
영속
담양군
도우
슈만
##발행
해마
김부식
오프사이드
연천
큰곰자리
기독교도
신안
고함
경수로
개창
##라우
홍성
민스크
제네시스
##부원
빈혈
##총궐기
힐튼
미혼
##창원
하인츠
청대
미코
유격
약초
이동성
요충
매립지
선주
##방영
남색
하청
천태
##샘
황보
심장병
희종
관인
##욱
플라잉
카미
필리포
빙의
##속편
복자
이케부쿠로
치타스
와일드카드
에이미
##울프
동남동
군명
블룸
취하
다로
정의역
##군부
##병기
디렉
서태후
침탈
모양새
저소득층
도봉구
##동아시아
당적
##꼴
살균
실마리
도일
쇠락
의용
벌기
트렉
수만
하반신
장성택
퇴폐
##궁전
천리
수거
퀄컴
마법소녀
이와테현
아파르트헤이트
##라마
떠돌이
##장성
##플랫
브륀
비상사태
끌기
범고래
파푸아뉴기니
컬
대기근
##서방
##개성
막말
봉산
양곤
작업장
각서
부녀
강림
논설위원
여종
##우라늄
전투원
지정학
의열단
결백
##부령
노장
작자
주정
라가
치장
돛
나물
다산
제갈탄
##폐지
최충헌
워크숍
밀크
하세가와
재실
##이틀
직영
##아미타여래
용수철
##베르그
스테인
어금니
##통산
클립
납입
포르쉐
스카이워커
가즈히로
메이스
탐진
한라
수보
잠식
##하가
병자
광구
##퇴
##마틴
회선
주체사상
##초반
요일
##새의
고단샤
일합
##정세
응수
말초
##여대
##한국인
수익금
궤적
헤즈
세일
피로스
보살핌
퉁
존립
석회
##착륙
카나리아
행진곡
노회찬
왈츠
쿠마
멋
가나안
페스트
방진
##존슨
텍스처
##모사
스퍼
로체스터
파로
소성
복병
수호이
당간
##시집
남강
신디
보츠
성층
##방출
##지급
태상
##불가
은상
##블록
파가
##학관
카타니아
##서비스업
##복음
페르디카스
노토
분구
총격전
평창군
박영
영흥
##공예
##바디
거창
선거인
토마
메디아
##승점
음경
수비진
##장령
##가시
이감
미궁
##사회당
집무실
버추얼
##이센
클린스만
권법
멀리뛰기
페라리
쿄코
머릿돌
라디오헤드
육계
병결
세라믹
##묘사
승강기
급부상
확실시
아사노
##격차
선호도
앙카라
야코프
##고보
정각
##창한
영양소
딜러
볼테르
표고
황해도
백부
##부친
##전파
피터슨
##법령
견학
##매
짚
##아테네
빙하기
컬리지
##특이
칵테일
카르텔
무성
생활상
##응
집정
랫
##곰
신분증
##유니
##관인
업자
롬바르드
##샨
##사령
활동전위
대화재
득
이국
안락
아이비
장화
총대장
시흥시
유조
다카다
우고
지치부
허물
##파베
방주
##고가
레트
오르티스
디바
##대교구
지지부진
고해상도
퀘이커
히카루
가드너
우군
경공업
호헌
##신탁
대남
##수준의
환도
케이블카
미생
롤러
어용
그리피스
교조
형제자매
##장수
##총무
##당선
심상정
구보
웁살라
관측소
스텐
장제
낙농
##식민지
코지
몸싸움
벌칙
굴착
시위자
금기시
수트
수잔
팩스
평택시
캐리어
사선
대전차포
말다툼
기장군
##메르
암세포
백호
##톡
연장자
##나카
외성
풍수
다행
인천시
초성
환초
##좌도
마사토
저감
명승
##수이
철퇴
트레일
교미
보르자
위연
에우제니오
배기량
좌승지
사진가
렉싱턴
올가
리쿠
비야레알
스토리보드
원론
##역시
유라
##한스
둔화
##중력
전치
청원군
선착장
##기업인
뉴딜
당뇨
##일본어
##드라이브
##닌텐도
##내장
변국
옹진군
박헌
##천체
##오랫동안
녹차
##신이
위르겐
하지메
참회
남해군
##몰
대모
예술품
희생양
가오루
디버깅
플랜테이션
##시카고
다이어트
세이지
원초
아리스
절기
트로이아
아르테미스
아르카
경비대
##균형
참소
##해발
안티오코스
법리
##양군
퀴리
바순
직분
##해체
천구의
구례
형태학
분추
진골
북로
발아
몸매
품격
초거성
문도
##추구
발바닥
빈라덴
이목구비
경전차
사이코
교행
##마키
상패
스마
엘레오노르
동재
노조미
명부전
우애
서울특별시장
하토야마
##국기
공권력
##연예
저우
단연
중간자
항등원
터미네이터
가라
휴전선
##동서
##거점
주해
통일성
비인
셜
테디
대서
성군
버뮤다
격멸
재거
기술인
그리움
##스텝
중편
합주
무자비
플리
아세안
장모
유위
여대생
일러스트레이터
녀석
항구의
유인원
여단장
관악기
알프
자도
음질
챈들러
존칭
##청원
함안군
탁발
장합
정치부
안시성
요시모토
아자이
##융합
의성군
대합
퇴로
조위
적설
캐넌
포경
오경
아오이
에이로쿠
##목포
에드워즈
수족관
복복선
##대표작
펜더
애너하임
알렉시
레흐
스크롤
어뢰정
비키니
##게리온
제이미
##챠
##리프트
미즈키
스타트업
발원문
정몽준
효로
탈세
##계좌
낙방
포부
의경
##측면
마우리
기쿠치
아웃사이더
입맛
보조정리
십육국
사계절
경색
중급
아타
알로이스
성장기
타이머
폭군
대어
맹인
##동아
##마르크스
재키
리무진
철원군
복의
애니메이터
블레
##커플
당위
서귀포
서예가
점원
무하마드
원예
##폭포
중요시
스완
갯벌
##혈
토종
샐리
##수비
코모
##음료
수필가
시운전
##해운
##봉기
방벽
순도
##지터
##프로듀서
폭언
##왼쪽
유곽
##로브
물줄기
##아드
##니어
##피오
제물포
학통
시라크
히데아키
산세
조피
이나바
##혈증
하카
영암군
##좌찬성
혜종
가와고에
심령
멤
유한회사
##십자
리버티
시게오
파비오
에스파뇰
척준경
차일드
##위너스
비신
볼란
사이보그
타쿠미
##소비자
##국민학교
탈영
노무
수십억
단편집
##윤치호
가창
##기상
장형
에어리어
완구
학도
##각종
저우언라이
전갈
언쟁
용융
샌디에이고
홀로그램
유제품
이철승
##김구
개헌안
통역관
넋
캐럴
화두
##관리국
북두
브루
침의
##리츠
생업
##사우스
맥도넬
함유량
대당
라이온
##소와
왈라키아
시한
하북
진여
영생
동고트
영과
김현
악천후
허수아비
사이온지
당쟁
##위로
##최소
향사
악인
요구르트
풍기
상궁
양명학
정병
마모루
죽산
##로렌스
##중심지
분동
양광
정인
퀸즐랜드
##명감
##스테이트
##미나미
입장료
버드나무
##석이
신사임당
박스오피스
헤이세이
##쿠마
위트
대시
폴라리스
어택
코스프레
전차로
트레이시
리모컨
도네강
하츠네
증비
##광학
반비례
당숙
아스팔트
의가
##사변
동반성
##갈등
최악
에센
신랑
유프라테스
남파
로웰
전해
신격화
##경상
무라타
종신형
스프린트
산개
노래방
전문점
브로커
특례
일렬
미덕
식민지화
덕택
입방
스탈린주의
박물학
제원
괴벨스
적개심
피루브산
웅덩이
##네트
수산업
출원
색감
항공모
신혼
근면
##병단
밀약
##칼리
톨스토이
외로움
##손자
중정
악사
피부색
##옥시
이안
##생인
선분
교수진
이대로
크세르크세스
일리리아
##노사
##증서
석실
황의
분관
가메야마
태백산
하쿠
스프링필드
화순군
공제
혜의
양정
고메스
##뉘
갈비뼈
장연
임진강
유가증권
샤흐
정인홍
친정아버지
도학
핑
좌안
패터슨
앞발
팡
레자
옵티머스
인목대비
위건
니나
리처즈
임요환
서정시
아카이
##마인
사시
해양성
훈련기
구하
램지
##고로
펄프
##생일
아키히토
덕성
사복
##퀸
슈퍼맨
신시사이저
단시간
튜닝
##심
##타격
고이치
감면
고창군
독트린
단명
국비
통풍
힐스
##스퀘어
간수
##오에
##서구
트라키
##본인
벌금형
찬송가
훈련원
신청서
볼레
결산
##레이저
##안드로이드
##도라
라카
편파
식구
금천
쏠
건축학
오무라
치명상
막차
##이사의
보에몽
##유격대
혼례
##체전
##구청
##주장
홍국영
책판
경복
판임관
##중랑장
남향
사부로
소묘
삭발
##사슴
##직장
##라테
소액
리한나
##라이드
성배
클리퍼드
삼프도리아
파라미터
쿠로
모리뉴
미하라
##캣
그립
아방가르드
페레
특별시
정동영
정규직
짜리
산책로
##스코프
지질학자
정인지
초창
하한
##커뮤니케이션
술어
음극
장내
김책
##구호
백조자리
퀘이사
열대
동관
버펄로
##자치단
엘라
인공어
##관리법
타이포그래피
은어
니시노
에토
회칙
세포벽
햄릿
리카르도
볼링
루주
엘베
손발
매스컴
첫해
안달
진형
##포병
청해
##이이
내비게이션
##경사각
유두
고릴라
계측
상대역
법황
##본과
##히사
간에이
렛
나세르
##자율
중랑장
##송이
##아메리칸
우디
##럭
##프랑스군
심성
가맹점
사우론
##삼매
고레
##관방
##제동
##마치
티거
윤선
게릭
열성
##임기
청계
관영
무색
십진법
국무회의
##조달
충무
조처
삼보
스터
##모바일
군사분계선
무전기
비위
정위
도시바
##직후
식객
연타
##육성
대구시
기시
관선
##사립
소책자
침체기
정릉
컨설턴트
풍류
##교향곡
작곡자
##츠와
산호초
이카
자급
초현실주의
북중미
프레젠테이션
평성
계류
스노우
경비원
옐친
허
오언
가톨릭교도
니코틴
적국
민담
완주군
편액
태실
반찬
동승
볼리바르
전태일
명신
기도문
상소문
시크
##사키
궐기
통조림
토번
코뿔소
##북미
군마현
왕윤
쑤저우
유니세프
사누키
자오
봉사자
세거
덕행
세르히오
서용
넷플릭스
필선
피니
미적분학
넥타이
##국토
하늘색
정주영
이정표
커밍아웃
광고주
의결권
단교
장구
체재
승하차
국민주
반수
학병
냉장고
탑승자
##취의
조원
오시
헌금
##소위
프리뷰
팽대
허무
문왕
인종주의
리턴
크리스털
팔츠
쇼스타코비치
이준
##쇼크
국체
사울
루블
번스타인
반쪽
집행부
##판단
다이라
일문
접착
##혐오
##기대
완파
##라시
브란
장료
고음
##용대
팔찌
##특집
아카디아
##사과
통근열차
전입
##부담
경원선
김집
메트
논밭
로제
##보스턴
프로토
##노리
주직
향료
##백스
##시점
레나
##추적
타카하시
케이스케
메구미
크리스티아누
##극회
루빈
사브르
여류
럼블
##쥐과
복당
요시오
나치즘
휴학
##선정
산업용
로보
##주위
예도
뉴타운
텍
표현식
모뎀
기제
##단어
지회
우도
##후반
군사령관
제조법
다방
라크
자오선
사망률
##재고
##스트로
보디
##무선
##서명
국민대
##신보
파조
혈류
##쟁
본류
선점
##어미
##페르시
소뇌
측선
##로즈
몰리
소비량
요안
의사당
민트
코다
속구
포크볼
##즉위
전면전
거제시
공감대
박제
도넛
##소프
##중종
목도
일면통과
고쇼
산청군
##밸리
캐피탈
##일명
마쓰다
간식
##기병
테일즈
심양
##급여
##스도
흉
##단인
역인
장방형
초각
응교
추숭
##환은
##토키
침례
병주
리시
##래
##퐁
모르고스
판중추부사
필터링
##진사
로터
쿠사
아오키
포크스
돌핀스
아미타여래
태인
##다큐멘터리
카트린
구게
##소단
나카지마
##상고
##대지진
명수
##조사의
##항이
방관
베르누이
##노와
상공업
경전선
무역항
파송
산줄기
인천항
생식기
유사점
##연세대
##스타크래프트
기노
접어
##프로세서
당직
실권자
울진
##유도탄
##부락
외자
##한성부
배급사
창자
해면
총연장
노고
군정청
남만
장손
##비행단
새크라멘토
답장
카브레라
네발동물
수체
비주류
부력
기대감
굵기
##천주교
외경
허공
워치
##지휘관
세입
강북
숙제
악령
메시아
격투기
샴
스포일러
위드
마티아스
삼천리
히데오
속명
이재명
##아리
유키나가
살인자
수유
구조대
이원익
서광범
옥새
콜라보
전패
직제학
##젤
너바나
레니
장갑순양함
고택
국민주의
캐슬
부호군
모에
웨이트
엔카
목적물
네우스
베이비복스
시즈카
변속
셰프
그린차
##수인
탄원서
할레
##여당
남발
고초
직종
하츠
창간호
연구회
전자기학
##천시
고유어
차자
자랄
정수환
사업체
빈소
누군가의
속어
##티베트
애비
세이코
나이츠
묵시
폐결핵
##개조
명문가
##취급
기지국
육수
치우
민란
린든
합리주의
##볼라
형용
최전선
너스
##수에
마테
라바
##렙
동군연합
시에라리온
아흐마드
사생
##연안
관방
인내
##영주
광서
고문관
림프
빙그레
##메이커
볼모
탐페레
연합함대
별동대
랍
##로이드
존엄성
##니르
병인
아스투리아스
훈령
##신자
에스터
##피크
모토나리
가봉
라이징
수도원장
후쿠야마
파종
고즈케
칼케돈
로주
재목
일지
경련
미란다
노즐
공사비
##경비대
방화벽
괴산군
소장본
카르탕
휘트먼
신고식
잡식성
부토
윤선거
임치
샤론
꽃자루
##치아
이동욱
도파민
허준
마일스
##무네
데이지
난조
스테파니
가선
플뢰레
##조물
매수인
준급
관계식
인파
##중앙지
판결문
##폭격
북주
양적
오마이
리디아
##순수
스테이크
우량
우주비행사
프린트
의문점
##공인
##녹음
##묘역
##태도
보천보
얼룩
함태영
최면
상충
체감
##부속
레이지
폐하
##오전
편중
학당
##다와
액화
말뭉치
스턴
##게르만
무정부주의
페소
직장인
캐머런
이상일
마사요시
암기
묵주
##위안
창과
맥북
스키타이
##가가
건지
메노
왕정복고
동프로이센
은행가
유언비어
매몰
투표자
루브르
농악
고려조
안시
덴지
##채용
우사
의자왕
다우
특산품
##교서
외손
사행
쥐라기
염전
노다
장흥군
김준
##정면
##쿄
##하위
라싸
엽서
요네자와
##영화상
지훈련
##민속문화재
김굉필
##토이
슈타
프리스타일
은빛
카렌
요시노리
허니
오퍼
플린트
찰스턴
##토너먼트
비욘
연료전지
보렐
매드
##후지
엔투스
추의
폄하
쿄
다키
##노가
주사위
##부총리
일탈
##도트
강동구
간선도로
##우르
천성
봉의
##불화
차우셰스쿠
##탄압
##총동맹
안국
연합회
이바르
안드레스
가극
##곤충
레귤러
##김해
앙심
공위
쇼인
수산물
##정보국
양당
제각각
아레스
스나
##마음
묵시록
꿀벌
운율
풀리지
##민법
초엽
##모니
히치콕
칠성
후보지
샌더스
한의사
##회도
##리코
##텍사스
흄
포신
화구
미남
멜리
치히로
재치
##덴쇼
진평
예지
릿
강동
##역량
오스본
##배출
부윤
주회
중전
##나미
젬
푸시
휘그당
프렌즈
베어
유요
빌바오
스톨
급유
##레논
노리쇠
마미
##공유
급상승
탐독
애틀랜틱
유작
음주운전
필하모니
##인자
유조선
코오롱
상거래
홍명희
끼
##헬
스위프트
브래드퍼드
유토피아
러너
혁파
##왕자
##태세
동무
여비
마중
민주국민당
##논쟁
흉터
프로파일
후쿠이
괴한
고흥
##실내
##수면
##염기
아데노신
미쓰이
보통학교
창녕군
개척민
연을
유흥
##브릿지
반세기
##베드
한해살이풀
타이가
##사료
매칭
##패드
급료
##라이스
농서
##퓨
##세인트
##영양
편승
##빔
숯
사샤
폐출
상왕
상속권
에리트레아
화보
화공
조카딸
니제르
예천
통영시
아랫면
수안
비니
시제품
이호
장수로
프롬
도총관
천주교인
##평안남도
##음악상
백상
##제약
##캐스터
라흐
메로빙거
##카니
칠드런
말레이인
##카리브
피아트
게임스
툴롱
##하이드
홍명보
체크인
카카오톡
카오루
##슬라우
견혹
미연
정몽
식견
세뇌
##고객
##비오
삼한
충적
정구
음료수
인원수
체이스
광복절
의역
적십자사
원대
현자
세계사
매너
피해액
##보유
열지
##고려대
감영
##이토
##문장
##폭격기
표피
한랭
크루스
오심
##라오스
참나무
계양
녹봉
캣
코린
격변
레이나
##베르토
전통문화
##부동산
평화통일
마마
지배권
##구멍
포악
홍성군
개역
보스니아인
부전
수몰
히젠
철분
허씨
샌
하버
##레이크
군산시
단청
코볼
톨레도
신민회
##고스
옷차림
상점가
나카쓰
비숍
##규슈
##일대
카자흐
코르크
은평구
##소자
패튼
가노
원당
증광
##총감
오공
혼간지
운현궁
오카
##연구관
##출구
##몬트
충렬
예주
##마르크
##완전
##가상
신야
오페
##레일
##포켓몬스터
오르가슴
오치아이
스폴레토
페이팔
##사절
##하학
원자량
계가
##주주
##강제
기네스북
##유가
공비
교습
##상도의
배신자
틱
베네딕트
##강좌
국민정신
알력
닦
성탄절
##종과
본교
녹지
코스모
영부인
샌드
##부진
고자
캔버스
##정에
쟁탈
소와
잠적
##클라우드
침강
휴고
게슈타포
목관
변덕
헬레나
##스튜디오
암울
##알파
더위
울리히
노스캐롤라이나주
인신매매
알케인
면한
##중기
구르
##리온
마르텔
허리띠
김포시
월미도
##카트
분봉
##플라
숙빈
무오사화
마유
하타케야마
신광
내직
##라라
##다람쥐
남궁
##콘티넨털
##참봉
츄
##버튼
타케시
옴니
일본화물철도
##상응
모닝구무스메
피칭
제니트
노라
외질
신센구미
##業
##석학
선지
준거
##지미
분당선
초동
김정호
##외곽
후삼국
##확률
용적
김준연
##토머스
폴링
헤모글로빈
아칸소
이젠
돌린
##보사
회의장
##귀의
##게스트
##공무
예보
하모니
진통
텔로미어
파스퇴르
구루
오쿠마
괘
##산성
베링
오대호
사유지
피날레
##약품
위나
##파스
미노스
##제트
##교와
플루타르코스
사약
부총장
파인애플
##국경
의안
##명부
##골드
텔아비브
##경찰의
송사
크라스
행궁
탈수소
즉사
정육면체
어제
대홍수
로페즈
스미토모
##화랑
장보고
관등
줄리
전용도로
##페스
가즈
콜론
마그
솔라
무인기
코사크
김용
##교차로
##마가
##화강암
신안군
이스즈
산전
요크타운
보급선
여호와
증시
나방
츠
세포이
소토
##커피
##세리
베키
카시야스
벤조
번가
적중
워리어스
사우샘프턴
마르그리트
협찬
제레미
##야당
백악
직합
마사오
검색어
자전축
려지
##리타
전세가
암흑기
폐막식
용산역
창업주
낙찰
수혜
상고심
삼성물산
남해고속도로
우미
석판
컴팩트
##근처
배편
농림부
표차
덕양구
인류학자
##응용
자장
나니와
중증
대마
##조선총독부
칠곡군
##주행
접두어
풍물
서측
안트베르펜
활쏘기
옌
배면
미적
노팅엄
다수당
문학가
토후국
수각
아코
석관
노태
화답
청소년기
석고
말사
##재위
우인
북극성
남양군
폐질환
기문
남원시
##센서
남양주
##비례
식물원
베어링
도회
이부
스컬
성소
저변
증폭기
현손
우로
시온
마사노리
신토
아이유
##철폐령
도인
콜렉션
세드나
천태종
##업소
나오코
##원부
##불능
킬링
승급
민진
##예수교
오버플로
승수
버트
스벤
##인기
상륜
##타시
이건희
##액션
##트레인
마츠
##스프링
나하
완행
복귀전
이시이
크리에이터
파머
대자보
##쾌속
가등기
배틀러
전하량
아틸라
##사무실
텐데
##성균관
유유
재력
##필요
양원제
돌파구
티아라
교향시
계절풍
현대사
구약성경
##카나
의미론
한국전력
존엄
황해북도
시책
강의실
이시하라
##경쟁력
차가타이
이원론
사르트르
후천
꼬임
대동맥
##자바
애드
샌안토니오
##마법
필러
하네다
토탈
뉴사우스웨일스
우라노스
##실질
세이버
아일랜드어
륙
아토
장판
문턱
알렉시오스
살육
속아
시적
##네
구교
성유식론
알버트
코스모스
당악
##냉전
사노
진열
산토
혈청
아이오딘
촌장
칼럼니스트
파사
한은
훈구
세인트루이스
고신
민속문화재
상주시
개화기
겸용
감로
##복원
킹스턴
페가수스
화족
한국프로축구연맹
페드루
계유정난
슈가
권근
오푸스
푸딩
토륨
낙수
에볼루션
구루메
정태
##캇
##사사
블러
내삼문
##생전
체코어
지지가
치사
푸아송
축이
##미스트
##생성
고출력
허파
##피에르
과대
##단행본
##거리의
닫힌집합
레가
##기술자
핸드폰
리히터
정강
인도적
총동원
상임위
저명
백합
##통보
무방비
아사쿠사
우드로
##장전
품사
선인장
축산
찌
라인강
니콜라우스
##적용
크라수스
변화구
베네딕도
##용군
꽃무늬
미스테리
승도
##발트
최고위
임대료
게자리
디트리히
내막
로지
비너스
##예상
보이오티아
산길
##시리아
제제
소산
솔트레이크
노보
라사
##남녀
##편지
##동인
묵서
##호로
셰이크
창경궁
마커
미혹
변희재
##회색
아머
벨벳
프티
바닐라
꽃차례
베이루트
레이드
보안관
류자
가법
이요
카즈야
##스팅
##검증
매도인
차구
라그나르
도태
##정계
벼랑
비로자나불
결재
마사지
라비
##검열
와카야마현
##백작
버거
테네시주
창조주
등분
##간접
금박
통제력
술회
당론
##이성
사이키델릭
바이크
##고급
식탁
맛의
죽
아라키
애들레이드
냄비
주무
국방헌금
청도군
캐롤라이나
오손
완도군
##남아메리카
슬라이딩
리츠
신봉자
유피테르
피카소
##코딩
준말
여력
##머스
어조
로테르담
쿠르스크
##명회
검의
브루투스
코르시카
##조기
빈객
동선
##노회
작전과
아
현인
오리건주
현상학
국서
영묘
홍건적
드골
당나귀
이브라히모비치
##친왕
##펌프
미영
##교구장
어사
노쇠
진종
폐합
히포
부원군
##챔피언
지기스문트
##레오
여몽
##소닉
히로시마현
카누
홀랜드
##형무소
화사
가정폭력
렉서스
대사마
##항모
##밀스
발롱도르
을로
콘도티에로
에그맨
##악곡
소추
화법
장만
결석
국세청
반기문
불완전
불면증
요령
허수
로렌츠
판단력
현전
여군
시가전
가업
##메트
통괄
##인공
용례
레지스트리
개연
파타
진서
명암
에딘
단골
레이먼드
오사
행성상
겨울잠
동해선
##막부
속초
##윈도
비례대표제
##콜로
신타로
유카리
둔갑
포스트모더니즘
##리히
수크로스
색슨
카보베르데
##루터
난파
푸저우
가급적
##백인
키바
캐롤라인
하드리아누스
심기
다카우
파이낸셜
골반
##선거구
체외
##르노
빈티지
벤츠
관부
##타지
##자카
덴노지
거창군
시디
테마파크
##충주
흑표
##스트리트
퍼싱
등교
윤임
정명
##려
일병
화강석
지대석
##이지의
챔프
걸출
##요새
나르
여순항
코미
옐
가압
노하라
가넷
레슬러
##스피드
서민원
레진
명물
정략
볼츠만
형체
개혁파
경동
##공위
##유출
이학
앨프리드
##파업
디지
옴니버스
티토
남만주
양주시
##신사
##빈도
이용은
섀도
신문인
자급자족
민족정기
여세
안목
천군
##방언
관현
##지출
브렛
##조류
번호판
조산
퇴색
경극
스타킹
입체감
##리어스
논스톱
##불량
타자기
콘월
맬
아우슈비츠
험프리
딜레마
신망
애슐리
외딴
실비아
소호
##벨벳
##먼
이동의
카푸
산양
좌지우지
교로
니노
크리스트교
##진구
리플리
##향후
로사
상위권
총사령
가쓰야
##센트
청양
친아버지
##전람회
랙
##녹색
카르멘
가고시마
아메데오
쿠프
송곳니
에프
##좌의정
챠
##라크
올슨
유마
클로버
제석천
우디네세
페르소나
아길레라
비엔날레
##청자
##정수
김수환
오스카르
##세가
초전
##막스
괴팅겐
##진나라
일본제
##대립
##마니
도봉
숭례문
아몬드
해동
##金
순경
노자
사파리
스토리텔링
항행
마르스
김상
규산염
최상급
오키나와현
##조직법
열대성
이승엽
실기
점자
불국사
리보솜
아리
##갤러리
렉
피르
대장장이
##리오스
해군력
모험가
메티스
메이플
배임
사이비
자르
오족
제구
##하나님
##이사국
자연재해
고철
##루시아
아시아인
##山
한계점
바구니
한용운
발암
책무
##총재
이주영
이분법
양고기
##칠레
실라
아담스
분홍
울지
포박
경기병
포로수용소
발키리
호루스
제조가
미크로네시아
도로시
##투르
멸치
##보유자
전연
첩이
##히로시마
도치기
##구르
황녀
감바
주서
수호성인
어음
이사의
해미
감쇠
다포
마흐무드
아다치
##코마
숏
##마케팅
족제비
##다크
##자식
피파
채광
크라이스트처치
데빌
상반신
말라카
트래
히로사키
프라모델
슈뢰더
원환면
유스케
스펠
브록
코사인
직설
##봉쇄
##비즈니스
##시한
변인
##보행
대칭군
기슈
튀김
심상
##신학자
수업료
##유닛
알프레트
군사용
상보
##평화통일
월성
환희
연하
가정과
##신도
레시피
억제제
요점
얼리
금욕
총영사관
자동차도
최의
##공헌
어구
##반과
##방패
##비크
동식
고주
에로스
에리스
로직
박근
내주
라인란트
##티니
레닌주의
한림학사
법회
뜻밖
통나무
##슈타
야요이
본부인
루드
푸아티에
패널로
명대
##증명서
롤러코스터
발표회
웨딩
##미라
유현
지석
효장
##짓
##접촉
페니실린
촌은
##말기
아키야마
선동열
전투단
목공
우부승지
혜왕
루덴도르프
김수
소사이어티
버클
모듈라
불전
상신
##엘리베이터
스파이스
결승선
수춘
대주자
청약
해머스미스
피선거권
##세로
위가
아미노
김경수
문책
직간접
리자
열량
안내서
##체스
파운데이션
북제
##호랑이
##건국
##부채
방직
벵
문화관광부
야마노테
음독
옥외
덕목
벤젠
총참모장
선거일
들통
독촉
아라비
뉴멕시코주
신일본
소행성대
항성풍
양배추
도원수
정회
도용
성주군
궁내
##수력
##곳
수입국
##알렉산더
임피던스
회심
노멀
높이뛰기
캥거루
호엔촐레른
인동
바운드
##산현
이홍장
다카기
한국학
##후인
적합
##테마
극락
앵무새
공동묘지
##국원
엘레나
조총
##늄
제문
게르마니아
히토시
독약
예테보리
에이리크
노략질
의령군
월동
기전
안네
가람
관이
상도
분만
친권
신대
왜국
집적회로
##함경남도
##강변
산천
진에
##분지
##수군
안젤로
##마르틴
함평
도르곤
에치
기념품
김대건
마니교
##유년
지고
누계
마인드
##대제학
설욕
우천
산부인과
민수
##해방전선
##콜레
켄지
석성
베니테스
브레시아
판매자
스이타
체크카드
나레이션
블록체인
산신도
무리수
산다
분권
유착
우가
타살
소거
블라
약력
포춘
요람
##비행기
리콜
전자파
난무
남기
해평
물망
미온
##닭
##조상
하자
손병희
아전
##레르
##로스앤젤레스
##셸
양전자
교목
완도
신고전주의
지양
글루코스
과당
다당류
제철소
탱고
캔버라
정회원
하데스
프랑켄
참파
바하마
##사스
한이
시아버지
법률안
##논란
##식당
##곶
에뮬레이션
포퓰리즘
##시어
융자
파울루스
디오클레티아누스
성읍
여백
다케오
##세르비아
상봉
하대
로트
고군분투
##닷
혼전
##백자
모리타니
수미
##복식
프라이버시
소가노
가즈사
##진도
##화산
서장관
몽둥이
인주
아키노
신권
윤상
쿤밍
페테르
모라비아
합집합
수재
자물쇠
성심
환불
백병전
##최다
##왈라비
우린
라모스
전조등
발사기
##루수
##자장
##애칭
지하도
툇마루
로즈월
수혹
조부모
목차
풀린
##외국
##연습
우변
##김영삼
기색
##수반
종인
##서울시
오드
주몽
육각형
논점
건수
시키
기상학
##개량
##광물
##망이
검출기
스톱
##엘라
오성
##조어
극점
##우시
지협
항해사
##아식
##원대
##관객
영자
혼의
##주권
사르코지
생강
반값
환속
서포
바빌
첩자
시아
당산
폼페이
간신
로마노
튀링겐
벨러
마자르
거세
위관
##듯
요시무네
압축기
개벽
춘향전
양봉
문답
분비물
추진제
국상
계룡산
변두리
제전
노랫말
도포
단발령
##겐
##시카
지번
케일리
오이라트
라켓
롤프
금산군
항생
##레티
강진군
실러
중심인물
##성종
주색
##스틱
살충제
##홀딩스
불스
##서재
##비평가
루즈
셰이더
##모래
##펄
##아키라
웡
프레슬
선곡
운전실
게이샤
마이클스
심배
##한나라당
##하우젠
마크업
레노
영현
막심
메테인
헤게모니
옹기
무형문화재
카사
염산
##액체
에라스무스
공정거래위
영동고속도로
다빈치
벨레
워크스테이션
루디
##덕분
현혹
처신
대기압
요리법
급파
총영사
여학교
코드네임
##창립
##전신
툰드라
장방
##레와
송가
##옆
부정확
결손
##중학
##패션
귤
창가
리디
이드
정일권
샤워
##특보
소고기
무형
크로우
알프레도
##배열
사형수
슐츠
##결핍
##피리
쿠시
##광은
야마시로
가쓰요리
##수각
일광
경인선
이원
봉납
##엄과
소굴
##과학부
파섹
조슈아
친자
##상소
##평안북도
팰컨
메이크업
전생
장량
##왕전
앨리슨
밋
김일손
외방
제닝스
쾌속선
방심
웨이드
정찰위성
로번
저상
비토리아
우금
카이두
##기갑
후유
오라녜
디아라
후경
발견자
##리만
##스턴트
약용
허헌
##정치인
외교통상부
철도청
보관소
배기가스
숙원
##시스템즈
##오비
구인
##화장실
병환
##차기
##직전
분광학
##강연
위해
대장경
인디애나주
보호국
감고
안두희
##고향
천상의
본이
##요정
##서식지
퇴근
석면
위니
르망
덴마크어
중순양함
세탁
차이나타운
매장이
정통파
공포증
진통제
상비군
##일곱
상수도
헥토르
초토
라듐
데일
스티어링
캐스
이슈트반
##불가리아
총공격
바바라
##나트
폐막
임산부
출강
명산
옷깃
##종사
타오위안
비소
##포도
전근
##구리
이사오
##서당
경배
라파
##현종
언양
갑을
오쓰
진천군
폐모
김호
차범근
##위탁
##페인
신립
창왕
화주
##전권
##쿠로
썰매
##젼
##힙합
탈린
용왕
블랙베리
##복싱
##정언
케이티
후지모토
레딩
##캐치프레이즈
##드래프트
마사아키
파울리스타
조왕
티미
군론
미해결
##전시관
전자책
플레인
단치히
맏형
친지
기념행사
브라운관
##좌표계
갈매기
레이던
장마
북태평양
##봉과
##다운
##간격
가칭
대련
내선일체
##프레스
나노미터
적대감
유류
보사
매카시
선영
##제거
##트레
행과
이마에
부안군
자지
##시신
인신
부룬디
재생성
각주
##발굴
남녀노소
최고재판소
역한
이상적
소프트볼
##메시지
저촉
##경은
트리엔트
푸이
연발
##오노
유승민
##누리
드로잉
작문
수뇌
호민관
애원
기나이
용성
바너드
농산
##비에
스칼
우찬성
브라헤
구치소
커리큘럼
어민
초간
매화
##기밀
아드리안
명반
동북아시아
오환
공로상
호서
차폐
##감리
잉글랜드인
쟁탈전
성동
린이
##주차장
곤궁
도요하시
김두한
##물산
고명
위수
학산
트러스
천이
모식
도료
클로제
코카인
##문답
##리조트
트러블
##바우
동행자
미미
외주
주코프
성혈
히고
애니플러스
한골
케리건
메카닉
국자감
베이더
##빌보드
로베레
##트리스
임수혁
니시모토
아틀레틱
신오사카
에리카
열후
스파이더
성전사
##봉수
##찌르레기
##찌
##질
농어촌
황우석
알갱이
인데
이스터
##스미스
##정화
증정
카펜터
과격
##충격
쇼가쿠칸
##루마니아
개천
##교향악단
자금난
최댓값
익살
오르트
##고타
글라이더
##타이어
네이처
프리마
판석
변절
경칭
##중심주의
##오피스
선언서
히피
##건과
행정학
랄
##클레
##판인
##북아메리카
시가총액
##법규
납세
##당사자
고등고시
인증서
도이체
표도르
구급차
블로킹
학무
창녀
사진기
노퍽
소종
목자
마르크스주의자
전화기
깡패
##정국
##노이드
연체동물
강계
면죄부
적대시
뱀의
독사
신덕왕
방책
조선사
##대첩
전모
다이너마이트
옥산
번만
마귀
##바퀴
프놈펜
리시버
마오리
##거성
아래턱
모리셔스
하루노부
다카히로
토산
##나노
강제집행
베레
##다드
클랩튼
투레
선천성
##여왕
클러치
첨지중추부사
멜라닌
가리발디
쿠도
사리탑
##로바
충혜왕
##스테이지
##에피소드
디비시
석륵
토치우드
##학도
전자기장
인촌
철사
그라스
민자당
##저녁
아마테라스
검진
원자재
민화
궁인
작도
회의주의
브라이트
필요충분조건
##종료
낙천
공학부
##숀
무도회
소독
##자유당
추인
팥
노블
딱정벌레
자치통감
덕망
##토성
다카모리
근친상간
소득세
형태소
긴자
동제
##세례명
괴상
혈장
동물학자
##지리학
##빅토리아
##라리
일요
주중
이릉
숙모
##이닝
심이
편인
투표율
하모니카
불임
거실
##콘크리트
쪽지
리비우
향악
괴수
##농림
소도
우베
##교인
과달루페
선지자
##임신
오피
##팽
##미코토
명왕성
이륜자동차
나오키
타이타닉
김천시
영주시
작호
부령
인천부
문장가
크리크
진평왕
##남인
기립
메구로
에어쇼
정류소
축구장
읍내
판윤
언명
정공
궁성
대광보국숭록대부
액면
##씨름
리바
국산화
죽전
냉각재
가가와
살라흐
스플리트
자폐
장한
##예고
하딩
애버딘
발권
##앱
호스피스
포우하탄
분별기
쿨롱
##대선
빈발
석회석
##니키
히라가나
카타리나
국빈
##영토
진자
총생산
쓰촨성
대흥
마찰력
나이프
완패
페놀
##대표자
코엑스
스타인
참모부
형국
문전
기준점
애프터
플립
##컬러
우주망원경
프랫
##슬로
파티마
##곤란
수성구
친서
조미
쉘
옐로스톤
##테이프
뉴먼
자유국
참살
부호화
그렉
점액
##히스
##직접
##자녀
신호기
메콩
방도
수렴청정
실직
##퉁
옷의
알트
##공통
키프
스푸트니크
##메드
창춘
##오빠
목초지
하야토
제적
수건
저항군
양녕대군
두
레일리
퇴적암
김정남
셉
에딩턴
입영
생활사
##결선
내무성
군포
데어
도입부
페테르부르크
알란
방광
##쇼와
고쿠진
종사관
불공정
##누구
발데마르
갑사
순치
##틀리
경학
쇄
강선
항고
카슨
영창대군
김자점
마키노
타카시
지열
일직
승조원
포커스
조인트
카인
게르하르트
##번지
화관
##파이터
코스피
지포스
브라만
마기
헤이우드
왕중
##요코하마
아카기
심불
시터
유압
총점
홍진호
##석가여래
해곡
야곱
##뉴턴
오보
후원회
귀납법
##클로
논술
적장자
주원장
##현황
##노동부
임야
아타튀르크
##랏
##근육
개울
패티
숍
솔라리스
계발
완간
국회의사당
##구분
폭약
가쿠
질식
딕슨
켐
##수령
##파시즘
미성년
클락
합참
진노
조사단
올림푸스
##제안
미야
##만년
유시
##인단
지방행정
히코
##지령
##러일
대지주
부에
소용이
전처
##갈
근동
##체조
드리
삼매
고갱
시파
본산
고배
메텔
##서브
비구
아악
리처드슨
카이아
톰스
음대
티에리
도읍지
##말갈
世
궁을
연구생
신승훈
로슈
수입원
요사
##수차
메흐메트
양곡
천여
영락제
잡초
##엑스포
악평
대동법
장대석
미니애폴리스
쇼텐
아가리
오로치
이태
귀와
카츠
김장
트윗
아체
##미우
송신기
브레스
##집단군
악셀
파라다이스
클라우디오
##감독원
퀴어
바츨라프
##로이
스완지
바이런
카자마
류지
팬택
식년시
계회
단위계
용천
국민장
최루탄
##의혹
추도
거미줄
유망
이발사
내각제
대잠
##해상
구배
밀린
평행선
탕진
주행성
카네
직진
국동
보람
사려
##며칠
##전두환
공청회
공교육
시효
투스
성리
비상시
스필버그
##바이저
쌍선
순흥
독일제국
복통
주형
포르투갈인
팍스
##검정
관하
풍랑
삽화가
홍색
##의자
유도탄
##권기
명함
정쟁
알자
갈의
막내딸
닝
로마노프
모라바
영인
##모집
마가
지네딘
##제사
##양성소
이고르
콜키스
##아크
##아호
토벌군
호장
쿠니
지쿠젠
총관
추탈
샤르
개동
##화력
##부하
##기술원
##츄
진도군
이이첨
근왕
쌍발
##도감
대례
목종
침입자
##대사간
패스트볼
##글리
김성주
##정부군
도이치
장애자
도팽
낭야
자키
키카
라싱
헤타페
비행대
프레스턴
러키
데쓰
놀도르
후지무라
계위
불선
쇤베르크
철판
##스투
검은색
부도덕
보험금
##용지
연속체
섭리
##독일어
단양군
빗살
혜경궁
##조선일보
학도병
악센트
차용어
마르티
행인
양친
##극장판
일기장
문학관
엽록체
리보
궁리
파지
##콥
위젯
##실적
##지마
가부키
대위법
조기어류
가정교사
분수령
극적
##흑
아데나워
피드
엘렌
스트레이트
박지성
##하천
패션쇼
##스티스
##조서
희소
프레시
##구현
파고
분점
경주로
##누이
##기념물
##제프
앎
블랙리스트
착좌
페렌츠
태고
홍역
후견
해군사관학교
공여
야사
##에스파냐
불사조
배쪽
의왕시
고트족
##종류
가성
##전승
##납
테오도르
대학자
##모가
동명이인
##도로공사
혈족
오도
후한서
아롱
비구니
마니아
사은사
마부
대운하
반다
장충
##인대
내레이션
전주부
의친왕
을사사화
서지학
무오
프레데릭
모리타
##급제
로서
송익필
총포
졸리
원종공신
파이트
추토
하세
데몬
하치노헤
플린
##행선
에지
레이서
셰인
체흐
##코미디
여의주
렉터
김재규
금빛
##윅
다자이
반문
괴담
몸짓
낙성
역수
##변인
열에너지
파시
비에
##출처
공업화
판교
찬드라
추수
요서
블럭
헤엄
##스티븐
살인범
쾨
메인스트림
트랙터
총사령부
순환군
탄로
##발전기
##워크
슈테판
##케플러
##타원
##맥주
동력차
천진
##홈피
법치주의
##스타트
엽기
중심축
총대
##자임
##플라톤
뒤집
구드
카니
원사
동국여지승람
##오스트
오두막
군용기
베르됭
훙
론도
풍경화
##수역
트러스트
##프랑스와
클라이드
헨델
지부장
##개정안
##지문
제니스
체인점
선거관리위원회
무더기
자마
의형제
선화
그루지야
짝별
콩코드
시무
##야드
데라우치
전등
가운
삼중수소
호도
##세스
피임
##선도
김성일
복제품
금정구
곡산
지갑
##반사
##포로스
가쿠슈인
##피질
##파이어
오행
##오이
바시
포천시
##인디언
카림
세키
아키코
##이조
##천왕
원병
태프트
폐색
봄바디어
##륭
##리호
##경보기
##식학
돌격대
회백색
암술대
쿠우
수비력
수호천사
다코타
아우라
나가사키현
저당권
코디
##수군절도사
김태원
카고
산후
카펠로
솔라나스
순양전함
빠르기
이해찬
중입자
슈퍼주니어
온돌
##상가
광명시
치프
비프
허시
페아노
여순
##야가
김두봉
평남
황해남
지조
프란체스카
코피
항력
도로망
시너지
간기
하이드록시기
원서
닷
유원지
##특징
브리스톨
절대주의
청원서
병리학
재흡수
비옥
농약
알바니아인
##성공회
프루
판노니아
메콩강
가담자
구심점
루벤스
진가
풍양
도버
광둥어
요로
누에바
##니트
##취임
난다
공터
시오
프리스
하층민
방산
초선
가교
바실리카
##소인
스피처
을사
슈페어
##피해자
박트리아
무용가
지렁이
상면
도민
라티
출장소
산골
가쓰이에
토치카
수르
재학생
추사
부평구
고속화
시마바라
##오키
현물
나루토
청량리
관입
도매
##영사
정읍시
지방도
##변이
기후현
독서실
알랭
##대원군
저작권법
콥트
저층
##대승불교
덴진
아무개
페퍼
##원전
##공학부
##습지
##각서
석굴
히로키
츠빙글리
관절염
포체
그라프
내측
윙스
우즈베크
돌격소총
아오모리현
구보타
브릿
초대질량
아와지
회양
징크스
이코마
에탈
모드리치
##폴드
아즈사
로키츠
유가사지론
피코
##입력
뫼비우스
무의미
확률론
킬로
너구리
##총생산
##노벨
방파제
##신분
절과
가정부
위자료
##대체
점근
선택지
코흐
조간
##미수
다다
##공학자
산국
교시
다층
##문학가
문안
순서쌍
술잔
##잠
수초
양성소
동대
##인류학
##키트
##소설가
달기
통사
세종실록
브리티시컬럼비아
지크프리트
실존주의
##뱀
오사마
표층
##흐름
##입구
구기
프리메이슨
봉건제
뷔르템베르크
놀라움
##의상
칼리스토
독립당
향가
##참
##화합
##스지
당사국
말경
##정신과
파노라마
체임벌린
신료
항산
밀라
별호
결절
대박
후위
##자가
유연
리보니아
산면
한산
불단
##존재
##사역
다라
옹정
부견
아이린
##수영
알파인
파이어니어
대종상
기품
홍군
구와나
역점
랠프
##조계종
선발투수
배너
##솜씨
테라스
호세이
연속극
복관
랜돌프
프럭토스
##착역
##요크
말뫼
구마모토
휴직
수련자
옥개
체인지업
소시에다드
스타스
와타루
섀도우
아탈란타
젤리빈
칸토어
##체결
혼선
개탄
애호
마그누스
##라
대종교
실탄
##농도
샤이니
고친
##케르
페트
병진
아도
달도
분석가
윌리스
##망은
도킨스
수순
##복제
태권
##캠페인
충분
아난
##관찰
##나선
앞이
중역
전우
에픽
천주교도
김병로
일쑤
원외
계약자
스캇
토에이
야만인
##의숙
##조선인
심실
##공중
연민
시추
##분립
##메모리
레크
##캐스팅
수용자
##비료
우주국
군데군데
뉘앙스
아달
##부조
##무렵
조진
그루브
##체인지
인도네시아어
속설
능하
##넨
##프톨레마이오스
추돌
##부시
야노
바투
고스
스핑크스
메뚜기
조르조
노동부
구례군
조디
박진영
이끼
##가슴
김제시
##스틸
묘정
곡창
로로
외손녀
석가모니불
##힌
히다
스미요시
##타케
고봉
##교차
부업
단풍
##거북
차오
빈스
광진구
올리비에
강주
##증기
풍천
인목
베네
##진회
연암
가산점
갑자사화
##우의정
히토
##점검
혜제
편집부
픽
입센
##하르트
##재즈
스프레이
돈녕부
스켈레톤
##중지
코에이
김수항
##라이즈
##디자이너
야마나
내선
성무
오티스
미들즈브러
오르시니
흥국생명
플레이메이커
커넥션
트와일라잇
터브먼
채결
양전하
정전기
섭렵
카간
참상
양변
정가
##공판
##선언문
소인수
케네
강력
조이스
##독자
원심력
외침
##바트
손아귀
##항공사
##행정부
##상회
출입국
논조
특종
삼단
전문직
장작
카메론
아포
열한
##국방부
항주
##본작
예감
나일론
초중
요
##확보
충정
가평군
창작물
반제국주의
전용기
##진리
바이로이트
애국주의
샘물
젖산
테이트
인두
대도시권
##동작
가히
헬레네
고대사
##구이
도당
남획
토마호크
##계인
스나이더
록과
미도
세율
테레
판테온
유후
설교자
러쉬
총지휘
도살
최린
산중
조사의
##베네치아
엉망
호상
북지
세례자
연강
불꽃놀이
주노
핵자
클로비스
##목성
한과
난리
참칭
##컨트롤러
조용필
놀
본기
혹사
근우회
시시
관도
목제
교종
##실로
비센테
하양
조병
##벤처
시뮬레이터
계단식
태양열
지역민
두령
오치
##첨정
참지정사
비토
##우로
##콕
캡
은진
게티즈버그
구데리안
클로즈
등정
싱크
셀타
마르첼로
출반
위너
현수
##존자
호시
##배틀
히로오카
베이브
투나잇
##루크
테레비
칼라인
##청구인
모용수
롤스터
자민련
논객
##퇴임
짜증
운구
체득
불매
양자수
##대출
저상버스
객석
##메스
##아산
패스트푸드
교육용
박테리오파지
동호
가섭
##초프
##언론인
##결성
종조부
김도연
##태그
가용
허비
##표창
##이웃
##권총
모지
공모자
##쿠데타
섬나라
황금색
동베를린
약혼녀
대충
##이크
어형
##불로
##오르
##실행
##일상
국자
##테리
##나투스
보급로
식성
여섯째
제노
칸막이
레이프
홉스
앙헬
에레라
쓰요시
##산인
이불
다수파
##자재
프랑크족
명중률
복족
##고려사
조도
문화상
아지트
##동해
푹
##연구자
고금
##무소
외투
향약
혼노
핫토리
##도쿠가와
도치기현
몬페라토
임천
포도밭
##주립
의뢰인
보름스
고해성사
##쿠시
추기경단
##리사
다이토
언관
고품
박규수
##모던
##흑인
단막극
회갈색
이르쿠츠크
시험관
브루어스
살레
경순양함
마룬
빌더
마조
유자광
진승
관모
포스팅
##부제학
헤이스
##지우
##우먼
사령선
노리치
구종
무신도
이축
분청사기
##사부
한명숙
슬릿
켓
##고정
물산
전라선
병인양요
김인
##거스
변용
인본주의
모라
고토바
미량
폴라
쾨니히스베르크
야코비
##시모
동양인
묘청
김규
미제
가로수
절강
단열
불합격
이타가키
인상주의
드뷔시
노부유키
조영
관은
남유럽
##라틴어
바인
##투족
군항
흉상
이분
내구
경기자
중미
델로스
##스팟
##론
항시
일반의
##비어
삼기
그레그
송구
미라클
기예
에베레스트
이성은
숙식
##소방
굴레
한식
아라시
##국무
봉직
##락스
알몸
##멀
법상종
##라바
펜리르
롤리
말썽
소운
이기면
골망
콩과
계면
요동성
##흉노
칠리
히타
주현
센트랄
술탄국
##도호부
적벽
월나라
군공
능호
##독부
알로사우루스
뉴포트
직제
맹약
사마귀
대야
키타
##무명
풍차
킥복싱
소연
콘월리스
우승지
##래쉬
국전
퀸시
르페브르
##롭
원심분리기
유관순
코타로
##폴리네시아
황동
##일행
이와타
여왕개미
##갤럭시
디럭스
##발원문
##지장보살
방재
##예술가
언동
이종찬
등거리
친가
측정값
##오스트리
직립
렙톤
은나라
야포
박종철
개사
##리얼
추상화
그레고리력
질투심
만경
형수
크리스찬
카우나스
용은
망의
데즈카
천왕성
북극해
장타력
채점
##이즈
촉각
##설명
##유동
개화당
헝가리어
산타페
##이가
아페르
##르네상스
셴
메두사
상한선
배팅
히드라
##놈
영전
운영비
팬더
##스테드
멘셰비키
베리야
장석
디비
선발대
제해
축척
핀란드인
노르만족
야고보
##크리스
소말릴란드
긴축
샤머니즘
무기고
소작인
##각이
산청
어소
배관
주왕
영산회상
테오도라
투약
우장
사마염
적장
수정란
필즈상
왜관
##십자가
##각본
좌석버스
##리에
붉은색
##항구
힘줄
수공
목책
환웅
##막이
하사관
장릉
시게
파나소닉
구성요건
##석기
맥길
북원
흉기
환시
교육법
베르나르도
벨리즈
키라
새싹
라피
몬순
비바
포크송
##펑크
도평
기수법
블뤼허
캐니언
##테라
음악상
로하스
너클
프레데터
##오리지널
키보디스트
##유키
##혼영
아인
아카리
언리얼
요시토키
켄시로
##정교회
오데사
동업
밤새
##버섯
탁자
유럽연합
##我
##유신
괴리
격감
진에어
자존
과천시
생태계
바라지
로더
검찰청
베르트
분간
친부
다당제
##제재
자인
예고편
##쓰가
불응
송진
주안점
판자
매리너
아르곤
하랄드
에두아르트
분업
실루엣
음영
린드
##아마추어
초은하단
기하급수
슈타이너
된장
양치기
건축사
손학규
##자치구
##투데이
제록스
스피노자
게오르그
고하
심고
##연락
메기
도와
##괘
툴킷
하와이주
과수
속령
##탈리아
##원경
수확량
크리티
데인
모모
빈치
##엔딩
히터
##파운드
ㅅ
##티나
##현충원
##이마
연결선
답례
소견
클라우디우스
발걸음
사냥개
염불
되
카스피
전단사
##포리
이클립스
캐치프레이즈
안평대군
특공
##유고슬라비아
이음
구룡
##미시
고료
절규
##천황
양현석
카르노
백관
변색
낙랑군
나체
봉화군
##다케
##키아
대첩
분고
쿰
계신
망누스
##사신
##경계
도공
##궁을
경수
달서
##의정부
복상
##원자로
##안성
마멸
##손인
앞니
시실
김윤식
후당
진명
록키
##화승
##끈
##코끼리
애완견
꽃줄기
##슈미트
통가
##동요
##허리케인
탐지기
박진
이월
엡스타인
캐피
##오크
##나폴리
거위
바투타
리바이벌
표준형
산토스
위법성
수영복
##현급시
외드
루치아
천룡
공대지
드림웍스
알레만
식당차
타이베리움
전자쌍
스캐너
그림책
종국
##전단
억지
장쭤린
##최순
##안내
파형
황사
노량
라만
라프
놀이터
높낮이
신수
모니카
바코드
포물선
서도
##아리랑
농토
임영신
##조사단
정일
진작
인용문
가전제품
뮌스터
##의약품
작용기
물감
##권역
존왕양이
##부리
어록
개보
브랜디
푸가
이상주의
잔기
균일
가공업
퀘벡주
함몰
트리톤
##앙리
쇄국
시켈
스트라빈스키
정보국
탄자
후커
공금
백정
면책
지략
보국
세수
사자자리
용구
샤우
프리드먼
##간담회
##개봉
일임
쇠사슬
배위
로메로
후연
좌장
예물
메디나
견당사
##스메
막시무스
급강하
호엔슈타우펜
##계단
촉수
신문왕
이찬
체자
후도
##둔
##첨사
더그
파출소
공출
##국부
이재선
미에현
브레이
쿠라
급행열차
수족
밀랍
##디즈
##선물
허스트
토스트
용기병
드레퓌스
공작위
가필드
비사야
세페이드
매시
##시브
가고시마현
롤리팝
방면군
주발
성광
애슬론
선역
콘코
데브스
##자수
양강
항등
##집안
지구당
역사관
##뜰
응답자
증보
공짜
고트프리트
국경일
유람선
폰토스
쓰쿠바
부정기
데데킨트
##상임
영친왕
산산조각
바이오스
판도라
##문예
장쩌민
##정치국
구마모토현
##령도
##생과
하락세
인건비
창세
##내역
복선화
커먼
피험자
촘스키
속담
장성군
춘원
카본
진원지
리플
입학생
함성
예복
코랄
한몫
원반던지기
연휴
##우와
역사책
본루
초로
크리올
이화학당
##지역인
수제자
##민국
장도
주재료
##검토
신경전
현대인
수개
클리
세베루스
꼭지
웅변
군권
사냥감
미용
##개신교
등불
아쿠
포메라니아
홀란트
고차원
##근로자
평북
흥사단
##순은
야
룬트
정삼각형
엿
후식
##타령
##이오
리지
도시이에
인기상
신동아
##양면
소정방
타슈켄트
용강
##성남
선더
경시제
##자전거
##모습
효명
##호쿠
권수
상영관
모텔
이징
군법회의
동란
##서재필
덩굴
행사장
성결
서일
황진
##생쥐
##체포
정랑
##세이버
게르트
배부
데비안
루프트한자
논사
펀자브
카디
##상부
##동국
나코
팝스
##키즈
정류
리슐리외
게임큐브
방아쇠
마스트
나오토
옥신
이지
컨버터블
##토토
이수영
선다발
장기하와
##린턴
접다발
사원수
필진
니키타
뢰프
제관
호킹
배수로
작성자
##스핀
##지오
계산법
과학사
하역
골동품
연소로
피랍
탈수
##벨리
##한민
대학인
최솟값
호퍼
##중국어
원운동
##패턴
북반
##주군
특수전
과외
함경
##대조
이동녕
경교장
환송
장로교회
황화
공저
수억
뭄바이
기타노
행은
##급인
챔버
약소국
미행
단합
진취
견문
벌채
##영원
승강제
##득표
벼락
헌혈
##기름
해조류
교회사
##프랑스어
옌안
수작업
소매업
호펜
대원수
##샹
약진
스틱스
이계
초장
반투명
피켓
나경원
김진
혹자
##원상
누미디아
패잔병
유격전
경사각
폴리머
카롤
카렐리
마키아벨리
척이
##투아
무정부
인센티브
경륜
에이벡스
데비
##교로
상징주의
총력
자책
분석기
마이스터
의천
나탈리아
기요스
다도
산기
갱스터
##스터링
일경
트루아
관통력
야마구치현
윤잉
##스탄
능성
영광군
서광
본원
백서
##교육감
##클린
##氏
사택
곤장
##빠
순이익
수속
문재
탱
파쿠
초산
초식성
결구
발렌타인
전갈자리
아이리스
베들레헴
##템
좌부승지
심시티
선미
미확인
생몰년
라그
요시미
슈나이더
슈리
트론
모항
##건안
이오리
선암사
스토우
워홀
연결기
##정려
루트킷
테마주
예술인
난제
##대안
통합민주당
구설수
##동아일보
베크
내진
리아스
까치
김홍도
선택과
##부천
비수
태평양전쟁
수압
세아
##체이
노턴
##다르
한역
##교정
잡지사
##퍼드
에이전시
근현대
위화
대포동
맞
인형극
꾀
##해고
수하물
##우주선
리미
도나
일반직
후지오
리스프
당분
##악화
과소
잉어
농기구
##추천
이현상
##심장
원기
우노
##죽음
구걸
그놈
암트랙
로키스
파슨스
아일
슈이치
바클리
이누이트
석학
이사야
마그데부르크
직항
금수
결박
베유
##득점
##몰입
약식
브리스틀
##맨체스터
변증
미정
대본영
안위
##레온
식기
조판
개혁가
평단
유언장
만취
자코뱅
##아로
책망
##피아노
봉양
아리우스
핵전쟁
##일식
연구가
애프터스쿨
한림원
고려청자
모가
농어촌버스
오타니
고유종
티타늄
##원가
캄차카
프란
##표가
총책임자
##팰리스
##점인
웨스
항암
측정기
플라스
협성
소고
삼중대광
요시테루
금오
마개
산수화
##재생
톡
누룩
##스텐
##바드
원생
아카마쓰
미테랑
로튼
##점프
비추
##코인
슬립
최종회
의빈
로건
여성학
경보병
프로스트
롬바르디
##쥘
드래그
파크스
##울리
##코믹스
마크로스
드라큘라
묘표
상량문
히라이즈미
행랑채
동서남북
라다
나가이
인멸
법통
##원국
##복구
##광선
산업단지
##상주
출연료
##방송사
##행과
역어
저메인
요시코
##포기
신음
정견
총사퇴
##잠시
##스페셜
타스
농상공부
동심원
엄지손가락
교수법
도토리
베커
만주어
대들보
경산시
닷컴
루틴
##인문
가즈오
장터
라덴
##알바니아
극작
##쳐
현수막
어버이
잉
업과
휴스
천계
박멸
후비
유부
익
예천군
신용카드
##이진
마리안
재무장
##우익
덫
왕태자
##자당
##텐더
##취록
##까마귀
파울로스
중지하
프롤
##코바
모성
공증인
유키치
##관할
##군산
##촉의
##혈액형
동편
스타크
##사르
최전방
만력
슨푸
데루모토
우키타
탈해
##가마
축퇴
진야
콘스탄스
##실시
동지사
틸리
남장
고흥군
아메바
기사환국
영중추부사
##자드
김상헌
직의
식재
히에이
주전충
호암
##비즈
그리스도론
육식성
##휴가
라일리
헤로데
메서
다임러
태국어
튀니스
샤른호르스트
라스푸틴
페페
고등문관시험
파푸아
##매출
테크니컬러
격납
기로소
서성
로빈스
##던스
오베르뉴
##고베
시복식
##보잉
효정
원줄기
트래퍼드
디스트릭트
조앤
갤리선
종택
상락
암프
중기관총
바탄
커미셔너
##치앙
밀짚모자
증결
폭주족
조성민
향로석
번뇌장
빈곤층
전자기력
흥남
고타
전말
##분산
고위도
신해
미세먼지
##증거
판타
팔로군
상생
##폐쇄
##친일파
비결
강직
조로아스터교
코헨
매미
글씨체
학술원
양단
우열
양기탁
백산
답신
한국독립당
##아명
미개
사브
기독교민주당
아오
##동아리
막걸리
응원단
##연재
##메에
##항목
루아
##심이
풋살
스토아
상례
##이아
동도
벽파
기탁
테티스
이병철
설명서
전환기
적수
박막
우구
안드로메다자리
##모터
##명종
박팽년
레기
##대령
##대표부
부케
##센고쿠
사이판
##시즈
루앙
관념론
삿
장항
궐
함교
##묵
##드레스
작명
##스타스
옥천군
오데르
도토미
에데사
성물
길림
베르베르
군관구
남위
지눌
##교지
친아들
배꼽
궁수자리
이프
##목이
##연속극
##혼합
양천구
리도
##부설
방조제
대왕대비
##광해군
이연
선문
육손
증원군
푸트
##러브
##모씨
윤종신
##국사가
수과
##장구
주디
소방방
지부티
완행선
신맛
더듬이
총회장
형제단
스위칭
토바고
누군지
네바다주
프론티어
극락보전
프롤로그
곽회
발사장
니미츠
오하이오
##퍼스
면석
이니셔티브
방호순양함
데스테
하야테
카니예
타닌
담판
복학
##사양
전문지
##특별법
알짜
##응력
##증명
연구비
측천무후
취조
철도선
경춘선
마이어스
수시
##만능
쌍곡선
##임대
##단편
선반
##헌장
엉터리
터치스크린
벅
수원지
발설
학무국
교통망
경무국
##동우회
동맹자
오순절
제플린
양털
식민주의
전주곡
##파충류
멜로
애첩
블리스
애쉬
아이레스
##석탄
바오
호아
##교대
우편물
##봉인
한단
식물체
움베르토
##넛
납땜
접사
운동권
서평
맹공
아시리
상심
영춘
오디
목마
##카이사르
##리다
##유식
중도우파
보수가
노파
성가대
반소
테러리즘
비법
##루타
호머
대계
팔다리
승병
##흘
역류
##쉬르
세슘
찌꺼기
문흠
##히코
섬광
노부야스
경마장
범선
슈티르너
슈토
##희망
백은
강학
남계
신기
##주이
##코너
행주
리간드
노부시게
무코
쿠르드족
이우
곽재우
정덕
소작
더럼
요시토모
##당상
체면
악귀
제학
마름
##드루
##캔
치바
삭탈
소천
##로스터
아줌마
카멜
심부
고니
성작
인디아나
동화사
크레디트
오대십국
히사시
시상하부
슈거
머드
명판
##덱
##대리인
오라
킹덤
영업소
린킨
라미레스
랜서
##조참
호무
몬테비데오
단검
어온
##변형
과오
증거인
박동
융통
##메일
##보완
소우
존치
골드만
이소
노량진
##영제
열사
장수왕
회사원
등속
##금리
디버거
##작성
상성
트리거
상좌부
에틸렌
##터치
실용주의
괴짜
##근로
##합창단
양양군
요양원
사회봉사
평등주의
종주국
앨리
##규격
프로베니우스
왜행성
퇴식
심지
##척식
##선국
귀금속
관구장
상순
곤잘레스
##페스트
인사이드
다낭
얼마간
선험
황푸
부지사
정례
래스
피츠
공도
##시바
누아르
삼부회
코즈
폐수
온도계
군왕
바르바라
##치과
유도체
부정의
룬드
가금
예법
무반
마제
성관
플로렌스
암송
마립간
병법
##레흐
##그랜드
##롤링
인과관계
##이프
##재소
부르키나파소
김개남
옥포
길주
진안군
##후원회
미네소타주
##농민군
의화
전고
##리라
주전자
망고
송수신
##양쪽
##새끼
관세음보살
##종인
황충
섹
장양
신천지
##선단
화성암
##폐기물
비기
토트
##스탈
##충전
위스콘신주
시성식
##상장
차축
자딘
##바이트
페예노르트
단짝
흥국사
모레노
##개막
세로토닌
##텐트
트레이딩
이승환
놀런
나이트클럽
익공
쇼헤이
얼티밋
레코즈
신동엽
커세어
말나식
음전하
재배치
선속
##리투아니아
귄터
척결
부산대
유시민
쌍곡
영산강
##역전
태릉
케말
줄리언
크류
매회
##물가
가스통
체르멜로
세팅
##테타
위버
퓨처
이펙트
카우보이
##허정
아첨
적임자
매해
##부나
태우
마쓰자카
타법
재결
개진
입기
신평
매국노
재통합
유색인
스트로크
순시
레오폴드
대천
##지부장
차서
레겐스부르크
로데
과립
풍수지리
할리
로마법
유일신
경례
일리아스
인상파
향나무
구류
연구용
헤비메탈
##롤의
일회용
청력
바트당
소다
캄파니아
페름기
##르니
패인
##베르가
##도프
계기판
언드라시
자유의지
동업자
이장하
##노보
이코노미
##나비
쉰
전단지
득표수
수신자
산모
##고추
회답
심원
오귀스트
수평선
타쿠야
##카리
청산리
메토
##로고스
쉼터
섭입
맨슨
##백과
에트
청라
자줏빛
조종석
##품질
타라
알바로
돌변
부칙
보은군
##재로
별관
##카인
사파비
법계
에닉스
##대도
오호츠크
##법전
##탁
문성
맹장
유타주
도겸
괴산
##암군
맹그로브
호자
밀스
방송법
루이지애나주
보야르
##무자
핑클
아베노
서황
쓰토무
게레로
미네이루
이성애자
사와무라
엑소
##뮌헨
우크라이나어
루마니아어
절인
##무로
톰프슨
##방지법
장담
야스쿠니
국익
토시
온난화
##물체
##콤팩트
##축전
윤두수
##문화상
사스케
콜리
일인
행동주의
알칼로이드
실과
낭송
지중해성
##거주
트릴
와전
분극
레오폴
##로우
##니체
본업
도마뱀붙이
지하드
악순환
##광업
불가리아인
행정소송
청어
##튀르크
##적색
##빌헬름
극단주의
스
바이에른주
알렉상드르
동침
아르고
우완
배색
고주파
확
웨일스어
연초
수송량
학의
요망
검문
로딩
청록색
팔리
증후
골치
고열
그리고리
나락
연회장
##서독
##용사
경사로
청천
함길도
정안
수구파
다원
유일무이
월경지
리오스
총량
로젠
소강
나라현
방석
북벌론
스키마
노부카쓰
##제주도
에조
프로젝터
영창
흉부
몽펠리에
성하
##룹
아티스
##중앙선
역장
##이리
구씨
냉각수
##방사선
기흥구
점렬
히다카
마사미
##윌
링거
분국
휘문
넘버원
이마이
##조리
상전이
##인생
바벨
리코더
켄터키주
부시장
발코니
##푸르
라이트닝
함상
컴플렉스
제어기
호선
리빙스턴
##비나
아라스
토레
##가닥
풀밭
홈스
##보수주의
노르트
##로리
크랩
간파쿠
##파트너
##미티
##앨리스
머리칼
시보
##마드
##아이돌
모트
어벤저스
득점력
데쓰야
네버
마스터링
부클
사일런트
차대
트라이얼
##튜버
언데드
엑스맨
알딘
##번뇌
외삼문
탈레스
미분기
장주기
##협동
영결식
##삼각형
##통계학
펀딩
캐번디시
섬진강
동중국해
해파리
##이행
국공립
유카와
오가와
복리
정석
베셀
##대사전
##니티
이지만
권말
##무력
##형상
훈계
일출
격전지
개각
관망
경계심
판다
병원균
처가
스오
조칙
공산군
##상어
예문
성덕
##완화
양전
##도심
통훈대부
이타미
선악
##엘리자베스
베트남인
##페루
성장세
디아스포라
샤토
도미노
##아홉
처절
심포지엄
##개체
재임명
현실주의
세바스티안
가무
공작인
부지런
##만료
헨드릭스
특임
에스테르
##리나
티투스
발육
##투르크
##성사
승차감
##에어
전기차
자상
파와
민영익
티모
##하느님
레디
간무
치앙마이
군청소재지
##탈퇴
사탕무
경식
군웅
##조종
공창
하후돈
##제일
테바
편모
연옥
고카
기년
법흥왕
##접근
군나르
내항
전투함
체로
유람
화엄종
청이
홍타이지
염주
외조카
##베라
산림청
##동회
도강
왕기
특진관
이덕형
동북동
강단
사일로
저당
시이다
승정원일기
기녀
해령
운전기사
##다비
삼총사
##튜브
홍길동
생드니
콜먼
##브라운
진드기
가바
헤드폰
조헌
생성기
대리점
프리먼
ㅂ
멧
##논
썸
조호르
##휠
##스킬
심즈
##天
캐딜락
조홍
분견대
동양학
보훔
큐레이터
곤살로
이휘소
방어사
구축전차
##쇼어
조좌
도요코
##지모도
통속
저울
서대문형무소
섰다
전근대
##자세
##일각
##좌표
다트머스
유급
의정원
##시멘트
무정부주의자
##택시
신이치로
스미
난수
지침서
##사전의
고공
##강원
어빙
코스튬
인쇄소
할례
응시자
훈육
동교동
사문
강둑
아니메
정무직
블로거
교분
##후원
필그림
타이지
에히메
##스타드
가독성
대식세포
착지
코브
즈베즈다
속일
바도
용문
라티움
타순
##령인
브라보
도미니크
우창
간암
스트링
훌
##래스
미코토
종지
바우어
오라토리오
스페인인
아람어
신보
##제작사
황야
지도층
신재
고참
##갈리아
포르테
페가수스자리
쏘나타
하이드리히
최상
성병
요기
신교
##합계
##사위
수용성
닻
##산면
몽환
흑갈색
천신
대곡
유영
트라이앵글
##럽
중재자
##부대원
상제
하남시
문예지
키치너
##성군
가라쓰
##스마트
삼미
##원나라
인빈
회맹
조련
무바라크
통진
마쓰우라
박아
김원
##머스트
##지연
##장로교
##교장
담황색
민원식
##누의
밀렵
드루이드
외관상
미카일
라돈
강속구
호안
봉입
##화기
청바지
손길
##양상
비씨카드
지아
##포대
웨이크
조고
셀림
동석
손익
속선
동헌
카산드로스
바드
갤러
##어깨
미스트
안근
파르네세
디펜스
스매시
메이든
껌
카린
피버
선글라스
건무
캐릭
##어차
로넌
단바인
라키
명예박사
##부통령
##현직
참여연대
야스시
##프랑크
양견
숭정
설악산
이동과
비상계엄
황교안
##상환
##천장
##학력
진정서
고생대
##파천
사이언
금제
매케인
시즈
##활자
오버헤드
시각화
반월
퓰리처상
촉망
노스케
유훈
홍천군
초소
간섭계
발신
##예보
장외
##구청장
수두
동아일보사
민립
앞장
무근
혈소판
의견서
##애초
동그라미
럭
장쉐량
전무후무
신적
##수용체
가오리
비밀경찰
중핵
발칸반도
유로존
##자국
구엘프
식자
마쓰시마
실정법
무모한
식중독
파리스
##범인
용언
초서
평화민주당
곡성
카프카
미이라
야욕
포옹
마르가리타
탈리아나
##경영학
##한계
##리스크
황이
##전집
사회상
임씨
드레이퍼
울진군
미륵불
은광
日
송파
영천군
요시쓰구
시메온
선용
동평
감은
모데나
남정
환인
순무
윈필드
##신도비
##토론토
쇼코
신법
음성군
참선
##비로자나불
##미포
화목
문수
도지
칼의
서수
히라노
##사업단
##성산
사라고사
검도
##뷰트
자니
바느질
##문관
##선교회
헤라트
크리슈나
##식서
미라주
##지산
##도파
동력원
에밀리오
노보루
게이트웨이
포졸
발렌티누스
순명
시슈
이페이
##조종사
태부
크레이지
##리버
##자락
##계위
##금고
##단선
##식스
로버트슨
급전
##타노
오가타
플로우
하메스
##스톰
큐어
##레슬러
크루프
스네이더르
주다발
당무
평전
##작자
브레히트
로스엔젤레스
쇼타로
슈렉
회전축
##지장
옥저
방류
부담감
왕따
인왕산
뭘
##쿠가
##수일
회전수
레그
빙산
방응모
한독당
급팽창
약관
마쉬
견습생
불포화
##배급
##대결
선린
동축
통덕랑
투석
요코야마
##함량
##관청
숟가락
##단독
격납고
구정
##진이
비협조
##구매
민속놀이
##수치
결행
위튼
가재
연방주의
##재무
습곡
에렉투스
역방향
찬송
헤스
레옹
##왕비
소하
불복종
탑승객
생활고
학예
구지
뱃속
##외과
##마산
##여건
##공고
최장수
거리낌
아랑곳
##추방
광섬유
머릿속
파킨슨병
섬네일
북안
##수성
##상당
전민
수천만
루미
모진
수술의
국시
하후연
둔전
##조반니
팀파니
숄
곡사포
이곡
포르타
남녀공학
설로
적선
부경
##이식
음악중심
##산림
갓
코네티컷주
세타가야
##투자자
유석
##아
파이팅
회항
고리야마
정선군
영호
##왕도
훈련도감
이브닝
##승무원
통장
갭
정암
##文
##어사
구름무늬
베드타운
##수렴
여우원숭이
벤허
평왕
아이덴티티
공진
새미
##가마쿠라
항우울제
키토
영미법
##밀의
##탄생
##社
가증
##크림
선라이즈
방탄
샹파뉴
설계안
수형
##레진
##전처
선댄스
라멘
나달
비행대대
코비
아야카
패딩턴
탑비
김명운
봉고레
##공국
괄목
행정자치부
운집
총계
문민정부
##코시
배나
##어법
제련
도심지
##여덟
식도
개주
밀봉
##다툼
뉴델리
##테이
젖소
의학자
##미하일
로물루스
스가
두음
살수
당색
서두
피소
##탐사선
올림피아드
개회식
##물류
이바노비치
군위
건달
매제
건준
실신
영천시
##케이블
선처
코코아
##링컨
베를리오즈
박의
고즈
미야케
요시유키
##어류
종도
##면제
푸에르토
##황금
##대말
빨래
파열음
봉송
토지개혁
유증
브라더
급락
음표
##벤트
레베카
이웃집
체카
수상기
대내외
궁수
##차명
다르
##수급
다비
세공
##성가
향락
##교역
정탐
행정청
박인덕
산행
종명
아몬
입장권
경축
##차림
종조
##씨족
평주
오벨리스크
##장벽
신생대
닐슨
##성주
하권
귀주
##온과
서핑
우마이야
대검
잡
사통
법부
##무제
촉의
##감자
성황리
송림
소극장
##동네
목천
이튼
##브룩
해상자위대
일람
부폰
줄리아노
리스토
##퇴한
손호
신극
##내셔널
카가
프리온
불도저
평양부
##카제
전륜
펑톈
머지
##판무관
효경
중병
윈체스터
페기
부동소수점
##저우
독립영화
고다
##벌레
바나
종합진흥국
틸팅
보도국
소형차
마츠다
소아과
쓰루오카
##시탄
범천
필살
##카가미
##크세르크세스
상디
함석헌
수경
##반도
##하인리히
군상
건평
치료비
비통
##기적
##키치
##수직
불연속
##괄호
참새
케어
음악제
##모자
##창이
광역철도
정다각형
직공
극지
취체역
증손녀
띄어쓰기
전산학
##프렝
##영과
뇌출혈
유노
##아폴로
이산가족
원도
##방이
낭만파
자화
합본
만화상
외설
콤프턴
##하로
수증
박찬호
내무대신
##여학교
팝업
구상하
주목적
손등
##자비
##대학인
글리코사이드
##페란
##자매
주안
옐로카드
##바니
##바인
제과
시마네
오작동
해리어
ㅈ
양태
유투
신학생
잔학
밸
크렘린
삼니움
초여름
아티
##실용
##업적
종기
부르크
밀로셰비치
랑스
비탄
발렌슈타인
볼드윈
##도당
##르네
강산
칼라브리아
##분기
이왕직
근대식
##한양
생년월일
완안
##참사
근시
무열왕
밧
##대국
##센트럴
세벌식
상행위
##콜롬비아
##둑
불시착
용두
##승객
다다미
마이티
화천
양구
샤아
겹처마
국민학교
영명
원복
숭정대부
##축산
호연
##중추원사
대구부
웬디
애제
##전법
싱크탱크
할렐루야
심바
##넥
##비니
파츠
##레즈
합장묘
오호
나발
##남원
##나무과
중징계
##토로
안데르센
에스테
중파
오월
대미지
##소울
부총관
반자
스바루
석신산
##창단
스톤월
전차선
##하버드
오브라이언
오키타
미호
블라스터
##섹스
정인숙
도키마사
##탱화
심플
조력자
##예약
##나트륨
지역주의
##프랑수아
레우
분광기
##누마
흑체
##영문학
대륙붕
신분당선
소폭
장로회
##렴구
자료실
지론
##버거
서로소
불교도
##레닌
##정치학
빈자리
임꺽정
##부패
크레이터
임페리얼
##수련
##기성회
레빈
##감
##클리
앞날
브라우닝
이와사키
##슬라브
소도시
계약직
##자크
문화인
눈보라
교호
매독
##리노
먹거리
국조
태즈메이니아
원재료
##특허
우파니샤드
내셔널스
좌현
열병식
운남
##동향
##슌
드림캐스트
테크니컬
꾸러미
카이펑
대숙청
티어
고농
조수석
철조망
스웨덴인
비음
거상
방어진
개기
몽타주
희천
탄피
##음악회
서막
산란기
##레터
여담
##문학부
하이트
현미
박지
잠수정
저음
부성
펠로
켄타우로스
누르하치
히로미
##흙
##진동
장애인
아마노
추문
벌판
왕사
예기
왜
연화문
트리뷴
도노
칼라일
망자
세네카
부황
율리아누스
급진파
물고기자리
##각류
중랑구
금천구
새김
##진흥회
기산
군가
소윤
급서
제때
첨자
채록
칙임관
상군
다큐
재조사
평준
여행사
##상륙
##메시
철로
배낭
바실
타미
반스
휘종
##버스터
문동
소멸시효
나한상
임사홍
채프먼
라팔
슈마허
베를루스코니
##아속
카라스
##미노
##신칸센
정신력
신차
듄
공격진
다이고
플라멩구
니즈
##숭녕
##우윤
러시앤캐시
구생기
복간
노구치
연석회의
##발언
애석
차관보
비합리
분란
오용
대표부
##피시
헨더슨
겨드랑이
분자량
사용료
극렬
이과
플리니우스
누수
##셈
동원령
린츠
유한체
유성우
깃대
포트란
골든글러브
면세
양귀비
혼혈인
전초
##앨런
에니그마
마빈
보령시
펩타이드
파치
수용기
##우에
신청자
근력
유나
##붐
타갈로그
조희
바스쿠
북독일
내륙국
헤시오도스
커드
##건축물
참주
##스트링
애니멀
##토바
만족감
트로츠키주의
뫼
도메니코
연해
에니
압하스
근기
##소나
브레즈네프
##시르
인쇄술
조각품
##협과
입금
배신한
김일엽
##토미
로에
임대차
콘돔
총회의
금식
복면
벨라스케스
보장왕
연가
달마
돋을새김
올리
곤의
태초
참수형
##텝
보현
남천
##상무
##단군
하옥
무협
##협조
왕세
몰디브
선경
성협
상병
##소방서
##여수
빙상
조충
육교
극력
칙명
방통
##봉산
야습
교도관
주원
신흥사
간레이
##무술
브롱크스
묵상
절정기
##슐
테레즈
##선로
왼팔
계간
크론
엘리사
남섬
알아사드
준설
만달레이
네이마르
##설가
스티비
스팅
원씨
배구단
미시시피주
데이즈
지그
옥시
종탑
어종
##도호쿠
박영선
쿠루
##절도
콴타스
최강희
김정우
지물
카빈
마누
워스
카쿠
하루하루
갈레아초
##작중
기요시
##소부
##미드
홍백
벨트란
송달
##코가
카트먼
##위각
위너스리그
언더테이커
애기박쥐
화학공업
점화식
급경사
쿠션
불하
거북선
##개발자
##캠
##볼프강
항한
의문사
##음력
하임
저력
무역상
동단
문사
원색
핑거
플럭스
구청장
희롱
압제
##어학회
러닝메이트
군민
##춘천
프리웨어
알래스카주
동정녀
화정
주점
카시
에머슨
주격
약세
이재용
##베나
##현행
델파이
다신교
이비
리카르
보크
무기력
지구대
빙자
##동독
마르타
##보육
밸런타인
민방
에페이로스
지참금
정예병
##낮
등가
혼한
##묘호
산서
농락
댐퍼
음량
##法
##사막
연락처
성만찬
##신약
트라이아스기
테트리스
명문화
캇
총체적
##침략
돌비
화엄사
##남매
흡수선
찬
무령왕
미소년
카오
이본
##네이버
요요
김춘추
남당
황기
찬동
육우
교통편
##교학
광산구
영동군
적통
##年
장중
##하와이
날인
애기
황룡
이희
효수
사토미
양식장
타블로이드
아덴
##자상
알레고리
##타가
골란
##개구리
당밀
왕전
##보우
위령
##밀라노
##리즈
##멧
가스펠
##구부
마농
진수부
히토미
가라스
스네이크
임차인
회전자
개그콘서트
##욕구
부정행위
도로변
바우하우스
세사
마르셀린
아키모토
포르모소
##싱어
##초명
칸나바로
메아차
리엄
마작
네드
##묶음
타마르
모리안
##범주
논거
편협
안기
##선거관리위원회
##원비
고지마
##논리학
알렉사
에르빈
배스
맹수
##진실
국내법
##근접
서학
탄천
##중동
수달
빨갱이
한총련
은하계
제스처
피습
흥국
소일
낙담
망가
하야오
서유기
밀림
나위
음운론
소좌
##당대
##매장
##감영
충효
##이민
침례교회
파국
사전의
##전위
심벌
절충장군
퇴행
반올림
스콜
##발리
##마케도니아
입법권
시크교
이터
##산악
아티카
발자취
핵폭발
망설
음가
수도승
##단기
준공식
소매점
채식
창조물
프리스틀리
##클라
##티온
사람됨
사마르칸트
##치오
라데
갈증
음률
작업자
체칠리아
동우
##문단
실재론
왓츠
##가군
증감
군포시
마네
##오로
실용화
##덤
화씨
데루
##청와대
초두
##효종
갑오경장
##관현악
소노
키클롭스
도리스
대가야
시모쓰케
로드리고
부곡
##마녀
재흥
##선상
필승
외향
사마르
##깃
회덕
황룡사
열기구
라나
반남
순창군
##해병대
##마우스
설령
##포르투
##탑비
서생
패기
봉합
베트콩
혼조
이기도
구위
도랑
우다
돌발
##영문
장기전
군종
실망감
##구조물
##가방
##포체
페이로드
##병조
항공전
정중부
##휴게소
파울로
##이언
콥
##학대
##공회
효과음
##정벌
옥션
이숙
환온
축대
초퍼
미카사
라스베가스
##매주
나카타
##탈출
다니
료코
비안
레예스
샤넬
료스케
##핏
쉴드
메이시스
오토봇
칠성도
핑둥
##인용
준이치로
표창장
파행
야나가와
수면제
##다중
##구상
에스프레소
##제명
통할
국방과학연구소
수인선
대단위
중도좌파
닥
##생물학자
시몽
##직도
통념
##자음
법문
##장단
##헤이안
토포
##말년
견본
청년회
한영
##부활
개도
탈의
세포내
##노력
문교
예후
광주광역시
각처
히비야
연극인
집산지
모병제
##전장
투치족
결사대
척신
주변인
민물고기
명승지
일몰
브리티시컬럼비아주
라파엘로
##색인
조직력
위고
##열도
복수심
백선엽
면사무소
기관장
급부
정양
벤트
베스타
단두대
##샴
바르톨로메오
##본격
##라이히
손색
거역
그쪽
중앙군
유흥업소
우지야스
좌담회
브론
진찰
가망
남악
윤기
최대치
##마타
조미료
조끼
테세우스
플렉스
논고
창작자
본처
##카리스
수비병
동래군
##단부
보건소
남동구
태안군
낱자
비젠
부젠
계룡
##유신의
순치제
##좌우
야마나시
##별자리
##티크
반바지
##산군
국민혁명군
활주
##트랜스
##송시열
##공사관
치성
송아지
아르투르
대업
오오쿠
대불
노크
##링스
도시샤
##실무
남평
코닥
바르바
제중원
##포수
고티
휴면
이어폰
##칼라
족자
슬로프
##공명
만델라
##주머니쥐
##포프
페르난두
아르덴
기본군
##유고
퍼블리싱
농장주
##그레고리오
화이
야쿠자
##이득
사양인
송신소
됭케르크
##쌍성
웨이크필드
아오바
리언
야마하
호한
쇼지
미스틱
전투복
폰티액
내장재
토러스
쿼터백
젝스키스
##총제
브레니
지장시왕도
어법
레온하르트
다름슈타트
희극인
관성계
스칼라장
언론계
국수주의
망신
##재학
정치력
정준
광전
만유인력
헬름홀츠
단초
구매력
지네
외채
독극물
로켓포
##야간
신학문
고위층
인포
모이
허먼
커서
##생체
##컨벤션
최창익
생필품
##점령
동정심
의존도
##커버
##재해
##고법
톱스타
아데닌
##인산
추출물
##식민
##보성
##출혈
안변
은행장
드레싱
요시무라
계원
도그마
오이겐
절하
포환던지기
피레아스
타히티
보호의
킴벌리
##기니
네안데르탈인
침엽수
프로파간다
##족인
사교계
제르맹
동호인
##웨일스
##아리스토텔레스
##위협
물권
나시
##시온
적법절차
##동맹회
김현철
직업훈련
석굴암
##사무관
##실패
독선
배추
센티
최경환
특정인
명필
외사촌
게토
변주곡
두통
경솔
##로프스
##도량
퇴보
섬서
항성계
쓰지
해시계
하이웨이
광신
일보
부대장
인세이
로코코
긴박
티코
가감
소지자
갈라
##산조
억불
김수현
##블리
진중
풍문
유희열
매부
체적
메시나
네스토리우스
하륜
원양
배회
후고
고우
메클렌부르크
무역로
구천
##단층
진해구
개금
슈바르츠실트
##매수
##관사
특채
##서산
##동래
골칫거리
##억제
연꽃잎
##사단장
데니
눈빛
셔틀버스
뮤지엄
파르크
##수찬
선봉장
구세군
영성체
미트라교
유와
혜공
추녀
춘향
차크라
하랄
유보트
##케어
##법사
코바
뮈라
타투
샬롯
##몽구스
단성
청년단
샤오
합포
플레처
##아와지
##지드
바흐람
솔리
소방차
발매기
알레한드로
##시야
헤르미온느
베르망
좌랑
사명대사
유우키
조쉬
##죠
아귀
저스티스
헤드윅
향좌
##간행물
감지기
주기성
부일
##농촌
밑거름
르장드르
요시토시
뮤온
성진
보른
삼풍
##교국
##주관
나로호
##양주
충무로
을사늑약
헵번
바이칼
##왕실
특강
살바도르
저항력
정미
##선동
##언덕
살리
알람
저급
심미
초조
대내
##홀름
##디언
##득의
로지스
슈테
라코
##친선
##러셀
##도민
##오사카부
자야
인산염
##이제
옥구
##선교사
흥업구락부
앞잡이
급류
고령군
산노
코스로
학우
양서
셜리
심폐
천연자원
세속주의
윤곽선
헬레
오디세이
리피
니그로
노르웨이어
쟁
칸타타
시군
##누가
목련
보이지
승복
선관위
대경
쿠르드인
정보원
주로
속수무책
중형차
앨라배마주
빌트
삼포
##유체
전야
오갈
횡행
산티
##재인
아세트산
##클로스
##쇼군
분카
##동남아시아
##아전
테쿰세
##졸
당선인
지라
##정전
차린
노기
##암성
관구검
군량미
##메타
##공황
##쿠지
나당
##니치
공손연
##난후
룻
##카게
미추홀
울주
문경시
신당서
겐나
소파
지명인
##성현
백설
장고
##마리오
점재
이동국
탁자식
이항복
지휘소
등성
축산업
청과
상근
장개석
##부인회
법사
고교생
##계시
##신설
루퍼트
정경부인
와카사
##재난
자두
발굽
##혹
박치기
##캥거루
꼬투리
##뱅
음보
경기관총
아처
조리개
바란
로티
##패니
뇌종양
마데이라
성불
조복
아만
병아리
센세이션
##남군
##이벤트
컴벌랜드
당근
바인딩
만재
타키
카르발류
디아루가
마이크로미터
캐주얼
요시토
맥시
니켈로디언
##위장
험멜
##이무
##마전
카사노
세이초
서남서
펠프스
광록대부
해리성
액트
롯카쿠
알리제
홀극
득표자
왁스
당구
시마네현
두둔
튜플
애완용
##르비
도해
중화학
단일팀
##항공우주
장식품
아관
표제어
동물학
일률
##사업가
##농성
끝점
##승려
대월
기동대
잰
적출
경제난
후진국
페르마
슬래시
##암호
##포털
##하와
합사
전일본공수
부커
##뿌리
히스톤
광복회
의아
당인
구조주의
사도행전
라흐마니노프
사발
팜플렛
코지마
##산품
오반
참깨
어획
게일어
##크라테스
나카야마
부강
국립대
쓴맛
##메가
오야
도트
임레
공회
후설
데이비
정격
우월성
호메이니
##육군사관학교
사출
##개혁가
##용역
악질
야영지
직첩
민감
##직인
기혼
샤푸르
##스포트
신숙
##행각
비탈
##모치
카미유
감미
신플라톤주의
첨정
##영분
신호등
##역상
소상
번스
서천군
선창
산화수
##전직
아드리아노
사비성
##로비치
##읍지
금정
부석사
싸구려
##화약
##성모
동의서
여울
평원군
수확물
입김
군통
##상기
송대
울분
팔라비
인순
매머드
##내면
홍범도
남곤
집게
홍영식
라발
##렴
##장학금
인덕
##포즈
##중계
보호관찰
##혜왕
장진
##주전
종중
약효
시맨틱
페이서
룰라
##탐정
오코너
투르크멘
케
칼리아리
문수보살
산시성
코메디
##티비
##아세톤
구마노
마계
홀트
네이선
고다드
칼만
산노미야
##프리미어
##몬스터
섀시
##경이
선돌
석불입상
바야돌리드
##누아
스페이드
키츠
은지원
레어
켄드릭
가습기
스파다이나
하마스
인혁
벨라루스인
아스키
##아베
유인물
보호법
위키리크스
오리엔탈
상미분
두세
임차
##비잔티움
스피어
美
티그리스
##오가
서초동
누어
사무처
##수대
##규약
이석
편법
압델
파마
영수증
##브라이언
수제
수피
청결
기호학
##강국
편재
철도망
임상시험
##무상
아카사카
##연구실
연설문
비이
축산물
빈민가
##조명
육전
크레용
죽도
오아
영화인
##당사
도량형
##숫자
##천문학자
##사상가
다이얼
##차르
##골든
임전
박은식
부주의
카논
##아라
##국철
##크래프트
이단자
##세프
장명등
카탈리나
##달성
잠재성
플라이스토세
다이호
주봉
카오리
##후군
염의
벽체
고행
과격파
천부
카스토르
페라
러브크래프트
무릉
근친
브레드
##공조
##삼국지
삼별초
지청천
유제
센텀
관람석
팬케이크
기항
라슬로
크레이
한기
강북구
좌군
숭덕
윌버
오구라
윤지
##명문
용담
##세월
토박이
원왕
초거
임실군
네츠
##내성
압바스
##만호
소북
간본
말라
어번
철산
금산사
헌
사우나
기노시타
칠면조
육경
감량
##정관
메이트
기포
##토끼
##인터
##대사성
유디트
나그네
콧구멍
##스피어
쌍떡잎식물
##콰
크로네
파우더
##멘토
##바오
##러블
아옌데
지쿠고
홍산
상계군
셔플
블룸버그
##로지
솔트
논개
고마쓰
율리시스
##재청
논리식
챔버스
앨비언
##부제
캐쉬
팽나무
포트리스
케른텐
리리
컨버터
피카르
복서
복주
가스미
기관구
경왕
심영
##우참찬
요시이에
마츠이
##가면라이더
조휴
후사르
덤프
홍채
지정석
박카스
오이마치
대별
맹비난
장티푸스
드네프르
집성촌
조순
##노태우
야스히로
아브라
사티
하위헌스
번디
도우미
##하스
##확정
왕징웨이
김진표
공공시설
송전
##게시판
창조론
스낵
리전
레이너
##캄보디아
나선형
매가
메릴
성정
누마
천리마
술자리
유진오
표도
원흉
##예측
트롬본
폭염
경흥
광역자치단체
코돈
##피부
##혈액
가네코
##유교
동공
노예주
##취미
##뮬
##훼손
은과
이봉창
황혼
평상
##일지
도밍고
곤봉
사회생활
##전시회
전나무
님프
삼색기
루마
잔털
템스
맹금
##켈리
죄와
동기생
농심
액상
매버릭스
세심
변비
##벨라
##세인
장종
##면장
개척지
##보스니아
##한성
교하
과소평가
결정체
논픽션
유순
상황도
##이타이
가발
욕조
품행
의왕
행체
계피
간음
스메
폰티
##호부
이바노프
갸
제방을
골든디스크
##한정
튠
에펠
##순환고
##소경
도슨
왜인
미실
대공세
방기
건초
##에티오피아
광궤
##대초
함평군
##항공모함
오쿠다
곡성군
마음속
보덕
후두
사복시
장평
##대표단
내자
군법
##흥선대원군
여양
탐관오리
##시게
상동
최충
##태사
연기대상
우스터
절판
장완
##관목
##등판
##브레인
호밀
아로마
말라위
소카
##등록증
호베르투
김립
청룡사
오하라
화물기
라바울
산호세
##장승
왕대비
이세황제
앳
샤프트
##호대
##왕복
##싯
랜섬
##드레
##루아
과부하
맥심
잔액
베렌가리오
제라르
##후안
##게리
##라코
비즈
이복남
웍스
인디펜던트
염보성
이윤열
부수차
헤아
아키나
브룬
여중생
엄벌
육영수
이치카와
양성애자
괴델
깁스
패전국
정성공
빵집
청년층
인피니트
파테
마쓰시타
심부전
송병준
뷔퐁
##가난
##팔의
##파이프
찰
발전함
조감독
계부
총서기
##우파
첫눈
력
윤영렬
신한청년당
과로
최후통첩
콘티
##디즈니
아그네스
증조
무토
경주시
둥베이
포퍼
브래그
김기
상중
응급실
청송군
##정우회
감복
마사루
##종점
프로비던스
각부
##소개
본심
무인도
자국민
창던지기
카르티에
조로아스터
소돔
버킹엄
##무인
인물상
기악곡
##민요
##보험의
조림
법인세
녹음기
바스티유
##보원
미련
용광로
##족장
##바를
페트라
바울로
구세
진시황
지름길
금니
러프
집무
별궁
힌디어
공리주의
중상주의
##경제학자
해롤드
트리폴리
옥살
토티
진정한
##이혼
루시드
##가환환
키티
##자이다
##남도
소금물
##둥
명세
훈공
문선
능인
##프랭크
뱃머리
왕당
기자조선
##공전
##오니
오가키
맥동
##아시안
미식
스냅
공작부인
##세키
미공개
골조
훈제
필라
동천
고쿠다카
연대표
아누
천호
치자
##파나
신창
##평생
어린이집
갑술환국
##체코
전매
쌍벽
사파
##엄마
욕실
능원
소양왕
에조치
연락선
루이빌
##농악
리야드
메탄올
차입
마오리족
##증조부
##휴
골재
크리스트
##걸이
소래
국화과
알하이삼
란트
로토
텍스
카사블랑카
안도라
시문집
요금제
길모어
페레이라
코만도
##리엘
상호군
지경연사
경차
아마미
##어뢰
착색
디아도코이
##산요
중개인
공작물
##중재
##파니
##레이블
##밋
만도
홍가
오지오
생테티엔
산울림
아이드
알레스
드베르
몽키
이스타
니트로
스냅드래곤
기행문
주기율표
헤르츠
권영길
밑바탕
##보복
대연정
우치다
후조
산삼
##독립운동가
소절
##영이
공항철도
분절
##주력
멀티태스킹
윤달
무혈
윌킨스
사증
헤드라인
부채꼴
홍위병
밀매
난색
극지방
##주파수
속보
소나기
상벌
##합리
동일인
아문
중풍
##베가
심장부
저본
쓰루미
연탄
삼인산
가다
소비재
안마
종목별
중요도
오톤
수준급
고속정
선주민
메르센
명랑
연출자
오대
안착
##녜
##우터
독차지
##구균
티오
##의존
이후락
##담당관
찹쌀
조몬
당헌
진제
심사위
예브게니
노리스
##작년
영양실조
##그리스어
연습곡
몰다비아
터스
##고고학
빈틈
글로리아
제라
싱클레어
미나모토
병리
가덕
적함
##실버
모래시계
##송나라
추기
에번스
##사바
난중일기
귀걸이
##동경
도리이
변란
칼집
회당
모수
병마사
##사절단
##베네수엘라
##연수원
수군절도사
피커링
시지
##수목원
##항만
##발레
후지이
대산
도비
비엘
알스톰
##앤드
##소재지
##교부
##리전
은신군
유종
##우사
산업체
덕원
속리산
머독
##코스트
고간
중계소
우안
##예루살렘
세자르
바리톤
##아강
오베르
##키스트
비막
카다
##광이
류현진
실론
중장비
##냉각
조타
암호명
한나
##린스
##도항
말산
아크레
축전지
##복심
크로퍼드
음핵
##세라
테오도로스
양형
##본당
블로
옐로우
수신료
로테르
구아
손침
정찰대
베티스
##전년
호비뉴
##프레임
##령부
##프렌즈
노팅힐
지의금부사
페텔
사손
메타크리틱
소젠
##구마
문터
매드맨
두광
통견
별표
미지수
수긍
김형욱
민간단체
별빛
레토
남연
여소
고령화
이주노
을지로
##십자군
독설
##중일
미행성
##측량
체이
피시
고저
바리케이드
코언
아미가
프로모터
라선
##파견
매국
수뢰
문익환
대각합
토핑
호치
개당
작업실
시나트라
##세균
김활란
괴사
합류점
##화자
##지중해
##동학
실마릴리온
배고픔
세단뛰기
수출액
##중처
후술
##사민
먹잇감
바카
신통
황토
판매점
##혜택
##삼국유사
수태
티레
##푸드
닷새
트라야누스
부관참시
댓
##리튬
사육제
중화기
나일강
##프롤레타리아
##종일
전비
라트
일거
야스다
역함수
천자문
아유미
##사무국
위상군
면역계
탄화
##티르
합숙
순욱
헌상
팔라스
전반부
패총
쌍안경
덴포
##금강
시민군
구휼
바쿠닌
나루
잡이
명정
볼보
안토니우
환심
카스텔
홈플러스
점퍼
예학
한밭
호에이
기묘
제석
이시야마
홍무
이정
최시형
참언
##윈드
경문
증자
##후국
포은
무에
피조물
룸메이트
헤로인
머리뼈
패혈증
나바호
사피
수관
턱잎
##필라델피아
삼공
부비
물대포
##마리아나
##통사
유형원
영가
장익
뉴타입
어레이
레이턴
부호수
개최권
##계주
##무어
##어웨이
닛포
선스
##장판
아카네
존자
기자단
광과
##파이널
셰리
마스다
레볼루션
플레이보이
##린이
류경
##公
씨티
##슬링
브로스
로드스터
선묘
미니게임
타케루
윤용태
가우크
문학자
핵반응
반응식
##센스
망간
류노스케
바륨
##장학
심리전
자초
##토사
복소수체
##영향
레벤
기러기
연평해전
장항선
##방송인
##발표회
논란거리
수돗물
학군
국립극장
카펫
##모멘트
경험주의
블록버스터
##제작자
가로쓰기
##포지
루커스
셸리
갈림길
하교
곽상훈
이재학
경무대
부끄러움
천문관
##하인
균질
하라
등부
숙달
리보스
정통성
누벨
안공근
정초
##생성물
##용액
산상
##아문
##비자
부심
에드먼턴
갈레노스
캐피털
가린
집권당
##취득
화이트헤드
##레테
##난민
고추장
##단가
유공자
##봉이
##글씨
은제
동갑내기
##어식
치제
코르넬리우스
금석문
신간
비사
카테
##회인
블런트
폭사
스노리
재구
남중
##타니아
오자키
##공영
아유타야
살라미스
소과
건설사
가라오케
##위스
순록
프리드
허점
비파
복각
춘향가
##연한
르누아르
포사
타이핑
플라워
바알
정원사
라이오넬
임나
마노
왕준
시벨리우스
보타
에드가
##르미
직하
##정복
사타
##군왕
섬머
스탄
위증
뉴어크
영월군
첨사
##성벽
##랄
동대구
##상행
덕종
홍문
##수사대
이시카리
민비
##암살
럭스
##교육부
낭시
프랑세즈
돛대
##예능
문산
공군기
안내판
대륙법
눈꺼풀
코덱스
바하이
##퀘
꽃부리
타깃
미니밴
##토레
진다
어인
바예
##스마
스피리
과태료
완급
방어구
히나
장가
##정찰
##언니
##연산군
포카혼타스
##수군통제사
##삼각
##워즈
마일리지
이과인
나탈리
석탄기
스네이프
계자
듀티
##아이템
아이언맨
크래프트
다이에이
아델라이드
화문
실용음악
요시사다
고다마
턴테이블
리쌍
위메이드
서피스
##지도부
부치
물거품
석공
##낙하
측지선
실수체
##가환
카렐
영서
진달래
얄타
중도파
수치심
국립중앙도서관
##할인
과묵
프로시저
##텍스트
비동맹
자매결연
##표트르
##습관
가함
베트
##문물
평년
통일로
##근래
먹
철학박사
극구
머플러
스타니스와프
지판
한국과학기술원
연보
유치에
망국
염기쌍
청사진
##상하이
부국강병
귀부인
문희
우석
대학가
##변호
서프라이즈
트리스탄
숨길
갈락토스
종만
초지
재수
##엘리
필리피
코칭스태프
##경사
##수교
##도교
불식
진중권
구어체
푸마
김윤환
앙금
##쉐
최북
각본상
누아
아피아
피우스
##아무
철골
구소련
명해
켈로그
##방교
팔레트
푸치니
위용
##분위기
오닌
세나
백석
김동인
집안일
고상
크룰
이성애
미로슬라프
##태극
조양
청성
군악대
기풍
풀러
페티
파우사니아스
돌핀
##니버
딤미
련
##살해
분해능
웹진
기라
연공
아우렐리우스
화백
진출로
##형법
##형조
메들리
청해진
발호
사바스
감응
일월
믈라카
에버랜드
##천은
상업시설
시공사
흡착
북간
##장정
성보
원진
지국
악연
경기전
선불
##단국
좌전
바레
우먼
릿쿄
##방송학
몽구스
아수라
본서
트란스발
포피
볼랜드
글리세린
##페트
두리
동의보감
##불도
여아
말콤
시스코
비바람
다라니
댄싱
자파
우루
바크
채제공
사루
층수
##우타
판타스틱
팔라듐
앵커리지
사이클로트론
마이즈루
고래자리
사우드
셀레늄
과녁
바실리스크
바텐
조흥은행
엘륄
유비소프트
바실리오스
마루뼈
프리즈
치요
콤바인
##편곡
채무불이행
크라이시스
총지배인
라이엇
단위체
광천
하르키우
종정
##테일러
지동설
녹음실
##팽창
화산섬
사교육
표음
##한강
##북로
##가속
##순간
##학창
비류
간헐천
스탬프
##유해
일장기
자임
후타바
##아함경
열등감
증거물
디드로
페도라
테오도어
##기념일
데스티니
피안
친어머니
윤치왕
영선
##찰
김홍일
레거시
##램
비트맵
##계면
##손가락
외식
##원로
첨지
사세
조선말
현풍
오모
도호부
부고
교향
유안
네스토르
캠핑
헤카
##직무
세이프
변성암
효도
에티엔
##타드
광화
선더버드
스팟
브라티슬라바
탈무드
칼데론
에마
몰로토프
선제공격
최하
항명
##레이아
##결사
##아시
수필집
당포
춤곡
##모두
동조자
##장남
##아이슬란드
혼천의
정통주의
네거티브
밑씨
적경
원용
요지로
황민화
##갱
시화
모리야마
실연
##활동가
바퀴벌레
경계인
플루오린화
극저온
곡조
##우치
인사동
표문
금관가야
만지
격언
파니
거야
서편
성천
코이네
사산조
##민은
천동
##고분
나주시
베아트리체
글쇠
왕경
강소
메인주
초하루
인천광역시
문초
열심
##조선소
홍종우
산속
도토
##조카
광인
##공예품
장훈
백운
##찬성
그래핀
대우그룹
챈
미니어처
사우스다코타
돌담
염파
##대장경
경찰국
베이즈
산탄데르
투시
에버렛
앤트워프
금주법
레드불
베네벤토
육상자위대
애니맥스
섬너
유수프
에마뉘엘
##카우
##기획사
##야우
대기실
마요라나
라이카
티모시
신태용
블라인드
박모
바얀
클레멘테
시빌라
##레리
몽케
맥라렌
##프로덕션
허난성
잠실야구장
빌라르
권율
시강원
궤조
겟
함종
주접
캐츠
각역
대공비
문짝
디셉티콘
허영무
약사여래
고황후
물질대사
무연탄
쓰임새
평균값
##간지
후진타오
단세포
안상수
확률변수
인내심
카발라
군사령부
안창
단군조선
리부트
##폭스
이모티콘
##전송
초파리
약소
타밀어
편익
가두
오신
##순양함
중유
레퍼런스
고밀도
량강도
##태양의
##타율
그린벨트
광양시
##인지
플라스미드
출감
깨
##서울대
인망
군위군
도농
##후임
마루노우치
감이
크로마
카라얀
헤세
출판업자
방제
열병
가슴지느러미
샤크
플라타
콘도르
반대표
로카
로사리오
축구공
전할
디카프리오
##비르
적다
##돌고래
봉선
중서령
타케
루아르
영합
##산국
핸들러
드보르자크
김재
야학
샤이
코리안
종편
##프란츠
정철의
##유대인
##령기
연료봉
##이족
급조
알로
공포심
전염성
이가라시
오시리스
긍지
##헤이
##프론트
브렉
##성직자
애당초
구이도
드워프
언문
정다면체
##못
케인스
막시
##니오스
복호
가희
믈
시론
충치
전차포
속사포
폐가
시나위
장악원
순자
폰투스
재편집
찬성표
논공행상
신도가
산록
연제
충렬사
장수군
엄폐
열화
청양군
이종욱
플랩
은자
김유
기아나
임계점
부응교
##밀양
##강습소
##보조원
다요
금성대군
교바시
네이비
소로
격주
요시하루
시황
독고
영빈
린뱌오
인디아
황록색
다이어리
페티트
##과실
검독수리
##행이
파슈툰
##스테인
씨네
쌍둥이자리
여지도
아이유브
풍광
미륵보살
발틱
일급
리안
페이즈
##체질
보증금
닝보
교위
진태
##산분
##플레이스
심해
새러토가
아키타현
녹스
##미즈
진후
펩시
캡처
##유저
아나킨
##케이크
고다이
##뒷면
##선대
아리엘
플로레스
안첼로티
미타카
카이엔
스틸리코
##주조
김영광
바고
척탄병
바다거북
판정승
특약
라슨
어벤져스
본죄
괘불도
줌비니
##급주
베오울프
##음악가
상대주의
나카소네
##신뢰
바이어슈트라스
하숙
단면적
##플렉스
희소성
##블로그
강자성
야시
성문법
졸업장
관악산
절경
##주경
물기
##슬리
창조자
조선업
주변기기
프랙탈
##폭행
##응답
##소지
##미얀마
전람회
아스트
코모도어
##인민지원군
율리우스력
##제국주의
##당계
정재
나태
##장려
기압골
##시범
아프리칸스
##약물
헬리
##박테리아
##방공
초강대국
##물고기
##선명
체호프
##공법
거의
##믈
오세아니아
무어인
마적
##견이
헤파이스토스
데메테르
비나
시대상
권이
고전파
브로드밴드
슈바르츠
가와구치
태만
신경질
##케이프
무디
수도권
##판도
끈기
##복음서
시모어
발차기
시행착오
##살상
티비
##공병
수효
##리누스
##건립
##데카르트
루이제
이너
동류
##가르드
이보
이방
관리법
화근
기보
##보조금
##수습
원핵생물
바닷속
##불명
교무
##이순신
태양질량
플루오린
장상
료타로
노을
친화력
한조
신일
금곡
이규보
##조비
피한
올리비아
박정현
베르트랑
다다마사
##샤를
이레네
여주인
부국
##색깔
구포
삼척시
##명예
##이탈
상지
경정
뉴브런즈윅
포프
##바티칸
##우유
##색상
##주역
첨가물
시가현
시원
안정복
##유생
##무과
김연
하북면
서현
귀로
반송
서강
서연
인평
월화
부귀
대호군
##총회의
라시드
폐역
함남
사토루
캄브리아기
수풀
디테일
##야시
스펀지
제러미
콴
전폭기
##플로리다
##마이너
정촌
베사라비아
환전
칼튼
도화
화첩
##로자
##워커
소매상
##베네딕토
##복수
방덕
후편
##발사관
탐색기
##라스트
결계
##이타
통제사
사량
뎁
단다이
검문소
포지
차상
초평면
궁재
람베르토
면부
사이클링
이스트우드
슈에이샤
##발생기
비요크
##손해
##대변인
스팍
조병창
모디
돌격포
주심포
포서즈
카도카와
팬티
노부마사
올랑드
하이패스
군집단
##백은
뇌척수액
그라비아
런닝
아비달마구사론
성양
덩굴무늬
농작
역풍
음악사
코요테
##청학
망언
문병
정치사
표준편차
도시조
에이트
고별
##급수
크로네커
지울
##북위
##축소
##먼지
서양화가
서소문
나루터
##만스
영아
청년기
##탑재
훈독
##핵심
##학생회
오버로드
클리닉
텔러
샌디에고
심연
##장력
퉁구스
고슴도치
박순천
연차
##으
공산화
##사퇴
##장대
중력파
카포
모친상
##등부
##호남
네코
밀서
존경심
귀감
광란
라이덴
변압기
휴업
조치원
마스터플랜
카뮈
##필립
심방
등뼈
주걱
##품목
##스파르타
카르스트
##유역
엘리야
보나파르트가
##반환
피보나치
베로니카
##갈릴레오
##장자
슈퍼볼
##파드
##동조
ㄹ
차익
정내
##전수
##발효
안식일
자이로스코프
강권
야담
카지미에시
흠모
어트랙션
##레브
사스
##소문
경안
총검
들소
월계수
에피쿠로스
무기물
##도요토미
영채
미스코리아
상민
이승철
장단점
검정고시
당조
감속재
암호문
가용성
주작
누마루
팔관회
육각
다나베
청빈
유구르타
모노클
외지
투팍
거취
위만조선
##거울
메달리스트
반대칭
데본기
피아첸차
##산수
시부
금속판
##야로
##인정
홍무제
##파시아
릴리프
감비아
성표
아지
플리트
벌링턴
석과
강릉시
파천
##넷째
서호
현덕
유업
랏
휴간
헌의
우정국
삼각산
##난교
상명
##병리
하안
비지
선망
뇌진탕
부포
##서무
##사회부
이인임
김화
엘런
##티켓
룀
##하목
스포팅
##미오
프시케
제갈각
진경
타나카
석대
미란
##체크
딤
##상위
##손상
툼
지린성
통의부
##특공대
##증자
데바
##대승
레만
녜
안토네스쿠
피우수트스키
에이다
선각
네이밍
투용
##스크롤
팹
베네딕
월마트
타오
##회골
##사이먼스
수임
좌대
과육
이종범
맹달
샴페인
웨식스
##두아
도카와
신카이
충전기
표충사
피상속인
고라쿠엔
히로미쓰
##미코
##롭스
유니크
타치바나
##벼슬
마이바라
미들급
디제이
현측
대세지보살
##덕흥대원군
맥헤일
##땅다람쥐
류리크
야스오
##한계선
##유효
호키
수정과
정수론
앱스
지롤라모
##유클리드
##사본
괵
만수르
데미
갑부
딱지
##수화
기소유예
화염병
세디
미성숙
##왕립
##착오
천안문
실무자
암호학
##정당인
##당일
##코더
교본
이진수
##에스테
##대제
예년
기초자치단체
피츠제럴드
혈우병
발도
대의명분
##동성
오쿠
##절대
##지안
오에스
애팔래치아
라르
##흑의
카라치
헨트
##다마
##록과
혐오감
허사
보드게임
전치사
##아세트산
바이아
초목
인디오
##자치제
반달족
활엽수
소유물
사모스
그림물감
승전국
뤄양
미각
헨드릭
##칸트
##기오
##스티나
김창룡
김학규
정죄
브루스터
용출
##익스프레스
이탈로
김무성
한컴
니이
휘그
자폐증
서스펜스
승산
다마스
##테크닉
라이즈
례
##가동
리볼버
소지품
극명
사옹원
음유
##미트
보아
면역력
리메
후루카와
##좌익
마르키
겁쟁이
포르투나
서가
##신과
##국통
송악
##마쓰다이라
##둘레
연지
영양군
투라
피타
올리브유
엘더
이와쿠니
##사명
성유
선현
##골프
대림
봄철
뉴사우스웨일스주
에두아르
##급과
태백시
정운
##후손
##세례
##시베리아
##위생
##주보
후문
주아
옻칠
##공자
##원문
오세르
시학
연체
##사간
연세
##단자
벳
공정성
개과
내벽
물린
쿠르디스탄
##명도
상여
엽록소
벵가지
총구
포르투갈령
통첩
##피츠
헤이스팅스
양육권
아세틸콜린
젝
##니와
라즈베리
악티늄
입소문
##스콧
##염증
비상용
홍봉한
트린
토바
##샌프란시스코
의서
##지분
국새
조석력
묵자
품류
##카마
추성
와타라
우진
##피렌체
완다
프리깃
감녕
##소대
##보이스
소린
클래시
오리진
미사키
도검
정포
##피오나
녹선
프로토케라톱스
브라우어
음높이
백남준
미지
청소부
##입체
복소평면
##마니아
히치
강입자
진국
국제통화기금
동방신기
음차
공사장
##안산
식생활
아널드
방일
미들웨어
캐터펄트
아칸소주
쓰임
운모
##재와
##데모
##정통
교련
허무주의
##지적
로타
양가
쾨펜
시게노부
호반
##해부학
당혹
반시
상전
교가
루드비히
수정주의
참치
##호흡
내분비
송어
총생
원시림
프린시페
엠블렘
##모이
##빛깔
병역법
동중
오히라
##레비
호법
##수비대
##완료
##세부
극화
##인치
##스턴
항상성
마리야
테제
앙겔라
독재관
카시우스
카푸아
문다
##무진
테오필
로시니
고증학
색법
라이히
고막
바커
두상
첼리
하바롭스크
##마다가스카르
케토
크뤼
보광
탄복
일등
##수라
나카이
윌리암
성숙도
장해
##바바
##공민왕
##관현악단
써니
행정원
제네릭
석주
소방청
지휘권
행량
어니
##신공
##접종
히코네
덕천
선천적
##학급
##자격증
##하계
광채
조카마치
##오케스트라
##문지
##게이초
손씨
유배형
##포니
유지비
주산
형사부
거용
가면극
헤이하치로
세이난
##붕
재돌입
호성
염포
박용만
슬기
##기획부
상리
이규
##횡
##운동사
내관
추수감사절
국구
유금필
니트
법질서
##싱하
##시상
벳푸
계약법
민공
양기
근연
쉽
두꺼비
##포라
지산
황금빛
데커
콘스탄티우스
갤런
솜털
선녀
티나
타가
데파르
##왕사
전례력
다이버
고려공산당
패디
루체
히우
매어
스테고사우루스
젠트리
##경찰관
##바이스
##버트
영포
요하네스버그
항공자위대
헤밍스
헨리에타
비행갑판
헐크
펠라
롤랜드
나옹
바이어스
##하중
췌장암
##차크
위즐리
골절상
용머리
치어리더
주병진
산둥성
알렉산더르
초밥
가네모토
앤틀러스
설리반
##헌납
##평일
##이명
경부보
##보살도
호지스
쿠팩스
아두이노
##수번뇌
돌턴
신경전달물질
소장파
밀과
역명판
##브로크
시민운동
지지층
##미분
##원형
상대국
##출생
통일교
최서단
현대건설
도급
대한체육회
##허스트
레드햇
농학
래더
트웨인
재탈환
보이드
##서일본
혈맹
윤일선
##출입
##빙의
##여전
치사율
##캘리포니아주
파가니니
##완성
##자석
##상징
미곡
꼬리지느러미
고등어
암각화
##조지아
볼리
율동
아로
##엥
##건축가
유어
태의
유쾌
게바라
##진료
재지
왕손
##마하
명언
공력
쿠폰
##킬
무용지물
서출
춘분점
오물
영관
우트
울버
서술자
길기
##비행사
##인격
정서법
라모
무심
낙동
##페로
체증
##카운트다운
##아벨
##원제
콘라드
명예직
지르코늄
고고도
신승
민주진보당
민호
##트릭스
최고신
##퀼
모리츠
옌스
##후쿠
호스로
콘스탄
정수리
수호전
꿩
##추력
엔셀라두스
모녀
##相
셀룰러
재령
돌다리
창원군
내무
대덕구
콩팥
##질병
##개화파
##교관
조신
돈대
모조
화성군
파양
우유부단
윤원로
경빈
선후배
유이치
##시리
래브라도
##진군
몬시뇰
##법관
##코지
석불좌상
흥덕구
무종
##이시오
정당문학
리지웨이
잣
밍크
##버들
##맘
관능
광야
터보팬
머스킷
침습
삼론
말장난
수탉
##윙스
초조대장경
노르트라인베스트팔렌주
리포
##리아스
훼철
캔자스주
##직제학
##가와
슬로우
##제퍼슨
석양
하나다
웨이퍼
인공생명
베이츠
아이젠
광서제
슈바인슈타이거
감압
갑석
레르
피지컬
박주영
살레르노
주빌리
##行
히나타
부재자
##가우
가믈란
연판
##좌윤
홀더
경조윤
거버넌스
소지장
화사석
열적
단원제
가타카나
채드윅
##베츠
##청산
건설비
##게스
녹이
단체교섭
##결론
##컨설팅
동격
이호준
병무청
##극한
하숙집
랑데부
보나벤투라
창의력
인제군
한센병
신항
다락방
캘리
월권
옆집
##텔레콤
핼
튤립
카디스
학번
##해설
##원년
##누나
멘데스
자연어
완두콩
고세균
##강연회
스케줄링
연줄
##절하
늪지대
##옹호
임자
독백
아스티
패거리
##목재
킬리키아
비제
리세
해초
프리슬란트
더치
##군들
육영
##왕과
소피스트
위작
##좌의
제신
##송정
행패
엄선
##제와
##산부
통일안
비츠
마태
신호탄
수부
##리듬
님의
국한문
규암
##허블
치리
콘트라
##민주주의자
##공보
소야
범죄인
망령
크로포드
원효대사
센추리
핸콕
황선홍
임실
자나
마두
치루
노원
보육원
로디지아
실레
야마나카
마쓰라
평강
빵이
자이르
싯
마릴린
갈고
##인터내셔널
당진시
보속
메아리
덩컨
베르케
##충이
##메네스
##낫
##좌석버스
##팔레
부천군
마진
##테크노
제초제
구급
최명길
무르시
정청
영신
쇼치쿠
우메
숙위
##내외
설인귀
소정
민승호
##스케일
픽쳐스
서영
##지체
##애니
단봉낙타
도망자
##고제
구사쓰
정합
섭식
흑의
호흐
자생지
오펠
##데일리
크로니클
벤슨
인도양
##크라
우토
장검
##아르메니아
오소
서대
##대성
은행원
수비군
##안테
카즈
정혜
용문사
철갑
##소학
##삼성전자
리치몬드
중랑
농무
니시오
카바니
마장
일렉트로닉스
##나르
##이노
##핑크
로스토프
아크릴
와카마쓰
견성
아이크
조차장
스타더스트
착생
대장성
무위법
바실리우스
스칼렛
명승부
##젝
여미
세레소
마사히코
케미컬
트레버
##찰소
문효
##좌참찬
아사미
블레이즈
관내후
##정판
팝핀
초대수
카츠키
송산
##이우
뷰어
타협안
우와
불상사
기자실
제곱수
라그랑지언
한전
서량
##무한
카모
계동
##장도
야경
하수도
반응물
에스더
실베스터
헉슬리
족적
##추상
##바라
집합족
로터스
포르노그래피
입부
야영
##생
부수상
##미군정
##시당
중매
국교회
##연출
##속성
전위차
마흐
탐닉
준이치
##기동대
채층
##공약
##구슬
테이텀
##기성
도관
강설
##비주얼
##양양
지맥
대분
##사이즈
크림슨
##매입
##족보
내셔널리즘
##바이마르
하이데거
순화
엄
##저지
경외
응오딘지엠
후발
원더스
석류
접안
톈안먼
지구전
##연방군
여운홍
##주스
올림
##수색
약간
##마일
저장고
관료주의
브렌트
독점권
고순
##쿠사
천한
싫증
스티치
원빈
##견과
어군
예종이
알렉
##후자
극치
정원식
획정
독방
##고유
##서기관
볼펜
섬유질
지방세
커터
에스트로겐
빗자루
권지
##궁이
##성립
공복
조준경
보드카
오스미
다카야마
메드
##미야자키
##여가
##스탁
강제력
##고노
##모기
시프
비보
투르키스탄
사냥터
서희
군구
간송
##여동생
잇키
유성룡
##유구
수어사
##어학
학성
지구인
구이저우
금사
##성지
대석
삼청
이재면
계성
보국숭록대부
##동정
##도전
##치료제
상서좌복야
비로자나
##동초
전시물
불곰
해악
레오니다스
야크
##벙커
##보른
야자
##행복
##번식
##통증
어쌔신
적응력
트래비스
##분사
자카
서경덕
이자벨
바이애슬론
남서아프리카
위임통치령
니우
##라트비아
사자상
##나토
우후
쿠파
다연장
김종수
평산성
##지바
복발
노스다코타
##에이트
##진성
맨스필드
해밍
##미술가
세일즈
보험자
플로라
##치크
##올스타
뱅
##모티프
담요
만담
##심야
아르센
동관왕묘
##부역
##성령
인사이트
유재석
덴엔
드리프트
마시멜로
땀본
아발론
##쿼터
플라밍고
크루제이루
키튼
우문태
타츠야
부우
라이트급
##란전
사네토
곤트
경료
##효고현
프레이야
메이컴
믹서
페더러
묘갈
미트라에움
위태천
초중력
경화증
##경화
좌변
찾기
세척
하이쿠
##다린
##의도
로고스
##타치
황권
수어
위헌법률심판
##팔레스타인
##함정
##한인
암산
경조
부도심
강역
통천
허드
계승해
영어사전
젤
잣대
막후
디킨스
청천강
강제노동
관헌
회식
만사
예찬
당국자
피체
매사
스마일
인습
고품질
출발지
##천도
카탈루냐어
칙허
##대외
##하우
안지
음형
현시
신성시
트립
##스퍼
과두
합일
##금과
기벨린
후국
##공산주의자
말자
##새우
##총액
뗏목
베르그
시스티나
증액
알키비아데스
뒤러
자유인
병음
알렉시스
얌
스사노
라즈
제바스티안
카프카스
세바스찬
##에스토니아
홍가권
극비
메가톤
투리
시저
##조국
오컬트
병졸
사적지
##계승자
입맞춤
부음
##스파
##야인
##블라디미르
##남산
##혼란
##질소
##수분
파사드
아미앵
비애
백장
이병도
하이츠
##오리콘
불가결
혹성
##대나
핵종
선풍기
즉위년
천령
원각사
화도
최상층
장동
광개토대왕
사마사
##니혼
군령
뱃길
세종실록지리지
신지학
에즈라
남한산
##인재
주전원
엘리아스
누의
네크로
동래부
포항시
고기잡이
콜롬보
##스코어
오판
##와카
나요시
도원
줄리오
임재
##그라
성덕왕
윤진
길재
플램스티드
페어리
수빈
사도좌
##동천
중금속
조동
삭주
신검
아모레
면세점
투지
##지소
비타
##부아
##셰프
관리국
운산
흥인군
나카하라
조합장
이용구
##우마
퇴관
갈기
##고딕
일조량
촬영장
##동형
이냐시오
홀슈타인
산초
감방
뇌하수체
##묘비
강체
젤라틴
도니
헌공
여러해살이
앞마당
인왕
이와미
티파니
폐광
토토
에르난
합격률
숙련도
##성취
##박헌영
##사카이
애국지사
거함
##첼리
펠리
핀인
기우제
##고성
매니토바
##영당
샴푸
컬처
##체르
아르미
##에릭
테르모필레
로아
##동일본
갑의
가액
오위장
##드림
캠코더
미하일로비치
클로스
후나바시
나베시마
스쿠데토
에버튼
##면체
살바토레
##요미우리
네모토
브룸
##컬링
버킷
장궁
호걸
당태
마우저
야스토키
항마촉지인
포트노이
##주최
레이버
퍼브
##초등학교
관입암체
국민운동
##도발
정수장
프레셰
##위튼
키노
포고령
총인구
새기
무한소
몬테카를로
##환율
뭉친
가압류
구직
##로그
##심의회
우간
문지기
경술국치
선교회
상공부
누차
편애
대응책
박정
고르
형식주의
##티티
이직
지하자원
핵합성
수갑
##두산
발생기
환급
##속기
종소리
김인후
##영회
##인프라
아리토모
장춘
신포
##보부
소비세
셰어
결의문
베지
현행법
선샤인
정남
햇살
##마시
아류
##지질
연감
누메노르
##모세
##청소
캄포
히포크라테스
몽땅
자태
##텀
모택동
세계무역기구
##방해죄
##가죽
##화법
착복
일수
삼양
시루
##창자
트리스
##코쿠
##연주회
어셈블러
정무관
입산
몫공간
분규
티끌
조향
구양
##작센
이란인
천문도
칼라스
이용의
반대론
케인즈
##시코
##초과
발레단
##주거
산장
수코타이
##헌병
국법
조르당
##다니엘
##제출
종아리
등유
서까래
이고리
마씨
항렬
지룽
태학
##소형
아그리파
에이드리언
주피터
유재
수취
송정
주라
히로세
##리도
일변
기심
동백나무
중앙동
지자기
베개
전일
##공대
조자
군국
보제
즐라탄
윌크스
병선
오색
공항버스
##신흥
민무늬
허큘리스
김육
월정사
##여관
##위대
그린버그
타코
보안법
은수
지현
성고
홍의
다케조에
세계시
레브
근황
다카토
##무비
벚나무
상서령
환은
금구
롯데마트
노천
북극곰
테리어
형양
##임이
논지
졸음
##수신
트루스
필즈
쿠샨
타이슨
##지폐
마데로
김창
오역
오테
##바르셀로나
##카라바흐
아흐메드
##교육법
두스
##드래곤
실레시
스피
비행단
##콩고
프록시
교서관
아말감
기가바이트
기총
감미료
##오프닝
은전
폴리에틸렌
만프레디
그레이드
포격전
그라모폰
픽사
아브라삭스
오이타현
프레스토
제이드
샤를로트
##첼시
##조스
##레노
브레이브
##지석묘
보스케
소년부
파렐
##놉
조수미
키무라
친권자
전영
##소진
##아미타불
여불위
스트레인지
플루미넨시
돌프
사일런
근관
콩데
사무원
카르파티아
다수결
요시카와
##군파
정학
프락치
연단
배신감
##시위대
벽지
##쇠약
중독자
호령
이정재
##반도체
##벽화
##사무처
조선일보사
청량리역
##속력
미야자와
##지질학
미끄럼
하이텔
어두
##복권
형기
##개헌
케일
##고등학생
##산기
##밴
##스펙트럼
##저하
##윤보선
개혁자
##공로
직인
신앙인
##상관
잔지바르
호킨스
젓가락
끼니
면장
대공습
수송력
##거제
로케이션
##관행
천차만별
##일본인
부축
예일대
경비병
중북
야마나시현
작품집
##야생
헤미
케톤
끝단
질식사
##포함
수입품
감점
여하
하이테크
##가설
세르비아어
호찌
구혼
향연
기관지염
세잔
##봉환
직할
##경향
사기업
정치사상
가호
니케
옥살이
군경
##이계
##제청
벤치마킹
##라임
##창출
조프루아
족쇄
피지배
섀넌
##주간지
단색
일익
불기
양종
침전물
타타
##랜더
헛간
우주관
비만
##석상
세이셸
##루쿠
##발생학
고묘
##본위제
학행
중학부
고보
렸
##주재
##안양
벨리사리우스
이파
관비
##조시
##더미
##즙
##오미
##합치
##구라
##스택
정수형
적병
티그
##공양
무법자
타나크
허저
전거
소수파
견직물
중심점
##현청
도자마
마사노부
루지에로
아모리
부산포
##영덕
고담
##라토
육도
##부전
##루시
온스
중론
평창동
명륜
궁이
운봉
통일호
##성심
미산
퀸즐랜드주
폭등
나오스케
장축
철조
##거래법
##양측
##통지
영돈녕부사
이귀
광교
정호
살생
음성학
화물역
남사
##솜
전립선
귀천
홀어머니
##후쿠시마
마르카
##기생
##음원
저압
빌렘
러스
##송도
페로몬
##화장품
포석
라흐만
합비
에리다누스
##소나무
##기수
바실리데스
주익
##방전
스파게티
추크
##옷의
진희
콰트로
레이캬비크
##상도
##세르게이
권람
##슝
모굴
데시데리우스
##답
번사이드
쥬얼
김유정
알비
##디젤
디어
아킬레스
야로
##핸들
##오키나와
##탐지기
##시공
지진파
마카로프
##하동
조숙
##라그랑주
개판
쉐프
호크룩스
##농단
탈착
비테르보
##져
전천후
도롱뇽
데얀
꽃대
##道
아쓰시
##신학회
후소
젱킨스
공증
헬파이어
돌스
가정주부
마피
##시합
피오나
쿠사나기
위위
캘린더
배틀로얄
자코바이트
노비츠키
##철수
크로마토그래피
##생명체
재협상
##데이터베이스
##운동량
청와
희화
##쿠타
가요계
모집단
##도메인
대통일
선거전
##정찰기
경주마
##감리교
만리
오락실
숙신
온조
##얼음
기조력
##레저
무전
아크로폴리스
##평화상
아틀란티스
김정숙
팝송
##김정일
계엄군
연좌제
특보
보가
##알고리즘
콘웨이
발생학
흡혈
명월
##일주
남면
힐링
##중도
플란
죄상
진남포
작인
천박
조강
혐기성
알링턴
소용
바다사자
평행봉
##니나
코린트
무장봉기
##희극
할지
자긍심
##민시
##증대
낭중
능지
아가멤논
재무관
맥박
자화상
화산암
##인민해방군
맹호
자서
##북방
다카노
경찰력
리콴유
알라딘
헤일리
박희태
박상
텃밭
총감
카날
징표
그라쿠스
번리
성북
장창
오퍼레이션
뱀주인자리
구법
심법
후아나
##시라
##바르트
데인인
현지인
##로스트
투르쿠
성탄
의학박사
미용실
총살형
##치안
##생리학
간세이
우에하라
##성리학
##레가
증기압
신실
식감
대방
##실기
전도성
프래
##노미
##호아
##카피
이시스
라일
술래
야르
동오
백동
인제
중간값
마도
전두엽
##해수욕장
하만
천문단위
곡옥
청음
##브루스
반동탁
계양구
외각
##왕인
##청동기
##루나
알츠하이머
##황태후
동두천시
요세푸스
동인도
양자리
용정
호라
상급자
수스
##주의보
##클리프
##초각
어퍼
요노
##통영
##개장
##리교
분큐
서북서
봉림대군
임해군
김영환
박정양
승기
이준경
심의겸
인드라
김석주
도체찰사
흉작
최용신
권동진
##개별
적격
김기춘
##핵연료
가미카와
남연군
상담역
롤스로이스
정윤
##송심
동덕
수의학
원공
다쓰노리
정여창
바타비아
시클
##결전
병목
파보
만끽
##성회
외떡잎식물
혈투
본즈
북제주군
스크리닝
크립톤
진강
에노
##드럼
분속
두마
##캐치
바르디
효렴
##배터리
##로운
로보트
이서우
상용차
##빙상
워릭
엘바
##정후
##이카
남남동
계수기
김광
##슬하
스펙터
지쿠호
##性
베르테르
금요
사유리
포그
##팩토리
조광윤
이채
페이트
낙오
아랑전설
아랑
활강포
스윕
크라위프
겐지로
센티넬
코친차이나
다카쓰키
##닌자
##브레이커
##상금
한와
도재욱
##럼블
김우빈
초토화
극과
원주율
굿모닝
##청동
휴머니즘
고엽제
야콥
극좌표
##관습
##특기
갈레
##이베이
사쿄
남해
울릉군
##토론회
##입사
뉴스데스크
##해밀턴
황금시대
정취
고용인
이즈음
휴렛
##멀티
브릭
쿨리
광안
남반
모타운
시진핑
화물차
논제
넓적다리
칙
술수
계사
의암
쑹
의론
도취
여동
붕소
대격
뭍
구당서
아열대성
아르투로
인조잔디
아바르족
타르타로스
##백색
황성
목가
동판
피티
##대명사
크로뮴
병실
오직
##소득세
##수로
떡볶이
부추
##이거
마침표
전언
후광
참한
쟁기
이회영
금강경
양잠
야노시
##체코슬로바키아
주력군
헌팅턴
지력
옛터
군사학
카스틸리오네
##선장
##교직원
살라망카
사쓰
장안사
##문인협회
아네
##항법
부상병
##휴일
타령
쑤
##조화
##기념비
카산드라
각개
딜타이
##진스
유키나
##기리
##트리플
에브리
검단
아마
아자르
타리
추자
주치
북촌
시랑
경릉
##충청도
타운센드
은평
슈퍼카
카론
괴력
##요지
근현
철선
천석
미와
##정유
롯데시네마
당서
##호리
고름
보호구
##명성
토폴
정형근
##훈련기
참고인
회복된
맹획
창덕
휴게
##왕가
사쿠마
쇼무
역성혁명
##교동
##나베
사동
격년
고세이
휴이
주임관
타원곡선
젖꼭지
황토색
맥그로
벌꿀
##시왕
정지상
무색계
##레이드
맷돌
비엔티안
그나이제나우
상표명
##알라
코타키나발루
이중의
에밀리아
마일즈
##르바
##각지
막료
사이다
##반지
호성공신
항량
뷰캐넌
뒤스부르크
어거스틴
대장암
##리시
##예조
##하리
조제핀
반원형
##연맹전
백수
##사성
##담보
가나가와
프라이팬
사가라
괴도
스포르트
##웍
##류인
칼라비
재커
베즈
제급
프리스트
##연정
찻잎
미자
긱스
무리뉴
##라이더
스킵
마리아노
산차
##속명
##사다
리브스
안우
오사수나
솔즈베리
찬성사
##전함
소콜
테츠야
이극용
사견
존상
타쿠
람슈타인
질런홀
윈터스
범자
무루지
아덴하트
월식
사회진화론
##클레이
##제조업
부산진
##큐브
이력서
브로이
수십만
항도
점철
##실증주의
##양성자
대관령
감세
##방직
##편마암
휘호
핵력
근초고왕
나타
##국소
다부
한경
리니지
뺄셈
가묘
실랑이
##학술원
세이건
##내기
##신정
##상식
윤근수
부농
부친상
##발기인
이윤영
대회장
건즈
보헤미안
라츠
##픽셀
식용유
##니케
사회과
행정가
##스즈키
선공감
##총독부
데가
##주니어
서브루틴
##폰트
##몬드
도가니
##프로세스
기념탑
명가
퇴락
포이어바흐
피란
푸르
원리주의
##다
노동법
불이행
개인기
아르메니아어
##노랑
##획득
베르니니
##옥스퍼드
죄명
수채화
##인접
중남
헤밍웨이
양쯔
##조회
미관
압구정
동광
초호
##봉투
비합법
##처형
##발이
태형
매설
##티오
샤리
분광법
접이식
교법
오르반
독가스
외숙부
튀빙겐
정사면체
도이칠란트
신교도
##케인
의료인
##가옥
진범
륌
##합방
슈고다이
##군직
향촌
최윤
샘터
##산타
##채지
건다
성층권
##상거래
반상
거문
혜원
브러시
핏줄
추시
정광필
프렌드
남한강
##주교좌
미추
##구들
##문대
립싱크
##이슈
진입로
이루
밤과
제언
##기념탑
##정가
교살
삼신
곤드
성묘
투숙
##플라자
수혜자
중경상
빗추
##마인드
배석
하성
국역
면전
경연관
용장
홍예
원순
대현
내리막길
히토쓰바시
##시경
##파악
아킬레스건
종친부
##영사관
이문
왕공
##태위
베테
동전주
과즙
천보
행정법
허스키
스카프
##알리
습지대
##룻
해리포터
##기판
크림색
레이븐
##라에
금속제
##세이브
심피
조전
##허목
갈릴리
스눕
자일
하마다
##리비아
아메드
##르투
과달라하라
사이토카인
명령형
스투디
스포트라이트
알마티
연식
봉록
##해역
반나
사우스캐롤라이나주
트렌턴
비드
##라이터
왕수
##남초
##미디
머스크
아부쿠마
영평
인상선
분기기
##간사
마드라사
##그리드
호그
투표용지
노섬브리아
플랜태저넷
요술
##찰방
조현우
푸둥
##지옥
환성
벳쇼
##치전
말디니
카시미르
덧
##메오
##클레어
##캡
##이디스
스크래치
싸이클론
룹
몽모랑시
유라쿠초
##홈즈
적남
수이전
대지법
옹켈츠
반음
##이단
생수
나데
##다항식
담합
##케이트
차분
판매로
범함수
족청
쇄국정책
브릭스
환상곡
서우
광역버스
외톨이
##부기
염기성
치역
오프셋
건위
상좌
수덕사
키오스
브린
##판타지
마이크로폰
줄타기
아웅
화천군
댁
치약
윤관
##태양계
포보스
##볼츠만
요세프
히라타
하렘
사대
거포
##단속
무허가
##현미경
하반
기도서
고문치사
셰일
소풍
복개
##나가사키
##그리스도
##도마뱀
반인
대동여지도
라플라타
퓨마
로케
옥좌
##새벽
##륙부
##산지
대이동
##별칭
사마천
포리
평문
아이슬란드어
##작물
##한족
북양
성적표
제군
김지
법치
너트
##도식
정품
벌린
무모
브랜든
성룡
##상류
탈영병
##광도
에페소
한숨
벨로루시
유제프
##체학
발병률
가경
##수도원
위클리프
남역
비크
임화
지방인
##카프
##문종
본전
부장품
비푸리
##야르
수정체
##주류
일류신
덕산
이태원
##순례
기니비사우
글리세르알데하이드
뒷문
다이카
디코더
허영
류이치
세종문화회관
##인터뷰
사숙
잠수부
두골
림프구
품성
이제현
##음향
##정적
법철학
헤이안쿄
치려
서계
피부병
##임용
취합
차석
바타
뇌파
내국
##판매량
법도
묘제
향시
마치
취산
보조국사
풍월주
루어
태황태후
엄금
수회
개구
은하핵
다이나
그린우드
제빵
사업소
알약
##쓰레기
소식통
##납의
이몽학
개성부
마르부르크
요요기
길림성
목탑
수소문
군호
사관생도
정훈
##미로
##몬트리올
##구원
탄생지
석현
##창업
민관
##인지의
고려사절요
헥사
아타나시우스
선입견
전격전
부사과
햄스터
깔때기
세레나
활엽
도령
머스탱
꽃봉오리
위조지폐
##융의
서거정
문지
위어
윔
미발
오초
마하티르
자라
##호흡기
토벌대
시소
부주
##회적
데미안
데브
터커
카라칼
안마당
김용철
니더작센
분대장
##바크
##총괄
슈즈
물레
석장
도레미
##금호
##구축함
예비대
면천
흉배
버스트
스콜라리
마사시게
이구아나
크리드
진남
광둥성
쿠타
주급
와우
아사카
##노로
돈키호테
색경
##자유민주당
던컨
##미키
도코모
조반나
마리노
세카
베아트리스
이타쿠라
방금
보림사
##쿠엔
##약사
김성현
범의
##램프
##초거성
바둑왕
고연수
페헤이라
동륜
스콘
대청마루
가리온
디케이
##봉수대
##맥스웰
미완
우경
로드맵
리벳
불확정성
양무
##고양
군현제
서남아시아
분계선
고글
궁술
강남역
##켄트
회전의
노동절
##스톨
스스무
학생회관
대우중공업
##입문
해리엇
래드
버넷
##중성자
체육학
휘파람
보천
반과
암투
제막식
라마르크
주소지
겐조
근적외선
본청
##임상
##뉴클레오타이드
창정
앞길
##해발고도
##로저
인세
레지던트
##플랜
침상
조후
참기름
고대인
##링거
##악장
잿더미
의인화
##요즘
납치범
대항해
결정력
##서클
속행
키팅
수종
##등지
##네임
##리버풀
산지와
언도
쿠즈네초프
##中
서덜랜드
안트
엑토르
추방령
죄질
의친
부산일보
##니우
두문
예서
##변신
오랑
헤로
플레이아데스
페트로그라드
임권택
##오릭스
정인보
격정
미하이
루츠
##촌은
나사렛
탈러
길가메시
##삭
산드로
##관구
방첩
해로
아사마
임정의
배웅
씨스타
##품은
약이
마음씨
취의
국무총리실
호각
##이세이
##고궁
텐진
석궁
스이코
첼레스
양재
내세
##이스터
직산
##명제
세입자
##흡수
학맥
제본
다케치
요시모
히데이에
이부키
##충북
패사
안테
##랜즈
편마암
무주군
고목
아치형
양심선언
국난
아키즈키
태종무열왕
간여
출교
하시
##풍경
##고분군
##스카우트
버치
고준
발렌스
퍼시벌
##북조
보스포루스
완제품
우봉
월산대군
##강남
흥덕
본고장
이태리
##저수지
마레
조창
##염과
논산군
구소
금릉
##총서
낙차
고래잡이
시자
##교육령
흑룡
##비법
##공익
잇기
##나카지마
##사에
휴게실
후지사와
시노부
이달
##병마사
개부의동삼사
##랜
일동
투과성
데샹
조폭
어깨높이
탯줄
##사체
시계탑
사만
##드라
산봉
##격투
##장흥
##삼거리
희망봉
키위
##우다드
가래
알렉산드로프
버마족
영산회
갱단
##이븐
풍속화
내친왕
##미인
힐리
에리코
자침
##굽
사가현
##헤르
홍원
##함양
나한
체니
데지레
참례
미사와
##턱
자경
리그베다
노우
역외
##발사기
중리
##코보
카구
카나메
유분
비트레이트
위더스푼
##상감
##전리
싱커
로모
테오도로
##아리오
스토쿠
##메이라
##게임즈
파펜
##칙
주특기
##코믹
경평
##王
##비구
슈이
지글러
메네즈
거록
난보쿠
버고인
다이키
크로이소스
##문화축제
컴퍼스
자계
부엉이
회인
상비
고소득
음란물
##기문
화강
##하드웨어
물개
장례식장
##면도
선봉대
필화
##난다
##프로그래밍
신판
프랑켄슈타인
패러독스
##스튜어트
##공휴일
봉고
관조
##정주
##구국
##퇴치
##단락
반공법
제발
지구력
쌍방향
##스프
서빙
미발표
직격
웨스팅하우스
경진
중좌
요이치
##김규식
괴기
역효과
절연체
##전하
농과
레지나
오르페우스
삼투압
러드
평균인
세너터스
어파
제스
##민족주의
남월
아르망
비정부
개중
그로테스크
트라이던트
미코얀
세분화
##탐구
한어
국민대표회의
현주
이아손
개통식
메가와트
헐값
자판기
현진
리들리
##석방
모병
##코리
##카레
스탬퍼드
도전장
##타니
허세
광견병
베이지
유신의
부원장
가학
매장지
장모음
요시프
세태
예정일
##호스
온수
##복장
성공리
마이크로
멸문
숙영지
특선
##력도
나이스
##연말
넬리
##리비
##제휴
호아킨
##경상도
가사도
박영희
화환
보들레르
##위임
보증인
##할머니
흑수
경신환국
##동계
##시상식
감봉
이사키오스
대리자
좌평
##사헌부
감귤
##핸드
바스코
##형인
손석희
스펜
폐지론
번역판
##트레이드
화폭
##다이쇼
진성여왕
월부
산현
린드버그
호라산
근위병
스코틀랜드인
##시가지
용골자리
귈
도코로
대전역
##설로
스노보드
한국전력공사
지소
박람
오카야마현
경창
##우에노
신축성
민회빈
밀직부사
대감
정자각
람세스
도제조
단모음
##계획서
무루혜
오라비
##신궁
린지
광운
옥계
지안
##분당
시청각
마산합포구
##개업
새천년
수색대
하일
위턱
폴타바
외골격
림프절
포이
앰버
라브
샤리아
움
뿌리줄기
성황
데칸
골목길
문해
주력함
크리스티앙
리미니
##비언
##전구
최항
##감도
원환
홍진
가림
로커
모서
슐레
시대극
서전
브롬
정헌대부
후마
까지
근접전
종심
사륜
레이맨
창호
냉장
파스카
로지스틱
글로리
파울루
컨템포러리
리베이트
##쇼트
애나
플라티니
닝샤
법무사
##위즈
논리합
보노
아가타
##필터
참찬
킵
황강
녹아웃
지크
울레
고야마
콜드플레이
사워
시커
앨빈
발레리나
일인칭
도카치
콩코스
##로마누스
와타리
빔포밍
매병
정재학
괴임
원자론
조효소
아르놀트
의기투합
##원지
박연차
애환
김근태
동한
강경책
방위선
풍모
자양
##먼즈
##쿼크
종적
마르가
소백산맥
건국동맹
조중동
쉬페르리그
환궁
감퇴
##친목회
불량배
레더
##다인
콜로세움
##반트
소위원회
이난
압박감
비금속
식량난
개풍군
##총선
장도영
간호학
벌이
표석
##적외선
팩맨
화수
필자
쇠퇴기
예인
##테루
육해군
경부고속철도
구심력
신진대사
##자결주의
##지국
##회피
강정
장주
양화
##유닉스
변전소
고쿄
영풍
도쿄대
후년
##바그너
삿갓
산타크루스
휘슬
##봉은
갈비
조세프
철광
극우파
##이인
주구
브랜치
강약
매너리즘
도축
묘향산
##수나라
리베로
난창
창씨
##국정
빈농
발안
회가
라벤
##제르
구성주의
케렌스키
알렉산드
멸족
##침공
##형과
귀빈
차임
르노삼성
##인쇄
서풍
갈취
모발
##소보
패색
역서
그레고리우스
솝
재발견
##미우스
신계
##능선
담비
최연
우월주의
양치식물
##물품
##사물
##청도
보온
여주군
다시마
혜공왕
김인식
##한동안
황현
##설서
아스파라거스
##헤라클레스
셍
전회
##타다
우보
북평
측두엽
##행인
뚱보
자장율사
플로어
기대승
##참가자
발렌티니
설사
웅천
경중
안향
선공
교역자
모모야마
##급유기
횡성군
옵저버
아시리아인
호러스
도정궁
기축옥사
정철이
광교산
배소
조선혁명
당좌
슈어
##닥
유야
의기
##사국
장순
참위
묄렌도르프
##고토
미대
마름모
해룡
실력파
두더지
이원수
혼담
공교회
목전
경각심
브라반트
착발
구제역
##딥
##빗
##첼로
목각
피터스
십일조
연년
##마황
셀렉
리겔
붕
도미닉
도예
##유인
베냉
북섬
잠비
피노체트
##글루
리오그란데
포르토
낭청
민주사회주의
머시
키드먼
시아누크
해적선
미즈호
##첨의
불감
##자민
트레이서
크랙
부메랑
##해금
마틸데
포카
펙
멕시코인
장우
풀크
훈춘
레조
##성도
오무타
설리
##난쟁이
야마가타현
정봉
리베카
##추출
경사지
사마라
에필로그
태자비
야쿠
니혼마쓰
루이사
톰과
##멕스
##위인
김시진
증거능력
산탄젤로
##채권자
알라리크
에베르
휨
##우자의
##중령
식충
카바레
이의민
센리
봉읍
레이시온
체사
##승강
쿈
최진영
히키
태복
테르시오
##오무타
이명희
스가와라
니시자키
코를레오네
믹스테이프
카멜라
최태민
아마루베
자기력
##순과
##옥수수
아쿠타가와
살피
문화일보
저기
다지기
##게이지
장바티스트
##적도
##목소리
좌우익
창군
국사편찬위원회
이슬람주의
원일점
사피엔스
##덩어리
원동
나이로비
전화선
청부
아다마르
가부
니카
학교장
이수한
아더
브랜
윌리엄슨
주창자
페레스트로이카
위화감
땅굴
불모지
캘커타
윤치소
##도지사
##브라우저
앨버커키
색도
소광
차나
##모로
##커뮤니티
오각
유채
소년기
산실
정감
정우회
##괘의
##루비
지구촌
악습
##상표
펜타곤
알류샨
##원료
겨
프러시아
##소크라테스
##고분자
금붕어
구피
메스티소
##호세
##침체
자국어
사포
레드카드
북키프로스
곡류
함미
보불
절교
파상
화베이
대운
라그랑
##데크
특설
부정과
##상선
동법
우레
김희선
##아이폰
##요제
카셀
모르핀
##흰색
초년
포츠
쿨라
노르망
카브
##나인
베르길리우스
##포이
칼리오
수렁
한배
콥트어
알도
원만
##사선
재수사
노부히데
마사타케
본영
산부
부잣집
콘서트홀
리퍼스
##양정
큐리
##세금
##질문
##무공
대구경
##정문
##재지
역공
척살
##어둠
자이다
아르미니우스
개선문
##하프
유재하
동창회
##네프
내동
노성
슈바이처
비티니아
왜란
##소요
개머리판
묘비명
이집트어
쓰보네
##컬럼비아
투표인
##왕릉
##화현
절제술
단도
총본산
##사우디아라비아
##이듬
##브레이크
##분노
##정심
##클래식
보건부
구연
소임
카지
슈퍼스타즈
클레멘트
밀명
정현왕후
사천
뜸
붙임
##보물
민도
제조자
운주
##선양
야마노우치
##동명
경유지
##최우수
##타상
몬테레이
조이스틱
의창
##대항
접지
제강
피연산자
머의
무소
##까치
##오사
라시오
##이내
생매장
꽃밥
##매각
현수교
##탐지
에버스
##우어
그레이스
버마어
모성애
차액
대나
타밀
민법전
##완공
와이
맨하탄
팔레즈
잇몸
탕평책
##소감
홍삼
##차노
입식
휠러
##도호부사
동지의금부사
레이철
에이쇼
##페라
엘렉트라
푀
##스타인
##비안
##驛
##종착역
##쿠도
##검수
성루
##대청
다테야마
레트로
##허정숙
리딩
불도
임성
다이앤
신건
##하노버
##극동
양용
홀리데이
성우진
디안
채나라
피카츄
오드리
세적
##비명
카스미
이상민
##퀴어
미라이
숭녕
구드룬
녹권
##반명
버벌진트
티치
##차일드
마리사
에클스
기독론
바이브
페란
시게모리
샌즈
장기하
##윗수염박쥐
칸토
반음계
돈바스
하자르
##처에
##블랙홀
정현
##수배
공준
은이
수직선
집단지
작사자
크로나
오펜하이머
파인만
##최신
비열
소듐
일용직
호실
스프레드시트
##헬륨
이곳저곳
##원산
신규식
민국당
체념
매카시즘
나마
감경
인라인
뱅킹
하이델베르크
헤드셋
학제간
##고산
##관서
관건
김문수
##각국
게츠
큰소리
북극점
설명도
삼바
알루
롯폰기
브라질인
##등록금
동학군
##간행
창조성
##처치
부레
##플레
에두아르도
남남서
유성음
리온
##슬로베니아
##조군
일국
포레
루쉰
호통
##상륙작전
지가
##그래피
실향민
씹는
대시보드
##다윈
추동
##슐레
##구약
가로등
화난
멱집합
##설립자
레터
구원병
유숙
테무
흑해
환곡
##영정
##주정
세니
##변론
##이사회
만전
##익찬
이복형제
노스럽
제온
##버크
자명군
학자금
부정맥
##공모
공가
보데
상통
수자
카드뮴
놀림
입법원
파트리키
##오테
인생관
##노에
뉴튼
노부히로
다다카쓰
##포시
진덕여왕
거류지
의창구
곡예
##파시스트
##톰슨
양팔
왕지
몬태나주
##다라
태상황
비망록
##원구
햄프턴
매지
방파
사예
임충
##나루
##벤쳐
암사
##시제
랴오둥
상판
염장
요시나리
##바이어
밀로
##문터
페르디낭
벼룩
유군
주재소
포계
단경
오경석
히라이
##실습
##취업
배화
롤랑
##시와
##여신
##오류
##거리표
##첼라
##바탕
홍도
콘스탄츠
판매원
슈파이어
##알코올
난투극
우두
코임브라
바루
테노치티틀란
술법
바베이도스
##리우
##라몽
불설
통례
##로트
심전
정목
##공안
베누
준군
김홍욱
워든
애퍼처
##자이언트
하라다
해서웨이
부용
##넬
마페이
지노
강민
##추오
워터게이트
##신기록
##아즈마
콜트
##게르
세이퍼트
벵거
나카마로
시빅
연소실
철거지
##축구팀
아야세
##테인
시스터즈
내응
키퍼
바예지드
손준
랜딩
티머니
계급장
화불
왕년
궤주
##자책
새장
구와타
퓨어
마이트
고강도
다카쿠라
##세븐
스기
##두더지
셀린
방위대
나카니시
워리어
수비율
운송인
경찰차
로셔
##버로
##조합장
강호동
왕광
이륜차
##록스
사이쿄
엔탈피
구치
##하인츠
야누코비치
경호실
대우건설
친밀감
측정의
용시
##사설
취수
매연
고마키
실업가
쇼리
##휴전
적산
##전증
만해
소냐
비트로
채식주의자
마이트너
조직체
경어
류큐국
들일
대구경북
토니상
망명지
펩티드
총서
##선부
삼지연
중추부
협판
도너
하소연
마음가짐
##상영
지브리
과금
사피어
##하치
개략
보석금
팔괘
수신사
어기
##사형
##정법
좌절감
오픈오피스
혁명기
카트리나
오클라호마시티
뇌우
휴교
전공의
장타
편력
대낮
암모늄
경청
목축업
레크리에이션
기폭제
토템
기표
##티어
주의자
레테
뤼트
에베르트
편년체
##이기도
휘도
##일례
공공사업
##창설
거둠
속셈
시타
프로코피예프
유카탄
신강
문학인
하버드대
전자레인지
기층
신역
승리자
콜레주
##증세
##수백
스파르타쿠스
범어
소승
##이만의
##중위
레퀴엠
##팽이
음기
##캐서린
마상
경영인
랩스
로망
##사조
이기택
호사
##킴
낙소스
요즈음
##나고야
가즈토
터로
##일가
인물화
##이티
조천
호나우지뉴
백미
고풍
신공
화롄
연남생
융단
누보
##도널드
시험장
바냐
파혼
유복
##마스크
하신
모살
조구
##영천
호숫가
입학시험
와키
요시시게
우마르
두품
병탄
연과
##불꽃
하곡
귀두
곤지
##실증
##거와
##부두
켈라
##개혁자
잠복기
##코크
태묘
서양화
천재지변
공동생활
홍조
성인용
다쿠미
창동
동백
명덕
##자전
아리스타
스틴
##중추
마사토시
##파지
신정왕
연직
우성전
권제
##와타나베
장희재
태화강
효문
이진호
##임원
고라
##김옥균
도계
밤나무
증권사
전략가
광각
내시경
아궁
피그
외압
역본
##우루과이
냉담
비열한
암갈색
##슬로바키아
앞머리
모래사장
가즈나
##포사
##통폐합
지극
장왕
##암산
용주사
나룻배
임경업
메리트
미하
만노
석문
백강
##병증
소아마비
##사서
제동력
견인력
아수라장
생디칼리즘
리보르노
포즈난
##클릭
탬파
하코다테
##적십자사
매사냥
이복동
##패널
참서관
몽포르
##버터
뉴에이지
##사쿠라
도요다
요시카즈
블레셋
행대
퓨리
리시마코스
코빈
모나
박리
군선
갈채
배우체
로레
##아사히
홍농
붕대
아리타
무대인
공명당
##작품상
##펠릭스
아이다
##포탑
##랜딩
김동주
마리화나
일본공산당
##코엔
##유방
##권익
##어음
다쓰노
##캅
마스터즈
캐드
##트라프
카스카베
동지경연사
##바다거북
노즈
내각부
##시에라
##응우옌
##오반
가르니에
##토신
보타포구
출목
김하영
급약
소단위
당직자
등호
삼화
격찬
##거사
##한은
반입자
반파
독식
핵물리학
허의
과부가
관상감
경인고속도로
가즈히사
멤버십
인비
보나
파르테논
달링
윤년
조스
포물
폰타나
##분국
##산하
백지화
의문시
던
##부지사
머리털
변절자
바가지
##베르거
##스톡홀름
##플래시
사진술
글루텐
분식
##키퍼
루거
지방분
스키너
열처리
##유네스코
다카요시
##압축
##옵션
##서경
증권거래소
어도
위상차
콘래드
##이큐
아키하바라
안인
주리
##중장
파르지팔
돕지
골격근
유라실
##에스페란토
폴립
연연
골든골
##락지
전정
염소자리
##영지
텔라
##주루
홍경래
기축
예정지
아바나
여전사
석차
##기편
탈모
레퍼드
헌재
디스켓
##교재
토질
스탈린그라드
악조건
조프
불자
##렸
결단력
블랑코
##견사
후아
목격담
나츠
할릴
타키투스
암소
##윤회
외연
##요하네스
외몽골
##국수
##투사
리비우스
노약자
포돌스키
로드니
배심
취재진
##우체국
##홈페이지
원적
합자
##폐
##어원
##특구
프리티
플라미니
하멜
갈음
가족법
조방
##서문
잔소리
사마리아
바르가스
흑룡강
우마코
순장
김조순
##청일
선량
내신
눈높이
##네이
##바지
##화원
공설
##운산
체험자
홋타
##부곡
급진주의
공주시
##만성
크레모나
명명권
다
##퍼스트
부회
대사도
화훼
사무장
난초
에나멜
애시
능창
##전동
흑운모
갑산
헤이즐
조희연
기개
기와집
자영
아사다
검역
장보
신서
##교목
##학장
단인
러버
##외관
파울라
##앤드루
땅바닥
가브
무류
##침례
호라이즌
##동탁
시진
몬트
향우
백련
루벤
##혈의
덴마크인
유대감
라칸
##치즈
오키나
##밸브
흡기
##힌두
##무료
타르투
가너
언해
##레지
유휴
월화드라마
##사노
유호
소릉
궁금증
주문모
폴리곤
지진계
유경
방공호
대간의
식판
데리
타이쿤
사순
리드보
##에이스
약산
회계사
욧카이치
동왕
찰턴
애니원
서니
격발
파노
검수
공급량
노리히로
김응용
##계약서
##닛산
파스텔
디종
부종
첩운
말포이
고화질
이극돈
갑종
프리퀄
##노우
팔머
김현수
레반테
양암
시로
지지력
보디가드
##롤러
##세니아
##중과
마사시
##얼스
쇼타
##유튜브
##주공
비커스
광독
이경규
##플래닛
노이어
##블러
라킨
동인련
범주론
행정력
##공로상
스트론튬
라디안
천정배
흠집
곱집합
원적지
추도식
핸들링
북스
한남
집중호우
동탄
##기원후
교고쿠
대조영
문화어
통일국민당
저명인사
닐센
만요슈
련의
##치사
백야
시메
##묘법연화경
퍼지
##웰스
음극선
해안포
단오
알지
##야마모토
캐러멜
박용
경비행기
##승격
노로
리크
온상
경성일보
잔디밭
##계기
웰즐리
구두약
##코카
독어
버르
다치카와
##초급
##리하르트
교권
##피쉬
개미핥기
앙숙
##벗
알곤킨
##기라
비엣민
##엉
크세노폰
##함부르크
##어른
조동사
티베트어
란다우
목판화
늦가을
##케임브리지
유월절
홀소리
##복음주의
##전제
대아
해본
집념
착시
맥과
##담당자
무상정
##벳
대사전
체코인
완의
굴리
니콜라예비치
조지아어
스티코프
황금종려상
러요시
##제식
매형
불충분
풀뿌리
폐제
뜨거운
뒷좌석
라이팅
맏이
승락
##심문
##절감
부다
녹취
방위청
국인
근대사
##하부
그단스크
##제철
역작
##사시
엘레우시스
뽕나무
냉면
##카바
조선문
##사촌
##리지
##텔레
잭슨빌
##피코
메이크
졸속
통령
폐의
##정밀
##핵융합
식습관
경문왕
숙녀
권문세족
##개명
양로원
우키요에
미간
##야마토
##실태
##자루
박혁거세
멸실
영덕군
다이너모
혈의
엄중
직할지
가메
처자식
파레토
문성왕
장식물
##범어사
무독
진본
##슈가
보현보살
##매사추세츠
머리털자리
확연
##파이트
왕십리
학동
오구
조령
특허청
상피세포
##원류
군부인
##시중
와병
##안쪽
반고
##개척
노루
##옙스
마흔
김우영
아함경
##소주
어명
점술
##계금
나오마사
륭
감춘
##키타
경운
##이수
고척
문하시랑
판타지아
주천
싱크로
오소리
휴관
썰물
에큐메니컬
욤
지행
실비오
베켄바워
깃꼴
##수천
서모
변사
윤의
얼룩무늬
물갈퀴
추행
퐁텐블로
진딧물
##보헤미아
십상시
밀생
강상
이회
##원종
##아리아
##한화
롤린스
다용도
##할리우드
##동영상
호콘
에이리언
##무함마드
##과도
##제니
알렉산다르
수하르토
마르탱
추국
왕생
##모듈
##장로
진창
영단
김영철
##수표
페미
도통
액슬
##케빈
사해
##다이스
스타일스
브로츠와프
폭죽
안평
출궁
##베일
카슈가르
지제교
임란
##탤런트
##아키
순양
오버레이
균사
수화물
주황
조주
호르스트
코르뷔지에
##만주국
심수
기타카미
항간
멜빈
성간매질
알샤바브
세탁기
주세죽
과르디올라
##장수풍뎅이
자리스키
노중
##대보
##대성전
토루
엠버
운전수
##블럼
천추
이택근
레이몬드
스웨이드
개틀링
문간
아데바요르
찻집
##계약자
서번트
##통문
오턴
슈터
셀라
스푼
릭스
맵더소울
##원부사
##통념
메이테
##밍크
투으룰
##하자드
미즈사와
출판인
한일회담
##국민운동
용돈
규의
분향
##영진
##레이티
규격화
##장갑차
뚝섬
프리기아
신시가지
중앙역
부등
포토샵
##숙주
##정착
대연
##약수
##물건
헬리오스
가려
##이건
##방사
문부성
거물급
옹진
편입학
국립묘지
랩소디
카테리나
##휴대
##천문대
증류주
##불가결
인텔리
호소력
오세창
##대동
내실
인력거
##도호
다이내믹
개발비
전자석
피상
튜턴
문헌학
##항체
부왕령
현대시
라리사
테살리아
강색
산계
정련
제츠
울름
마그레브
방백
몽테
세븐일레븐
몽키스
논법
집들이
윌란
친소
마스트리흐트
옌볜
건전
##이너
바르톨로메
히에로니무스
덴트
넉
아우토반
심의회
사명감
순대
##소통
##정무
안중
감찰관
발한
##아돌프
##조지프
청문
대역죄
브리타니
##전임
일정량
머슴
수레바퀴
사치품
##반장
외인
헤리티지
항균
봉기군
측정치
발드르
반신
선위
폐서인
##상보
##마르크스주의
일념
이상설
종교계
증표
브루넬
##사대부
겐무
##미마
실비
구박
##엔젤레스
##진입
양초
밀어내기
쌈
대추
죽림
##정제
##충동
복성
선계
##솔루션
남제
##서력
풀잎
##타비
중궁
쳐
아르노
메로
##치와
공저자
##포구
태봉
##군장
퇴적층
##셉
##알제리
광안리
언더핸드
리셋
모본
기승
점괘
에라스뮈스
##철교
승합차
##제독
월폴
##스트리
##라산
##진남
오스트랄로피테쿠스
전석
골인
##연못
##가도
고속철
철야
트렌트
부속지
##간호
##그린
##혜성
박애
##요양
##고조
여개
조음
##산역
##여운형
천에
##구사론
정후
##원고
##저축
##금융조합
##객체
건전지
귀리
성일
고슈
채플
여고
##족제비
밀이
지관
요아킴
##상은
##퇴직
영왕
자해
패럴
##몸무게
서랍
애리조나주
잿빛
##랍토르
페름
복이
바부르
분수대
영화계
우전
맥과이어
##리바
봉상
복스
##프라임
##푸트
억만장자
병서
군입
우박
겜
생도맹그
찰방
##해리슨
베르타
브레슬라우
모바
세바스티앙
올리베이라
##샬
하리코프
오각형
##카자흐스탄
##부자
파비안
##니콜라이
리구리아
산꼭대기
##쌍둥이
청요
##미학
퍼듀
서애
##라우스
퍼센티지
촉토
종제
요시즈미
현대로템
철포
##소유자
다지마
후쿠하라
히가
프랭키
워크아웃
##접시
미야자키현
디노
##사리탑
##가타
페어플레이
##익대
##셩
근계
캅
절삭
고선명
클린트
베그
차단기
폴드
##딤
##워너
기동차
위청
초평
레츠
앙굴렘
##리미
니노미야
타케우치
##미판
##화순
옥천사
에시엔
교회당
비첸차
꽃꿀
본머스
박성준
##오디션
마쓰도
대쉬
점보
##상단
모모코
테츠
알라모
##카가와
천녀
아라한
고메즈
박정석
그윈
##번은
지롱댕
다몬
쿠라키
레이디스
바일로
쥬리나
유란시아
좌목
리스벳
##전례
사법시험
트집
오오
마이닝
정역학
인조인간
초이
##돌격
구결
첼리스트
##렌스
히가시야마
백두대간
배란
완비화
후리
헤론
##철폐
##컴퓨팅
참인
비가역
콩도르세
상품명
대약진
##공비
윤이상
##지구당
인물평
##귀신
##열역학
그라츠
피로감
##구치소
##호기
##무시
오차노미즈
##학계
##반포
##재벌
미터법
도모미
트위스트
속기
브레튼
묘기
광대뼈
##정령
완전체
역률
저편
##포식
희토류
알데하이드
##고니
##양지
누벨칼레도니
영연
풀로
밀레토스
독해
##알루미늄
순번
##독서
반제
##지라
페타
##공직자
##실현
##후속
피츠로이
도스토옙스키
베스파시아누스
듀폰
##투리
주두
장수인
가계도
쉬프
##바르샤바
빈첸초
콧수염
##로키
변환기
제안서
##신조
##악보
영희
롤의
이민우
문민
마이코
델포이
추격전
##무로마치
이암
쓰레기통
성삼
##항아리
이달고
어바인
벼과
실온
##예식
유산균
콘택트
##조선왕조실록
외친
슬
바자
야만족
애니미즘
오펜바흐
##리마
언사
##미나
탁음
지게
##의용
##린을
사진관
이콘
하려
바스켓
빽빽이
라디칼
세계일보
신석
지선버스
귄
##이에
술라웨시
회비
부원수
헌강왕
독산
연길
##보수당
길리
##반부
증보문헌비고
우이
유비쿼터스
##수심
영영
##연희
재인
##순조
김현정
##카네
분무
양어머니
변계
구산
풍덕
양씨
##흥행
밭농사
국립은행
범부
훈련대장
풍채
오수
재사
소청
황호
척족
위리안치
비슈누
자포
김홍
##언제
가천
줄다리기
선덕
지공거
로스앨러모스
연습장
##발자국
경품
##베리아
쇼어
화덕
문충
채병덕
족속
임한
노조원
세무사
미디엄
분지도
##무솔리니
프랑크푸르트암마인
운트
##자이
##제갈량
뚜
##원공
##원론
동파키스탄
강타자
##바움
##약국
꽃다발
투표소
##강림
##레바논
##표제
레베데프
김단야
펑키
세바
에스키모
마르티니크
비자나무
위격
하이틴
신무
종부시
여드름
마필
메드베데프
공융
백포도주
롬니
가정제
벌통
머스
##클리어
실리카
라텍스
상륙함
##루카
##코흐
##당도
구메
마조레
오웬스
코보
생성자
하우프
##리브
무씨
허정무
도다이지
##쿠에
##센다이
코번트리
호니
유봉
부르즈
유키노
프린팅
안젤라
리츠코
외숙
김경준
하우저
다고베르트
종형
요시나가
낙안
##캐피탈
퀘이크
겐타로
오피셜
로엔
클로이
성범죄자
다육
마유미
행정명령
시스터
아단
##브레이
##후소
아오시마
##국제금융센터
김동률
트위스
가이즈카
##하크
다르빗슈
##여래좌
직교군
##그랑프리
뇌실
염라대왕
기림사
가등기담보
호너
##엔시
크레용팝
이타치
불협화음
중성자로
##동위
##천재
원지
밀실
##중성
주검
진해시
증가세
무악
전진한
정육
오클라호마주
개인차
벤치마크
문리대
핸디캡
##원도
##토어
안도
호겐
오리건
백과전서
어메이징
삼부작
도세
조중
##포탄
##투명
조선왕조
곤욕
한당
페르시아인
덩크
##은하핵
통기타
세로줄
듬
##여주
##라이언
요스케
진부
퇴조
##심리학자
고경
무식
서상일
아스피린
남창
##뮐러
독립기념일
결속력
##가톨릭교회
하이네
##자일
히로모토
이승
이당류
글리세롤
##관절
어획량
페론주의
동수
루마니아인
해변가
항해자
상납
고립어
연서
바질
메넬라오스
관학
범람원
에이사쿠
조목
근무자
##크릭
##제천
극비리
육영재단
꼬리표
##법무부
아고라
아스퍼거
가보
플로린
독립전
##파울
불구
혈연관계
##틸리아
수도교
##아레스
반반
프록시마
그랜저
신위
라시
칼리닌
꺼리
형제간
레오나
흥성
십계명
움브리아
투폴레프
인륜
##신전
식지
게으름
백만장자
불활성
발라크
미역
##판소리
해조
화양
당호
용호
바이트코드
##피안
융은
호손
경사도
압록
위무
##친화
이상호
합력
엘시
중한
원봉
리베르
포카스
페타르
##필리프
갈문왕
##강유
케이프커내버럴
암매장
탈진
##고발
병원장
별당
민치
정의감
가조
마수
##랑
처용
플라이어
소이
오바
반투
국민군
유잉
경운궁
정발
##초원
이소선
##요시다
네루
##유성
##유발
##영재
밀무역
불통
관제탑
##고라
장영
요시히데
장희빈
##곡면
민폐
##외르
경희궁
적포도주
성절사
땔감
쿠다
왕령
노총
평리원
##법무
사가독서
##쓰촨
##우왕
순제
##전담
척화비
허엽
##유길준
출납
호엔
##문학회
##바야
##기숙사
##가쿠인
##문화예술
##편암
두보
경교
학적
##문신
하우젠
급소
반물질
##알렉산드르
크리프
##경매
뫼즈
여후
니옹
코끼
##체스터
육종
명예혁명
그레고르
프린츠
소림
대런
지공
##하위헌스
묘도
살균제
##판례
호석
병변
##추정
복시
바버라
##라디
데프
라이어
히우그란지
마곡사
초리
주향
칼데아
##방어사
슐레스비히홀슈타인
##비지
노로돔
##코아
양시칠리아
하미
카메라맨
왕세제
##피스트
컴뱃
##후드
##시나리오
분에
샤이엔
담수호
사제품
##대주교
곤혹
이사관
노틸러스
주강
얄
##대문
##요괴
##후이
아메리
바티
구스노키
신사동
##필립스
황백색
##중군
몽블랑
##운임
##빅뱅
청백색
디르크
##그로브
##제비
아사히카와
래빗
아웃소싱
베켓
나기사
저수
근무지
최동원
헤븐
푈러
##바운드
스기우라
토치
예니체리
시노다
중심선
레하겔
김창완
단령
##파쿠
##가노
허트
##누적
발뷔에나
휠베이스
사쿠라기
유총
모용보
버스커
##록맨
윗돌
괘불탱
항구역
동위체
##이주
##풍
티모셴코
##청탁
##한겨레
에우클레이데스
변법
곤충류
해운업
연령층
가차
##토니안
현대산업개발
부연
노동운
여원
생활관
월간조선
피쉬
마우리아
인더스트리얼
혼성
낙진
버너
화궈펑
자넷
예술단
##사회민주당
##우스키
파주군
오음
##우표
양심수
##관동
##독수리
등신
잴
응결
대극장
고적
오르페
오거
구아닌
형문
##주파
사열
##조세
라호르
악덕
##포도당
순발력
파트라
양항
##코라
근저
파란만장
진루
선심
##델타
##반복
곰솔
치어
분지로
특구
청명
##교무
속세
이상주
에페소스
교회력
의학교
은인
담당관
고춧가루
파슬리
##원법
로제타
정론
##가리
이재오
##대위
고승덕
지즈
##쿨라
##망명
##보편
##볼셰비키
키로프
최고상
엽문
플라비우스
장날
코란
유선형
##리포
합창곡
팔리움
되니츠
##노르드
용비어천가
응전
마로
국제주의
##치가
파바로티
##진술
공군사관학교
##복과
포키스
판적봉환
제곱미터
##중추원
팀버레이크
이탤릭체
격벽
팽이
마리에
##조제프
사디
보호막
용혈성
##수복
필법
첫발
손수건
##갑옷
고쿠시
##대나무
호명
선집
가야산
북학파
사류
##진공
단주
베델
퍼트
노부타카
아녜스
단돌로
블라드
부산역
삼정
서동
##농산물
##동장
편년
##봉행
흥덕왕
##世
거름
촐라
가소
유전병
귀비
형태론
##정촌
함무라비
아란
##크리스마스
뷰런
평화선
트뤼도
무수
산대
현리
난전
상원사
##세보
세곡
친모
덕흥군
왕통
##토요
에도가와
##작국
흥친왕
목탄
배알
진고
능묘
신응희
노부요시
사카키
금지곡
이원화
억대
정강이
공책
시화호
점등
경학원
닷지
측지
감별
참찬관
##신관
크래커
사채
볏
페이스트
중심주의
재세례파
건업
사거
이펙터
민속학자
##시비
백인걸
겉옷
그네
일주문
표주박
동강
방부
외래종
베인
##행은
경무관
김두
##문사
##방울
현대차
##수림
비틀
##계정
티모르
마르셀루
##재활
바웬사
배런
비올
##노크
간달프
와이즈
은성
칠곡
에어포트
아불
입격
장례원
##因
탕롱
메디슨
안서
수진
##라티
추진기
수미산
비슈
니어
플라이트
칠천량
코토
페어차일드
미사토
와이어트
멕시칸
서태
##블레이저
파트리크
기라티나
고치현
##드라이버
브론즈
##시네마
##업사
볼튼
캐나디안
체임버
레이코
하야마
네기시
윤하
형리
##우회
##엔시스
##월트
신시아
자구
전기식
##페니
재클린
윌스
난투
정국공신
않아
오비완
병단
##치진
다정
폭투
##장시
라메
김동현
알아흘리
이치하라
루빅스
헐리
쿠투조프
아손
호건
자동소총
도그
뤼첸
유소
충선
전차대
장호
연화좌
신페인
이재호
골드버그
고경명
컴프레서
나한전
쇼이치
신스케
물양장
자비르
히마와리
##관입암체
야금
##기피
속내
유치장
##접속
##클라인
근삿값
가필
침엽수림
교육비
충북선
대졸
병인박해
피혁
닿소리
밴더빌트
체가
쥬라기
##예술인
발머
사어
격조
마쿠
치도
강기갑
경비정
서단
암시장
독직
걸인
몫의
목요
##장례
패닝
메이와
##모션
비우
쟝
가극단
##소집
아프리카너
##게놈
디옥시리보
##소사
추모비
호동
선각자
정중앙
스키점프
##카카오
이민의
##휴스턴
##허용
시금치
운동부
섹슈얼
악극
미가
라베
스케르초
원어민
이도
##개요
##프런트
골라인
적지
센트로
동시대인
외종
샹송
질레트
콤비네이션
손짓
멱급수
##간과
##강수량
어문
##팔가
##소관
반청
김정렬
명령서
성북동
##긴급
##무에
컵라면
행서
저지선
동갑
##성실
리빌
언변
이임
모일
건국자
호라즘
베젤
냉난방
구상성
슬로바키아어
부아
코티
월면
지롱드
국유지
##룩셈부르크
간척지
수석대표
##운하
자공
켠
##학보
낮잠
대원사
로마누스
알츠하이머병
궤양
##우위
혈구
환조
소목
등주
국선
성호사설
김경
아이보리
토코
##양반
태왕
##속이
고평
수탁
카리아
독수
##볼리비아
경제사
통교
##철종
취학
집집
오곡
영도구
영동선
뇌경색
##여포
연안군
자작나무
학덕
대보
##가락
계백
##석가
피막
태중
루루
##라완
하이퐁
알바레스
브레다
전유물
용마
##생존자
발라
##부적
##충청
##산염
##공방
모술
남인도
정사공신
위압
김효원
화승총
암문
쇠뇌
##미나토
##윌슨
극진
##요도
용주
법화
신미양요
축원
주의력
바라밀
전주성
윌킨슨
##군중
전시실
특실
이소라
참호전
##펀딩
심포
##승과
##약학
에제키엘
##크루
감옥의
에우도
##종양
필레
서임권
##공의회
황보숭
상쇠
결승점
대한매일신보
자매지
병정
##왕위
김시민
지덕
금어
투혼
##법률안
헛스윙
이입
##의대
농노제
도매상
드비
##서던
바이바르스
아사드
예레반
대판
틸리히
크루세이더
##칼슘
부투
중계방송
힐즈
乙
보천교
##전교회
에어리
김익렬
심려
##호군
녹사
##배수
촌간
##메틸
플레쳐
##와가
##농공
문익점
형남
하이엔드
어나더
자이로
노머
고스케
네프
노르트라인베스트팔렌
이샤
금단
폴리우레탄
히카르두
험자
하트퍼드
##차수
플레임
서라운드
멀
오지마
등석
마나미
##숙은
암수딴그루
선운사
이완구
##절멸
블루밍
하이메
웜홀
만력제
##문하
한산도
아야코
##괘불탱
유희왕
패트리
무한궤도
사관후보생
##불법행위
##징계
랴오
##대웅전
우문
풀어쓰기
너클볼
배럿
복소다양체
디케이터
##아머
퀼런
녹림
웨이보
승광
##心
풍만
캐벌
현왕
김전일
##미시아
평포
오버리가
스미레
스파키즈
듀드
##제미니
바른틀
아웃팅
카사트
첨차
보홀
사칙
해방군
항적
##총학생회
혼미
##간토
##오일러
홑
알무
##빅토르
대통
오제
불가사리
##플로트
##항로
총각
##교전
압구정동
오리지날
와일드캣
인기몰이
패서디나
래스터
##산란
##집병
진품
가청
##라면
명석
의숙
##위원단
소수만
심사숙고
헬라스
모카
천동설
외행성
##심부
##경도
본적지
조성의
##최국
##관도
김연수
친근감
보훈
비상국민회의
열자
찜
연결망
커닝햄
소유지
프로세싱
##훈련소
중태
가마타
발할라
##자도
글루
##스모
유한군
##철강
지라도
깡통
캐럿
과징금
투키디데스
피오르
절대자
연방주
라보
스트라우스
무쇠
볼로
울릉
정광
링구아
자본론
탱커
인간관
플라톤주의
하프시코드
겁탈
민주제
##전복
해양경찰
랜더
##액티브
어감
표시줄
파워북
국론
위장전입
##넥스
지오반니
인사말
돈벌이
##누는
지난달
해결사
##가족의
자자
##승진
폴로늄
##기질
병존
산자락
버르토크
종교학
##크리스티안
남근
훙서
맹사성
옥수
브리스
배율
몰리에르
친애
애독
동영
퓰리처
조가비
문필
##장편
완쾌
개재
그래머
종간
기이치
묵념
추첨식
홑처마
판정법
융희
굴리엘모
##해태
##전개
겨를
##위조
김선
핌
생트
##로마인
오션
이매진
스트릿
김현식
트루히요
금군
봉오동
동사강목
대각국사
조의제문
최제우
##완이
노르말
무화과
엣추
직선거리
헤라클리우스
크룸
##콘스탄티노
차차웅
무손실
해모수
##도립
##영동
건도
특위
적응도
##통이
##다로
##카사
하늘나라
나이팅게일
옵서버
왕보
수학여행
재소자
탄금대
북인도
##방글라데시
기증자
자한기르
미아리
부대시설
부적격
중소형
알골
##성면
노리코
등딱지
지지대
이수하
##미카와
보부상
소방본부
완산구
반계
미르자
우왕좌왕
윤덕영
서정원
만자
##항전
후루타
김전
##자선
곽광
##삿포로
원평
시몬스
단고
##피고인
성인식
소바
결판
휘트
문하시랑평장사
삭방
파킨슨
월시
마사하루
종관
운암
멘토링
##저빌
필기체
큐브릭
낭장
머서
성성
바이오매스
##함경북도
말벌
성무일도
와이스
편집국
서서
김상용
문후
곽원
##매직
아음속
멜라니
수양버들
나탈
##트루
보체
백토
##빈센트
간경도감
아브루초
스케치북
크루저
순안
甲
##출자
쌍성총관부
영건
엔비
데이비드슨
허가증
의주군
##플레인
점필재
군기시
차인
##기경
##종택
비루
고블린
##세토
도항
중죄
요압
강모
##영광
인육
무라드
타이푼
야즈
##좌수사
##연이
사타구니
탈것
아이라
에드나
윤활
체크섬
아와노
##오일
스프링스
앨릭스
오빌
스카이랩
안정환
##베노
마운트배튼
미나마타
와카바야시
게이요
##所
의근
분한
탈락자
덴메이
케손
레가스피
사고기
##스트라이크
마컴
간관
##셤
터보차저
루차
봉상시
##피드
료헤이
아키히로
애드립
객관식
##프리큐어
준준결승전
일렌
##저널리즘
햄프셔
다카오카
유양
릴라
##밧
마사모토
##소셜
##원연
##콘티넨탈
##리더십
츠벤티볼트
멘지스
야스히
무제한급
스타젤
##슬러그
##책판
사이러스
다게스탄
##법회
갈리치아
##분수
##기록물
노정
##동단
이정현
대변자
주교관
##강당
##대본
가와바타
나트
##여담
##테이블
사카타
공분
알타이어
##윤치영
낙산
판형
휴식처
카야
##선체
찬물
##문회
커맨더
맹공격
##낚시
피디
배틀넷
플레이도
베틀
어윈
외과의사
무선랜
밀리터리
폴아웃
##날짜
낙제
에히메현
아웅산
##고와
##시찰
난국
유원
고전기
연주시
복사압
가산기
김영주
##회상
균주
포소
##배지
페트리
원경왕후
자주독립
조선중앙일보
마냥
꾸밈
실속
##썬
매킨리
금융업
에모리
마치다
##安
고래상어
소화관
##유선
불가리아어
##알프스
느릅나무
적금
체포영장
마들렌
##진수
##독도
양쯔강
##온난
두카트
기회주의
간성
에이프릴
로린
북마크
##노브
##취량
불신감
김밥
##초시
에뮬
주보
인쇄기
##정맥
치비
##토요일
위태로운
혈육
두정
수도관
마식
코타
아퀴
메르키트
오르도스
파고다
목동자리
레밍턴
우스타샤
발루
트로이군
별점
평결
진료소
파군
인권위
##염소
크라우스
대과
황성신문
신여
돗자리
##와세다
##경희대
교환자
빈지노
확진
모젤
외기
##킨다
##준결승전
##병자호란
우조
압착
칼리스
귀뚜라미
목적어
산해관
고충
사쿠라다
우거
##카셀
그랑제콜
##네코
다다오키
신참
순상
##정교
메세
웅거
홍릉
신경과
수영구
##문경
무령
전상
삼산
##감리회
금령
분로쿠
구름다리
##눌
제조품
##슈에
신부전
##박사의
##아랍어
##수평
##레이더
오삼계
##가르
도야마현
##필레
헤벨
우루크
방사상
히메네스
양성애
##산동
텔레파시
보충역
月
##정산
요철
만수
루베
청산가리
신나
축음기
태백선
##호시
시묘
경무청
아시가라
대상물
화룡
윤활유
##원역
봉사손
##회보
##양동
재범
##자료실
이동인
엄씨
이강
##그대
##갑신정변
##명성황후
서상
이대호
노부토라
##덴분
아부다비
##내과
관민
역세
병동
상주국
##숙과
##천현
사향
##학년도
스터디
##연계
파트리치오
##은행장
최상위권
##마오
월턴
마테우스
사무직
방자
십수
아라타
아무르
푸라나
저먼
좌복야
단구
활공
안영
소왕국
노가
##리디
천곡
##혈압
증례
글루카곤
미들랜드
모기지
바이엘
장발
금괴
엔터테이너
유복자
후이
##강진
발등
위장관
바스케스
후스파
부이
류드밀라
##시칠리아
어브
개리슨
##원당
마르게리타
유토
유허비
보아르네
트롤리
매그넘
연설자
극예술
제갈근
카르마
큰딸
가코
회전식
탕크레드
프스코프
##기세
##염화
마즈다
헬레스
우키
펜들턴
멀론
진저우
국적법
시버
배천
페이스트리
소매치기
교자
김재연
다이바
##엔지니어링
##관습법
알힐랄
트라파토니
마시모
하이랜드
클린업
구과
##햄튼
##아부
주영
던스
볼라
목호
리니어
##파이브
##마블
##정구
채드
휴리스틱
히바리
파놉티콘
제너레이션
##클레멘스
정략결혼
히로아키
심곡
전상의
##객실
##탑신
아로요
##포비
기예르모
##약관
월리
라이먼
흐로닝언
부리람
안토노프
최정
안감
매거
스터리지
드류
두해살이풀
라이츠
골다공증
할더
만치니
##인디
인정전
##소체
##캐넌
이츠키
##신경망
##스트룀
므앙
저격총
공분산
은주
##욜
직불
오이시
피피노
앨런데일
하대석
그웬
고가교
먹방
리비에르
당초문
야마토지
웰터급
카시와기
우솝
본등기
야히코
##像
밴스
면역학
압사
다케시마
분향소
혜화동
오찬
##직선
크로커
##경장
오른손잡이
오귀스탱
대총통
##복소수
사격장
신유박해
강남스타일
위례성
민속학
앙고
##자구
##마디
요미
인바
공리계
##대의원
밀회
아루
메시징
갠지스
##실험실
허쉬
마그네
도르래
##진인
도시마
고모부
즉결
##인삼
미혼모
윤치오
한성은행
변기
전재
구석구석
산사
거트
가로줄
쿠리
계도
무희
강해진
마하트마
희사
거금
손기정
찬탁
잡화
경승지
기능주의
객가
국방비
공산품
웰즈
피노
##커드
##니콜라
저항기
사립대
안악
##러너
젖당
운반체
##어휘
요나
훌리오
슬럼
츠바사
##올림피아
##제단
공민권
##가이
웅변가
박식
자연물
##필리
번식지
프랑카
##타바
##설탕
대홍
콘테
##해독
##카를로스
##면직
꾼
백암
봉래
##품명
##성씨
현대어
본분
김한길
무력시위
반석
에드몽
##용상
부나
부재중
마르켈
아이톨리아
##기병대
하수인
조폐국
제남
석정
시선속도
에마누엘
##변속기
아반떼
스포트
공포감
소모전
실레지아
세법
의료법
##대대장
회보
장각
전쟁사
##갈리
무드
##어디
백범일지
초시
세경
자유연애
기암괴석
당첨
##재능
부분환
##마나
광이
##두류
광상
곡명
가영
원석
##금이
리용
북행
충목왕
요동군
삼족
마르케
황달
##다이라
신임장
플레브스
레굴루스
##화음
##하워드
탈리아
맥그리거
무아
자비의
강원도지사
물물
학정
##의정서
자파스
고호조
##피토
타란
미크
도독부
지한
열람실
뇌사
고사리
버저
무역업
##녹화
##삼국지연의
우투
문화원
논과
가내
에릭손
##쏘
자색
##뢰드
매립장
수지구
소무
국성
팽창주의
프론
탐사대
식민주의자
주우
철령
철거민
청담동
타원체
동서양
감람석
차단제
##도면
몽염
번조
덴리
좌위
활자본
유니티
게이한신
육질
철륵
김정수
##소라
한약
반가
공초
정침
##로에
##합천
삭탈관직
아시나
태연
동신
##무예
리거
##중앙일보
종이접기
##칼빈
##구축
전초전
수금
루갈
마운
##나바
뮬
저항권
무니
비텔스바흐
목인
##랫
잎맥
명한
##유래
성수기
정분
성구
세탁소
유성체
라캉
오현
##편입
##동성애
파이버
레소토
세쿠
말리크샤
##비체
총칙
##義
루시퍼
의궤
취사
투우
감내
##오렌지
슬림
납세자
##라자
펠로우
##시크
시계열
직언
##보충
앵베르
##프란체스코
로치
기간제
자동판매기
버크셔
##데리
이선
루르드
광한
별책
전자전
쥰
고드프루아
##토비
용자리
립스틱
금자광록대부
섬모
와일더
##본디
##벨레스
구미호
##레츠
쉬르
포시
완벽주의
##피언
소비에스키
##전동차
##아빠
계출
왓퍼드
이근호
스당
위켄드
브레이킹
손담비
마루야마
황태자비
사에키
마에바시
하루나
##더빙
인공섬
할은
누마즈
##강하
크라스노야르스크
페데
절전
알렉산드로비치
##폴라
아츠코
황초
주최자
##크리
라푼젤
수아
마이비카드
프리맨
##헤비급
굽다리
##준결승
릭터
##베컴
벤제마
##개수
곳간
##면병
이마무라
연주력
공소사실
타쿠로
소영
##군공
코바야시
##실트
스래시
스테인리스강
##스테이
우부
히지카타
##플랜트
작렬
##범상
노룡
등기부
산탄총
장온
미탄니
##푹
에스퍼
밴텀급
##體
압밀
지니어스
김구현
구족계
##글리제
조큐
시오리
우치하
화가자리
타이둥
스카다
컬렌
급주
역선
탐문
##동유럽
위지
관권
송영길
##아소
불시
기안
프론트엔드
##수다
폐곡선
글루온
피네
맵시
##부피
##어워드
유전율
##코펜하겐
조계지
돤치루이
두루미
동국통감
##실명
면책특권
재가동
절리
다쿠
필체
덜미
##세무
칠판
와그너
##일선
초한
차감
민간용
불경기
통사론
브리태니커
스타게이트
휴고상
혜산
양구군
전송이
##역도
거국
정일형
말싸움
##군사령부
개론
싱크로트론
등방
제하
원목
짜장면
히로타
도로법
케이프타운
##특례
비들
##선충
감식
세포핵
속마음
하오
##채소
리버사이드
##실리
지우기
무도관
에세
장송
##악어
##룬의
자웅
##연관
##우물
산출량
##깊이
##성질
세사르
발명자
강습상륙함
성조가
칭제
현역병
소쉬르
한대
##집약
사실혼
##그루
둔한
방종
##담화
땅값
##박계
##계장
장직
부르자
어묵
부속물
중대사
##서체
트리어
##선제
과학관
통혼
##세브
민족정신
##이론가
타전
개선식
공유지
##이인의
리수
오스티아
만공
세어
##스페인어
세레나데
광풍
포세
노프
학구
신빙성
##성기
케이타
정창손
광평대군
내곡동
입방체
체불
아레
연주법
거시경제
레오네
호당
스포츠맨
함북
##군대장
일인산
간조
정주군
여성상
골도
외력
레이터
음악계
요다
게이스케
향방
구도심
국운
정우
반사경
##추첨
준이
김태
공후
심청가
##동종
친서방
개로왕
을지문덕
악구
피망
신갈
독한
숙지
##일본서기
##급식
신흥우
참변
스타디온
간몬
이누야마
리베
니카이아
원명
공략전
토토로
##수욕장
나부
##동적
영방
저질
타림
다카쓰
일연
월지
우사기
##입이
헤자즈
윤사
##틸라
##삼림
남선
##방콕
치외법권
시냇물
성냥
서시
##용수
돌리
예언서
수의사
##도코로
탄강
함흥시
장포
원각
연령군
등관
민단
대오
##상담소
부티크
네리마
##소시
마대
##부유수
군병
이이다
궁주
공갈
우쿄
비상식
##디스플레이
내국인
실업팀
김태균
나디아
켐프
주쿄
##아이즈
##지후
진우
불가타
총성
란츠
##각도
##어선
아대륙
불탑
##한자어
##베어
애견
소름
농부가
밤색
##색소
콜론나
##급진
유기농
##참지
##최저
간공
대나라
##바오로
직지사
송인
##추월
램버트
콘트
##히가
소말리
##메카
나스티시즘
토르티야
시우
##스리랑카
저혈압
공소장
변상도
##도국
백댄서
##우주망원경
##불사
카스티
##배분
고드윈
##망가
보르네오
아비스
신어
테렌스
##절제사
결격
승은
도날드
주태
니즈니노브고로드
##수첩
##퍼트
윌밍턴
코멘
준중
고군
앰브로스
나리아키
성애
지쇼
조일
무염
훌라
선업
##고체
정절
비스킷
안토쿠
왜선
폐점
카에데
히데유키
포비
##대공
웨더
코르벳
##잡이
오르도비스기
피쿼트
이구
내조
천칭자리
저궤도
와이퍼
##텔리
졸전
계관
사가미하라
픽스
##미라이
특수작전
##잡
송부
카티푸난
##트럼프
##히데요시
파비
##도노
마리노스
서책
시토
판돌
릿지
시치
세친
스토킹
##연대장
##닛폰
##石
피구
##사드
우주복
후지카와
막탄
방돔
##가나가와현
좌명공신
나나미
로퍼
아넬카
산업재
후불
앙각
인경
스트렐
##사쓰마
##겉보기
##어택
부작위
제이컵스
황석
##양키스
##최진실
##스파이더
부스트
린트
키론
##걸즈
엔론
안키
##귀왕
엑스페리아
멸진정
붓꼬리
##카터
##힐베르트
파인먼
스토크스
재판정
##결혼식
##대표인
##음악원
##공용어
전자사전
가후
##적분
변호사법
걸기
일베저장소
##하카
데이크스트라
일맥상통
특산
인골
농단
무기명
폴리펩타이드
모세관
##혼자
넷마블
바츠
##생존
친할아버지
난로
드와이어
희년
터틀
감칠맛
만경대
삼사
대한국민당
##이양
파전
쌀밥
##습
##확산
##컬처
##초신성
##뉴저지
##올림피아드
진동자
서론
파블로프
애들러
블랙박스
절편
프로시
면직물
이아
신성모
환영회
중앙고속도로
알펜시아
자하
##장부
연방주의자
범그리스
알바니아어
무자
진장
에우리피데스
칸톤
통일사회당
아리스토파네스
단차
헝다
하이픈
모직물
일당제
뤄
##애국
##로렌
##할당
명저
##미츠
이두
신징
의민
뷔페
스와힐리어
##광대
박력
##독스
베냐민
이창
스턴트
리키니우스
##전방
아도니스
##호른
바랄
풋
열선
##자성
휘슬러
볼린
아스가르드
마구잡이
모턴
##빈스
김형직
##총수
##스포글리
에파
몬족
##텟
적대자
##經
로란
예심
세모
환태평양
열네
겐이치
입후보자
약리학
시미
##호모
성산구
##메트리
라르손
##능이
브르노
박이
원구
편자
##창과
보시
##지성
관직명
##성역
무자헤딘
고교쿠
칸타브리아
뱃사람
진현
##미네
위례
##갸
원삼국
##사부로
고리키
석씨
##로페
극형
북항
##동북
굴과
연환
##호지
릴로
케밥
장렬
##광명
신에쓰
남벽
북두칠성
노섬벌랜드
오스트로아시아
##몸통
둔덕
##피탈
홀란드
벌컨
헤르츠스프룽
리호
##발톱
이팝나무
아사달
##예외
오간
척화
제어봉
퇴직금
##관리사
중국적
##뱀의
각섬석
울산광역시
적후
군속
김윤
헤이조쿄
##연화
고현
콩쿨
박희도
일망타진
손화
터만
##아즈
##비단
##모리스
강의석
종착지
학연
드렁큰
##하차
##여우상
동숭동
##현관
이체
문선명
융커
상품권
훼의
번제
옆쪽
와시
##동물원
##누대
주준
금양
##뚜
미니멀리즘
사마광
신릉군
마드
약사전
##여객선
##타이탄
##올레
인회
목구멍
##라지
벨레스
부미
##우즈
순정만화
산악인
지쿠
##외대
포리스트
##뉴욕주
폐국
에스티
아바르
에이드
다와
조차지
##린다
백선
드미
블라디미
시라즈
아리아스
재향군인회
프라다
몬테카시노
##로베르
화동
##배우자
박보영
촉석루
애런
고등과
뚱
빅스버그
혐한
주하
보탄
맹독
##관부
에너지부
벨로드롬
건칠
역무
호중구
소년원
꼼수
중항
니진스키
##쾰른
집시법
이카루스
김신욱
##ㅣ
야마가
##러쉬
푸치
##色
韓
근경
##해남
원희
난시
##숍
##대성당
브라가
##발렌시아
페트루치
유르
랩터스
강선포
소왕
##강철
토욕혼
전도체
선발팀
트로이카
코폴라
에노시마
석경
##테이크
포산
권상
중앙로역
##페놀
조명록
이쓰쿠시마
테스토스테론
데코
학조
평로
##블레이드
클루게
야가미
##유언
라코루냐
법익
가쿠인
어린잎
##진관
공지영
##약사여래
페더급
에르제
##로버츠
황비홍
포미닛
##비엔날레
스베토슬라프
왕유
웅치
##지붕돌
도명존자
록티
##귀박
소세키
유리코
##원본
실수부
큰일
전국연합
안희정
두자
급우
##직물
뭔지
장암
외항
##종묘
도심부
오존층
##회선
##커널
시사저널
튜토리얼
백양사
제빵사
무기질
보즈
큰형
샤를로망
양부모
##탄도
증조할아버지
##락과
술책
방청객
백라이트
##외형
내습
류트
열수
##투구
김광현
관광열차
거울상
##프랭클린
이바
조성환
혈안
입학식
춘성
##고속화
포트워스
안식처
축자영감설
모니
##표로
##막대
최신식
하라주쿠
체포령
샤르트르
소수성
노폐물
바다표범
농어
##슈팅
위닝
##프시
초계함
##탓
단지로
바누아투
직통열차
해외여행
카네이션
소포클레스
직능
언저리
오디세이아
안티고네
##서사
프루스트
성악곡
세미프로
표현법
##기시
시시각각
입도
##짝
캄브리아
간체자
화이허
정저우
도야
우티
프로디
##유명
민지
여신상
##암리
주월
한일어업협정
노브
창힐
정세균
김성태
도곡동
심재철
##호환
##루즈
억측
##물량
##유대교
북극권
보로실로프
술가
경남대
콤네노스
포문
아주머니
하간
이스파한
감광
미사곡
##시선
벼루
디미트리
험프리스
##더
##사망자
수르트
측우기
하위지
회안대군
홍해
핸슨
##당내
국위
김의
이철
결핵균
합성효소
배일
녘
대피소
수술대
경험론
##결절
자족
##베르겐
##저리
깐
영인본
학회지
편장
조선정
진먼
고속공로
대토
허창
클루
원생동물
점쟁이
매슈스
##미카
독거
이문세
##에콰도르
스다
생태주의
대북방
턱수염
##다케다
노부타다
##오우
##대지
##서유럽
##성곽
가락국
장산
송상현
비터
##삽
##직경
향토사
네일
##연행
부소
순진
##리회
우나
화살촉
형산
아찬
위산
대유행
##천성
망명객
##픽스
##사쿠
하나라
낙뢰
##아라비아
팜유
다르다넬스
##종로
김주
##교식
##처리장
##퀘벡
##니켈
##리부
기준치
운휴
청진시
왕세손
밀월
한우
의금
신미
스위니
한기총
고토쿠
대윤
##혼인
이상훈
영험
경회루
유혁로
촌수
최승
엔랴쿠
나나오
##평택
주세
##산학
##농협
##토양
코스트코
안산선
##펭귄
##청서
점박이
주대
아르튀르
송영
봉과
연우
##레스터
##아이디
##지원금
##도레
##오즈
##성결
샤리프
거푸집
경적
마쿠하리
동심
추신수
클리퍼
##절벽
주진
유한양행
##잼
##시우
##나이지리아
티크
원두
할리파
##본문
마리코
##아미타
##매스
##일시
하이킹
고이
##카즈
키리노
##몰의
후시
마비노기
와이오밍주
상암동
##성호
뒷이야기
##어리
핑크니
스미르나
전경련
유바리
초계기
쓰르라미
거문고자리
데미우르고스
미공군
강위
##괴
##가트
정당방위
##쿠퍼
헤수스
겐키
##유령
네버윈터
선식
정원수
혼고
상조
##안소
매표
백송
히스토리
바지선
김태영
오쓰카
다우니
판별식
##아티스트
리원
트렌디
콘티넨탈
헤드램프
##프레드
사파이어
동탑
안데르손
하타노
##창녕
철갑탄
우자
신교통
##슘
이니에스타
비하인드
중대석
우레탄
##고택
앙통
##관중
다카유키
노부히코
##밀란
##캐논
코트니
암수한그루
임연
##챔피
하스켈
상속분
##얀스
아틀리에
여중
##하단
샐러리맨
프로브
행용
##음대
박락
쿵푸
아만다
화각
카르틀리
카라반
대디
현주엽
악견
프라이어
##피니언
크루거
데스매치
가절
전파원
##마쉬
환상향
달라스
보험계약
카즈마
진패선
##천점
부리토
핵형
월레스
민머리
희생타
로트너
아라레
분석법
##중공
반미주의
총사
##기록원
##통수
데생
##복소
병립
와인버그
##쿠리
휴머노이드
##스칼라
전토
김성숙
적폐
##암석
염도
과민
##상대방
##북스
일반항
동월
##노소
##수필
##화학자
메가바이트
용해도
##자용
도매가
춘분
친우
##아사
청봉
민영환
궤변
##전보
오한
##신생
김창숙
강원용
산촌
박종
고학
쾌유
##소모
가이낙스
##패전
##재팬
##캐시
영업용
분트
##펠스
차적
유전성
뒤통수
응대
우회로
처제
일견
서반구
##평원
인신공격
하치조
공항역
방랑자
##분류학
간세포
주머니쥐
레벨로
목초
##사극
의장국
##노동자당
류블랴나
대화편
##합창
대한야구협회
현기증
##생각
층상
베네라
목면
가쿠에이
##연애
속지
한국광복군
##품종
부가가치세
탕감
##박연대
##분양
임면
패시브
점도
포장마차
데시
듯이
요제
##인임
대지도론
페르세포네
보지
일곱째
일리치
별반
##라파
라비에
한바탕
##처녀
처장
##교섭단체
사중주
##스텔라
맥퍼슨
공기압
이노베이션
전폐
군무원
##관광지
##공수
호르티
데이턴
##무형
카타리
키리
창발
결연
##뜻
명회
투서
김준태
브리즈
에디트
지의류
수공업자
피히테
호지킨
폐로
체펠린
##쇼핑몰
나르세스
패용
##포어
유병
상추
##가야금
초야
심청전
고삐
피휘
터부
##중산
동천왕
피사로
##추리
게라
로스토크
수정구
펌
본시
아리아드네
트레비
루팡
연표
성게
이슈타르
##남과
교문
##중구
이치노미야
다테바야시
무열
##유학생
훼방
성서학
멜란히톤
다루
대웅보전
무덕
간경
악은
소씨
##알렉산드로스
봄베
##방사성
##치프
듀스
##용산
대덕군
##준위
봉성
##잔틴
##시옹
뱀과
##석조
##조이
금천군
문종이
네즈
부슈
장생
##삭제
신여성
강습소
회신
박원종
도파
##선데이
입담
홍범
선혜청
숭록대부
리델
능지처참
포도청
맞배집
입봉
동민
##개설
다변수
사온
등산객
##복합체
주머니고양이
오페레타
##단결
스즈카
공인회계사
##그레이
문하찬성사
암각
##리토
착석
마라카낭
##남미
무실
카리용
##프리드
비비
##수레
앨버타주
겹눈
모우
황천
강증산
##서령
인디애나폴리스
돗토리현
구조선
##프레이
복신
례지
알물크
##블린
반디
탄약고
##합격
근점
몬테펠트로
바키
나르바
##로우스
##승상
하연
##세손
원경
솔저
프레이즈
화요
폴스
병량
클라이브
불만족
얼라
알레이
##건담
펭
방열
튜너
감전
프리드만
데모스테네스
에우리디케
기계공
민들레
##야기
나이트메어
##와이드
바꿔치기
아르연
바넷
즈이
비스무트
도총
크리스챤
극미량
옷장
도경
박주
우버
케이건
내쉬
이시노
코야마
진앙
시코
모빌리티
##想
실위
치석
전광
유하
셀로
##스캔
포를리
요르고스
키아라
해밋
토아
콘스
가야르도
다부치
이방실
##신상
제노아
##인테르
히혼
열창
경간
자한
원삼
손끝
나루미
아브로
하이바라
김태호
계대
범증
##술사
부사직
도리데
요리요시
젯
지젤
##프린스
최자
텐션
컬쳐
##북초
범프
임제
자프
우젠
노른자
##경수로
피크닉
아합
크롭
##상체
##긴테쓰
엠폴리
르메이
인터폰
라미아
체크포인트
##족류
심일
메가트론
##듀란
건넌방
메브
##이면체
김용판
린데만
모즐리
궁합
정모
하얏트
##가우스
##아날로그
뇌관
돌림힘
##승계
본회
##탐색
##동성애자
출산율
도브
비산
부천시
레이몽
바크르
전립선암
연분수
일군
빈터
광산업
불고기
가작
앙가
##한문
##카슈
반례
레코
독살설
피토
##사이클
걸리버
정무원
올로프
자회
여행지
험담
판자촌
벙어리
설경구
##독점
프라이빗
찬탄
철탑
##수감
도로테아
##화사
행정리
항진
##마약
원형질
##담양
기성회
##이광수
##조봉암
##동맥
전진기
아시가루
##유적지
노츠
사환
구동력
##시코쿠
##동역학
액틴
에브
양식업
마론파
성장률
##보강
스탠딩
하프타임
건당
##웨일즈
아카시아
##배럴
누벨프랑스
면목
우등생
라몽
##베토벤
선수협
팀워크
집기
성모상
지괴
우방국
영국항공
심계
##기하
태양력
강재
실성
소스케
애드온
요타
아이맥
체언
연내
의중
##항해
##문학사
마자랭
툴라
로스차일드
롱비치
단둥
헬리오
##독립군
문화사
훌라구
그르노블
고전압
페치
심온
황보인
아리우스파
바르카
라도
앓
근원지
루치아노
##면사무소
무한정
은행업
이누카이
폐인
정지용
청담
##마차
순금
트랙스
##싱에
서인영
테크니카
정자로
각계각층
콜모고로프
추모식
직선형
포르피린
군악
계유
##천정
신파극
##마린
회분
성형외과
가이던스
##관세
고구
미후네
##양부
융의
##신비
국회법
오카와
##전라
강감찬
쿠베르탱
소기
아나스타시
크테시폰
용병대
김알지
통전
성문이
보문
##위사
구진
무등
자멸
무슈
터프
##간에이
진지왕
##둠
친자식
전쟁시
산타나
삼청동
해녀
이류
피난길
제장
##정목
##영리
여경
##전산
토카
자료집
##에이지
##요르단
장건
남접
##농회
유덕
채석장
##위안부
시모사
##인명
##촉성
용선
정의부
국민부
신민부
칙선
갈루
지치
리영희
관광버스
이하전
불굴
종부
시늉
재조
종현
##시험장
미쓰루
당성
좌경
이와무라
벳토
판목
진관
부민
철화
화설
칸사이
##토마토
적설량
##발도
종언
디키
륄리
##체육부
관대
아들러
우바
평신
사도신경
음낭
##냄새
타크
앞가슴
##다이어
방원
경판
##뉴런
##요제프
경본
세파
암술머리
최고액
##교화
오솔길
수카르노
##무색
##마야
고정식
조선왕릉
신륵사
철불
정박지
##소환
녹기
독립파
개국공
##버마
무운
클래런스
만유
김방경
크리티컬
모나드
셰이
무라트
##메티
세실리아
##스마트폰
원스
반절
##항공대
홍살문
명호
##소르
단층대
하례
비속어
액티비전
바락
네브래스카주
관노
##안경
샘슨
모뉴먼트
아키오
##前
스쿠터
마찰음
확률분포
##라빈
요화
##필자
얀센
##급유
##도둑
##진천
뎀
큰개자리
시모네
##너리
아리스토
티몬
퍼트넘
헤이든
레시
타호
##한도
신묘
문간채
##황도대
벌리
로리앙
델로
테스터
파운드리
연예대상
펑더화이
다카노부
아시야
다이시
엘사
경락
소태
양편
윤희
가경제
##지보
그리어
위자
라구나
애니박스
시라이시
스코티
##차나
아비코
미노리
##솔라
주교령
소류
라엘
탈륨
모한
에이브럼스
포엽
##可
##합금
##난중일기
스콜스
역상
다이내믹스
프론탈
마스미
클라시코
꽃미남
다이너스티
##데펜디
##아토
웨이트리스
도모토
코이치
디마지오
신청인
이정우
##햄프턴
내열
판식
조준기
격자점
##보이즈
한빛
김광진
독회
##래퍼
베가스
##지니
##비스트
뉴로
팽월
데프콘
##마왕
이민호
리바인
연곽
미이케
조연출
카나코
와일리
지젝
문수사
비좌
불꽃무늬
고카이저
루미아
광체
##분기기
##승광
타라칸
국제단위계
민노당
문필가
철강업
미디어위키
아미노기
글루탐산
뤼베크
##연립
##유착
김이
유모차
##포천
인분
고마움
아보가드로
달랑베르
굽타
맛깔
솔레노이드
부랑자
강바닥
간석지
텃새
##초계기
사고나
박제가
중랑천
배인
유리관
##자인
숙환
##직관
투바
##측정기
자타
블레즈
##인총
##일당
신단
이속
##위직
난장판
명동성당
주의보
재개봉
##단종
비휘발성
중위도
슬레이트
##균형발전
가타오카
유근
창평
삼자
기정사실
뇌일혈
정한론
베른트
##리기
노와
히에
심산
이기주의
그로브
사뮈엘
##발음
생일날
췌장
파타고니아
##마라톤
파파도풀로스
포도나무
유념
##프랑크푸르트
##품인
##태상
조형미
##채취
센카쿠
##산화물
##상목
##목판
##아바
##톈진
##특설
씨도
진두지휘
##택지
##외환
미나리
파인더
금문
임명장
줄리안
네안데르탈
##출간
오스트리아인
##스틴
징세
노르웨이인
버트런드
파죽지세
위성국
박찬욱
##스티브
보통법
낙농업
신격
유심
석전
번민
한호
##관리인
##노역
교합
경음
아드리아해
람사르
물통
공병대
허상
##변혁
레오니트
주철
##분실
##키츠
조동호
이상화
보름날
김명
신교육
실상사
##센타
준가
당세
스코네
필요시
##에른스트
이마누엘
##매개
본성인
저스트
벡스코
행랑
젓갈
채보
서민층
적벽가
말더듬이
##수도회
영면
##본질
##종영
고슬링
정법
##켈라
코르푸
묘목
창건자
##구획
##렁
에르푸르트
##철기
외동
##병리학
선수촌
다르푸르
##주로
나카센도
두만
알베도
노년층
경범죄
안색
가책
개항장
열녀
##크리스토퍼
고바
##지현
완산주
해사
양아들
오원
창부
캐리비안
준준결승
디그
##생부
동학사
하야부사
별인
익산군
출혈열
##존중
종계변무
안토닌
종각
멜빌
교육학자
##수기
프레지던트
##도카이도
백화
류조
빈궁
##관원
보개
##귀인
##쓰리
대승리
##응급
김재현
용화
##약속
##오징어
준우
증평
##남작
켈레
##경대
##화과
##나로
말일
표징
몸빛
목뼈
참새목
##종자
오스터
포락
인디고
루치오
옥황상제
원금
문화청
개런티
회암사
##코우
일라이
랩터
##데이비스
##갈레
와플
스코프
##도박
객주
손녀딸
조국통일상
길동
더블리너스
돌멩이
이버트
컬리
일신교
치천
준회원
##이부
##징수
하품
효험
호르무즈
이광은
전탑
개심사
영경
이현일
##생원
금년
순찰사
##코니
키나
오후나
오구리
##캐슬
##조연
뇌격기
마징가
의용병
리브르
크롤
##마운틴
##디트로이트
평과
팔각형
##버즈
키라라
##티와
라칭거
젭
헤트만
워크스
우물마루
##호앙
최호
여식
##하행
##제이션
##프랑
카버
포말하우트
##선색
레네
파파라치
유빙
##부트
슬라이스
반당
천황배
아타미
층군
리그닌
다이아몬즈
##합체
리날도
셔틀콕
산업은행
순간이동
추판
##휴로
##전산망
##격자
바실리오
##원술
##실사
전문부
하급자
페스카라
린을
인프라스트럭처
병살
보하이
형가
화물칸
##승차
데마
센이치
쿠엔
스위퍼
드로그바
술레이만
##밈
우윤
##거미
뱃지
딜리
개활지
##신중
이토이
##야마다
##제리
머스켓
전리수소영역
사이리스터
대흥사
계선
이업
라니에리
##영단
추락사
권선
리벤지
헤드라이트
써드
코스타스
##의석
##가짜
오비폴드
##아츠
비동기
하남윤
청석
황문
시그문드
베이커리
블렌더
##후면
오사와
천판
화계사
히네노
흑기군
나바리
##매듭
명인전
브랜뉴
휘트워스
##범죄자
결정학
윌러드
초월수
하이퍼링크
##등장인물
멘델레예프
독대
##탄핵
금지법
동문회
내접
##릴리
부정적분
##접수
원불교
동작동
##민속자료
##사옥
교착어
플라스크
##밀러
직조
한학자
##표어
저마
아브람
##진체
이용도
델레
##블루스
##마오쩌둥
##본토
봄날
##칭호
##가곡
용암류
구로사와
오동
에이치
태양중심설
상현
사다오
한커우
##키시
프라이머
염색질
소단
##댁
##배양
##자립
차비
사심
내치
군부대신
##조립
외견상
##바이올린
백과
##크롬
주시경
##비사
송전선
학칙
친화성
용궁
우어
##수생
##미드필더
채화
골드코스트
##고원
기득권
##괴물
바닷길
오송
현대미
##군락
주권자
##다나카
우루무치
행시
새들
자연관
##프랜시스
폐회
열하
개청
연수원
##진학
##양도
박기
궐위
로커빌리
판매기
스몰토크
이중모음
금석
삼장법사
페러
배교자
##기차
이쿠
심벌즈
보조군
음모자
##카에
줄리어스
정교분리
클레르
보수성
푸시킨
회의록
##공연장
정신병자
노르드인
슬라보니아
브로즈
사빈
나카다
박해로
현대전
쟁반
방앗간
벤틀리
##키리
페트라르카
피에몬테
우즈베크인
해빙
적전
##시트르산
생합성
글리코겐
코디네이터
이리스
숙영
낙심
식상
부민관
음악캠프
경건주의
송곳
##함인
더프
한판
##코스타리카
눌
잡가
구자
##선출
매물
부세
##한서
##웜
##마티스
안동군
치코
##무슬림
근린
나카토미
##노다
##모시
선후
내물
보부아르
보습
덜레스
양관
##청각
성조기
주먹밥
특수부대
월미
##구민
각간
##천수
정궁
영력
이발소
양아
베레니케
금하
##횡단
잎사귀
마두로
미셀
용인시
분원
##산초
##금산
김문기
문현
봉제
##장제스
한화그룹
두루마기
일라
편암
일변도
린스
존숭
할로
감염병
락토스
하일레
서궁
호패
장살
성취도
독립문
##부대부인
실업축구
드린
선조실록
군졸
아소카
선일
무임소
아펜젤러
##부인과
##아마
##신주쿠
대참사
남예멘
브라흐마
여색
박원
해관
이모부
##時
강왕
포일
##체증
##오디오
안할트
##비야
김창희
##시역
말리크
가디
터무니
엄니
두에
##오하
개고기
이세돌
골판
##수축
그린피스
오데
성회
칸다하르
마라타
하한선
엘리사벳
아순시온
시풍
##색계
##아치
폭포수
축하연
돈세탁
동벽
하즈
쿠이
##뎀
뱃사공
영보
조군
데시벨
##추행
##아제르바이잔
희귀종
##유와
양근
투명도
용이성
제다
코아
파브르
데르비
김한
##친위
왕평
스태튼
공차
예안
헝겊
시독관
브라이턴
##단면
##발작
회사법
##미시시피
만족도
산위
악업
포술
##네타
세이프티
아스타
갤리
##해전
##민방
내향
강태
사적비
##브루
거래량
프록터
비질리오
도광
가와시마
슈피겔
발렌틴
양발
##중수
퍼프
##아키타
중선
노보시비르스크
캐노피
마차부자리
알메리아
##도끼
##촉식
##녹색당
재충전
요시스케
국밥
가메다
가미노야마
덴도
오슈
타이라
테임즈
##조공
층층
##미셸
나훈아
심형래
장액
입주자
바움
##피오르
팔콤
북접
이재원
스카풀라
어게인
속관
염제
청보
후미오
주계
베게너
현동
장삼
##상석
사이드암
더블헤더
임영대
##리퍼
서부극
합명회사
민부
멜리에스
##올빼미
블라디슬라프
블레넘
베카
심청
##코지마
오세트인
지운영
예론
호트
##마장
바렛
##퀴논
클라이스트
웨폰
##부치
##미토
에그몬트
연잎
수연
밀직사
##아마존
로쿠하라
쿠루루
료타
고폭탄
##전투단
신동원
##티미
진저브레드
흰개
룰루
블래스트
##속인
화이트채플
##협조회
이세나
##캐스
후쿠모토
러블리
료모
라델
스탈링
셧아웃
##국수전
림보
대방광불화엄경
탄트
유병언
선심소
##유린
방점
결방
당정
탈고
섣달
소립자
##으로
어패류
각층
미투
대란
버스전용차로
합성수지
원음
##시흥
##쾨
##아이스
말수
졸본
떨림
##케네디
국악인
총학
##배포
할렘
군담
진정제
대장정
덩
난점
리승엽
방사포
원세
벽보
민족사
민속자료
효자동
하이퍼텍스트
블레이저
프렛
시분할
히데코
붙박이
##세미나
##오드
##미소
절명
##보호구역
##미합중국
이사국
메이플라워
##화인
새너
##귤
모욕죄
만개
##스킨
##일요일
##긍정
철학사
##포유
영령
자멘호프
판금
##펀트
비달
산출물
어보
시온주의
맥밀런
메테르니히
홍강
윗사람
오레스테스
덧칠
마티스
재간
몸가짐
페인팅
식료
##영혼
아사자
中
##휴학
흉갑
선산군
리퍼블릭
한보
노점상
가마솥
다변
날치기
일교차
연적
##코비
르투
튀르고
하베스트
안전장치
적음
데키
디오메데스
##제왕
불경의
소테르
칭기즈칸
##관람
누에
사감
베크렐
헌팅
##곡도
예이다
논현동
녹턴
파에
##도로는
미클로시
헤임스
헤리
황경
##섬네일
정팔면체
소네트
##토우
##볼리
광계
활성산소
총은
##폭동
##시오네
##줄거리
웨스트우드
##힐스
헨젤
뢰머
감염증
정념
루비듐
##창원시
##글로불린
##동문
메데
##선비
우문술
꽃병
침구
히페리온
뒷바라지
가위바위보
내구력
일품
##결산
재창
##명주
삼군
다이로
마산역
궐석
무령왕릉
입경
##민이
봉선화
상방
칙사
##구진
오봉
로마서
##말씀
정크
지르
초사
대죄
리파
효의
양광도
천제
풍도
##해부
##서아시아
운하로
주악
##대서양
단풍나무
점프력
##고속철도
제조업체인
##검진
부기장
계획법
악상
보자기
응급처치
글재주
##리엔
##조개
왕제
베르티
이영
장려상
무극
댐과
민유
청운
장건상
대동청년단
##채집
##발령
건흥
포도대장
인색
조돈
편전
하포
##공직
김시습
##학술지
##역간
##활자본
커피숍
미륵사
##유원지
뻘
재임용
스컹크
알사
##양대
##한림원
이황은
##행수
곰과
조추
발정
근친혼
##오타
재정부
능주
에르네스트
##객차
신세계원숭이
힐다
바론
##비중
레짐
체어
##네온
재치권
마속
블러디
관다발
##호저
난세
옥류
들국화
배변
기본소득
주마
##궁극
베네토
심박수
##항원
통화량
트라오레
사파티
리빙
카나리
양덕
친할머니
##知
##마카오
니치렌
##하버
혜능
##천국
세정
바이블
이뇨제
프리모
##북경
##루르
##키프로스
둔황
남극점
피스톨
##데카
토굴
우당
평상복
임마누엘
뤼스
스탠턴
단동
일기토
엑스박스
영화판
덴표
야시마
질지
전몰
제병
김승규
구안
브라이
내야
권태
바다뱀자리
음빛깔
이응
비길
##터보
대진표
잔루이지
오프라
##엄구
코친
포자체
서치
김광석
##초연
##조니
##연성
##살인범
사쿠라지마
사이키
##방호
애프터눈
백발
##한큐
원앙
태엽
한직
바오다이
야마사키
녀석들
푸조
이리니
브레아
##알폰소
전신상
루체른
##톱니바퀴
이치노세키
히키코모리
##메로
런닝맨
삭직
아마이드
통이
##청단
오광
가토리
곽노현
##야쿠르트
계손
북청군
레오노르
이파리
이루마
올보르
##예술단
김익훈
항암제
터보프롭
소륜
##긴
노포
##럭스
폰트랴긴
카이토
박지수
유비퀴틴
톈궁
##로빈
##니코
난포
필름스
##좨주
##신판
역전재판
삼신불
판정패
한량
범수
씨야
소역
##신한은행
##여래상
##조에쓰
칼로얀
현송
요리스
뤽상부르
나츠키
극대거성
전등사
방시혁
##헬스
칸세코
이궈달라
페르구스
리치먼드힐
윗수염박쥐
안와르
호재
일갈
다쓰오
할로젠
삼각함수
엄수
아시모프
##레토
이등변
흥망
지형도
파쇼
주적
호커
통신원
##유림
고궁
다이슨
클로즈드
박천
닮음
자평
##가장
여집합
무계
##비타민
주소록
구대
보유국
##용소
부절
영평군
배령
박순
효창
고령자
표면적
재전송
피사체
만조
##비우
판촉
소이탄
인기리
후쿠도메
무생물
서제
우정은
##추기경
허혈
관상동맥
##경지
금욕주의
림프종
##포한
국어학
전기력
왈롱
개운사
튜바
##겉
리히
카우프만
##젤리
탄수
방송망
렌트
팜파스
##레타
주심의
노점
##산시
어수선
##헤로도토스
##희생
득점권
무훈
색공
무중력
##공시
밤베르크
##자로
파레
삼민주의
##북군
대장간
최인규
차지철
중앙청
보세
##세제
상무부
닛신
신당동
명태
멍에
하태경
비글
보초
르포
장피에르
플로지스톤
사보타주
미치광이
##마노
뇌전증
파괴자
유천
##계사
무조
주데텐
과대평가
베르베르인
##블라
영응
리우스
카리알라
모티
툴민
정향
니네베
테르미도르
김녕
##금지령
총사직
광수
친형제
회의감
병보석
신문지
기내식
진일보
##고트
도라지
만덕
##선종
신소설
쉼
자숙
헤센주
키패드
감귤류
궁내청
문고판
포린
##이슬
##장년층
##누르
규산
이정미
랭글리
로게
다카토라
경포
레카
앙겔로스
반독립
돌방무덤
##판윤
열핵
김해군
##오락
뒤르켐
크로이츠
경원군
칼마르
양희
아리사
장황
##륵
양익
위중
##논어
함풍
중가르
황귀비
야지
주에쓰
명현
설형문자
##걸로
시라토리
블루베리
##북아프리카
배서
구월산
스쿠버
간병
비웃음
복강
노지
개면
신우
##마츠
먼저
운동화
에사
경부고속선
고갯길
어영대장
홍인한
회전력
##파고
에미르
##합의체
원비
##공채
능침
타종
민정중
인허가
국방성
##구회
경술
보배
##중점
민혁
##육사
##부관
김종호
##중식
수트라
##正
##시라카와
인디안
##서점
##목장
한지
선재
로욜라
##벽돌
##경학
현모양처
그레이하운드
한노
자이드
##공제
##박수
합문
예레미야
구원자
하이에나
겹잎
로마냐
이리나
##플릿
체세나
샤를르
##컨티넨탈
두레
##성각
하람
원시인
내장산
땅속줄기
생멸
갑주
##계투
리듬감
##우산
##사제단
##텔라
##리본
팔랑헤
근육통
##스니
##로어
요독증
셀레
탈구
##동항
이상룡
장택
후불탱화
검시관
이정의
원추형
과속
##루마
이민하
타브리즈
타운젠드
##엘비스
스킨헤드
크로포트킨
샤오미
편각
중재인
문두
니코스
##수년
##오슬로
좌리공신
만년필
연두색
방귀
라이노
브라이스
진양군
고당
약탈자
지모
하이파
잉글리쉬
휴버트
블루아
타보르
##리걸
비뉴
페르세우스자리
난치병
함창
용화사
된소리
흐멜니츠키
이종인
##웨이스
아슈르
사각지대
피를로
##바타
##상법
##사이먼
히구치
##게이오
낭관
##초상
옴스크
장리
벽암
만돌린
##시치
사진사
반사율
슬리퍼
철길
물병
섀플리
증착
경찰대
재배종
강민호
고드프리
야하기
##미타
##매니저
히라쓰카
해양판
넵튠
##쿼
미치코
환부
산골짜기
보퍼트
라토
간인
볶음밥
강서군
제일모직
##토렌트
노리오
줄리앙
산탄
리먼
##응교
뉴트
피가로
동흥
의붓딸
캐시비
드로이드
스노든
헤이스케
##실업축구
변연
티타
마사타카
샤쿠
##홍문관
비늘줄기
함흥부
해적판
수송대
태평기
승용
눈매
##코미
핸드백
##니콘
헤이즈
시모다
러츠
해즈브로
숫돌
##아스널
##주서
오동나무
하툰
땜납
이탈리안
##검장
베일러
오쿠라
향토방위
위저드
박명수
##포토
사기죄
##엇
##레딧
응룡
계필하력
사마타
뚝배기
휘틀리
툴라기
중완
이광리
이시바시
카스페
전식
알릭스
뮤츠
에스트
메틸화
##도라에몽
다나구라
유리아
모식종
무착
잡염
감로도
벤티볼리오
##플라스틱
척력
와동
구텐베르크
##일로
##재임
지점장
산리
파프
위궤양
만우절
이진법
열용량
뉴스그룹
포인팅
자명
폭압
복벽
##노름
치누크
사대주의
광개토왕
하전
##원동
방응
독음
단축키
유사성
가가린
지다
마쓰오
##인체
아모스
블루버드
이덕무
초유체
##따위
계한
##상전
맞대응
중구역
황장엽
국방력
사리원
혼사
폐병
복호화
기전력
##컨텐츠
##영화사
##테레비
컨베이어
화투
방부제
##소음
이궁
개괄
헛소문
##팍
철쭉
순검
조바꿈
라살
브로민
##우월주의
락과
##양용
콕
전승은
산형
크레올
로마나
##번개
##동도
하향세
수여식
자간
키레네
##오치
##근위
장음
배음
시신경
##소멸
발레리아
##러시아어
정축
부산직할시
럼즈펠드
설전
콘트라베이스
겨자
영진
치명타
반말
정진석
##소도
세지
##섹
##샤르
베누스
오도아케르
##수십
##아우구스투스
브락
케나
아펜니노
##카토
장칭
정처
백담사
사호
수난곡
지브
불치병
수요자
##실바니
응집력
##발드
##생태학
들쥐
정이십면체
##마술
중간체
도메
템즈
코나
##제하
무증상
근육질
부르주
참수리
##차단
백가
삼문
한약재
치악산
바이올렛
망설임
김대
신부인
정비사
긴급자동차
멜로드라마
모랄레스
투아
편찬자
김성환
##알렉스
유득공
흥선
국사학
아그리콜라
디오스
##핫
##콘스탄티누스
단성론
트라페주스
크
山
인질극
저출산
##개관
##장만
##이바이
##돌방무덤
##주말
종군기
몹
헤이드
##백성
대무신왕
동촌
변고
암약
##경유
##미어
에너
북만주
교통로
토리당
절충안
이시카와현
후쿠이현
이리듐
갈
##양이
파미르
지운
교육장
영남학파
##광저우
통운
춘당
사장교
비룡
##안사
덕산면
가려움
화병
친러파
밀지
조대
체찰사
남씨
무량사
문헌상
여인숙
호소에
##암장
농간
형장
호산
인평대군
마르티나
##카시
근정전
박공
뷰티풀
뉴햄프셔주
십국
징병검사
비선
신영
##숙명
중추원사
##농어촌
##무안
김천일
카멜레온
##아트홀
음악학
쇼고
##토르프
##피르
인술
초가집
##지묘
##중반
연인의
##다리우스
콰인
코크스
야키
구봉
스피츠
##르마
부크
조깅
어
서법
호타
교외선
##김포
속사
목본
평공
##침입
방연
백련사
##진위
크레스
발사관
배정은
지연전
간이역
##추후
장미꽃
줄루
##어계
북보르네오
##우아
##멕
타르트
##오바마
이선희
떨기나무
일리야
##공작대
진술서
돈오
##바레
사오리
쇠로
무결
번역자
엘르
카밀로
팔레비
리알
관음사
양피지
아마존닷컴
##중앙은행
사이렌
파이살
##바카
구체제
##국판
타시
바스티
샤키라
격구
원혼
인수대비
르아브르
이담
내왕
도타
리모트
베르사이유
로어노크
당진군
클라리
에버퀘스트
##비토
##카도
##만구
감시자
진식
##신구
공공장소
정벌군
##라미
카시오페이아자리
보문각
오바타
베닝
##포머
마르셀로
프랜
와츠
레너
클라우디아
랜턴
##효자
뤼미에르
저속
##잉크
삭
특례법
카리나
찻잔
##미안
카트라이더
소쇼
테오토코스
레판토
개츠비
몰레
미들턴
##사수
허슬
아티야
크로켓
초간본
그란데
스타제국
##법수
##테크놀로지
묵돌
연운
내명부
슬루프
시뮬라크르
조양호
트래킹
나카요시
##피로
##토포
키르허
흰자
켄이치
코널리
추밀
비그
김진욱
브랜던
온톨로지
슈프
타이트
엔조
마사이치
쇼조
담보물
다우닝
카세
가와이
누란
##스탠
클레오메네스
쌍분
신각
##주재소
베를렌
##대진
극락왕생
가트
보조인
여교사
연꽃과
산기상시
바네사
좌회전
高
아비투어
정빈
충각
텍시언
엘리미
##체력
정온
아트워크
노치
이지혜
양준
접공간
악진
버터스
은해사
멜라
메자닌
피스트
코고로
마크롱
트랭크
화흠
##컨더
소토보
팀리그
긴꼬리
이나즈마
카를만
##팔라
##조각사
안드로겐
계합
광록훈
발우
뮤지얼
덴오
앙페르
다스림
상훈
쏘
윤석양
소회
이종걸
대서특필
물시계
아이소스핀
북풍
##문공
동고
메르스
문화제
도봉산
쎄
##구릉
북악산
할인점
정안국
##대니얼
올스턴
리제
일색
차동
##분광
##진항
호혜
선실
재경
시기상조
용공
주려
기도회
운동학
비전문가
##경시
심리치료
피아제
##달걀
요나스
원미
아이비리그
고립주의
##산체
일터
##주입
증광시
장어
풍수지리설
녹두
철봉
기본기
유레카
섬도
오타와
에우로페
센서스
##네스트
혐의자
##패배
엘리펀츠
제리코
##필수
##정파
##왜곡
키르기스
아울렛
액면가
타조
랑그
마세
천수이볜
##덩
우서
펠레우스
친딸
챗
오정
상황실
테네리페
구마라습
김만
프레게
대제사장
##폴스
제이콥스
전시장
진번
사크
임페라토르
적법성
카노사
창병
저것
##금은
부하라
마하바라타
##선법
##임명
##독일인
바바리
다락
신생국
슬로보단
평균치
성례전
밥상
##사모
##생산량
##장보
깡
질산염
과산화
대수도원
외편
올림피코
파코
알성
진대
가부장제
##나사
임페투스
가요대전
##카노
감군
약과
라에
수훈자
##촉매
패스워드
시약
덩이
##소금
##성악
꽹과리
사찬
##도설
흥보
유부녀
##분방
##헤겔
신숭겸
대대로
격동
##지크
하이디
전자회로
아토피
##삿
크누드
레비치비타
빈고
호노리우스
분유
##동로
굴식
뉴요커
송유관
생리학자
소백산
##탭
열효율
레스너
##국보
건원
무크
차르국
##도령
에번
##테이트
입출
이운
##천변
영등
##금동
동대구역
애치슨
격앙
곤양
갑천
민군
파카
소행성군
김제군
선유
와디
##요란
후아레스
산당
차도
군율
영모
##전교
누대
가말
상북면
##율
##피타고라스
뮤리엘
군들
검찰관
소서
서울광장
정실부인
##공진회
약조
로바
비공
말머리
층탑
유키타카
학령
송곡
안리
스로
통관
비슨
복강경
##소마
수목원
##지휘사
사르디스
##시편
대부대
증장
유협
초주
##남극
파당
동량
하복
진흙탕
아나콘다
피카
가라후토
경첩
페트로비치
투탕카멘
##레알
작법
광평
신유
자미
기무
기흥
카무이
클램프
##식성
##누시
##장미
##나방
##젬
무아마르
두샨
울란바토르
제너
박희
통치권
##용의자
법의학
##진언
심인
뇌샤텔
##보험법
##정시
숙과
##트리오
프라이머리
베기
##사우디
데이비슨
매트리스
은산
엘가
##증식
삼성카드
몽크
라니
금부도사
정거
금고형
케이론
##민영화
##토마
귀중품
트랜드
##펜실베이니아
왐파노아그
회상록
##유타
점판암
악부
주디스
위장군
홀든
##선두
측백나무
소은
##호퍼
의적
변분
##러스트
인디펜던스
##연쇄
민방위
##팍스
티키
##요스
에섹스
##너비
맥베이
다마소
##우울증
치경
##에츠
##오모리
##휘트니
국토방위
하와이안
엘리제
알라바
##차익
보테
스카이팀
조광래
아드보카트
슈틸리케
##논산
##연예인
나프타
야쓰시
소보
교와
쓰쓰이
침목
텔루륨
훌리건
레이시
법집
식후
로날드
코란도
##리모
코바치
아리크
야쿠모
##심슨
분재
욜
방데
의랑
사졸
마산회원구
모크
승평
진저
재스민
무수혈
천과
면소
와코
이나오
카운트다운
스구루
씨제이
##헌터
##전소
보리고래
선외
티니안
스판
사중
##구아르
윤창중
갈라스
토모코
가쓰타
홀시
##만슈
레오파르트
##마력
장자연
집전장치
영당
마할
마텔
##전동기
요시타네
샤를로테
군형법
헨켈
유빈
백핸드
크래쉬
갑상샘
엘시티
##사이타마현
고가로
무표정
히로카즈
발끝
에니스
유키코
##보루
숙희
슈마
왕페이
나잇
##빌드
대성당
뒤틀림
##이게
한조몬
압살롬
바우만
카라구니스
푸에르타
##풀밭
바이든
스타테일
지라이야
##마츠이
완생
##리서치
양시
수칙
##칼륨
추안
손목시계
김민
고건
##외상
김종훈
명숙
##수학자
##반지름
##가쿠
슈와
스퀴드
최동단
상승기
##대법
##넥스트
##펜스
동양화
뢴트겐
연교차
##이스탄불
공화인민당
데릴사위
##당파
광고판
천리안
##학설
##유희
소수로
통신선
리누스
리진
스왑
망델브로
한일기본조약
확성기
##댄서
시단
##대량
여기자
아웃룩
##바빌로니아
##기술인
기정
##합회
##가극
김화군
##동지사
장장
발악
삼각지대
이맥스
총수입
슈지
아스트로
우가키
변별
불공
지성인
얼른
다카스기
디버그
해내
대평원
버밍햄
##도도
히스테리
구들
가잔
가라테
폭력배
##신청서
특파
##비극
생합
국제어
나니아
정소
##백신
##수유
스릴
감에
필수품
소선거구
##부유
다이제스트
베데스다
##대영
자치제
병폐
삼색
남신
구혼자
건진
협주
증오심
##판정법
등차수열
그리지
##취지
압축률
풍향
##색슨
채도
하저
비이성
##북동쪽
##난징
자기부상열차
인코더
팔마
원근법
자연학
##윤리학
음부
##키노
소농
홍수전
확약
펑위샹
조갑제
엄두
당통
개발제한구역
쿼츠
##자어
##민정
출당
서청원
##트윗
안내문
##루돌프
뵘
페트로프
군주론
민중가요
##월터
테베레
마리우
페디
사천군
전사인자
금장
등사
##대차
안정기
##합스부르크
루블린
스카디
박연
##레우스
사상사
뉴클레오사이드
마이컬슨
차오프라야
궤도면
신월
박문
##춘원
춘화
##형편
##이항
##안창호
김동원
사조의
성골
하마사키
공신력
쌍대성
##부안
시종장
##산식
##보상금
이운재
사직단
메주
찌개
남도
악학궤범
##면허증
뺑소니
##평민
바램
플래카드
안토니아
불새
다장조
구암
감탄사
들뢰즈
##핑거
강홍립
명조
##히노
##이성계
현도군
인스브루크
요스
포천군
피기
유스티누스
오스트로
오부
공통성
성종실록
##감은
선상지
사직동
감천
##해운대
농업용수
울산시
골몰
호만
토프
사코
질도
학벌
##웨스트민스터
##매트
기현
##성충
늙은이
##대덕
인시
두문불출
구사일생
박학
##보관소
##중앙아시아
수크레
##천연
기술직
##메인
##의성
##골키퍼
##교량
오카리나
화초
##리뷰
적미군
##파시
목포역
##수자원
##북면
비티
##단급
디온
눈덩이
피부염
이마즈
##업인
남원군
##기전
베시
조인성
동절기
어윤중
##학연
다트
##君
친고죄
##역관
조직폭력배
노농
##성명서
성재
비강
##人
자호
마호
랑군
##마찰
우범선
김병기
영대
서찰
창방
히데야스
다카시마
##재질
최형우
현철
##쿠보
마바리
알아인
##탈락
헝
위그너
##리야
##커트
##비스마르크
작센주
##방재
버거킹
신경절
아디스아바바
##출산
필립보
페사
지참
##발가락
잔상
엘크
##중앙아메리카
법인격
##획단
각질
뒷날개
요산
##힐트
##퀘스트
서삼릉
진궁
무경
넛
라자르
글램
상직
민왕
내리막
우중
쑥
##힌두교
절구
##재일
##공용
뷰파인더
장미과
프리다
넴
보코
키레나이카
##마조
##망막
아마드
##디브
성형수술
신선도
조직학
학무과
학승
이광
문어체
김석
아르스
이케르
##다름슈타트
##기관총
바이코누르
발보아
##가이다
누비
##카카
갈라드
홍우원
##익산
귀항
버프
##듀얼
손지
문혁
##로사
라코타
##보호관
주바
바텐더
웰빙
고쿠후
지쿠시
##시미
토피카
유아인
최경회
##트랩
능욕
셀리
상규
표기장군
맥마흔
미스트랄
아르카디아
민항
마사야스
칸나
다반사
마즈
페르세폴리스
통정
요사채
##이즈미
노베오카
패리스
저수지
미카미
프릭
연파
##코이
##리틀
란타넘
네리
##연합국
회전판
준코
요헤이
동소
유왕
가이거
베어드
##스팀
##타점
크라프트
##멘탈
첨가제
##출소
니쓰
앤드류스
##올해
김경문
스트라이프
##섹슈얼
태진아
유엽
##수염
임모
광양제철
##절단
라우렌시오
테르니
기부자
은하철도
건문제
태사자
##라토프
울버린
피케
장윤
고밀
더스틴
식부
##후반기
매클레인
##스킴
맹타
알리바바
루메
외다리
체공
##로버
##유격수
슬러거
말보로
안필드
아기날도
맥도웰
이의방
##선인장
##양홍
판옥선
##개막전
가의대부
복용량
탄닌
약실
패트리샤
##샤크
##서식
##기부
마벨
##헬레나
##구경
수근
##세츠
송클라
더샵
간노
통섭
수련생
청계광장
중량급
김용민
곡사
멩스
무과실
##디우
라키티치
고미
비클
##월은
최홍만
마카롱
진진
김은열
##강왕
엉
노다메
##법정동
아키노부
##쥴
시로이시
종도리
북량
혼유석
하둡
고법
푸시캣
리우빌
임이
창신동
포르트
생중
모전
##겐지
고식
쌍대곱
조합론
개수로
반대말
이해력
미립자
복원력
##편향
천두슈
죽령
간선버스
안타레스
##폐기
룰렛
폐장
코츠
양손자
##종결
##수열
드라군
브루드
겐코
라이너스
죽는다
논변
대소문자
비비안
건포도
##초점
화남
솔선수범
오비디우스
한계선
##노출
요시찰
혜화
마소
우주전함
삼차원
마아
헹가래
대통령상
유회
결합력
설산
학감
연모
정무총감
내정자
환갑
좌우명
##특사
복희
비등
##원주민
러스트
출판업
윤동주
나침
##길버트
##람스
##도기
정기편
서창
최재형
분발
천황제
##화제
뱀장어
##동체
##테니스
경자
바스크어
길흉
신성의
중과부적
##산둥
##앵의
콘체르토
덕아웃
밑그림
스모그
중양
계장
##항기
허난
##카오
디오니시오스
서반
혈서
##광양
영빈관
##투기
##비상사태
##우미
성완종
##아무개
가풍
신빈
웰치
티푸스
프리토리아
절찬
##클로드
기자재
오열
살인마
순연
투발
##핵무기
본거지
섹스투스
임제종
일본도
##훅
동역
라고스
보이보디나
알라니
##상처
대행자
명심
히믈러
각축
양옥
##생애
소논문
물증
갈로
하바로프스크
##글리세롤
혼령
##지원병
본위
살비아
밀리언셀러
##유권자
##바우어
##네우스
클리포드
##정정
아우구스타
수괴
속대전
아스트라
재궁
외대
정악
##반주
##현금
##악부
문덕
피조
스타일링
##정신대
人
동성동본
##평왕
게르마니쿠스
폴룩스
발전부
##발터
##산스크리트
삼베
##국지
면허증
올림픽기
부속품
##이에야스
단천
원령
차면
습속
유의미
연산동
남산동
호포
세계기록유산
회오리
북학
금남
행로
사르마티아
서형
치미
숭정제
##독이
##이슬람교
##地
번국
황포
일천
조나스
전제주의
합판
낙원동
##전시실
##정동
사질
일로
조선은행
##경찰대
합동참모본부
가규
##다우
용두동
넥스
##공여
각성제
카로틴
케라틴
##머들
##적십자
##애자
청평
천부인
신성군
##명신
상록구
증빙
결락
만월
용상
묄러
무성음
정난공신
참고래
##남방
와드
보도연맹
낙선재
세이카
이와이
##태가
##구금
##서신
광정
##몰이
##교육대
남행
장무
이두황
##탁지
##장안
누는
한중일
##홉스
베드포드
야마시나
건학
##과자
취침
거류
하극상
시이나
우스이
##평안도
합심
대평
중방
동돌궐
김문
에일리
두크
영불
세한
##구강
기저귀
##교육자
낭떠러지
개령
일진일퇴
범법
떡갈나무
에오세
사르곤
일부다처제
다르마
##브뤼셀
뇌염
##북극
레밍
다문
큐티클
마르지
인스부르크
러시안
장위
다우드
천변
##두리
핑커
삼거리
숨결
##스벤
라마단
바브
슐리펜
예카테린부르크
몬태규
##솔로몬
농사일
##레몬
브라질리아
수리남
뉴헤이븐
서봉
루시아
이즈하라
김철
북대
닥종이
양촌
신근
법가
요마
대형차
반사의
치카노
명계
##옥천
알가르브
맥나마라
쉼표
##이스턴
##금융업
크메르어
변동성
##창구
곤도르
바조
##백악기
이만수
석도
버텍스
렌탈
아그라
당중
연방관구
냉각기
풍동
##납음
김안국
델라웨어주
프링
모가디슈
배어
고쿠분지
겐큐
갤러틴
##명시
##육체
켄징턴
##원잠
##시로
뿌요뿌요
##부르고뉴
두아
노세
사금
##복스
파쇄
저족
수좌
페이턴
불런
아달베르트
##중원
##후쿠오카현
니콜스
땅속
##레우
고질라
아유
##모듈러
##촐
외선
##컨테이너
관수
##홉킨스
퀴니
친정어머니
##부호군
##출입구
보로메오
놀스
##포켓몬
박재홍
다기
##클레르
키신저
밀너
##대방광불화엄경
##쓰루
김성한
병살타
##준용
이지영
사장석
토마시
키건
정자나무
##안면
##대총
멘탈
##지단
##흰개미
밴조
미유
모터스포츠
무송
로타리오
노샘프턴셔
수목드라마
야스히코
##총은
특훈
물살이
봉호
김마리아
윤석민
샤티
##장례식
위니펙
##래스터
트래블
맥헨리
맛집
이승기
비델라
대물
##하바라
골든슈
엔디언
아슬란
구키
키치
나치오
이치고
경애
토폴로지
##일러스트
공종
이제이
테크네튬
진숙보
##찰리
요시이
미니스커트
##암초
##숙공
데렉
나크
##품안
부전승
노카
응방
갑상선암
##起
스프링보드
우드스톡
구동방식
피보험자
도를레앙
##어도비
나한도
리글리
##영업소
량당
헤이렌베인
밴더
전중
##복야
비앙카
근저당
빙고
미나즈
모로나오
땅늑대
대사농
루흐
##境
코무로
용뉴
루세
##이벤
김연경
아보시
##정류소
오케레코드
파시파에
현아
그리폰
최흥종
고이케
어틀리
요빌
배틀로봇
소방부하
어노니머스
##합사
##과세
분자식
방미
##쟁취
아조프
스캐닝
##고둥
##낭만주의
대질
##화장
집값
##구면
##피디아
법선
부르바키
보모
무한급수
##총생
찬드라세카르
구룡산
##일산
갈라티아
다마키
실지
통역장교
유리병
해양학
용질
양주군
##간첩
##침투
##밀리
하인즈
##안티
메이오
##발급
##클린턴
##참조
##환상
사인회
도배
모타
니시키
위병
최윤덕
##몰수
핵보유국
무용단
##제작소
콜카타
이갑성
방역
의식주
정족수
##파병
재야인사
맹신
박종화
애플릿
##델라
옥텟
의성어
카마이클
애니메
천문가
##오마이
##일차
짬뽕
스타팅
마쓰오카
조앙
지퍼
##미토콘드리아
##오카자키
##고령
겐타
농공
##용도
기후대
인후
##전문의
행자
최대규
필리핀인
호림
입실
음조
네발
라노스
유명해
냇가
셈족
페냐
생산액
갑신
파브리
##휴머니즘
하켄크로이츠
바덴뷔르템베르크
원단
##향이
케스
반박문
##서한
호레이스
킬로바이트
묘미
##력사
자영업
옌타
화인
고형
이슬라
##제우스
과밀
총경
통행금지
허경영
수설
쌀가루
##빨간색
권은희
남수단
키시
육촌
여광
인두세
핵확산
갈바
클레르몽
##재가
##징역형
비트매니아
최대공약수
레파
##왓슨
칸타빌레
간통죄
##중의원
입문서
##북유럽
도절제사
중개자
##기강
이당
제세
결빙
진주군
벤담
##멸종
라와
##노엘
볼쇼이
노신영
김상현
미납
근대주의
아낙
기착지
##아연
신리
탐방
##늪
##어부
조승수
##부총장
피노키오
어는점
몬스
수지상
보균자
체절
##의미
대훈위
##악지
의절
##경고
융해
모실
우륵
갠
바덴뷔르템베르크주
김광수
내몽고
학봉
##페티
##절리
공허
멜레아그로스
##유무
소유격
##신찬
##상점
##산리
##성왕
팔만대장경
탕평
비텐
##헤
살루
오케하자마
금대
##마누엘
세력권
해이
분출물
##상경
방임
##맹이
서운
##쿠인
아르다
##오른손
다카코
김영한
매켄지
##바사
도술
번왕
서고
##하
서사하라
필리핀어
##농부
고프
##교육회
교육가
광명역
##영남
##진역
금곡동
임조
아카마
##프란치스코
##옴
##시키
쇼호
브로콜리
유영경
세도가
졸지
장충단
송악산
성희안
혜문왕
북정
제보자
초군
##고서
헐버트
##잔치
무참
세일럼
흑룡회
계획서
미쿠니
##히타치
##생활관
##셀라
##삼층석탑
윤미래
아슬
주국
소작료
파트타임
##부사관
과인
우씨
김응
##칼뱅
위경
이사야서
이등
부역자
##통근
구세계원숭이
용각
도쿠시마현
##유충
박경
##안토니오
호경
태보
##기각
하미드
##수동
증산교
쌍무
브레이커
하더웨이
##수관
오르막
##망상
황지
손오
산방
외유
##코르테스
야프
날아라
##준이
유술
##셍
하브
창수
도법
만다라
복사기
##다라니
성육신
카라한
감초
김순애
진교
오프로드
티라나
필력
송라이터
굿맨
마이아
여배
코모로
가와니시
현빈
##田
울티마
##노론
종형제
크니스
##청색
필모어
##스톡
##나리타
사이코패스
정민
##번이
일러스트레이션
젠킨스
배턴
큐티
상주문
레플리카
주홍
보험의
피클
##후생
리팜피신
아후라
패왕
##마그네슘
자이스
드렉슬러
서든
등껍질
아스톤
효무제
##입찰
성과급
적재량
허난설헌
레이니
망월사
##아울렛
송현
하이드로
자시
##유겐트
도마뱀자리
심우
샤이닝
즐겨찾기
##발원
##누크
카밀라
##비석
롭슨
팔카오
스모키
컬렉터
##라히
구좌읍
스프린터
졸업반
비원
윤유
개미집
선술
와일러
아나스타시오
수아송
##시오스
피치니
노스트라다무스
파울러
엘릭
인중
##영락
윈난성
##디렉터
##선수상
봉정사
조진호
화염방사기
노선버스
케론
소대원
정세운
김영수
키타무라
아르마
최용수
기대주
잭스
##야행성
마켈렐레
##레디
우니온
다바오
##록히드
외조모
유키히로
신불
##스테아
블로우
모사드
스턴버그
##소매
제약사
저고도
헌덕왕
위리
구명보트
##도마
##낭중
막하
내구연한
그람시
켄싱
의양
하바드
도모에
##몸돌
브릿팝
##트레이
##도원
챈스
매덕스
알집
간화선
바예카노
디제이맥스
코러산트
잇시키
##나카무라
##개인전
카즈미
##마테
마일리
위석
##관박쥐
아드라
##전자전
스파다
##하타
케보키언
구찌
##적료
창어
카제
크라우저
장탕
팔상전
##붕가
석장승
아르드리
핀레이슨
쿰스
패닌
키나드
##지상주의
콜라주
천관
##백서
담화문
##도착
##골절
##역사박물관
##철거
실직자
펜로즈
초정
자경단
메일링
나스닥
##계절
중석기
사사오입
##요금제
##총조사
수락산
중부고속도로
불소
하벨
라르스
##항공우주국
이자의
문직
치노
독서회
호남고속도로
자금력
거구
##근세
이하라
메모장
##대백
템페스트
디스토피아
멸칭
반딧불
야누스
##축일
초대장
김경희
행정상
##서해
절대다수
##변조
##정본
윤취동
엄항섭
변소
구민
참견
들것
내부열
##승소
사고력
고키
균형발전
운수업
도요카와
##루드
향정
##약과
슈도
아다
놀음
##의류
밀파
##양회
슌스케
##해협
##포자
##쥔
단항
전공과
건원릉
산채
케미
##체니
현현
##쇼펜하우어
턱뼈
얼룩말
세린
경골어류
라자로
전뇌
다중성
마푸체
##풋볼
##보호구
산유국
##빨강
남북통일
천은
##주나라
아이아스
주만
불연속점
##원점
궁륭
스테인드글라스
##역사학
적자생존
눈알
##편대
델포
건양
광동어
히스파니올라
오리엔
발데스
##군벌
범양
고은
사석
##악은
롤링스
역주
##파란색
##뷰어
##지프
관리직
##러시아군
글러버
실험장
##린네
부스러기
조증
루푸스
관리도
케크
이정훈
##부동
내장형
금석학
탁본
리투아니아어
돌림
사사건건
수요량
##과잉
나이저
보리수
##그린란드
요르문간드
종장
활판
유랑민
치료사
이등병
사익
무르만스크
증조모
갑문
##천역
서빙고
##아마이드
무산소
카로티노이드
관로
눈초리
염상섭
##결핵
산내
이수만
슬론
김동진
아세톤
조라
화실
우중문
원근
급수탑
##그리스인
에피네프린
상실감
브륄
김시
##산진
무신정변
대몽
모용외
위략
##환선
검시
##경산
##코로나
##그릇
물고문
프로테스탄티즘
카파도키아
##왕대
용골
서밋
서릉
선암
흠차
주세붕
박흥식
서프
사업주
휴런
브램턴
광산군
##가든
사요
리사이틀
##전망
파소
월정
어르신
##가평
활강
바스라
클라스
녹조
##핵분열
이윤용
마사카쓰
김덕령
##달구
##보산
효심
사콘
진하
##감축
##함흥
일벌
태환
##정명
##국동
##조계
호브
##화해
개현
위징
양명
발인
데시오
오토리
##장생
##흥업
엔랴쿠지
히가시오
육군훈련소
선관
##협박
##요와
##국립대
##충과
석당
##관광공사
다이옥신
##군민
승주
##식물원
루퍼스
차치
역삼동
백양
슈발레
노수
관측선
##히브
##개전
삼손
식육목
##창문
##뉴기니
초량
총소리
부술
현신
뻐꾸기
고두노프
오를란도
라운
##바늘
크라머
##순이익
효공
의공
버팀목
장천
나자렛
##체리
전변
부임지
##다도
##탄광
##일록
오륜
합자회사
수송함
아크바르
##소규모
야신
##술탄
사모라
이라와디
꿀풀
콜로이드
염호
##관계학
장손무기
감투
염동진
##가단
랭보
윅
콩스탕
무르시아
##비고
##누군가
바렌
##멜론
##해적
머랭
##如
테우
야기에우워
##경성부
겸업
오부치
단발머리
임견미
강순
김희
왕규
##장경
##블리자드
기연
원수부
남캅카스
##챔프
##토요타
반모음
탈레랑
아우스터리츠
곶이
이마리
##노무라
명대사
##올리
여남
별동
도위
허도
무재
마요네즈
슈발리에
정극
정신과학
중환자실
키사
배당금
견적
##방목
애월읍
##지이
천상지희
이시가키
에메
##끼
나베
갑오
탑신석
카메하메하
안노
욕야카르타
급커브
빈슨
##영구
마이소르
가향
렌터카
정성룡
얼룩이
메그
##투게더
튀기
나타샤
하마도리
인듐
허베이성
갈구
센보쿠
뱅가드
스위밍
공수도
##일스
##플레어
##리엄
홍사익
넘버링
삼중성
##휴직
게이코
쇼지로
자카리아
랄리
##니콜
카라코룸
##스몬
조레스
손민한
다얀
장명
##펌
스테이시
##링겐
변사체
##혼마치
##등원
부분공간
산터우
민서
창주
##분담
##수비수
고시엔
러닝백
트벤터
웨스턴오스트레일리아
히츠펠트
리플레이
##원정군
##악마
라푸라푸
후지오카
##파토
##마기
배틀필드
중포
##판본
꼰
##라브
##월이
##라이저
팔콘
봉무
##젠더
탄막
시어사
카이텔
도로공사
케이코
스타터
다다쓰네
상팀
정배
비셀
##칼럼
골드윈
##연출가
오투잼
감액
스타인브레너
마스체라노
하후상
류구
소결
차호
가울
##전투차
니루
쿠레이
패미통
컴브리아
##치부
원동기
양치류
교모
주의의무
##피셔
아니타
배태
레이미
##테입
멜랑콜리
오오타
김이태
플레디스
경숙
프랑키
기아스
슈니첼
##알렉세이
파프니르
##괘불
비라소로
##출마
단주기
봉화산
정연
납골당
분신자살
등받이
##케로
배비지
연속함수
반중
하드론
우연이
층류
##사영
동예
##야대
##격기
단재
청계산
반핵
북사
여초
##체중
추천서
경제인
##스탠리
송덕비
보스토크
##구독
동속
##이기
주술사
잡화점
스타일러스
아라파트
중책
##통행
순풍
##범수
피싱
자속
메트로폴리스
그래피티
라카유
싹쓸이
답안
##유보
서정성
구심
티민
재채기
미명
대필
방사형
##첨단
하야시
학관
송암
##디비전
스크립팅
잡일
실리콘밸리
##탈레스
흥안
신아
뷜로
제정신
추한
영양학
##메기
##원유
##니콜라스
케르키라
건조기
##샌드
##로망
보드빌
위계질서
색체
카틸리나
키스톤
뭉크
재추진
고지도
피진
다년간
##남한
##국교
등한시
과한
노블레스
순점
엠바고
##토니오
##토벌
사회장
##장거리
암암리
##닉슨
##경위
크로스비
바에즈
홍사덕
추미애
존폐
김진태
남경필
널빤지
##증도
##하노이
임시직
가식
부하린
축재
##게토
##알렉산드리아
연수생
연설가
데로
미생물학
##메달
##속도법
호불호
채옹
라트비아어
에스토니아어
아르파드
병리학자
구유
말세
##돌과
회유책
##예종
라테
척후
##퀴스트
주실
감수성
##렐라
뒷전
##다수
체육부
김을
개인별
##지방산
##피루브산
추적자
발자크
총지휘관
알베르티
우르비노
보쉬
적군파
캐빈
김명순
노리개
발디비아
갤럽
시나고그
귀스타브
가스코뉴
##포신
존귀
우대신
도막
##근정
##메테
주원료
양조장
발리슛
비에리
적혈
##약원
양악
##정재
개산
찬술
총보
서유
##동리
##습소
함재
시토회
온조왕
##간선
대방군
신좌
쉰들러
##브리아
차로
바위틈
로댕
바람둥이
쿠스코
대항마
예맥
##리식
긴반지름
경고문
모닥불
펠롭스
왕호
아케미
무이
우제
##제원
##장신
겨울연가
침하
이지아
도륙
##집장
사론
부순
수대
##여행자
##치요
국원
##암사
대아찬
안배
조정자
원손
김준영
하문
건청궁
비빈
##건륭
감사관
##경인
##수서
아카디
게이블
##가나
전통주의
재취
드럼통
##뉴캐슬
마킹
종루
조선호텔
홍제
신림동
헌릉
충장
원룸
동하
허큘리스자리
발버둥
##성모병원
본령
##里
해안경비대
인창
휘석
정찬
딜레이
##스태프
마사나가
##전용도로
할로윈
증평군
미지급
식약청
단전
##관보
민겸호
국모
심통원
피스컵
남수
동삼
운문사
##신선
##부회
공선
별가
멸제
전풍
교육사
##간사이
오사키
총원
염탐
##문건
##획관
외진
군국기무처
소네
##윌리엄스
마사노
##후대
식민화
시스템스
노부카타
잇코
폐적
화곡
##로맨스
태피스트리
샤인
소닉붐
왕진
단대
브리티쉬
##사향고양이
알락
양생
##이치현
시나리
빅딜
극동건설
##부회장
##예비군
##여중
##인하
##연사
##니야
장진호
##사족
페르메이르
불가항력
##기선
일산선
##승마
음지
아형
천착
포어
에아
##파파
십자가형
이베르
사이프
왕랑
떡잎
광적
잎집
##샤인
##우찬성
희성
##카르타
임창용
맥기
소구
보어인
##벵
다리오
##자메이카
보검
바샤르
페락
해독제
탕가니카
원지점
미한
보문사
쓰시
설한
##명왕
엑센트
장문
록스타
강관
서향
시걸
다혈질
박열
나바테아
타지크
##석불
칡
열점
리페
##셀룰로스
##난바
사반
살미
다케시타
강용석
##수체
전성시대
##세관
내군
##베이더
프리크
진위대
##포테
소도구
##브란
##포크스
경성군
##산도
##동부승지
##웨인
##일원
로한
솔트레이크시티
흑요석
메테
버질
태업
피로연
##북아일랜드
대작전
성창
모각
성대모사
빌레펠트
등자
##도행
##게르드
##이와
##화풍
##도선
스냅샷
입법회
리키아
케이이치
나나세
피프스
세보
박승
요나단
모히칸
표착
##기재
##안철수
마곡
##발광
디램
파빌리온
##쥐류
개착
포트로
지루
나탄
##크비스트
카페베네
중핵시
기누
흑산도
고후쿠지
##코다
시실리
##트러스
박재
안처
테라코타
##유머
미방
간자
##정칙
##로흐
##서품
이사무
에쿠스
##패밀리
기셀라
수덕
성흔
롤라
##에리
제국대장공주
임안
장갑판
간간
야로슬라프
클로타르
살림집
##네어
코이
조종실
저돌
오장
수현
와스프
박병호
##차지
중고차
흡연자
커머스
상구
고종수
나성
##고장
##로카
##로고
해설로
우리스
다카아키
강정호
방어망
##퀘이사
여왕벌
브리크
반구형
토스카니니
##제작진
에드가르
##대림
모포
##아교
브로디
##플리트
이인영
샌드박스
노홍철
현가장치
##名
바주카
아나스타시야
쓰바사
용명
효왕
무카이
요먼
희공
에로게
브라우니
김기영
퍼블리셔
퍼디낸드
아른험
유에
아씨
서벽
엔필드
##이용자
##방파
청곡
몽산
하이브
##스트림
오조
##소드
진수식
둥충
해먼드
오관
발라스
라우다
여성복
쿨러
##미나모토노
드웨인
견인차
페리스
대본산
스마일리
스페셜포스
지진동
풀프레임
아우베스
##불선
편년사
장물
올다발
티맥스
와리오
교상역
모용덕
독발
호노카
심소
치홀트
모노크롬
김민철
##신승훈
##예테보리
매부리
앙련
운흥사
삼세불
우돈타니
감각질
미적분
띠지
클러크
도덕경
키플링
##키예프
프랑코포니
인접국
합성곱
##병장
책동
비네
##감마
##군론
신농
야자수
##대강
운요호
향찰
##음악제
열왕
태너
##비게
정기전
##창간
##집합론
로스코
##계발
중도주의
최장기
느와르
처녀작
수세식
총비
피바다
본초
유학길
박기출
의회주의
불완전성
슬리브
디폴트
##클라이언트
테즈카
행성간
##필로
##점성술
돌리지
책방
가미카제
장학사
혈기
##쓰시마
##이완용
만철
시찰단
액셀
##구두
트루타입
최희섭
전도도
루뱅
잣나무
##정경
야성
안순
박석
한인애국단
면면
헛소리
##척추
슈테른
그란
장대높이뛰기
심프슨
출생률
##리진
추언
갑자
카르트
주물
창조력
자유군단
소렐
필지
케이맨
피오르드
이청용
물소
란저우
##호스트
원추세포
이재성
비탈리
피나르
글라우
케르베로스
##장병
브라우징
콩나물
##그레이드
##설도
##현안
천지창조
##일간지
펠리체
골퍼
메가폰
##별장
편집증
후보작
염류
보유량
처조카
사제단
세력가
염문
##비족
##리족
##디시
성미
인격체
강요된
전왕
불손
박태준
목간
더들리
##부다페스트
##미국인
스툴루손
민제
연려실기술
석수
##성문
표장
과음
타박상
마르케스
##레시
현행범
정승화
패륜
##양행
##균류
톤부리
시지름
마의태자
엉클
##오산
유점사
세조실록
암만
##출감
어린애
방정환
뭇
요시로
초코
##연회
푄
구나
##접합
여의도동
비딘
##파장
에틸
##치킨
##가왕
히바우두
아래위
##세속
신풍
한음
서편제
용제
용재
고소장
항정
발전량
##죄인
##천자
##율령
##계보
도외
##상상
창틀
걸까
##자기장
##활성제
강원랜드
제실
##호족
암살단
##공격기
시즈가타케
지절
##길드
분쿄
태영
농구대잔치
##불행
##미와
##제전
위령제
소모량
##서태지
##조한
마취제
인천대교
궁기
마사나
정채
알과
##향로
이매
오서
신페이
윤아
##뤼네부르크
안토니누스
##리니
##농사
클럭스
칠기
##허리
##가축
아파르
칼턴
파루
직강
이종호
##용산구
폐관
사력
바장조
사창가
춘추좌씨전
읍내리
전천
대전시
문창
영업시간
사린
간분
브루흐
콜라겐
##모친
청남
##목조
목표달성
실재성
##정승
적조
카자르
##데가
밀항
홍섬
##상속
적당
지진학
##남부선
김기현
김명준
위문금
스크램블
강독
##유족
종법
재담
가가와현
오시오
주비
김인문
진신
위정척사파
유대치
삼가
콜로라도주
윌프리드
##갑판
국민신당
사이조
##에이로쿠
신림
러스티
자주색
##방산
##정선
##두부
수암
안산군
저탄소
함곡관
##원적
##린스키
오리게네스
디프테리아
배도
마스트리히트
##실리콘
정고
##구별
##미분기
네슬레
##베르나
비하르
게브
##원산지
공극
##나시
##하이트
라세
회왕
착한
##침례교
##우즈베키스탄
##석동
외사
이생
단성화
##기관지
추록
봉암사
보광사
맑스주의
##선용
안심사
밀물
##창군
##記
##편인
팔목
##다이아몬드
용담공
니잠
안드리
피낭
에르네스토
아메
##모로코
레위니옹
타이족
##인플루엔자
##파우
노애
##정토
천축
산입
주네브
게르니카
아브드
##이파
##능력자
미성
다각화
##세션
##대책위
원탁
즘
열분해
백골
차사
구로시오
##데코
관가
춤사위
추고
##빌레
이지함
정난
말버릇
독주회
김형
천상계
강간죄
경무장
탕산
사야
삼각형자리
궤장
남종
성징
##론알프
진린
퀴디치
은수자
불트만
바스티안
##관음
수마
##시즈오카
베라크루스
잉꼬
방음
##장터
참군
##당색
##포르트
테오도루스
##도카이
해머던지기
안티모니
리켄
데이나
현달
송대관
입스
시어러
##펀치
달걀꼴
##도부
탕구
호위병
경단
포니캐년
가젯
캐비닛
욜란다
##양시
여분
레체
신세기
욱
발렌티노
그리모
이카리
청동북
청렴결백
##톱니
노부오
서퍽
##왓
##사자기
사치코
패싸움
항왜
##가토
바스턴
지보
시메오네
##라울
##전반기
삼각대
메수트
철도원
##피그미
스퀴즈
라힘
귀고리
연질
가타마치
와쿠
몰리나
담력
야나기
##수제
개폐식
##바브
엘리너
스키드
율리야
##암행어사
세임
프로톤
아네트
태창
몬머스
미루
아이리
이수광
에포
아이카
다저
켄달
입주민
카추사
장패
한섬
아임
카리오카
링스
푸껫
오스위고
케노비
##콰이
##중계소
번쾌
##찬성사
쥬리
정지형
킹레코드
토리코
코모도왕도마뱀
신케이
비와코
구리하마
키몬
##산노미야
##캐릭
##울브
공권
급행선
호르미즈드
호타루
펄먼
신오
##금군
김대엽
서지영
도키무네
래시
선근
벨라로
한카이
실유
금인
단문
어긋나기
축합
소거법
하회
올인
연두
볼일
아드리
음향학
생어
색역학
프라우다
##동진
##쌍대
박철언
김기식
택견
농수산물
부영
싹트기
##발해
남초
미포
##동전
##가입자
유리수체
업주
##렉터
황군
반민주
삼척군
##대생
식한
반야심경
모비
팩커드
##영국인
##간인
##숨
##립스
##아포
수상식
카노푸스
몫환
연소자
여행길
##발기
##내각제
##장택상
##스승
##아우
따옴표
카울
내행성
##아카
오토메
류중일
##경진
##프리트
생김
에렌
##일반인
직소
##단백
최준
##학교장
##차편
이응준
주막
참전국
##미주리
바니시
벨기에령
직업인
니힐리즘
중뇌
작살
선취
은백색
불법체류
##공격수
파판드레우
##레라
##어문
##카롤루스
아랫사람
##권고
분방
비계
타성
##바이킹
톈산
##양제
노새
저소득
##제강
골머리
벨리니
##바나
조곡
총재정부
결혼식장
통솔력
망인
##지휘소
##참모부
##정회
자조
페넥
##가이드
##독성
앳킨슨
정운찬
##포맷
뒤집기
다임
아르페지오
##파네스
테살리
세바스
##중독자
내빈
김기덕
밀반입
고각
콤모두스
이밀
##법무관
안코나
주랑
양저우
조동종
브로니
##무위
바버
과다복용
##크링
초대륙
##세르비
주자가례
최전
##예비역
투로
소총탄
권두
오크어
고등계
원생생물
전구물질
호기성
제자백가
##리알
##징과
라반
발생지
오페라단
미샤
가름
김종철
##정역
풍토병
체위
양장
##작동
##포격
해성
흡입구
##원보
정백
##망간
통쾌
##만물
법흥
마잉주
영류왕
##겨
슈투름
오컴
##메노
리넨
영시
##초록
카치
생이
다년
윤색
바나듐
수소화
##창당
위정척사
정신대
##청대
의붓아버지
잔고
구노
최대급
##통도사
김수근
##러닝
##극과
##성년
##우측
거목
향응
송년
관정
시류
##취약
라우라
일인자
극락정토
탑동
병원선
경명
##배달
적모
윤제
소안
##감호
마르코니
##군지
동문선
베르데
##말리
물동량
마추
이등분
세베
텃세
##남서
석회질
##한방
##가속기
##수영장
가터
제스트
다다히로
##장량
부신
증강현실
##사목
##외무
참정
동장
##有
동현
빙기
##어진
아르마니
덕트
파서
말타기
멀티플렉스
귀신고래
##예금
##일전
##도관
##웡
##위장군
망덕
##센티
수릉
설서
서행
##공족
공족
##위도
부정견
##인현
장박
로섬
##병마
이갑
하네
간스케
구리타
예원
진선
간의대부
북천
##국면
가공품
##미녀
네스토리우스파
##사이언스
##조교
북예멘
##행정학
공공복리
시게노
판도판서
봉독
바벨론
알레그로
이레나
가스파르
밑동
주교구
##습윤
구만
주네
부싯돌
파프리카
테살로니카
키릴로스
카타리파
##뭉치
##햄스터
##연골
셀룰로오스
오자서
법화산
자이나교
악바르
##정형
##카르타고
##시학
말론
##지세
왜색
쌍룡
고한
대승경
차우
##로니아
주류성
##승은
바하올라
##해식
따웅우
물푸레나무
죽순
조선혁명당
근섬유
인공호흡기
검무
직사
##사파이어
##인공지능
##분위
문형
영사기
##대석
##알바니
구시가
##충신
강화부
황새
##장산
악티늄족
킨샤사
일손
##데이트
아흐메트
##쿠웨이트
배전
샐
산고
구자라트
시수
라데온
메르시
분서
##천도교
박하
##맨해튼
입가
##현사
##일리노이
메종
교방
##셰익스피어
생질
##탄력
푸르트벵글러
아데
##돌파
경험담
갬블
##소다
월요
##모테
팽창제
할리데이
예리코
작음
헤니
현대극
카나리스
사제관
##다라니경
마토
역무실
##상트페테르부르크
문언
고정익
히로코
요네
베르가
파이온
맨션
베아트릭스
##기트
##세간
돛자리
스피카
항성생성
##둥지
난상
역차별
체크메이트
##구입
##앤드루스
팔로폰
루카쿠
아세틸렌
임수경
오마주
계상
김진규
제주마
##리스터
관평
이트
토스터
반타
토익
와전류
##위너
벽장
앞바퀴
저글링
클루니
황개
채경
##오양
노숙인
후유키
킬로와트
대한독립군
이현승
케트
라식
##맷
번즈
손더스
세드릭
스탐
관음전
아이바
도모아키
카즈키
전학생
김동수
모스트
프레보스트
후크발라합
##직구
수형자
표면밝기
##카모
##피핀
토모야
럽
공감각
뉴스타파
데프잼
영매
망지
클리프턴
황남
오브제
##파커
##글라스
연당
대문간
촉감
##다이렉트
젠슨
##타구치
기비
##관심
오시카
서복
준지
향완
##세이부
##트린
보사노바
별서
미마
히사미쓰
##패왕
몬타나
주드
엘비라
클락슨
극영화
부조종사
클레이모어
점유자
리포지터리
순찰대
다이안
다케우치
곽자의
엔젤스
알이티하드
석종
쓰네히사
자궁경부암
##드레이크
##덤불
스탕다르
환매
동철
우지쓰나
##성유식론
호쿠에쓰
오우거
뉴크로부존
##명전
모팻
브래지어
카지미르
축생
프리몬트
레인즈
##애플렉
##이노수
판심제
퐁피두
##사자상
산파
격론
김영란
허수부
근사치
진시
스가모
콤소몰
##게오르크
편서풍
##위주
한남동
학사원
동부여
편심
자수성가
애너
##주대
끄트머리
축선
코스터
만요
태평로
호죠
유즈넷
##마르스
방위각
고디
##공작원
시용
고무신
##유진
합의점
활보
북괴
물레방아
암염
카일리
탄현
##날씨
역행렬
황도파
호남고속철도
##강성
##유니코드
하바
우월감
상염색체
아치볼드
클로닝
흠결
공박
김형석
복어
다카스
##주라
오점
등수
배비
김병현
지음
옥스
가솔
플로리안
작스
방해물
아목
계통수
##파라과이
달러화
대립각
풍이
양날
##블링
##신년
파르스
##희곡
떠이선
##자랑
구질
모나리자
쿠로시오
박명
##칙령
탄전
황무
파견군
##어간
##재상
##구문
재단사
갑골문
부침
##앰
소식지
선통제
유리왕
덕혜옹주
관세청
##소추
##떡
꼬치
##매킨토시
키노트
팬서
산업자원부
안간힘
호미
반야경
연후
북북서
태평성대
칼리굴라
만지케르트
배수구
##르보
##오네스
놋쇠
림스키코르사코프
조성물
투톤
##나타
야하타
발데
여단전투단
주독
##디어
하티
사군
언주
프타
완역
길인
기동전
나르비크
##사관후보생
보카치오
상투메
노니
##아테
조토
탁신
영양가
##파도
##항복
##개론
목덜미
실에
화개
게스
구리시
뮤티
국민대표
##사집
신경통
긴팔원숭이
선태식물
주사기
잠기
웨섹스
유효온도
스트로마
열전도
##기린
조혈모세포
대척점
대향
수저
누름
무원
##류로
로르
요한복음
##지온
동음
씽크
칼자루
##클루
잔과
터닝
##미생물
카밀
제시부
##목차
의무감
슈바
상계동
엔기
역신
미야지
팍
티파
가쓰야마
##디오스
초입
대추야자
인광석
산역
부전역
##예천
해물
대적광전
##교황청
자위권
보안대
외재
하방
##남동
케르치
출애굽기
천기
번시
뢰벤
의료비
##보이저
차하르
만주인
##쿠트
음인
##북동
직임
##평창
사헬
안달루시아
호크아이
숭실대
양진
약수터
봉원사
방범
방배동
##동맹군
산읍
초크
잔느
양동이
서대전역
대둔산
##다이묘
치카
무량
가쓰토
기우
왕봉
환원제
##실종
셀마
##베유
이하영
박제순
##파주
프런티어
##국제법
노구
중반기
서오릉
브라흐미
디언
준거성
행정구
대장인
##포획
##진보당
하루미
소철
포주
한잔
아교
류우
##병풍
경우궁
정경세
##시나노
동민회
이낙연
##난이
덴류
##모꼴
누마타
우송
##척도
대구역
개포
##포탈
문적
##판교
테니스장
영농
송탄
중서성
##오클랜드
갤
가젤
뚝
##예문관
##지서
##장조
논파
레위인
##부음
##표적
하수구
난학
델프트
알크마르
이종사촌
원보
장자크
##군집
졸기
##카파
알탄
##죽의
덩이줄기
진회
##레나
##곡식
##심역
##노시
주교단
킨텍스
천일각
##남씨
잡귀
앵거스
본지
이병헌
박세채
법경
조보
##호출
##진률
데본
외규장각
##마취
설악
매봉산
후환
적멸보궁
신족
##스스
교활
위험부담
##우울
##라만
라파스
물집
##가미
보보
과라니
심학
산가
##문구
##제현
자위행위
플렉
보충대
##수재
갈리시아
##카탈루냐
##구급
김훈
##르베그
뷔르츠
패리티
##칼레
##켈트
##레그
푸마르산
동통
미승
지로가
나스르
일부일처제
페아
쿠란
영상미
나병
도총부
##조반
##푼
신임사화
##계회
벼슬아치
타타르어
##우르스
군자감
노시
##비차
스트로베리
찬하
모지스
조개류
네스트
구개음화
속달
모코
피니시
##찬스
외견
아이코
보단
탄생일
만종
##안테나
당류
금판
성어
##치상
리들
나이젤
수송로
##오트
##홍수
전시품
프라이데이
낌새
해적질
##타미
재커리
##토회
##캐롤라이
물탱크
황금비
직례
오로촌
기리시마
##미카엘
트베리
시하
##펄기아
잔여물
예술제
##시문
곤돌라
조나
혼종
베네시
지슈카
##자부
부르고스
렛츠
나탈리야
빅토리아주
프레온
독수리자리
##소윤
돌로레스
죠지
롤스
노만
상의원
물음표
##서단
이순철
롯코
도허티
프리실라
기해박해
요우
현업
상림
##꼭대기
품바
각기둥
전력망
여승
김태형
##정실
슬러그
십상
아그니
##통일원
살리카
##정위
파이낸스
##볼드
티보
아데마르
##디노
젠틸레
##데타
동교
퐁파두르
미용사
##험
##농군
광량
포철
최진
둔기
보즐
우소
박철우
토카막
장원삼
##측이
고물
노사나불
쌍극
비거리
가즈히코
구니오
혼마
대륙판
##시행령
박현준
캉토나
자드
##진증
선재동자
세르베투스
안렴사
페트로브
##사보
다구
오브젝티브
이여송
어른벌레
##제너럴
김동찬
바즈
묘갈명
##도자
##밴더
스타일리스트
하빌랜드
##노르망디
야율아보기
괴체
##땃쥐
임펄스
##용병
##得
양어깨
묠니르
손괴
첨절제사
##양궁
##추밀원사
동발
##베이커
사급
프로그레스
심심
##스노
스코세이지
최연성
승자전
만타
가루루
인덱싱
포치
판초
##룬드
로일
##마초
쿠싱
뉴시스
도영
오오시마
모모카
탁발규
절점
에멜
동이교위
도촌
##비바
다카모토
비올레타
소리바다
토픽
##치료사
갑훈
##크루트
##벤더
##압축기
개복치
바르다스
##시스터즈
스파클
아즈키
##철권
산세리프
큐레이션
##개찰
무쿠로
나루호도
대승사
한국바둑리그
성재기
게지
##명륜당
승랑
##이은미
##백국
세묘노프
노선영
샤블리
현충원
분황사
미치오
##데니스
음극선관
단위원
정상회의
사례금
##산술
스칼라곱
가이슈
사활
디터
##뤼스
불변성
장마철
##특권
단임
복합형
##직류
비국
월평균
전달자
우면산
망우
세종대로
##룸스
표면장력
산화철
##자발
양방
창달
##소법
드라비다
셰어웨어
##핀스
파투
연인원
사카린
관계사
사루가쿠
##부모은중경
우체
넷북
요체
자의식
##이하이
한사군
국지전
북남
장재
중석
권선징악
윤영선
경천
조야
김덕룡
김재준
별일
안산암
파싱
연구개
재패
홀름
리버모어
극소기
##기상청
채식주의
하버마스
보물섬
초심자
면도날
##식인
총망라
패권주의
동은
즈시
접힘
장난기
##예과
내줄
재력가
##통감부
역이용
그레인
커틀러
관공
판공
라테란
마오리어
시스테인
##엘레
##물범
아말리아
레오폴도
##여인
이하일
수패
킥오프
이라클리오
##인당
##아도
간빙기
급선무
배서스트
임산
외포
나신
##황색
노바라
레지오
남슬라브
크로아티아어
기전체
최정상
##플레이트
##절제
아스클레피오스
장염
##구레
욕의
안식년
##광둥
##대당
저거
##타파
데탕트
행정과
조목조목
로큰
##톤즈
##경량
아이테니엄
퀵타임
도래인
##사무총장
##여권
##회생
##베른
필멸
대한해협
##시체
촬영상
학술회의
그레코
사비니
##의례
선선
김동삼
명진
후성
고동
불상응
##해공
암말
운송업
조국인
피데스
챙
사이안화
트리에스테
셰틀랜드
변계량
##박트리아
석제
프리아모스
나나
자연인
생상
나진
추징
환원주의
생환
강병
동맹시
슈체친
레리
볼라퓌크
비행정
##보디
##연을
병문안
신문학
키친
주간고속도로
불응기
항해술
솔방울
이신론
취성
토틸라
##격파
##양조
##이산화
월대
일곽
판문
##거문고
우롱
위약금
고국원왕
청류
종요
파피
사비나
##키미
초심
사케
##방크
콜롬
벨라스코
후지모리
예허
히미코
##마셜
주야
##시청자
##이호
이남은
김윤아
부암동
##포워드
바르베리니
##화운
몽드
##프린스턴
상업지
무역업자
두벌식
원성왕
냇물
지타
계룡시
덱스터
에어하트
##강희제
##연호
##보정
오산시
베수비오
헐어
도동
자카르
##해변
주홍색
비키
소공동
궁호
한천
##만리
서교동
양재동
##다이빙
##하사
도참
어장
무진
##켐
##차량기지
가부좌
##섭취
직비
##스트레스
##농가
팔로마
콧물
병균
배필
비변
훈신
홍가신
돌계단
포루
부루
경덕궁
북한산성
노산
혜빈
야음
동학교
시댁
워즈워스
##임정
양유찬
실어증
스미노
##긴키
씰
경대
급체포
대통령실
##현대사
##위관
수월
##법학자
영친
이항로
소두
이여
각사
##화문
황태손
황손
사다요시
##산업은행
강충
행전
대회전
갖
##지학
##과대
미동
춘절
##미술사
올덴부르크
벤쿠버
합기도
김영진
전야제
김숙자
불효
##연천
일용
블로흐
##파스칼
##기행
신성모독
티피
측방
코커
##양은
##스콜
##이빨
타액
건조림
##문학관
석간
##자니
시오니즘
잘리
눈사태
##북서쪽
해원
니벨룽겐
겉씨식물
반인륜
경재
##행장
바위산
봉은
우하
패만
강안
융커스
내속
금교
종소명
##약정
소코
알피
요통
##광과
에어아시아
반어
보고타
##토아
케디라
액시온
산포
남화
##법위
접합부
스테인드
무쏘
티라
급박
미고
캐번
암스
엑스레이
종려나무
파계사
국내군
코레히도르
바이슨
##니엘
##김정은
칼루
빌헬미나
최유
최영의
사은
점장
관속
국본
##공천
유료도로
맞춤식
등변
##캅카스
콜베르
한솥밥
바스토
##낭청
바라스
##넬슨
영주인
전속력
오노노
페이튼
왜장
##첩보
개빈
멕시코만
차주
부적응
민달팽이
장초
염가판
레반
중장기병
##징시
유인궤
##카다
벤투라
##세일
유거
고위험
구직자
##사육
쓰레
헤링
총기류
##안청
이글레시아스
자르브뤼켄
하이데
펠리피
윈프리
피카딜리
올챙이
파밀리아
글린
스트랜드
시모키타
사면체
##권파
둡체크
군표
서약서
구함
데네브
레다
##용자
초콜렛
그레이트풀
선취점
##직행
베텔
재닛
신스팝
임원근
띠틈
무작
도요히라
신드
적도면
이난영
한림읍
##협곡
강어귀
악비
##최강전
안토
조아
커팅
백린
마법부
오버그라운드
문숙
요시히코
##카툰
##키오
쿠릴타이
그레이시
##런드
##연동
가즈노
도모유키
스트레칭
지롱드파
세인츠
순회강연
##응원
##선진국
철벽
미륵사지
홍성흔
울돌목
##연예대상
룽산
욕천
호리우치
다쓰로
미쓰오
후지사키
##페가
라우렐
##코비치
휩
##전등
페럴
명천
단열재
##콜로부스
##오가사와라
여천
중종실록
에레트리아
치아키
다카사고
난터우
공격대
##제물
숙인
##접대
##원격
정릉동
행재소
##습작
바이퍼
김정열
니시닛폰
유항
경남기업
변형태
##스다
익대
##관측소
조관
##지스
후군
##더프
루제
히즈
##포트리스
마에하라
톤즈
##클론
신디케이트
##메이드
슈마이켈
##오웬
히긴스
고도이
에그
적립금
니컬러스
스케일링
배엽
##챔피언십
베슬
##사공
주령
정통제
유로콥터
##웹툰
도류
골드스미스
나환자
##썸
단노우라
##콜론타이
모리토
포키
콜게이트
미닫이
선더랜드
가충
비보이
외명부
산로렌소
르브론
다카토리
산신각
##티메
사쿠라바
세일러복
원연
택멸
르비
노브랜드
벡터맨
조르바
##판임관
바넘
무고무
다카야
세키레이
시엘루
베네타
고세이저
안촉
현양성교론
패블릿
##나무타기쥐
데모크리토스
##구시
논문집
황종
마네킹
지렛대
막노동
연철
보호기
##고든
고학력
중앙값
리브레
사분면
##아이작
담지
교환법칙
##설상가상
수리온
가동이
미래형
무임
방증
가회동
##돌프
브리짓
규준
재배열
달구벌
##비유
산업별
산별
분명
##고압
악세사리
비밥
선성
막간
최승희
세자익위사
##외가
대농
거류민
도시민
정당법
집행자
##시술
광물학
원시별
네모꼴
헴
투타
핫도그
엑손
한울
##이즘
불령선인
개량주의
혐의점
선친
대구선
걸이
황실전범
마쓰카타
대동소이
지스
##퍼티
상외
##무오
엑세스
철심
삼상
투치
이즈미르
교비
문학계
##스스로
폴리포니
단량체
그레이브스
뇌간
임파
##포진
미부
지리서
##료가
아케이드
##육지
선캄브리아
물라토
임원진
문화주의
셰르
유신론
음용
연대순
샹젤리제
타자와
##비늘
보색
감산
얄라
분담금
##진정
주권국
##조형
존재론
교설
중주곡
我
##휴먼
동맹회
보로딘
자만심
부가가치
##훈련원
##시일
겉면
김영선
정체자
상존
김영춘
##쇄신
토착어
양조업
김만중
##스파이
뱌체슬라프
독소전
##교직
애창
소림사
##치려
승세
점성술사
득도
토하
임동원
마드라스
벤딩
##남면
##소바
##국유
모하치
##섭정
가스실
세노
올란드
스릅스카
이징옥
눈병
매개자
아비도스
잉여가치
캄푸치아
난산
연희동
##평이
메가라
바쿠후
선천군
추심
김억
낙산사
천은사
수림
간섭무늬
방수로
부르주아지
산릉
##결핍증
거소
포도원
갓난아기
역산
##서드
락스
탄산염
##호이
산야
비빔밥
##비파
##악사
##장고
망실
진용
애로
발색
##오바
마우리치오
##쇼인
##추이
수장고
택일
소수림왕
재현부
암브로시우스
하틀리
아코디언
##연주자
유랴쿠
신국
경론
견책
재보
관산
##헌종
패수
맹서
배송지
신세계백화점
소백
##아디
뇌손상
##위나라
리큐어
##놀
알천
홀아비
몽진
지소태후
추포
여상
칫솔
광덕
오거스터스
##주세페
돌연사
윤택
국경인
##좌명공신
프랑스어권
##밀집
##금기
에스테반
##프랑스인
하심
악정
##유서
##가산
구덕
태일
쿠즈
안무사
극값
##겐로쿠
발전차
서국
좌대신
유청
은전군
동풍
예빈시
동구릉
이기의
일회성
##문중
오오츠카
맹아
창족
##거인
##축하
화산군
처결
##황태자
조두순
폐정
##박영효
유문
##주점
용마루
옥당
감나무
정헌
##무학
친영
##于
동문수학
##이노우에
승서
총판
##가전
##시간대
##병역
손자병법
가나야마
愛
학보
##유스
근화
##객사
기반암
명장면
##성고
##토목
##휴업
##커플링
일밤
페테르센
##언론사
여선
##외교관
신명기
비엔
청구서
##중립국
청서
사슴과
교두
회음
##사상충
##셀레이
##용적
##무도
만곡
천주실의
조적
아유브
행주산성
##남양주
서운관
바소꼴
##전문지
사창
망대
정충
##봉화
##박람
##운항
##영산
##모란
올루
##페러
##로아
주전파
행동력
해나
아지즈
농업부
오방
정종욱
리워드
피서지
브롱
기상천외
신통력
그믐날
제게
반송파
미원
##볼로냐
##포스터
##김천
##카메룬
세하
##데시
카우츠키
모선
##이루
##새뮤얼
##헬리콥터
영애
##원정대
김제남
이름자
##스테판
김창집
김귀주
대원의
##종명
플러싱
도트리슈
실패작
아말피
퇴비
네바
노스다코타주
안현
회재
차운
개스
##소켓
에돔
암브로시
##유장
호레이쇼
세포독성
황비
자케
##출옥
박진감
보울
대마젤란
##림프
털리
아이카와
킨타
금원
서배너
애리조나
디모
카베
애니스턴
폴리나
##조르주
펠러
##울트라
와치
스넬
헤시피
탱주
공중분해
##성폭력
##보그
##책자
아바카
승군
##모금
큰키나무
오승환
보로네시
##아틀레
##계획안
##사방
인디카
보닛
##전향
가즈요시
벌크
열팽창
응소
로렌조
##미경
##텍사스주
덩굴식물
조천읍
환경영향평가
##예르
天
書
서첩
식쌍성
식전
와이너
##데린
보스톤
애버내시
자라이
노근리
##마법사
구난
##시아노
##모와
전례서
머시아
귀위크
##카를로
아텐
차가
##파르마
관찰력
토벌전
안당
유치진
사기꾼
튈르리
리핑
##스펙
출계
##류리크
바오딩
유주자
##법명
우드게이트
##소동
박종훈
이용규
굳기
황재균
감한
##후난
록산
운중
서돌궐
최단기간
미나카미
건장
기토
##홍익
##베이비
##아종
타짜
코제트
##모니터
출하량
이격
응사
미노르카
남량
재블린
만수대
유혁
로슨
유도전동기
##출발
에델
트랜스폰더
코요미
야코블레프
자유과
람보
페트르
메세지
##펠리페
##프리미엄
##예선전
재신
이영자
아오모리
레늄
영규
보좌주교
##형주
##양위
프롱
에이든
##녹사
##추류
알로마
##페르난도
##제티
##치역
석포
엘리자베타
룽게
베이지안
##경왕
네미시스
한왕
##향로석
##후견인
사진부
파일드라이버
크라이나
풀모
보브
이즐링턴
드러
호리카와
히데모토
##일본국유철도
어린순
오버클럭
계왕
##무차
##카츠
스카일러
전기철
캐런
박성균
진선미
올라주원
루치펠
베어너클
전기자
폰즈
타카오
윤종
레빗
쿤타
회향
요나고
빙정
갈색빛
스톨러
##단변
##선근
대문채
##생화학
탄도탄
인트라넷
나츠메
##퇴서
감사원장
중앙수
답변서
가짓수
##시몽
유치원생
##출고
쿼트
외동아들
반식민지
무문
백억
독과점
증산도
문인화
사망일
차산
슈윙거
##중학생
일거리
정몽구
털사
초경
슈워제네거
마이크로컴퓨터
침샘
##집행정지
속간
인민혁명당
누르기
불가촉천민
##미륵
바리스타
인공물
우수리
예성강
토플
둔포면
백관수
피난지
보태
중상모략
흑막
백낙준
김지하
대부호
##마흐
휴재
##기타리스트
중식
암페어
인지의
친연
한독
이인수
천진난만
철망
앞산
##트라이
##정렬
미리
##알래스카
##문화인
크래킹
인민일보
세우
인문계
죄형
동청
유묵
아다지오
정본
##코피
##생합
야코브
루시엔
정어리
오베
체커
양당제
오리너구리
도나우강
니더작센주
카시오페이아
어림
중세기
특허법
수묵
해풍
카투사
군사비
빈민층
역순
칸초네
모아
##사탕수수
바야
신경제정책
##흥청
박동진
귀경
##기류
식산
자이브
##민단
##문화제
##해소
수동식
##케냐
페일
홍합
다다이즘
에드문트
세묜
지노비예프
레오니드
폴란스키
바실레
회화사
##로타르
파비우스
북향
##심지
디오판토스
##벨라루스
유건
##영작
유전자형
패들
##음악사
다성
고정자
##노니
##프로이트
##송환
시빌
장영실
절제사
육진
맬서스
하이에크
학문인
보첼리
아열대
노동계
기무사
케토글루타르산
과산화수소
교잡
베르니
기마병
문치
픽처
보르고
장지연
##요령
면학
책장
금선
키쿠치
방장
경향성
벽난로
용무
수원역
특례시
카시오
##후시미
불신임안
가제트
광맥
한해살이
담기
가자미
여회
고본
##안료
조색
최신예
##미륵보살
##서남
전심
##평지
##자아
브루실로프
횔더
케추아
노회
야와타
욱일기
자강회
##망원
이심원
비텐베르크
웬록
오라일리
아르케
야스하루
스덴
##키무라
대유
동북방
해부루
요수
체성
##광사
골드스톤
샛별
##지절
##당초문
##전진
천마산
영종도
서융
혁거세
노해
현성
상주인구
##바루
##력
##후스
연평
흥기
속말
##구루
피그미
카라카스
순은
##물관
방동
음넓이
##신석기
##기장군
분진
오송역
신협
##휴양림
슈메이커
햐쿠타케
김질
히스타민
독립투사
##소방대
덕진구
그루버
임오
##사림
투란
교열
창빈
노송
##처소
##회맹
활개
주다
김동성
후지쯔
남궁억
겨레
백방
대한청년단
박마리아
##횡령
닛케이
청초
설계사
##조아
츠지
노숙자
을미
암군
현록대부
비녀
##성제
##부판사
제일은행
##법정주의
##재개
계실
노리마사
##학상
세화
##맹자
##문하시중
비운
개관식
삼계
##양파
##장이
루아얄
과천선
기황후
근성
##공서
북극여우
오랑우탄
##리수
제일제당
참령
엘리먼트
##손녀
축문
##임자
페이저
아시리아
옛적
플라멩코
벨기에인
궁둥이
삼각수
리첼
##요크셔
점멸
래치
##흥미
##세비야
바드르
##원외랑
봉산군
공빈
모티머
##주지사
##말뚝
칠성각
##오리온
김태희
경국
설인
복음사가
꺾꽂이
##프란시스코
드링크
##스위치
슬랑오르
푸아드
올브라이트
피도
사구체
##수은
세크
상파울루주
브라스
브루나
이탄
개구쟁이
에버트
우류
현학
미쓰라
##튠
신마
##디니
##익스
##차종
네브
##부당
앨프레드
두러스
##라이어
사고전서
매지컬
헤브
산등성이
급진당
아소르스
벨몬트
할힌골
조계사
##샤프트
##접
경인방송
레제프
##파나마
아나스타샤
살아생전
송혜교
##그래퍼
##상장군
동녕부
대목구
칼림
한다
결원
##파생
뒷바퀴
브라운스
마준
브리검
그린빌
##理
서실
신후담
서머싯
틴데
요시오키
올콕
안뜰
교도권
순직
페탱
종횡
심판관
##후속작
뉴클레오티드
데보라
##얄
##음표
센트리
전차전
내레이터
위곡
##핑이
장쉰
번치
블레인
메러디스
오르세
##남양
##헌공
홍련
동브
방위성
리틀록
##더비
버뱅크
유송
전용차
산마르코
떤
##플루오린화
##위시
은지
바프티스타
복고풍
패트
착좌식
알폰스
콤프
봉교
스팬
중서시랑평장사
입단식
##아상
리바이
팸
야오
비점
옴부즈만
오브리
요시히토
하루코
웨이터
코스케
콜렉터
스토브
정숙
식칼
반변
숨통
마임
##개그
뤼카
각뿔
나비목
경양
스프링클러
측광
동소체
##위그
실법
모아이
전환사채
신모
발행자
카란사
목상
페르난
요세
삼강
주얼
손패
천하장사
질그릇
##대법관
산마루
나바르
곤노
이오케
타무라
박진만
포집
에버그린
인본
문제아
##차오
개러지
##루주
신덕
금동불
항아
선원보략
푸슈카시
파브레가스
도메네크
##가브리엘
##약제
함주군
죽창
오르모크
솔리스트
##연기자
차경석
정연주
소타
사략선
나바로
구양수
##水
통도
로쿠고
##두뇌
서재창
김영석
##산사
##난간
허유
田
박태민
##스목
수랏
적석
나운규
베인브리지
멍
##속재
##피겨
배리어
관숙
자위단
구상권
전자화폐
수후미
사가노
풍계군
북벽
정운호
이사미
황신
약대
산등
정홍원
메인이벤트
들보
하우서
방효유
스파이럴
강적
##변호인
료가
우부풍
##진하
##매거진
마창
사틴
요장
아카바네
##줄무늬
델마
다케모토
토모히사
핏사눌록
##중견수
야스코
가남풍
동중서문하평장사
피에스타
미타사
카라멜
##세일러
니시아카시
훗
단본
사마륜
##클래드
국수전
신상문
테무친
태토
보호처분
텐센트
##보살좌
타노스
진욱
왕궈웨이
원삭
생사윤회
##쿨름
게실
카봇
레지오넬라
룰즈
마사소이트
김교신
국토건설단
##화학공업
어플리케이션
변형도
시유
추도회
무지한
상도동
늑골
만평
##범행
중력자
자브
##모순
비단길
임화수
##사병
한국교육방송공사
찬미가
저작권료
노년기
관광용
호란
람베르트
##이사장
##세아
생존권
네이피어
초파
##회총
##유료
니혼쇼키
심비안
##키보드
권문
오주연문장전산고
아라비안
하야카와
아동용
공각
피콕
빗장
요양소
##중국인
짚신
이태영
##천지
별채
민주주의자
청강
북북동
전채
히로타카
통시
영재교육
지토세
##동차
건의서
##배정
행콕
##위체
퇴짜
단군릉
##민립
단성사
##친일
관류
달래
폰세
대초원
광역권
##평상시
상업화
외르스테드
정류기
##데런
##농지
사업단
양막
##라노스
##극복
서에
##디가
일리아
토털
조지아인
아르보
리엘
##바주
연결로
##멸망
침략군
재탄생
##트로이
##호메로스
##본능
결항
선철
후베
산성비
##철새
미조
물살
##곡집
바리오
군정부
사월
아라크네
##보통학
노부스케
##득표자
향미
##팬더
높임
조순형
플로베르
칠언
악파
사순절
링커
스탈
시코르스키
볼고그라드
맥퀸
삼합회
겐나디
##제네바
요동반도
##왕족
층위
탬버린
##노포
엘리아
늦여름
페트레
좌선
래핑
##보령
숭앙
열림
##서예
##획
##리슨
##스칸디나비아
아리스티드
신왕국
약리
전제군주제
칼리닌그라드
선전물
##회원국
박찬종
##명지
산토리
아이다호주
섭관
미노베
요오드
##학인
정칠성
봉선사
걸스데이
개코
효린
원내정당
##내수
전농
##스트롬
세출
나이오븀
##아르곤
담금질
맥아
하이네켄
##초안
고농도
백제인
계면조
##조도
범신론
비체
##협성
##愛
귀화인
캐비
천리장성
##군제
졸라
역사주의
##실라
아벨라르
##군주제
##연중
카드모스
##공생
개그우먼
사서인
##라키
호네커
슈베린
웅기
##하급
입사각
나리마사
한파
소함대
영웅전
##경부선
로드아일랜드주
##아핀
한솔
황윤길
호피
아쟁쿠르
##단도
##맹방
결막염
##축적
##베버
오류동
김포군
##몹
##유라시아
공병우
다다토시
산킨코타이
비게
토기와
성세
읍지
멜라네시아
해도
##생선
핍
응봉
##알렉산데르
현창
야라
황새치자리
##감독관
##반민
엄명
제분소
남류
##습도
김석원
##증강
하도급
##리어드
유도로
##초청
소택지
과민성
유당
연합회의
제이나
이정구
정묘
##전라도
##일수
##세자빈
지간
##참찬관
##추문
##파출소
오기노
주청사
영통구
##시주
히잡
대통령궁
갑인
도쿠마
영계
생육신
돗토리
효공왕
포경선
칙임
##조병옥
미당
쿠쿠
홍경주
장임
##산호
安
##국정원
비에이라
체납
밀입국
김좌근
시달림
입직
##채로
박세
음악당
